<unk>	0
<s>	0
</s>	0
▁the	-3.15939
,	-3.22259
.	-3.32053
s	-3.42944
▁a	-3.86312
▁and	-3.87076
▁to	-3.88522
▁of	-3.96163
/	-4.0906
▁in	-4.35037
▁is	-4.51997
"	-4.75268
'	-4.79235
▁his	-4.82695
_	-4.92908
▁he	-4.98799
▁her	-5.00436
doc	-5.00631
▁<	-5.01311
>	-5.01311
="	-5.01311
▁	-5.04807
▁with	-5.09366
▁that	-5.14257
-	-5.27805
ing	-5.29678
en	-5.34663
▁by	-5.39267
▁for	-5.41196
the	-5.45502
:	-5.50283
▁as	-5.51067
▁"	-5.51196
▁on	-5.5215
▁she	-5.54907
ed	-5.58347
▁an	-5.6257
▁who	-5.6471
▁from	-5.66909
▁title	-5.67437
ht	-5.68617
org	-5.68911
wikipedia	-5.70552
▁url	-5.70593
wiki	-5.70604
tps	-5.70627
d	-5.80896
▁has	-5.86042
▁they	-5.8849
▁are	-5.90684
▁at	-5.91944
a	-5.92317
▁(	-5.9392
▁their	-5.95206
▁him	-5.95794
▁but	-6.00295
▁it	-6.05073
t	-6.08871
▁be	-6.19328
e	-6.21462
ly	-6.24774
y	-6.27288
▁was	-6.28355
▁after	-6.31311
er	-6.31433
▁when	-6.32292
)"	-6.32621
▁which	-6.37847
▁one	-6.48104
▁into	-6.52192
▁not	-6.52348
in	-6.53015
▁this	-6.56915
novel	-6.5902
▁out	-6.59578
▁have	-6.65323
▁them	-6.6553
n	-6.6795
▁novel	-6.68946
o	-6.73302
▁up	-6.7374
▁book	-6.75413
▁life	-6.76174
;	-6.76697
▁story	-6.79018
▁about	-6.79181
▁new	-6.79855
▁father	-6.81133
c	-6.81188
▁two	-6.82012
i	-6.83639
▁time	-6.84105
▁man	-6.8504
▁where	-6.8745
▁all	-6.87831
▁family	-6.88014
▁been	-6.89531
es	-6.90072
r	-6.90394
▁will	-6.91238
▁had	-6.91697
▁while	-6.93704
▁also	-6.95622
)	-6.96368
▁other	-6.99055
▁first	-6.99396
al	-6.99515
▁world	-7.01109
▁mother	-7.01853
_(	-7.01879
▁or	-7.05838
▁so	-7.08646
k	-7.09617
▁only	-7.09941
▁can	-7.12501
th	-7.13647
▁home	-7.14636
▁being	-7.16631
▁years	-7.17875
▁war	-7.18069
▁young	-7.18744
g	-7.1989
▁find	-7.21388
▁re	-7.25199
▁de	-7.25345
▁over	-7.25948
re	-7.26011
on	-7.261
▁house	-7.27789
an	-7.28415
le	-7.28853
man	-7.28998
▁back	-7.29296
of	-7.29972
▁more	-7.3037
▁school	-7.30474
▁then	-7.31091
▁there	-7.31091
l	-7.32498
▁people	-7.32567
▁before	-7.34001
▁during	-7.34374
▁through	-7.3575
▁no	-7.35804
▁named	-7.37303
m	-7.3743
▁begins	-7.37741
▁own	-7.39254
▁finds	-7.39263
▁death	-7.4022
▁friend	-7.42858
▁day	-7.42935
▁help	-7.43439
▁later	-7.44639
▁love	-7.45208
b	-7.45892
▁himself	-7.46839
▁go	-7.46882
▁however	-7.48865
p	-7.49731
▁son	-7.50761
▁city	-7.51375
▁some	-7.51542
or	-7.52343
▁takes	-7.53875
▁old	-7.5414
▁becomes	-7.54147
ra	-7.54939
▁un	-7.55105
f	-7.55445
▁way	-7.56397
▁between	-7.57088
▁woman	-7.57465
to	-7.58573
na	-7.58734
▁its	-7.597
▁three	-7.59704
old	-7.60084
▁children	-7.62723
and	-7.62835
▁tells	-7.62855
▁wife	-7.62897
▁set	-7.63015
us	-7.63179
▁do	-7.63826
▁daughter	-7.64115
la	-7.64138
h	-7.64552
▁both	-7.65075
▁because	-7.65129
▁what	-7.65157
",	-7.65975
▁take	-7.66392
▁off	-7.6733
ers	-7.67767
▁place	-7.68034
▁girl	-7.68305
▁work	-7.70361
▁boy	-7.70695
▁were	-7.71208
▁called	-7.71475
▁doctor	-7.72255
▁now	-7.72646
year	-7.72692
ar	-7.73012
▁become	-7.73123
ne	-7.73435
u	-7.73795
▁well	-7.7385
▁how	-7.73858
),	-7.74029
▁town	-7.74489
▁brother	-7.7549
’	-7.76038
▁night	-7.76064
▁lives	-7.7649
▁under	-7.76724
▁friends	-7.76729
ic	-7.77441
▁get	-7.77521
at	-7.7762
▁many	-7.79004
▁soon	-7.793
z	-7.7934
▁end	-7.80099
▁than	-7.80416
ation	-7.80653
de	-7.80983
ion	-7.81491
▁meets	-7.81701
▁part	-7.81769
el	-7.82028
ro	-7.82071
▁down	-7.82138
▁eventually	-7.82228
▁group	-7.82229
▁away	-7.82472
il	-7.82506
ma	-7.82656
▁would	-7.84029
is	-7.84316
▁each	-7.84527
▁king	-7.85069
it	-7.86196
▁does	-7.86253
▁another	-7.86934
▁men	-7.87219
▁make	-7.8785
▁earth	-7.88762
me	-7.88807
▁car	-7.89245
—	-7.90175
▁against	-7.903
ta	-7.90969
w	-7.91402
st	-7.91728
▁e	-7.92098
ton	-7.92233
▁goes	-7.92356
li	-7.92588
▁most	-7.93049
▁ship	-7.93555
▁must	-7.94953
ry	-7.9504
▁return	-7.9507
▁like	-7.95144
ter	-7.95365
ist	-7.95845
ia	-7.9715
▁having	-7.97805
▁long	-7.9861
te	-7.99063
▁sister	-7.99755
▁around	-7.99806
▁living	-8.00229
▁parents	-8.00424
▁human	-8.00442
▁child	-8.00776
▁live	-8.00924
▁mr	-8.01018
x	-8.02045
ian	-8.02497
▁left	-8.02944
▁even	-8.02983
ie	-8.03302
▁found	-8.03722
▁killed	-8.04501
▁local	-8.04651
ch	-8.04783
▁i	-8.04794
▁order	-8.05186
▁name	-8.06059
▁secret	-8.06149
ri	-8.06452
▁police	-8.06575
▁several	-8.06709
▁if	-8.07684
▁discovers	-8.08127
▁much	-8.08158
ce	-8.0838
▁relationship	-8.08425
▁black	-8.08491
ity	-8.0871
▁just	-8.08947
▁known	-8.09005
son	-8.09278
as	-8.0941
▁whom	-8.1024
▁o	-8.10432
ke	-8.10484
▁dead	-8.10843
da	-8.10933
▁come	-8.10958
).	-8.11229
▁small	-8.1155
▁second	-8.11552
ka	-8.12047
▁decides	-8.12452
▁last	-8.1246
▁very	-8.13099
▁dr	-8.13615
▁power	-8.13616
▁comes	-8.14001
▁murder	-8.14203
▁husband	-8.14208
▁events	-8.1438
▁year	-8.14674
▁see	-8.15019
ive	-8.15209
▁together	-8.16262
▁including	-8.16358
▁high	-8.16547
▁american	-8.16646
ck	-8.16668
▁such	-8.1748
ment	-8.17566
▁la	-8.17985
un	-8.18246
se	-8.18457
▁these	-8.18489
▁former	-8.1861
▁land	-8.18651
▁attempt	-8.18793
▁herself	-8.19097
▁escape	-8.19315
mo	-8.19703
less	-8.20184
▁same	-8.20328
▁once	-8.21085
▁next	-8.21347
no	-8.21766
et	-8.21774
▁planet	-8.21887
▁until	-8.22622
▁–	-8.22667
▁learns	-8.23535
land	-8.23573
ism	-8.2361
▁along	-8.23711
▁follows	-8.23885
▁leave	-8.24171
▁tries	-8.24304
▁never	-8.24765
▁great	-8.2478
ine	-8.24809
▁con	-8.25072
ley	-8.25116
▁john	-8.25529
▁though	-8.26068
able	-8.26274
ant	-8.2632
▁meet	-8.26328
sh	-8.26593
ge	-8.26964
be	-8.27041
▁past	-8.27096
▁b	-8.27151
▁st	-8.27373
▁still	-8.27488
▁village	-8.27757
▁sent	-8.27914
▁island	-8.27931
▁whose	-8.28032
▁makes	-8.28464
▁d	-8.28613
▁leaves	-8.29231
▁little	-8.29457
ur	-8.29771
va	-8.29925
▁bar	-8.30026
ul	-8.30071
ling	-8.3009
▁mo	-8.30178
▁since	-8.30302
▁use	-8.30308
▁again	-8.30848
▁made	-8.30868
▁gets	-8.31664
ha	-8.31779
v	-8.31938
▁taken	-8.31992
▁money	-8.32151
▁series	-8.32204
▁women	-8.32578
▁london	-8.32717
▁may	-8.32947
▁ex	-8.33137
▁body	-8.33272
ting	-8.33894
▁travel	-8.34873
▁narrator	-8.34934
▁characters	-8.35003
▁k	-8.35075
ti	-8.35081
▁character	-8.35199
▁co	-8.35434
ty	-8.35518
▁plot	-8.36164
▁good	-8.36282
ba	-8.36538
di	-8.3664
▁na	-8.36694
▁p	-8.36806
▁lead	-8.36964
▁returns	-8.37353
▁head	-8.37389
▁any	-8.37581
▁ma	-8.37762
▁kill	-8.37927
▁working	-8.38126
▁upon	-8.38262
▁19	-8.38337
lo	-8.38397
▁four	-8.38648
by	-8.3899
▁job	-8.39024
ni	-8.39706
▁wants	-8.39771
▁al	-8.40296
co	-8.40313
▁mysterious	-8.40486
▁age	-8.4099
▁due	-8.41236
▁party	-8.42503
▁g	-8.42647
▁without	-8.42755
he	-8.42976
ve	-8.43604
▁york	-8.43639
▁person	-8.43711
ca	-8.43865
vi	-8.43974
▁falls	-8.44469
▁country	-8.44749
▁discover	-8.44929
ll	-8.45245
▁states	-8.45313
do	-8.45691
▁lost	-8.45706
▁could	-8.4578
▁society	-8.45974
▁room	-8.46063
per	-8.46116
id	-8.46117
▁case	-8.4612
▁white	-8.46329
▁few	-8.46436
▁c	-8.46604
▁best	-8.46866
▁near	-8.46902
▁'	-8.47036
▁battle	-8.47053
▁real	-8.47195
▁able	-8.47337
go	-8.47448
pa	-8.47692
▁li	-8.47979
▁run	-8.48149
▁marriage	-8.48259
▁finally	-8.48464
▁different	-8.4874
▁starts	-8.48813
am	-8.48821
▁government	-8.48907
▁main	-8.48908
▁army	-8.49067
ga	-8.49195
▁journey	-8.49214
▁fire	-8.49288
▁sea	-8.49711
▁history	-8.4983
▁visit	-8.49988
▁days	-8.50128
one	-8.50471
▁jack	-8.51185
▁star	-8.51573
▁far	-8.51654
▁despite	-8.51767
um	-8.51781
ler	-8.52115
dy	-8.52334
▁gives	-8.52543
▁-	-8.526
▁following	-8.52794
▁dis	-8.53009
▁ba	-8.53166
▁told	-8.5372
▁form	-8.54037
▁early	-8.54112
▁point	-8.54243
▁control	-8.54339
▁attempts	-8.5444
▁united	-8.54571
ted	-8.5473
▁sees	-8.55223
▁god	-8.55699
▁me	-8.5606
▁leaving	-8.56233
▁died	-8.56278
▁although	-8.56301
▁hand	-8.56316
▁instead	-8.56432
▁forced	-8.56567
▁u	-8.56601
▁dies	-8.56957
mi	-8.57
ish	-8.57122
▁attack	-8.573
lu	-8.57449
▁captain	-8.58318
▁future	-8.58797
▁company	-8.5887
tic	-8.59004
▁turns	-8.59367
▁those	-8.59389
▁crew	-8.59717
▁ta	-8.59758
▁se	-8.5992
ir	-8.60201
▁free	-8.60541
▁ne	-8.60794
ci	-8.60934
ful	-8.61107
▁mrs	-8.61184
▁used	-8.61221
▁author	-8.61255
em	-8.61596
▁arrives	-8.61858
▁asks	-8.61908
▁sa	-8.62129
▁uncle	-8.62186
▁space	-8.62204
▁ends	-8.62446
▁le	-8.62692
▁ca	-8.62754
▁british	-8.62963
▁using	-8.63242
ad	-8.63369
ness	-8.63461
▁keep	-8.6351
▁trying	-8.63689
▁we	-8.63814
▁team	-8.63955
▁pro	-8.64129
▁themselves	-8.64148
▁learn	-8.64156
▁married	-8.64256
▁george	-8.64514
▁plan	-8.64956
▁magic	-8.65031
▁given	-8.65125
po	-8.65135
▁half	-8.65271
▁believes	-8.65291
▁across	-8.65723
▁search	-8.65872
▁lord	-8.66008
ner	-8.66272
j	-8.66306
▁various	-8.66342
day	-8.66579
▁begin	-8.66898
▁large	-8.67231
▁dark	-8.67498
ies	-8.67927
▁sc	-8.68034
▁state	-8.68198
ru	-8.68583
▁things	-8.68809
▁south	-8.69035
▁leads	-8.69169
ous	-8.69291
▁cannot	-8.69407
▁camp	-8.69525
▁five	-8.69891
▁master	-8.69974
▁vi	-8.69994
▁social	-8.70052
▁going	-8.70178
▁start	-8.70374
▁mission	-8.70421
▁close	-8.70699
▁red	-8.70795
up	-8.70881
est	-8.71063
▁behind	-8.71236
▁strange	-8.71252
▁protagonist	-8.71362
▁works	-8.71483
ger	-8.71489
▁stay	-8.71531
ig	-8.72047
▁ka	-8.72146
▁ga	-8.72151
▁meanwhile	-8.72195
▁england	-8.72274
▁fight	-8.72526
▁political	-8.72664
▁within	-8.7285
▁led	-8.73306
▁short	-8.73513
▁lady	-8.73608
▁members	-8.73639
▁english	-8.73655
▁save	-8.73796
▁spend	-8.73798
age	-8.73892
book	-8.739
om	-8.7416
▁care	-8.74204
▁18	-8.74229
▁hospital	-8.74413
▁pre	-8.74551
▁forces	-8.74557
▁hu	-8.74613
▁know	-8.74654
tor	-8.74744
é	-8.74755
▁rest	-8.74775
▁cat	-8.74908
▁too	-8.74932
▁el	-8.75281
▁humans	-8.75437
▁taking	-8.75566
▁court	-8.75808
▁stories	-8.75891
▁north	-8.75977
time	-8.76044
op	-8.76156
▁jo	-8.76343
▁call	-8.76366
▁river	-8.76573
▁prince	-8.76698
▁leader	-8.76721
▁ro	-8.76723
▁queen	-8.76808
men	-8.77156
der	-8.77179
▁making	-8.77187
ja	-8.77265
▁seems	-8.77424
▁water	-8.77551
my	-8.77666
▁lu	-8.77817
▁pe	-8.77901
▁present	-8.78137
▁summer	-8.78174
▁childhood	-8.78344
▁result	-8.78731
▁turn	-8.78747
▁face	-8.79098
▁mary	-8.7921
▁reveals	-8.79348
▁middle	-8.79507
ho	-8.79529
▁among	-8.79723
ng	-8.79744
▁chapter	-8.79745
for	-8.79757
▁ra	-8.79791
▁dog	-8.79874
ver	-8.79877
▁play	-8.80039
▁bo	-8.80216
▁number	-8.8026
▁want	-8.80532
▁outside	-8.80701
▁older	-8.8139
▁describes	-8.81593
▁peter	-8.81638
▁trip	-8.81862
▁something	-8.82096
▁hard	-8.82158
▁others	-8.82184
▁po	-8.82248
▁lo	-8.82256
▁receive	-8.82372
▁ho	-8.82811
pe	-8.82852
▁stop	-8.82872
▁show	-8.82903
▁art	-8.82946
▁every	-8.83031
▁military	-8.83065
▁opens	-8.83081
▁tom	-8.83151
lin	-8.83292
▁student	-8.83377
▁da	-8.83795
mp	-8.84028
ance	-8.84053
▁fact	-8.84094
▁missing	-8.84409
▁move	-8.84445
▁wealthy	-8.8459
▁ten	-8.84599
▁fall	-8.84672
▁support	-8.84783
▁farm	-8.84961
▁marry	-8.84981
▁class	-8.85152
▁beautiful	-8.85233
▁try	-8.85249
▁ben	-8.8544
▁business	-8.85518
▁tell	-8.85561
▁henry	-8.85754
▁third	-8.85898
▁six	-8.86034
▁system	-8.86157
▁force	-8.86281
ster	-8.86357
▁girls	-8.8637
▁general	-8.86511
▁heart	-8.86512
ship	-8.8652
ary	-8.86529
▁german	-8.86632
ard	-8.86708
con	-8.87329
ber	-8.87594
▁self	-8.8775
▁investigate	-8.87816
▁member	-8.87885
▁station	-8.88005
▁late	-8.88041
▁mi	-8.88042
bi	-8.88076
▁give	-8.88143
za	-8.8816
we	-8.882
▁ever	-8.88401
▁boys	-8.88453
after	-8.88914
▁race	-8.8894
▁plans	-8.88948
▁meeting	-8.88967
▁fictional	-8.8908
▁game	-8.89116
▁college	-8.8914
▁ha	-8.89237
▁uses	-8.89513
▁quickly	-8.8959
▁officer	-8.8961
▁mar	-8.89706
ally	-8.89879
▁light	-8.89903
▁rescue	-8.89904
▁mind	-8.89968
▁moon	-8.9027
ya	-8.90545
▁true	-8.9058
▁says	-8.90607
like	-8.90631
▁destroy	-8.90745
▁revealed	-8.90773
▁ancient	-8.90966
▁train	-8.91274
▁century	-8.91299
▁sun	-8.91381
2	-8.91502
▁appears	-8.91723
▁david	-8.91733
ex	-8.91777
▁blood	-8.91811
▁pa	-8.91814
▁ja	-8.9198
▁t	-8.92378
▁m	-8.92456
▁believe	-8.92482
wa	-8.92606
▁months	-8.92701
▁empire	-8.92736
▁aunt	-8.92757
▁du	-8.92913
▁narrative	-8.9297
▁french	-8.92997
▁20	-8.93004
▁throughout	-8.93361
os	-8.93709
▁final	-8.93726
▁cor	-8.93859
▁beginning	-8.93873
▁join	-8.93986
▁involved	-8.94023
▁suicide	-8.94155
▁don	-8.94228
▁di	-8.94304
▁kingdom	-8.94327
▁written	-8.94619
▁birth	-8.94628
▁met	-8.94828
▁realizes	-8.95125
▁born	-8.95182
▁calls	-8.95376
▁did	-8.95507
▁powerful	-8.95531
▁further	-8.95606
pp	-8.95749
▁unable	-8.95863
ven	-8.96021
▁teacher	-8.96146
▁killing	-8.96208
▁per	-8.9621
ut	-8.96252
▁almost	-8.96359
▁us	-8.96385
▁side	-8.96399
ham	-8.96626
▁decide	-8.96721
▁sam	-8.96728
▁change	-8.9675
who	-8.96846
ko	-8.96926
ate	-8.96962
▁detective	-8.96988
▁refuses	-8.9705
▁dream	-8.97204
▁couple	-8.97287
ki	-8.97323
▁affair	-8.97339
mar	-8.97388
fe	-8.97433
")	-8.97437
▁previous	-8.97514
▁discovered	-8.97588
▁evil	-8.97772
▁paul	-8.9782
kin	-8.97832
▁fear	-8.97896
▁san	-8.97973
ina	-8.98114
bo	-8.98215
▁james	-8.98372
▁west	-8.98375
qui	-8.98471
▁bring	-8.98747
▁knows	-8.98755
mon	-8.98791
red	-8.9893
ence	-8.9901
▁prison	-8.99015
▁information	-8.99248
▁everyone	-8.99261
min	-8.9927
▁agrees	-8.993
▁letter	-8.99422
ph	-8.99477
▁younger	-8.9957
▁owner	-8.9968
▁sir	-8.99775
▁richard	-8.99868
▁put	-9.00252
▁feels	-9.00298
▁university	-9.00476
▁travels	-9.00631
▁america	-9.00803
▁you	-9.00872
▁food	-9.00947
▁professor	-9.01127
▁often	-9.01259
▁tu	-9.01302
▁community	-9.01415
que	-9.01635
▁inside	-9.01771
▁alien	-9.01791
▁forest	-9.01988
mer	-9.02119
▁castle	-9.02325
ff	-9.02477
▁murdered	-9.02637
▁mu	-9.02733
ated	-9.02903
▁dragon	-9.0305
▁investigation	-9.03125
▁should	-9.0317
▁church	-9.03195
ble	-9.03224
all	-9.03242
▁ar	-9.03359
▁alone	-9.03528
▁law	-9.03599
▁miss	-9.03664
▁runs	-9.03988
han	-9.03989
▁actually	-9.04042
▁accident	-9.04214
▁cousin	-9.04453
ud	-9.04461
when	-9.04687
▁interest	-9.04962
▁magical	-9.04975
ker	-9.05095
▁based	-9.05152
▁post	-9.05328
ward	-9.0533
▁ko	-9.05362
▁rich	-9.05387
▁major	-9.05735
▁chief	-9.0598
▁arrive	-9.0601
▁personal	-9.06024
▁agent	-9.0622
tion	-9.06435
way	-9.06641
king	-9.0666
▁rather	-9.06761
▁continues	-9.07053
▁my	-9.07344
▁period	-9.0775
out	-9.07782
▁ni	-9.07996
9	-9.08206
ov	-9.08388
▁crime	-9.08388
▁su	-9.08412
▁explains	-9.08576
▁killer	-9.08582
▁seven	-9.08644
▁ru	-9.0877
▁sex	-9.09177
▁fa	-9.09196
▁die	-9.09258
▁earlier	-9.09442
▁doesn	-9.09526
ny	-9.09573
ak	-9.09645
ach	-9.09779
▁robert	-9.09964
▁president	-9.09983
du	-9.09999
▁always	-9.10125
▁william	-9.10214
▁captured	-9.10224
ron	-9.10226
▁morning	-9.10305
ring	-9.1049
6	-9.10496
▁experiences	-9.10581
les	-9.10625
▁encounter	-9.10651
▁hotel	-9.10656
▁everything	-9.10676
▁mor	-9.10919
▁bond	-9.11018
ized	-9.11054
tra	-9.11185
gu	-9.11328
▁finding	-9.11385
▁mark	-9.11392
▁role	-9.11707
line	-9.1173
▁gold	-9.11921
her	-9.11943
▁right	-9.1199
▁culture	-9.12253
▁visits	-9.12272
▁full	-9.12407
ze	-9.12487
▁enough	-9.12557
▁claims	-9.12581
▁moves	-9.12622
▁baby	-9.12655
sha	-9.12837
▁encounters	-9.12864
▁angel	-9.12932
▁project	-9.12941
▁situation	-9.13086
gi	-9.1312
rs	-9.13347
▁harry	-9.13368
▁career	-9.13484
▁shadow	-9.13495
▁private	-9.13649
▁view	-9.13723
▁writing	-9.13847
▁brought	-9.13974
▁building	-9.14198
▁hope	-9.14363
▁arthur	-9.14394
▁course	-9.14403
▁sexual	-9.14502
▁door	-9.14607
▁sp	-9.14703
▁lover	-9.14707
▁deal	-9.14718
▁fellow	-9.14874
▁looking	-9.14921
ran	-9.14938
▁kills	-9.15019
nie	-9.15032
▁ii	-9.15036
▁immediately	-9.15084
▁sends	-9.15092
hi	-9.15169
▁public	-9.15373
car	-9.15403
▁apartment	-9.15972
▁gar	-9.16276
house	-9.16417
▁might	-9.16504
▁area	-9.16547
▁follow	-9.16551
▁experience	-9.1663
im	-9.16641
▁entire	-9.16675
▁look	-9.16687
▁alex	-9.16728
▁poor	-9.16763
▁seen	-9.16777
▁mc	-9.16868
▁gang	-9.16901
▁sets	-9.1692
▁came	-9.16963
▁stone	-9.17156
ow	-9.17308
ol	-9.17445
mb	-9.17512
▁knowledge	-9.17607
▁reach	-9.17756
▁grandmother	-9.17795
ice	-9.17802
▁unknown	-9.17811
▁writer	-9.17835
lan	-9.17872
▁east	-9.17909
▁jane	-9.17917
▁break	-9.17951
▁film	-9.18245
▁big	-9.18396
har	-9.18433
fi	-9.18595
▁sha	-9.1871
▁nearby	-9.1877
bu	-9.18804
▁truth	-9.18808
▁office	-9.18849
▁someone	-9.1902
▁shows	-9.19051
jo	-9.19258
pi	-9.19282
▁ti	-9.1955
▁yet	-9.1968
▁chance	-9.19691
▁tree	-9.19788
▁contact	-9.19826
▁joe	-9.19908
▁open	-9.19967
▁green	-9.20017
ah	-9.20087
1	-9.20186
▁service	-9.20218
▁drug	-9.20219
▁prevent	-9.20232
▁students	-9.2035
▁convince	-9.20693
ab	-9.20704
▁michael	-9.20872
▁let	-9.21058
▁towards	-9.2106
▁blue	-9.21131
▁air	-9.21237
▁band	-9.21268
▁need	-9.21314
▁paris	-9.21369
if	-9.21434
world	-9.21459
▁dan	-9.21471
▁question	-9.21645
▁command	-9.21928
▁intelligence	-9.22171
▁mystery	-9.22249
▁kind	-9.2225
fa	-9.22326
▁identity	-9.22343
▁gun	-9.22507
ious	-9.22513
▁inter	-9.22637
▁ri	-9.22768
▁itself	-9.22927
▁france	-9.22943
br	-9.22963
ius	-9.23123
▁em	-9.23173
▁har	-9.23212
▁manages	-9.23274
▁thinks	-9.23475
▁conflict	-9.23514
▁protect	-9.23538
▁rose	-9.23715
▁process	-9.23717
ey	-9.23884
▁caught	-9.23907
▁initially	-9.23979
▁animals	-9.23988
▁boat	-9.24182
▁dangerous	-9.24346
don	-9.24487
▁storm	-9.2453
▁research	-9.24581
▁deep	-9.24854
▁wild	-9.2499
▁f	-9.24994
▁win	-9.25056
▁fi	-9.25073
star	-9.25277
▁street	-9.2531
▁avoid	-9.25316
▁mountain	-9.25325
our	-9.25625
▁pen	-9.25791
▁successful	-9.25917
▁friendship	-9.25985
4	-9.26034
ide	-9.26095
▁better	-9.26302
▁why	-9.26388
▁—	-9.26396
▁princess	-9.26528
ure	-9.26784
au	-9.26817
▁key	-9.26825
▁thomas	-9.26942
ris	-9.26979
▁van	-9.27004
▁female	-9.2711
she	-9.27201
▁recently	-9.2721
▁road	-9.27282
▁means	-9.27392
war	-9.27433
▁soldiers	-9.27462
▁evidence	-9.27518
▁quest	-9.27625
▁anti	-9.27958
lie	-9.28059
▁attacked	-9.28075
▁offers	-9.28132
▁nature	-9.28135
ot	-9.28153
▁ill	-9.2818
▁act	-9.28215
▁dreams	-9.28235
▁thus	-9.28315
▁estate	-9.28354
▁position	-9.28462
nd	-9.2859
▁nothing	-9.28606
▁che	-9.28837
▁clear	-9.28972
▁coming	-9.29076
ite	-9.29098
ok	-9.29359
▁similar	-9.29411
▁ago	-9.29608
▁powers	-9.29685
ning	-9.29761
▁special	-9.29762
istic	-9.2977
▁becoming	-9.29874
▁sleep	-9.30013
▁brings	-9.30027
▁reader	-9.30067
▁russian	-9.30105
▁sense	-9.30117
led	-9.30169
▁already	-9.3021
▁chinese	-9.30242
▁chapters	-9.30328
▁winter	-9.30388
tur	-9.30453
▁grandfather	-9.30477
gra	-9.30503
▁steal	-9.30572
ile	-9.30842
▁priest	-9.30842
▁machine	-9.30911
ee	-9.30977
▁j	-9.31208
▁store	-9.31334
ney	-9.31395
▁aid	-9.31424
▁became	-9.31477
▁scene	-9.31645
▁capture	-9.31724
▁brothers	-9.31773
▁escapes	-9.31842
▁idea	-9.31944
▁shot	-9.3201
▁allow	-9.32055
▁adventures	-9.32063
▁native	-9.32091
wood	-9.32191
▁pay	-9.323
▁watch	-9.32493
cu	-9.32504
hu	-9.32517
▁universe	-9.32585
getting	-9.32753
▁central	-9.32761
▁causes	-9.32919
▁mad	-9.32982
▁modern	-9.3304
▁horse	-9.33122
over	-9.33391
side	-9.3342
▁partner	-9.3349
ize	-9.33496
▁fl	-9.33559
▁ke	-9.33783
▁nearly	-9.3387
▁royal	-9.34016
ical	-9.34085
▁mac	-9.3417
den	-9.34262
ise	-9.34291
ric	-9.34305
▁ver	-9.34334
▁box	-9.34459
kh	-9.34485
bar	-9.34493
▁sarah	-9.34525
▁indian	-9.34552
▁park	-9.34651
nt	-9.3466
gan	-9.3482
5	-9.34856
▁pick	-9.34878
▁hidden	-9.34975
▁attention	-9.35157
▁soviet	-9.35157
▁account	-9.35158
▁hunt	-9.35173
▁cut	-9.35232
▁1	-9.35409
▁suddenly	-9.3545
ji	-9.35491
ett	-9.35499
▁sub	-9.35506
▁arrival	-9.35599
▁frank	-9.35706
▁ya	-9.35794
▁fortune	-9.35852
▁shortly	-9.35961
▁com	-9.36042
ai	-9.36079
cha	-9.36088
▁telling	-9.36209
▁field	-9.36395
▁thought	-9.36599
▁struggle	-9.36608
▁par	-9.36642
▁grows	-9.3665
▁returning	-9.36766
▁read	-9.3679
▁growing	-9.36829
▁anna	-9.36897
▁possible	-9.36937
▁cross	-9.3694
▁l	-9.36982
▁bad	-9.37081
zi	-9.37249
▁pan	-9.37455
▁problems	-9.37466
▁understand	-9.37567
▁board	-9.37604
▁sal	-9.37691
▁include	-9.37693
▁china	-9.3798
amp	-9.37993
▁hall	-9.38081
▁stolen	-9.38094
ang	-9.38119
▁hill	-9.38266
▁slave	-9.38303
▁hi	-9.38314
▁bear	-9.38319
▁v	-9.38561
▁peace	-9.38586
vo	-9.38696
▁ability	-9.38886
▁enemy	-9.39059
▁girlfriend	-9.39085
▁incident	-9.39238
▁reveal	-9.39273
pt	-9.39483
je	-9.39501
▁bill	-9.39557
▁figure	-9.39657
born	-9.39729
▁talk	-9.39734
▁sy	-9.3976
▁memories	-9.39898
▁club	-9.39953
ville	-9.39964
▁mid	-9.40133
▁desert	-9.40219
▁coast	-9.40364
▁non	-9.40445
▁action	-9.40516
▁gone	-9.40577
▁expedition	-9.40594
▁trouble	-9.40627
val	-9.40636
nes	-9.40689
▁destroyed	-9.40748
▁remains	-9.40814
▁caus	-9.4096
▁continue	-9.41031
▁introduce	-9.4104
▁charles	-9.41065
▁famous	-9.41096
▁emperor	-9.41111
3	-9.41255
▁roman	-9.41279
rin	-9.41309
7	-9.41531
▁abandoned	-9.41564
▁artist	-9.41621
▁witch	-9.41679
ana	-9.41718
▁wood	-9.41771
▁lived	-9.41829
ford	-9.4195
▁za	-9.42067
▁changes	-9.42158
▁details	-9.42238
▁nor	-9.4229
▁defeat	-9.42334
ju	-9.42657
▁hands	-9.42906
▁technology	-9.4295
▁hero	-9.42951
▁imp	-9.43142
▁build	-9.43165
▁write	-9.43183
▁running	-9.43302
die	-9.43332
▁civil	-9.43377
▁rock	-9.43398
bel	-9.43479
▁ram	-9.43516
▁struggles	-9.4354
ek	-9.43579
▁europe	-9.43599
▁california	-9.43668
▁described	-9.43779
▁seek	-9.43885
▁dying	-9.43893
▁alive	-9.43961
▁helps	-9.4404
▁wall	-9.44045
▁pregnant	-9.44149
▁returned	-9.44372
▁needs	-9.44387
▁giving	-9.44398
▁revenge	-9.44425
ten	-9.44487
▁lake	-9.44516
tu	-9.44533
▁influence	-9.44633
com	-9.4466
▁important	-9.44672
ap	-9.44688
▁union	-9.44717
stone	-9.44732
▁danger	-9.44881
od	-9.44886
ell	-9.44902
dra	-9.44981
▁african	-9.44986
▁less	-9.45142
▁gi	-9.45195
▁cause	-9.45205
ita	-9.45214
▁ring	-9.45249
▁feelings	-9.45278
▁strong	-9.4533
▁books	-9.45666
▁original	-9.45698
van	-9.45725
▁cold	-9.45777
▁india	-9.46069
▁wrong	-9.461
▁bed	-9.46142
▁longer	-9.46154
▁boyfriend	-9.46196
ac	-9.4637
▁ultimately	-9.46397
▁japanese	-9.46397
▁happened	-9.46534
gar	-9.46568
▁front	-9.46676
▁line	-9.4676
▁mis	-9.4697
night	-9.47156
▁reality	-9.47171
ding	-9.47347
▁memory	-9.47391
▁hit	-9.47405
▁adam	-9.47453
can	-9.47467
tle	-9.47486
cher	-9.47558
▁tardis	-9.47589
▁held	-9.47606
▁joins	-9.47632
mal	-9.47695
▁gu	-9.47717
▁christian	-9.47825
▁religious	-9.47873
field	-9.47943
▁anything	-9.48087
▁times	-9.48121
▁bank	-9.48273
nce	-9.48294
▁lack	-9.48342
▁martin	-9.48356
▁wind	-9.48477
▁min	-9.48579
che	-9.48597
ec	-9.48615
▁created	-9.48622
▁hold	-9.48624
▁security	-9.48626
io	-9.48651
▁shop	-9.48879
▁pair	-9.4889
cent	-9.48892
▁spirit	-9.49013
▁te	-9.49161
▁charlie	-9.49352
▁humanity	-9.49486
whether	-9.49603
ku	-9.49651
▁accidentally	-9.49657
▁qu	-9.49663
law	-9.49718
with	-9.49907
▁ce	-9.49914
ill	-9.4995
▁seeks	-9.49985
▁parts	-9.50088
▁step	-9.50178
tt	-9.50198
▁families	-9.5037
▁speak	-9.50615
well	-9.50626
▁hopes	-9.50744
let	-9.50802
8	-9.50824
▁fe	-9.50861
▁pet	-9.50951
▁criminal	-9.51036
▁eye	-9.51062
▁sword	-9.51078
tro	-9.51131
▁gain	-9.51229
▁guard	-9.51387
▁especially	-9.51445
▁secretly	-9.51452
▁eyes	-9.51564
▁source	-9.51923
▁medical	-9.51928
▁looks	-9.52097
▁arm	-9.5212
▁snow	-9.52207
▁test	-9.52237
▁breaks	-9.52303
▁cave	-9.52398
▁letters	-9.52442
▁tower	-9.52475
tan	-9.52563
pl	-9.52609
▁doing	-9.52617
ving	-9.52765
▁eat	-9.52773
▁science	-9.52794
▁survive	-9.52849
▁vampire	-9.53004
▁natural	-9.53098
▁tale	-9.5314
▁ch	-9.53179
▁physical	-9.53305
▁si	-9.53348
▁wish	-9.53437
▁send	-9.53594
▁common	-9.53624
▁twenty	-9.53823
▁trial	-9.53853
▁male	-9.53892
▁writes	-9.53913
gon	-9.54089
▁wolf	-9.54109
ub	-9.54129
off	-9.54376
▁bra	-9.54389
ial	-9.54666
▁sky	-9.54688
life	-9.54708
▁nick	-9.54712
ities	-9.54736
▁attend	-9.54741
▁drive	-9.54767
▁location	-9.54879
his	-9.54983
ag	-9.54986
▁took	-9.55062
ria	-9.55068
▁includes	-9.55186
light	-9.55199
▁fate	-9.55211
▁odd	-9.55234
▁garden	-9.55317
▁capital	-9.55428
▁path	-9.5543
mor	-9.55435
ping	-9.55578
si	-9.55582
▁arrested	-9.55624
▁victim	-9.55651
▁marries	-9.55653
▁mal	-9.55677
▁bomb	-9.55735
▁computer	-9.55963
▁track	-9.55994
▁really	-9.56085
av	-9.56129
▁create	-9.56186
▁assistant	-9.56473
▁ice	-9.56746
fin	-9.56862
▁attacks	-9.56995
▁edward	-9.57016
lar	-9.57038
▁historical	-9.57094
▁ge	-9.57203
ug	-9.57456
▁determined	-9.57509
cy	-9.57549
▁single	-9.57595
▁spy	-9.57648
▁soldier	-9.57729
nny	-9.57953
pro	-9.58012
▁solve	-9.58017
ging	-9.58049
▁buy	-9.58075
ay	-9.58131
▁flee	-9.58174
▁fighting	-9.5818
▁tri	-9.58265
gen	-9.58309
▁complete	-9.58339
▁caused	-9.58342
bert	-9.58402
▁study	-9.58439
boy	-9.58545
meanwhile	-9.58576
▁bi	-9.586
▁turned	-9.58665
▁trade	-9.58768
▁reason	-9.58775
▁went	-9.58777
▁rise	-9.58849
▁popular	-9.58914
▁violent	-9.59028
▁creatures	-9.59108
▁kidnapped	-9.59507
▁anyone	-9.59577
lt	-9.59587
▁offer	-9.59614
▁apparently	-9.59628
▁according	-9.59645
▁cal	-9.59707
▁seemingly	-9.59787
▁mel	-9.59802
chi	-9.59802
▁consist	-9.59804
▁suspect	-9.59841
▁focuses	-9.59855
▁movement	-9.59911
▁eight	-9.59916
▁prove	-9.59916
▁va	-9.59955
▁purpose	-9.60068
▁existence	-9.60077
▁loses	-9.60092
▁success	-9.60214
▁elderly	-9.60219
▁share	-9.60296
win	-9.60358
▁treasure	-9.60412
▁safe	-9.60442
▁chi	-9.60445
▁kate	-9.60523
▁y	-9.60538
▁task	-9.60557
▁trust	-9.60621
▁playing	-9.60623
▁exchange	-9.60641
▁certain	-9.60684
▁confront	-9.60772
▁contain	-9.60838
▁tra	-9.6085
work	-9.60859
▁voice	-9.60927
ev	-9.60929
▁loss	-9.61024
▁wishes	-9.61037
▁appear	-9.61075
▁3	-9.61173
▁h	-9.61233
▁difficult	-9.61285
▁fly	-9.61343
▁max	-9.61353
▁del	-9.61378
▁para	-9.61384
▁setting	-9.61387
▁top	-9.61398
fire	-9.61399
ative	-9.61433
und	-9.61433
cat	-9.61507
end	-9.61511
▁trans	-9.61533
▁moved	-9.61584
▁weeks	-9.61585
▁catch	-9.61629
▁introduced	-9.61659
▁crash	-9.61696
▁cast	-9.61796
eg	-9.61888
▁grand	-9.6192
ions	-9.6194
tri	-9.62007
ugh	-9.62034
▁hide	-9.62049
▁happy	-9.62068
▁colony	-9.62069
▁wizard	-9.62089
▁germany	-9.62181
▁mental	-9.62202
▁orders	-9.62303
▁raised	-9.62322
▁tribe	-9.62323
▁kar	-9.62374
▁hair	-9.62403
▁whole	-9.62538
lock	-9.62546
▁boss	-9.62574
▁population	-9.62647
ire	-9.62725
▁z	-9.62966
▁discuss	-9.6298
lla	-9.63124
low	-9.6322
▁romantic	-9.63239
▁language	-9.63267
▁increasingly	-9.63297
tom	-9.63313
mat	-9.63376
par	-9.63444
▁wa	-9.63523
▁else	-9.63604
▁suspects	-9.63659
vel	-9.63681
su	-9.63803
▁birthday	-9.6385
▁slowly	-9.63894
▁commander	-9.63975
▁val	-9.64018
▁elizabeth	-9.6411
▁previously	-9.64192
▁ju	-9.64208
▁region	-9.64276
▁lot	-9.64277
▁w	-9.64313
▁super	-9.64316
▁event	-9.64341
▁suggests	-9.6441
▁disease	-9.6441
▁pi	-9.6451
gue	-9.64691
▁cha	-9.64715
▁music	-9.6472
▁ghost	-9.64895
▁sign	-9.64895
bra	-9.64986
▁bur	-9.65255
▁walk	-9.65272
din	-9.653
▁base	-9.65314
▁giant	-9.65326
port	-9.65488
▁("	-9.65494
▁mer	-9.65528
▁hop	-9.65677
▁pass	-9.6569
▁threat	-9.6576
▁ci	-9.65787
▁revolution	-9.65876
▁newspaper	-9.65892
▁murders	-9.65943
▁message	-9.65951
▁section	-9.65961
so	-9.65982
▁think	-9.65983
▁divided	-9.65989
▁befriends	-9.66005
▁teenage	-9.66131
del	-9.66264
▁enter	-9.663
sta	-9.66356
▁adventure	-9.66485
▁either	-9.66494
lia	-9.66516
ier	-9.66591
▁africa	-9.66709
▁learning	-9.66986
▁bird	-9.6714
▁assigned	-9.67178
▁lawyer	-9.67404
▁pursue	-9.67408
▁allows	-9.67439
▁words	-9.6744
▁nine	-9.67445
▁prior	-9.67508
▁training	-9.67566
▁got	-9.67712
▁seem	-9.67713
00	-9.67723
▁maintain	-9.67725
▁judge	-9.67731
▁creature	-9.67833
▁sta	-9.67872
▁hired	-9.67951
▁realize	-9.67963
▁council	-9.68014
▁decision	-9.68014
des	-9.68022
▁bell	-9.68053
ised	-9.68085
▁western	-9.68159
▁saw	-9.68162
▁center	-9.68193
▁moment	-9.68255
▁rival	-9.68298
dor	-9.68304
zo	-9.6835
▁rule	-9.68402
▁seeing	-9.68502
lon	-9.68553
▁clan	-9.68599
▁nuclear	-9.68628
▁ocean	-9.68628
but	-9.68688
qu	-9.68746
▁spell	-9.6875
▁date	-9.68878
▁anne	-9.68884
▁perspective	-9.68937
▁nancy	-9.68943
cle	-9.68975
▁kr	-9.68998
▁sh	-9.69124
▁rain	-9.69152
▁matter	-9.69211
▁regard	-9.69295
▁tar	-9.69296
▁smith	-9.69303
▁concerns	-9.69391
▁sisters	-9.69495
▁accompanie	-9.69557
▁say	-9.69627
▁len	-9.69673
ram	-9.69723
▁gr	-9.69855
▁tre	-9.69888
dge	-9.69972
not	-9.70029
▁problem	-9.70071
▁religion	-9.70181
▁daniel	-9.70193
▁perfect	-9.70302
▁said	-9.70305
▁stage	-9.70362
▁broken	-9.70372
▁brain	-9.70394
▁era	-9.70407
ade	-9.70429
▁host	-9.70446
this	-9.70469
▁week	-9.70506
▁hiding	-9.70507
▁ve	-9.70589
▁national	-9.70929
▁count	-9.70932
▁example	-9.71126
▁invite	-9.7115
▁jim	-9.71188
▁im	-9.71214
rie	-9.71264
▁fails	-9.71313
▁destruction	-9.71441
▁joseph	-9.71441
▁device	-9.71441
▁pilot	-9.71446
ip	-9.71496
▁efforts	-9.71529
▁ball	-9.7155
▁bre	-9.71629
▁saying	-9.71638
▁current	-9.71648
ps	-9.71805
tal	-9.71861
rian	-9.71995
▁leg	-9.72031
▁species	-9.72077
▁wedding	-9.7208
▁trapped	-9.72085
▁education	-9.72138
▁separate	-9.7214
▁market	-9.72142
▁injured	-9.72148
ates	-9.72206
▁claim	-9.72228
▁cover	-9.72265
▁miles	-9.72306
▁billy	-9.72346
ever	-9.72355
from	-9.72401
▁window	-9.72409
▁ground	-9.72427
▁soul	-9.72469
▁built	-9.72503
▁word	-9.72512
back	-9.72557
▁remember	-9.72699
wi	-9.72821
fer	-9.72837
▁stranger	-9.72868
sion	-9.7288
▁our	-9.72929
▁earn	-9.72993
▁perform	-9.73118
▁brief	-9.73167
under	-9.73263
▁laura	-9.73389
▁shi	-9.73452
▁ban	-9.73489
▁ab	-9.73577
ology	-9.73636
▁jan	-9.73673
▁sw	-9.73687
▁desire	-9.73689
▁respect	-9.73735
▁mil	-9.7378
▁youth	-9.73832
▁note	-9.73958
▁accepts	-9.73981
▁actions	-9.73999
▁conversation	-9.74009
black	-9.74023
▁discovery	-9.74045
▁ob	-9.74059
ther	-9.74061
mr	-9.74069
rk	-9.74071
▁remain	-9.74109
▁particularly	-9.74219
▁dinner	-9.74335
▁sell	-9.7435
american	-9.74368
▁material	-9.74391
▁song	-9.7442
▁accept	-9.74447
▁n	-9.74454
▁operation	-9.7446
▁servant	-9.74479
▁heir	-9.74525
▁ran	-9.7466
▁development	-9.74701
dic	-9.74708
now	-9.7473
▁port	-9.74802
▁convinced	-9.74851
▁uncover	-9.7499
▁gradually	-9.7501
▁evening	-9.75177
▁abandon	-9.75272
iv	-9.75278
▁began	-9.75319
▁kept	-9.75332
▁appearance	-9.75335
▁valley	-9.75348
▁simon	-9.75363
▁names	-9.75434
oon	-9.75572
vin	-9.75692
▁adult	-9.75707
ations	-9.75762
▁lin	-9.75765
▁followed	-9.75998
long	-9.76109
▁silver	-9.76157
▁journalist	-9.76173
tz	-9.76198
▁hunter	-9.7622
▁loves	-9.7626
▁wanted	-9.76302
▁spent	-9.76314
▁version	-9.76325
▁matt	-9.7636
▁subject	-9.76396
▁grow	-9.76417
▁health	-9.76514
▁hat	-9.76555
shi	-9.76585
▁potential	-9.76645
▁spread	-9.7665
▁moving	-9.76678
▁den	-9.76688
gy	-9.76751
▁drawn	-9.76768
▁dar	-9.76782
▁los	-9.76838
▁responsible	-9.7698
▁keeps	-9.77001
▁apprentice	-9.77033
tar	-9.77253
▁holiday	-9.77315
▁background	-9.77334
blood	-9.77346
▁knowing	-9.77372
▁alice	-9.77379
▁saved	-9.77435
nor	-9.77443
▁companion	-9.77446
▁rescued	-9.77451
▁shoot	-9.7756
▁feeling	-9.77566
▁allowed	-9.7757
ient	-9.77576
wan	-9.77669
▁r	-9.77679
fall	-9.77818
▁bri	-9.77889
rus	-9.77919
▁text	-9.77991
▁cook	-9.78033
▁draw	-9.78064
ties	-9.78215
▁demon	-9.78229
▁adopt	-9.78293
▁organization	-9.78332
▁department	-9.78348
▁guide	-9.78348
med	-9.78428
▁ze	-9.78472
ban	-9.78539
▁report	-9.7854
mit	-9.78589
dan	-9.78654
▁colonel	-9.78669
▁low	-9.78678
nu	-9.78787
▁wealth	-9.78824
non	-9.78975
rick	-9.7903
▁plane	-9.79033
▁grace	-9.79046
▁invasion	-9.79083
▁nurse	-9.79134
▁knight	-9.79183
▁jean	-9.79212
▁questions	-9.79299
▁mine	-9.79335
▁rachel	-9.79353
▁defend	-9.79354
▁target	-9.79357
▁britain	-9.79358
▁disappearance	-9.79358
wing	-9.79371
▁murderer	-9.79412
▁luke	-9.79437
▁term	-9.79493
▁fox	-9.7952
▁17	-9.79525
ries	-9.79591
tin	-9.79695
▁freedom	-9.79714
▁request	-9.79722
▁asked	-9.79724
while	-9.7974
death	-9.79742
▁tro	-9.79864
bin	-9.79873
▁lands	-9.79983
▁suspicious	-9.80041
▁senior	-9.80041
▁woods	-9.80057
▁develops	-9.80108
▁economic	-9.80112
▁er	-9.8013
▁4	-9.80139
▁contains	-9.80166
▁hears	-9.80347
▁ty	-9.80384
▁distant	-9.80387
▁underground	-9.80399
▁unit	-9.80422
▁x	-9.80483
▁hunting	-9.8056
▁remaining	-9.80575
▁magician	-9.80653
▁tan	-9.80666
▁throne	-9.80734
▁worse	-9.8074
▁cur	-9.80758
▁lee	-9.8076
girl	-9.80787
▁reading	-9.80821
gh	-9.80856
ists	-9.80862
▁grant	-9.80897
ory	-9.80981
▁beauty	-9.81093
▁ride	-9.81094
▁aboard	-9.81263
▁latter	-9.81433
dar	-9.81436
▁jewish	-9.81437
▁monk	-9.81513
▁visiting	-9.8155
ax	-9.81643
ns	-9.81651
▁palace	-9.81783
▁inhabitants	-9.81784
▁explores	-9.81826
▁twelve	-9.81835
▁bridge	-9.81935
▁failed	-9.82012
▁wait	-9.82061
▁foreign	-9.82135
▁minister	-9.82145
▁border	-9.82153
▁beyond	-9.82283
▁beach	-9.82322
▁scientist	-9.82433
▁violence	-9.82489
▁guardian	-9.8259
rid	-9.82602
▁rh	-9.82789
sky	-9.82867
▁engineer	-9.82922
▁bus	-9.82964
dead	-9.83003
ians	-9.83137
▁northern	-9.832
▁decided	-9.83201
vis	-9.83238
ik	-9.83283
set	-9.83328
▁done	-9.83353
▁waiting	-9.83354
og	-9.83453
ith	-9.8346
person	-9.83484
▁twin	-9.83497
pu	-9.83509
▁lies	-9.83523
q	-9.83556
head	-9.83577
▁examine	-9.83579
▁director	-9.83643
▁persuade	-9.83739
▁enjoy	-9.83902
tch	-9.83939
city	-9.83998
▁cro	-9.84056
▁fish	-9.84161
▁sto	-9.84209
▁hours	-9.84355
▁thing	-9.84432
▁ku	-9.84449
▁mass	-9.84521
gre	-9.84572
▁painting	-9.84584
▁jacob	-9.84636
▁christmas	-9.84639
▁choice	-9.84646
berg	-9.8469
▁raid	-9.84702
▁trail	-9.84726
▁minor	-9.84735
▁honor	-9.84776
mann	-9.84785
▁disappeared	-9.84794
xi	-9.84846
▁unnamed	-9.85018
mark	-9.85066
▁raise	-9.85087
▁surrounding	-9.85117
▁suffering	-9.85212
▁witness	-9.85249
▁investigating	-9.85363
▁model	-9.85414
▁desperate	-9.85532
▁particular	-9.85532
sea	-9.8555
▁searching	-9.85564
▁elder	-9.85586
▁yu	-9.85662
ani	-9.8571
▁feel	-9.85725
▁presence	-9.85728
▁talent	-9.85745
▁je	-9.85798
▁susan	-9.85805
–	-9.85813
class	-9.85814
▁conan	-9.85884
some	-9.85885
mu	-9.85888
▁financial	-9.85897
▁fu	-9.86053
▁household	-9.86128
▁european	-9.86199
ified	-9.86261
mus	-9.86446
tain	-9.86453
▁contract	-9.86461
▁golden	-9.86539
▁published	-9.86588
▁stand	-9.86604
▁brown	-9.86613
▁amy	-9.86761
▁except	-9.86805
▁remote	-9.86829
▁ways	-9.8686
dragon	-9.86935
ari	-9.86972
▁condition	-9.86986
▁argues	-9.87162
pre	-9.87272
▁circle	-9.87273
tte	-9.87279
▁temple	-9.87334
▁ph	-9.8739
▁completely	-9.87459
▁fair	-9.87488
▁op	-9.87564
▁manage	-9.8758
▁danny	-9.87614
▁news	-9.87616
▁bodies	-9.87666
▁grave	-9.8769
▁ser	-9.87796
▁pat	-9.87802
nk	-9.87859
▁deliver	-9.87895
▁unusual	-9.87945
qua	-9.8812
▁fit	-9.88139
,000	-9.88152
▁won	-9.88245
▁launch	-9.88321
▁meaning	-9.88344
▁seeking	-9.8842
▁normal	-9.88512
char	-9.88543
▁companions	-9.88548
▁chase	-9.88597
▁catholic	-9.88695
▁emily	-9.88703
▁represent	-9.88705
▁eve	-9.88774
▁angeles	-9.88926
▁cla	-9.88947
lly	-9.88973
▁plant	-9.88975
tes	-9.89061
▁abilities	-9.89073
ren	-9.89197
▁farmer	-9.89212
▁tim	-9.89254
▁obtain	-9.89458
▁cra	-9.89475
▁here	-9.89516
▁mountains	-9.89543
▁falling	-9.89757
▁informs	-9.89792
zy	-9.89826
hood	-9.89878
▁apart	-9.89937
rd	-9.89982
▁started	-9.90013
▁consider	-9.90068
▁card	-9.90082
▁warrior	-9.90144
▁knew	-9.90233
▁traveling	-9.90293
▁glass	-9.9034
▁widow	-9.90399
gent	-9.90427
ue	-9.90428
▁staff	-9.90472
▁ask	-9.90474
▁thinking	-9.90476
▁drink	-9.90488
▁alternate	-9.90597
▁revolve	-9.90597
▁southern	-9.90598
▁committed	-9.90608
▁introduction	-9.90633
▁siblings	-9.90656
▁talking	-9.90671
ium	-9.90709
▁lucy	-9.90778
▁discusse	-9.90798
▁kit	-9.90865
▁agree	-9.90881
rn	-9.90926
▁animal	-9.90931
▁philip	-9.90971
▁piece	-9.90978
▁circumstances	-9.90981
▁library	-9.90981
▁narrated	-9.90981
▁civilization	-9.90988
▁nu	-9.91022
uch	-9.91031
▁cho	-9.91095
▁constantly	-9.91113
far	-9.91138
▁kel	-9.91155
ments	-9.91155
▁suffers	-9.9129
dr	-9.9131
▁fer	-9.91335
▁charge	-9.91343
▁twins	-9.9139
▁separated	-9.91395
you	-9.91415
bil	-9.91453
▁lock	-9.91553
▁phone	-9.91554
▁gods	-9.91629
▁10	-9.91664
▁behavior	-9.91755
▁mag	-9.91772
▁rat	-9.9182
▁weapons	-9.91837
ane	-9.91926
▁scar	-9.91999
▁wear	-9.92053
involving	-9.92153
▁bay	-9.9221
ski	-9.92225
▁iron	-9.92239
town	-9.92255
var	-9.92274
▁louis	-9.92353
▁paper	-9.92534
▁suspicion	-9.92534
believing	-9.92539
ander	-9.92583
▁cap	-9.92643
▁cell	-9.92648
cri	-9.9274
▁doll	-9.92761
▁fallen	-9.9277
▁ren	-9.92792
▁official	-9.9282
▁strike	-9.92826
ple	-9.92981
▁hole	-9.93017
▁jason	-9.93018
▁mars	-9.9302
oc	-9.93133
▁losing	-9.93176
▁abuse	-9.93177
▁flees	-9.9319
▁notices	-9.93214
part	-9.93242
▁highly	-9.93274
ray	-9.93298
▁secrets	-9.93302
▁weapon	-9.93318
▁custom	-9.9332
▁sch	-9.93325
▁huge	-9.93405
▁develop	-9.93502
tre	-9.93537
hand	-9.9354
ick	-9.93546
▁lion	-9.93614
▁site	-9.93712
▁washington	-9.93716
▁opportunity	-9.93718
down	-9.93789
▁interested	-9.93838
▁firm	-9.93853
dark	-9.93866
▁radio	-9.9387
▁sn	-9.939
▁mike	-9.93956
nn	-9.93973
▁connection	-9.94065
▁victims	-9.94099
▁fleet	-9.94241
▁changed	-9.94251
▁5	-9.943
▁provide	-9.94408
▁recent	-9.9443
til	-9.94549
▁duke	-9.94596
▁retrieve	-9.94634
fu	-9.94715
▁disappears	-9.94818
▁ray	-9.94839
▁gra	-9.94872
ming	-9.94885
▁considered	-9.94901
ral	-9.94915
▁believed	-9.94948
▁roger	-9.94966
▁sentence	-9.94979
▁ken	-9.95292
▁bu	-9.95306
▁sum	-9.95309
▁international	-9.95312
▁million	-9.95318
▁arrest	-9.95339
▁hundred	-9.95348
▁inspector	-9.95387
▁poet	-9.95429
▁sit	-9.95456
▁blind	-9.95459
▁wi	-9.95491
dle	-9.95537
ea	-9.95675
pin	-9.95682
ible	-9.95703
▁div	-9.95728
▁scientific	-9.95756
▁media	-9.95811
ability	-9.95856
▁passes	-9.95868
▁beat	-9.95919
row	-9.95964
▁legal	-9.96022
▁enters	-9.96023
▁worked	-9.96069
▁interview	-9.96125
▁planning	-9.96157
▁adopted	-9.96165
▁intelligent	-9.96169
▁ruth	-9.96188
▁aware	-9.96222
▁realises	-9.96287
▁saint	-9.96288
▁flight	-9.96295
▁release	-9.9634
▁eric	-9.9646
ors	-9.96474
▁collapse	-9.96527
▁enemies	-9.96527
▁energy	-9.96527
▁clean	-9.96528
▁movie	-9.96544
▁least	-9.96559
▁terrorist	-9.96605
▁toward	-9.9664
▁settle	-9.96668
▁studies	-9.96672
▁diary	-9.96745
▁trap	-9.96797
ez	-9.96849
▁16	-9.96897
▁explain	-9.96914
ou	-9.9692
▁complex	-9.96935
▁lieutenant	-9.96935
▁agency	-9.96936
▁hell	-9.97034
▁gre	-9.97042
▁witnesses	-9.97056
▁sight	-9.97102
gle	-9.97173
▁rules	-9.97187
▁hire	-9.97191
▁pain	-9.97272
god	-9.97321
▁prostitute	-9.97345
wait	-9.97347
▁spot	-9.97359
▁depict	-9.97378
uk	-9.9739
▁skin	-9.97505
▁gal	-9.97523
▁surprise	-9.97566
▁arch	-9.976
▁angry	-9.97762
▁sick	-9.97806
▁received	-9.97887
▁ki	-9.97907
ib	-9.97931
▁carl	-9.98033
▁goal	-9.98076
ped	-9.98092
▁released	-9.98112
▁announce	-9.98116
▁sacrifice	-9.98136
▁wing	-9.98145
ura	-9.98147
▁museum	-9.9817
▁chaos	-9.98194
ular	-9.98197
sis	-9.98221
▁insists	-9.9823
▁collection	-9.98322
▁direct	-9.98354
▁terms	-9.98359
nia	-9.98404
▁program	-9.98475
▁th	-9.98495
▁ed	-9.98505
ette	-9.98563
▁neighbor	-9.98573
▁illness	-9.98622
ual	-9.9864
▁afterwards	-9.98667
▁tour	-9.98683
rt	-9.98685
leg	-9.98898
▁flying	-9.98904
▁rape	-9.98909
▁match	-9.98982
▁newly	-9.99126
ola	-9.99135
▁med	-9.99289
▁shape	-9.99295
maker	-9.99295
▁puts	-9.99347
▁lose	-9.99395
▁merchant	-9.9942
▁politics	-9.9942
▁chosen	-9.99468
▁oil	-9.99468
▁gather	-9.99489
▁traditional	-9.9952
▁extremely	-9.99523
▁victor	-9.99585
are	-9.99625
ably	-9.99647
▁gift	-9.99686
▁faith	-9.99693
▁issues	-9.99731
▁cr	-9.9978
▁gay	-9.99825
▁sand	-9.99831
▁greek	-9.99848
▁jamie	-9.99851
▁helen	-9.99959
▁risk	-9.99975
▁dam	-9.99987
▁tried	-9.99993
▁spring	-10.0007
▁places	-10.002
burg	-10.0021
▁activities	-10.0026
▁campaign	-10.0026
▁superior	-10.0026
yn	-10.0027
▁property	-10.0028
▁imprisoned	-10.0036
fl	-10.0045
▁flat	-10.0048
▁shift	-10.0049
▁concept	-10.0069
▁margaret	-10.0069
▁content	-10.0069
▁image	-10.0072
angel	-10.0073
▁touch	-10.0074
▁possession	-10.0076
▁vision	-10.0078
▁gave	-10.0083
▁engaged	-10.009
▁agents	-10.0102
▁results	-10.0103
▁simply	-10.0111
▁2	-10.0118
▁rome	-10.012
▁secretary	-10.0121
pen	-10.0125
▁lan	-10.0135
▁bel	-10.0139
zar	-10.0139
net	-10.014
▁via	-10.0147
iz	-10.015
▁realm	-10.0153
▁centuries	-10.0154
▁surface	-10.0154
▁shelter	-10.0154
▁treatment	-10.0158
▁deals	-10.0159
▁mari	-10.0161
last	-10.0166
▁notes	-10.0173
▁pu	-10.0175
air	-10.0177
▁code	-10.019
▁sort	-10.0208
▁pull	-10.0208
▁shock	-10.0212
mm	-10.0213
▁nazi	-10.0221
▁communist	-10.024
▁neighborhood	-10.024
▁cure	-10.0243
▁link	-10.0248
▁provides	-10.025
▁dick	-10.0252
▁subsequently	-10.0254
▁virginia	-10.0255
via	-10.0257
ude	-10.0273
▁fourth	-10.0281
▁false	-10.0284
▁safety	-10.0287
form	-10.0287
▁pack	-10.0289
rum	-10.0294
▁hear	-10.0305
▁ships	-10.0306
▁dance	-10.0308
▁bright	-10.031
▁opening	-10.0312
▁reflect	-10.0313
▁debt	-10.0327
▁exist	-10.033
▁feed	-10.0332
ose	-10.0332
ica	-10.0333
ization	-10.0333
ken	-10.0334
act	-10.0336
▁thief	-10.0336
▁wakes	-10.0339
▁serve	-10.034
▁wil	-10.0341
ora	-10.035
art	-10.035
▁focus	-10.0359
▁neighbour	-10.037
▁arriving	-10.037
▁crush	-10.037
▁rob	-10.0371
▁robot	-10.0373
▁orphan	-10.0375
▁list	-10.0382
▁noble	-10.0382
master	-10.0386
▁quite	-10.0387
▁threatens	-10.0388
how	-10.0388
▁prisoner	-10.0413
▁mexico	-10.0414
▁italian	-10.0414
▁grade	-10.0415
▁structure	-10.0418
▁ir	-10.0419
▁imperial	-10.0421
love	-10.0422
▁6	-10.0426
▁divorce	-10.0428
▁apparent	-10.0439
spec	-10.044
▁mostly	-10.0443
▁reg	-10.0447
▁literature	-10.0458
▁pressure	-10.046
▁unfortunately	-10.0462
ob	-10.0467
▁qui	-10.0468
▁terror	-10.0471
▁learned	-10.0479
▁ann	-10.0482
▁nation	-10.0484
▁rent	-10.0488
hy	-10.0491
▁promises	-10.0493
▁onto	-10.0498
human	-10.0499
▁map	-10.05
▁advice	-10.0502
▁resolve	-10.0502
ara	-10.0506
▁irish	-10.0507
▁restore	-10.0513
▁professional	-10.0514
▁vast	-10.0518
izing	-10.0519
▁accused	-10.052
▁wounded	-10.0522
▁fri	-10.0522
little	-10.0527
which	-10.0527
▁joined	-10.0528
▁fell	-10.053
fo	-10.0534
▁effort	-10.0534
0	-10.0537
▁hol	-10.0546
▁encourage	-10.0547
▁numerous	-10.0547
▁funeral	-10.0547
▁navy	-10.0547
▁above	-10.0547
▁multiple	-10.0547
▁francisco	-10.0548
▁carrying	-10.0549
▁fiction	-10.055
▁listen	-10.0552
▁mistress	-10.0561
▁beast	-10.0561
▁reaches	-10.0573
▁mon	-10.0583
▁chicago	-10.0592
▁consciousness	-10.0592
▁alliance	-10.0592
▁wal	-10.0592
▁teenager	-10.0595
▁assassination	-10.0597
▁effect	-10.0597
▁boarding	-10.0602
▁ham	-10.0605
▁sar	-10.0608
▁assist	-10.062
▁luc	-10.0623
▁pig	-10.0625
anna	-10.0627
▁answer	-10.0627
its	-10.0638
▁developed	-10.0638
▁type	-10.0643
cho	-10.0651
gate	-10.0668
▁curse	-10.0668
woman	-10.0668
▁object	-10.067
▁thousand	-10.0681
▁12	-10.0684
▁deadly	-10.0684
▁block	-10.0688
heart	-10.069
▁monster	-10.0693
rr	-10.0696
▁bor	-10.0702
mas	-10.0712
▁am	-10.0712
▁sin	-10.0719
referred	-10.0723
▁therefore	-10.0727
▁spanish	-10.0728
rel	-10.0734
▁graduate	-10.0736
▁recover	-10.075
▁fan	-10.0752
cut	-10.0754
▁explore	-10.0754
▁heads	-10.0754
hol	-10.0763
▁sad	-10.0763
▁acts	-10.0763
sia	-10.0766
eth	-10.0767
▁individual	-10.0767
▁description	-10.0772
▁parallel	-10.0772
▁status	-10.0773
▁frequently	-10.0784
▁double	-10.0786
▁centre	-10.0788
story	-10.0789
▁actor	-10.0791
▁dragons	-10.0795
▁color	-10.0796
▁thoughts	-10.0799
▁skills	-10.0799
▁solar	-10.08
▁acquaintance	-10.0818
▁simple	-10.0818
▁failure	-10.0819
▁foster	-10.0819
▁romance	-10.0824
▁forever	-10.0837
▁sons	-10.0839
▁supposed	-10.0844
▁theory	-10.0847
▁residents	-10.0848
▁7	-10.0852
▁ep	-10.0861
▁ritual	-10.0864
▁recounts	-10.0864
▁jenny	-10.0865
▁talks	-10.0866
lyn	-10.0867
▁access	-10.0868
▁drinking	-10.0878
▁escaped	-10.088
▁attracted	-10.0883
tell	-10.089
▁dor	-10.0893
▁sur	-10.0893
▁television	-10.091
rat	-10.0914
▁detail	-10.0923
▁jail	-10.0923
▁locate	-10.0926
power	-10.0939
▁repair	-10.0956
▁isolated	-10.0956
▁crisis	-10.0958
▁passage	-10.0959
▁sound	-10.096
▁practice	-10.0961
new	-10.0977
▁advanced	-10.0979
▁centers	-10.0984
▁gate	-10.0993
dia	-10.0995
pan	-10.0998
▁demands	-10.1001
yo	-10.1002
▁magazine	-10.1003
▁strength	-10.1003
▁clues	-10.1003
▁resistance	-10.1004
▁relative	-10.1006
▁press	-10.1007
▁calling	-10.1012
▁finish	-10.1013
▁officers	-10.1013
▁dig	-10.1047
▁beloved	-10.1049
▁manner	-10.105
▁slip	-10.1052
▁authorities	-10.1052
▁cost	-10.1059
▁mirror	-10.106
▁sail	-10.1063
▁gen	-10.1065
▁filled	-10.1069
▁grey	-10.1074
aw	-10.108
yan	-10.1084
▁conditions	-10.1085
▁andrew	-10.1093
▁wrote	-10.1096
▁innocent	-10.1096
▁assault	-10.1097
▁rural	-10.1098
▁fbi	-10.11
▁hal	-10.1103
▁transport	-10.1107
▁emma	-10.1109
stein	-10.1124
water	-10.1134
ery	-10.1135
▁invited	-10.1141
▁vacation	-10.1143
press	-10.1149
▁check	-10.1151
▁sure	-10.1151
▁sold	-10.1156
lent	-10.1156
▁cu	-10.116
▁des	-10.1164
▁dogs	-10.1168
▁add	-10.1176
▁citizens	-10.1179
▁fund	-10.1181
▁restaurant	-10.1191
▁pur	-10.1193
▁julian	-10.1193
▁tam	-10.1195
▁scientists	-10.1198
▁challenge	-10.1199
▁voyage	-10.1201
▁drugs	-10.1202
▁hang	-10.1209
▁hor	-10.121
▁march	-10.1215
gie	-10.1223
▁bert	-10.1226
▁cy	-10.1228
▁15	-10.1233
▁fears	-10.1235
▁successfully	-10.1237
▁clothes	-10.1242
▁gabriel	-10.1245
cal	-10.1245
▁justice	-10.1246
ave	-10.1251
▁travelling	-10.1253
▁mansion	-10.1259
▁var	-10.1268
▁prime	-10.1269
century	-10.127
▁maria	-10.127
rich	-10.1277
▁accompany	-10.1286
▁scheme	-10.1286
▁wo	-10.1291
lim	-10.1292
▁floor	-10.1292
mate	-10.1293
▁organ	-10.131
see	-10.1312
▁helped	-10.1315
▁brutal	-10.1315
▁leo	-10.1317
▁russia	-10.132
top	-10.1323
▁stephen	-10.1334
▁august	-10.1336
▁personality	-10.1343
▁forms	-10.1344
▁sim	-10.1347
ky	-10.1347
▁passed	-10.1347
▁ur	-10.1355
ned	-10.1366
▁ker	-10.1367
▁closer	-10.1378
▁fo	-10.1381
").	-10.1386
▁price	-10.1386
▁crown	-10.1388
▁11	-10.1389
▁retired	-10.1393
▁col	-10.14
ack	-10.1402
▁cult	-10.1412
ese	-10.1413
▁carry	-10.1414
▁prisoners	-10.1418
▁foot	-10.1422
▁republic	-10.1425
mont	-10.1425
▁holds	-10.1426
▁deceased	-10.1431
▁reputation	-10.1431
▁cancer	-10.1432
▁saves	-10.1437
▁plague	-10.1458
▁features	-10.146
▁involves	-10.1461
▁located	-10.1463
▁quiet	-10.1464
▁poverty	-10.148
▁surviving	-10.148
▁supernatural	-10.148
ologist	-10.1482
▁q	-10.1484
▁poem	-10.1487
▁anger	-10.1494
▁robin	-10.1495
▁aim	-10.15
▁style	-10.1501
pr	-10.1502
▁upset	-10.1502
lord	-10.1507
bal	-10.1508
▁mill	-10.1512
▁happen	-10.1516
▁auto	-10.1519
▁allies	-10.1529
▁legend	-10.1529
▁earl	-10.153
▁vo	-10.153
▁factory	-10.154
use	-10.1554
aunt	-10.1562
▁cre	-10.1562
shadow	-10.1563
▁ending	-10.1568
▁ger	-10.1568
▁ol	-10.1571
mond	-10.1576
▁junior	-10.1578
▁illegal	-10.1578
▁barn	-10.1581
▁communicate	-10.1587
gor	-10.1587
▁marie	-10.159
wo	-10.1591
nder	-10.1595
pha	-10.1599
▁record	-10.16
▁fairy	-10.1603
▁warns	-10.1608
white	-10.1613
ix	-10.1616
▁guy	-10.1617
▁address	-10.1617
▁points	-10.1627
▁client	-10.1628
▁academy	-10.1628
▁drunk	-10.163
▁corrupt	-10.1631
▁conduct	-10.1633
room	-10.1633
▁covers	-10.1636
▁bat	-10.1644
▁darkness	-10.1656
yl	-10.1656
right	-10.1673
▁fifteen	-10.1678
▁sometimes	-10.1679
▁maid	-10.1679
▁relationships	-10.1679
▁figures	-10.168
▁italy	-10.1682
▁mount	-10.169
▁asking	-10.1692
▁plays	-10.1693
▁discovering	-10.1708
uff	-10.1709
▁ruler	-10.1714
▁pool	-10.1715
wife	-10.1715
bre	-10.1715
▁concern	-10.1717
▁cruel	-10.1725
ved	-10.1727
▁sneak	-10.1728
▁visited	-10.1728
▁reference	-10.1728
▁eleven	-10.1728
▁addition	-10.1729
▁ven	-10.1735
▁moral	-10.1738
iti	-10.174
ong	-10.174
sey	-10.1745
▁stealing	-10.1747
▁driver	-10.1752
▁expected	-10.1755
▁mur	-10.176
▁originally	-10.1769
▁circus	-10.1778
▁depression	-10.1778
▁struggling	-10.1778
▁warning	-10.178
▁terrible	-10.178
▁slaves	-10.179
▁recruit	-10.179
▁bob	-10.1794
▁happens	-10.1802
▁proves	-10.1802
lov	-10.1805
▁assassin	-10.1808
▁walking	-10.1814
secret	-10.1814
▁daughters	-10.1821
▁worth	-10.1825
▁disaster	-10.1828
ino	-10.1829
rak	-10.183
▁saving	-10.1832
▁somewhat	-10.1833
▁sil	-10.1838
▁spending	-10.184
▁considers	-10.1845
▁manager	-10.1855
▁survivors	-10.1857
▁dress	-10.1857
▁claiming	-10.1857
▁starting	-10.186
▁tend	-10.1863
▁pal	-10.1866
aged	-10.1867
▁presents	-10.1878
▁exploit	-10.1879
▁horror	-10.1879
▁overcome	-10.1884
▁streets	-10.189
▁obsessed	-10.1891
▁intended	-10.1893
▁route	-10.1899
eve	-10.1899
gal	-10.1901
▁han	-10.1907
▁pretend	-10.191
▁surprised	-10.1916
▁arrived	-10.1921
▁secure	-10.193
▁japan	-10.1931
▁morgan	-10.1934
▁creation	-10.1936
▁lay	-10.1938
▁level	-10.1938
state	-10.1938
▁staying	-10.1946
ung	-10.1947
▁sk	-10.1947
▁8	-10.1948
▁environment	-10.1962
▁forward	-10.1968
▁sen	-10.1969
brother	-10.1969
phe	-10.1969
tha	-10.197
▁progress	-10.1974
▁leaders	-10.198
▁bro	-10.1986
▁teaches	-10.1991
sent	-10.1994
▁suit	-10.1998
▁mouse	-10.2004
path	-10.2004
▁rights	-10.2011
known	-10.2015
▁teaching	-10.2027
great	-10.2028
ei	-10.2029
▁independent	-10.2033
▁blow	-10.2033
▁attending	-10.2036
▁massive	-10.2037
▁doubt	-10.2042
during	-10.2046
mad	-10.2051
▁wake	-10.2062
▁hardy	-10.2062
▁significant	-10.2085
▁trick	-10.2095
az	-10.2101
▁journal	-10.2106
▁grown	-10.2107
▁serious	-10.2119
place	-10.2124
▁walks	-10.2131
▁locked	-10.2136
▁nephew	-10.2137
▁territory	-10.2137
▁marine	-10.2137
▁scotland	-10.2138
▁virus	-10.214
▁phil	-10.2142
▁cities	-10.2142
▁dad	-10.2143
▁orbit	-10.2145
▁fix	-10.2147
▁thrown	-10.2148
▁eastern	-10.2149
▁fitz	-10.215
coming	-10.2151
▁bringing	-10.2151
▁upper	-10.2154
▁watching	-10.2155
▁heaven	-10.2156
dom	-10.2158
▁shooting	-10.2163
▁shan	-10.2168
▁squ	-10.217
▁9	-10.2171
rate	-10.2172
▁faces	-10.2176
chan	-10.218
len	-10.2186
pped	-10.2197
▁continent	-10.2198
▁affection	-10.22
▁jewel	-10.2205
rio	-10.2211
▁tele	-10.2218
▁beck	-10.2225
poli	-10.2232
arch	-10.2235
▁badly	-10.2235
cess	-10.2236
fully	-10.2236
▁distance	-10.2242
▁decline	-10.2242
▁alexander	-10.2243
▁eddie	-10.2243
aya	-10.2251
▁crimes	-10.2252
▁hearing	-10.2255
later	-10.2257
anne	-10.226
ash	-10.2261
▁edge	-10.2262
▁month	-10.2267
▁initial	-10.2276
▁isabel	-10.2278
stra	-10.2289
▁fred	-10.2291
ama	-10.2294
▁favor	-10.2294
▁survival	-10.2295
▁blo	-10.2295
▁pol	-10.2302
▁jake	-10.2306
▁lonely	-10.2308
▁heal	-10.2311
ros	-10.2311
rang	-10.2313
script	-10.233
▁emotional	-10.2331
▁amount	-10.2337
▁corpse	-10.2338
lip	-10.2338
▁table	-10.2339
▁holy	-10.2345
▁execution	-10.2348
▁snake	-10.2348
▁picture	-10.2352
sur	-10.2353
▁weak	-10.2353
20	-10.2354
▁fr	-10.2356
▁cultural	-10.2358
▁chris	-10.2376
▁counter	-10.2386
lay	-10.2389
▁treat	-10.24
▁your	-10.2401
▁wave	-10.2401
what	-10.2401
▁afraid	-10.2401
▁expert	-10.2401
▁cia	-10.2401
▁ireland	-10.2401
▁presented	-10.2403
▁none	-10.2404
▁rod	-10.2418
play	-10.242
▁von	-10.2423
bl	-10.2426
▁blame	-10.2429
▁businessman	-10.2429
▁gas	-10.2447
kar	-10.2459
run	-10.2461
▁tin	-10.2462
that	-10.2466
▁devil	-10.2486
fr	-10.2489
▁experiment	-10.2492
▁bal	-10.2494
gr	-10.2495
▁heard	-10.2497
▁oz	-10.2507
▁commission	-10.251
▁lower	-10.2512
tta	-10.2518
▁root	-10.2523
▁vampires	-10.2527
▁fun	-10.2535
▁connected	-10.2543
▁breaking	-10.2548
▁concerned	-10.255
cc	-10.2554
▁ye	-10.2557
▁loyal	-10.2561
▁scholar	-10.2562
▁julia	-10.2563
▁principal	-10.2564
▁workers	-10.2564
▁decades	-10.2566
▁christopher	-10.2569
arian	-10.2573
▁copy	-10.258
▁intends	-10.258
▁arms	-10.2582
▁tiger	-10.2585
cus	-10.2597
elle	-10.2609
▁investigator	-10.2618
▁alcoholic	-10.2621
ily	-10.2628
▁protection	-10.263
▁stars	-10.2634
ms	-10.2641
▁acting	-10.2645
▁gor	-10.2648
▁whil	-10.2658
nic	-10.266
▁guilt	-10.266
▁sections	-10.2662
▁dealing	-10.2663
smith	-10.2668
▁harm	-10.2669
nch	-10.267
▁kidnap	-10.267
based	-10.2672
▁sophie	-10.2673
▁spiritual	-10.2674
▁punishment	-10.2675
▁entirely	-10.2676
▁baron	-10.2679
▁lily	-10.2681
▁johnny	-10.2682
▁bag	-10.2685
bad	-10.2686
live	-10.27
▁reasons	-10.2706
▁21	-10.2711
▁ideal	-10.2715
pass	-10.2716
two	-10.2717
body	-10.2719
▁instruct	-10.272
quot	-10.2726
▁escaping	-10.2728
▁literary	-10.2728
▁prominent	-10.2728
vert	-10.2738
▁approach	-10.274
▁14	-10.2741
▁ber	-10.2742
▁30	-10.2756
▁bee	-10.276
▁bru	-10.2761
▁passing	-10.2767
▁roy	-10.2768
▁largely	-10.2769
dream	-10.2775
▁mortal	-10.2779
▁sending	-10.2781
▁respond	-10.2784
▁jesus	-10.2784
▁ruled	-10.2786
moon	-10.2786
than	-10.2789
▁grew	-10.2791
▁communication	-10.2792
▁thirteen	-10.2792
▁april	-10.2793
▁ideas	-10.2794
▁poison	-10.2807
aka	-10.281
▁inform	-10.281
▁australia	-10.2825
▁promise	-10.2828
▁egypt	-10.2835
▁eli	-10.2839
▁charlotte	-10.284
▁conclusion	-10.284
▁response	-10.284
▁unaware	-10.284
▁assistance	-10.2842
▁mob	-10.285
▁bla	-10.2852
▁origin	-10.2856
▁reluctantly	-10.2858
▁brand	-10.2858
▁signal	-10.2858
▁gro	-10.286
kan	-10.2865
hel	-10.2872
▁county	-10.2873
▁player	-10.2874
▁web	-10.2881
▁tha	-10.2885
▁eccentric	-10.2896
▁contrast	-10.2896
▁construction	-10.2899
ali	-10.29
▁dur	-10.2902
▁chooses	-10.2904
▁chan	-10.2906
▁nora	-10.2906
▁tru	-10.2906
▁elite	-10.2908
▁rare	-10.2912
▁shares	-10.2912
▁nan	-10.2919
▁lovers	-10.2922
pur	-10.2927
▁exile	-10.2929
▁flo	-10.2929
▁briefly	-10.293
▁constant	-10.293
▁teach	-10.293
▁dy	-10.2931
oli	-10.294
child	-10.2943
200	-10.2943
▁boston	-10.2954
▁thanks	-10.2956
bon	-10.2957
▁walter	-10.2957
▁owned	-10.2959
▁approaches	-10.2963
▁intention	-10.2965
will	-10.2972
▁summon	-10.2973
▁fast	-10.2982
▁notice	-10.2983
▁burn	-10.2988
mel	-10.2993
▁goddess	-10.3009
▁rank	-10.301
▁flood	-10.301
▁bitter	-10.3012
mother	-10.3014
▁myth	-10.3015
▁lar	-10.3015
▁objects	-10.302
ches	-10.3023
▁kal	-10.3037
cel	-10.3041
▁actual	-10.3048
▁tradition	-10.3053
tory	-10.3055
mic	-10.3061
▁video	-10.3066
▁proceeds	-10.3074
▁molly	-10.3075
▁duty	-10.3076
keeper	-10.3076
▁julie	-10.3076
▁collect	-10.3077
▁labor	-10.308
▁resist	-10.3089
tru	-10.3094
▁eva	-10.31
▁subsequent	-10.3104
▁jud	-10.3105
hill	-10.3113
▁challenges	-10.3113
gro	-10.3114
▁ready	-10.3115
▁shore	-10.3115
hon	-10.3116
▁flu	-10.3119
▁guests	-10.3121
▁eu	-10.3124
▁cottage	-10.3124
▁captive	-10.3124
▁buried	-10.3124
▁multi	-10.3124
▁holding	-10.3125
▁attends	-10.3129
▁ryan	-10.3132
▁throw	-10.3134
▁mentor	-10.3143
ini	-10.3143
▁supposedly	-10.3148
▁fatal	-10.315
▁dun	-10.3159
ye	-10.3164
bit	-10.3164
ulate	-10.3167
▁peaceful	-10.3178
▁fail	-10.318
▁drives	-10.3181
▁argument	-10.3182
▁crystal	-10.3182
▁improve	-10.3182
▁jar	-10.3183
real	-10.3183
▁otherwise	-10.3186
▁app	-10.3193
▁hometown	-10.3193
wer	-10.32
bury	-10.3201
▁youngest	-10.322
▁stays	-10.3226
▁elements	-10.3226
▁thorn	-10.3239
▁editor	-10.324
▁estranged	-10.324
▁manuscript	-10.324
▁heavy	-10.324
wn	-10.324
▁depart	-10.3246
dis	-10.3247
▁spaceship	-10.3248
▁fifth	-10.325
▁reform	-10.325
▁jones	-10.3252
▁sat	-10.3259
▁related	-10.3259
rose	-10.3262
zu	-10.3262
▁clay	-10.3272
▁pop	-10.3274
▁refers	-10.3284
▁lie	-10.3285
ington	-10.3287
tie	-10.329
ada	-10.3291
▁fake	-10.3294
▁design	-10.3295
▁zi	-10.3297
▁attitude	-10.3298
▁pearl	-10.3298
▁prospect	-10.3298
▁florida	-10.3299
▁planned	-10.3301
▁buck	-10.3302
▁extra	-10.3306
turn	-10.3307
▁possibly	-10.3308
▁defense	-10.3309
▁concludes	-10.3316
col	-10.3316
▁ensure	-10.3318
gard	-10.3319
miss	-10.332
▁pla	-10.3325
▁guards	-10.3329
▁pin	-10.3332
▁tall	-10.3352
short	-10.3353
▁protest	-10.3355
▁shown	-10.3355
▁governor	-10.3357
▁institute	-10.3357
▁neither	-10.3357
▁speech	-10.3357
▁serial	-10.3358
▁climb	-10.3366
key	-10.3367
eck	-10.3376
most	-10.3379
▁haunted	-10.3381
mir	-10.3389
get	-10.3391
tsu	-10.3397
▁rising	-10.3401
hr	-10.3401
▁page	-10.3408
▁corporation	-10.3416
▁rebellion	-10.3416
▁football	-10.3417
▁network	-10.3417
chen	-10.3417
▁truck	-10.3419
▁convert	-10.3419
▁accepted	-10.3425
▁wearing	-10.3434
▁games	-10.3435
▁jackson	-10.3437
▁season	-10.3437
conan	-10.3443
pat	-10.3446
▁bun	-10.3448
▁aliens	-10.3448
lot	-10.3449
▁str	-10.3456
▁sudden	-10.3456
▁documents	-10.3464
▁studying	-10.3464
▁oliver	-10.3468
▁fantasy	-10.3476
▁thirty	-10.3476
oz	-10.3477
▁ji	-10.3478
▁cats	-10.348
cro	-10.3482
▁demons	-10.3485
▁spain	-10.3486
arm	-10.3488
▁views	-10.349
▁dave	-10.3502
board	-10.3506
vol	-10.3506
▁habit	-10.351
▁belief	-10.3511
own	-10.3518
▁deaths	-10.3523
▁zo	-10.353
▁wonder	-10.3531
▁sara	-10.3535
▁academic	-10.3536
storm	-10.3536
▁possess	-10.3536
▁barely	-10.3536
▁finn	-10.3536
▁countries	-10.3537
▁prize	-10.3538
▁ellen	-10.354
▁individuals	-10.3543
▁inspired	-10.3545
▁matters	-10.3545
▁weather	-10.3548
kov	-10.3553
face	-10.3554
▁martha	-10.3556
▁sleeping	-10.356
ets	-10.3564
pho	-10.3569
▁lines	-10.3575
▁reluctant	-10.3576
worth	-10.3577
bus	-10.3583
▁fen	-10.3588
▁mean	-10.3595
▁ross	-10.3595
▁barbara	-10.3596
▁function	-10.3596
▁sixteen	-10.3596
▁global	-10.3596
eb	-10.3596
▁daily	-10.3598
▁handsome	-10.3599
they	-10.3601
▁christ	-10.3602
▁clo	-10.3611
▁rabbit	-10.3611
▁fur	-10.3615
▁fully	-10.3616
▁serves	-10.3622
▁hot	-10.3624
tial	-10.3625
▁fulfill	-10.3626
▁disguise	-10.3633
▁occur	-10.3633
▁loved	-10.3636
doctor	-10.3639
▁py	-10.364
rop	-10.3644
▁cry	-10.3655
▁institution	-10.3656
▁volume	-10.3657
▁jungle	-10.3657
▁establish	-10.3666
▁complicated	-10.3669
▁effects	-10.3672
▁ordered	-10.3673
more	-10.3675
▁ry	-10.3676
▁guilty	-10.3678
▁consequences	-10.368
▁engage	-10.3684
▁singer	-10.3687
▁zu	-10.3699
wind	-10.37
▁birds	-10.3709
▁pot	-10.3709
▁district	-10.3718
▁episode	-10.3718
▁politician	-10.3718
▁matthew	-10.3718
▁split	-10.3718
▁absence	-10.3718
▁combat	-10.3719
boat	-10.3731
▁discussion	-10.3738
▁nations	-10.374
▁offered	-10.3741
eye	-10.3741
ston	-10.3744
▁sale	-10.3756
▁fashion	-10.3757
lian	-10.3775
▁larger	-10.3775
▁immigrant	-10.3779
▁medicine	-10.3779
▁prologue	-10.3779
▁diamond	-10.3779
▁serving	-10.378
lost	-10.3783
cross	-10.3785
▁sm	-10.3785
▁metal	-10.3789
▁rebel	-10.3794
▁fool	-10.3797
▁ian	-10.3811
tus	-10.3813
lands	-10.3814
uous	-10.3818
roy	-10.3823
▁colleague	-10.3825
▁bound	-10.3839
▁needed	-10.3839
▁deeply	-10.3839
▁proposes	-10.3841
▁driving	-10.3841
▁election	-10.3841
▁retreat	-10.3841
▁pacific	-10.3841
tea	-10.3843
▁loose	-10.3844
▁hurt	-10.3844
▁ended	-10.3844
away	-10.3852
▁villagers	-10.3852
▁sole	-10.3853
▁pit	-10.3856
▁resources	-10.3857
▁mysteriously	-10.3857
dian	-10.3859
▁kids	-10.386
▁gray	-10.3873
▁speaks	-10.3878
▁generations	-10.388
▁seduce	-10.3893
tel	-10.3897
▁bl	-10.3898
▁creating	-10.3903
▁jimmy	-10.3906
▁marcus	-10.3907
▁hugh	-10.3907
▁sharpe	-10.3908
▁albert	-10.3909
ency	-10.391
▁yellow	-10.3914
▁berlin	-10.3916
▁strikes	-10.3919
▁cliff	-10.3921
▁fishing	-10.3928
upon	-10.3928
▁fran	-10.3934
put	-10.3934
▁reports	-10.3936
▁frame	-10.3938
▁physically	-10.3949
▁charm	-10.3952
▁variety	-10.3965
▁eldest	-10.3965
▁pursuit	-10.3965
▁display	-10.3968
lig	-10.3969
▁lifestyle	-10.397
▁conspiracy	-10.3972
wen	-10.3972
▁nun	-10.3973
▁mask	-10.3975
bor	-10.3978
▁hides	-10.3982
▁unexpectedly	-10.3984
ille	-10.3991
bed	-10.3994
▁drawing	-10.3996
▁watches	-10.3997
▁hawk	-10.4
▁tea	-10.4011
▁choose	-10.402
▁essay	-10.4028
▁jonathan	-10.4028
▁sergeant	-10.4029
▁favorite	-10.4029
▁hostage	-10.4031
▁paint	-10.4032
▁bone	-10.4032
lant	-10.4037
ending	-10.4037
▁passion	-10.4039
ister	-10.4039
▁wins	-10.4047
▁cloud	-10.4048
▁ash	-10.405
▁capable	-10.4051
▁polly	-10.4054
▁howard	-10.4054
wyn	-10.4057
▁crowd	-10.4061
▁kin	-10.4063
▁shared	-10.4065
▁investigates	-10.4065
bs	-10.4069
▁cop	-10.407
▁alan	-10.4071
mil	-10.4072
▁semi	-10.4073
▁lea	-10.4075
break	-10.4079
af	-10.4079
▁shocked	-10.4084
▁peasant	-10.4091
▁empty	-10.4091
▁strict	-10.4091
hara	-10.4094
los	-10.4094
▁percy	-10.4094
▁unconscious	-10.4095
▁kiss	-10.4098
att	-10.4099
▁devoted	-10.4104
ula	-10.4123
▁keeping	-10.4134
▁jen	-10.4138
▁stops	-10.4142
▁inner	-10.4147
oo	-10.4155
▁medieval	-10.4155
▁veteran	-10.4155
▁blackmail	-10.4155
▁abusive	-10.4155
▁niece	-10.4155
▁survived	-10.4164
▁willing	-10.4168
▁realiz	-10.4175
▁produce	-10.4176
▁brian	-10.4184
▁attempted	-10.4185
sco	-10.4189
▁selling	-10.4192
▁pirates	-10.4198
▁treated	-10.4203
▁changing	-10.4205
▁showing	-10.421
▁mah	-10.4211
cia	-10.4216
▁comfort	-10.4217
▁actress	-10.422
▁hollywood	-10.422
▁assignment	-10.4221
ute	-10.4223
sol	-10.4225
ux	-10.4227
▁supplies	-10.4227
pir	-10.4233
▁understanding	-10.4236
▁reunited	-10.4243
▁13	-10.4243
ware	-10.4253
sun	-10.4256
ima	-10.426
▁unexpected	-10.4264
▁cases	-10.4265
▁jealous	-10.4265
▁scott	-10.4267
▁vietnam	-10.4283
▁clue	-10.4283
▁identify	-10.4284
▁routine	-10.4284
▁bull	-10.4284
blue	-10.4285
tech	-10.4285
▁review	-10.429
▁industrial	-10.4292
▁cow	-10.4296
▁dating	-10.4296
▁memoir	-10.4312
▁kir	-10.4315
▁lab	-10.4315
where	-10.4321
▁determine	-10.4326
▁undergo	-10.433
▁standing	-10.4339
▁gla	-10.4344
▁commit	-10.4344
ole	-10.4345
▁facility	-10.4349
▁league	-10.4349
five	-10.435
▁liz	-10.4357
mag	-10.4361
ona	-10.4363
mist	-10.4371
▁flash	-10.4374
good	-10.4375
lio	-10.4375
▁tony	-10.4385
▁likely	-10.4387
aga	-10.4389
mma	-10.439
▁burned	-10.4393
▁mistake	-10.4402
▁pete	-10.4404
▁wy	-10.4405
▁immortal	-10.4411
▁preparing	-10.4414
▁venture	-10.4414
space	-10.4416
50	-10.4419
▁fever	-10.442
▁guest	-10.4422
▁leon	-10.4426
atic	-10.443
▁dealer	-10.4435
driven	-10.4437
▁yo	-10.4465
▁easily	-10.448
▁explosion	-10.448
▁impossible	-10.448
▁receiving	-10.448
▁harriet	-10.448
▁muslim	-10.448
▁intellectual	-10.448
▁maggie	-10.448
first	-10.4481
▁themes	-10.4486
▁countryside	-10.4487
▁progresses	-10.4494
rad	-10.4495
▁cub	-10.4495
▁theft	-10.4497
▁ted	-10.45
▁transform	-10.4502
▁victory	-10.451
▁bit	-10.4513
▁ana	-10.4513
▁hum	-10.4516
▁gains	-10.4517
▁luck	-10.4518
song	-10.4522
era	-10.4528
▁marrying	-10.4531
lady	-10.4536
▁kay	-10.4537
bow	-10.454
hal	-10.454
▁eating	-10.4541
bear	-10.4544
yard	-10.4545
▁artificial	-10.4546
▁catherine	-10.4546
▁turning	-10.4547
bird	-10.4551
▁mainly	-10.4552
▁der	-10.4552
▁suspected	-10.4568
vie	-10.4571
rine	-10.4574
▁forget	-10.4577
▁directly	-10.4577
nar	-10.458
hard	-10.4586
▁sel	-10.4591
iff	-10.4596
▁range	-10.4601
▁artifact	-10.4613
▁exploring	-10.4613
▁primarily	-10.4613
▁aubrey	-10.4613
▁supply	-10.4613
▁lewis	-10.4613
▁speed	-10.4613
▁hay	-10.4615
▁covered	-10.4625
▁dust	-10.4628
▁round	-10.4628
▁photo	-10.4628
▁jay	-10.4636
▁knock	-10.4642
bet	-10.4642
▁painter	-10.4647
▁chain	-10.4647
ache	-10.4649
▁achieve	-10.4649
▁trained	-10.4657
▁cass	-10.4668
▁bud	-10.4673
▁francis	-10.4678
▁reporter	-10.4678
▁motive	-10.468
▁easy	-10.468
wick	-10.4688
▁nightmare	-10.469
try	-10.4692
▁tal	-10.4693
▁answers	-10.4695
clan	-10.4696
ox	-10.47
ret	-10.4703
▁threatened	-10.4706
▁joy	-10.4708
▁severe	-10.4715
▁refuge	-10.4717
▁torture	-10.4717
▁tales	-10.472
▁disc	-10.4722
oy	-10.4723
lum	-10.4723
pot	-10.4727
▁stan	-10.4733
▁relate	-10.474
▁tracks	-10.4743
▁resembl	-10.4746
▁bored	-10.4747
▁galaxy	-10.4747
▁psychic	-10.4747
▁taught	-10.4747
▁unique	-10.4747
▁disrupt	-10.4747
▁article	-10.4747
▁patrick	-10.4748
▁bedroom	-10.4749
▁patrol	-10.4749
▁flies	-10.4753
▁classmates	-10.4754
shire	-10.4757
▁tunnel	-10.4759
▁remove	-10.4759
▁cassie	-10.4759
dale	-10.4763
ala	-10.4765
leigh	-10.4765
▁survives	-10.4769
rent	-10.477
▁ruby	-10.477
▁ranger	-10.4771
just	-10.4772
▁inhabited	-10.4775
ore	-10.4779
▁june	-10.4789
▁removed	-10.4792
▁hatch	-10.48
ball	-10.4803
▁ruthless	-10.4803
▁victoria	-10.4808
▁worker	-10.481
▁participate	-10.4815
▁perhaps	-10.4815
cep	-10.4817
thy	-10.4818
▁bobby	-10.4819
three	-10.482
▁sorcerer	-10.4822
▁recovering	-10.4823
▁symbol	-10.4825
iel	-10.483
▁value	-10.4836
▁data	-10.4837
▁horn	-10.4843
▁chas	-10.4844
▁kirk	-10.4845
▁affairs	-10.4846
▁warriors	-10.4849
▁shoe	-10.4856
▁ransom	-10.4857
fy	-10.4862
▁expect	-10.4864
pel	-10.4872
▁fra	-10.4876
kill	-10.4877
▁creates	-10.4879
▁malcolm	-10.4884
▁vessel	-10.4884
▁pattern	-10.4884
▁texas	-10.4884
▁contest	-10.4885
called	-10.4886
▁stalk	-10.4887
▁georgia	-10.4888
▁items	-10.4889
▁remembers	-10.4891
▁troubled	-10.4904
▁landing	-10.4908
eur	-10.4908
▁kha	-10.4921
burn	-10.4922
dal	-10.4934
▁bow	-10.4938
▁predict	-10.4939
▁fame	-10.4949
▁carter	-10.4949
▁advantage	-10.4953
▁necessary	-10.4953
▁welcome	-10.4953
▁grief	-10.4953
▁regain	-10.4953
fair	-10.4965
forcing	-10.4973
▁norman	-10.4973
▁pirate	-10.4976
mates	-10.4976
▁fights	-10.4987
▁stock	-10.4988
uri	-10.4992
▁seize	-10.4993
▁jesse	-10.4994
▁mat	-10.4994
▁damage	-10.4996
▁threatening	-10.4998
pet	-10.5001
▁nicknamed	-10.5002
▁wit	-10.5002
nan	-10.5005
▁pra	-10.5008
beth	-10.5019
▁descend	-10.502
▁pursued	-10.5022
▁describing	-10.5022
▁ordinary	-10.5022
▁abbey	-10.5022
▁jerry	-10.5022
▁compar	-10.5025
▁gwen	-10.5025
daughter	-10.5027
▁cope	-10.5027
▁proper	-10.5033
made	-10.5035
▁ky	-10.5036
▁direction	-10.5043
▁ivan	-10.5044
▁finger	-10.5047
▁warm	-10.5052
▁wide	-10.5053
lam	-10.5057
ella	-10.5059
▁raven	-10.5069
▁ali	-10.5069
▁consult	-10.5071
▁generation	-10.5073
▁riding	-10.5074
▁critic	-10.508
▁admiral	-10.5092
▁unhappy	-10.5092
▁heavily	-10.5092
▁1950	-10.5095
▁fresh	-10.5095
earth	-10.5097
ode	-10.5097
▁repeatedly	-10.5101
▁diana	-10.5102
▁flashbacks	-10.5111
▁anonymous	-10.5113
zer	-10.5113
▁spider	-10.5114
▁wr	-10.5114
roll	-10.5124
▁mate	-10.5125
▁trace	-10.5134
sim	-10.5141
▁jump	-10.5147
▁didn	-10.5152
vic	-10.5153
fur	-10.5158
▁relatives	-10.516
▁systems	-10.5162
▁scandal	-10.5163
▁kidnapping	-10.5164
▁nicholas	-10.5164
▁primary	-10.5164
big	-10.5164
▁friendly	-10.5165
▁felt	-10.5165
▁attractive	-10.5165
▁carries	-10.5168
ale	-10.5169
game	-10.5169
▁rap	-10.5171
▁beaten	-10.5177
▁mala	-10.5179
lore	-10.5185
▁occurs	-10.5187
▁mont	-10.5192
▁admits	-10.52
▁survivor	-10.5201
▁served	-10.5212
▁fre	-10.5215
▁folk	-10.5215
▁bones	-10.5218
▁passengers	-10.5227
▁servants	-10.5229
▁daisy	-10.5234
▁seventeen	-10.5234
▁bernard	-10.5234
▁chronicles	-10.5235
cor	-10.5236
▁attraction	-10.5238
sign	-10.5239
▁production	-10.5239
▁hitler	-10.5239
point	-10.524
school	-10.524
free	-10.5247
▁file	-10.5253
▁parties	-10.5263
four	-10.5263
▁planets	-10.5263
▁craft	-10.5264
▁tv	-10.5275
▁experienced	-10.528
▁jin	-10.5281
▁kim	-10.5285
▁juan	-10.5288
▁neighbors	-10.5291
▁steve	-10.5297
▁crow	-10.5299
ark	-10.5303
gged	-10.5303
once	-10.5304
ification	-10.5305
▁behaviour	-10.5305
▁beneath	-10.5305
▁familiar	-10.5305
▁knife	-10.5305
▁martian	-10.5305
▁adapt	-10.5305
▁random	-10.5307
▁sexually	-10.5311
mac	-10.5314
▁cabin	-10.5317
ela	-10.532
▁usually	-10.5321
▁greatest	-10.5322
▁glo	-10.5322
▁steps	-10.5329
▁sho	-10.5337
▁dia	-10.5347
▁ensu	-10.5348
▁below	-10.5358
▁broke	-10.536
▁established	-10.5362
▁addict	-10.5373
▁signs	-10.5373
▁experiments	-10.5377
▁manhattan	-10.5377
▁philosophy	-10.5377
▁stephanie	-10.5377
▁oxford	-10.5377
▁edition	-10.5377
▁notorious	-10.5377
▁troops	-10.5377
▁gordon	-10.5378
▁hostile	-10.5379
▁monkey	-10.538
▁poetry	-10.5383
▁slow	-10.5384
▁strip	-10.5386
▁executed	-10.5389
ean	-10.539
▁confrontation	-10.5392
▁grim	-10.5398
▁independence	-10.5404
rew	-10.5418
ctor	-10.542
bur	-10.5424
bul	-10.5426
▁approached	-10.5426
▁readers	-10.5428
rim	-10.5429
▁regular	-10.5431
▁teen	-10.5433
tail	-10.5438
▁pri	-10.5445
▁prophecy	-10.5449
▁miranda	-10.5449
▁holmes	-10.545
▁wreck	-10.545
▁mole	-10.5451
▁unfold	-10.5452
rit	-10.5453
▁lev	-10.5454
▁corruption	-10.5455
▁patients	-10.5457
▁canada	-10.546
▁row	-10.546
llowing	-10.5461
▁managed	-10.5466
hold	-10.5469
▁bush	-10.5472
▁belonging	-10.5473
▁races	-10.5475
▁witches	-10.5483
▁limit	-10.5489
▁tomb	-10.5492
ira	-10.5492
▁fled	-10.5508
▁speaking	-10.5519
▁statue	-10.5523
▁fourteen	-10.5523
▁reign	-10.5523
bie	-10.5523
▁forbidden	-10.5523
▁biological	-10.5523
▁impact	-10.5524
▁involvement	-10.5524
▁happening	-10.5524
▁legendary	-10.5525
▁mining	-10.553
rap	-10.5531
▁paid	-10.5534
▁thousands	-10.5536
▁exactly	-10.5537
▁chu	-10.5539
▁ter	-10.5548
▁betrayed	-10.5549
▁beth	-10.555
▁whit	-10.5554
▁ny	-10.5555
▁realise	-10.5558
jan	-10.5564
▁higher	-10.5574
▁kid	-10.5574
bot	-10.5582
▁cup	-10.5585
come	-10.5587
▁rid	-10.5593
▁champion	-10.5596
▁confused	-10.5596
▁domestic	-10.5596
▁jeremy	-10.5596
▁madame	-10.5596
▁kitchen	-10.5597
▁division	-10.5597
▁express	-10.5598
▁carried	-10.561
▁oak	-10.5611
▁meg	-10.5618
▁latest	-10.5621
there	-10.5626
hil	-10.5627
▁villain	-10.5628
▁suffered	-10.5629
▁om	-10.5629
ami	-10.5633
gram	-10.5633
▁reads	-10.5634
load	-10.5634
elli	-10.5634
▁records	-10.5637
▁fat	-10.5639
▁emerge	-10.5642
▁meant	-10.5643
str	-10.5658
▁relations	-10.5663
gli	-10.5669
▁portrait	-10.567
▁twist	-10.567
▁tragic	-10.567
▁harbor	-10.5671
witch	-10.5675
▁succeed	-10.568
▁provided	-10.5682
▁wheel	-10.5682
▁cam	-10.5687
▁followers	-10.5691
▁advance	-10.5691
▁ranch	-10.5694
▁mom	-10.5708
dog	-10.5711
cap	-10.5711
18	-10.5714
▁defeated	-10.5714
▁pad	-10.5716
▁employer	-10.5721
hor	-10.5721
▁comic	-10.5723
gel	-10.5723
▁burning	-10.5739
▁valuable	-10.5745
▁virtual	-10.5745
▁escort	-10.5745
▁federation	-10.5745
▁ralph	-10.5745
▁chamber	-10.5745
▁stopped	-10.5748
▁winning	-10.5748
▁leadership	-10.5753
▁product	-10.5755
▁slavery	-10.5756
▁gathering	-10.576
▁tribes	-10.5761
▁arranged	-10.5761
▁remind	-10.5765
▁recognizes	-10.5766
ati	-10.5769
▁push	-10.5777
▁greater	-10.5782
▁joke	-10.5786
hl	-10.5787
▁frequent	-10.58
▁size	-10.5808
▁gru	-10.581
▁destroys	-10.5813
▁ghosts	-10.5816
▁pill	-10.5816
▁widowed	-10.5819
▁atmosphere	-10.582
▁colonists	-10.582
▁rebecca	-10.582
▁recognise	-10.582
▁resort	-10.582
▁opinion	-10.582
▁residence	-10.5821
▁overhear	-10.5821
▁1960	-10.5821
▁engagement	-10.5824
▁egg	-10.5833
▁sailor	-10.5837
▁coach	-10.5838
▁mentioned	-10.5842
▁rein	-10.5842
▁steel	-10.5849
berry	-10.5856
phy	-10.5857
▁tip	-10.5864
och	-10.5873
▁transported	-10.588
▁harsh	-10.5884
▁orphaned	-10.5885
▁bishop	-10.5896
▁tragedy	-10.5896
▁worship	-10.5896
▁industry	-10.5896
▁psychological	-10.5896
▁aftermath	-10.5896
▁genetic	-10.5896
▁radical	-10.5896
bone	-10.5898
▁vice	-10.5904
count	-10.5905
▁tail	-10.5906
llo	-10.5911
▁happiness	-10.5912
▁authority	-10.5918
▁feet	-10.592
mill	-10.5921
read	-10.5923
▁damaged	-10.5929
catches	-10.5932
▁seat	-10.5934
▁char	-10.5934
▁promised	-10.5937
▁transformed	-10.5939
▁rosa	-10.5941
rant	-10.5943
▁mentally	-10.5949
▁embark	-10.5953
▁employ	-10.5964
▁whi	-10.597
▁bizarre	-10.5972
▁contemporary	-10.5972
▁distress	-10.5972
▁homeless	-10.5977
▁(19	-10.5978
▁jun	-10.5979
▁hil	-10.5982
▁plantation	-10.5982
▁clara	-10.5982
▁por	-10.5984
father	-10.5986
▁majority	-10.5986
▁interrupted	-10.5989
gs	-10.5991
mission	-10.5994
▁sweet	-10.6001
▁faced	-10.6003
ika	-10.6005
▁recognize	-10.6006
▁fin	-10.6007
▁inherited	-10.6007
▁oldest	-10.6008
▁knights	-10.6008
▁gene	-10.601
▁mentions	-10.6011
▁sol	-10.6018
▁shell	-10.602
▁warn	-10.6021
▁designed	-10.6021
too	-10.6028
▁chee	-10.6031
▁operations	-10.6044
▁lap	-10.6044
log	-10.6049
▁vehicle	-10.6049
▁senator	-10.6049
▁struck	-10.6049
▁attorney	-10.6049
▁distinct	-10.6049
▁mage	-10.605
▁curious	-10.6051
▁enjoys	-10.6052
▁services	-10.6054
view	-10.6063
▁begun	-10.6069
▁succeeds	-10.6077
▁groups	-10.6077
gui	-10.608
▁prepare	-10.6081
▁prefer	-10.6082
▁evan	-10.61
▁buys	-10.6104
▁recalls	-10.611
▁nest	-10.6119
▁sydney	-10.6126
▁traitor	-10.6126
▁caroline	-10.6128
▁balance	-10.6129
▁horses	-10.6129
▁yard	-10.6131
▁manor	-10.6138
▁dimension	-10.6146
▁severely	-10.6149
▁replaced	-10.6152
ann	-10.6154
▁wandering	-10.6154
▁vor	-10.6157
ological	-10.6162
▁connect	-10.6162
▁acquire	-10.6174
▁accuse	-10.6174
▁aspects	-10.6181
mun	-10.6181
▁intent	-10.6186
cock	-10.6188
▁formerly	-10.6192
▁proceed	-10.6194
▁milk	-10.6202
▁embarrass	-10.6204
▁occupation	-10.6204
▁required	-10.6204
▁eager	-10.6205
▁sinister	-10.6205
▁performance	-10.6208
▁nobody	-10.6214
▁zoo	-10.6219
rod	-10.6219
wit	-10.6226
▁arranges	-10.6231
nel	-10.6232
▁nar	-10.6233
▁midnight	-10.6237
▁asleep	-10.6244
▁spi	-10.6251
▁quit	-10.6255
12	-10.6261
▁iii	-10.6261
▁extreme	-10.6264
home	-10.6264
gil	-10.6267
▁patient	-10.6276
▁alcohol	-10.6276
▁additional	-10.628
▁russell	-10.6283
▁brazil	-10.6283
▁degree	-10.6283
▁carolina	-10.6284
▁rogue	-10.6288
▁infected	-10.6296
▁bin	-10.6296
▁bride	-10.63
▁psycho	-10.6302
bat	-10.6305
▁truly	-10.6311
wild	-10.6327
▁gil	-10.633
▁sean	-10.6332
▁purchase	-10.6332
▁entering	-10.6336
▁wei	-10.6339
sister	-10.6342
▁classes	-10.6348
▁method	-10.6356
▁classmate	-10.6359
vision	-10.636
▁celebrate	-10.6363
▁dorothy	-10.6363
▁executive	-10.6363
▁alternative	-10.6363
▁exhibit	-10.6363
▁dwarf	-10.6363
▁expand	-10.6363
▁otto	-10.6363
▁hob	-10.6363
▁sally	-10.6368
▁blake	-10.6369
▁baker	-10.6374
▁bon	-10.6383
▁refused	-10.639
onic	-10.6391
▁blu	-10.6399
▁miller	-10.6406
aries	-10.6408
rock	-10.6421
▁fleeing	-10.6428
▁todd	-10.6428
▁decade	-10.644
▁kai	-10.644
▁conference	-10.6443
▁quarter	-10.6443
▁unwilling	-10.6443
▁intense	-10.6443
▁transfer	-10.6443
▁dal	-10.6445
▁settlement	-10.6453
▁viv	-10.6458
including	-10.6459
▁lone	-10.6471
▁suggest	-10.6472
▁pieces	-10.6477
▁comm	-10.6479
▁pages	-10.6483
▁limited	-10.6484
▁louise	-10.6485
▁angela	-10.6486
▁iv	-10.6489
novella	-10.649
▁throws	-10.6493
▁divorced	-10.6498
▁lang	-10.6504
▁forth	-10.6506
▁ron	-10.6513
▁infant	-10.6521
▁ambush	-10.6523
▁essential	-10.6523
▁frustrated	-10.6523
▁september	-10.6523
▁worried	-10.6523
▁facing	-10.6524
promising	-10.6524
▁square	-10.6524
▁internal	-10.6525
post	-10.6529
▁somehow	-10.6533
▁elephant	-10.6534
▁reaction	-10.6535
▁awakens	-10.6537
verse	-10.654
children	-10.654
foot	-10.6542
▁stranded	-10.6543
▁forgotten	-10.6544
▁trilogy	-10.6544
▁australian	-10.6545
▁jobs	-10.6555
wed	-10.6556
jack	-10.656
▁heroes	-10.6565
hir	-10.6566
▁conquer	-10.6567
fly	-10.6568
▁critical	-10.6569
▁intrigue	-10.6574
▁summoned	-10.6577
itz	-10.6577
▁mayor	-10.658
▁equal	-10.6585
acy	-10.6591
▁las	-10.6592
spiring	-10.6601
▁architect	-10.6605
▁colonial	-10.6605
▁pleasure	-10.6605
▁violet	-10.6605
▁complain	-10.6605
tine	-10.6607
▁lunch	-10.6607
▁dutch	-10.6608
▁logan	-10.6618
▁bath	-10.6622
▁hate	-10.6625
▁colleagues	-10.6625
▁developing	-10.6627
▁identified	-10.663
▁hy	-10.6632
▁demand	-10.664
▁inherit	-10.6648
corp	-10.6649
▁jon	-10.665
ryn	-10.6651
ugg	-10.6653
▁reunite	-10.6656
▁arab	-10.6657
▁joan	-10.6662
▁ruins	-10.6664
stan	-10.6677
▁marco	-10.668
▁mona	-10.6684
▁searches	-10.6685
▁trader	-10.6686
▁pocket	-10.6686
▁inheritance	-10.6688
▁trees	-10.669
▁confesses	-10.6695
▁recovers	-10.6698
▁tommy	-10.6698
▁monsters	-10.6703
▁robbery	-10.6704
chapter	-10.6704
▁coal	-10.6704
▁25	-10.6706
bol	-10.6709
▁zone	-10.671
▁slo	-10.6711
▁appeared	-10.6713
▁jews	-10.6714
ech	-10.6717
▁rev	-10.6719
hur	-10.672
▁tiny	-10.6721
▁torn	-10.6722
▁holly	-10.6725
▁reside	-10.6727
▁outlaw	-10.6732
▁confirm	-10.6732
other	-10.6755
10	-10.6756
▁karl	-10.676
▁detect	-10.6767
▁commits	-10.6769
▁obvious	-10.6769
▁benefit	-10.6769
▁sabotage	-10.6769
▁solution	-10.6769
▁ambition	-10.6769
▁insect	-10.6769
▁amelia	-10.6769
▁profit	-10.6771
▁nepal	-10.6772
▁invention	-10.6775
▁gender	-10.6775
▁dedicated	-10.6776
▁alongside	-10.678
▁argue	-10.6784
▁swift	-10.6788
▁sing	-10.679
▁correct	-10.6791
▁rip	-10.6794
▁controlled	-10.6798
▁reward	-10.6806
▁corner	-10.6809
▁disguised	-10.6811
list	-10.6813
▁nickname	-10.6823
blo	-10.6823
▁construct	-10.6823
▁ear	-10.6828
▁declares	-10.683
▁plain	-10.683
▁increasing	-10.6833
▁roll	-10.6848
▁specific	-10.6851
▁submarine	-10.6852
▁alfred	-10.6853
▁clerk	-10.6853
▁sheriff	-10.6853
▁credit	-10.6853
▁cad	-10.6853
▁slaughter	-10.6853
▁evelyn	-10.6853
▁stuck	-10.6854
▁occurred	-10.6854
▁1970	-10.6854
▁kevin	-10.6855
▁gentleman	-10.6856
▁sheep	-10.6856
▁undertake	-10.6858
▁naval	-10.6861
▁scout	-10.6861
▁fort	-10.6862
▁insane	-10.6862
▁occasionally	-10.6865
fit	-10.6871
tale	-10.6872
▁harold	-10.6874
▁pub	-10.6875
▁regularly	-10.6875
raising	-10.6876
▁raped	-10.6878
elect	-10.6881
▁generally	-10.6889
trust	-10.6895
▁wise	-10.6898
▁emotions	-10.69
▁bully	-10.6912
▁woo	-10.6919
fri	-10.6923
▁rejects	-10.6928
▁dinosaur	-10.6937
▁hannah	-10.6937
▁manipulate	-10.6937
▁technique	-10.6937
▁bottom	-10.6937
▁silent	-10.6938
▁dawn	-10.6939
▁joey	-10.6943
▁theatre	-10.6945
▁trio	-10.6945
▁rec	-10.695
▁rejected	-10.6955
▁ste	-10.6957
▁surrounded	-10.6957
▁apple	-10.6959
john	-10.6959
worthy	-10.6969
▁spa	-10.6971
▁glad	-10.6975
▁parent	-10.6978
▁increase	-10.6991
▁visions	-10.6993
▁teachers	-10.7004
▁spirits	-10.7006
▁ned	-10.7007
▁tit	-10.7009
▁quick	-10.7009
▁lessons	-10.701
▁assumes	-10.7017
▁shar	-10.7019
▁physician	-10.7021
▁poirot	-10.7021
▁urban	-10.7023
▁basic	-10.7023
six	-10.7023
▁hatred	-10.7025
▁slay	-10.7025
▁sentient	-10.7028
▁ignore	-10.7035
▁rocket	-10.7036
▁document	-10.7036
▁suffer	-10.7036
chu	-10.7043
▁included	-10.705
▁clock	-10.7054
▁lisa	-10.7058
▁ruined	-10.7058
mid	-10.7066
▁cash	-10.7074
▁recall	-10.7074
ites	-10.7085
▁occasion	-10.7096
▁elf	-10.7097
▁observe	-10.7103
▁ambitious	-10.7107
▁ceremony	-10.7107
▁climate	-10.7107
▁competition	-10.7107
▁continuing	-10.7107
▁province	-10.7107
▁railway	-10.7107
▁cruise	-10.7107
▁overthrow	-10.7107
▁deputy	-10.7107
▁bottle	-10.7107
▁mutual	-10.7107
▁passionate	-10.7108
igan	-10.7109
▁1980	-10.7109
▁souls	-10.7123
lves	-10.7123
▁chat	-10.7123
▁pond	-10.7125
▁tank	-10.7129
christ	-10.713
▁tasked	-10.7135
▁lying	-10.7135
▁disappear	-10.7136
▁vol	-10.7137
▁xi	-10.7137
▁seriously	-10.7139
▁ward	-10.714
▁charges	-10.714
▁anton	-10.7142
▁lou	-10.7142
▁rav	-10.7154
▁criminals	-10.7155
▁thu	-10.7156
▁infiltrate	-10.7159
▁refugees	-10.716
▁expose	-10.7165
▁brad	-10.7168
ancy	-10.7169
▁settled	-10.7171
▁santa	-10.7172
sses	-10.7174
▁adults	-10.7176
▁wound	-10.7177
▁bella	-10.7178
▁40	-10.7179
▁invade	-10.718
▁interests	-10.7183
▁surrender	-10.7193
▁manifest	-10.7193
▁operative	-10.7193
▁puzzle	-10.7193
▁activity	-10.7194
▁labour	-10.7194
▁genius	-10.7195
▁scottish	-10.7195
▁arc	-10.7203
▁grandson	-10.7203
▁core	-10.7205
▁fuel	-10.7205
99	-10.7211
▁formed	-10.7214
▁enlist	-10.7216
▁issue	-10.7217
▁wales	-10.7218
take	-10.7222
▁dee	-10.7228
▁stick	-10.7228
▁beliefs	-10.7229
▁beau	-10.7234
▁rag	-10.7236
▁haven	-10.7236
▁currently	-10.7246
▁length	-10.7261
▁thor	-10.7267
▁novelist	-10.7276
▁griffin	-10.728
▁happily	-10.728
▁narration	-10.728
▁conceal	-10.728
▁asylum	-10.728
▁fought	-10.7281
▁explanation	-10.7281
▁withdraw	-10.7282
▁polish	-10.7283
▁rush	-10.7284
▁revolutionary	-10.7284
▁somewhere	-10.7287
▁gangster	-10.7287
▁indeed	-10.7289
rou	-10.7294
▁claimed	-10.7296
mba	-10.7296
▁retain	-10.7297
graphic	-10.7299
ridge	-10.7302
▁flame	-10.7304
through	-10.7305
▁organized	-10.7306
mbi	-10.7307
nal	-10.7311
▁advances	-10.7314
▁stream	-10.7317
quin	-10.7318
▁worm	-10.7322
▁desperately	-10.7327
▁belt	-10.7328
ben	-10.7336
▁ruin	-10.734
itch	-10.7347
▁ski	-10.7349
▁walker	-10.7358
▁rage	-10.7361
▁preserve	-10.7362
strange	-10.7365
found	-10.7366
▁describe	-10.7366
▁audience	-10.7368
▁lincoln	-10.7368
▁kinsey	-10.7368
▁representative	-10.7369
▁airport	-10.7371
▁kitty	-10.7373
cio	-10.7384
▁prepares	-10.7384
mmer	-10.739
▁hint	-10.739
vor	-10.7392
magic	-10.7392
▁continued	-10.7393
ched	-10.7398
sword	-10.7403
▁laugh	-10.7405
wall	-10.7406
▁joining	-10.7407
▁bio	-10.7409
▁exiled	-10.7415
posing	-10.7425
▁enlists	-10.7433
▁origins	-10.7438
▁usual	-10.744
▁offering	-10.7442
▁aided	-10.7447
▁electric	-10.7453
▁regime	-10.7455
▁kennedy	-10.7456
▁moscow	-10.7456
▁napoleon	-10.7456
▁responsibility	-10.7456
▁natalie	-10.7456
▁frozen	-10.7456
▁revelation	-10.7456
▁pretty	-10.7456
▁americans	-10.7456
▁refuse	-10.7458
gun	-10.7458
▁riot	-10.7461
▁owen	-10.7462
▁active	-10.7462
90	-10.7464
▁stella	-10.7464
▁rick	-10.7467
▁lena	-10.7471
▁cooper	-10.7471
nik	-10.7473
▁select	-10.7482
▁drift	-10.7484
▁mixed	-10.7484
▁occupied	-10.7493
▁descendants	-10.7495
door	-10.7496
▁spark	-10.7497
▁panic	-10.7499
▁24	-10.7501
▁span	-10.7502
▁wan	-10.7505
hra	-10.751
ii	-10.751
▁israel	-10.752
▁unsuccessful	-10.7526
▁protagonists	-10.7527
▁grandparents	-10.7545
▁mexican	-10.7545
▁thieves	-10.7545
▁revolt	-10.7545
▁interviews	-10.7546
▁clinic	-10.7546
▁massacre	-10.7546
▁modest	-10.7546
▁smoke	-10.7546
▁claire	-10.7547
▁thi	-10.7547
▁bodyguard	-10.7548
▁bertie	-10.7552
▁heading	-10.7556
imp	-10.7557
▁fill	-10.7565
▁khan	-10.7565
▁extended	-10.7566
▁troll	-10.7566
name	-10.757
▁rebels	-10.757
▁vows	-10.7574
uz	-10.7582
▁marg	-10.7583
▁sau	-10.7584
▁johnson	-10.7586
▁helm	-10.7587
▁affect	-10.7588
▁roof	-10.7599
▁moments	-10.7604
pit	-10.7611
▁robber	-10.7611
▁mail	-10.7613
▁replace	-10.7614
▁troubles	-10.7619
▁robb	-10.7621
▁duel	-10.7624
▁kam	-10.7628
▁minds	-10.763
hunter	-10.7631
▁typical	-10.7635
▁pursuing	-10.7635
▁michel	-10.7636
▁cycle	-10.7637
▁departure	-10.7637
▁furious	-10.7637
▁permission	-10.7637
▁standard	-10.7639
▁dirk	-10.7639
▁hits	-10.7642
▁contacts	-10.7648
▁starship	-10.7649
▁confronted	-10.7665
bro	-10.7665
▁hates	-10.7666
▁wu	-10.7667
bound	-10.7668
▁bears	-10.7676
▁grounds	-10.7676
▁attract	-10.768
▁kelly	-10.7684
▁clans	-10.7689
▁portray	-10.769
▁singing	-10.7694
▁july	-10.7696
▁vega	-10.77
▁sab	-10.7702
▁gifts	-10.7702
▁josh	-10.7709
▁coin	-10.7711
▁photograph	-10.772
ller	-10.7723
▁destiny	-10.7726
▁dresden	-10.7726
▁enormous	-10.7726
▁expensive	-10.7726
▁zombie	-10.7726
▁narrates	-10.7726
▁policy	-10.7726
▁yacht	-10.7727
olo	-10.7728
▁enable	-10.773
▁merlin	-10.7731
▁sitting	-10.7732
▁missile	-10.7732
▁difficulties	-10.7732
may	-10.7733
▁dump	-10.7736
rage	-10.7737
▁rad	-10.774
▁unlike	-10.7741
11	-10.7745
inter	-10.7748
▁tourist	-10.7756
▁waste	-10.7759
▁crashes	-10.7761
▁emerges	-10.7761
▁total	-10.7763
▁wonders	-10.7765
▁seventh	-10.777
series	-10.7774
river	-10.7774
▁dislike	-10.7781
▁rider	-10.7782
shaw	-10.7784
▁handle	-10.7787
▁drop	-10.7793
▁sink	-10.7794
▁mud	-10.7802
pon	-10.7803
fra	-10.7804
▁gregor	-10.7805
▁failing	-10.7806
friend	-10.7816
▁played	-10.7816
rey	-10.7817
high	-10.7817
maid	-10.7818
▁innocence	-10.7818
▁gerald	-10.7818
▁eighteen	-10.7818
▁agnes	-10.7819
▁ultimate	-10.7819
▁scream	-10.7819
▁obsession	-10.782
▁hunters	-10.782
▁nathan	-10.7823
▁islands	-10.7825
▁hanging	-10.7825
▁hollow	-10.7832
cott	-10.7832
even	-10.7834
▁mistaken	-10.7836
riel	-10.7837
▁mcc	-10.7839
▁neck	-10.7844
▁tun	-10.7845
dol	-10.7849
▁amongst	-10.785
west	-10.7857
sam	-10.7861
▁falco	-10.7862
▁pose	-10.7865
▁inhabit	-10.7873
▁sixth	-10.7873
▁vale	-10.7879
▁rub	-10.7881
▁informed	-10.7882
ago	-10.7882
tex	-10.7882
▁fighter	-10.7888
▁stands	-10.7893
▁height	-10.7898
▁bran	-10.7907
▁destination	-10.7911
▁negative	-10.7911
▁observation	-10.7911
▁reconcile	-10.7911
▁fruit	-10.7911
▁unravel	-10.7911
▁wilderness	-10.7911
▁dollars	-10.7911
▁borrow	-10.7912
▁specifically	-10.7912
▁amanda	-10.7913
▁squad	-10.7913
▁swamp	-10.7913
▁terry	-10.7916
nish	-10.7917
▁edgar	-10.7917
▁skill	-10.7917
▁methods	-10.7918
▁branch	-10.7921
▁lodge	-10.7921
▁cart	-10.7922
▁natives	-10.7927
▁brave	-10.7932
▁musician	-10.7938
▁daleks	-10.7951
ophi	-10.7953
▁thereafter	-10.7958
▁closed	-10.797
▁print	-10.7972
▁mouth	-10.7975
▁poly	-10.7978
▁spare	-10.7981
phil	-10.799
▁cousins	-10.8003
▁conservative	-10.8004
▁devastated	-10.8004
▁headquarters	-10.8004
▁olivia	-10.8004
▁meal	-10.8004
▁emerson	-10.8004
▁racial	-10.8004
▁irene	-10.8005
▁1940	-10.8006
▁adrian	-10.8006
road	-10.8007
▁flag	-10.8009
▁steam	-10.801
▁larry	-10.801
▁hundreds	-10.8011
▁alter	-10.8012
▁pictures	-10.8013
cid	-10.8014
pal	-10.8016
▁aged	-10.8023
aki	-10.8027
▁investigations	-10.8028
▁educated	-10.8033
▁noise	-10.8034
mouth	-10.8034
▁likes	-10.8034
summer	-10.8035
murder	-10.8035
▁cab	-10.8038
guard	-10.8039
▁midst	-10.8054
▁tension	-10.8062
▁haunt	-10.8063
green	-10.8065
▁kath	-10.8067
ata	-10.8078
▁marsh	-10.8079
named	-10.808
▁forge	-10.8084
tag	-10.8085
▁provid	-10.8086
▁expresse	-10.8088
quest	-10.8092
▁equipment	-10.8099
▁trigger	-10.8099
▁wives	-10.8099
▁importance	-10.8099
▁debate	-10.81
▁1930	-10.81
▁morris	-10.8106
▁crack	-10.8107
▁annie	-10.811
▁fine	-10.811
▁connections	-10.8116
▁clothing	-10.8123
queen	-10.8131
although	-10.8136
▁affected	-10.8138
▁camera	-10.815
rice	-10.8151
▁chal	-10.8155
corn	-10.8156
shore	-10.816
▁50	-10.8166
ida	-10.817
▁sid	-10.8174
▁messages	-10.8176
ease	-10.8177
▁approaching	-10.8185
▁gran	-10.8185
flo	-10.8192
▁fascinated	-10.8194
▁monastery	-10.8194
▁october	-10.8194
▁surgery	-10.8194
▁greece	-10.8194
▁siege	-10.8195
▁granddaughter	-10.8195
▁graham	-10.8197
kon	-10.82
▁loving	-10.82
▁betrayal	-10.8202
▁hack	-10.8216
▁shin	-10.8222
▁please	-10.8223
▁linda	-10.8224
▁papers	-10.8227
▁befriend	-10.8237
▁fired	-10.8242
▁engine	-10.8251
▁log	-10.8254
▁mist	-10.8255
▁wounds	-10.8267
▁tricks	-10.8284
▁attacking	-10.8287
ault	-10.8289
▁custody	-10.829
▁festival	-10.829
▁nervous	-10.829
▁philosopher	-10.829
▁possibility	-10.829
▁unbeknown	-10.829
▁vengeance	-10.829
▁courage	-10.829
▁racism	-10.829
▁traffic	-10.829
▁undercover	-10.829
▁liberal	-10.829
▁faerie	-10.829
▁oscar	-10.8291
▁weight	-10.8291
▁regiment	-10.8291
▁micro	-10.8292
▁quinn	-10.8295
▁ethan	-10.8297
▁tutor	-10.83
▁lind	-10.8301
▁foundation	-10.8307
▁render	-10.8308
▁disturbed	-10.8311
▁officials	-10.8316
▁threaten	-10.8317
▁exception	-10.8317
▁dub	-10.8319
▁lords	-10.8325
▁dom	-10.8328
▁wine	-10.8331
▁campus	-10.8333
▁stable	-10.8337
▁gap	-10.8339
▁differences	-10.8342
trans	-10.8347
▁ul	-10.8355
▁identifie	-10.8357
▁detailed	-10.8369
▁painful	-10.8377
▁outsider	-10.8379
conscious	-10.8382
▁keeper	-10.8382
▁stumbles	-10.8384
▁minutes	-10.8385
▁analysis	-10.8387
▁samuel	-10.8387
▁beside	-10.8387
▁dispatch	-10.8387
▁fortress	-10.8388
hn	-10.8389
terior	-10.8389
▁leonard	-10.8389
▁swim	-10.8391
▁broad	-10.8391
▁instantly	-10.8395
▁trump	-10.8397
▁villa	-10.8397
▁christianity	-10.8399
▁kick	-10.84
▁pie	-10.8405
▁publisher	-10.8414
▁yi	-10.8421
however	-10.8422
▁emotionally	-10.8423
▁endure	-10.8426
▁portrayed	-10.8428
▁tortured	-10.8431
▁operate	-10.8435
▁employed	-10.8435
▁jumps	-10.8441
rik	-10.845
boo	-10.8453
zie	-10.846
▁lili	-10.8468
tim	-10.8472
▁exact	-10.8477
▁coll	-10.8479
▁drunken	-10.8482
yne	-10.8482
▁candidate	-10.8485
▁december	-10.8485
▁measure	-10.8485
▁temporarily	-10.8485
▁sequel	-10.8485
▁alleged	-10.8485
▁afternoon	-10.8485
▁baseball	-10.8486
▁injuries	-10.8486
▁retirement	-10.8487
▁silence	-10.8488
kel	-10.8491
▁assert	-10.8493
keep	-10.8493
▁spin	-10.8493
▁vin	-10.8496
▁reported	-10.8496
▁underworld	-10.8507
▁upcoming	-10.8508
▁erik	-10.8508
▁marx	-10.851
had	-10.8515
▁eggs	-10.8515
▁dancer	-10.8523
▁brutally	-10.8525
▁walls	-10.8534
eer	-10.8535
lav	-10.8536
ppe	-10.8539
▁...	-10.8544
▁petro	-10.8546
▁confess	-10.8547
▁ida	-10.8558
▁factor	-10.856
▁shut	-10.8566
▁trauma	-10.8567
▁hans	-10.8577
rah	-10.8579
▁reacher	-10.8583
▁benjamin	-10.8584
▁confusion	-10.8584
▁explode	-10.8584
▁homicide	-10.8584
▁societies	-10.8584
interstellar	-10.8584
▁ticket	-10.8584
▁rumour	-10.8584
▁thwart	-10.8584
▁halt	-10.8584
▁heritage	-10.8584
▁stepfather	-10.8585
▁available	-10.8585
▁maturin	-10.8586
▁martial	-10.8586
▁talented	-10.8587
▁reached	-10.8588
heim	-10.8592
cry	-10.8592
▁ska	-10.8592
▁fiancée	-10.8602
▁spies	-10.8608
▁cora	-10.8608
70	-10.861
▁portion	-10.8611
▁victorian	-10.8611
▁mara	-10.8617
▁prepared	-10.8623
▁flower	-10.8626
winter	-10.8636
▁mae	-10.8636
ress	-10.8642
▁lure	-10.8647
rising	-10.8648
▁imagine	-10.8654
▁marcel	-10.8658
▁shy	-10.8664
fish	-10.8665
16	-10.867
hang	-10.8673
▁sides	-10.8675
▁mall	-10.8677
ich	-10.8677
▁probably	-10.8684
▁federal	-10.8684
▁warfare	-10.8684
▁compete	-10.8684
▁thread	-10.8685
▁dramatic	-10.8686
▁weekend	-10.8687
▁meantime	-10.8687
▁patron	-10.8687
▁stead	-10.8688
▁string	-10.8689
colon	-10.869
▁resign	-10.8694
▁latin	-10.8696
▁whatever	-10.8699
▁rats	-10.8701
seven	-10.8701
▁convicted	-10.8708
▁confession	-10.871
▁rand	-10.8718
glass	-10.8723
▁drowning	-10.8724
▁drag	-10.8727
▁bourne	-10.8728
▁demanding	-10.8746
▁plato	-10.8748
▁difficulty	-10.8751
▁hour	-10.8754
mund	-10.8764
▁immediate	-10.8766
▁gus	-10.8766
▁wed	-10.8768
kind	-10.8771
▁harris	-10.8783
▁horrified	-10.8785
▁shepherd	-10.8785
▁lydia	-10.8785
▁react	-10.8786
▁phillip	-10.8786
saxon	-10.8787
▁prescot	-10.879
▁revive	-10.8792
▁coma	-10.8792
▁korean	-10.8793
▁practical	-10.8795
▁venus	-10.8796
▁owl	-10.8798
▁opposed	-10.8804
▁isn	-10.8813
▁hart	-10.8813
eight	-10.882
fight	-10.8823
▁burns	-10.8825
▁attended	-10.8827
▁sells	-10.8827
anti	-10.8827
▁tensions	-10.883
▁arrow	-10.8832
▁jr	-10.8835
▁nazis	-10.8843
▁heat	-10.8843
making	-10.8848
▁timeline	-10.8849
▁abduct	-10.8849
▁poisoned	-10.8854
▁draft	-10.8865
yr	-10.8867
▁fog	-10.8868
▁clark	-10.8868
▁pays	-10.887
▁threats	-10.8871
▁fro	-10.8878
▁afterward	-10.8879
linda	-10.8881
phon	-10.8886
▁eleanor	-10.8887
▁extensive	-10.8887
▁mercenary	-10.8887
▁fierce	-10.8887
▁skull	-10.8887
▁compound	-10.8888
▁elsewhere	-10.8888
▁trading	-10.889
▁evolution	-10.8891
▁emergency	-10.8892
▁headed	-10.8893
▁wilson	-10.8895
▁basement	-10.8897
▁outcast	-10.8901
▁hong	-10.8901
▁chest	-10.8901
▁scenes	-10.8912
▁wizards	-10.8914
▁controlling	-10.8914
pop	-10.8917
▁guild	-10.893
▁opera	-10.8947
▁quin	-10.8956
▁topics	-10.8957
▁calm	-10.8963
print	-10.8964
▁clare	-10.8966
ré	-10.8969
jar	-10.8971
▁employee	-10.8977
bridge	-10.8978
lac	-10.8981
▁rou	-10.8984
crow	-10.8987
▁accomplish	-10.899
▁supreme	-10.899
▁worries	-10.899
▁landscape	-10.899
▁caravan	-10.899
▁hypno	-10.899
▁speculat	-10.8991
▁aircraft	-10.8991
▁extract	-10.8991
▁harass	-10.8991
▁horace	-10.8992
▁desires	-10.8992
▁simultaneously	-10.8993
▁elves	-10.8995
▁forgive	-10.8995
▁shaw	-10.8997
▁egyptian	-10.8999
▁stating	-10.8999
▁rapidly	-10.9
▁dwell	-10.9001
▁heroine	-10.9004
cast	-10.9008
▁remark	-10.9008
▁dag	-10.9009
▁marty	-10.901
▁associated	-10.9015
▁entered	-10.9017
▁till	-10.9019
▁teenagers	-10.9022
▁abducted	-10.9029
people	-10.903
oh	-10.9035
▁pure	-10.9035
▁gem	-10.9037
▁breath	-10.9039
▁greet	-10.9044
oid	-10.9048
▁betray	-10.9048
▁possessed	-10.9056
grave	-10.906
▁seal	-10.9067
▁subjects	-10.9068
▁lane	-10.9068
oko	-10.9074
▁technological	-10.9075
▁indicate	-10.9078
ffer	-10.9081
▁ancestors	-10.9084
▁depicted	-10.9086
▁suburb	-10.9087
▁interact	-10.9092
▁eden	-10.9093
▁freed	-10.9094
▁entrance	-10.9094
▁illegitimate	-10.9094
▁shakespeare	-10.9094
▁radiation	-10.9094
▁savage	-10.9094
▁disabled	-10.9094
▁nevertheless	-10.9095
▁casual	-10.9095
▁honest	-10.9095
▁survey	-10.9095
▁prophet	-10.9095
▁whale	-10.9095
▁bought	-10.9096
▁scarlet	-10.9097
▁smell	-10.9097
mul	-10.9098
▁austin	-10.9101
▁highlight	-10.9106
▁galactic	-10.9124
▁wolfe	-10.9125
▁online	-10.9128
train	-10.9132
▁nina	-10.9133
discover	-10.9135
▁recovery	-10.9138
▁alert	-10.9142
▁barry	-10.9143
lick	-10.9145
rif	-10.9146
grand	-10.915
▁sever	-10.9151
nian	-10.9158
▁traces	-10.9159
▁justin	-10.9159
▁plants	-10.9164
▁mir	-10.9175
▁observes	-10.9177
race	-10.9181
▁cris	-10.9184
▁maya	-10.9188
▁net	-10.9192
▁switch	-10.9193
▁deeper	-10.9194
▁urges	-10.9197
▁earthquake	-10.92
▁exploration	-10.92
▁abortion	-10.92
▁amateur	-10.92
▁vienna	-10.92
▁appeal	-10.92
▁reverend	-10.92
▁utopia	-10.92
▁spacecraft	-10.9201
▁isaac	-10.9201
▁squire	-10.9201
▁instructions	-10.9201
mbo	-10.9201
▁colour	-10.9202
▁straight	-10.9203
▁bruce	-10.9206
▁determines	-10.9207
▁injury	-10.9212
▁appointed	-10.9212
▁mini	-10.9213
▁alarm	-10.9219
got	-10.9222
▁visitors	-10.9223
▁math	-10.9225
▁crossing	-10.9226
▁brook	-10.9232
▁levels	-10.9238
bell	-10.9239
captain	-10.9242
▁moore	-10.9242
▁17-	-10.9252
rina	-10.9253
▁ties	-10.9267
▁recruited	-10.9279
▁thin	-10.9305
▁ambassador	-10.9306
▁brilliant	-10.9306
▁perceive	-10.9306
▁preparation	-10.9306
▁quentin	-10.9306
▁satellite	-10.9306
▁suppress	-10.9306
▁surprising	-10.9306
▁felix	-10.9306
▁orleans	-10.9306
▁asteroid	-10.9306
▁insurance	-10.9306
▁dexter	-10.9306
▁blonde	-10.9306
▁naked	-10.9307
▁historian	-10.9307
▁vicious	-10.9307
late	-10.9307
▁disorder	-10.9307
▁duncan	-10.9307
▁pitt	-10.9308
▁fond	-10.9308
▁teddy	-10.931
llan	-10.931
▁employment	-10.931
▁ms	-10.931
▁deliberately	-10.9311
▁boot	-10.9312
▁potter	-10.9313
▁armies	-10.9313
▁factions	-10.9315
▁belongs	-10.9319
▁housekeeper	-10.9319
▁define	-10.9321
▁gates	-10.9323
▁behalf	-10.9325
▁encountered	-10.9326
▁archer	-10.933
lou	-10.9335
▁wanders	-10.9338
▁lift	-10.934
▁stark	-10.9344
hoe	-10.9346
ghost	-10.9349
writer	-10.9353
▁assassins	-10.9353
▁22	-10.9355
▁nice	-10.936
▁mam	-10.936
▁exists	-10.9363
▁faction	-10.9364
▁greg	-10.9368
80	-10.9369
▁greatly	-10.9377
▁raf	-10.9384
▁attic	-10.9388
mari	-10.9402
▁14-	-10.9406
▁vera	-10.9407
▁kaz	-10.9411
▁activist	-10.9414
▁inadvertently	-10.9414
▁indigenous	-10.9414
▁invitation	-10.9414
▁jersey	-10.9414
▁positive	-10.9414
▁surgeon	-10.9414
▁attribut	-10.9414
▁worst	-10.9414
▁swear	-10.9414
▁depressed	-10.9414
▁mafia	-10.9414
▁practices	-10.9414
▁propose	-10.9414
▁adjust	-10.9415
▁stress	-10.9418
▁drew	-10.9418
hell	-10.9418
▁arise	-10.9419
▁pierre	-10.9419
▁millions	-10.9423
scope	-10.9424
horse	-10.9425
▁granted	-10.9425
position	-10.9426
▁proud	-10.9427
▁policeman	-10.9427
▁motion	-10.943
▁weave	-10.9435
▁dash	-10.9441
▁16-	-10.9441
▁delight	-10.9442
▁sul	-10.9455
▁grass	-10.9462
▁cole	-10.9464
▁carol	-10.9465
▁associates	-10.9473
▁shame	-10.948
liber	-10.9481
dir	-10.9481
▁fee	-10.9487
wake	-10.9489
him	-10.9497
never	-10.9505
iness	-10.9507
▁linked	-10.9509
▁favour	-10.9521
▁prosper	-10.9521
▁enslaved	-10.9522
▁imagination	-10.9522
▁immense	-10.9522
▁influential	-10.9522
▁laboratory	-10.9522
▁massachusetts	-10.9522
▁opposite	-10.9522
▁pregnancy	-10.9522
▁principle	-10.9522
▁proposal	-10.9522
▁concert	-10.9522
▁congress	-10.9522
▁druid	-10.9522
▁thrill	-10.9522
▁donald	-10.9522
▁screen	-10.9523
▁prank	-10.9523
▁chair	-10.9524
▁1990	-10.9525
▁duties	-10.9527
lene	-10.9531
▁bullet	-10.9531
pol	-10.9534
▁viking	-10.9534
▁maj	-10.9535
▁invisible	-10.9538
▁attached	-10.9539
▁flow	-10.9541
every	-10.9543
▁producer	-10.9545
▁unlikely	-10.9546
▁penny	-10.9546
▁paradise	-10.9547
▁drowned	-10.9555
▁skilled	-10.9567
eau	-10.9578
▁chart	-10.958
chester	-10.9581
▁photographs	-10.9584
▁performing	-10.9584
rmed	-10.9585
▁vas	-10.9587
lew	-10.959
▁deserted	-10.9591
17	-10.9592
▁musical	-10.9594
▁distract	-10.9594
mart	-10.9595
▁zar	-10.96
▁values	-10.9605
▁grab	-10.9607
▁assume	-10.9608
▁stalin	-10.9608
▁fiancé	-10.9612
▁terra	-10.9614
▁bind	-10.9617
▁zan	-10.9624
▁peri	-10.9625
▁lauren	-10.963
▁entertain	-10.9631
▁opened	-10.9632
▁context	-10.9632
▁rifle	-10.9632
▁resume	-10.9633
▁apollo	-10.9633
▁bosch	-10.9633
▁monarch	-10.9633
▁illusion	-10.9634
▁chang	-10.9636
▁werewolf	-10.9637
▁scrap	-10.9637
▁jeff	-10.9643
▁tax	-10.9644
▁stole	-10.9644
▁zero	-10.9646
15	-10.9648
▁coup	-10.9657
▁portal	-10.9664
▁laid	-10.9667
▁relat	-10.9673
▁nat	-10.9674
wolf	-10.9674
▁mock	-10.9674
term	-10.9678
before	-10.9679
young	-10.9684
▁dismiss	-10.969
▁depend	-10.9692
▁boo	-10.9701
▁exposed	-10.9708
▁strain	-10.9708
▁virgin	-10.9713
▁organize	-10.9716
ender	-10.9717
▁income	-10.9719
▁cool	-10.9725
▁spar	-10.9728
▁ahead	-10.9733
ano	-10.9736
vig	-10.9742
▁chronological	-10.9743
▁devastating	-10.9743
▁economy	-10.9743
▁explosive	-10.9743
▁january	-10.9743
▁pakistan	-10.9743
▁psychiatrist	-10.9743
▁florence	-10.9743
▁sacred	-10.9743
▁sookie	-10.9743
▁insult	-10.9745
▁keith	-10.9746
▁allied	-10.9747
▁buddy	-10.9747
▁treats	-10.975
▁lightning	-10.9751
▁passenger	-10.9754
▁prim	-10.9757
▁frightened	-10.9757
▁gill	-10.9759
▁remained	-10.9761
▁dock	-10.9762
dell	-10.9764
▁buffy	-10.977
▁equally	-10.977
13	-10.9775
▁mere	-10.9776
▁roommate	-10.9784
▁bent	-10.9786
tree	-10.9794
▁explorer	-10.9812
▁sports	-10.9825
▁gifted	-10.9844
▁condemn	-10.9856
▁caretaker	-10.9856
▁climax	-10.9856
▁parliament	-10.9856
▁monitor	-10.9856
▁despise	-10.9856
▁isolation	-10.9856
▁exit	-10.9856
▁wolves	-10.9856
▁instance	-10.9856
▁terminal	-10.9857
▁breakdown	-10.9859
▁witnessed	-10.986
▁christine	-10.9861
▁partly	-10.9866
case	-10.9873
35	-10.9875
▁players	-10.9878
▁tenant	-10.9878
pool	-10.9879
▁motor	-10.988
▁explaining	-10.9882
▁impressed	-10.9886
here	-10.9894
belle	-10.9898
▁faithful	-10.9899
▁skip	-10.9908
▁gall	-10.9911
▁drops	-10.9917
▁dean	-10.9918
▁praise	-10.9923
iah	-10.9924
kit	-10.9929
▁sharing	-10.993
▁mess	-10.9941
▁abused	-10.9944
east	-10.995
▁expos	-10.9959
▁clearly	-10.9962
pend	-10.9963
▁charming	-10.9964
▁anthony	-10.9969
▁mississippi	-10.9969
▁physicist	-10.9969
▁twice	-10.9969
▁magnus	-10.9969
▁clyde	-10.9969
▁intervene	-10.9969
▁uncertain	-10.9971
▁aging	-10.9972
▁burial	-10.9972
iko	-10.9974
▁loyalty	-10.9974
▁cameron	-10.9976
▁tired	-10.9977
▁epic	-10.998
ivity	-10.9982
14	-10.9983
▁artemis	-10.9983
▁nowhere	-10.9985
▁vanished	-10.9992
▁terran	-10.9994
▁divine	-10.9997
▁embarks	-10.9998
▁clash	-11.0002
▁demonstrate	-11.0005
▁publishing	-11.0006
▁tess	-11.0012
▁closest	-11.0013
▁befriended	-11.0014
wh	-11.0015
adventure	-11.0019
▁shade	-11.0021
hero	-11.0021
▁flora	-11.0025
▁nur	-11.0027
step	-11.0031
ois	-11.004
▁butler	-11.0042
vern	-11.0043
mind	-11.006
▁beg	-11.0064
▁alfons	-11.0084
▁despair	-11.0084
▁identical	-11.0084
▁temporary	-11.0084
▁disgrace	-11.0084
walk	-11.0084
▁whereabouts	-11.0084
▁dancing	-11.0085
▁opposition	-11.0085
▁bureau	-11.0085
▁drain	-11.0086
isation	-11.0089
rise	-11.0089
-19	-11.0091
▁glen	-11.0093
▁pride	-11.0096
▁rebus	-11.01
▁ruling	-11.0101
▁possesses	-11.0105
▁giles	-11.0107
▁hank	-11.011
▁citizen	-11.0112
▁assumed	-11.0116
▁eagle	-11.012
▁flowers	-11.0121
▁publication	-11.0124
something	-11.0136
second	-11.0136
▁volunteers	-11.0139
uncle	-11.0147
▁dislikes	-11.0147
▁100	-11.0156
▁closely	-11.0164
nate	-11.0174
▁chester	-11.0182
▁assisted	-11.0182
▁caste	-11.0184
▁tooth	-11.0185
▁deduce	-11.0188
ional	-11.0191
devil	-11.0195
▁aristocrat	-11.0196
▁advisor	-11.02
▁celebration	-11.02
▁drizzt	-11.02
▁requires	-11.02
▁sympathetic	-11.02
▁swallow	-11.02
▁deciding	-11.0201
▁dispute	-11.0201
▁iraq	-11.0201
▁bass	-11.0201
▁swimming	-11.0201
▁regret	-11.0201
▁wright	-11.0202
▁absent	-11.0202
▁sought	-11.0202
▁brenda	-11.0202
▁fal	-11.0203
▁edith	-11.0203
▁tape	-11.0203
▁smart	-11.0204
▁humanoid	-11.0204
▁seth	-11.0207
▁maxim	-11.0207
▁15-	-11.0209
▁spite	-11.0212
▁healing	-11.0217
▁stake	-11.0218
half	-11.0219
rib	-11.0222
▁element	-11.0227
▁highest	-11.023
hall	-11.0231
▁anglo	-11.0234
hun	-11.0241
related	-11.0257
▁wang	-11.0258
history	-11.0258
▁illustrate	-11.0258
▁shall	-11.026
▁busy	-11.0265
looking	-11.0267
▁bess	-11.0268
▁mack	-11.027
logical	-11.0275
runner	-11.0278
mut	-11.0294
▁permanent	-11.0299
▁bombing	-11.0302
▁fol	-11.031
▁dry	-11.0313
▁invest	-11.0315
▁abruptly	-11.0318
▁archaeologist	-11.0318
▁exhaust	-11.0318
▁privilege	-11.0318
▁fragment	-11.0318
▁nelson	-11.0318
ibility	-11.0318
▁doyle	-11.0319
▁soft	-11.0321
▁diplomatic	-11.0322
▁refer	-11.0323
▁harper	-11.0331
▁pink	-11.0335
▁zoe	-11.0339
▁rab	-11.0343
gna	-11.0346
▁tessa	-11.0346
▁raj	-11.0356
▁acknowledge	-11.036
▁tho	-11.0363
▁pap	-11.0371
iron	-11.0372
hawk	-11.0375
▁janet	-11.0378
▁willow	-11.0384
32	-11.0389
▁wipe	-11.0391
▁alma	-11.0391
▁bowl	-11.04
▁strat	-11.04
▁vote	-11.0421
▁candy	-11.0421
▁interpret	-11.0429
▁mix	-11.0432
rath	-11.0436
▁adolescent	-11.0437
▁elaborate	-11.0437
▁gambling	-11.0437
▁identities	-11.0437
▁lesbian	-11.0437
▁philosophical	-11.0437
▁phoenix	-11.0437
▁recommend	-11.0437
▁chloe	-11.0437
▁burglar	-11.0437
▁transition	-11.0437
▁comrade	-11.0437
▁rumors	-11.0437
▁enroll	-11.0438
▁afford	-11.0438
▁vincent	-11.0439
▁finance	-11.0439
▁basis	-11.0445
▁12-	-11.0454
▁focusing	-11.0456
▁duck	-11.0461
▁hugo	-11.0462
▁iris	-11.0468
▁artistic	-11.0469
▁beating	-11.047
▁jill	-11.0471
▁legion	-11.0473
▁bid	-11.0474
▁mystical	-11.0482
▁andrea	-11.0485
issa	-11.0493
shift	-11.0494
▁theater	-11.0503
▁protecting	-11.0506
change	-11.0511
worker	-11.0521
▁sharp	-11.0523
▁picked	-11.0524
▁charged	-11.0531
▁moor	-11.0534
▁drum	-11.0534
▁insight	-11.0535
▁canal	-11.0546
close	-11.0547
▁merc	-11.0548
also	-11.0553
▁antagonist	-11.0558
▁tattoo	-11.0558
▁jordan	-11.0558
▁spock	-11.0558
▁banished	-11.0558
▁telephone	-11.0558
▁exclusive	-11.0558
▁transferred	-11.056
▁ginger	-11.056
▁recording	-11.056
▁aristocratic	-11.0562
▁freddy	-11.0562
▁robbie	-11.0563
rish	-11.0563
▁hook	-11.0567
placing	-11.0568
▁foil	-11.0569
▁lucas	-11.0569
though	-11.0569
▁reverse	-11.0571
▁avenge	-11.0571
▁uprising	-11.0572
▁nose	-11.0574
ova	-11.0577
▁declared	-11.0577
▁smuggler	-11.0578
▁patch	-11.0584
▁sphere	-11.0584
▁morph	-11.0585
▁ske	-11.0585
▁shake	-11.0592
▁noah	-11.06
▁paying	-11.0601
minded	-11.0604
▁civilian	-11.0605
ground	-11.0607
▁patriarch	-11.061
▁resident	-11.0611
luc	-11.0616
▁scale	-11.0616
▁colin	-11.0617
mur	-11.062
▁assure	-11.0621
▁neuro	-11.0624
▁pun	-11.0625
▁chess	-11.0626
their	-11.0629
▁tears	-11.0629
38	-11.0631
court	-11.0637
▁storyline	-11.0638
▁punish	-11.0639
31	-11.0641
onymous	-11.0643
▁forty	-11.0661
▁focused	-11.0663
▁stated	-11.0669
500	-11.0679
▁fundamental	-11.068
▁frederick	-11.068
▁horrific	-11.068
▁smuggling	-11.068
▁squirrel	-11.068
▁spenser	-11.068
▁hazel	-11.068
▁wicked	-11.068
▁abroad	-11.0681
▁unsure	-11.0681
▁feast	-11.0681
▁hermit	-11.0681
▁translate	-11.0682
▁creek	-11.0682
▁craig	-11.0685
▁smile	-11.0686
▁madness	-11.069
▁transformation	-11.0692
▁characteristic	-11.0694
▁employees	-11.0697
▁delay	-11.07
▁steven	-11.07
▁roam	-11.0702
▁gregory	-11.0706
▁feather	-11.071
▁complet	-11.0713
▁treaty	-11.0723
hat	-11.0724
▁completed	-11.0728
▁chased	-11.0729
island	-11.0736
william	-11.0738
▁clone	-11.0739
▁plum	-11.0741
lessness	-11.0751
▁mem	-11.0764
fear	-11.0775
box	-11.0776
▁assassinate	-11.0779
▁finished	-11.0779
▁shu	-11.0783
▁adventurer	-11.0784
▁cul	-11.0788
▁tied	-11.0789
▁bug	-11.0791
walker	-11.0795
distinguish	-11.0803
▁perception	-11.0803
▁substance	-11.0803
▁surveillance	-11.0803
▁leaphorn	-11.0803
▁brothel	-11.0803
▁decay	-11.0803
▁caesar	-11.0803
stewart	-11.0803
▁dropped	-11.0804
▁bailey	-11.0804
▁piano	-11.0804
▁riddle	-11.0804
▁tokyo	-11.0804
▁trunk	-11.0804
▁resulted	-11.0804
▁crazy	-11.0805
▁basil	-11.0805
▁teeth	-11.0805
▁ongoing	-11.0806
▁dismay	-11.0806
▁conquest	-11.0807
▁settlers	-11.0807
▁mitch	-11.0809
▁tara	-11.0809
▁aaron	-11.0811
▁devise	-11.0813
▁gloria	-11.0817
▁involve	-11.0819
▁collector	-11.0822
▁millionaire	-11.0822
▁kong	-11.0824
▁founder	-11.0824
▁outbreak	-11.083
profile	-11.083
deep	-11.0835
▁composed	-11.0835
▁infamous	-11.084
▁keen	-11.0842
▁hap	-11.0843
▁reflection	-11.0843
▁honour	-11.0844
▁etc	-11.0847
▁interactions	-11.0849
▁intrigued	-11.0849
▁cargo	-11.0855
▁selected	-11.0856
▁convention	-11.0858
mystery	-11.0863
speak	-11.0864
spirit	-11.0866
▁pip	-11.0866
women	-11.0868
travel	-11.0869
▁meat	-11.0872
think	-11.0872
▁tang	-11.0876
▁krist	-11.0878
▁scare	-11.088
▁sustain	-11.0885
▁mechanic	-11.0887
call	-11.0897
dance	-11.0901
▁smaller	-11.0909
▁admire	-11.091
▁explained	-11.0919
▁interrogat	-11.0921
hunt	-11.0921
▁contacted	-11.0928
▁astronaut	-11.0928
▁coffee	-11.0928
▁extraordinary	-11.0928
▁graduation	-11.0928
▁mysteries	-11.0928
▁taylor	-11.0928
▁technical	-11.0928
▁disagree	-11.0928
▁entity	-11.0928
▁worry	-11.0928
▁katherine	-11.0928
▁brooklyn	-11.0929
▁unseen	-11.0929
▁gilbert	-11.0929
▁internet	-11.0931
▁kur	-11.0932
▁pierce	-11.0932
▁dread	-11.0933
▁parker	-11.0933
▁cer	-11.0933
▁notebook	-11.0935
▁stuff	-11.0935
▁amber	-11.0935
▁solid	-11.0936
▁impression	-11.0937
▁airship	-11.0938
▁agreement	-11.0938
▁slightly	-11.0939
▁sailing	-11.094
▁anderson	-11.0941
code	-11.0954
nine	-11.0956
▁suitor	-11.0958
▁growth	-11.0958
▁lamp	-11.096
▁defect	-11.0977
▁peers	-11.0982
▁dispos	-11.0984
enterprise	-11.0989
▁marc	-11.1007
▁chet	-11.1008
▁mum	-11.1016
▁repeat	-11.1017
table	-11.103
▁tear	-11.1037
▁sect	-11.1043
▁assemble	-11.1055
▁association	-11.1055
▁impoverished	-11.1055
▁combined	-11.1055
▁puppet	-11.1055
▁ohio	-11.1055
▁clever	-11.1055
▁wallace	-11.1055
▁channel	-11.1055
▁raymond	-11.1056
▁nigeria	-11.1056
destined	-11.1057
▁studio	-11.1057
▁separation	-11.1057
▁kent	-11.1058
▁hammer	-11.106
▁davis	-11.1061
very	-11.1062
▁drama	-11.1065
▁pimp	-11.1065
ifying	-11.1068
▁diego	-11.1071
▁republican	-11.1073
▁environmental	-11.1078
iya	-11.1079
▁associate	-11.1083
dil	-11.1085
▁cent	-11.1086
▁jam	-11.1088
▁corps	-11.1088
▁jealousy	-11.1092
▁dorm	-11.1096
gold	-11.1097
▁feature	-11.1097
lane	-11.1099
prince	-11.1101
▁drown	-11.1101
▁stag	-11.1107
▁oversee	-11.1108
▁putt	-11.1112
▁admit	-11.1115
▁difference	-11.1115
von	-11.1115
eventually	-11.1118
▁mason	-11.112
hearted	-11.1123
▁conventional	-11.1133
soul	-11.1136
chronicle	-11.1143
▁karen	-11.1147
▁dressed	-11.115
▁recovered	-11.1161
▁kara	-11.1172
▁distribut	-11.1183
▁fifty	-11.1183
▁librarian	-11.1183
▁mercenaries	-11.1183
▁presumed	-11.1183
▁relocate	-11.1183
▁barbarian	-11.1183
▁excited	-11.1183
▁gossip	-11.1183
▁atlantic	-11.1183
▁shield	-11.1183
▁canadian	-11.1183
▁organisation	-11.1183
▁annual	-11.1185
▁tibet	-11.1186
▁empress	-11.1186
▁venice	-11.1186
▁descent	-11.1186
bill	-11.1187
▁burden	-11.1187
▁kidnapper	-11.1188
▁jules	-11.1189
▁comments	-11.119
▁antique	-11.1191
▁disappointed	-11.1191
▁introduc	-11.1196
▁package	-11.1197
▁highway	-11.1205
▁dante	-11.1206
▁homeland	-11.1208
lion	-11.121
cop	-11.121
shaped	-11.1229
bou	-11.1233
▁coven	-11.1234
▁fil	-11.1234
▁vital	-11.1237
▁mention	-11.1239
▁constructed	-11.1242
▁dismisse	-11.1249
country	-11.1254
▁eliminate	-11.1266
▁mia	-11.1273
▁willie	-11.1278
▁profession	-11.1279
▁jade	-11.1282
▁magda	-11.1283
temp	-11.1287
▁rebuild	-11.129
▁kan	-11.1298
wise	-11.1301
uan	-11.1307
▁rate	-11.1308
▁opponent	-11.1313
▁awkward	-11.1313
▁carpenter	-11.1313
▁collaborat	-11.1313
▁embrace	-11.1313
▁peculiar	-11.1313
▁prestigious	-11.1313
▁reservation	-11.1313
▁lindsay	-11.1313
▁stroke	-11.1313
▁phrase	-11.1313
▁sophia	-11.1313
▁douglas	-11.1313
▁thunderclan	-11.1313
▁teleport	-11.1314
▁1945	-11.1315
▁broadcast	-11.1316
croft	-11.1317
▁carefully	-11.1317
▁pole	-11.1317
▁orphanage	-11.1318
▁fisherman	-11.1318
merely	-11.1321
▁stevens	-11.1321
▁addiction	-11.1321
▁ellie	-11.1324
▁spoke	-11.1326
▁mankind	-11.1327
▁rushes	-11.1329
▁jem	-11.1329
▁narrowly	-11.133
▁mood	-11.1335
▁marked	-11.1337
▁breed	-11.1338
▁protector	-11.1365
▁gained	-11.1374
▁volunteer	-11.1382
spring	-11.1385
▁prey	-11.1392
▁bribe	-11.1397
▁maker	-11.141
▁13-	-11.1418
ride	-11.1418
▁jude	-11.1422
▁refugee	-11.1422
▁taste	-11.1422
cou	-11.1423
hour	-11.1435
▁feud	-11.1441
▁telepathic	-11.1443
▁succumb	-11.1444
▁amazon	-11.1444
▁curiosity	-11.1444
▁compell	-11.1444
▁jazz	-11.1444
▁hunger	-11.1444
▁patricia	-11.1445
▁dennis	-11.1445
▁session	-11.1445
▁mourn	-11.1445
▁solving	-11.1446
▁imprisonment	-11.1446
▁invaders	-11.1446
▁fern	-11.1447
▁celia	-11.1448
▁laurence	-11.1448
▁chip	-11.1449
▁initiate	-11.1449
▁comfortable	-11.145
▁conrad	-11.145
▁tyler	-11.1452
▁marshall	-11.1452
▁denies	-11.1454
▁yang	-11.1458
▁ensues	-11.1464
▁sexuality	-11.1467
▁miracle	-11.147
▁hungry	-11.1473
▁warren	-11.1476
glo	-11.1479
98	-11.1494
birth	-11.1513
▁normally	-11.1513
▁tide	-11.1513
plain	-11.1519
▁healthy	-11.1521
▁saga	-11.1522
rup	-11.1523
▁descendant	-11.1525
▁researcher	-11.1527
▁lust	-11.1527
▁vain	-11.1527
▁goat	-11.1531
▁dalek	-11.1533
super	-11.1534
▁safely	-11.1536
▁dna	-11.1539
▁burst	-11.1542
▁plea	-11.1543
▁joel	-11.1547
▁ego	-11.1548
▁loan	-11.155
▁hag	-11.156
▁eventual	-11.156
▁pulled	-11.1562
meter	-11.1574
▁disastrous	-11.1578
▁distraught	-11.1578
▁emerald	-11.1578
▁horrible	-11.1578
▁november	-11.1578
▁railroad	-11.1578
▁sebastian	-11.1578
▁sequence	-11.1578
▁terrified	-11.1578
▁ethnic	-11.1578
▁precious	-11.1578
▁townspeople	-11.1578
▁flirt	-11.1578
▁costume	-11.1578
▁barrier	-11.1578
▁utter	-11.1578
▁jessica	-11.1578
▁entry	-11.1578
▁ladies	-11.1578
▁rational	-11.1578
▁ugly	-11.1578
▁expectations	-11.1579
▁implant	-11.1579
▁scholarship	-11.1581
▁administration	-11.1581
▁rosie	-11.1582
▁lem	-11.1583
▁personalities	-11.1583
▁progressive	-11.1585
paw	-11.1585
▁pagan	-11.1586
▁bible	-11.1592
▁echo	-11.1593
▁hindu	-11.1594
dore	-11.1601
peter	-11.1606
demon	-11.1616
47	-11.1617
▁poland	-11.1618
▁reduced	-11.1625
▁pushed	-11.1645
natural	-11.1648
worm	-11.1648
terror	-11.1648
▁leaf	-11.1652
▁sandy	-11.1657
castle	-11.1659
▁fend	-11.166
▁warned	-11.1668
▁violently	-11.1672
▁neglect	-11.1675
▁blast	-11.1676
▁statement	-11.1677
▁pastor	-11.1685
▁vic	-11.1694
▁hood	-11.1699
golden	-11.17
▁maiden	-11.1708
▁qi	-11.1712
▁skeleton	-11.1713
approximately	-11.1713
▁brennan	-11.1713
▁chemical	-11.1713
▁disillusioned	-11.1713
▁hawaii	-11.1713
▁carnival	-11.1713
▁mickey	-11.1713
▁laurel	-11.1713
▁violin	-11.1713
▁bullied	-11.1713
▁elaine	-11.1713
▁betsy	-11.1713
▁chicken	-11.1713
▁ernest	-11.1713
▁dozen	-11.1714
▁blank	-11.1714
▁preface	-11.1716
▁slum	-11.1717
cell	-11.1718
▁charity	-11.1718
▁diet	-11.1719
▁joyce	-11.1719
▁presidential	-11.1719
▁fairies	-11.1719
▁suburban	-11.1722
▁alvin	-11.1723
▁stray	-11.1724
bha	-11.1725
▁cutting	-11.1728
▁burton	-11.173
▁piper	-11.1731
▁everyday	-11.1731
▁classic	-11.1736
▁evade	-11.1747
▁israeli	-11.1752
▁titan	-11.1753
40	-11.1754
▁experimental	-11.1756
▁increased	-11.1761
word	-11.1767
▁featured	-11.1772
▁ella	-11.1786
▁horde	-11.179
headed	-11.1792
▁covering	-11.1793
western	-11.18
▁carson	-11.1801
▁cursed	-11.1809
▁expecting	-11.1813
▁label	-11.1815
▁wage	-11.1817
▁designer	-11.1817
▁appearing	-11.1817
37	-11.1827
having	-11.1834
▁hector	-11.1843
▁aggressive	-11.185
▁cemetery	-11.185
▁dynasty	-11.185
▁fictitious	-11.185
▁jefferson	-11.185
▁messenger	-11.185
▁obstacle	-11.185
▁occupy	-11.185
▁populated	-11.185
▁switzerland	-11.185
twilight	-11.185
▁defence	-11.185
▁coffin	-11.185
▁floating	-11.185
▁intercept	-11.185
confident	-11.185
▁partially	-11.185
▁abraham	-11.185
thorn	-11.185
▁oath	-11.185
▁sweden	-11.1851
▁countess	-11.1851
▁fault	-11.1852
▁literally	-11.1856
▁immortality	-11.1856
▁sugar	-11.1856
▁glory	-11.1857
▁looked	-11.1859
▁effectively	-11.1865
▁cellar	-11.1865
▁frog	-11.1866
▁crusade	-11.1867
▁islam	-11.1868
▁renew	-11.1872
▁kyle	-11.1872
▁corn	-11.1877
▁neighboring	-11.1879
▁scared	-11.188
▁perry	-11.1883
▁gul	-11.1887
▁wat	-11.1894
▁seemed	-11.1895
▁arrange	-11.1902
▁prayer	-11.1906
▁maine	-11.1916
husband	-11.1924
▁jew	-11.1931
▁mute	-11.195
▁bron	-11.195
▁bog	-11.1953
▁intend	-11.1962
ffy	-11.1963
standing	-11.1965
▁prose	-11.1967
▁collecting	-11.1972
▁persuaded	-11.1976
▁novella	-11.1978
lake	-11.1983
▁fed	-11.1983
▁warden	-11.1987
orthodox	-11.1989
▁billionaire	-11.1989
▁discipline	-11.1989
▁edinburgh	-11.1989
▁entitled	-11.1989
▁glimpse	-11.1989
▁instrument	-11.1989
▁ostensibly	-11.1989
▁psychiatric	-11.1989
▁terrifying	-11.1989
▁schedule	-11.1989
▁translation	-11.1989
▁committee	-11.1989
▁sorrow	-11.1989
▁lestat	-11.1989
▁unstable	-11.1989
▁flesh	-11.1989
▁melissa	-11.1989
▁seattle	-11.199
▁pedro	-11.1991
▁campbell	-11.1991
▁priestess	-11.1992
▁raz	-11.1993
▁option	-11.1993
sleep	-11.1994
▁preserv	-11.1997
▁considerable	-11.1998
▁rope	-11.2006
▁wen	-11.2012
▁performed	-11.2013
▁exam	-11.2016
odd	-11.2021
▁marina	-11.2022
vey	-11.2022
▁vow	-11.2024
▁cake	-11.2033
▁personally	-11.2036
▁bike	-11.2045
▁faster	-11.2046
▁crosses	-11.2057
▁framed	-11.2058
▁enterprise	-11.2061
mage	-11.2062
▁accepting	-11.2065
planet	-11.2065
flower	-11.2066
about	-11.2084
▁impress	-11.2085
▁foe	-11.2086
▁jumping	-11.2089
▁cove	-11.2095
▁retire	-11.2097
rink	-11.2097
▁recon	-11.2097
▁tracking	-11.2109
creat	-11.2109
▁duo	-11.2114
▁wander	-11.2118
▁testing	-11.2121
▁bern	-11.2122
▁occasional	-11.2125
▁afghanistan	-11.2129
▁corporate	-11.2129
▁democracy	-11.2129
▁exercise	-11.2129
▁maternal	-11.2129
▁prejudice	-11.2129
▁quantum	-11.2129
▁triumph	-11.2129
▁lawrence	-11.2129
▁ministry	-11.2129
▁evacuate	-11.213
▁arguing	-11.213
▁approve	-11.213
▁email	-11.213
▁reserve	-11.213
▁cambridge	-11.213
▁abbot	-11.2131
▁preced	-11.2131
▁renown	-11.2131
▁elena	-11.2131
▁travis	-11.2133
▁bunny	-11.2135
▁theories	-11.2135
▁bruno	-11.2136
▁foul	-11.2137
▁suze	-11.2141
▁pony	-11.2143
▁ellis	-11.2147
▁nobleman	-11.2152
▁lung	-11.2152
▁lucia	-11.2157
▁clarke	-11.2157
▁morton	-11.2159
▁socialist	-11.2161
▁assassinated	-11.2168
▁engineering	-11.219
▁tight	-11.2194
▁billion	-11.2199
dress	-11.2206
between	-11.2208
effect	-11.2208
▁geo	-11.2208
direct	-11.2209
silver	-11.221
33	-11.2211
▁bald	-11.2211
▁sap	-11.2222
▁collected	-11.2223
▁pel	-11.2236
▁flashback	-11.2236
▁pitch	-11.2241
45	-11.2249
▁existed	-11.2254
ought	-11.2254
▁protected	-11.2262
▁respective	-11.2266
▁berg	-11.2266
▁cage	-11.2266
▁temp	-11.2269
▁inspiration	-11.2272
▁motivation	-11.2272
▁experiencing	-11.2272
▁neutral	-11.2272
▁prompting	-11.2272
▁promptly	-11.2272
▁suspended	-11.2272
▁unicorn	-11.2272
▁salesman	-11.2273
▁armstrong	-11.2273
▁maurice	-11.2273
▁thunder	-11.2275
▁watson	-11.2276
▁brink	-11.2278
▁1920	-11.2279
▁establishment	-11.228
▁remainder	-11.228
▁collective	-11.228
▁anyway	-11.2293
fast	-11.2301
▁invented	-11.2306
bank	-11.2319
▁palm	-11.2321
▁rarely	-11.2322
▁notably	-11.2323
▁rough	-11.2327
▁acquired	-11.2328
▁conclude	-11.233
▁parish	-11.2332
slave	-11.2347
▁banker	-11.2348
▁rig	-11.2365
▁lucky	-11.2372
test	-11.2389
65	-11.24
▁compos	-11.2402
▁auction	-11.2417
▁celebrity	-11.2417
▁combination	-11.2417
▁dwarves	-11.2417
▁skeptical	-11.2417
▁constance	-11.2417
▁colonies	-11.2417
▁samantha	-11.2417
▁louisiana	-11.2417
▁extent	-11.2417
▁wisdom	-11.2417
▁meteor	-11.2417
▁elected	-11.2418
▁nathaniel	-11.2418
▁edmund	-11.2418
▁democratic	-11.2419
▁creep	-11.2419
▁useful	-11.242
▁thick	-11.2424
▁gemma	-11.2425
▁rescu	-11.2438
▁gideon	-11.2439
predator	-11.2439
▁coat	-11.2441
▁spur	-11.2444
▁outcome	-11.2446
patriot	-11.245
▁payment	-11.246
▁notion	-11.246
▁resurrect	-11.2464
▁swan	-11.2471
▁assign	-11.2473
▁romana	-11.248
amber	-11.2486
mara	-11.2489
bee	-11.2491
▁delivery	-11.2492
member	-11.2493
bber	-11.2494
▁tag	-11.2495
memoir	-11.2499
▁salt	-11.2499
▁falcon	-11.25
mary	-11.2504
▁proof	-11.251
▁maud	-11.2511
▁brig	-11.2514
▁jess	-11.2524
▁zen	-11.2529
▁annabel	-11.2542
▁mira	-11.255
▁deception	-11.2564
▁advises	-11.2564
▁cannibal	-11.2564
▁expense	-11.2564
▁jennifer	-11.2564
▁manufacture	-11.2564
▁psychologist	-11.2564
▁rebellious	-11.2564
▁remnant	-11.2564
▁stuart	-11.2564
▁turmoil	-11.2564
▁racist	-11.2564
▁harvest	-11.2564
▁gym	-11.2565
▁sweep	-11.2566
▁freak	-11.2567
▁sample	-11.257
▁katie	-11.2572
▁crippled	-11.2574
▁sue	-11.2575
▁60	-11.2576
▁bread	-11.2578
▁confidence	-11.2579
▁presumably	-11.258
▁lamb	-11.2583
▁letting	-11.2584
▁respectively	-11.2584
cream	-11.2587
▁satan	-11.2595
▁unsuccessfully	-11.2597
gone	-11.2604
▁rani	-11.2607
▁dale	-11.2609
▁purchased	-11.2621
▁dragg	-11.2626
▁ira	-11.2627
acious	-11.2628
▁implicat	-11.2636
▁widower	-11.2643
bourne	-11.2648
▁knocked	-11.2648
▁bullying	-11.2654
return	-11.2667
ffle	-11.267
▁narrow	-11.2696
▁poisoning	-11.2699
▁shoulder	-11.2705
▁dubb	-11.2712
sufficient	-11.2714
▁animorphs	-11.2714
▁arizona	-11.2714
▁charismatic	-11.2714
▁companies	-11.2714
▁enhance	-11.2714
▁entries	-11.2714
▁intervention	-11.2714
▁primitive	-11.2714
▁renegade	-11.2714
▁upbringing	-11.2714
pilgrim	-11.2714
▁ghote	-11.2714
▁serpent	-11.2714
▁column	-11.2714
▁yeerk	-11.2714
▁bargain	-11.2714
▁exotic	-11.2714
▁spear	-11.2714
▁regis	-11.2714
▁annemarie	-11.2714
gravity	-11.2714
▁forbid	-11.2714
▁mythology	-11.2715
▁delivered	-11.2715
▁reconstruct	-11.2716
▁nicola	-11.2717
▁operating	-11.2717
▁bury	-11.272
▁honey	-11.2724
autobiographical	-11.2724
stock	-11.2725
▁sanctuary	-11.2725
▁millie	-11.2728
aux	-11.273
▁lac	-11.2733
▁mercy	-11.2741
▁heroic	-11.2747
▁roland	-11.2747
▁ivy	-11.275
▁touches	-11.2753
▁gardener	-11.2754
▁cyber	-11.2757
▁lair	-11.2759
▁largest	-11.2773
▁visitor	-11.2776
▁accidental	-11.278
bag	-11.2784
▁nut	-11.2785
hope	-11.2785
▁nim	-11.2787
broken	-11.28
▁marion	-11.2802
▁28	-11.2807
▁mystic	-11.2808
▁fade	-11.281
taking	-11.2819
▁realized	-11.282
princess	-11.2821
forest	-11.2823
▁cape	-11.2833
▁luna	-11.285
30	-11.2856
▁convent	-11.2857
fold	-11.2864
▁dictator	-11.2864
▁cathedral	-11.2865
▁continuous	-11.2865
▁cricket	-11.2865
▁embassy	-11.2865
▁expelled	-11.2865
▁frustration	-11.2865
▁reappear	-11.2865
▁tiffany	-11.2865
▁unpleasant	-11.2865
▁absorb	-11.2865
▁jerusalem	-11.2865
▁universal	-11.2865
▁cunning	-11.2865
▁governess	-11.2865
▁intertwine	-11.2865
▁miserable	-11.2865
▁julius	-11.2865
▁preacher	-11.2865
▁babies	-11.2865
▁centaur	-11.2865
▁biography	-11.2866
▁enigmatic	-11.2866
▁restrict	-11.2866
▁trevor	-11.2866
▁cowboy	-11.2867
▁randall	-11.2867
▁reclusive	-11.2867
▁wendy	-11.2867
▁vine	-11.287
▁runaway	-11.287
rrington	-11.2871
▁2000	-11.2872
▁marshal	-11.2875
▁publicly	-11.2877
▁trent	-11.2879
mé	-11.288
▁polar	-11.2887
▁pushes	-11.2887
▁frankie	-11.2888
▁absolute	-11.2889
tending	-11.2889
▁pier	-11.29
▁xanth	-11.2905
▁successor	-11.2906
▁faint	-11.2906
bud	-11.2923
▁surround	-11.2931
▁produced	-11.2939
craft	-11.2951
beyond	-11.2954
despite	-11.2954
journey	-11.2954
stream	-11.2954
▁dim	-11.2955
girlfriend	-11.2955
strong	-11.2955
▁dear	-11.2961
monster	-11.297
arrow	-11.2975
style	-11.2979
▁devote	-11.2989
▁crop	-11.299
why	-11.2993
▁belong	-11.3009
▁enforce	-11.3016
▁brigadier	-11.3019
▁cigarette	-11.3019
▁commercial	-11.3019
▁cordelia	-11.3019
▁dialogue	-11.3019
▁expansion	-11.3019
▁gwynedd	-11.3019
▁luxury	-11.3019
▁bankrupt	-11.3019
▁eternal	-11.3019
▁garrett	-11.3019
▁unleash	-11.3019
▁carriage	-11.3019
▁stretch	-11.3019
▁tactic	-11.3019
▁intimate	-11.3019
▁civilisation	-11.302
▁obsessive	-11.302
▁betty	-11.302
▁stepmother	-11.3021
▁mature	-11.3024
produc	-11.3026
▁suitable	-11.3027
▁headmaster	-11.3027
▁alison	-11.3029
▁franklin	-11.3029
▁robinson	-11.3029
▁archie	-11.3031
▁petty	-11.3034
(	-11.3037
▁doom	-11.3037
▁sunday	-11.3038
▁newfound	-11.3039
▁heather	-11.3039
▁enchanted	-11.3042
▁permanently	-11.3045
nut	-11.3059
▁mega	-11.3063
▁pope	-11.3067
▁detonat	-11.3068
clair	-11.3072
▁blade	-11.3075
▁trek	-11.3077
▁grove	-11.3079
▁stall	-11.3081
evil	-11.3085
▁noticed	-11.3105
wash	-11.3107
84	-11.3117
▁wire	-11.3119
watch	-11.3119
bla	-11.312
▁travelers	-11.312
another	-11.3125
moral	-11.3125
▁cheat	-11.3128
▁stronger	-11.3136
harry	-11.314
▁fisher	-11.3143
▁promote	-11.3146
▁torment	-11.3148
▁strand	-11.3151
▁nana	-11.3163
tuck	-11.3167
▁bicycle	-11.3175
▁embroiled	-11.3175
▁epilogue	-11.3175
▁gruesome	-11.3175
▁inevitable	-11.3175
▁sylvia	-11.3175
▁harvard	-11.3175
▁swedish	-11.3175
fantastic	-11.3175
▁backdrop	-11.3175
▁agatha	-11.3175
▁electronic	-11.3175
▁mythical	-11.3178
▁covenant	-11.3178
▁entertainment	-11.318
▁idol	-11.3181
▁alpha	-11.3183
▁management	-11.3187
▁badger	-11.3187
▁solo	-11.3189
▁silk	-11.319
grade	-11.3191
▁dominated	-11.3195
▁madeline	-11.3198
▁suggestion	-11.3199
▁sri	-11.3199
feld	-11.3201
▁publish	-11.3202
▁addresses	-11.321
▁instinct	-11.321
▁belonged	-11.3214
▁widely	-11.3219
▁unite	-11.3221
fat	-11.3222
▁monte	-11.3226
▁23	-11.323
▁specialist	-11.3232
▁confirmed	-11.3248
▁pine	-11.3252
▁veil	-11.3253
▁pale	-11.326
brown	-11.3273
▁plagued	-11.3274
darkness	-11.3276
▁helena	-11.328
▁convict	-11.3286
▁lila	-11.329
▁covert	-11.3296
▁henri	-11.3296
sight	-11.3302
fox	-11.3304
▁climbing	-11.3311
ovich	-11.3315
▁hind	-11.332
▁roo	-11.3329
▁apologize	-11.3334
▁hurricane	-11.3334
▁jacques	-11.3334
▁jupiter	-11.3334
▁miraculous	-11.3334
▁motivate	-11.3334
▁physics	-11.3334
▁shipwreck	-11.3334
▁emerging	-11.3334
▁dungeon	-11.3334
▁worldwide	-11.3334
▁czech	-11.3334
▁ellery	-11.3334
▁amulet	-11.3334
▁cherry	-11.3334
▁delusion	-11.3334
▁jeffrey	-11.3334
▁tobias	-11.3335
▁smash	-11.3335
▁legacy	-11.3335
▁luis	-11.3336
▁derek	-11.3336
▁edwin	-11.3339
▁gha	-11.3339
▁bump	-11.3341
▁roth	-11.3346
▁batter	-11.3348
▁comment	-11.3351
▁plate	-11.3351
▁grip	-11.3352
▁evolved	-11.3353
▁snap	-11.3353
▁sunny	-11.3353
▁goodbye	-11.3357
▁rowan	-11.3357
▁activate	-11.3357
▁undead	-11.3358
▁sai	-11.336
▁traumati	-11.3362
chal	-11.3363
true	-11.3376
▁pul	-11.3376
▁nova	-11.3379
▁photographer	-11.3382
▁sack	-11.3383
▁rosen	-11.3384
look	-11.3394
▁sometime	-11.3402
▁suggested	-11.3409
▁ignored	-11.341
▁gary	-11.3417
▁financially	-11.342
▁criticize	-11.3426
▁englishman	-11.3427
▁determin	-11.3427
course	-11.3432
▁whisk	-11.3457
▁strongly	-11.3463
▁added	-11.3463
▁oppose	-11.3465
▁iran	-11.3471
▁cran	-11.3474
still	-11.3477
▁negotiate	-11.3479
▁alley	-11.3482
have	-11.349
extraterrestrial	-11.3495
misunderstanding	-11.3495
▁amnesia	-11.3495
▁guidance	-11.3495
▁helicopter	-11.3495
▁holocaust	-11.3495
▁infatuated	-11.3495
▁mediterranean	-11.3495
▁pennsylvania	-11.3495
▁policies	-11.3495
▁prompts	-11.3495
▁recurring	-11.3495
▁strategy	-11.3495
▁bounty	-11.3495
▁liaison	-11.3495
▁lucifer	-11.3495
▁pupil	-11.3495
▁amazing	-11.3495
▁bennett	-11.3495
▁striking	-11.3495
▁audrey	-11.3495
▁elliot	-11.3495
▁diplomat	-11.3496
▁witchcraft	-11.3496
▁breakfast	-11.3496
▁wesley	-11.3496
▁solomon	-11.3497
▁judith	-11.3497
▁turkish	-11.3497
▁pounds	-11.3497
▁creative	-11.3497
▁nursing	-11.3498
▁adulthood	-11.3498
▁fiona	-11.3498
biggest	-11.3498
▁fraud	-11.3498
▁calvin	-11.3499
▁vague	-11.3499
▁cecil	-11.35
▁guise	-11.3501
▁acceptance	-11.3502
▁heath	-11.3504
▁landlord	-11.3505
▁arrangement	-11.3506
▁carrier	-11.351
▁nanny	-11.3512
▁sasha	-11.3513
▁consumed	-11.3517
▁riley	-11.3518
▁warlord	-11.3521
▁nicole	-11.3522
▁overwhelmed	-11.3526
▁blair	-11.3531
juli	-11.3538
▁warlock	-11.3538
▁plotting	-11.3545
stand	-11.3552
▁jackie	-11.3552
▁hm	-11.3552
▁apply	-11.3555
page	-11.3566
▁achieved	-11.3569
▁habitat	-11.3569
china	-11.3571
▁conquered	-11.3571
▁rae	-11.3586
present	-11.3589
▁blamed	-11.3589
ichi	-11.3592
piece	-11.3594
david	-11.3595
much	-11.3595
saint	-11.3595
▁invent	-11.3611
▁misses	-11.3611
lucky	-11.3613
wept	-11.3623
flight	-11.3627
▁divide	-11.3634
▁carrie	-11.3639
frey	-11.3641
▁lecture	-11.3646
▁korea	-11.3647
▁dio	-11.3657
▁circum	-11.3659
▁reception	-11.3659
acquainted	-11.3659
▁catastrophe	-11.3659
▁concentration	-11.3659
▁deploy	-11.3659
▁imaginary	-11.3659
▁orchestra	-11.3659
▁procedure	-11.3659
▁symptoms	-11.3659
▁cocaine	-11.3659
▁destructive	-11.3659
▁quality	-11.3659
▁nikola	-11.3659
▁confined	-11.3659
▁error	-11.3659
▁curtis	-11.366
▁average	-11.366
▁urge	-11.366
▁murphy	-11.366
▁wrath	-11.366
▁sultan	-11.366
▁optim	-11.366
▁persian	-11.3661
▁persist	-11.3663
▁stumble	-11.3665
▁protestant	-11.3666
▁vil	-11.3667
▁wonderful	-11.3672
▁porter	-11.3672
▁cease	-11.3673
▁kindness	-11.3675
▁brotherhood	-11.3678
▁sensitive	-11.368
▁score	-11.3681
▁roughly	-11.3682
▁awakened	-11.3682
▁nemesis	-11.3683
▁zoey	-11.3688
▁repeated	-11.3689
prov	-11.3694
▁oct	-11.3703
▁pipe	-11.3704
▁disturbing	-11.3707
▁cheating	-11.3713
▁mechanical	-11.3714
▁altered	-11.3726
▁nameless	-11.3736
action	-11.3741
▁closet	-11.3751
▁dart	-11.3754
▁disappearing	-11.3757
perfect	-11.3761
mountain	-11.3761
hind	-11.377
phone	-11.3774
▁extend	-11.3783
▁verge	-11.3792
▁lara	-11.3804
zhi	-11.3807
ilia	-11.3809
diary	-11.3811
acre	-11.3815
level	-11.382
▁rash	-11.3825
▁advocate	-11.3826
▁archaeological	-11.3826
▁clarissa	-11.3826
▁compassion	-11.3826
▁fugitive	-11.3826
▁hallucination	-11.3826
▁incarnation	-11.3826
▁loneliness	-11.3826
▁portuguese	-11.3826
▁quarrel	-11.3826
▁sorceress	-11.3826
▁genuine	-11.3826
▁plunge	-11.3826
▁flinx	-11.3826
▁turtle	-11.3826
▁misfortune	-11.3826
▁complications	-11.3827
▁spiral	-11.3827
▁esther	-11.3827
▁nikki	-11.3827
▁golf	-11.3827
▁adolf	-11.3827
▁android	-11.3828
▁lizzie	-11.3828
▁favourite	-11.3828
▁viewpoint	-11.3828
▁dublin	-11.3828
▁tavern	-11.3829
▁humble	-11.3829
▁shopping	-11.3831
tomorrow	-11.3831
▁wagon	-11.3831
▁islamic	-11.3831
stricken	-11.3831
▁chose	-11.3831
▁replacement	-11.3833
▁marian	-11.3834
▁brett	-11.3837
▁cattle	-11.3837
▁kil	-11.3839
beck	-11.3841
▁dare	-11.3842
▁punch	-11.3849
▁frightening	-11.3853
▁hassan	-11.3861
▁lengthy	-11.3862
▁raw	-11.3867
▁neglected	-11.3873
tally	-11.3875
▁alec	-11.3879
▁injur	-11.388
▁strained	-11.3883
▁distracted	-11.3884
ranking	-11.3884
▁scot	-11.3886
▁void	-11.3892
grant	-11.3906
kki	-11.3906
marie	-11.3909
▁hyper	-11.3909
▁stab	-11.3915
▁troy	-11.3925
servant	-11.393
empire	-11.3931
sharpe	-11.3931
sweet	-11.3931
▁delia	-11.3935
▁explored	-11.3938
▁kurt	-11.3939
bach	-11.394
▁imprison	-11.3955
▁agreed	-11.3963
▁benny	-11.3963
plot	-11.3966
▁reject	-11.3967
comb	-11.3967
▁hive	-11.3968
▁ancestr	-11.3977
licate	-11.3987
▁starr	-11.3992
▁airplane	-11.3995
▁communities	-11.3995
▁enraged	-11.3995
▁gertrude	-11.3995
▁gigantic	-11.3995
▁observing	-11.3995
▁occupant	-11.3995
▁phenomena	-11.3995
▁psychology	-11.3995
▁satisfy	-11.3995
▁solitary	-11.3995
▁mackenzie	-11.3995
▁joshua	-11.3995
▁poppy	-11.3995
▁creator	-11.3995
▁kor	-11.3996
▁orange	-11.3996
▁bathroom	-11.3996
▁immers	-11.3996
▁anarchist	-11.3996
▁weird	-11.3997
▁clement	-11.3997
▁conscience	-11.3998
▁purport	-11.3998
▁opium	-11.3998
▁furthermore	-11.3999
▁arctic	-11.3999
▁kitten	-11.3999
25	-11.3999
▁distrust	-11.3999
▁submit	-11.4
hiro	-11.4
▁minute	-11.4
▁consent	-11.4004
▁stopping	-11.4005
▁objective	-11.4006
▁conviction	-11.4006
▁jedi	-11.4007
▁bomber	-11.4008
▁bigger	-11.4011
▁ancestor	-11.4013
beat	-11.4014
60	-11.4014
▁mau	-11.4016
▁relation	-11.4023
▁rightful	-11.4028
▁jet	-11.403
viv	-11.4033
citing	-11.4037
▁tense	-11.4047
▁mainland	-11.4048
▁punished	-11.4048
▁gunn	-11.405
▁alias	-11.4051
▁sealed	-11.4076
▁milo	-11.4076
▁deposit	-11.4086
▁tia	-11.4088
cites	-11.4098
▁endless	-11.4099
beautiful	-11.4103
because	-11.4103
wonder	-11.4104
midnight	-11.4104
flash	-11.4104
shot	-11.4106
▁historic	-11.4111
▁tj	-11.4117
▁bast	-11.412
▁interrupt	-11.413
▁smuggle	-11.4139
caster	-11.415
▁scam	-11.4154
▁sham	-11.4155
▁gentle	-11.4162
incredibly	-11.4168
▁accusation	-11.4168
▁autobiography	-11.4168
▁continually	-11.4168
▁dilemma	-11.4168
▁extinction	-11.4168
▁transplant	-11.4168
morpork	-11.4168
▁humiliate	-11.4168
▁unwanted	-11.4168
▁relief	-11.4168
fidelity	-11.4168
▁treason	-11.4168
▁dirty	-11.4168
▁teresa	-11.4168
▁davy	-11.4168
▁moomin	-11.4168
▁toronto	-11.4169
▁canyon	-11.4169
▁operator	-11.417
▁committing	-11.4174
▁stanley	-11.4175
▁neil	-11.4177
▁flaw	-11.4179
▁fanny	-11.4179
▁ferry	-11.4184
▁rusty	-11.4186
▁popularity	-11.4187
luck	-11.419
▁inventor	-11.4193
▁whisper	-11.4193
care	-11.4196
▁stamp	-11.4198
▁pauline	-11.4198
▁awakening	-11.4199
▁promoted	-11.4201
▁bridget	-11.4211
month	-11.4212
▁imagined	-11.422
▁callie	-11.4221
▁fang	-11.4223
▁peril	-11.4224
▁candle	-11.4227
▁establishe	-11.4227
▁invaded	-11.4229
▁infiltrat	-11.4236
▁leak	-11.4236
▁hound	-11.4238
▁lesson	-11.4246
▁disturb	-11.4254
park	-11.4256
▁succeeded	-11.4257
nick	-11.4268
▁shaman	-11.4271
together	-11.4278
against	-11.4278
▁crane	-11.4281
george	-11.4282
among	-11.4286
hole	-11.4287
horn	-11.4288
running	-11.432
final	-11.432
▁indicat	-11.4325
baby	-11.4328
▁pray	-11.4331
▁effective	-11.4335
▁homosexual	-11.434
apocalyptic	-11.4343
▁chocolate	-11.4343
▁entrepreneur	-11.4343
▁february	-11.4343
▁philadelphia	-11.4343
▁uncomfortable	-11.4343
▁achilles	-11.4343
▁jerome	-11.4343
▁paradox	-11.4343
▁stomach	-11.4343
▁liberation	-11.4343
▁rupert	-11.4343
▁landowner	-11.4343
▁endanger	-11.4343
▁casino	-11.4343
▁impersonat	-11.4343
cracy	-11.4343
▁beatrice	-11.4344
▁sweetheart	-11.4344
▁atomic	-11.4344
▁dominic	-11.4344
▁hijack	-11.4345
▁drake	-11.4345
▁therapy	-11.4345
▁mobile	-11.4346
▁darren	-11.4346
▁balloon	-11.4346
▁profound	-11.4347
▁everywhere	-11.4347
▁everybody	-11.4348
▁friday	-11.435
▁waking	-11.4351
▁senate	-11.4352
▁repel	-11.4363
▁cries	-11.4363
▁liking	-11.4367
▁diner	-11.4367
▁shack	-11.4372
llusion	-11.4373
▁eighth	-11.4374
▁classical	-11.4382
▁remov	-11.4383
fact	-11.4395
▁offend	-11.4395
▁contend	-11.4396
▁taxi	-11.4398
▁cairo	-11.4407
trip	-11.4414
▁quietly	-11.4414
▁loud	-11.4426
▁rook	-11.4435
▁27	-11.4452
michael	-11.4457
blind	-11.4458
fictional	-11.4464
front	-11.4482
generation	-11.4483
▁complicat	-11.4483
▁pil	-11.4495
whose	-11.4499
apocalypse	-11.4522
▁autumn	-11.4522
▁captivity	-11.4522
▁connecticut	-11.4522
▁escalate	-11.4522
▁expatriate	-11.4522
▁exterminat	-11.4522
▁ishmael	-11.4522
▁machinations	-11.4522
▁motorcycle	-11.4522
▁pharaoh	-11.4522
▁retaliation	-11.4522
▁vladimir	-11.4522
▁benedict	-11.4522
▁competing	-11.4522
▁contempt	-11.4522
▁navigate	-11.4522
▁café	-11.4522
▁excavat	-11.4522
▁harbour	-11.4522
▁meredith	-11.4522
▁uniform	-11.4522
▁convoy	-11.4522
sullivan	-11.4522
▁pleasant	-11.4522
▁lancelot	-11.4522
▁stabbed	-11.4522
▁vlad	-11.4522
destruct	-11.4522
▁relic	-11.4522
▁excuse	-11.4522
▁turkey	-11.4523
▁fowl	-11.4523
▁avalon	-11.4523
▁chapel	-11.4524
▁backwards	-11.4524
▁heiress	-11.4524
▁occurring	-11.4525
▁convey	-11.4525
▁misery	-11.4525
▁jessie	-11.4526
▁scroll	-11.4526
▁frontier	-11.4527
▁knee	-11.4528
▁criticism	-11.4529
▁anymore	-11.4529
▁cavern	-11.4529
▁romantically	-11.453
▁pact	-11.4532
▁vanishes	-11.4532
▁menace	-11.4533
▁cheap	-11.4535
▁commitment	-11.4536
▁maybe	-11.4537
▁garage	-11.4541
▁shattered	-11.4547
▁selfish	-11.4547
▁norton	-11.455
▁reduce	-11.4551
▁serge	-11.4556
force	-11.4558
cum	-11.4559
▁doomed	-11.4566
▁observer	-11.4567
▁murderous	-11.4569
▁recogniz	-11.457
evolutionary	-11.4573
▁bout	-11.4574
weep	-11.4589
▁hypo	-11.4595
pound	-11.4605
▁merri	-11.4618
chief	-11.4638
▁grandma	-11.4639
family	-11.4639
laughter	-11.4641
battle	-11.4641
enemy	-11.4643
▁obi	-11.4655
tower	-11.4657
▁rite	-11.4657
small	-11.4661
▁stir	-11.4662
▁execute	-11.4673
▁maze	-11.4687
▁counsel	-11.4696
▁minnesota	-11.4704
▁predecessor	-11.4704
▁pumpkin	-11.4704
▁twentieth	-11.4704
▁uneasy	-11.4704
▁unsolved	-11.4704
▁provoke	-11.4704
▁refusing	-11.4704
▁marlowe	-11.4704
▁choosing	-11.4704
▁kgb	-11.4704
▁kansas	-11.4704
▁housing	-11.4704
▁honeymoon	-11.4704
▁leslie	-11.4704
ggin	-11.4704
▁denied	-11.4705
▁squadron	-11.4706
▁tribal	-11.4706
▁sadistic	-11.4707
▁personnel	-11.4709
▁granny	-11.4709
▁bradley	-11.4709
▁miami	-11.471
▁weakness	-11.471
▁reclaim	-11.471
▁counselor	-11.4711
▁bengal	-11.472
▁rivalry	-11.4725
eater	-11.4727
▁disgusted	-11.4734
▁prediction	-11.4741
▁formula	-11.4741
▁tormented	-11.4748
▁quote	-11.4753
▁chronic	-11.4756
▁hyde	-11.4765
▁whip	-11.4774
▁harmon	-11.4786
▁tease	-11.4793
▁temper	-11.4822
boyfriend	-11.4825
hound	-11.4833
wave	-11.4873
diagnosed	-11.4874
suit	-11.4876
▁sponsor	-11.4889
▁adolescence	-11.4889
▁comprise	-11.4889
▁convincing	-11.4889
▁crucial	-11.4889
▁evident	-11.4889
▁geoffrey	-11.4889
▁prehistoric	-11.4889
▁understood	-11.4889
▁vulnerable	-11.4889
▁werewolves	-11.4889
▁promotion	-11.4889
▁dominant	-11.4889
▁examination	-11.4889
▁pigeon	-11.4889
▁naomi	-11.4889
▁stefan	-11.4889
▁hudson	-11.4889
▁plastic	-11.4889
▁cotton	-11.4889
▁flint	-11.4889
▁decker	-11.4889
▁differ	-11.489
▁vicki	-11.4891
▁tristan	-11.4891
▁tongue	-11.4891
▁freddie	-11.4892
▁genetically	-11.4892
▁26	-11.4894
▁crawl	-11.4897
▁norway	-11.4898
▁athens	-11.49
▁myron	-11.4902
▁bang	-11.4902
▁hornblower	-11.4906
▁declare	-11.4908
▁culminate	-11.491
▁limb	-11.4912
▁missionary	-11.4912
▁turk	-11.4916
▁socialite	-11.4917
duced	-11.4918
▁genre	-11.4918
▁loren	-11.4919
dominat	-11.4929
▁liu	-11.4932
shima	-11.4933
▁pam	-11.494
▁hip	-11.4951
▁vicar	-11.4952
▁sport	-11.4954
▁naive	-11.4956
spell	-11.4956
▁tools	-11.4961
▁overall	-11.4973
▁penn	-11.4987
▁bail	-11.5002
claim	-11.5005
▁dunn	-11.5011
establish	-11.5013
vampire	-11.5013
heaven	-11.5013
nicknamed	-11.5013
soldier	-11.5014
following	-11.5014
frank	-11.5014
▁kane	-11.5018
midst	-11.5024
▁freeze	-11.5026
▁rust	-11.5034
living	-11.5039
honor	-11.5041
▁coco	-11.5043
▁vanish	-11.5048
▁culminat	-11.5056
bright	-11.5058
▁nineteen	-11.5069
ographer	-11.5077
▁desperation	-11.5077
▁disapprove	-11.5077
▁idyllic	-11.5077
▁matilda	-11.5077
▁outskirts	-11.5077
▁roosevelt	-11.5077
▁unwitting	-11.5077
▁depths	-11.5077
▁detention	-11.5077
▁intersperse	-11.5077
▁sniper	-11.5077
▁melanie	-11.5077
▁reunion	-11.5077
▁famine	-11.5077
▁deteriorate	-11.5077
▁anxious	-11.5078
▁rufus	-11.5078
▁strangle	-11.5078
▁thugs	-11.5079
▁reckless	-11.5079
▁gamble	-11.5079
▁usurp	-11.5079
▁montana	-11.508
▁resemblance	-11.5082
firm	-11.5083
▁yoga	-11.5083
▁electricity	-11.5084
▁globe	-11.5084
▁cabinet	-11.5086
▁grady	-11.5087
▁ashley	-11.5087
▁shout	-11.5089
▁realities	-11.5092
▁devon	-11.5094
▁underwater	-11.5095
▁harmony	-11.5097
▁merry	-11.51
▁loop	-11.5101
▁succession	-11.5105
▁connie	-11.5106
void	-11.5117
▁perish	-11.5118
▁dresses	-11.5118
▁manag	-11.5123
▁khu	-11.5124
wald	-11.5127
bond	-11.5134
▁brady	-11.5134
▁aspect	-11.5138
▁sage	-11.5158
61	-11.5165
▁reminisce	-11.5178
▁recollect	-11.5187
fell	-11.519
▁steer	-11.5194
▁lola	-11.5195
▁featur	-11.5201
built	-11.5205
arthur	-11.5206
killer	-11.5216
ovsky	-11.5244
76	-11.5248
stick	-11.5249
▁topic	-11.5261
▁1941	-11.527
▁confederate	-11.527
▁epidemic	-11.527
▁luxurious	-11.527
▁mathematics	-11.527
▁pyramid	-11.527
▁quarantine	-11.527
▁shanghai	-11.527
▁unspecified	-11.527
▁footsteps	-11.527
▁krupp	-11.527
▁fabric	-11.527
▁josef	-11.527
▁pledge	-11.527
▁krishna	-11.527
▁premise	-11.527
▁basketball	-11.527
▁klein	-11.527
▁stairs	-11.527
▁josé	-11.5271
▁lynch	-11.5271
▁gentry	-11.5271
▁beggar	-11.5271
▁counterpart	-11.5271
▁antonio	-11.5272
▁misfit	-11.5272
▁tsar	-11.5273
▁trench	-11.5273
▁closing	-11.5275
▁vernon	-11.5275
▁strive	-11.5281
▁awakes	-11.5282
▁winston	-11.5285
zzle	-11.5286
▁elias	-11.5286
▁winner	-11.5288
▁cloth	-11.5289
▁peak	-11.5292
▁dull	-11.5299
▁brick	-11.5301
▁kang	-11.5303
▁palmer	-11.5305
▁mitt	-11.5325
▁desk	-11.5325
▁chau	-11.5328
▁conclud	-11.5328
chrono	-11.5347
paul	-11.535
▁wanderer	-11.5363
▁bite	-11.5368
▁roar	-11.5373
linear	-11.5383
▁probe	-11.5393
▁rapp	-11.5397
science	-11.5399
evolution	-11.54
wizard	-11.5401
different	-11.5401
machine	-11.5401
command	-11.5404
▁leap	-11.5409
▁contemplate	-11.5422
since	-11.5426
yama	-11.5427
▁overwhelm	-11.5428
opposing	-11.545
▁contribute	-11.545
fortunate	-11.5461
▁correspond	-11.5464
▁anticipate	-11.5466
▁appreciate	-11.5466
▁baudelaire	-11.5466
▁cadfael	-11.5466
▁caribbean	-11.5466
▁excellent	-11.5466
▁matriarch	-11.5466
▁necklace	-11.5466
▁obscure	-11.5466
▁occult	-11.5466
▁presidency	-11.5466
▁scenario	-11.5466
▁unknowingly	-11.5466
▁unreliable	-11.5466
▁welfare	-11.5466
▁widespread	-11.5466
▁manticore	-11.5466
▁miguel	-11.5466
▁camilla	-11.5466
▁intersect	-11.5466
biblical	-11.5466
▁colorado	-11.5466
▁ronald	-11.5466
▁parrot	-11.5466
▁havoc	-11.5466
▁atlanta	-11.5466
▁forensic	-11.5466
▁rift	-11.5466
▁illustrations	-11.5466
▁agenda	-11.5466
▁stevie	-11.5466
▁lucien	-11.5467
▁olaf	-11.5467
▁tyrant	-11.5467
▁shuttle	-11.5467
▁bastard	-11.5468
▁commentary	-11.5468
▁deemed	-11.5468
▁plus	-11.5468
▁alaska	-11.5468
▁digging	-11.5469
▁enforcement	-11.547
▁bullies	-11.5471
▁iranian	-11.5472
▁elevator	-11.5472
▁darrow	-11.5472
▁gulf	-11.5473
▁sickness	-11.5475
▁cruelty	-11.5475
▁draco	-11.548
jane	-11.5482
▁seaside	-11.5485
▁deathbed	-11.5487
assuming	-11.5489
▁assess	-11.549
▁drill	-11.5492
▁behave	-11.5492
▁demonic	-11.5492
▁kisses	-11.5501
atrix	-11.5503
▁technologically	-11.5503
▁overlook	-11.5509
▁casa	-11.551
▁comedy	-11.5531
▁shark	-11.5554
▁reminiscen	-11.556
planetary	-11.5571
▁riches	-11.5587
▁cosmo	-11.56
middle	-11.5602
▁mama	-11.5609
common	-11.5612
▁revere	-11.5614
genesis	-11.5617
talk	-11.5626
▁inspire	-11.5636
▁overrun	-11.5649
▁rude	-11.565
▁austria	-11.5652
▁rapid	-11.5653
▁xu	-11.5665
▁advertising	-11.5666
▁contradict	-11.5666
▁controversial	-11.5666
▁denounce	-11.5666
▁imminent	-11.5666
▁oppression	-11.5666
▁phenomenon	-11.5666
▁phoebe	-11.5666
quisition	-11.5666
▁mundane	-11.5666
▁oppressed	-11.5666
dolphin	-11.5666
▁replies	-11.5666
▁smoking	-11.5666
▁jamaica	-11.5666
▁georgie	-11.5666
▁entangled	-11.5666
▁dependent	-11.5666
▁mistreat	-11.5666
▁oregon	-11.5666
▁indonesia	-11.5666
▁jesuit	-11.5666
▁newcomer	-11.5667
▁brigade	-11.5667
▁histories	-11.5667
▁subplot	-11.5667
▁alicia	-11.5667
▁waitress	-11.5667
▁harvey	-11.5667
▁sketch	-11.5667
▁properties	-11.5667
▁admitted	-11.5669
▁lethal	-11.5669
▁darcy	-11.567
▁lizard	-11.567
▁cryptic	-11.567
▁tracy	-11.5671
▁anthropologist	-11.5672
▁guess	-11.5673
▁infantry	-11.5675
▁awareness	-11.5675
▁tramp	-11.5677
▁groom	-11.5681
▁lighthouse	-11.5681
reby	-11.5685
▁joanna	-11.5686
▁switches	-11.5687
▁shipping	-11.5694
▁conceived	-11.5696
▁denis	-11.57
▁ravag	-11.5707
▁pile	-11.5714
skinned	-11.5714
▁mice	-11.5728
ridden	-11.5741
▁nico	-11.5751
▁lance	-11.5771
▁zach	-11.5788
warrior	-11.5805
third	-11.5806
throughout	-11.5808
finger	-11.5825
▁conceive	-11.5839
sense	-11.584
north	-11.585
▁travers	-11.5851
color	-11.586
ography	-11.5869
millennium	-11.587
▁arrogant	-11.587
▁claudia	-11.587
▁feminist	-11.587
▁metaphor	-11.587
▁participant	-11.587
▁premature	-11.587
▁romulan	-11.587
▁sovereign	-11.587
▁virtue	-11.587
▁vulcan	-11.587
▁capacity	-11.587
▁cassandra	-11.587
▁valentine	-11.587
▁pistol	-11.587
▁tournament	-11.587
▁recounting	-11.587
▁implied	-11.587
▁ninth	-11.587
morph	-11.587
▁wield	-11.587
▁mccoy	-11.5871
▁vicky	-11.5871
▁coloniz	-11.5871
▁phase	-11.5871
▁yoshi	-11.5873
▁homosexuality	-11.5873
▁cecilia	-11.5874
▁virginity	-11.5876
▁perpetrator	-11.5876
▁ascend	-11.5879
▁motel	-11.588
▁interpretation	-11.5884
▁feudal	-11.5884
▁ember	-11.5885
▁sammy	-11.5892
▁fence	-11.5904
▁moll	-11.5906
lé	-11.5925
▁chef	-11.5928
▁chile	-11.5928
▁stern	-11.593
▁spill	-11.5931
▁doug	-11.5934
▁kip	-11.5934
truth	-11.5937
57	-11.5938
▁emotion	-11.595
▁armor	-11.5956
▁fenn	-11.5965
▁alek	-11.5972
operation	-11.5978
written	-11.6013
political	-11.6013
double	-11.6014
mistress	-11.6014
drift	-11.6014
▁marat	-11.6014
changing	-11.6017
dust	-11.602
london	-11.602
week	-11.6026
lift	-11.6027
haven	-11.604
▁marches	-11.6041
▁xan	-11.6058
▁appropriate	-11.6078
▁betrothed	-11.6078
▁clandestine	-11.6078
▁columbia	-11.6078
▁concentrate	-11.6078
▁coordinat	-11.6078
▁definition	-11.6078
▁dynamic	-11.6078
▁elspeth	-11.6078
▁envelope	-11.6078
▁malevolent	-11.6078
▁reincarnation	-11.6078
▁volcano	-11.6078
▁cavalry	-11.6078
▁hamilton	-11.6078
▁qualities	-11.6078
▁throat	-11.6078
▁unemployed	-11.6078
▁cynical	-11.6078
▁garrison	-11.6078
▁2001	-11.6078
monsieur	-11.6078
▁maisie	-11.6078
▁sworn	-11.6078
▁essence	-11.6078
maigret	-11.6078
memorial	-11.6078
▁captors	-11.6078
▁compromise	-11.6079
▁coincidence	-11.6079
▁fergus	-11.6079
▁marquis	-11.6079
▁clown	-11.608
▁bulk	-11.6081
▁steward	-11.6081
▁spinster	-11.6082
▁nationalist	-11.6082
▁dylan	-11.6082
▁copies	-11.6084
▁frantic	-11.6085
▁gotten	-11.6085
imposed	-11.6085
▁copper	-11.6086
▁anywhere	-11.6086
▁anchor	-11.6086
▁delhi	-11.6086
▁clive	-11.6087
▁gavin	-11.6089
▁investment	-11.6092
▁harrison	-11.6093
▁archive	-11.6093
▁silas	-11.6096
▁reich	-11.6097
▁iceland	-11.61
▁travelled	-11.6103
▁humor	-11.6109
▁sadie	-11.611
▁brush	-11.6125
▁olive	-11.6131
▁programme	-11.6139
▁jace	-11.6142
▁morse	-11.6165
▁dodge	-11.6196
leader	-11.6227
steel	-11.6239
mouse	-11.6242
brien	-11.6246
matter	-11.6255
eagle	-11.6261
tiger	-11.6265
89	-11.628
▁slight	-11.6288
▁alchemist	-11.6291
▁commonwealth	-11.6291
▁concubine	-11.6291
▁disfigur	-11.6291
▁pseudonym	-11.6291
▁refusal	-11.6291
▁sorcery	-11.6291
▁substantial	-11.6291
▁thursday	-11.6291
▁underneath	-11.6291
▁unmarried	-11.6291
▁picnic	-11.6291
▁blossom	-11.6291
▁demise	-11.6291
▁examining	-11.6291
▁duchess	-11.6291
▁petersburg	-11.6291
esteem	-11.6291
▁invading	-11.6291
▁cornwall	-11.6291
▁repay	-11.6291
▁drugged	-11.6291
▁heinrich	-11.6291
▁realising	-11.6291
▁siberia	-11.6292
▁consistent	-11.6292
▁theodore	-11.6292
▁melbourne	-11.6292
▁faust	-11.6292
▁domain	-11.6292
▁mitchell	-11.6292
▁medium	-11.6294
▁ashamed	-11.6294
▁fraser	-11.6294
▁nellie	-11.6294
▁bitten	-11.6294
▁claude	-11.6294
▁canoe	-11.6296
▁vivid	-11.6297
▁tegan	-11.6299
▁magnet	-11.6299
▁clem	-11.63
▁carrot	-11.63
▁margot	-11.6303
▁interrogation	-11.6304
▁austrian	-11.6305
▁carved	-11.6308
homo	-11.6313
▁ancestry	-11.6315
scale	-11.6321
▁deaf	-11.6321
▁rudy	-11.6324
folk	-11.6325
▁charis	-11.6327
▁leah	-11.6331
▁blend	-11.6335
▁captur	-11.6351
▁flori	-11.6356
▁symbolic	-11.6363
▁boom	-11.6396
▁pell	-11.6442
modern	-11.6444
future	-11.6444
▁harrow	-11.6445
special	-11.6447
capable	-11.6451
▁accord	-11.6458
▁zin	-11.6473
▁antarctic	-11.6508
▁bachelor	-11.6508
▁baltimore	-11.6508
▁culprit	-11.6508
▁fletcher	-11.6508
▁kentucky	-11.6508
▁mechanism	-11.6508
▁secluded	-11.6508
▁suicidal	-11.6508
redemption	-11.6508
▁accurate	-11.6508
▁chancellor	-11.6508
▁eduard	-11.6508
▁palestinian	-11.6508
▁paranoid	-11.6508
▁prohibit	-11.6508
▁stubborn	-11.6508
▁theoretical	-11.6508
▁absurd	-11.6508
▁daphne	-11.6508
▁patience	-11.6508
▁pilgrimage	-11.6508
▁welsh	-11.6508
▁wheat	-11.6508
▁dillon	-11.6508
▁interfere	-11.6508
▁rejoin	-11.6508
▁cultivat	-11.6509
▁summary	-11.6509
▁gallery	-11.6509
▁humorous	-11.651
▁bronze	-11.651
▁dictatorship	-11.651
▁fanatic	-11.651
▁neighbourhood	-11.6511
▁elementary	-11.6511
▁appointment	-11.6511
▁iowa	-11.6512
▁renaissance	-11.6512
▁nightclub	-11.6512
▁colonization	-11.6513
▁guil	-11.6513
▁pawn	-11.6514
▁demonstration	-11.6514
▁womb	-11.6515
▁marianne	-11.6516
▁rejection	-11.6518
▁norris	-11.6518
▁grayson	-11.652
▁morality	-11.6522
▁toilet	-11.6522
▁specialize	-11.6524
▁strategic	-11.6525
▁cadet	-11.6526
▁sector	-11.6527
56	-11.6528
▁augustus	-11.6531
22	-11.6533
pick	-11.6536
▁suck	-11.6546
48	-11.6576
miko	-11.6597
▁vest	-11.6598
ident	-11.6618
gita	-11.6621
order	-11.6623
▁mull	-11.666
▁zeb	-11.6663
occupied	-11.6666
cliff	-11.6666
writing	-11.6666
author	-11.6666
general	-11.6667
street	-11.6668
cloud	-11.6669
mortal	-11.667
▁consume	-11.6681
stud	-11.6694
▁elevat	-11.6728
▁accomplice	-11.6731
▁circuit	-11.6731
▁coalition	-11.6731
▁confiscate	-11.6731
▁disapproval	-11.6731
▁djinn	-11.6731
▁furniture	-11.6731
▁grieving	-11.6731
▁guinevere	-11.6731
▁gypsy	-11.6731
▁immune	-11.6731
▁mathematical	-11.6731
▁mathematician	-11.6731
▁monstrous	-11.6731
▁percival	-11.6731
▁prostitution	-11.6731
▁reynolds	-11.6731
▁syndicate	-11.6731
▁unexplained	-11.6731
▁devotion	-11.6731
▁supervisor	-11.6731
▁nevada	-11.6731
▁sanction	-11.6731
▁2009	-11.6731
▁adviser	-11.6731
▁rumored	-11.6731
▁ursula	-11.6731
▁injustice	-11.6731
▁klaus	-11.6731
▁infinite	-11.6731
▁sunnydale	-11.6731
▁visual	-11.6731
▁compil	-11.6731
▁psychopath	-11.6732
▁jasper	-11.6732
▁shrink	-11.6732
▁ramona	-11.6734
▁exciting	-11.6734
▁nasty	-11.6734
▁prosperous	-11.6734
▁attachment	-11.6735
gentlemen	-11.6735
▁mineral	-11.6735
▁quantit	-11.6736
▁donkey	-11.6736
▁trout	-11.6739
▁analog	-11.6741
▁29	-11.6741
▁constantine	-11.6741
▁elope	-11.6741
▁spotted	-11.6742
▁irina	-11.6745
▁unearth	-11.6748
▁malone	-11.6748
▁broom	-11.6751
▁lief	-11.6752
▁loot	-11.6753
▁wrist	-11.6757
▁arouse	-11.676
collection	-11.6762
spy	-11.6767
▁logic	-11.6808
▁inspect	-11.6819
▁proclaim	-11.6834
marita	-11.6839
rough	-11.688
fiction	-11.6884
lisa	-11.6889
galactic	-11.6893
spider	-11.6894
control	-11.6895
beast	-11.6905
▁disgust	-11.692
▁northwest	-11.6937
▁instant	-11.6941
▁alabama	-11.6958
▁apprehend	-11.6958
▁communism	-11.6958
▁consequently	-11.6958
▁emphasis	-11.6958
▁equivalent	-11.6958
▁espionage	-11.6958
▁hampshire	-11.6958
▁mutilated	-11.6958
▁perpetual	-11.6958
▁randolph	-11.6958
▁singapore	-11.6958
▁sympathy	-11.6958
▁tuberculosis	-11.6958
▁unidentified	-11.6958
▁upstairs	-11.6958
▁1942	-11.6958
▁bartholomew	-11.6958
▁clinton	-11.6958
▁quarry	-11.6958
▁analyze	-11.6958
▁digital	-11.6958
▁hesitant	-11.6958
▁lodging	-11.6958
▁revisit	-11.6958
▁soccer	-11.6958
▁ontario	-11.6958
▁settling	-11.6958
▁troupe	-11.6959
▁talbot	-11.6959
▁sensation	-11.6959
▁evict	-11.6959
albeit	-11.6962
▁eliot	-11.6962
▁collide	-11.6962
▁obey	-11.6965
▁babylon	-11.6967
▁yuki	-11.6967
▁imitat	-11.6972
strom	-11.6973
▁clip	-11.6975
▁consumer	-11.6977
▁plight	-11.6978
▁ownership	-11.6979
▁addie	-11.698
▁trash	-11.6983
▁instructor	-11.6989
▁admirer	-11.6992
▁eliminat	-11.7042
blanc	-11.7068
▁singh	-11.7071
▁fearful	-11.7089
▁consequence	-11.7099
▁consul	-11.7111
number	-11.7126
brook	-11.7128
origin	-11.7128
holm	-11.7128
animal	-11.7132
▁unfortunate	-11.7177
responsibilities	-11.719
▁1939	-11.719
▁allegiance	-11.719
▁approval	-11.719
▁bourgeois	-11.719
▁buddhist	-11.719
▁congregation	-11.719
▁cornelius	-11.719
▁corporal	-11.719
▁dystopian	-11.719
▁halloween	-11.719
▁legitimate	-11.719
▁manipulation	-11.719
▁predominantly	-11.719
▁significance	-11.719
▁syndrome	-11.719
▁treacherous	-11.719
▁treachery	-11.719
▁unfamiliar	-11.719
▁feluda	-11.719
▁inflict	-11.719
▁militant	-11.719
▁translator	-11.719
▁angrily	-11.719
▁gnome	-11.719
▁illicit	-11.719
▁miriam	-11.719
▁bianca	-11.719
▁starvation	-11.719
▁nonetheless	-11.719
▁commune	-11.719
▁ethical	-11.719
▁liberty	-11.719
▁zealand	-11.719
▁intruder	-11.719
▁alfie	-11.7191
▁inherent	-11.7191
▁breast	-11.7191
▁website	-11.7191
▁slain	-11.7191
▁hydro	-11.7191
▁maureen	-11.7191
▁opportunities	-11.7191
▁crypt	-11.7191
▁blessing	-11.7191
▁swiss	-11.7191
▁collins	-11.7192
▁graveyard	-11.7192
▁heartbroken	-11.7193
▁purple	-11.7193
▁biologist	-11.7194
▁rigid	-11.7194
▁nigel	-11.7194
▁remarkable	-11.7196
esthetic	-11.7197
▁classroom	-11.7197
▁chairman	-11.7205
▁jonas	-11.7205
▁stability	-11.7206
▁ramage	-11.7209
▁darling	-11.7209
▁flock	-11.7211
▁preferr	-11.722
▁potion	-11.7245
▁pike	-11.7261
generat	-11.7269
▁claw	-11.7299
▁lunar	-11.7331
▁studie	-11.7343
▁interaction	-11.7352
aemon	-11.7358
surprise	-11.7364
according	-11.7364
attack	-11.7365
gather	-11.7367
without	-11.7375
▁infect	-11.7383
▁challenging	-11.7428
▁collision	-11.7428
▁displeas	-11.7428
▁fragile	-11.7428
▁guerrilla	-11.7428
▁impulsive	-11.7428
▁mixture	-11.7428
▁necromancer	-11.7428
▁propaganda	-11.7428
▁sapphire	-11.7428
▁secrecy	-11.7428
▁substitute	-11.7428
eternity	-11.7429
▁kahlan	-11.7429
▁annoyed	-11.7429
▁discourage	-11.7429
▁hazard	-11.7429
▁mutiny	-11.7429
▁pelevin	-11.7429
▁plenty	-11.7429
▁spencer	-11.7429
▁dawson	-11.7429
▁displaced	-11.7429
▁formidable	-11.7429
▁recipe	-11.7429
▁sherlock	-11.7429
▁particle	-11.7429
▁therapist	-11.7429
▁correspondence	-11.743
▁dropping	-11.743
▁ultra	-11.7432
▁liberate	-11.7432
▁shirt	-11.7432
▁drought	-11.7434
▁passport	-11.7434
▁fiery	-11.7434
▁diaries	-11.7435
▁abyss	-11.7435
▁darius	-11.7436
▁fantasies	-11.7436
▁eliza	-11.7436
▁charley	-11.7437
▁marple	-11.7437
▁chuck	-11.7438
▁tanya	-11.7439
▁nineteenth	-11.7439
▁sunset	-11.744
▁proving	-11.7446
▁lecturer	-11.7447
▁luther	-11.7457
▁expression	-11.7461
▁generate	-11.747
witz	-11.7486
▁battl	-11.752
auld	-11.7543
▁yuri	-11.7569
▁kenya	-11.7585
woken	-11.7586
correct	-11.7607
grandfather	-11.7608
nothing	-11.7609
james	-11.7611
search	-11.7618
villa	-11.7621
▁occupie	-11.7642
▁dominate	-11.7643
gift	-11.7654
▁1997	-11.7672
▁accelerate	-11.7672
▁admiration	-11.7672
▁amusement	-11.7672
▁citadel	-11.7672
▁emphasiz	-11.7672
▁excitement	-11.7672
▁fascination	-11.7672
▁genocide	-11.7672
▁hogwarts	-11.7672
▁impregnat	-11.7672
▁lloyd	-11.7672
▁magnificent	-11.7672
▁prosecutor	-11.7672
▁protégé	-11.7672
▁solitude	-11.7672
▁thompson	-11.7672
▁twenties	-11.7672
▁demigod	-11.7672
▁explicit	-11.7672
▁millennia	-11.7672
imagining	-11.7672
▁militia	-11.7672
▁elusive	-11.7672
▁consort	-11.7672
▁jeeves	-11.7672
▁avail	-11.7673
▁cyborg	-11.7673
▁disdain	-11.7673
▁partisan	-11.7673
▁pepper	-11.7673
▁solace	-11.7673
prehensi	-11.7673
▁visible	-11.7673
▁redeem	-11.7673
▁deserve	-11.7673
▁arnold	-11.7673
▁templar	-11.7674
▁implications	-11.7674
▁frigate	-11.7675
▁referring	-11.7675
▁murray	-11.7675
▁telepathically	-11.7675
▁nominal	-11.7676
▁seldon	-11.7676
▁burrow	-11.7676
▁contribut	-11.7677
▁biology	-11.7678
▁gateway	-11.7679
▁matron	-11.7679
locating	-11.768
▁alcoholism	-11.7681
▁denver	-11.7684
▁youthful	-11.7686
jiang	-11.7689
flat	-11.7694
▁undermine	-11.7696
▁guru	-11.7702
▁elisa	-11.7708
▁sled	-11.7709
▁vince	-11.7712
chev	-11.7728
▁pont	-11.7736
▁nell	-11.7761
▁pluto	-11.7783
▁donate	-11.7805
zzie	-11.781
activat	-11.7823
trilogy	-11.7857
dimension	-11.7857
trouble	-11.7858
current	-11.7858
social	-11.7858
▁enchant	-11.7862
▁communicat	-11.7866
flame	-11.7878
▁attach	-11.7916
societal	-11.7922
▁1943	-11.7922
▁1968	-11.7922
▁1996	-11.7922
▁assembly	-11.7922
▁celebrating	-11.7922
▁duplicate	-11.7922
▁macdonald	-11.7922
▁magistrate	-11.7922
▁netherlands	-11.7922
▁oblivious	-11.7922
▁platform	-11.7922
▁provincial	-11.7922
▁recognition	-11.7922
▁ridicule	-11.7922
▁situated	-11.7922
▁territories	-11.7922
▁testimony	-11.7922
▁wisconsin	-11.7922
▁dahlia	-11.7922
▁laundry	-11.7922
▁navajo	-11.7922
▁stupid	-11.7922
▁contrary	-11.7922
▁fossil	-11.7922
▁overweight	-11.7922
▁peabody	-11.7922
▁resentment	-11.7922
▁butterfly	-11.7922
▁guitar	-11.7922
▁modified	-11.7922
▁plunder	-11.7922
▁klingon	-11.7922
▁conspire	-11.7922
▁ambrose	-11.7922
▁liquid	-11.7923
▁pioneer	-11.7923
▁inject	-11.7923
▁relax	-11.7923
▁retelling	-11.7923
▁oracle	-11.7923
▁implies	-11.7923
▁strait	-11.7923
▁bliss	-11.7923
▁electro	-11.7923
▁magnate	-11.7924
▁luckily	-11.7924
▁revolutionaries	-11.7924
▁perilous	-11.7925
▁rosalie	-11.7926
▁jonah	-11.7926
▁diverse	-11.7927
▁recreate	-11.7927
▁cloak	-11.7928
▁christina	-11.7928
▁subdue	-11.7928
▁sheila	-11.7931
▁saaya	-11.7931
▁philippe	-11.7932
▁hideout	-11.7933
▁subtle	-11.7933
closure	-11.7933
▁pardon	-11.7934
▁moira	-11.7935
▁subway	-11.7936
▁cheese	-11.794
knit	-11.7952
▁angus	-11.7957
cosmic	-11.7967
▁cleo	-11.8004
75	-11.8016
▁mastermind	-11.8035
▁krak	-11.8101
▁resource	-11.8112
forgotten	-11.8114
rabbit	-11.8114
culture	-11.8114
bodies	-11.8115
controlled	-11.8115
fool	-11.8121
▁evolve	-11.8148
▁glove	-11.8166
▁anthropolog	-11.8171
▁basket	-11.8179
conspirator	-11.8179
▁1963	-11.8179
▁administrator	-11.8179
▁alcatraz	-11.8179
▁anxiety	-11.8179
▁assumption	-11.8179
▁bracelet	-11.8179
▁calcutta	-11.8179
▁catastrophic	-11.8179
▁cautious	-11.8179
▁concrete	-11.8179
▁dissatisfied	-11.8179
▁futuristic	-11.8179
▁ghetto	-11.8179
▁jasmine	-11.8179
▁marijuana	-11.8179
▁oklahoma	-11.8179
▁paragraph	-11.8179
▁rendezvous	-11.8179
▁scarpetta	-11.8179
▁subordinate	-11.8179
▁technologies	-11.8179
▁timothy	-11.8179
▁1992	-11.8179
▁bubble	-11.8179
▁puppy	-11.8179
▁meadow	-11.8179
▁insistence	-11.8179
▁offensive	-11.8179
▁devout	-11.8179
▁precise	-11.8179
▁grateful	-11.8179
▁restoration	-11.8179
▁ideology	-11.8179
▁pianist	-11.8179
▁blanche	-11.8179
▁erotic	-11.8179
▁tobacco	-11.8179
▁salvage	-11.8179
consolidat	-11.8179
▁styx	-11.8179
▁stockholm	-11.8179
▁ordeal	-11.8179
▁sorry	-11.8179
▁ignorance	-11.818
▁vietnamese	-11.8181
▁console	-11.8181
▁valerie	-11.8181
▁begging	-11.8181
▁hercule	-11.8181
▁adeline	-11.8181
▁migrant	-11.8181
▁disappointment	-11.8181
▁sparrow	-11.8182
▁superhuman	-11.8183
▁albania	-11.8183
chick	-11.8183
▁polite	-11.8184
vocation	-11.8184
▁xander	-11.8185
▁hetty	-11.8185
▁intentionally	-11.8185
▁maxwell	-11.8186
▁washed	-11.8186
▁verbal	-11.8187
▁monday	-11.8189
▁astrid	-11.8189
▁yell	-11.8198
framing	-11.8221
▁slit	-11.8232
▁enthusiastic	-11.8247
▁loath	-11.8284
▁illustr	-11.8308
▁reduc	-11.8317
▁reconnect	-11.8338
▁180	-11.8367
feather	-11.8377
character	-11.8377
respect	-11.8378
kingdom	-11.8384
blade	-11.8397
▁shatter	-11.8404
psycho	-11.8412
▁administrati	-11.8435
mount	-11.844
twelfth	-11.8442
▁1973	-11.8442
▁1988	-11.8442
▁anniversary	-11.8442
▁athletic	-11.8442
▁currency	-11.8442
▁decipher	-11.8442
▁destitute	-11.8442
▁dysfunction	-11.8442
▁emigrate	-11.8442
▁evacuation	-11.8442
▁graystripe	-11.8442
▁guarantee	-11.8442
▁henrietta	-11.8442
▁illinois	-11.8442
▁inexplicably	-11.8442
▁ingredient	-11.8442
▁oxygen	-11.8442
▁participating	-11.8442
▁proprietor	-11.8442
▁sophisticated	-11.8442
▁vacuum	-11.8442
▁autopsy	-11.8442
▁erratic	-11.8442
▁ethics	-11.8442
▁hostility	-11.8442
▁nobility	-11.8442
▁prompted	-11.8442
incredible	-11.8442
▁corridor	-11.8442
▁istanbul	-11.8442
▁courier	-11.8442
▁implement	-11.8442
▁monument	-11.8442
▁laurie	-11.8442
▁harlem	-11.8442
▁scheming	-11.8442
▁mordred	-11.8442
▁alexandria	-11.8442
▁oasis	-11.8442
funct	-11.8442
▁mutant	-11.8442
▁ladder	-11.8442
▁novice	-11.8442
▁avatar	-11.8442
underpants	-11.8442
▁suitcase	-11.8443
▁francesca	-11.8443
▁engel	-11.8443
▁gunshot	-11.8444
▁storage	-11.8444
consuming	-11.8444
▁surreal	-11.8444
▁straw	-11.8444
▁josie	-11.8444
▁1975	-11.8444
▁swarm	-11.8445
▁godfrey	-11.8445
▁fawn	-11.8447
▁infection	-11.845
▁moses	-11.8458
▁sensor	-11.8464
▁rally	-11.8466
inferno	-11.8466
▁announc	-11.8476
▁maur	-11.8479
▁gospel	-11.8502
ightened	-11.8579
proclaimed	-11.859
▁arabia	-11.8613
club	-11.8643
ananda	-11.8644
mirror	-11.8647
engineer	-11.8647
english	-11.8648
protect	-11.8648
henry	-11.8649
interest	-11.8654
▁intellect	-11.8712
▁abigail	-11.8712
▁aboriginal	-11.8712
▁capitol	-11.8712
▁crawford	-11.8712
▁ethiopia	-11.8712
▁glasgow	-11.8712
▁immigration	-11.8712
▁olympic	-11.8712
▁santiago	-11.8712
▁supermarket	-11.8712
▁tennessee	-11.8712
▁bureaucrat	-11.8712
▁raistlin	-11.8712
▁triangle	-11.8712
▁penguin	-11.8712
▁powder	-11.8712
▁stadium	-11.8712
olithic	-11.8712
▁remorse	-11.8712
▁wreak	-11.8712
▁alistair	-11.8712
▁peninsula	-11.8712
▁sandwich	-11.8712
▁farewell	-11.8712
▁picard	-11.8712
▁testament	-11.8712
▁uhtred	-11.8712
▁cardinal	-11.8712
▁deformed	-11.8712
▁animation	-11.8712
▁abdul	-11.8713
▁snatch	-11.8713
▁tucker	-11.8713
▁rhyme	-11.8713
▁ravenpaw	-11.8713
▁alphabet	-11.8713
▁aurora	-11.8713
▁transmitt	-11.8713
▁restrain	-11.8713
▁allison	-11.8713
▁racing	-11.8713
▁overdose	-11.8713
▁emilia	-11.8714
▁zachary	-11.8714
▁manuel	-11.8714
▁grudge	-11.8715
▁1989	-11.8715
▁import	-11.8716
▁aerial	-11.8716
▁idealistic	-11.8717
▁hamlet	-11.8717
▁aloof	-11.8717
▁trapping	-11.8717
▁hilary	-11.8718
▁coworker	-11.8718
▁victorious	-11.8719
pplies	-11.872
▁fetch	-11.872
▁lyra	-11.8722
▁grasp	-11.8728
▁contribution	-11.8729
▁font	-11.874
fabled	-11.8743
▁contemplat	-11.8773
borough	-11.8775
rigg	-11.8814
▁awaken	-11.8855
swift	-11.8925
assassin	-11.8925
system	-11.8925
peace	-11.8925
buffy	-11.8927
meaning	-11.8927
left	-11.8931
▁sibling	-11.8946
curse	-11.8972
▁affluent	-11.899
▁alternating	-11.899
▁ambiguous	-11.899
▁automobile	-11.899
▁benevolent	-11.899
▁derelict	-11.899
▁extremist	-11.899
▁faculty	-11.899
▁freighter	-11.899
▁lucrative	-11.899
▁neanderthal	-11.899
▁pendergast	-11.899
▁recipient	-11.899
▁seymour	-11.899
▁spontaneous	-11.899
▁superintendent	-11.899
▁totalitarian	-11.899
▁tremendous	-11.899
▁tumult	-11.899
▁xavier	-11.899
▁arkady	-11.899
▁tatiana	-11.899
▁veronica	-11.899
▁vicinity	-11.899
▁comparison	-11.899
▁garbage	-11.899
▁mercury	-11.899
▁2007	-11.899
▁kenneth	-11.899
▁olympia	-11.899
▁twig	-11.899
▁haitian	-11.899
▁zhao	-11.899
▁generous	-11.899
▁lavish	-11.899
▁nyssa	-11.899
▁henderson	-11.899
▁cinema	-11.899
▁thirst	-11.899
▁bleak	-11.899
▁fauna	-11.899
▁varying	-11.8991
▁geography	-11.8991
▁beacon	-11.8991
▁tennis	-11.8992
▁rosemary	-11.8992
▁bernice	-11.8992
▁ignorant	-11.8992
▁shotgun	-11.8993
▁replica	-11.8993
▁cybermen	-11.8993
▁stronghold	-11.8993
▁worn	-11.8993
▁mummy	-11.8994
▁banned	-11.8994
▁2010	-11.8995
▁documentary	-11.8995
▁frannie	-11.8995
▁bunker	-11.8996
▁nominat	-11.9055
▁franco	-11.9113
resurrection	-11.9184
paradise	-11.9211
educated	-11.9211
ultimate	-11.9211
president	-11.9211
eastern	-11.9211
voyage	-11.9212
▁supplie	-11.924
▁nichol	-11.9273
jacqueline	-11.9276
▁1944	-11.9276
▁agriculture	-11.9276
▁application	-11.9276
▁astronomer	-11.9276
▁declaring	-11.9276
▁engaging	-11.9276
▁horribly	-11.9276
▁inferior	-11.9276
▁manipulating	-11.9276
▁navigator	-11.9276
▁participation	-11.9276
▁persecution	-11.9276
▁populace	-11.9276
▁prefect	-11.9276
▁seizure	-11.9276
▁unconventional	-11.9276
▁unfaithful	-11.9276
▁unpredictable	-11.9276
▁wheelchair	-11.9276
▁fledgling	-11.9276
▁montgomery	-11.9276
▁obliged	-11.9276
▁recapture	-11.9276
▁disciple	-11.9276
▁lethbridge	-11.9276
▁tycoon	-11.9276
▁2004	-11.9276
▁2003	-11.9276
▁temptation	-11.9276
▁puritan	-11.9276
▁lottery	-11.9276
▁recounted	-11.9276
▁domination	-11.9276
▁paige	-11.9276
▁avenue	-11.9276
▁constable	-11.9276
▁theodora	-11.9276
▁warehouse	-11.9276
▁wendell	-11.9276
▁messiah	-11.9276
▁thames	-11.9276
▁indigo	-11.9277
▁interference	-11.9277
▁boundaries	-11.9277
▁mischief	-11.9277
▁baldwin	-11.9277
▁zhen	-11.9277
▁mermaid	-11.9278
▁beaver	-11.9278
▁cartoon	-11.9278
▁1948	-11.9279
▁monica	-11.9279
▁advertisement	-11.928
▁tempest	-11.928
▁bonnie	-11.928
▁fancy	-11.9284
▁quadr	-11.9284
▁forcibl	-11.9291
fashioned	-11.9378
▁baffl	-11.9429
umbling	-11.9477
▁retriev	-11.9478
▁separat	-11.9484
clockwork	-11.949
atkins	-11.9503
hungry	-11.9505
happiness	-11.9505
prisoner	-11.9505
twenty	-11.9505
except	-11.9505
thief	-11.9505
memory	-11.9505
escape	-11.9509
▁drove	-11.9511
–19	-11.957
▁1983	-11.957
▁1986	-11.957
▁agencies	-11.957
▁champagne	-11.957
▁consummate	-11.957
▁doctrine	-11.957
▁domineering	-11.957
▁downstairs	-11.957
▁hereditary	-11.957
▁incapacitat	-11.957
▁maneuver	-11.957
▁matthias	-11.957
▁mischievous	-11.957
▁octavian	-11.957
▁pandemic	-11.957
▁penelope	-11.957
▁permitted	-11.957
▁reassure	-11.957
▁savannah	-11.957
▁subterrane	-11.957
▁tyrannical	-11.957
▁unintentionally	-11.957
▁unpopular	-11.957
▁coyote	-11.957
▁entities	-11.957
▁smooth	-11.957
▁slept	-11.957
▁taiwan	-11.957
▁appalled	-11.957
▁burroughs	-11.957
▁palestine	-11.957
▁prevail	-11.957
▁janitor	-11.957
leviathan	-11.957
▁caution	-11.957
▁curator	-11.957
▁errand	-11.957
▁deryni	-11.957
▁insanity	-11.957
▁fortunately	-11.957
▁dinah	-11.957
▁gawain	-11.957
▁spouse	-11.957
▁arturo	-11.957
▁vivien	-11.957
▁pamela	-11.957
▁bisexual	-11.957
▁otter	-11.9571
▁slide	-11.9571
▁adept	-11.9571
▁immoral	-11.9571
▁xiao	-11.9571
▁mallory	-11.9572
▁lawsuit	-11.9572
▁shimmer	-11.9572
▁intact	-11.9572
▁pleads	-11.9572
▁lyric	-11.9572
▁grandchildren	-11.9572
▁cleric	-11.9572
▁vocal	-11.9573
▁converge	-11.9573
▁rhys	-11.9575
▁aziz	-11.958
▁xeno	-11.9589
connell	-11.9622
10,000	-11.9636
▁fulfil	-11.9722
invasion	-11.9808
treasure	-11.9808
emperor	-11.9808
capital	-11.9808
church	-11.9808
russian	-11.981
▁investigati	-11.9866
▁1953	-11.9873
▁1978	-11.9873
▁1993	-11.9873
▁ambulance	-11.9873
▁archipelago	-11.9873
▁artefact	-11.9873
▁assailant	-11.9873
▁bequeath	-11.9873
▁besieged	-11.9873
▁bohemian	-11.9873
▁confederation	-11.9873
▁confidant	-11.9873
▁constantinople	-11.9873
▁enlightenment	-11.9873
▁facilities	-11.9873
▁gallifrey	-11.9873
▁michigan	-11.9873
▁monologue	-11.9873
▁possibilities	-11.9873
▁practitioner	-11.9873
▁prophecies	-11.9873
▁surgical	-11.9873
▁unscrupulous	-11.9873
▁upheaval	-11.9873
▁confidential	-11.9873
▁desolate	-11.9873
▁empathy	-11.9873
▁flourish	-11.9873
▁homestead	-11.9873
▁maturity	-11.9873
▁aztec	-11.9873
▁easier	-11.9873
▁compartment	-11.9873
▁shannara	-11.9873
▁footprints	-11.9873
▁nomadic	-11.9873
cuckoo	-11.9873
▁scratch	-11.9873
▁supper	-11.9873
▁applied	-11.9873
▁dowry	-11.9873
▁slash	-11.9873
▁oswald	-11.9873
▁quaker	-11.9873
▁townsfolk	-11.9873
▁perfume	-11.9873
▁negotiations	-11.9874
▁arabella	-11.9874
▁dallas	-11.9874
▁gustav	-11.9874
▁mongol	-11.9874
▁montreal	-11.9874
▁overseas	-11.9875
▁steep	-11.9875
▁keiko	-11.9875
prelude	-11.9876
▁enabl	-11.9876
▁shrew	-11.9876
▁robyn	-11.9876
▁cobb	-11.9881
▁lissa	-11.989
▁codename	-11.9895
lorn	-11.9908
▁narnia	-12.0027
▁releas	-12.0059
▁frighten	-12.0097
public	-12.0113
▁jorge	-12.012
graduate	-12.0121
weather	-12.0121
weapon	-12.0121
economic	-12.0121
japanese	-12.0121
everything	-12.0121
civil	-12.0121
sphere	-12.0123
shoot	-12.0128
▁appoint	-12.0144
▁gradual	-12.0166
▁illuminat	-12.0185
pronounced	-12.0185
▁accumulat	-12.0185
▁adjacent	-12.0185
▁adventurous	-12.0185
▁amsterdam	-12.0185
▁authentic	-12.0185
▁battalion	-12.0185
▁blizzard	-12.0185
▁cataclysm	-12.0185
▁demolish	-12.0185
▁envoy	-12.0185
▁external	-12.0185
▁gypsies	-12.0185
▁humphrey	-12.0185
▁hyacinth	-12.0185
▁incarcerated	-12.0185
▁leukemia	-12.0185
▁omniscient	-12.0185
▁privacy	-12.0185
▁psyche	-12.0185
▁reproduction	-12.0185
▁satisfied	-12.0185
▁temeraire	-12.0185
▁accusing	-12.0185
▁merciless	-12.0185
▁repuls	-12.0185
▁shunned	-12.0185
▁estimate	-12.0185
▁radioactive	-12.0185
▁2005	-12.0185
▁2008	-12.0185
▁dimitri	-12.0185
▁henchmen	-12.0185
▁dixon	-12.0185
▁misadventures	-12.0185
▁yield	-12.0185
▁fratern	-12.0186
▁geralt	-12.0186
▁foreword	-12.0186
▁swindle	-12.0186
▁coerce	-12.0186
▁sabrina	-12.0186
▁naples	-12.0186
▁damien	-12.0186
▁sibyl	-12.0186
▁owes	-12.0189
existent	-12.0189
▁extort	-12.0193
governed	-12.0195
▁lynn	-12.0197
callisto	-12.0205
▁diagnose	-12.021
rapture	-12.0212
▁sacrific	-12.0241
▁aureli	-12.026
▁ignor	-12.0299
next	-12.0339
america	-12.0418
circle	-12.0443
complete	-12.0443
detective	-12.0443
shock	-12.0446
stories	-12.0452
phobia	-12.0508
definitely	-12.0508
▁1936	-12.0508
▁abdullah	-12.0508
▁abnormal	-12.0508
▁atrocities	-12.0508
▁competitor	-12.0508
▁consumption	-12.0508
▁controversy	-12.0508
▁critique	-12.0508
▁crucifix	-12.0508
▁decisive	-12.0508
▁declaration	-12.0508
▁decorated	-12.0508
▁enclave	-12.0508
▁excerpt	-12.0508
▁fyodor	-12.0508
▁glamorous	-12.0508
▁inevitably	-12.0508
▁miscarriage	-12.0508
▁norwegian	-12.0508
▁penetrate	-12.0508
▁persecuted	-12.0508
▁pollution	-12.0508
▁prodigy	-12.0508
▁satirical	-12.0508
▁sociopath	-12.0508
▁superstition	-12.0508
▁synopsis	-12.0508
▁technician	-12.0508
▁telegraph	-12.0508
▁temperature	-12.0508
▁unrequited	-12.0508
▁vengeful	-12.0508
cinderella	-12.0508
▁berkeley	-12.0508
▁brahmin	-12.0508
▁paranoia	-12.0508
▁paternal	-12.0508
▁pretext	-12.0508
▁aspirations	-12.0508
▁balcony	-12.0508
▁impulse	-12.0508
▁ideological	-12.0508
▁sussex	-12.0508
▁earliest	-12.0508
▁libby	-12.0508
▁hippie	-12.0508
▁prolonged	-12.0508
▁dementia	-12.0508
▁bruenor	-12.0508
▁deceit	-12.0508
▁jenkins	-12.0508
▁armenian	-12.0508
▁gothic	-12.0508
▁nerve	-12.0508
▁behest	-12.0509
▁delegate	-12.0509
patterson	-12.0509
thongor	-12.0509
▁weakened	-12.0509
▁guinea	-12.0509
▁carolyn	-12.0509
▁susie	-12.051
▁grind	-12.0514
▁sentiment	-12.0526
scorpio	-12.0653
tempered	-12.0693
▁acknowledg	-12.0722
education	-12.0777
accident	-12.0777
infinit	-12.0796
tangled	-12.0833
▁fantasi	-12.0836
▁1974	-12.0841
▁administer	-12.0841
▁agricultural	-12.0841
▁ascension	-12.0841
▁bangladesh	-12.0841
▁belgium	-12.0841
▁benefactor	-12.0841
▁component	-12.0841
▁counterfeit	-12.0841
▁endeavor	-12.0841
▁expulsion	-12.0841
▁facilitate	-12.0841
▁fountain	-12.0841
▁integrity	-12.0841
▁jeremiah	-12.0841
▁odysseus	-12.0841
▁pornography	-12.0841
▁predicament	-12.0841
▁quebec	-12.0841
▁ramotswe	-12.0841
▁smitten	-12.0841
▁specimen	-12.0841
▁supplement	-12.0841
▁zuckerman	-12.0841
▁dakota	-12.0841
▁diminish	-12.0841
▁lebanon	-12.0841
▁quartet	-12.0841
▁tropical	-12.0841
▁eugene	-12.0841
▁salvation	-12.0841
▁temperament	-12.0841
▁aquilonia	-12.0841
▁chaotic	-12.0841
▁meditation	-12.0841
▁prairie	-12.0841
▁talisman	-12.0841
▁dissolve	-12.0841
▁rudolf	-12.0841
▁residing	-12.0841
hannibal	-12.0841
▁raoul	-12.0841
▁bounce	-12.0841
▁cherub	-12.0841
▁quasi	-12.0841
▁outraged	-12.0842
▁orchard	-12.0842
▁cimmeria	-12.0842
▁lisbon	-12.0842
▁rafael	-12.0842
▁visser	-12.0842
crimson	-12.0842
▁oskar	-12.0842
▁cohen	-12.0842
discreet	-12.0843
▁reef	-12.0843
imperium	-12.0843
▁ilse	-12.0843
▁unnerv	-12.0846
enchantment	-12.0872
▁negotiat	-12.0873
stadt	-12.1047
▁interplanetar	-12.1087
bobb	-12.1112
miracle	-12.1121
defense	-12.1121
cultural	-12.1121
computer	-12.1121
universe	-12.1121
sexual	-12.1122
ransom	-12.1124
▁vampir	-12.1145
accessible	-12.1153
sentimental	-12.1167
cognitive	-12.1186
▁achieving	-12.1186
▁deirdre	-12.1186
▁discredit	-12.1186
▁ferdinand	-12.1186
▁gestapo	-12.1186
▁illiterate	-12.1186
▁inexperienced	-12.1186
▁kathmandu	-12.1186
▁kindergarten	-12.1186
▁malfunction	-12.1186
▁prosecution	-12.1186
▁reluctance	-12.1186
▁schroeder	-12.1186
▁seduction	-12.1186
▁staircase	-12.1186
▁surrogate	-12.1186
▁thoroughly	-12.1186
▁ukraine	-12.1186
▁vigilante	-12.1186
▁1919	-12.1186
▁1969	-12.1186
▁disorient	-12.1186
▁signature	-12.1186
▁1962	-12.1186
▁carlotta	-12.1186
▁chagrin	-12.1186
▁hockey	-12.1186
▁improving	-12.1186
▁loretta	-12.1186
▁mumbai	-12.1186
encyclopedia	-12.1186
▁altercation	-12.1186
▁deposed	-12.1186
▁cammie	-12.1186
▁detroit	-12.1186
▁gibson	-12.1186
▁amazed	-12.1186
▁bryce	-12.1186
▁ecological	-12.1186
▁athlete	-12.1186
▁caxton	-12.1186
▁tribute	-12.1186
▁devour	-12.1186
▁diarist	-12.1186
▁strife	-12.1186
▁vanessa	-12.1186
▁workshop	-12.1186
▁madison	-12.1186
▁scorpion	-12.1186
▁dentist	-12.1186
▁cedric	-12.1186
▁raphael	-12.1186
▁utiliz	-12.1186
▁wormhole	-12.1187
▁hermione	-12.1187
schmidt	-12.1187
▁tackle	-12.1187
▁crumbling	-12.1187
▁deltora	-12.1187
tribulation	-12.1187
poseidon	-12.1187
▁beverly	-12.1187
▁lorna	-12.1187
▁stunt	-12.1188
ctively	-12.1236
dependence	-12.1241
▁sweat	-12.1405
private	-12.1479
similar	-12.1479
project	-12.1479
condition	-12.1479
french	-12.1479
believe	-12.1486
breath	-12.151
▁perpetrat	-12.1532
accustomed	-12.1543
embodied	-12.1543
▁1967	-12.1543
▁affinity	-12.1543
▁animosity	-12.1543
▁audition	-12.1543
▁auschwitz	-12.1543
▁barcelona	-12.1543
▁beijing	-12.1543
▁deborah	-12.1543
▁dilapidated	-12.1543
▁disintegrate	-12.1543
▁embittered	-12.1543
▁encouraging	-12.1543
▁eustace	-12.1543
▁humiliation	-12.1543
▁immunity	-12.1543
▁marguerite	-12.1543
▁masquerade	-12.1543
▁muhammad	-12.1543
▁odyssey	-12.1543
▁practicing	-12.1543
▁reconciliation	-12.1543
▁recuperate	-12.1543
▁renounce	-12.1543
▁resolution	-12.1543
▁salvador	-12.1543
▁unkerlant	-12.1543
▁vegetable	-12.1543
▁apartheid	-12.1543
▁chimney	-12.1543
▁eisenhower	-12.1543
▁elegant	-12.1543
▁eugenia	-12.1543
▁happier	-12.1543
▁hussein	-12.1543
▁ignite	-12.1543
▁insecure	-12.1543
▁lennox	-12.1543
▁medraut	-12.1543
▁portugal	-12.1543
▁rincewind	-12.1543
▁splinter	-12.1543
▁stunned	-12.1543
▁suzanne	-12.1543
▁sylvie	-12.1543
▁wulfgar	-12.1543
▁anomaly	-12.1543
▁antidote	-12.1543
▁baptist	-12.1543
▁cossack	-12.1543
▁disregard	-12.1543
▁spaniard	-12.1543
▁vatican	-12.1543
▁wardrobe	-12.1543
▁millhone	-12.1543
▁ominous	-12.1543
▁futile	-12.1543
▁periodically	-12.1543
▁freelance	-12.1543
▁weasel	-12.1543
▁puerto	-12.1543
▁dominion	-12.1543
▁governing	-12.1543
▁embezzl	-12.1543
▁valiant	-12.1543
▁feign	-12.1543
▁dutiful	-12.1544
▁hurry	-12.1544
▁detained	-12.1544
▁reagan	-12.1544
▁invalid	-12.1544
wraith	-12.1545
thwaite	-12.1553
doomsday	-12.1556
▁loft	-12.1565
▁slug	-12.1583
ocratic	-12.1753
designated	-12.182
yellow	-12.1849
material	-12.1849
thousand	-12.1849
hidden	-12.1849
doubt	-12.185
▁disconnect	-12.1882
climactic	-12.1914
▁1971	-12.1914
▁appalachia	-12.1914
▁buffalo	-12.1914
▁collapsing	-12.1914
▁constitute	-12.1914
▁dracula	-12.1914
▁ghanada	-12.1914
▁grotesque	-12.1914
▁hierarchy	-12.1914
▁hybrid	-12.1914
▁mikhail	-12.1914
▁retribution	-12.1914
▁satisfaction	-12.1914
▁tyranny	-12.1914
▁unseelie	-12.1914
bolshevik	-12.1914
efficient	-12.1914
metropolitan	-12.1914
▁1959	-12.1914
▁bacteria	-12.1914
▁conversion	-12.1914
▁geographical	-12.1914
▁innovation	-12.1914
▁intimidate	-12.1914
▁marjorie	-12.1914
▁ostracized	-12.1914
▁pyotr	-12.1914
▁socrates	-12.1914
▁transgender	-12.1914
▁unharmed	-12.1914
▁unprecedented	-12.1914
▁vetinari	-12.1914
▁1972	-12.1914
▁liverpool	-12.1914
▁wilhelm	-12.1914
▁emilio	-12.1914
▁gesture	-12.1914
▁khalil	-12.1914
▁leisure	-12.1914
▁peacock	-12.1914
▁tolkien	-12.1914
▁discarded	-12.1914
▁munich	-12.1914
▁auditor	-12.1914
▁thrive	-12.1914
▁judaism	-12.1914
▁sicily	-12.1914
▁melody	-12.1914
▁thrust	-12.1914
▁vacant	-12.1914
▁spensa	-12.1914
▁generator	-12.1914
▁postcard	-12.1914
▁overbearing	-12.1914
▁correspondent	-12.1914
▁procure	-12.1914
▁catalog	-12.1914
▁taunts	-12.1914
▁ramsay	-12.1914
▁derail	-12.1914
▁erect	-12.1915
elixir	-12.1915
▁supervise	-12.1919
location	-12.1922
▁attolia	-12.1924
evaluate	-12.1926
vvy	-12.1929
▁defie	-12.1961
certain	-12.2228
▁advanc	-12.223
possibly	-12.2233
tunnel	-12.2233
picture	-12.2233
continent	-12.2233
plague	-12.2233
wheel	-12.2233
professor	-12.2234
fifth	-12.2234
thomas	-12.2234
film	-12.2234
especially	-12.2234
africa	-12.2241
▁educate	-12.2268
▁dedicate	-12.2268
aggression	-12.2298
▁1985	-12.2298
▁archibald	-12.2298
▁aristocracy	-12.2298
▁brittany	-12.2298
▁carstairs	-12.2298
▁certificate	-12.2298
▁chauffeur	-12.2298
▁circulat	-12.2298
▁cleveland	-12.2298
▁comprehend	-12.2298
▁confederacy	-12.2298
▁defensive	-12.2298
▁deprived	-12.2298
▁diagnosis	-12.2298
▁enamored	-12.2298
▁entourage	-12.2298
▁gratitude	-12.2298
▁identification	-12.2298
▁intricate	-12.2298
▁katniss	-12.2298
▁octopus	-12.2298
▁pneumonia	-12.2298
▁pornographic	-12.2298
▁precarious	-12.2298
▁remarried	-12.2298
▁septimus	-12.2298
▁sleuth	-12.2298
▁strategies	-12.2298
▁tendencies	-12.2298
▁volcanic	-12.2298
▁voldemort	-12.2298
▁concoct	-12.2298
▁dialect	-12.2298
▁maintenance	-12.2298
▁marseille	-12.2298
▁shadrach	-12.2298
▁shrewsbury	-12.2298
▁yankee	-12.2298
▁1929	-12.2298
▁1949	-12.2298
▁menagerie	-12.2298
▁penniless	-12.2298
▁secular	-12.2298
▁staunch	-12.2298
▁accost	-12.2298
▁dominance	-12.2298
▁hemisphere	-12.2298
▁inclined	-12.2298
▁belgian	-12.2298
▁missouri	-12.2298
▁prentis	-12.2298
▁banquet	-12.2298
▁prowess	-12.2298
▁nexus	-12.2298
▁savior	-12.2298
▁madeleine	-12.2298
▁musket	-12.2298
koontz	-12.2298
▁jeep	-12.2298
▁recreation	-12.2298
▁celtic	-12.2298
▁lovelace	-12.2298
▁dairy	-12.2299
▁conjure	-12.2299
=	-12.4894
<	-13.7624
