<unk>	0
<s>	0
</s>	0
▁d	-0
es	-1
▁l	-2
en	-3
on	-4
▁p	-5
▁c	-6
an	-7
▁de	-8
▁s	-9
ti	-10
re	-11
▁a	-12
is	-13
qu	-14
er	-15
in	-16
ou	-17
ent	-18
▁la	-19
ar	-20
et	-21
▁m	-22
le	-23
it	-24
▁le	-25
or	-26
un	-27
ur	-28
te	-29
▁et	-30
▁f	-31
tion	-32
▁en	-33
▁t	-34
il	-35
▁r	-36
om	-37
que	-38
▁les	-39
▁n	-40
▁des	-41
▁à	-42
al	-43
ment	-44
▁un	-45
us	-46
el	-47
▁par	-48
▁pr	-49
est	-50
ant	-51
ra	-52
▁du	-53
▁é	-54
our	-55
ie	-56
▁g	-57
▁b	-58
▁v	-59
me	-60
▁au	-61
ont	-62
ce	-63
ans	-64
au	-65
és	-66
ation	-67
▁qu	-68
ri	-69
as	-70
ol	-71
ch	-72
▁est	-73
ta	-74
ci	-75
▁(	-76
▁dé	-77
si	-78
▁con	-79
▁com	-80
ve	-81
ne	-82
▁dans	-83
res	-84
▁pl	-85
ée	-86
▁re	-87
de	-88
op	-89
se	-90
ire	-91
ais	-92
mp	-93
▁une	-94
▁j	-95
▁1	-96
li	-97
ag	-98
▁in	-99
at	-100
▁se	-101
▁e	-102
▁ch	-103
▁h	-104
▁pour	-105
di	-106
▁"	-107
té	-108
▁ré	-109
ran	-110
os	-111
▁que	-112
ul	-113
▁qui	-114
▁il	-115
▁plus	-116
tu	-117
les	-118
ir	-119
ers	-120
ale	-121
ac	-122
▁sur	-123
elle	-124
ux	-125
ro	-126
▁pro	-127
ain	-128
ques	-129
urs	-130
ouv	-131
ité	-132
ff	-133
ig	-134
ér	-135
▁#	-136
▁##	-137
▁su	-138
ap	-139
iv	-140
ique	-141
ées	-142
ère	-143
▁19	-144
tre	-145
end	-146
pr	-147
oc	-148
▁sont	-149
ès	-150
ab	-151
▁an	-152
og	-153
ait	-154
▁ou	-155
ort	-156
ut	-157
▁2	-158
am	-159
id	-160
▁:	-161
▁ce	-162
vec	-163
ic	-164
▁mo	-165
ist	-166
▁avec	-167
▁son	-168
mi	-169
ion	-170
▁»	-171
ai	-172
ue	-173
aire	-174
pe	-175
▁«	-176
▁ex	-177
én	-178
▁tr	-179
ter	-180
tique	-181
▁pe	-182
▁20	-183
par	-184
ge	-185
ois	-186
ction	-187
ite	-188
tr	-189
▁parti	-190
ys	-191
ine	-192
une	-193
▁sa	-194
ille	-195
▁o	-196
ces	-197
im	-198
▁fran	-199
▁al	-200
aux	-201
ré	-202
ien	-203
uis	-204
▁pas	-205
ins	-206
▁comme	-207
onn	-208
entre	-209
bre	-210
▁nom	-211
▁tou	-212
▁cons	-213
),	-214
and	-215
age	-216
éri	-217
tes	-218
▁for	-219
).	-220
ette	-221
▁ne	-222
éc	-223
ts	-224
▁,	-225
ure	-226
ence	-227
▁tra	-228
▁te	-229
ors	-230
▁so	-231
mes	-232
che	-233
▁comp	-234
ord	-235
▁aux	-236
▁comm	-237
ance	-238
ui	-239
▁éta	-240
▁di	-241
du	-242
ons	-243
▁ar	-244
▁mar	-245
ati	-246
ens	-247
imp	-248
▁sou	-249
ang	-250
▁pre	-251
ph	-252
▁ap	-253
ations	-254
▁mais	-255
ad	-256
▁premi	-257
ate	-258
ond	-259
▁ac	-260
▁pa	-261
▁av	-262
▁no	-263
lis	-264
▁cette	-265
ub	-266
mb	-267
éra	-268
▁entre	-269
▁cont	-270
▁deux	-271
ot	-272
ient	-273
▁mé	-274
tres	-275
▁ter	-276
ture	-277
▁ses	-278
▁.	-279
alis	-280
▁gran	-281
um	-282
ég	-283
oire	-284
▁per	-285
rit	-286
▁ph	-287
tin	-288
",	-289
▁mon	-290
av	-291
ex	-292
oi	-293
▁%	-294
ême	-295
ants	-296
ments	-297
olog	-298
alement	-299
iques	-300
▁pays	-301
▁prés	-302
▁déc	-303
▁éc	-304
▁car	-305
oir	-306
▁dis	-307
lé	-308
ier	-309
▁rég	-310
▁ont	-311
ales	-312
▁k	-313
▁ann	-314
th	-315
ard	-316
iè	-317
ign	-318
▁été	-319
▁ces	-320
ib	-321
aires	-322
▁ég	-323
cip	-324
ace	-325
ill	-326
▁ma	-327
elles	-328
sion	-329
▁nombre	-330
ouve	-331
▁je	-332
▁fin	-333
oy	-334
uti	-335
▁fait	-336
▁imp	-337
ours	-338
ise	-339
▁pol	-340
ém	-341
ouver	-342
▁ain	-343
▁ainsi	-344
être	-345
lement	-346
org	-347
="	-348
▁ser	-349
ussi	-350
▁th	-351
emp	-352
tif	-353
▁elle	-354
tions	-355
▁gr	-356
ob	-357
ubli	-358
▁inter	-359
▁franç	-360
▁as	-361
▁po	-362
nes	-363
▁201	-364
▁on	-365
titu	-366
▁ti	-367
▁leur	-368
des	-369
▁dev	-370
▁cl	-371
ici	-372
▁y	-373
▁es	-374
rois	-375
▁aussi	-376
iste	-377
aine	-378
enne	-379
po	-380
▁cer	-381
▁200	-382
for	-383
▁app	-384
▁sous	-385
tement	-386
co	-387
utilis	-388
nement	-389
▁gén	-390
▁même	-391
ies	-392
ét	-393
ante	-394
▁peu	-395
éd	-396
cu	-397
tis	-398
▁soci	-399
près	-400
▁dont	-401
ass	-402
▁prop	-403
▁français	-404
▁diff	-405
▁am	-406
▁prin	-407
▁at	-408
ct	-409
ités	-410
▁gu	-411
éta	-412
teur	-413
tru	-414
▁mil	-415
▁w	-416
all	-417
▁puis	-418
▁repr	-419
▁rés	-420
app	-421
met	-422
int	-423
ente	-424
ues	-425
▁certa	-426
▁;	-427
fin	-428
puis	-429
▁région	-430
mment	-431
ures	-432
ing	-433
endant	-434
▁lang	-435
▁après	-436
▁également	-437
oup	-438
▁lui	-439
▁ad	-440
▁sec	-441
▁st	-442
ères	-443
▁peut	-444
▁poli	-445
▁lors	-446
vel	-447
ten	-448
tant	-449
tiques	-450
▁rec	-451
▁col	-452
▁sp	-453
▁depuis	-454
▁cor	-455
ieurs	-456
ix	-457
isme	-458
▁pop	-459
▁être	-460
tiv	-461
la	-462
▁fil	-463
▁commun	-464
▁pos	-465
▁alors	-466
onom	-467
▁ob	-468
ong	-469
ki	-470
urop	-471
its	-472
▁france	-473
▁res	-474
▁cel	-475
▁pers	-476
▁exp	-477
▁utilis	-478
if	-479
▁co	-480
raph	-481
able	-482
▁cul	-483
▁très	-484
lu	-485
jet	-486
▁popul	-487
▁jus	-488
▁trav	-489
ieu	-490
ème	-491
0,	-492
▁cré	-493
▁ins	-494
▁publi	-495
enti	-496
velop	-497
ines	-498
▁années	-499
iss	-500
erre	-501
eau	-502
man	-503
▁pré	-504
oit	-505
▁produ	-506
ents	-507
▁me	-508
▁dépar	-509
▁18	-510
ivers	-511
▁dévelop	-512
min	-513
▁plusieurs	-514
▁ca	-515
ble	-516
▁cha	-517
▁trois	-518
yp	-519
▁bas	-520
ous	-521
▁sel	-522
▁nation	-523
▁temp	-524
▁ren	-525
▁rép	-526
▁trans	-527
▁princip	-528
onne	-529
aient	-530
onc	-531
▁premier	-532
▁rom	-533
▁or	-534
▁où	-535
▁éle	-536
▁man	-537
itu	-538
tér	-539
▁grand	-540
lig	-541
oph	-542
▁déb	-543
aut	-544
tamment	-545
▁conn	-546
alité	-547
▁selon	-548
cien	-549
▁sc	-550
▁che	-551
▁mus	-552
".	-553
▁acc	-554
▁form	-555
▁tour	-556
▁ab	-557
▁né	-558
▁représ	-559
▁partie	-560
▁199	-561
lè	-562
organ	-563
▁conc	-564
ages	-565
▁ville	-566
▁bien	-567
▁aut	-568
yst	-569
▁eff	-570
▁dép	-571
teurs	-572
lan	-573
ec	-574
ograph	-575
▁der	-576
tionn	-577
▁notamment	-578
▁év	-579
ense	-580
▁tout	-581
use	-582
▁mont	-583
▁».	-584
▁br	-585
▁était	-586
vir	-587
▁oc	-588
▁sup	-589
cep	-590
ind	-591
olu	-592
▁permet	-593
▁conf	-594
erv	-595
ert	-596
▁dés	-597
aiss	-598
▁can	-599
▁première	-600
agne	-601
ven	-602
▁monde	-603
▁nord	-604
istes	-605
ole	-606
doc	-607
▁nouv	-608
ites	-609
cul	-610
▁ra	-611
rib	-612
▁cour	-613
els	-614
ologie	-615
iti	-616
asse	-617
▁sud	-618
▁(1	-619
quel	-620
▁char	-621
▁différ	-622
▁min	-623
▁sy	-624
▁cap	-625
▁import	-626
▁dom	-627
▁id	-628
▁contre	-629
ps	-630
ann	-631
rent	-632
ctions	-633
ode	-634
▁cin	-635
ature	-636
ide	-637
core	-638
wi	-639
▁constitu	-640
ép	-641
▁dur	-642
▁département	-643
▁vers	-644
form	-645
ière	-646
tra	-647
▁»,	-648
▁europ	-649
▁syst	-650
erg	-651
atique	-652
▁politique	-653
ari	-654
▁personn	-655
été	-656
lo	-657
ains	-658
▁fon	-659
▁dern	-660
wiki	-661
▁<	-662
ves	-663
▁ni	-664
ieux	-665
▁si	-666
▁pouv	-667
ellement	-668
ouvent	-669
▁sans	-670
out	-671
▁grande	-672
agn	-673
▁mod	-674
viron	-675
▁ass	-676
▁vi	-677
vi	-678
▁dro	-679
▁ind	-680
isation	-681
ateur	-682
▁présid	-683
▁ils	-684
ern	-685
▁fut	-686
▁jusqu	-687
▁autres	-688
▁représent	-689
▁3	-690
▁fond	-691
▁non	-692
cl	-693
▁encore	-694
▁z	-695
ram	-696
aî	-697
sid	-698
▁péri	-699
▁exemp	-700
rer	-701
▁guerre	-702
apon	-703
▁long	-704
▁quel	-705
mar	-706
▁ju	-707
uses	-708
▁donn	-709
cher	-710
mé	-711
▁avant	-712
▁moy	-713
▁fr	-714
▁198	-715
ches	-716
érie	-717
autres	-718
▁mal	-719
▁rel	-720
▁prog	-721
..	-722
▁leurs	-723
▁emp	-724
ath	-725
oupe	-726
▁ver	-727
▁thé	-728
riv	-729
illes	-730
▁moins	-731
00	-732
▁roy	-733
fic	-734
▁suiv	-735
orte	-736
ène	-737
▁consid	-738
one	-739
▁fa	-740
antes	-741
▁japon	-742
▁soit	-743
▁intern	-744
▁li	-745
▁gouver	-746
fois	-747
▁états	-748
vement	-749
éric	-750
▁div	-751
▁hist	-752
▁ur	-753
▁film	-754
mble	-755
▁tel	-756
▁197	-757
▁off	-758
igne	-759
▁nouve	-760
ay	-761
▁cas	-762
su	-763
exp	-764
▁cent	-765
▁sé	-766
▁certains	-767
▁développe	-768
▁culture	-769
od	-770
▁situ	-771
▁esp	-772
▁sign	-773
▁population	-774
▁("	-775
▁op	-776
▁tous	-777
az	-778
ip	-779
tel	-780
ges	-781
▁particu	-782
▁prof	-783
▁réalis	-784
▁cr	-785
▁sain	-786
▁toute	-787
▁généra	-788
ision	-789
mis	-790
▁territ	-791
▁exemple	-792
cle	-793
▁vie	-794
▁appar	-795
uv	-796
ième	-797
▁rapp	-798
vent	-799
aines	-800
▁maj	-801
▁particuli	-802
sition	-803
lem	-804
▁fois	-805
▁ag	-806
iens	-807
▁début	-808
▁donc	-809
▁dire	-810
▁partir	-811
▁souvent	-812
▁celui	-813
▁système	-814
▁préc	-815
▁ans	-816
▁phil	-817
chn	-818
▁aff	-819
▁temps	-820
omm	-821
▁suc	-822
ose	-823
▁celle	-824
ric	-825
état	-826
▁économ	-827
▁fe	-828
▁indi	-829
éci	-830
▁langue	-831
▁lib	-832
▁lég	-833
▁nombreux	-834
▁mort	-835
ôle	-836
▁quat	-837
▁pouvoir	-838
▁nature	-839
▁sol	-840
entes	-841
▁jour	-842
nent	-843
endre	-844
ats	-845
pendant	-846
▁internation	-847
▁relig	-848
▁déf	-849
ché	-850
▁cependant	-851
gl	-852
▁inf	-853
▁sta	-854
▁appel	-855
▁forme	-856
▁organ	-857
▁europé	-858
▁lit	-859
▁pass	-860
ences	-861
mbre	-862
2,	-863
▁ent	-864
▁siè	-865
▁gé	-866
▁ét	-867
▁mondi	-868
ête	-869
itaire	-870
cid	-871
anc	-872
▁4	-873
▁dém	-874
▁place	-875
év	-876
▁fer	-877
oci	-878
unis	-879
▁5	-880
▁paris	-881
poque	-882
ras	-883
omme	-884
cs	-885
▁cô	-886
ateurs	-887
▁carac	-888
▁techn	-889
▁trava	-890
œuv	-891
▁prov	-892
▁cours	-893
ils	-894
▁gau	-895
▁196	-896
aison	-897
acc	-898
éral	-899
ienne	-900
hist	-901
8,	-902
▁période	-903
ribu	-904
▁saint	-905
▁rév	-906
▁peti	-907
ories	-908
gr	-909
iter	-910
▁loc	-911
▁mes	-912
▁im	-913
assi	-914
▁rest	-915
▁met	-916
rique	-917
▁part	-918
él	-919
▁gouvernement	-920
▁améric	-921
▁spéci	-922
▁effet	-923
tt	-924
omp	-925
ital	-926
▁jou	-927
ises	-928
▁cou	-929
esse	-930
1,	-931
▁faire	-932
omb	-933
▁fonction	-934
▁constru	-935
onde	-936
tent	-937
▁développement	-938
ule	-939
9,	-940
▁compr	-941
élé	-942
7,	-943
bles	-944
5,	-945
▁suite	-946
▁lim	-947
▁log	-948
ition	-949
▁sub	-950
▁nouvelle	-951
dia	-952
6,	-953
illeurs	-954
▁dou	-955
uss	-956
lic	-957
▁i	-958
art	-959
▁défin	-960
gu	-961
esp	-962
tri	-963
▁quelques	-964
équ	-965
▁port	-966
ori	-967
isse	-968
▁vis	-969
arch	-970
▁étu	-971
sions	-972
cur	-973
▁hum	-974
▁cri	-975
aissance	-976
anti	-977
ud	-978
▁dès	-979
ane	-980
ables	-981
▁nouveau	-982
olution	-983
▁bi	-984
▁men	-985
igine	-986
ov	-987
▁ri	-988
▁cal	-989
ération	-990
▁républi	-991
▁tradi	-992
ak	-993
arm	-994
oles	-995
tien	-996
▁compos	-997
pec	-998
ration	-999
▁fam	-1000
▁mouve	-1001
▁chaque	-1002
4,	-1003
ances	-1004
fr	-1005
yn	-1006
cess	-1007
ger	-1008
▁remp	-1009
▁environ	-1010
▁milli	-1011
▁bou	-1012
▁avoir	-1013
dic	-1014
▁ép	-1015
aise	-1016
are	-1017
èg	-1018
pos	-1019
tive	-1020
aît	-1021
▁rou	-1022
▁tit	-1023
▁jean	-1024
▁-	-1025
▁commer	-1026
▁contin	-1027
▁pendant	-1028
▁avait	-1029
▁sal	-1030
▁gre	-1031
▁hab	-1032
▁royau	-1033
▁réf	-1034
▁lieu	-1035
▁autre	-1036
▁présent	-1037
ler	-1038
eur	-1039
▁quatre	-1040
èrement	-1041
mo	-1042
inter	-1043
▁por	-1044
▁is	-1045
▁compte	-1046
▁194	-1047
▁conse	-1048
▁étant	-1049
ourd	-1050
3,	-1051
enc	-1052
aï	-1053
ver	-1054
tie	-1055
éré	-1056
orité	-1057
▁vo	-1058
▁durant	-1059
▁hau	-1060
ilité	-1061
fs	-1062
▁nive	-1063
▁public	-1064
iers	-1065
-1	-1066
yant	-1067
▁équ	-1068
//	-1069
oth	-1070
éle	-1071
port	-1072
▁bar	-1073
▁sh	-1074
▁peuvent	-1075
histoire	-1076
▁(19	-1077
▁inc	-1078
ographie	-1079
▁étaient	-1080
▁française	-1081
yth	-1082
▁écrit	-1083
cture	-1084
▁fem	-1085
èrent	-1086
osoph	-1087
▁seul	-1088
ah	-1089
orique	-1090
téra	-1091
land	-1092
ata	-1093
0.	-1094
▁groupe	-1095
ouest	-1096
▁société	-1097
▁prob	-1098
▁offici	-1099
lar	-1100
▁président	-1101
▁parmi	-1102
ange	-1103
▁vol	-1104
cident	-1105
▁beau	-1106
▁national	-1107
origine	-1108
▁poss	-1109
ich	-1110
▁tex	-1111
▁contra	-1112
▁général	-1113
▁cli	-1114
tient	-1115
▁mat	-1116
▁deven	-1117
▁nombreuses	-1118
▁6	-1119
ton	-1120
temp	-1121
▁plu	-1122
▁territoire	-1123
▁'	-1124
▁réc	-1125
▁prix	-1126
▁195	-1127
ade	-1128
▁program	-1129
xe	-1130
▁rapport	-1131
cup	-1132
ède	-1133
▁reste	-1134
pedia	-1135
▁centre	-1136
▁près	-1137
▁devient	-1138
ell	-1139
▁jeux	-1140
mbl	-1141
▁nor	-1142
▁202	-1143
▁philosoph	-1144
htt	-1145
▁fl	-1146
▁plan	-1147
▁roi	-1148
atiques	-1149
://	-1150
ris	-1151
▁gra	-1152
▁cate	-1153
▁développ	-1154
▁url	-1155
▁</	-1156
▁title	-1157
curid	-1158
https	-1159
gories	-1160
wikipedia	-1161
▁categories	-1162
▁scien	-1163
▁littéra	-1164
ze	-1165
▁mis	-1166
ôt	-1167
he	-1168
▁recher	-1169
urent	-1170
fi	-1171
▁ayant	-1172
ok	-1173
hui	-1174
jours	-1175
étique	-1176
▁lar	-1177
térie	-1178
▁moyen	-1179
▁second	-1180
▁gen	-1181
▁république	-1182
minist	-1183
▁ess	-1184
▁point	-1185
ierre	-1186
vers	-1187
pl	-1188
▁elles	-1189
gré	-1190
▁[	-1191
uni	-1192
▁naturel	-1193
▁royaume	-1194
▁projet	-1195
gé	-1196
oul	-1197
ourg	-1198
">	-1199
èmes	-1200
ions	-1201
▁vari	-1202
▁règ	-1203
▁pres	-1204
▁toujours	-1205
ologique	-1206
isé	-1207
▁pal	-1208
▁niveau	-1209
aud	-1210
èle	-1211
ron	-1212
▁liv	-1213
jourd	-1214
▁gar	-1215
tés	-1216
▁att	-1217
▁ouv	-1218
af	-1219
▁ense	-1220
▁doit	-1221
▁chez	-1222
▁17	-1223
▁sav	-1224
quer	-1225
▁succ	-1226
▁terme	-1227
▁chi	-1228
oupes	-1229
▁rev	-1230
ires	-1231
▁trouve	-1232
▁parfois	-1233
▁capit	-1234
œuvre	-1235
▁afin	-1236
▁toutes	-1237
tier	-1238
▁divers	-1239
▁certaines	-1240
ones	-1241
▁pat	-1242
uit	-1243
▁hom	-1244
▁8	-1245
▁main	-1246
ocra	-1247
▁cela	-1248
▁mer	-1249
▁jam	-1250
▁sep	-1251
cri	-1252
▁possi	-1253
rée	-1254
âce	-1255
tifs	-1256
▁sour	-1257
▁rôle	-1258
▁langues	-1259
ression	-1260
onie	-1261
▁grâce	-1262
▁nationale	-1263
▁7	-1264
oires	-1265
")	-1266
éli	-1267
▁193	-1268
▁premiers	-1269
▁cro	-1270
▁tant	-1271
ia	-1272
tout	-1273
ication	-1274
▁économique	-1275
▁ceux	-1276
▁cad	-1277
▁cet	-1278
▁comb	-1279
▁mouvement	-1280
▁mor	-1281
▁dist	-1282
endance	-1283
▁ten	-1284
▁camp	-1285
érique	-1286
rait	-1287
gment	-1288
istre	-1289
▁champ	-1290
▁he	-1291
▁base	-1292
anci	-1293
mer	-1294
▁terre	-1295
did	-1296
ustr	-1297
▁rap	-1298
aliste	-1299
uc	-1300
ara	-1301
▁élé	-1302
▁rep	-1303
auv	-1304
ète	-1305
▁dess	-1306
univers	-1307
▁mul	-1308
▁font	-1309
be	-1310
ug	-1311
▁aujourd	-1312
duit	-1313
part	-1314
ith	-1315
▁jeu	-1316
rage	-1317
ysi	-1318
▁ord	-1319
ande	-1320
onomie	-1321
▁distin	-1322
▁x	-1323
▁syn	-1324
sance	-1325
▁actu	-1326
...	-1327
qué	-1328
époque	-1329
▁civ	-1330
▁grands	-1331
▁concep	-1332
▁direc	-1333
ime	-1334
▁production	-1335
âge	-1336
up	-1337
▁ciném	-1338
▁univers	-1339
ile	-1340
europ	-1341
▁viv	-1342
coup	-1343
▁reconn	-1344
ore	-1345
▁conseil	-1346
▁musique	-1347
iles	-1348
▁mondiale	-1349
je	-1350
êt	-1351
amb	-1352
lin	-1353
▁plupart	-1354
▁dieu	-1355
▁candid	-1356
▁tard	-1357
▁télé	-1358
▁dernier	-1359
hn	-1360
lec	-1361
oix	-1362
▁aur	-1363
rière	-1364
▁travail	-1365
▁retr	-1366
▁domin	-1367
erne	-1368
▁bel	-1369
▁surtout	-1370
ock	-1371
▁seconde	-1372
île	-1373
ess	-1374
▁simp	-1375
rès	-1376
▁ta	-1377
▁val	-1378
aff	-1379
▁travers	-1380
▁vic	-1381
▁existe	-1382
ili	-1383
▁particulier	-1384
▁ps	-1385
▁priv	-1386
▁bl	-1387
▁allem	-1388
to	-1389
▁ref	-1390
▁beaucoup	-1391
▁sens	-1392
oise	-1393
▁grandes	-1394
▁crois	-1395
▁caractér	-1396
▁large	-1397
pond	-1398
ourn	-1399
suite	-1400
orie	-1401
ières	-1402
tivité	-1403
ative	-1404
estion	-1405
pose	-1406
▁orig	-1407
▁bre	-1408
▁franc	-1409
itants	-1410
da	-1411
position	-1412
▁sor	-1413
▁ret	-1414
action	-1415
union	-1416
▁doc	-1417
empire	-1418
20	-1419
▁15	-1420
ma	-1421
environ	-1422
autre	-1423
▁égyp	-1424
▁étab	-1425
▁villes	-1426
▁cath	-1427
▁ven	-1428
duc	-1429
▁création	-1430
ènes	-1431
▁fort	-1432
▁angl	-1433
▁année	-1434
▁cinq	-1435
lex	-1436
▁pierre	-1437
▁raison	-1438
étu	-1439
▁clim	-1440
itaires	-1441
▁organis	-1442
▁nécess	-1443
▁tourn	-1444
▁associ	-1445
▁phén	-1446
▁ty	-1447
▁fig	-1448
▁éch	-1449
▁généralement	-1450
usion	-1451
ry	-1452
▁régions	-1453
agit	-1454
lique	-1455
▁méth	-1456
▁enf	-1457
ustri	-1458
▁serv	-1459
▁conserv	-1460
▁ensuite	-1461
tro	-1462
▁faç	-1463
▁manière	-1464
tég	-1465
▁personnes	-1466
▁jo	-1467
▁roman	-1468
]]	-1469
▁gl	-1470
respond	-1471
▁culturel	-1472
▁politiques	-1473
▁contr	-1474
sement	-1475
ox	-1476
mbres	-1477
andis	-1478
▁influ	-1479
▁9	-1480
ensemble	-1481
▁peup	-1482
▁droit	-1483
ennes	-1484
▁médi	-1485
▁fra	-1486
uri	-1487
mande	-1488
tic	-1489
▁cir	-1490
▁mois	-1491
▁quar	-1492
éné	-1493
▁propos	-1494
alisation	-1495
▁fac	-1496
▁vale	-1497
cas	-1498
▁symb	-1499
▁tandis	-1500
▁signif	-1501
▁entrepr	-1502
▁seu	-1503
▁classi	-1504
oin	-1505
▁stru	-1506
▁différents	-1507
▁rh	-1508
▁correspond	-1509
érence	-1510
▁anci	-1511
lande	-1512
▁différentes	-1513
▁eux	-1514
▁let	-1515
élè	-1516
▁arm	-1517
▁mot	-1518
▁ol	-1519
til	-1520
▁ancien	-1521
ets	-1522
atif	-1523
▁titre	-1524
era	-1525
▁mag	-1526
▁membres	-1527
▁face	-1528
sionn	-1529
cont	-1530
▁fré	-1531
alités	-1532
ress	-1533
▁famille	-1534
▁mise	-1535
▁inform	-1536
inf	-1537
▁diri	-1538
▁traditionn	-1539
▁prot	-1540
▁préf	-1541
▁autour	-1542
▁toutefois	-1543
ych	-1544
dition	-1545
crip	-1546
▁coup	-1547
▁occident	-1548
europe	-1549
idé	-1550
▁proc	-1551
▁atte	-1552
▁192	-1553
tall	-1554
▁succès	-1555
▁16	-1556
quelle	-1557
▁ge	-1558
ices	-1559
▁journ	-1560
▁rapide	-1561
enn	-1562
jec	-1563
▁réseau	-1564
▁déj	-1565
éti	-1566
▁laquelle	-1567
ym	-1568
ules	-1569
▁physi	-1570
▁af	-1571
▁ant	-1572
▁do	-1573
▁auc	-1574
▁loi	-1575
▁tels	-1576
année	-1577
uel	-1578
▁grec	-1579
val	-1580
▁anim	-1581
ipe	-1582
▁prend	-1583
▁recherche	-1584
arg	-1585
▁résul	-1586
▁plut	-1587
ota	-1588
▁él	-1589
aur	-1590
▁pratique	-1591
▁us	-1592
èse	-1593
▁importante	-1594
▁ve	-1595
cience	-1596
▁gauche	-1597
▁administ	-1598
▁enfin	-1599
▁artis	-1600
▁obs	-1601
▁cher	-1602
même	-1603
▁déjà	-1604
▁jac	-1605
rés	-1606
rale	-1607
▁sein	-1608
▁fai	-1609
▁deuxième	-1610
▁jours	-1611
▁principalement	-1612
▁sty	-1613
isl	-1614
éro	-1615
▁env	-1616
▁cy	-1617
▁arch	-1618
unes	-1619
▁esti	-1620
son	-1621
▁multi	-1622
▁indép	-1623
▁important	-1624
âte	-1625
▁série	-1626
▁cat	-1627
éch	-1628
rand	-1629
ach	-1630
▁présente	-1631
cesse	-1632
alisme	-1633
▁fais	-1634
▁malgré	-1635
▁industri	-1636
aul	-1637
▁commerci	-1638
eff	-1639
▁sera	-1640
▁cinéma	-1641
▁européenne	-1642
dio	-1643
once	-1644
ritann	-1645
ographique	-1646
illi	-1647
▁servi	-1648
▁reç	-1649
oris	-1650
tures	-1651
▁désign	-1652
ymp	-1653
homme	-1654
▁liste	-1655
né	-1656
▁dim	-1657
▁provin	-1658
lie	-1659
▁élections	-1660
ides	-1661
▁connu	-1662
▁nouvelles	-1663
▁ailleurs	-1664
yd	-1665
▁[[	-1666
▁particip	-1667
▁iss	-1668
bilité	-1669
▁femmes	-1670
▁élev	-1671
ow	-1672
▁10	-1673
▁myth	-1674
▁ligne	-1675
▁rend	-1676
ke	-1677
▁ress	-1678
▁seulement	-1679
▁tot	-1680
▁va	-1681
▁mom	-1682
▁allemand	-1683
atives	-1684
▁fils	-1685
▁découver	-1686
uli	-1687
▁mac	-1688
▁premières	-1689
▁fes	-1690
auté	-1691
▁pens	-1692
▁moyenne	-1693
▁britann	-1694
▁caract	-1695
▁191	-1696
▁communes	-1697
▁reven	-1698
▁utilisé	-1699
quée	-1700
quent	-1701
▁statu	-1702
université	-1703
vid	-1704
dire	-1705
▁rob	-1706
oss	-1707
▁majorité	-1708
▁bata	-1709
▁num	-1710
tenir	-1711
▁droite	-1712
▁urb	-1713
▁propre	-1714
▁transport	-1715
▁and	-1716
lac	-1717
tière	-1718
▁étran	-1719
▁celles	-1720
▁suff	-1721
▁typ	-1722
▁longue	-1723
▁voit	-1724
ologiques	-1725
▁japonais	-1726
▁histoire	-1727
▁commune	-1728
▁psych	-1729
jou	-1730
▁taux	-1731
lant	-1732
après	-1733
▁voy	-1734
lit	-1735
▁type	-1736
▁tête	-1737
dam	-1738
▁disc	-1739
odes	-1740
▁augment	-1741
▁effec	-1742
▁formul	-1743
▁hommes	-1744
▁données	-1745
▁militaire	-1746
▁historique	-1747
▁caractéris	-1748
cal	-1749
lise	-1750
oie	-1751
▁asse	-1752
▁scientif	-1753
▁ital	-1754
▁corps	-1755
▁etc	-1756
ditions	-1757
▁époque	-1758
rim	-1759
▁six	-1760
duction	-1761
-19	-1762
cipe	-1763
▁chef	-1764
▁élect	-1765
▁produit	-1766
ere	-1767
avant	-1768
▁démocra	-1769
▁groupes	-1770
organisation	-1771
aly	-1772
étés	-1773
èce	-1774
▁supérie	-1775
▁empl	-1776
▁russ	-1777
▁élec	-1778
oration	-1779
▁lorsque	-1780
uré	-1781
▁cuis	-1782
▁class	-1783
▁festiv	-1784
▁international	-1785
itié	-1786
indre	-1787
▁devant	-1788
térieur	-1789
▁europe	-1790
▁possède	-1791
oud	-1792
▁mesure	-1793
armée	-1794
tiers	-1795
ible	-1796
▁pu	-1797
▁cit	-1798
temps	-1799
▁riv	-1800
tives	-1801
ordre	-1802
▁prom	-1803
▁dén	-1804
forme	-1805
▁colon	-1806
▁dispar	-1807
yr	-1808
uve	-1809
▁mic	-1810
▁capitale	-1811
tag	-1812
▁disp	-1813
ret	-1814
lemagne	-1815
let	-1816
anisme	-1817
erie	-1818
▁lu	-1819
▁dit	-1820
▁objet	-1821
▁origin	-1822
▁viol	-1823
▁haute	-1824
hab	-1825
▁films	-1826
▁siècle	-1827
rop	-1828
ône	-1829
▁seule	-1830
▁rencont	-1831
▁produits	-1832
▁mati	-1833
▁pris	-1834
▁dix	-1835
▁donne	-1836
▁féd	-1837
▁blan	-1838
▁façon	-1839
▁domaine	-1840
abord	-1841
▁programme	-1842
indi	-1843
culture	-1844
▁lou	-1845
tivités	-1846
▁essenti	-1847
▁institu	-1848
usse	-1849
▁new	-1850
▁sujet	-1851
▁propri	-1852
▁festival	-1853
rom	-1854
▁destin	-1855
rier	-1856
▁cadre	-1857
2.	-1858
▁milieu	-1859
érit	-1860
▁lut	-1861
▁sus	-1862
▁unique	-1863
▁change	-1864
ignement	-1865
ût	-1866
▁logici	-1867
▁ministre	-1868
▁appr	-1869
▁langage	-1870
tal	-1871
▁phot	-1872
▁orient	-1873
▁millions	-1874
car	-1875
ork	-1876
tex	-1877
ru	-1878
▁concern	-1879
▁version	-1880
aces	-1881
mont	-1882
▁eng	-1883
▁mari	-1884
▁nav	-1885
quant	-1886
con	-1887
gar	-1888
▁sac	-1889
▁sant	-1890
ustrie	-1891
hi	-1892
▁américain	-1893
▁fav	-1894
▁furent	-1895
▁service	-1896
▁considér	-1897
loit	-1898
▁inté	-1899
▁sim	-1900
▁présence	-1901
▁dernière	-1902
▁françois	-1903
▁but	-1904
xim	-1905
▁accue	-1906
amp	-1907
▁matéri	-1908
orm	-1909
assin	-1910
"),	-1911
▁classe	-1912
bas	-1913
cer	-1914
cles	-1915
▁étrang	-1916
▁meille	-1917
▁troisième	-1918
▁sort	-1919
ute	-1920
▁trop	-1921
ote	-1922
▁ali	-1923
▁béné	-1924
bres	-1925
▁état	-1926
onique	-1927
▁ly	-1928
▁sport	-1929
ga	-1930
▁mi	-1931
▁fle	-1932
aître	-1933
▁san	-1934
▁haut	-1935
▁résulta	-1936
▁principaux	-1937
▁genre	-1938
ablement	-1939
titude	-1940
▁religion	-1941
▁dol	-1942
▁quant	-1943
fran	-1944
▁alli	-1945
▁forte	-1946
▁déclar	-1947
▁outre	-1948
st	-1949
▁position	-1950
▁cause	-1951
▁climat	-1952
▁possible	-1953
▁internationale	-1954
▁go	-1955
▁présidenti	-1956
▁ban	-1957
enant	-1958
▁bataille	-1959
rou	-1960
▁dyn	-1961
▁poin	-1962
▁bal	-1963
▁nég	-1964
▁plutôt	-1965
tées	-1966
▁ang	-1967
▁régime	-1968
▁mex	-1969
ément	-1970
▁tent	-1971
▁pap	-1972
5.	-1973
arc	-1974
the	-1975
▁coll	-1976
▁olymp	-1977
▁châte	-1978
▁serait	-1979
hum	-1980
ner	-1981
bourg	-1982
aisons	-1983
▁littérature	-1984
tait	-1985
▁situation	-1986
▁occup	-1987
▁petit	-1988
▁modèle	-1989
sur	-1990
▁mich	-1991
▁scène	-1992
▁style	-1993
èces	-1994
iennent	-1995
▁chiff	-1996
▁lequel	-1997
▁théorie	-1998
ouss	-1999
kh	-2000
raî	-2001
▁vue	-2002
issent	-2003
ensi	-2004
▁ro	-2005
alog	-2006
▁mol	-2007
ettes	-2008
▁fron	-2009
▁fourn	-2010
▁bâ	-2011
appar	-2012
tor	-2013
âtre	-2014
vision	-2015
ament	-2016
▁côté	-2017
▁travaux	-2018
▁œuvre	-2019
1.	-2020
jo	-2021
ka	-2022
▁reg	-2023
économie	-2024
▁charles	-2025
ber	-2026
▁formula	-2027
▁parc	-2028
tements	-2029
▁services	-2030
gue	-2031
▁super	-2032
ancien	-2033
▁jamais	-2034
pes	-2035
atta	-2036
▁sch	-2037
objet	-2038
ressi	-2039
▁zone	-2040
▁retour	-2041
bes	-2042
alif	-2043
▁porte	-2044
écrit	-2045
▁adop	-2046
▁éléments	-2047
act	-2048
eurs	-2049
face	-2050
▁marché	-2051
▁prote	-2052
▁manif	-2053
uf	-2054
moins	-2055
▁droits	-2056
▁phénom	-2057
▁docu	-2058
▁vill	-2059
▁valeur	-2060
▁initi	-2061
landais	-2062
▁patri	-2063
▁populaire	-2064
▁tri	-2065
▁représente	-2066
école	-2067
▁centr	-2068
ball	-2069
▁séc	-2070
▁én	-2071
▁ci	-2072
égyp	-2073
▁coule	-2074
8.	-2075
▁abs	-2076
iller	-2077
inform	-2078
▁cathol	-2079
▁eu	-2080
▁regr	-2081
▁portu	-2082
▁accord	-2083
▁construction	-2084
▁célè	-2085
▁systèmes	-2086
▁étudi	-2087
▁social	-2088
▁techniques	-2089
▁consomm	-2090
tit	-2091
tienne	-2092
▁moitié	-2093
▁chré	-2094
▁père	-2095
▁aurait	-2096
▁législ	-2097
fication	-2098
▁fab	-2099
vis	-2100
mand	-2101
▁chac	-2102
▁modi	-2103
êmes	-2104
▁question	-2105
▁divin	-2106
4.	-2107
ana	-2108
▁hor	-2109
▁moment	-2110
▁philosophie	-2111
▁parlement	-2112
▁âge	-2113
▁textes	-2114
▁code	-2115
fique	-2116
trême	-2117
▁livre	-2118
ctures	-2119
œuvres	-2120
").	-2121
▁(«	-2122
alyse	-2123
église	-2124
▁maison	-2125
▁chois	-2126
▁administra	-2127
▁muni	-2128
▁contraire	-2129
ereur	-2130
roche	-2131
▁anglais	-2132
▁constitution	-2133
▁ensemble	-2134
atoire	-2135
▁mots	-2136
▁réguli	-2137
▁supp	-2138
▁autor	-2139
▁os	-2140
▁méc	-2141
duis	-2142
▁libre	-2143
▁secteur	-2144
bel	-2145
vention	-2146
▁commence	-2147
▁nouveaux	-2148
▁communauté	-2149
▁profes	-2150
rages	-2151
▁ling	-2152
anmoins	-2153
œur	-2154
▁anti	-2155
▁resp	-2156
▁néanmoins	-2157
▁principales	-2158
ivent	-2159
▁dat	-2160
import	-2161
lication	-2162
▁moderne	-2163
rie	-2164
ards	-2165
▁partis	-2166
▁révolution	-2167
▁mode	-2168
▁multip	-2169
▁tomb	-2170
▁quand	-2171
▁appelé	-2172
▁collec	-2173
▁forces	-2174
▁relations	-2175
lier	-2176
▁ara	-2177
ouse	-2178
rite	-2179
▁puiss	-2180
▁proche	-2181
ades	-2182
▁tar	-2183
ros	-2184
▁adap	-2185
▁maî	-2186
▁mit	-2187
▁vall	-2188
afrique	-2189
▁consac	-2190
▁qualif	-2191
ony	-2192
bert	-2193
ergie	-2194
▁piè	-2195
eng	-2196
iment	-2197
▁site	-2198
▁ouver	-2199
▁rapidement	-2200
▁contrôle	-2201
▁science	-2202
▁bour	-2203
off	-2204
▁zones	-2205
ji	-2206
▁massi	-2207
▁jacques	-2208
6.	-2209
cin	-2210
▁12	-2211
▁créé	-2212
ésil	-2213
▁espagn	-2214
▁gaul	-2215
▁gren	-2216
érer	-2217
▁sau	-2218
▁formes	-2219
▁sociale	-2220
▁()	-2221
▁bib	-2222
cteur	-2223
▁brésil	-2224
médi	-2225
▁mas	-2226
assembl	-2227
émin	-2228
iser	-2229
▁femme	-2230
▁considéré	-2231
tiss	-2232
▁dollar	-2233
▁imm	-2234
▁histor	-2235
▁lesquel	-2236
osa	-2237
▁électr	-2238
▁critique	-2239
cons	-2240
ulaire	-2241
▁précéd	-2242
▁entreprises	-2243
▁ir	-2244
▁perd	-2245
▁conséqu	-2246
▁finalement	-2247
9.	-2248
="1	-2249
osph	-2250
termin	-2251
▁physique	-2252
bil	-2253
▁chine	-2254
▁crise	-2255
▁générale	-2256
pect	-2257
▁bois	-2258
▁fre	-2259
▁atta	-2260
▁continu	-2261
▁défense	-2262
riculture	-2263
pro	-2264
rain	-2265
▁all	-2266
▁croissance	-2267
ension	-2268
▁habitants	-2269
▁campagne	-2270
fe	-2271
att	-2272
mon	-2273
▁the	-2274
▁faut	-2275
▁inv	-2276
tiens	-2277
aissent	-2278
▁traite	-2279
reg	-2280
▁répar	-2281
▁gal	-2282
▁ger	-2283
▁cham	-2284
▁faible	-2285
ativement	-2286
▁mém	-2287
▁jeune	-2288
▁total	-2289
▁études	-2290
ception	-2291
▁tu	-2292
ionn	-2293
▁distribu	-2294
ha	-2295
▁som	-2296
▁bo	-2297
▁donné	-2298
▁naissance	-2299
▁sén	-2300
▁observ	-2301
▁portug	-2302
▁siège	-2303
▁enfants	-2304
▁stra	-2305
▁ressour	-2306
▁190	-2307
▁dessin	-2308
mentaires	-2309
▁prim	-2310
▁mondial	-2311
▁jan	-2312
▁bon	-2313
▁municip	-2314
urité	-2315
▁14	-2316
étend	-2317
dd	-2318
isc	-2319
▁cuisine	-2320
crit	-2321
rive	-2322
acité	-2323
égypte	-2324
▁lance	-2325
200	-2326
▁york	-2327
▁exist	-2328
▁suivant	-2329
élection	-2330
hom	-2331
▁cam	-2332
▁lign	-2333
▁texte	-2334
éh	-2335
ousse	-2336
▁prév	-2337
exist	-2338
▁voir	-2339
▁traité	-2340
▁espèces	-2341
orient	-2342
▁intel	-2343
▁expéri	-2344
itant	-2345
▁prati	-2346
▁santé	-2347
ié	-2348
ares	-2349
▁mars	-2350
▁voix	-2351
▁demande	-2352
▁commerce	-2353
▁front	-2354
▁entraî	-2355
▁formation	-2356
air	-2357
rant	-2358
▁pén	-2359
▁trib	-2360
▁contemp	-2361
ville	-2362
écu	-2363
▁faisant	-2364
▁assez	-2365
▁)	-2366
influ	-2367
▁continent	-2368
▁arr	-2369
▁sciences	-2370
=1	-2371
▁î	-2372
gique	-2373
atur	-2374
▁latin	-2375
▁rac	-2376
industrie	-2377
▁principal	-2378
utilisation	-2379
▁be	-2380
▁mai	-2381
▁date	-2382
▁source	-2383
▁we	-2384
▁chin	-2385
▁189	-2386
était	-2387
▁louis	-2388
▁publié	-2389
▁œuvres	-2390
▁méde	-2391
▁sept	-2392
▁passe	-2393
ira	-2394
▁côte	-2395
▁phara	-2396
▁sites	-2397
▁respons	-2398
▁présidentielle	-2399
7.	-2400
▁gaz	-2401
▁ill	-2402
duire	-2403
▁individ	-2404
▁structure	-2405
▁situé	-2406
3.	-2407
obs	-2408
▁arriv	-2409
tivement	-2410
eth	-2411
ennent	-2412
▁conqu	-2413
▁terres	-2414
▁sex	-2415
▁publique	-2416
tenu	-2417
▁bes	-2418
▁dollars	-2419
▁théâtre	-2420
erve	-2421
▁rome	-2422
wa	-2423
tisme	-2424
▁conv	-2425
▁culte	-2426
▁music	-2427
▁anciens	-2428
▁largement	-2429
cide	-2430
▁marque	-2431
chi	-2432
occup	-2433
lection	-2434
▁remplac	-2435
▁règne	-2436
▁résid	-2437
her	-2438
nie	-2439
itecture	-2440
▁courant	-2441
environnement	-2442
tein	-2443
illet	-2444
▁ving	-2445
▁financi	-2446
anique	-2447
▁interpr	-2448
ame	-2449
voir	-2450
entrepr	-2451
▁membre	-2452
▁progressi	-2453
▁permettant	-2454
▁cant	-2455
▁terr	-2456
ase	-2457
▁ber	-2458
icile	-2459
▁lois	-2460
▁her	-2461
▁personne	-2462
▁activités	-2463
osp	-2464
lang	-2465
▁lanc	-2466
▁tempéra	-2467
tern	-2468
tice	-2469
▁tota	-2470
▁contempor	-2471
lace	-2472
▁tur	-2473
▁britannique	-2474
▁ris	-2475
▁vidé	-2476
▁radio	-2477
nements	-2478
▁compar	-2479
▁technique	-2480
▁civil	-2481
▁effectu	-2482
▁connaît	-2483
▁major	-2484
▁table	-2485
▁math	-2486
▁centrale	-2487
aite	-2488
▁har	-2489
▁enti	-2490
pir	-2491
endo	-2492
▁calcul	-2493
issement	-2494
han	-2495
uelle	-2496
▁force	-2497
sements	-2498
▁spec	-2499
▁lorsqu	-2500
▁linguis	-2501
oun	-2502
▁bord	-2503
émie	-2504
▁impos	-2505
▁commenc	-2506
▁presque	-2507
▁religie	-2508
ficie	-2509
érant	-2510
mentaire	-2511
▁îles	-2512
▁bibli	-2513
▁contribu	-2514
▁red	-2515
aisse	-2516
tation	-2517
▁château	-2518
▁compéti	-2519
▁protest	-2520
dit	-2521
▁11	-2522
▁13	-2523
êtes	-2524
▁fix	-2525
taire	-2526
▁souver	-2527
▁professionn	-2528
▁vict	-2529
▁chris	-2530
allemagne	-2531
▁référence	-2532
▁essentiellement	-2533
dique	-2534
▁auteurs	-2535
auteur	-2536
rement	-2537
qui	-2538
▁ordin	-2539
▁respec	-2540
▁manifest	-2541
inc	-2542
▁avaient	-2543
rog	-2544
▁jeunes	-2545
of	-2546
trop	-2547
▁départements	-2548
▁poursu	-2549
▁nous	-2550
▁remar	-2551
▁transform	-2552
▁of	-2553
veur	-2554
ticle	-2555
▁qualité	-2556
▁retrouve	-2557
▁(),	-2558
andes	-2559
▁mand	-2560
▁philip	-2561
▁puissance	-2562
êtres	-2563
▁paul	-2564
ormais	-2565
▁affir	-2566
▁principe	-2567
▁volont	-2568
▁surface	-2569
▁candidat	-2570
sitions	-2571
influence	-2572
▁fu	-2573
▁désormais	-2574
▁(18	-2575
tenant	-2576
▁notre	-2577
▁minist	-2578
▁attribu	-2579
▁el	-2580
iver	-2581
tage	-2582
alistes	-2583
empereur	-2584
éb	-2585
êts	-2586
▁sépar	-2587
▁john	-2588
▁opéra	-2589
▁constitue	-2590
log	-2591
▁dég	-2592
issant	-2593
▁ressources	-2594
▁chaî	-2595
▁liber	-2596
ducation	-2597
▁march	-2598
▁mettre	-2599
▁statut	-2600
iné	-2601
per	-2602
ève	-2603
ront	-2604
étude	-2605
▁voire	-2606
▁taille	-2607
▁communication	-2608
ley	-2609
oll	-2610
▁sécurité	-2611
tell	-2612
rac	-2613
astr	-2614
rivain	-2615
▁peine	-2616
▁permettent	-2617
▁scientifique	-2618
▁vas	-2619
indép	-2620
ouvre	-2621
▁trouv	-2622
▁comprend	-2623
aide	-2624
▁art	-2625
▁russie	-2626
▁ii	-2627
oque	-2628
cessi	-2629
▁mach	-2630
▁choix	-2631
▁plate	-2632
▁vérit	-2633
▁compagn	-2634
▁tradition	-2635
ende	-2636
▁nations	-2637
dess	-2638
▁quit	-2639
eux	-2640
émo	-2641
▁dic	-2642
▁meur	-2643
ission	-2644
▁types	-2645
mission	-2646
cription	-2647
▁classique	-2648
▁militaires	-2649
ril	-2650
orges	-2651
▁apparaît	-2652
▁derniers	-2653
atri	-2654
tine	-2655
texte	-2656
▁mère	-2657
▁marse	-2658
▁petite	-2659
▁prendre	-2660
enseignement	-2661
▁vit	-2662
▁simple	-2663
anim	-2664
▁plac	-2665
▁musée	-2666
▁annonce	-2667
▁cité	-2668
▁aucun	-2669
▁employ	-2670
▁accomp	-2671
adi	-2672
aix	-2673
▁bâti	-2674
del	-2675
gée	-2676
hor	-2677
▁ple	-2678
▁vend	-2679
jectif	-2680
▁américaine	-2681
▁conditions	-2682
cf	-2683
enf	-2684
èles	-2685
▁obtient	-2686
▁direction	-2687
kin	-2688
estre	-2689
▁intro	-2690
ailleurs	-2691
igue	-2692
iennes	-2693
▁matière	-2694
▁détermin	-2695
▁dan	-2696
ésie	-2697
▁semble	-2698
agriculture	-2699
indépendance	-2700
mée	-2701
istance	-2702
▁diffic	-2703
▁sar	-2704
entif	-2705
▁vidéo	-2706
urg	-2707
arité	-2708
uté	-2709
aie	-2710
emb	-2711
siris	-2712
▁grenob	-2713
▁cop	-2714
▁propose	-2715
ars	-2716
▁hen	-2717
espace	-2718
▁sortie	-2719
▁diverses	-2720
▁lac	-2721
▁considéra	-2722
vier	-2723
casion	-2724
▁empire	-2725
▁pi	-2726
▁nommé	-2727
bum	-2728
▁vois	-2729
▁établis	-2730
▁»)	-2731
énergie	-2732
ètres	-2733
exploit	-2734
▁pourrait	-2735
ètes	-2736
▁pron	-2737
no	-2738
▁ed	-2739
▁notion	-2740
▁fortement	-2741
▁religieux	-2742
▁populations	-2743
▁condam	-2744
▁cés	-2745
▁mess	-2746
▁directement	-2747
rir	-2748
▁élu	-2749
cessus	-2750
équipe	-2751
▁discip	-2752
▁dispon	-2753
▁romain	-2754
|*	-2755
▁chim	-2756
▁déce	-2757
intendo	-2758
miques	-2759
cesseur	-2760
▁utilise	-2761
▁caractère	-2762
ket	-2763
tionnelle	-2764
▁pein	-2765
▁points	-2766
="2	-2767
com	-2768
▁utilisée	-2769
▁/	-2770
▁longtemps	-2771
gt	-2772
tan	-2773
▁loin	-2774
▁auprès	-2775
rire	-2776
▁cos	-2777
▁réun	-2778
▁boudd	-2779
▁décrit	-2780
▁palais	-2781
▁cherche	-2782
▁protection	-2783
▁â	-2784
èque	-2785
▁voi	-2786
moine	-2787
oré	-2788
tur	-2789
atis	-2790
esti	-2791
▁sovi	-2792
écriture	-2793
▁processus	-2794
▁pla	-2795
▁vra	-2796
▁install	-2797
tembre	-2798
▁prise	-2799
▁située	-2800
ya	-2801
▁accep	-2802
▁telles	-2803
▁territoires	-2804
▁environnement	-2805
▁lumi	-2806
▁mouvements	-2807
rées	-2808
▁stu	-2809
▁pensée	-2810
▁sem	-2811
mation	-2812
▁masse	-2813
▁instru	-2814
▁belgique	-2815
▁nintendo	-2816
angl	-2817
▁suisse	-2818
▁écoles	-2819
étr	-2820
▁hér	-2821
térêt	-2822
▁réserv	-2823
och	-2824
lèmes	-2825
▁noms	-2826
▁composé	-2827
go	-2828
sh	-2829
ibles	-2830
▁certain	-2831
▁européen	-2832
▁septembre	-2833
hrop	-2834
inde	-2835
▁méd	-2836
▁décision	-2837
onnes	-2838
▁mathém	-2839
▁fondament	-2840
▁atteint	-2841
=2	-2842
irs	-2843
▁collab	-2844
▁fonctions	-2845
isée	-2846
orde	-2847
▁fémin	-2848
▁médic	-2849
▁propor	-2850
▁riches	-2851
▁soutien	-2852
▁indépend	-2853
▁utilisés	-2854
idée	-2855
▁juin	-2856
▁vote	-2857
▁quartier	-2858
orth	-2859
▁emb	-2860
▁savoir	-2861
ied	-2862
▁jui	-2863
▁dirige	-2864
▁termes	-2865
▁nécessaire	-2866
table	-2867
▁glob	-2868
▁fréqu	-2869
▁michel	-2870
▁peuple	-2871
▁presse	-2872
▁symbol	-2873
image	-2874
▁romaine	-2875
▁sources	-2876
abs	-2877
▁vingt	-2878
▁mémoire	-2879
resse	-2880
▁graph	-2881
▁catég	-2882
▁bat	-2883
▁mang	-2884
▁concur	-2885
▁devenu	-2886
▁ancienne	-2887
▁décembre	-2888
▁là	-2889
empl	-2890
tobre	-2891
▁équip	-2892
▁évolu	-2893
▁réalité	-2894
▁pub	-2895
▁tourisme	-2896
▁dernières	-2897
▁pib	-2898
▁stand	-2899
▁stras	-2900
▁dipl	-2901
▁guer	-2902
▁ha	-2903
uclé	-2904
▁lettres	-2905
yl	-2906
▁ém	-2907
▁lune	-2908
▁combat	-2909
▁robert	-2910
bi	-2911
ni	-2912
asc	-2913
▁desc	-2914
abilité	-2915
▁ste	-2916
tières	-2917
tir	-2918
▁doivent	-2919
▁rencontre	-2920
usage	-2921
▁rejo	-2922
▁savoie	-2923
▁parties	-2924
▁province	-2925
▁célèbre	-2926
▁économiques	-2927
▁188	-2928
▁communiste	-2929
▁patrimoine	-2930
cteurs	-2931
▁lutte	-2932
étiques	-2933
▁procéd	-2934
▁janvier	-2935
▁méthode	-2936
tée	-2937
▁quo	-2938
osition	-2939
▁montre	-2940
quis	-2941
▁mos	-2942
▁pér	-2943
▁specta	-2944
agnes	-2945
matique	-2946
▁équipe	-2947
▁christi	-2948
▁quas	-2949
▁officielle	-2950
inte	-2951
▁enc	-2952
assemblée	-2953
▁suivante	-2954
ome	-2955
aude	-2956
▁nic	-2957
▁exer	-2958
▁césar	-2959
▁justice	-2960
▁fonctionn	-2961
pp	-2962
qués	-2963
iterran	-2964
▁principale	-2965
anie	-2966
▁amb	-2967
▁hong	-2968
clus	-2969
▁concept	-2970
entreprise	-2971
▁pic	-2972
▁aucune	-2973
▁problèmes	-2974
▁importantes	-2975
▁vu	-2976
▁afric	-2977
▁grèce	-2978
ada	-2979
imm	-2980
▁brux	-2981
▁scén	-2982
entiel	-2983
▁passage	-2984
anche	-2985
▁chap	-2986
▁retra	-2987
terrand	-2988
▁sociétés	-2989
arr	-2990
cée	-2991
raine	-2992
▁stratég	-2993
▁critiques	-2994
dé	-2995
▁subs	-2996
▁chans	-2997
▁concent	-2998
existence	-2999
▁rê	-3000
ètre	-3001
institu	-3002
▁termin	-3003
▁""	-3004
rivée	-3005
▁donner	-3006
▁contexte	-3007
ed	-3008
itation	-3009
▁figure	-3010
▁var	-3011
▁demand	-3012
administ	-3013
▁humaine	-3014
▁mitterrand	-3015
cte	-3016
▁témo	-3017
▁favor	-3018
▁concernant	-3019
▁del	-3020
▁pan	-3021
▁coupe	-3022
▁nuclé	-3023
▁méditerran	-3024
▁hi	-3025
onyme	-3026
ordin	-3027
▁voie	-3028
▁enreg	-3029
▁oppos	-3030
▁parle	-3031
▁devenir	-3032
▁certaine	-3033
▁progressivement	-3034
lème	-3035
▁marseille	-3036
nex	-3037
▁deme	-3038
sa	-3039
italie	-3040
▁prépar	-3041
▁supérieur	-3042
alli	-3043
▁pri	-3044
▁quelque	-3045
▁occidentale	-3046
glom	-3047
érop	-3048
france	-3049
▁bouddh	-3050
▁objets	-3051
▁domaines	-3052
▁influence	-3053
bo	-3054
▁186	-3055
▁feu	-3056
▁bure	-3057
▁biblioth	-3058
▁problème	-3059
▁dieux	-3060
▁conten	-3061
▁définition	-3062
éon	-3063
▁().	-3064
▁codi	-3065
▁spor	-3066
▁187	-3067
▁carb	-3068
▁déta	-3069
▁pauv	-3070
intérieur	-3071
analyse	-3072
▁autant	-3073
▁métrop	-3074
exploitation	-3075
▁représentation	-3076
201	-3077
▁éd	-3078
▁vir	-3079
install	-3080
▁publie	-3081
▁georges	-3082
ols	-3083
▁ray	-3084
▁décla	-3085
▁américains	-3086
▁strasbourg	-3087
▁rouge	-3088
▁comité	-3089
▁télévision	-3090
▁arg	-3091
▁reçoit	-3092
▁compris	-3093
▁troupes	-3094
▁japonaise	-3095
▁norm	-3096
▁sole	-3097
▁majoritaire	-3098
rich	-3099
▁refus	-3100
▁appelée	-3101
▁agri	-3102
▁homme	-3103
▁musul	-3104
activité	-3105
téri	-3106
▁pen	-3107
▁radic	-3108
▁dispos	-3109
▁permis	-3110
fici	-3111
▁maje	-3112
▁dynas	-3113
gn	-3114
avoir	-3115
▁bos	-3116
▁fro	-3117
▁olympiques	-3118
▁russe	-3119
étation	-3120
▁dimin	-3121
▁monu	-3122
andonn	-3123
associ	-3124
▁relation	-3125
ager	-3126
ifor	-3127
▁charge	-3128
▁dépend	-3129
actu	-3130
▁bul	-3131
▁huit	-3132
▁néer	-3133
ologies	-3134
▁quanti	-3135
50	-3136
uves	-3137
vient	-3138
▁dispose	-3139
quées	-3140
▁autom	-3141
▁satell	-3142
▁discours	-3143
▁socialiste	-3144
ice	-3145
▁tend	-3146
▁mieux	-3147
▁impéri	-3148
▁résultats	-3149
▁passé	-3150
ications	-3151
▁division	-3152
▁souh	-3153
▁vient	-3154
▁juillet	-3155
▁liberté	-3156
▁bri	-3157
vembre	-3158
▁lignes	-3159
▁vallée	-3160
rad	-3161
prit	-3162
▁hit	-3163
▁flor	-3164
▁lieux	-3165
▁confir	-3166
▁discipl	-3167
administration	-3168
nom	-3169
▁amp	-3170
▁may	-3171
▁grenoble	-3172
nov	-3173
▁tor	-3174
▁médec	-3175
amérique	-3176
▁gestion	-3177
▁victoire	-3178
▁rue	-3179
▁paix	-3180
▁congr	-3181
osphère	-3182
▁petits	-3183
▁propres	-3184
▁tél	-3185
▁créer	-3186
▁sommet	-3187
▁relativement	-3188
▁lux	-3189
▁club	-3190
▁francis	-3191
▁anciennes	-3192
▁européens	-3193
ids	-3194
utés	-3195
▁mig	-3196
tagne	-3197
▁conç	-3198
▁proté	-3199
▁connue	-3200
▁german	-3201
▁).	-3202
étab	-3203
quité	-3204
▁loire	-3205
▁spécialis	-3206
adémie	-3207
▁dél	-3208
ival	-3209
▁fau	-3210
▁comporte	-3211
char	-3212
ologue	-3213
▁fondée	-3214
▁congrès	-3215
pa	-3216
▁fo	-3217
▁inspir	-3218
▁soleil	-3219
truction	-3220
▁réforme	-3221
▁novembre	-3222
▁caractères	-3223
▁officiellement	-3224
chant	-3225
▁complé	-3226
cule	-3227
éran	-3228
▁ajou	-3229
▁citoy	-3230
édi	-3231
▁nos	-3232
▁parl	-3233
▁scru	-3234
▁nouvel	-3235
▁découverte	-3236
▁linguistique	-3237
cé	-3238
ama	-3239
ates	-3240
▁mad	-3241
▁gard	-3242
espagne	-3243
▁recons	-3244
▁octobre	-3245
cel	-3246
▁1,	-3247
▁montagne	-3248
▁laiss	-3249
▁vites	-3250
▁déesse	-3251
▁scrutin	-3252
▁souverain	-3253
ano	-3254
orté	-3255
çant	-3256
▁méda	-3257
▁corée	-3258
▁humains	-3259
mine	-3260
▁pourtant	-3261
▁développé	-3262
▁importants	-3263
ctes	-3264
phab	-3265
▁seth	-3266
amique	-3267
ky	-3268
lev	-3269
▁temple	-3270
▁regroup	-3271
▁%.	-3272
▁cœur	-3273
éducation	-3274
▁phénomène	-3275
▁personnages	-3276
oût	-3277
▁lab	-3278
▁durée	-3279
▁parall	-3280
▁restaur	-3281
▁sociales	-3282
▁économie	-3283
▁bruxelles	-3284
énie	-3285
atifs	-3286
arrivée	-3287
▁chinois	-3288
archie	-3289
aug	-3290
▁nu	-3291
▁bud	-3292
iteur	-3293
extrême	-3294
▁chacun	-3295
▁rousse	-3296
écrivain	-3297
▁central	-3298
ash	-3299
▁30	-3300
inté	-3301
oncé	-3302
▁sys	-3303
▁seine	-3304
▁sensi	-3305
évolution	-3306
▁distingu	-3307
▁personnage	-3308
▁consommation	-3309
▁basse	-3310
▁inves	-3311
oue	-3312
▁caf	-3313
▁oblig	-3314
▁complè	-3315
▁décide	-3316
▁règles	-3317
▁voyage	-3318
▁cultures	-3319
▁fou	-3320
▁bassin	-3321
▁décenn	-3322
▁géographie	-3323
pt	-3324
▁élevé	-3325
▁cinqu	-3326
yo	-3327
delà	-3328
pers	-3329
▁gol	-3330
▁moyens	-3331
▁capacité	-3332
arab	-3333
ores	-3334
▁mexique	-3335
▁difficul	-3336
▁meilleur	-3337
▁réalisateur	-3338
col	-3339
urer	-3340
▁noy	-3341
▁voc	-3342
ommun	-3343
▁hors	-3344
▁siècles	-3345
▁représentent	-3346
yg	-3347
vin	-3348
▁évé	-3349
▁croy	-3350
tionnaire	-3351
▁logiciels	-3352
ks	-3353
ivre	-3354
tiennent	-3355
▁peuples	-3356
mil	-3357
▁exc	-3358
▁via	-3359
autés	-3360
▁simil	-3361
▁rendre	-3362
▁antique	-3363
▁déclare	-3364
▁frontière	-3365
▁contrairement	-3366
orge	-3367
améric	-3368
▁renfor	-3369
académie	-3370
▁rousseau	-3371
▁dra	-3372
ensité	-3373
tention	-3374
▁conflit	-3375
▁provinces	-3376
▁fille	-3377
▁seuls	-3378
▁profit	-3379
ouverture	-3380
eté	-3381
éry	-3382
alys	-3383
▁allemands	-3384
architecture	-3385
can	-3386
▁idé	-3387
▁arts	-3388
▁collè	-3389
▁puisque	-3390
▁élector	-3391
▁utilisant	-3392
▁littéraire	-3393
oz	-3394
▁&	-3395
▁),	-3396
▁»),	-3397
liquer	-3398
▁concurr	-3399
▁préd	-3400
▁génér	-3401
èd	-3402
gor	-3403
ège	-3404
▁relie	-3405
▁trouver	-3406
aves	-3407
ypoth	-3408
▁sorte	-3409
antique	-3410
▁vision	-3411
▁circons	-3412
▁véritable	-3413
ulé	-3414
ulation	-3415
▁catholique	-3416
▁q	-3417
ura	-3418
▁répond	-3419
▁pharaon	-3420
▁influenc	-3421
▁difficile	-3422
dien	-3423
duite	-3424
▁créée	-3425
▁fonde	-3426
tionnel	-3427
ope	-3428
▁ib	-3429
▁blanc	-3430
cession	-3431
▁médias	-3432
▁logiciel	-3433
▁particul	-3434
va	-3435
asie	-3436
▁méta	-3437
▁tiers	-3438
agement	-3439
déc	-3440
▁hu	-3441
▁pil	-3442
cole	-3443
lexe	-3444
tiste	-3445
tifici	-3446
▁internet	-3447
▁rang	-3448
▁bande	-3449
▁telle	-3450
▁fleuve	-3451
▁lesquels	-3452
den	-3453
ctur	-3454
eaux	-3455
▁end	-3456
hiver	-3457
▁paci	-3458
entrée	-3459
▁seront	-3460
▁publics	-3461
▁continue	-3462
▁kh	-3463
▁doute	-3464
▁référ	-3465
édition	-3466
▁établi	-3467
enstein	-3468
▁territori	-3469
▁conception	-3470
▁superficie	-3471
br	-3472
pi	-3473
▁|	-3474
gés	-3475
argent	-3476
▁2010,	-3477
▁locale	-3478
cesseurs	-3479
▁lumière	-3480
iée	-3481
▁fun	-3482
▁nar	-3483
iteurs	-3484
▁symbole	-3485
▁bénéfici	-3486
▁cu	-3487
lève	-3488
▁dav	-3489
illon	-3490
▁prol	-3491
raient	-3492
▁apple	-3493
▁avril	-3494
▁spati	-3495
▁étude	-3496
▁désigne	-3497
▁probablement	-3498
otan	-3499
▁hyd	-3500
▁double	-3501
▁départ	-3502
▁livres	-3503
lantique	-3504
occasion	-3505
▁activité	-3506
information	-3507
▁traitement	-3508
ast	-3509
osh	-3510
▁ul	-3511
ogle	-3512
ramm	-3513
rass	-3514
▁sam	-3515
appr	-3516
▁déclin	-3517
▁vitesse	-3518
▁constitué	-3519
oï	-3520
este	-3521
▁animaux	-3522
▁philippe	-3523
▁signifie	-3524
▁standard	-3525
▁changement	-3526
der	-3527
isp	-3528
ogne	-3529
orts	-3530
▁pot	-3531
mique	-3532
uelles	-3533
▁soient	-3534
avantage	-3535
▁accompagn	-3536
uk	-3537
▁atom	-3538
▁pont	-3539
▁reli	-3540
riques	-3541
▁représentant	-3542
▁top	-3543
▁bonne	-3544
▁grecs	-3545
▁diffus	-3546
▁conduit	-3547
▁réalisé	-3548
▁historiques	-3549
▁informatique	-3550
ina	-3551
êche	-3552
▁cra	-3553
unité	-3554
omin	-3555
▁mass	-3556
éan	-3557
▁abou	-3558
▁rhét	-3559
▁bourg	-3560
▁phase	-3561
▁journal	-3562
lications	-3563
ographiques	-3564
▁rur	-3565
▁magaz	-3566
lt	-3567
fier	-3568
▁assi	-3569
accord	-3570
iciens	-3571
ancienne	-3572
▁artistes	-3573
expression	-3574
▁40	-3575
mise	-3576
ernes	-3577
▁foot	-3578
▁chron	-3579
▁consul	-3580
▁support	-3581
avec	-3582
chent	-3583
urice	-3584
▁provo	-3585
▁artifici	-3586
▁vég	-3587
▁café	-3588
▁suivi	-3589
▁régulièrement	-3590
▁pièces	-3591
▁proches	-3592
▁actuellement	-3593
'«	-3594
rid	-3595
▁bra	-3596
▁ram	-3597
verse	-3598
▁test	-3599
▁appro	-3600
▁mexic	-3601
▁mêmes	-3602
▁considère	-3603
▁50	-3604
▁monn	-3605
▁chasse	-3606
▁codice	-3607
▁google	-3608
▁locales	-3609
▁mesures	-3610
▁désigner	-3611
▁institutions	-3612
▁gagn	-3613
▁juge	-3614
▁navig	-3615
▁dépass	-3616
▁record	-3617
▁étrangers	-3618
▁spécifique	-3619
aton	-3620
euros	-3621
▁quoti	-3622
▁romans	-3623
▁totale	-3624
▁califor	-3625
▁trouvent	-3626
association	-3627
▁»).	-3628
nation	-3629
▁joueurs	-3630
▁ru	-3631
▁ben	-3632
liste	-3633
▁caus	-3634
▁lond	-3635
▁posi	-3636
▁rasse	-3637
▁carrière	-3638
▁pratiques	-3639
erts	-3640
▁micros	-3641
ack	-3642
opol	-3643
thur	-3644
▁bran	-3645
▁pois	-3646
▁poste	-3647
opération	-3648
importance	-3649
étro	-3650
▁maxim	-3651
▁sociaux	-3652
▁méthodes	-3653
utes	-3654
▁anc	-3655
▁vain	-3656
▁dérou	-3657
▁lettre	-3658
ôme	-3659
étaire	-3660
lemande	-3661
▁bureau	-3662
▁intégr	-3663
▁francoph	-3664
▁%),	-3665
▁ethn	-3666
▁proven	-3667
▁température	-3668
vie	-3669
▁fit	-3670
istan	-3671
itime	-3672
▁démar	-3673
▁recue	-3674
▁perman	-3675
▁écrits	-3676
▁revanche	-3677
▁tendance	-3678
▁commission	-3679
iés	-3680
▁déli	-3681
▁grav	-3682
▁humain	-3683
rup	-3684
▁web	-3685
▁secré	-3686
▁durable	-3687
000	-3688
▁bu	-3689
ôtel	-3690
▁extra	-3691
▁ordre	-3692
▁francs	-3693
▁passer	-3694
▁répand	-3695
▁2010	-3696
▁quin	-3697
▁décid	-3698
▁transf	-3699
▁constituent	-3700
ows	-3701
▁',	-3702
accès	-3703
enses	-3704
▁exéc	-3705
▁magn	-3706
ulsion	-3707
▁effets	-3708
▁?	-3709
lor	-3710
▁%,	-3711
prés	-3712
▁signe	-3713
blement	-3714
▁grecque	-3715
fre	-3716
▁scol	-3717
▁explo	-3718
▁civile	-3719
antiquité	-3720
▁explique	-3721
cupe	-3722
ties	-3723
ubis	-3724
▁atti	-3725
▁crée	-3726
▁joue	-3727
▁élus	-3728
dessus	-3729
▁outil	-3730
▁repro	-3731
▁locaux	-3732
2"	-3733
▁=	-3734
alu	-3735
oug	-3736
▁finale	-3737
térieure	-3738
▁recense	-3739
▁couleurs	-3740
_1	-3741
itt	-3742
▁2000	-3743
▁aéri	-3744
▁budg	-3745
▁rois	-3746
▁complex	-3747
oft	-3748
▁ryth	-3749
▁vont	-3750
▁parce	-3751
▁professe	-3752
▁régional	-3753
▁rhétorique	-3754
▁uniquement	-3755
élect	-3756
▁agricole	-3757
▁résultat	-3758
▁permettre	-3759
ini	-3760
élev	-3761
érée	-3762
▁sil	-3763
▁diminu	-3764
▁royale	-3765
▁complexe	-3766
▁françaises	-3767
▁compétition	-3768
aj	-3769
▁ath	-3770
▁lic	-3771
▁gramm	-3772
▁valeurs	-3773
▁football	-3774
▁législatives	-3775
ologne	-3776
▁distingue	-3777
▁religions	-3778
▁transports	-3779
dont	-3780
▁kur	-3781
▁juri	-3782
▁sembl	-3783
interpr	-3784
istique	-3785
▁chaîne	-3786
▁profond	-3787
naissance	-3788
ll	-3789
éen	-3790
agin	-3791
éder	-3792
▁téléph	-3793
▁chambre	-3794
▁romains	-3795
▁développer	-3796
▁recherches	-3797
bit	-3798
entité	-3799
formes	-3800
▁cycle	-3801
▁tours	-3802
▁vivant	-3803
glomération	-3804
▁considérée	-3805
éth	-3806
▁écriv	-3807
▁contrô	-3808
▁fabric	-3809
▁soviétique	-3810
▁mu	-3811
▁ait	-3812
▁fid	-3813
anger	-3814
▁afrique	-3815
▁forment	-3816
▁concerne	-3817
▁résistance	-3818
do	-3819
▁by	-3820
itée	-3821
▁183	-3822
lectu	-3823
èdent	-3824
étain	-3825
▁marie	-3826
▁marine	-3827
▁partage	-3828
▁dynastie	-3829
ulp	-3830
chés	-3831
▁ble	-3832
▁mété	-3833
▁majeure	-3834
▁petites	-3835
▁projets	-3836
chée	-3837
iant	-3838
ériques	-3839
où	-3840
ige	-3841
acte	-3842
chev	-3843
▁185	-3844
▁los	-3845
riers	-3846
▁gros	-3847
▁nour	-3848
▁souff	-3849
▁tient	-3850
▁connus	-3851
▁couleur	-3852
▁britanniques	-3853
mal	-3854
▁25	-3855
▁diss	-3856
itaine	-3857
▁1990,	-3858
▁diver	-3859
ses	-3860
▁fondé	-3861
▁faveur	-3862
itations	-3863
▁logique	-3864
▁sélection	-3865
▁égyptienne	-3866
▁chute	-3867
intérêt	-3868
▁limite	-3869
▁solaire	-3870
▁document	-3871
▁scientifiques	-3872
appel	-3873
décès	-3874
▁1990	-3875
▁améli	-3876
▁armes	-3877
▁royal	-3878
4"	-3879
ster	-3880
▁mét	-3881
ismes	-3882
érité	-3883
▁veut	-3884
langue	-3885
▁étend	-3886
diction	-3887
▁police	-3888
▁renouv	-3889
▁identif	-3890
▁derrière	-3891
▁programmes	-3892
8"	-3893
▁faits	-3894
▁ratta	-3895
▁volonté	-3896
▁familles	-3897
▁compagnie	-3898
▁naturelles	-3899
3"	-3900
6"	-3901
oni	-3902
onge	-3903
▁kil	-3904
▁ques	-3905
▁idées	-3906
personn	-3907
▁sports	-3908
▁inférie	-3909
9"	-3910
ots	-3911
yrén	-3912
évrier	-3913
▁pouss	-3914
▁circul	-3915
▁compil	-3916
▁habitu	-3917
▁modernes	-3918
ik	-3919
▁issus	-3920
▁riche	-3921
▁fusion	-3922
▁parler	-3923
▁lecture	-3924
▁allemande	-3925
▁religieuse	-3926
▁renaissance	-3927
1"	-3928
cock	-3929
▁dév	-3930
▁rien	-3931
▁nobel	-3932
▁signal	-3933
)|	-3934
5"	-3935
nu	-3936
▁em	-3937
égal	-3938
anglais	-3939
]],	-3940
sain	-3941
▁int	-3942
▁dériv	-3943
yrénées	-3944
▁communautés	-3945
▁informations	-3946
osé	-3947
yer	-3948
anges	-3949
▁forêt	-3950
isant	-3951
▁angel	-3952
▁unies	-3953
apparition	-3954
▁supérieure	-3955
cent	-3956
▁moléc	-3957
▁quatri	-3958
▁maurice	-3959
▁définiti	-3960
▁pouvoirs	-3961
▁diffusion	-3962
▁ach	-3963
▁gré	-3964
▁noir	-3965
▁suit	-3966
▁rejet	-3967
▁altern	-3968
▁console	-3969
▁commande	-3970
hors	-3971
main	-3972
▁note	-3973
▁restent	-3974
▁consiste	-3975
▁européennes	-3976
▁connaissance	-3977
7"	-3978
tar	-3979
oure	-3980
▁diz	-3981
▁neuf	-3982
▁phon	-3983
entine	-3984
▁téléc	-3985
▁autorités	-3986
▁candidats	-3987
▁francisco	-3988
▁organisation	-3989
ario	-3990
orer	-3991
▁cér	-3992
▁radi	-3993
actions	-3994
▁quatrième	-3995
▁distribution	-3996
tiles	-3997
alisée	-3998
onneur	-3999
▁album	-4000
▁horus	-4001
institut	-4002
▁mission	-4003
▁frontières	-4004
oyer	-4005
time	-4006
▁bus	-4007
irent	-4008
oseph	-4009
▁intit	-4010
▁morts	-4011
▁revue	-4012
▁sculp	-4013
▁conver	-4014
▁affaires	-4015
▁milliers	-4016
ny	-4017
alisé	-4018
▁bern	-4019
▁voul	-4020
chcock	-4021
▁agric	-4022
▁estime	-4023
▁exclus	-4024
lissement	-4025
ague	-4026
▁bro	-4027
▁frère	-4028
occupation	-4029
▁construit	-4030
tim	-4031
uels	-4032
▁din	-4033
▁eur	-4034
▁ball	-4035
années	-4036
▁salle	-4037
▁disque	-4038
▁marqué	-4039
▁tribun	-4040
vre	-4041
isés	-4042
itue	-4043
▁ami	-4044
▁liée	-4045
▁sing	-4046
pierre	-4047
▁pétro	-4048
▁combin	-4049
▁courants	-4050
▁néerlandais	-4051
rh	-4052
berg	-4053
▁lor	-4054
endra	-4055
▁février	-4056
▁culturelle	-4057
▁intellectu	-4058
oine	-4059
▁clé	-4060
▁lun	-4061
▁côtés	-4062
▁débat	-4063
▁marquée	-4064
▁planète	-4065
▁raisons	-4066
▁naturels	-4067
▁regroupe	-4068
ca	-4069
oto	-4070
oux	-4071
run	-4072
otte	-4073
▁don	-4074
▁massif	-4075
▁agricoles	-4076
▁%)	-4077
▁mam	-4078
▁ceci	-4079
ignent	-4080
▁david	-4081
▁archite	-4082
▁modèles	-4083
arn	-4084
▁bil	-4085
▁défini	-4086
▁risque	-4087
▁appelle	-4088
▁urbaine	-4089
▁origines	-4090
▁fondation	-4091
▁géographique	-4092
ani	-4093
ola	-4094
olith	-4095
▁août	-4096
▁bloc	-4097
expéri	-4098
▁2007,	-4099
▁diale	-4100
▁jules	-4101
▁privil	-4102
▁syndic	-4103
▁républic	-4104
bon	-4105
▁181	-4106
▁modes	-4107
▁vaste	-4108
▁londres	-4109
▁internationales	-4110
80	-4111
gg	-4112
chim	-4113
▁184	-4114
itent	-4115
▁pati	-4116
▁avanc	-4117
▁stock	-4118
astique	-4119
▁épouse	-4120
▁nombres	-4121
ht	-4122
▁cre	-4123
rimer	-4124
▁nuit	-4125
▁senti	-4126
▁voies	-4127
▁consta	-4128
▁élément	-4129
odi	-4130
▁gam	-4131
▁tre	-4132
illiam	-4133
▁citer	-4134
▁autonom	-4135
▁abandonn	-4136
▁accueille	-4137
▁utilisées	-4138
olue	-4139
▁jur	-4140
▁cérém	-4141
▁connaiss	-4142
▁microsoft	-4143
▁portugais	-4144
uta	-4145
▁conj	-4146
▁lien	-4147
▁appare	-4148
▁révolu	-4149
ba	-4150
hyd	-4151
clam	-4152
érale	-4153
amment	-4154
esprit	-4155
ligence	-4156
▁actuelle	-4157
▁représenté	-4158
▁dite	-4159
▁mandat	-4160
▁classes	-4161
▁longueur	-4162
ider	-4163
▁émis	-4164
▁détru	-4165
▁métal	-4166
fiction	-4167
▁appelés	-4168
▁dû	-4169
▁édi	-4170
pects	-4171
▁loge	-4172
▁rédi	-4173
▁rares	-4174
▁médiév	-4175
▁actions	-4176
▁participe	-4177
▁génération	-4178
▁régionales	-4179
we	-4180
▁0,	-4181
▁tal	-4182
▁tir	-4183
orter	-4184
▁demi	-4185
▁faci	-4186
▁épis	-4187
▁2008,	-4188
▁maire	-4189
▁saoud	-4190
▁subst	-4191
▁récomp	-4192
▁extrême	-4193
▁numérique	-4194
▁entièrement	-4195
60	-4196
ae	-4197
abb	-4198
▁1980	-4199
▁spir	-4200
▁freud	-4201
▁maître	-4202
cier	-4203
▁pied	-4204
airement	-4205
▁composée	-4206
▁présents	-4207
▁naturelle	-4208
inv	-4209
sant	-4210
▁jeun	-4211
▁sert	-4212
▁2012,	-4213
▁coloni	-4214
▁luxemb	-4215
▁devenue	-4216
tissement	-4217
▁quantité	-4218
▁divinités	-4219
aume	-4220
▁eaux	-4221
▁1980,	-4222
▁arché	-4223
article	-4224
▁comment	-4225
ça	-4226
▁kan	-4227
uration	-4228
▁machine	-4229
▁exemples	-4230
▁reprises	-4231
▁directeur	-4232
30	-4233
fié	-4234
rist	-4235
▁pétrole	-4236
olas	-4237
▁(200	-4238
▁king	-4239
▁2018,	-4240
lacement	-4241
opposition	-4242
▁différence	-4243
▁présidence	-4244
ss	-4245
▁volu	-4246
▁situe	-4247
▁cathéd	-4248
▁command	-4249
▁indique	-4250
▁ouvrage	-4251
més	-4252
▁80	-4253
ittg	-4254
▁nil	-4255
▁rhône	-4256
▁règle	-4257
ologues	-4258
mosphère	-4259
ittgenstein	-4260
cy	-4261
ban	-4262
head	-4263
▁naz	-4264
opéra	-4265
▁1970,	-4266
▁usage	-4267
▁format	-4268
▁exploit	-4269
▁réseaux	-4270
▁principes	-4271
tte	-4272
▁bap	-4273
▁breton	-4274
▁carbone	-4275
▁bibliothèque	-4276
▁respectivement	-4277
hér	-4278
▁évo	-4279
▁1970	-4280
▁cités	-4281
▁effic	-4282
▁micro	-4283
▁contest	-4284
dici	-4285
▁lin	-4286
comme	-4287
▁eston	-4288
anthrop	-4289
▁chemin	-4290
▁passant	-4291
habitants	-4292
▁matériel	-4293
▁meilleure	-4294
▁civilisation	-4295
ives	-4296
étran	-4297
tension	-4298
▁démont	-4299
▁proxim	-4300
criptions	-4301
▁quartiers	-4302
▁questions	-4303
▁utilisent	-4304
▁évolution	-4305
▁wittgenstein	-4306
▁2,	-4307
▁reb	-4308
▁barb	-4309
▁orth	-4310
▁trou	-4311
▁liens	-4312
▁réuss	-4313
utation	-4314
▁action	-4315
▁armées	-4316
▁titres	-4317
eter	-4318
▁sin	-4319
human	-4320
▁alex	-4321
▁supr	-4322
mettre	-4323
▁2017,	-4324
▁trente	-4325
autorité	-4326
▁angeles	-4327
▁chiffre	-4328
ification	-4329
▁vin	-4330
exemp	-4331
intel	-4332
▁mine	-4333
▁pénins	-4334
▁soulig	-4335
▁pouvant	-4336
▁philosophe	-4337
▁populaires	-4338
ham	-4339
tig	-4340
inée	-4341
▁ère	-4342
▁henri	-4343
▁offre	-4344
▁cheval	-4345
▁manque	-4346
▁limites	-4347
▁possibilité	-4348
tue	-4349
▁(2	-4350
▁nî	-4351
saint	-4352
ignant	-4353
▁futur	-4354
▁cancer	-4355
▁funéra	-4356
▁densité	-4357
▁utiliser	-4358
▁candidature	-4359
lle	-4360
gées	-4361
reté	-4362
érés	-4363
▁dos	-4364
▁gro	-4365
▁hug	-4366
lises	-4367
▁ther	-4368
lation	-4369
▁protoc	-4370
▁marchand	-4371
by	-4372
▁cab	-4373
▁hautes	-4374
▁tableau	-4375
▁proximité	-4376
personnalité	-4377
▁u	-4378
anne	-4379
▁hon	-4380
▁mauv	-4381
▁sang	-4382
▁appli	-4383
osaures	-4384
▁aspects	-4385
▁accueilli	-4386
▁secrétaire	-4387
hés	-4388
▁tok	-4389
trice	-4390
▁reti	-4391
▁bases	-4392
▁noter	-4393
▁compét	-4394
▁heures	-4395
▁remont	-4396
▁sièges	-4397
▁unités	-4398
▁mariage	-4399
▁réalise	-4400
▁personnel	-4401
▁composition	-4402
ii	-4403
chec	-4404
▁gri	-4405
observ	-4406
▁image	-4407
▁village	-4408
▁pression	-4409
▁domination	-4410
▁excep	-4411
éroport	-4412
▁expériment	-4413
ica	-4414
aure	-4415
ipel	-4416
▁1960	-4417
▁norv	-4418
▁respect	-4419
▁revenus	-4420
▁orientale	-4421
▁charlemagne	-4422
agé	-4423
▁fi	-4424
▁asi	-4425
ansion	-4426
▁2000,	-4427
▁martin	-4428
▁favoris	-4429
▁jeunesse	-4430
▁fant	-4431
▁isis	-4432
▁accus	-4433
▁chamb	-4434
▁minim	-4435
sterdam	-4436
▁chargé	-4437
▁dehors	-4438
▁images	-4439
▁parten	-4440
▁guerres	-4441
▁égyptien	-4442
▁californie	-4443
▁lesquelles	-4444
née	-4445
|*|	-4446
oura	-4447
▁wil	-4448
▁cell	-4449
▁parf	-4450
▁chante	-4451
▁olympique	-4452
▁suivantes	-4453
▁publication	-4454
.-	-4455
ax	-4456
ting	-4457
▁hol	-4458
océan	-4459
▁camb	-4460
▁sols	-4461
▁baisse	-4462
▁direct	-4463
▁former	-4464
▁péninsule	-4465
"'	-4466
ourt	-4467
▁numéro	-4468
▁structures	-4469
itées	-4470
tenue	-4471
▁bomb	-4472
▁décor	-4473
▁pièce	-4474
▁poids	-4475
▁forêts	-4476
▁négoci	-4477
▁revient	-4478
▁davantage	-4479
▁multiples	-4480
▁propriété	-4481
▁conférence	-4482
▁fédération	-4483
iz	-4484
rat	-4485
gorith	-4486
▁meurt	-4487
▁noyau	-4488
▁quasi	-4489
▁synth	-4490
absence	-4491
▁mascul	-4492
onnement	-4493
▁william	-4494
▁démocratie	-4495
▁démocratique	-4496
hé	-4497
▁2007	-4498
▁brut	-4499
rastru	-4500
▁attest	-4501
▁enregist	-4502
▁électrique	-4503
na	-4504
wo	-4505
por	-4506
unk	-4507
▁juste	-4508
▁théor	-4509
duisent	-4510
▁auteur	-4511
▁préserv	-4512
▁retrouv	-4513
▁chrétiens	-4514
▁terrestre	-4515
asa	-4516
oli	-4517
rin	-4518
...)	-4519
mans	-4520
urss	-4521
ergne	-4522
ustral	-4523
▁2015,	-4524
▁confl	-4525
étaires	-4526
▁arrive	-4527
▁météor	-4528
▁christianisme	-4529
aye	-4530
arde	-4531
èses	-4532
▁bron	-4533
▁incl	-4534
▁niveaux	-4535
▁pouvait	-4536
▁nationales	-4537
agglomération	-4538
aqu	-4539
mêmes	-4540
▁ford	-4541
▁sauv	-4542
▁alain	-4543
▁route	-4544
oniques	-4545
▁spiritu	-4546
▁secteurs	-4547
▁diversité	-4548
’"	-4549
nés	-4550
orat	-4551
édie	-4552
▁bur	-4553
▁garde	-4554
▁seigne	-4555
▁centres	-4556
▁médecine	-4557
▁périodes	-4558
▁réaliser	-4559
uter	-4560
▁tab	-4561
▁uti	-4562
riche	-4563
▁anne	-4564
▁décl	-4565
▁alliés	-4566
▁osiris	-4567
▁descend	-4568
▁pologne	-4569
▁contient	-4570
▁distance	-4571
▁saoudite	-4572
▁conséquence	-4573
net	-4574
heim	-4575
iran	-4576
pour	-4577
ribue	-4578
▁2011,	-4579
▁carte	-4580
▁pollu	-4581
▁nobles	-4582
▁statis	-4583
▁ministère	-4584
▁mathématiques	-4585
ld	-4586
là	-4587
marie	-4588
▁chefs	-4589
▁morph	-4590
▁tardi	-4591
itement	-4592
▁entier	-4593
▁origine	-4594
▁simplement	-4595
bl	-4596
rick	-4597
éhic	-4598
geois	-4599
▁géom	-4600
▁post	-4601
▁article	-4602
▁terrain	-4603
▁ouvrages	-4604
▁prennent	-4605
▁suffrages	-4606
▁conscience	-4607
▁événements	-4608
▁secondaires	-4609
lore	-4610
sons	-4611
urée	-4612
▁flu	-4613
atrice	-4614
▁peupl	-4615
▁italie	-4616
▁judici	-4617
▁pétain	-4618
ressions	-4619
▁officiel	-4620
▁produire	-4621
40	-4622
uits	-4623
▁coû	-4624
ouvrir	-4625
▁2006,	-4626
▁famili	-4627
▁modern	-4628
▁nucléaire	-4629
▁fonctionnement	-4630
70	-4631
urant	-4632
èques	-4633
▁rich	-4634
emploi	-4635
taient	-4636
▁2020,	-4637
▁envoy	-4638
▁scand	-4639
▁demeure	-4640
▁versions	-4641
▁satellites	-4642
ms	-4643
gger	-4644
▁179	-4645
▁2008	-4646
▁palé	-4647
▁géorg	-4648
▁mille	-4649
▁joueur	-4650
▁réflex	-4651
▁reprend	-4652
▁traditionnelle	-4653
ceau	-4654
deux	-4655
ident	-4656
▁acqu	-4657
▁fête	-4658
ecture	-4659
tables	-4660
▁ferro	-4661
▁thème	-4662
▁devait	-4663
▁exprim	-4664
humanité	-4665
▁seraient	-4666
▁allemagne	-4667
▁artistique	-4668
▁discipline	-4669
cit	-4670
gus	-4671
▁rock	-4672
▁diplom	-4673
▁portant	-4674
▁ritu	-4675
▁révél	-4676
▁évent	-4677
aliment	-4678
ographe	-4679
usement	-4680
▁besoin	-4681
▁conflits	-4682
▁bouddhisme	-4683
▁organisations	-4684
ty	-4685
▁iv	-4686
ries	-4687
▁van	-4688
▁astr	-4689
▁surv	-4690
duisant	-4691
▁viande	-4692
▁députés	-4693
▁traditions	-4694
▁indépendant	-4695
ck	-4696
çon	-4697
▁21	-4698
apol	-4699
▁sold	-4700
dienne	-4701
▁ouest	-4702
▁canada	-4703
alliance	-4704
paravant	-4705
▁message	-4706
▁disponibles	-4707
lir	-4708
onse	-4709
oses	-4710
loire	-4711
venir	-4712
▁méri	-4713
▁actuel	-4714
▁analys	-4715
▁obtenu	-4716
▁obtenir	-4717
▁amérique	-4718
▁conquête	-4719
▁pacifique	-4720
▁publiques	-4721
▁phénomènes	-4722
ald	-4723
ize	-4724
oins	-4725
ophe	-4726
▁liés	-4727
▁métaux	-4728
▁précip	-4729
▁station	-4730
▁traduit	-4731
see	-4732
quête	-4733
▁cens	-4734
▁issu	-4735
▁thaï	-4736
▁thom	-4737
arthur	-4738
▁2009,	-4739
▁tombe	-4740
▁cartes	-4741
▁débuts	-4742
▁défend	-4743
▁immédi	-4744
▁faibles	-4745
▁humaines	-4746
▁programmation	-4747
phe	-4748
▁ciel	-4749
▁foss	-4750
illant	-4751
▁criti	-4752
▁maintenant	-4753
▁recensement	-4754
agu	-4755
fort	-4756
▁%).	-4757
▁180	-4758
▁net	-4759
▁célé	-4760
igueur	-4761
▁chant	-4762
▁somme	-4763
jectifs	-4764
ortement	-4765
▁besoins	-4766
▁souhait	-4767
▁églises	-4768
▁technologie	-4769
▁collaboration	-4770
igu	-4771
nis	-4772
▁pâ	-4773
comp	-4774
▁mur	-4775
initi	-4776
▁fonds	-4777
▁énerg	-4778
▁contro	-4779
▁implant	-4780
▁monnaie	-4781
▁chiffres	-4782
▁remporte	-4783
▁propriétés	-4784
ey	-4785
dis	-4786
oile	-4787
onné	-4788
élève	-4789
▁2011	-4790
▁iran	-4791
▁jard	-4792
histor	-4793
▁carol	-4794
exemple	-4795
▁prince	-4796
▁chanson	-4797
▁ferrovi	-4798
olithique	-4799
▁présenter	-4800
▁professeur	-4801
fer	-4802
ita	-4803
▁bout	-4804
▁2014,	-4805
▁prosp	-4806
chement	-4807
▁laisse	-4808
▁supplé	-4809
landaise	-4810
▁réparti	-4811
▁documents	-4812
▁commercial	-4813
▁difficultés	-4814
▁industrielle	-4815
tile	-4816
▁isl	-4817
▁écl	-4818
ommée	-4819
▁lycée	-4820
honneur	-4821
▁suffis	-4822
▁comptait	-4823
▁apparaissent	-4824
▁augmentation	-4825
▁établissements	-4826
oppos	-4827
▁gaule	-4828
▁juifs	-4829
▁malad	-4830
▁systé	-4831
▁tente	-4832
▁visant	-4833
ypothèse	-4834
▁couronne	-4835
ondissement	-4836
gén	-4837
mark	-4838
▁han	-4839
anglet	-4840
augment	-4841
▁magazine	-4842
▁suivants	-4843
angleterre	-4844
▁centaines	-4845
ez	-4846
din	-4847
illa	-4848
▁mén	-4849
uréat	-4850
▁ciné	-4851
▁budget	-4852
▁inscrit	-4853
▁religieuses	-4854
ago	-4855
ali	-4856
adap	-4857
arque	-4858
▁fich	-4859
▁2019,	-4860
▁sainte	-4861
▁affirme	-4862
▁électronique	-4863
za	-4864
ami	-4865
ticles	-4866
▁corre	-4867
▁gratu	-4868
▁canton	-4869
▁occupe	-4870
▁saison	-4871
▁trafic	-4872
médiaire	-4873
▁nicolas	-4874
▁dimension	-4875
▁60	-4876
oute	-4877
▁véhic	-4878
igration	-4879
▁régionale	-4880
▁mythologie	-4881
▁personnalités	-4882
▁représentations	-4883
cr	-4884
mus	-4885
mann	-4886
▁dér	-4887
▁fic	-4888
asion	-4889
▁vice	-4890
aliser	-4891
▁congo	-4892
▁million	-4893
▁remarqu	-4894
▁signific	-4895
▁condition	-4896
▁auparavant	-4897
10	-4898
▁bac	-4899
inves	-4900
▁inde	-4901
▁révol	-4902
▁vente	-4903
▁soumis	-4904
▁citoyens	-4905
▁cinquième	-4906
▁déclaration	-4907
élo	-4908
▁ax	-4909
auff	-4910
▁tôt	-4911
fices	-4912
▁wind	-4913
▁élab	-4914
▁court	-4915
▁douze	-4916
▁devint	-4917
▁suprême	-4918
uellement	-4919
▁responsable	-4920
▁(3	-4921
▁cé	-4922
nant	-4923
▁2012	-4924
osiris	-4925
▁concl	-4926
cemment	-4927
▁moteur	-4928
▁outils	-4929
▁thèmes	-4930
▁monuments	-4931
▁égyptiens	-4932
▁réalisation	-4933
ds	-4934
▁py	-4935
éron	-4936
ôles	-4937
▁2015	-4938
illent	-4939
▁jouer	-4940
▁nîmes	-4941
▁récit	-4942
▁espace	-4943
▁matern	-4944
▁privée	-4945
▁floride	-4946
▁milieux	-4947
▁approche	-4948
▁remplacé	-4949
▁réaction	-4950
▁opérations	-4951
alg	-4952
roy	-4953
mage	-4954
▁ici	-4955
▁orb	-4956
arabie	-4957
phabet	-4958
ergence	-4959
▁conven	-4960
▁couver	-4961
▁équival	-4962
▁peinture	-4963
▁profonde	-4964
▁montagnes	-4965
▁récemment	-4966
ho	-4967
ung	-4968
appu	-4969
atar	-4970
▁guy	-4971
▁caen	-4972
▁mill	-4973
▁perp	-4974
▁2016,	-4975
▁latine	-4976
▁gaulois	-4977
▁précise	-4978
▁portugal	-4979
▁théories	-4980
▁cathédrale	-4981
▁participation	-4982
ergé	-4983
ondes	-4984
▁2009	-4985
▁maur	-4986
▁reçu	-4987
▁sorti	-4988
▁école	-4989
▁active	-4990
▁composés	-4991
▁royaumes	-4992
▁travaille	-4993
▁correspondant	-4994
ly	-4995
ïn	-4996
intro	-4997
▁augus	-4998
▁signé	-4999
▁découp	-5000
occident	-5001
positions	-5002
▁bâtiments	-5003
▁catégories	-5004
▁considérés	-5005
▁deviennent	-5006
orb	-5007
ume	-5008
égu	-5009
avait	-5010
aïque	-5011
▁gare	-5012
▁formé	-5013
▁kilom	-5014
écution	-5015
▁littor	-5016
▁refuse	-5017
▁équipes	-5018
▁éditions	-5019
▁construire	-5020
▁ordinateurs	-5021
▁byz	-5022
▁riz	-5023
▁(199	-5024
▁épre	-5025
▁domes	-5026
▁envis	-5027
▁facil	-5028
isément	-5029
▁puisqu	-5030
étranger	-5031
▁libération	-5032
als	-5033
fice	-5034
isis	-5035
▁boy	-5036
▁2006	-5037
▁arrê	-5038
▁sugg	-5039
ortent	-5040
▁côtes	-5041
▁inclu	-5042
▁intég	-5043
▁local	-5044
▁abrite	-5045
▁allant	-5046
fil	-5047
fiée	-5048
êque	-5049
isées	-5050
itude	-5051
▁rené	-5052
▁1960,	-5053
▁inaug	-5054
ruption	-5055
▁rivière	-5056
▁mécanique	-5057
▁classification	-5058
jac	-5059
tab	-5060
roit	-5061
ynch	-5062
étant	-5063
▁chili	-5064
▁inten	-5065
▁mélan	-5066
▁stade	-5067
▁formule	-5068
▁divinité	-5069
▁montrent	-5070
▁successi	-5071
▁administrative	-5072
atie	-5073
leur	-5074
▁dub	-5075
▁pose	-5076
fiques	-5077
▁belge	-5078
▁indig	-5079
▁mythe	-5080
▁vieux	-5081
oiseaux	-5082
▁emprun	-5083
▁majeur	-5084
utiliser	-5085
▁acteurs	-5086
▁chacune	-5087
exception	-5088
dom	-5089
gin	-5090
hen	-5091
ixe	-5092
▁fasc	-5093
▁célèbres	-5094
▁gouverne	-5095
▁atteindre	-5096
▁applications	-5097
arts	-5098
▁bass	-5099
▁andré	-5100
▁polon	-5101
ciation	-5102
▁finance	-5103
mentation	-5104
▁fréquent	-5105
▁parvient	-5106
▁étudiants	-5107
▁convention	-5108
▁dinosaures	-5109
osawa	-5110
▁crit	-5111
▁ligue	-5112
▁minor	-5113
▁norme	-5114
kinhead	-5115
▁albert	-5116
▁joseph	-5117
▁rapports	-5118
▁connaître	-5119
▁hitchcock	-5120
▁ministres	-5121
▁particules	-5122
▁traduction	-5123
▁sn	-5124
rime	-5125
entiss	-5126
▁codes	-5127
▁const	-5128
▁mobil	-5129
▁prises	-5130
▁routes	-5131
▁alexand	-5132
▁kurosawa	-5133
em	-5134
ser	-5135
▁céré	-5136
▁perdu	-5137
▁chirac	-5138
▁partag	-5139
▁définit	-5140
▁espaces	-5141
▁liaison	-5142
▁introduit	-5143
▁chercheurs	-5144
▁importance	-5145
▁technologies	-5146
dans	-5147
mide	-5148
▁182	-5149
érance	-5150
▁associé	-5151
▁connues	-5152
▁interne	-5153
▁concepts	-5154
▁renouvel	-5155
▁milliards	-5156
▁initialement	-5157
ovis	-5158
rice	-5159
▁doctr	-5160
▁estim	-5161
▁hauts	-5162
▁chimie	-5163
▁existent	-5164
▁villages	-5165
cor	-5166
hit	-5167
onu	-5168
▁fn	-5169
▁pc	-5170
anes	-5171
▁xxe	-5172
erait	-5173
icien	-5174
oudre	-5175
▁pape	-5176
▁plats	-5177
▁sénat	-5178
▁plateau	-5179
▁décennies	-5180
▁définitivement	-5181
utif	-5182
▁eut	-5183
▁ott	-5184
alpes	-5185
ertal	-5186
étrie	-5187
▁dédi	-5188
▁unité	-5189
▁assimil	-5190
▁progrès	-5191
▁comprendre	-5192
▁constituée	-5193
4)	-5194
rég	-5195
ére	-5196
rase	-5197
▁liées	-5198
élevage	-5199
▁posséd	-5200
▁rejoint	-5201
▁réduire	-5202
▁sénégal	-5203
▁championn	-5204
▁collection	-5205
▁artificielle	-5206
▁indépendance	-5207
dan	-5208
his	-5209
▁22	-5210
homo	-5211
▁100	-5212
▁duc	-5213
▁isol	-5214
estres	-5215
éranto	-5216
▁héros	-5217
▁plans	-5218
▁pleine	-5219
▁musulman	-5220
▁quantique	-5221
▁stratégie	-5222
▁représentants	-5223
men	-5224
▁lié	-5225
▁2013,	-5226
étrique	-5227
▁gaulle	-5228
archipel	-5229
astronomie	-5230
▁totalement	-5231
▁amis	-5232
▁susc	-5233
▁accès	-5234
▁james	-5235
▁noire	-5236
▁nomme	-5237
▁champs	-5238
▁invent	-5239
▁relief	-5240
▁sujets	-5241
▁voient	-5242
andertal	-5243
▁maisons	-5244
▁windows	-5245
expérience	-5246
▁macarthur	-5247
▁opposition	-5248
▁producteur	-5249
ïs	-5250
▁lo	-5251
|*">	-5252
▁luc	-5253
▁vén	-5254
otion	-5255
sible	-5256
▁armée	-5257
▁chaud	-5258
▁match	-5259
▁menac	-5260
estonie	-5261
▁cannes	-5262
▁george	-5263
traction	-5264
▁inspiré	-5265
▁variété	-5266
▁violence	-5267
▁méditerranée	-5268
▁manifestations	-5269
.)	-5270
▁24	-5271
lent	-5272
oirs	-5273
▁lev	-5274
▁éli	-5275
autom	-5276
▁2002	-5277
▁bret	-5278
▁déte	-5279
▁flam	-5280
▁liné	-5281
▁illus	-5282
èlement	-5283
▁repose	-5284
objectif	-5285
▁entraîne	-5286
▁privilég	-5287
▁présenté	-5288
▁scénario	-5289
▁chrétienne	-5290
▁disparition	-5291
▁fabrication	-5292
▁démographique	-5293
▁reconnaissance	-5294
env	-5295
uler	-5296
▁den	-5297
▁dre	-5298
▁més	-5299
▁dane	-5300
▁corse	-5301
▁fruits	-5302
▁libres	-5303
affaires	-5304
▁déroule	-5305
▁hauteur	-5306
▁nationaux	-5307
▁classement	-5308
ja	-5309
ml	-5310
uff	-5311
▁er	-5312
loie	-5313
▁lyon	-5314
irlande	-5315
ulaires	-5316
▁écrite	-5317
altitude	-5318
▁contenu	-5319
▁plantes	-5320
▁reprise	-5321
▁bretagne	-5322
▁fondateur	-5323
▁étrangères	-5324
▁application	-5325
▁départemental	-5326
▁administration	-5327
blan	-5328
▁2005	-5329
▁2005,	-5330
▁conne	-5331
▁envah	-5332
▁recomm	-5333
quemment	-5334
▁assembl	-5335
▁auxquel	-5336
▁défaite	-5337
▁maladie	-5338
▁professionnels	-5339
ls	-5340
rien	-5341
▁lis	-5342
▁île	-5343
alise	-5344
▁asie	-5345
▁game	-5346
▁semi	-5347
▁mains	-5348
▁nette	-5349
▁plein	-5350
ènement	-5351
▁ouvert	-5352
▁édition	-5353
▁concours	-5354
▁pyrénées	-5355
▁préfecture	-5356
▁températures	-5357
▁bec	-5358
endum	-5359
eries	-5360
▁lion	-5361
▁paru	-5362
▁rece	-5363
▁2022,	-5364
▁impli	-5365
▁repos	-5366
▁déroul	-5367
▁contact	-5368
▁mettent	-5369
▁classiques	-5370
ôp	-5371
iel	-5372
lou	-5373
oum	-5374
-201	-5375
aste	-5376
enir	-5377
quet	-5378
▁air	-5379
▁pêche	-5380
▁satis	-5381
idegger	-5382
▁analyse	-5383
▁collège	-5384
▁catholiques	-5385
▁chose	-5386
▁quitte	-5387
▁reconnu	-5388
▁objectif	-5389
▁majoritairement	-5390
ko	-5391
sé	-5392
mit	-5393
wer	-5394
▁rav	-5395
ciens	-5396
effet	-5397
entin	-5398
▁frères	-5399
▁élevée	-5400
▁réformes	-5401
atmosphère	-5402
▁secondaire	-5403
▁changements	-5404
▁conséquences	-5405
▁kar	-5406
▁élo	-5407
antin	-5408
intég	-5409
ramme	-5410
▁vert	-5411
alisés	-5412
▁pense	-5413
▁récits	-5414
▁scènes	-5415
▁bernard	-5416
▁cinémat	-5417
▁répartition	-5418
89	-5419
ipp	-5420
mor	-5421
▁not	-5422
ousin	-5423
seine	-5424
▁bleu	-5425
▁brun	-5426
▁étym	-5427
études	-5428
▁circu	-5429
▁dirigé	-5430
▁salles	-5431
▁figures	-5432
▁commencé	-5433
▁danemark	-5434
exposition	-5435
▁travailler	-5436
▁différences	-5437
1)	-5438
▁max	-5439
▁perç	-5440
▁natur	-5441
▁banque	-5442
▁plaine	-5443
▁skinhead	-5444
application	-5445
new	-5446
oriz	-5447
élec	-5448
▁pur	-5449
▁sép	-5450
éries	-5451
▁claude	-5452
▁hausse	-5453
▁jusque	-5454
▁molière	-5455
▁rassemb	-5456
▁échanges	-5457
▁espagnole	-5458
▁impériale	-5459
▁musulmans	-5460
▁symbolique	-5461
▁fréquemment	-5462
▁bab	-5463
▁mob	-5464
intes	-5465
▁déch	-5466
▁juli	-5467
▁soir	-5468
▁espèce	-5469
▁enseign	-5470
▁mentionn	-5471
▁espagnols	-5472
▁développée	-5473
▁luxembourg	-5474
▁néandertal	-5475
▁universités	-5476
▁utilisation	-5477
fond	-5478
onym	-5479
▁bob	-5480
▁diam	-5481
▁vite	-5482
▁colle	-5483
ophones	-5484
▁parents	-5485
▁articles	-5486
▁monarchie	-5487
▁atlantique	-5488
▁biographie	-5489
informatique	-5490
▁américaines	-5491
die	-5492
uil	-5493
▁ky	-5494
▁hal	-5495
▁vesti	-5496
▁parent	-5497
aéroport	-5498
án	-5499
▁om	-5500
exer	-5501
▁chô	-5502
▁gla	-5503
...).	-5504
autor	-5505
▁argu	-5506
▁pomp	-5507
enfant	-5508
électr	-5509
▁henry	-5510
▁satur	-5511
érieurs	-5512
entissage	-5513
▁dirigeants	-5514
▁présentent	-5515
▁découvertes	-5516
3)	-5517
86	-5518
3),	-5519
gra	-5520
oncer	-5521
▁bill	-5522
▁sais	-5523
▁arabe	-5524
▁mécan	-5525
▁sacré	-5526
▁entour	-5527
▁procès	-5528
▁rythme	-5529
▁compose	-5530
▁faisait	-5531
▁publiée	-5532
notamment	-5533
▁intéress	-5534
▁printemps	-5535
▁puissances	-5536
▁0	-5537
amen	-5538
dios	-5539
lige	-5540
▁dét	-5541
allem	-5542
▁2014	-5543
accomp	-5544
existe	-5545
▁danse	-5546
▁envers	-5547
▁garanti	-5548
▁référendum	-5549
▁représenter	-5550
19	-5551
ît	-5552
ida	-5553
erse	-5554
well	-5555
▁lum	-5556
amour	-5557
ayant	-5558
horus	-5559
islam	-5560
étudi	-5561
▁mans	-5562
▁sanc	-5563
▁fabri	-5564
▁végét	-5565
individ	-5566
▁renaud	-5567
▁capable	-5568
▁mayenne	-5569
▁voisins	-5570
▁bâtiment	-5571
▁poursuit	-5572
▁recettes	-5573
▁infrastru	-5574
▁kilomètres	-5575
▁ordinateur	-5576
79	-5577
cou	-5578
ott	-5579
▁aj	-5580
▁sû	-5581
▁lie	-5582
▁sab	-5583
▁affi	-5584
▁carl	-5585
▁erre	-5586
▁liqu	-5587
▁susp	-5588
▁symp	-5589
▁lancé	-5590
entique	-5591
▁regard	-5592
▁volume	-5593
▁métropol	-5594
▁pauvreté	-5595
▁précision	-5596
▁psychologie	-5597
2)	-5598
35	-5599
cap	-5600
chy	-5601
sme	-5602
▁sah	-5603
▁bate	-5604
▁devi	-5605
▁hiér	-5606
▁merc	-5607
alogue	-5608
▁réfug	-5609
▁couche	-5610
▁périph	-5611
▁russes	-5612
érations	-5613
▁semaines	-5614
▁complexes	-5615
▁militants	-5616
▁transition	-5617
fie	-5618
uci	-5619
▁ja	-5620
monte	-5621
onale	-5622
▁gens	-5623
▁locu	-5624
▁légu	-5625
▁pétr	-5626
▁québ	-5627
▁réel	-5628
▁sauf	-5629
▁yeux	-5630
▁perte	-5631
▁poète	-5632
▁satisf	-5633
▁exclusi	-5634
▁conserve	-5635
▁symboles	-5636
▁viennent	-5637
▁immédiate	-5638
▁disponible	-5639
▁entreprise	-5640
bs	-5641
ect	-5642
uts	-5643
▁('	-5644
▁3,	-5645
phil	-5646
èche	-5647
▁sph	-5648
▁tom	-5649
▁from	-5650
▁affec	-5651
▁expos	-5652
▁rétab	-5653
▁christ	-5654
▁suppos	-5655
▁écrire	-5656
allemand	-5657
quie	-5658
▁rup	-5659
▁gall	-5660
▁rendu	-5661
éritage	-5662
▁donnent	-5663
essentiel	-5664
▁assassin	-5665
▁organisé	-5666
▁primaire	-5667
▁individus	-5668
▁historiens	-5669
▁travailleurs	-5670
ât	-5671
gues	-5672
▁chir	-5673
▁exis	-5674
▁homm	-5675
▁abond	-5676
▁faite	-5677
▁tokyo	-5678
▁calend	-5679
▁donnée	-5680
▁chaînes	-5681
▁moindre	-5682
▁tribunal	-5683
▁étrangère	-5684
▁association	-5685
▁démographie	-5686
ulée	-5687
▁bay	-5688
▁gnu	-5689
▁adul	-5690
▁chil	-5691
▁cord	-5692
▁green	-5693
▁poésie	-5694
novation	-5695
▁directe	-5696
▁lorraine	-5697
▁découvert	-5698
▁distinguer	-5699
▁judiciaire	-5700
▁processeur	-5701
▁coopération	-5702
▁parlementaire	-5703
▁internationaux	-5704
nel	-5705
▁bah	-5706
▁jav	-5707
▁réd	-5708
ariat	-5709
heure	-5710
impos	-5711
insee	-5712
éenne	-5713
▁inst	-5714
▁mary	-5715
▁pure	-5716
ington	-5717
tistes	-5718
▁maîtr	-5719
▁adopté	-5720
▁décret	-5721
▁montré	-5722
▁propag	-5723
▁caroling	-5724
▁extrêmement	-5725
▁transmission	-5726
cht	-5727
pre	-5728
▁mys	-5729
hôtel	-5730
times	-5731
▁frag	-5732
eterre	-5733
ilibre	-5734
▁arist	-5735
▁bosnie	-5736
▁studio	-5737
▁anthrop	-5738
▁chômage	-5739
▁mettant	-5740
▁campagnes	-5741
▁lancement	-5742
▁rapproche	-5743
ino	-5744
▁1950	-5745
▁2004	-5746
▁chev	-5747
▁borde	-5748
▁cultiv	-5749
▁diversi	-5750
▁mélange	-5751
▁chimique	-5752
▁rarement	-5753
▁architecture	-5754
▁contemporaine	-5755
▁précipitations	-5756
.).	-5757
-200	-5758
abri	-5759
olly	-5760
▁rot	-5761
▁fame	-5762
▁marc	-5763
▁mises	-5764
▁datant	-5765
▁listes	-5766
▁éviter	-5767
▁contrat	-5768
▁disques	-5769
▁comportement	-5770
lay	-5771
mif	-5772
sol	-5773
▁cd	-5774
▁ke	-5775
▁lé	-5776
▁éth	-5777
améli	-5778
tenus	-5779
istant	-5780
▁récup	-5781
▁portée	-5782
▁témoign	-5783
▁intitulé	-5784
▁angleterre	-5785
▁culturelles	-5786
ael	-5787
▁sm	-5788
ghan	-5789
mile	-5790
▁rig	-5791
▁sig	-5792
aises	-5793
chées	-5794
ultan	-5795
▁séqu	-5796
ailles	-5797
nexion	-5798
▁2002,	-5799
▁guill	-5800
▁pérou	-5801
▁trône	-5802
étaient	-5803
▁basket	-5804
▁bronze	-5805
▁député	-5806
▁genève	-5807
▁vienne	-5808
▁musical	-5809
▁chansons	-5810
▁médaille	-5811
▁stations	-5812
▁élection	-5813
▁concurrence	-5814
gen	-5815
▁pou	-5816
▁tax	-5817
affir	-5818
▁coût	-5819
ocrate	-5820
▁alpes	-5821
▁intér	-5822
▁parad	-5823
▁quart	-5824
▁vague	-5825
▁couple	-5826
▁dégrad	-5827
▁interd	-5828
▁phrase	-5829
▁posses	-5830
▁sanctu	-5831
▁définir	-5832
▁heidegger	-5833
▁possèdent	-5834
▁littéraires	-5835
▁colonisation	-5836
▁gouvernements	-5837
2),	-5838
œil	-5839
▁to	-5840
▁serp	-5841
ariste	-5842
▁temples	-5843
▁consacré	-5844
▁finlande	-5845
▁relative	-5846
▁objectifs	-5847
▁expérience	-5848
▁philosophique	-5849
▁universitaire	-5850
="">	-5851
▁nul	-5852
▁pcf	-5853
album	-5854
talle	-5855
▁fêtes	-5856
▁score	-5857
▁perfor	-5858
autriche	-5859
▁chrétien	-5860
▁habitant	-5861
▁maritime	-5862
▁protéger	-5863
▁nécessaires	-5864
pire	-5865
obile	-5866
▁logo	-5867
▁page	-5868
▁golfe	-5869
▁signes	-5870
isations	-5871
▁accessi	-5872
▁dépasse	-5873
▁hongrie	-5874
▁perform	-5875
▁télévis	-5876
▁réalisée	-5877
▁réserves	-5878
▁bénéficie	-5879
▁graphique	-5880
▁émissions	-5881
acts	-5882
éens	-5883
▁god	-5884
▁lup	-5885
denis	-5886
issue	-5887
▁tenu	-5888
▁qatar	-5889
▁récep	-5890
▁mythes	-5891
▁évoque	-5892
▁auraient	-5893
▁confront	-5894
▁espagnol	-5895
▁langages	-5896
▁recommand	-5897
▁ba	-5898
ommé	-5899
▁1999	-5900
▁toul	-5901
▁course	-5902
▁italien	-5903
▁proposé	-5904
▁richard	-5905
▁interdit	-5906
▁parallèle	-5907
▁similaire	-5908
▁systématique	-5909
interprétation	-5910
▁traditionnelles	-5911
)"	-5912
gon	-5913
cool	-5914
fred	-5915
▁wal	-5916
▁amén	-5917
▁four	-5918
onymie	-5919
ualité	-5920
▁menée	-5921
▁train	-5922
piration	-5923
▁généraux	-5924
▁machines	-5925
▁influencé	-5926
7)	-5927
pal	-5928
rob	-5929
illé	-5930
orld	-5931
rome	-5932
▁rog	-5933
duits	-5934
érées	-5935
▁basé	-5936
▁enne	-5937
indice	-5938
▁blues	-5939
▁comté	-5940
rations	-5941
▁fortes	-5942
identité	-5943
▁risques	-5944
argentine	-5945
▁catégorie	-5946
▁maintenir	-5947
▁succession	-5948
▁productions	-5949
▁caractéristique	-5950
posi	-5951
▁lex	-5952
hésion	-5953
onésie	-5954
▁défun	-5955
▁nomin	-5956
▁vivre	-5957
▁déclen	-5958
▁souris	-5959
▁ventes	-5960
▁caféine	-5961
▁mention	-5962
▁facteurs	-5963
▁monument	-5964
▁ouvrière	-5965
▁communistes	-5966
▁description	-5967
ren	-5968
sent	-5969
teau	-5970
▁2016	-5971
▁cart	-5972
▁fisc	-5973
▁neut	-5974
▁surve	-5975
▁bulgar	-5976
▁filles	-5977
bretagne	-5978
fications	-5979
▁augmente	-5980
▁fontaine	-5981
▁investis	-5982
▁bourgogne	-5983
▁facilement	-5984
▁précisément	-5985
▁transformation	-5986
mod	-5987
obi	-5988
wood	-5989
▁cav	-5990
▁châ	-5991
▁isra	-5992
▁naît	-5993
▁rach	-5994
iscard	-5995
ortant	-5996
ricité	-5997
▁immig	-5998
▁ouvre	-5999
▁synta	-6000
▁maximum	-6001
▁suivent	-6002
▁vigueur	-6003
▁chimiques	-6004
▁"",	-6005
▁bras	-6006
▁empê	-6007
▁tran	-6008
calade	-6009
▁2004,	-6010
▁débit	-6011
▁lynch	-6012
▁manip	-6013
▁arabes	-6014
▁mammif	-6015
▁polici	-6016
▁séries	-6017
▁autoris	-6018
▁paysans	-6019
▁remonte	-6020
▁ferroviaire	-6021
▁spécifiques	-6022
▁restauration	-6023
cha	-6024
ken	-6025
pol	-6026
quoi	-6027
▁cryp	-6028
▁joué	-6029
▁poly	-6030
▁subdi	-6031
▁justif	-6032
▁quinze	-6033
▁servir	-6034
▁situés	-6035
▁solution	-6036
▁réduction	-6037
▁régionaux	-6038
▁écrivains	-6039
intelligence	-6040
▁associations	-6041
▁traditionnel	-6042
▁traditionnels	-6043
▁révolutionnaire	-6044
don	-6045
lée	-6046
onte	-6047
▁vise	-6048
tantin	-6049
▁auquel	-6050
▁compter	-6051
▁giscard	-6052
▁simples	-6053
ortations	-6054
▁tournage	-6055
▁italienne	-6056
68	-6057
5),	-6058
iro	-6059
ple	-6060
guer	-6061
élis	-6062
▁sév	-6063
ister	-6064
▁amen	-6065
▁1999,	-6066
▁réduit	-6067
▁réussi	-6068
▁salari	-6069
endemain	-6070
▁compréh	-6071
▁section	-6072
▁soutient	-6073
▁dynamique	-6074
▁théorique	-6075
▁électeurs	-6076
▁universelle	-6077
▁conservation	-6078
▁particulière	-6079
roï	-6080
arer	-6081
▁sega	-6082
▁sond	-6083
issait	-6084
ordonn	-6085
▁perse	-6086
▁venus	-6087
▁financ	-6088
▁normes	-6089
▁pétrol	-6090
▁révèle	-6091
▁semaine	-6092
▁dessinée	-6093
▁épreuves	-6094
ordinateur	-6095
▁logements	-6096
▁matériaux	-6097
▁proportion	-6098
▁reconstitu	-6099
▁70	-6100
▁ari	-6101
▁étro	-6102
▁céléb	-6103
▁parlé	-6104
▁privé	-6105
échelle	-6106
▁baptis	-6107
▁urbain	-6108
▁espagne	-6109
▁normand	-6110
▁réponse	-6111
▁situées	-6112
▁culturels	-6113
▁métropole	-6114
▁promotion	-6115
▁utilisateurs	-6116
5)	-6117
qua	-6118
▁dot	-6119
▁mix	-6120
rants	-6121
▁suéd	-6122
▁chang	-6123
▁dicta	-6124
▁compati	-6125
▁donnant	-6126
▁soldats	-6127
onciation	-6128
▁occidentaux	-6129
▁concentration	-6130
zé	-6131
rig	-6132
▁28	-6133
▁sté	-6134
▁berg	-6135
▁pant	-6136
ophone	-6137
▁lupin	-6138
▁verts	-6139
ensions	-6140
lauréat	-6141
▁convain	-6142
▁longues	-6143
▁studios	-6144
▁littoral	-6145
▁contenant	-6146
▁partisans	-6147
▁télécommun	-6148
zu	-6149
mas	-6150
mat	-6151
ube	-6152
▁bol	-6153
▁ros	-6154
▁2018	-6155
▁2020	-6156
▁dure	-6157
▁jobs	-6158
▁pyth	-6159
chimie	-6160
instru	-6161
▁actes	-6162
▁faune	-6163
▁parta	-6164
▁enfant	-6165
▁guinée	-6166
▁puisse	-6167
▁suivre	-6168
▁découvre	-6169
▁physiques	-6170
▁universel	-6171
▁caractérise	-6172
zz	-6173
osse	-6174
▁fol	-6175
▁néo	-6176
isent	-6177
▁pier	-6178
▁chass	-6179
▁porté	-6180
▁suède	-6181
▁choses	-6182
▁métaph	-6183
▁devrait	-6184
▁portent	-6185
▁tournée	-6186
▁cellules	-6187
▁fossiles	-6188
▁meilleurs	-6189
▁protocole	-6190
▁commencent	-6191
▁représentée	-6192
▁connaissances	-6193
ical	-6194
seud	-6195
▁far	-6196
▁sap	-6197
tième	-6198
trait	-6199
▁fili	-6200
▁idée	-6201
▁choisi	-6202
▁relève	-6203
▁déclaré	-6204
▁perspec	-6205
▁colonies	-6206
▁efficace	-6207
▁enregistre	-6208
▁90	-6209
▁mê	-6210
adop	-6211
▁fas	-6212
▁foi	-6213
▁nat	-6214
éraux	-6215
▁(201	-6216
▁bles	-6217
▁ment	-6218
▁renv	-6219
claves	-6220
instar	-6221
▁bible	-6222
▁roche	-6223
▁sacri	-6224
▁surré	-6225
▁verne	-6226
entures	-6227
▁papier	-6228
▁poèmes	-6229
▁vivent	-6230
▁licence	-6231
▁médecin	-6232
▁partout	-6233
▁reptiles	-6234
▁pollution	-6235
▁industriel	-6236
▁obligatoire	-6237
64	-6238
gly	-6239
aies	-6240
jean	-6241
▁alg	-6242
▁gir	-6243
▁tch	-6244
▁tol	-6245
▁élè	-6246
idité	-6247
▁2017	-6248
▁flux	-6249
▁pôle	-6250
▁sait	-6251
▁menace	-6252
▁fédéral	-6253
▁prêtres	-6254
▁recours	-6255
▁autonome	-6256
▁croyances	-6257
▁cérémonie	-6258
▁lendemain	-6259
▁constantin	-6260
▁financière	-6261
▁000	-6262
chron	-6263
indou	-6264
parti	-6265
tration	-6266
▁anubis	-6267
▁crimin	-6268
▁marche	-6269
▁branche	-6270
▁développés	-6271
▁résidences	-6272
▁sociologie	-6273
▁territoriale	-6274
58	-6275
auc	-6276
▁27	-6277
▁31	-6278
film	-6279
ving	-6280
▁ken	-6281
ceaux	-6282
▁lacs	-6283
▁sony	-6284
itimes	-6285
▁stric	-6286
jection	-6287
▁méridi	-6288
▁rappro	-6289
▁traits	-6290
alphabet	-6291
▁maîtres	-6292
▁privées	-6293
▁vallées	-6294
▁complète	-6295
▁retrouver	-6296
▁propriétaires	-6297
jeu	-6298
win	-6299
ôts	-6300
▁ec	-6301
▁gh	-6302
ader	-6303
effec	-6304
éracl	-6305
▁2001	-6306
▁lire	-6307
illers	-6308
▁biens	-6309
▁canal	-6310
obtenir	-6311
▁thomas	-6312
▁traces	-6313
▁vérité	-6314
auvergne	-6315
▁annoncé	-6316
▁influences	-6317
ima	-6318
pin	-6319
▁26	-6320
nois	-6321
œurs	-6322
▁iii	-6323
tible	-6324
autant	-6325
intosh	-6326
▁évalu	-6327
▁colomb	-6328
▁ration	-6329
▁appréci	-6330
▁légende	-6331
▁oiseaux	-6332
▁autorité	-6333
▁bordeaux	-6334
▁chapelle	-6335
▁dizaines	-6336
▁victimes	-6337
▁disposition	-6338
▁touristique	-6339
aka	-6340
lav	-6341
arme	-6342
plus	-6343
érir	-6344
ellén	-6345
inion	-6346
▁durk	-6347
▁léon	-6348
▁tire	-6349
▁évid	-6350
▁exécu	-6351
▁berlin	-6352
▁surnom	-6353
▁prenant	-6354
▁augmenté	-6355
▁pourquoi	-6356
tionnaires	-6357
▁signature	-6358
▁tentative	-6359
▁mammifères	-6360
▁indépendante	-6361
▁hé	-6362
osex	-6363
oule	-6364
manie	-6365
▁venir	-6366
▁musées	-6367
ositions	-6368
émergence	-6369
▁ouvriers	-6370
▁poursuiv	-6371
▁progress	-6372
▁souhaite	-6373
▁génétique	-6374
▁infrastructures	-6375
rict	-6376
▁2019	-6377
▁couv	-6378
▁inég	-6379
▁quoi	-6380
guerre	-6381
ourage	-6382
▁liban	-6383
▁param	-6384
▁union	-6385
▁atomes	-6386
▁désert	-6387
▁pertur	-6388
▁seules	-6389
▁poisson	-6390
▁provoque	-6391
▁possibles	-6392
édé	-6393
jour	-6394
▁fus	-6395
▁corp	-6396
▁gamme	-6397
▁fournit	-6398
▁pouvaient	-6399
▁précédent	-6400
▁controvers	-6401
▁commerciaux	-6402
io	-6403
7),	-6404
gae	-6405
▁io	-6406
ases	-6407
ford	-6408
gare	-6409
▁océ	-6410
▁sun	-6411
▁souv	-6412
▁ampli	-6413
▁comte	-6414
▁libér	-6415
▁anarch	-6416
▁millén	-6417
▁élimin	-6418
▁élèves	-6419
olutions	-6420
▁contras	-6421
▁disparu	-6422
▁divisée	-6423
▁féminin	-6424
térieures	-6425
▁associés	-6426
▁décennie	-6427
▁richesse	-6428
▁construite	-6429
▁enseignement	-6430
6)	-6431
88	-6432
▁dj	-6433
amén	-6434
▁auv	-6435
▁bor	-6436
▁pes	-6437
apple	-6438
▁abord	-6439
▁divisé	-6440
▁décidé	-6441
▁capital	-6442
▁soutenir	-6443
▁intérieur	-6444
▁provenant	-6445
▁climatique	-6446
ègre	-6447
émique	-6448
▁rites	-6449
▁cuivre	-6450
▁entend	-6451
▁genres	-6452
▁orthod	-6453
▁protég	-6454
▁concert	-6455
▁méthane	-6456
▁légèrement	-6457
▁organismes	-6458
▁participer	-6459
▁considèrent	-6460
▁contemporains	-6461
itz	-6462
▁tâ	-6463
▁arc	-6464
▁baie	-6465
▁vaut	-6466
▁basée	-6467
▁cesse	-6468
▁décès	-6469
▁issue	-6470
▁peint	-6471
▁placé	-6472
▁acquis	-6473
▁débats	-6474
▁repris	-6475
▁dénomin	-6476
▁anglaise	-6477
▁durkheim	-6478
▁favorable	-6479
▁apparition	-6480
introduction	-6481
▁distinction	-6482
▁statistiques	-6483
icon	-6484
épin	-6485
▁sexe	-6486
▁biais	-6487
▁finit	-6488
▁primi	-6489
▁pseud	-6490
▁reine	-6491
▁varie	-6492
atoires	-6493
identif	-6494
▁explic	-6495
▁franch	-6496
▁austral	-6497
▁entière	-6498
▁vainque	-6499
▁antiques	-6500
▁juridique	-6501
▁développent	-6502
.,	-6503
21	-6504
ye	-6505
ave	-6506
cre	-6507
ker	-6508
way	-6509
afric	-6510
▁extr	-6511
espèce	-6512
érogly	-6513
▁brive	-6514
▁clubs	-6515
▁trait	-6516
érences	-6517
▁clovis	-6518
▁nourrit	-6519
▁termine	-6520
expansion	-6521
▁organise	-6522
▁spatiale	-6523
▁médailles	-6524
▁organisée	-6525
uy	-6526
bie	-6527
wan	-6528
ôte	-6529
alors	-6530
▁cosm	-6531
▁pros	-6532
▁2001,	-6533
▁revenu	-6534
▁secret	-6535
matiques	-6536
▁antérie	-6537
▁pauvres	-6538
ghanistan	-6539
▁algorith	-6540
▁conseils	-6541
▁critères	-6542
▁extension	-6543
▁germanique	-6544
▁producteurs	-6545
▁indépendants	-6546
▁exclusivement	-6547
▁historiquement	-6548
4),	-6549
aib	-6550
jan	-6551
▁sk	-6552
inet	-6553
mond	-6554
ward	-6555
▁aqu	-6556
▁bén	-6557
▁pel	-6558
▁bits	-6559
▁dram	-6560
▁2021,	-6561
▁aires	-6562
▁céles	-6563
▁assure	-6564
▁cultes	-6565
▁limité	-6566
▁nommée	-6567
▁église	-6568
▁intégré	-6569
▁minutes	-6570
▁constante	-6571
▁deviendra	-6572
▁calendrier	-6573
▁processeurs	-6574
▁complètement	-6575
gal	-6576
ost	-6577
cice	-6578
comm	-6579
cées	-6580
rets	-6581
utée	-6582
mbles	-6583
écran	-6584
▁lour	-6585
▁sncf	-6586
▁conçu	-6587
▁expli	-6588
hétique	-6589
versité	-6590
▁cercle	-6591
▁morale	-6592
▁éloign	-6593
▁actuels	-6594
▁norvège	-6595
▁radical	-6596
▁liaisons	-6597
▁provient	-6598
atlantique	-6599
▁présentes	-6600
▁réflexion	-6601
▁successeur	-6602
▁disciplines	-6603
hib	-6604
clav	-6605
stra	-6606
esses	-6607
▁cler	-6608
acteur	-6609
utique	-6610
▁dépos	-6611
▁manga	-6612
▁repas	-6613
▁surpr	-6614
jacques	-6615
▁classé	-6616
▁penser	-6617
▁prison	-6618
▁sortir	-6619
estation	-6620
▁entités	-6621
▁intérêt	-6622
▁ouverte	-6623
▁traités	-6624
▁typique	-6625
▁profondément	-6626
[[	-6627
ft	-6628
▁23	-6629
...]	-6630
amin	-6631
velt	-6632
▁deb	-6633
▁vul	-6634
iance	-6635
louis	-6636
▁volc	-6637
ivoire	-6638
▁indic	-6639
▁courte	-6640
▁mètres	-6641
▁orbite	-6642
actuelle	-6643
▁blanche	-6644
▁cantons	-6645
espéranto	-6646
▁photographie	-6647
sud	-6648
ycl	-6649
iger	-6650
mant	-6651
trac	-6652
commun	-6653
▁label	-6654
▁plant	-6655
▁ports	-6656
▁relev	-6657
osevelt	-6658
▁advers	-6659
▁becket	-6660
▁culmin	-6661
▁réform	-6662
▁desserv	-6663
▁appelées	-6664
▁doctrine	-6665
▁limousin	-6666
▁concentre	-6667
▁démission	-6668
▁signifiant	-6669
augmentation	-6670
▁philosophes	-6671
▁considérable	-6672
book	-6673
ogun	-6674
phes	-6675
▁gos	-6676
▁lag	-6677
ygène	-6678
▁géné	-6679
▁quad	-6680
▁barre	-6681
▁heure	-6682
▁aspect	-6683
▁imagin	-6684
tionnels	-6685
▁échange	-6686
▁hiérogly	-6687
▁missions	-6688
▁urbaines	-6689
▁roosevelt	-6690
▁appartient	-6691
yde	-6692
aing	-6693
umul	-6694
▁rol	-6695
cinny	-6696
marne	-6697
▁2013	-6698
▁rare	-6699
▁envir	-6700
▁recon	-6701
▁accepte	-6702
▁accords	-6703
exécution	-6704
▁généalog	-6705
▁synthèse	-6706
▁guillaume	-6707
▁variantes	-6708
▁appartenant	-6709
▁préparation	-6710
▁commerciales	-6711
▁contemporain	-6712
so	-6713
har	-6714
kar	-6715
anda	-6716
▁cot	-6717
▁jés	-6718
diens	-6719
franç	-6720
▁rhin	-6721
▁rues	-6722
▁vrai	-6723
▁créés	-6724
▁pluri	-6725
▁daniel	-6726
▁montée	-6727
▁hommage	-6728
▁laisser	-6729
▁visible	-6730
historien	-6731
▁destinée	-6732
▁hongrois	-6733
▁multipli	-6734
▁tensions	-6735
▁touristes	-6736
▁différente	-6737
▁étymologie	-6738
aga	-6739
avi	-6740
dor	-6741
hel	-6742
iert	-6743
ings	-6744
çons	-6745
▁dig	-6746
▁aide	-6747
▁aura	-6748
▁west	-6749
rières	-6750
▁degré	-6751
▁faute	-6752
▁world	-6753
estaing	-6754
inverse	-6755
▁franco	-6756
▁issues	-6757
▁reggae	-6758
▁colonie	-6759
▁réunion	-6760
▁macintosh	-6761
▁conséquent	-6762
▁résolution	-6763
▁manifestation	-6764
▁parallèlement	-6765
59	-6766
hu	-6767
str	-6768
ueil	-6769
▁péd	-6770
insta	-6771
osité	-6772
▁cime	-6773
▁jury	-6774
▁lait	-6775
▁vide	-6776
érindi	-6777
▁[...]	-6778
▁frank	-6779
▁gagne	-6780
▁monte	-6781
affaire	-6782
éraclès	-6783
▁bandes	-6784
▁débute	-6785
▁moteurs	-6786
▁potenti	-6787
▁quotidien	-6788
▁municipales	-6789
▁équipements	-6790
▁présentation	-6791
cop	-6792
cré	-6793
▁(,	-6794
▁née	-6795
elley	-6796
▁abré	-6797
▁cass	-6798
▁indo	-6799
ysique	-6800
▁steve	-6801
▁thèse	-6802
▁déplac	-6803
▁jardin	-6804
▁preuve	-6805
▁visite	-6806
▁céleste	-6807
▁employé	-6808
▁géorgie	-6809
▁illustr	-6810
▁musicale	-6811
▁noblesse	-6812
▁parcours	-6813
odiversité	-6814
▁comprenant	-6815
▁gouverneur	-6816
aya	-6817
▁4,	-6818
orta	-6819
oiles	-6820
diques	-6821
▁boule	-6822
▁frais	-6823
▁occas	-6824
▁sucre	-6825
▁estimé	-6826
▁fortif	-6827
▁privés	-6828
▁victor	-6829
▁assurer	-6830
▁prolong	-6831
▁exprimés	-6832
▁goscinny	-6833
▁christian	-6834
▁expliquer	-6835
▁fréquence	-6836
▁formations	-6837
▁comparaison	-6838
45	-6839
hal	-6840
lieu	-6841
opri	-6842
agent	-6843
rains	-6844
▁véri	-6845
accent	-6846
▁napol	-6847
▁matières	-6848
▁semblent	-6849
▁troubles	-6850
▁spectacle	-6851
▁corruption	-6852
▁déterminer	-6853
▁popularité	-6854
▁proposition	-6855
▁responsabilité	-6856
ido	-6857
inn	-6858
jus	-6859
▁az	-6860
▁gui	-6861
estes	-6862
▁vent	-6863
oncent	-6864
▁chale	-6865
▁lourd	-6866
▁pages	-6867
▁parcs	-6868
▁porter	-6869
▁suivie	-6870
▁conform	-6871
▁proclam	-6872
▁procédé	-6873
▁employés	-6874
▁thaïlande	-6875
▁biologique	-6876
▁clairement	-6877
▁exportations	-6878
▁collectivités	-6879
▁archéologiques	-6880
nd	-6881
bar	-6882
▁//	-6883
▁hos	-6884
seurs	-6885
▁fixe	-6886
▁josé	-6887
▁1950,	-6888
▁échec	-6889
alition	-6890
archite	-6891
▁ordres	-6892
▁précis	-6893
▁beckett	-6894
▁destiné	-6895
▁majeurs	-6896
▁michael	-6897
▁reconnue	-6898
▁seigneur	-6899
▁variable	-6900
▁dialectes	-6901
▁nécessité	-6902
▁architectur	-6903
▁conseillers	-6904
▁industriels	-6905
▁journaliste	-6906
▁personnalité	-6907
bri	-6908
mun	-6909
▁cn	-6910
enci	-6911
orée	-6912
▁vac	-6913
▁exac	-6914
▁mène	-6915
▁habit	-6916
▁ottom	-6917
▁syste	-6918
▁vichy	-6919
▁couvre	-6920
▁imprim	-6921
▁pointe	-6922
▁portes	-6923
▁rappel	-6924
escalade	-6925
▁lecteur	-6926
▁records	-6927
▁collabor	-6928
▁structur	-6929
▁coalition	-6930
▁intérieure	-6931
',	-6932
-2	-6933
33	-6934
fa	-6935
ico	-6936
ople	-6937
▁cur	-6938
ement	-6939
illée	-6940
veurs	-6941
▁1998,	-6942
▁belle	-6943
▁mario	-6944
▁plais	-6945
▁resse	-6946
attaque	-6947
▁froide	-6948
▁valéry	-6949
▁catastr	-6950
▁emplois	-6951
▁lunaire	-6952
▁shelley	-6953
▁intérêts	-6954
▁tournant	-6955
▁bourgeois	-6956
▁nettement	-6957
▁industries	-6958
▁destruction	-6959
▁commandement	-6960
hr	-6961
ena	-6962
rel	-6963
▁brû	-6964
alger	-6965
téroï	-6966
échal	-6967
▁tiss	-6968
allier	-6969
▁crist	-6970
▁facul	-6971
▁morte	-6972
▁êtres	-6973
▁disposi	-6974
issements	-6975
▁attaques	-6976
▁répondre	-6977
▁appareils	-6978
▁contribue	-6979
▁locuteurs	-6980
▁satellite	-6981
▁réputation	-6982
▁biodiversité	-6983
76	-6984
my	-6985
ney	-6986
▁ign	-6987
▁neu	-6988
▁pav	-6989
▁pin	-6990
▁von	-6991
grand	-6992
taine	-6993
▁rive	-6994
▁soix	-6995
▁drape	-6996
▁suici	-6997
dessous	-6998
▁marcel	-6999
▁pluton	-7000
invasion	-7001
▁attaque	-7002
▁journée	-7003
▁perturb	-7004
▁recueil	-7005
▁rupture	-7006
▁contribué	-7007
électricité	-7008
▁originaire	-7009
apprentissage	-7010
1),	-7011
bal	-7012
▁5,	-7013
ajou	-7014
atom	-7015
iées	-7016
▁bin	-7017
▁exig	-7018
actuel	-7019
appell	-7020
quette	-7021
unesco	-7022
▁annex	-7023
▁coura	-7024
▁croix	-7025
▁hôtel	-7026
▁maine	-7027
assurer	-7028
▁accent	-7029
▁parois	-7030
▁soudan	-7031
▁égypte	-7032
explique	-7033
▁choisit	-7034
▁légumes	-7035
▁perpétu	-7036
▁pierres	-7037
▁prisonn	-7038
▁byzantin	-7039
▁moyennes	-7040
▁médecins	-7041
▁polonais	-7042
▁terrestres	-7043
wn	-7044
▁blé	-7045
▁due	-7046
▁fmi	-7047
▁gas	-7048
▁lig	-7049
▁lot	-7050
▁sém	-7051
▁wat	-7052
agers	-7053
▁irré	-7054
énieur	-7055
▁2010.	-7056
▁glace	-7057
▁human	-7058
éthique	-7059
▁banlie	-7060
▁libert	-7061
▁aliment	-7062
▁paysage	-7063
ashington	-7064
▁condamné	-7065
▁indigènes	-7066
▁primaires	-7067
▁compétences	-7068
▁progression	-7069
anthropologie	-7070
jon	-7071
pht	-7072
roi	-7073
▁câ	-7074
élab	-7075
▁blo	-7076
▁cog	-7077
▁ham	-7078
▁pom	-7079
▁tro	-7080
▁vou	-7081
léans	-7082
peace	-7083
▁cycl	-7084
aspect	-7085
▁labor	-7086
▁schém	-7087
▁tenir	-7088
▁triom	-7089
▁écran	-7090
▁colons	-7091
▁québec	-7092
▁remise	-7093
▁tourne	-7094
▁tribus	-7095
▁prétend	-7096
▁annuelle	-7097
▁bulgarie	-7098
▁conservé	-7099
▁exécutif	-7100
▁italiens	-7101
▁sportifs	-7102
▁islamique	-7103
▁apparaître	-7104
▁commerciale	-7105
▁rayonnement	-7106
▁compréhension	-7107
ju	-7108
sl	-7109
2).	-7110
ium	-7111
tus	-7112
▁fé	-7113
hman	-7114
rimé	-7115
romp	-7116
tain	-7117
armes	-7118
▁pain	-7119
istent	-7120
▁1995,	-7121
▁afflu	-7122
▁noirs	-7123
▁power	-7124
ibilité	-7125
▁actifs	-7126
▁rester	-7127
▁apporte	-7128
▁fiction	-7129
▁limitée	-7130
▁retrait	-7131
▁champion	-7132
▁charente	-7133
▁rivières	-7134
▁pourraient	-7135
▁variations	-7136
▁participent	-7137
49	-7138
obe	-7139
ref	-7140
▁75	-7141
▁pé	-7142
ject	-7143
lame	-7144
ling	-7145
▁asc	-7146
▁soi	-7147
appui	-7148
cence	-7149
▁engl	-7150
▁héri	-7151
▁unif	-7152
ôpital	-7153
▁prévu	-7154
▁client	-7155
▁légend	-7156
▁parole	-7157
▁shogun	-7158
▁simpli	-7159
▁combats	-7160
▁dirigée	-7161
▁optique	-7162
▁soutenu	-7163
▁alliance	-7164
▁attendre	-7165
▁chinoise	-7166
▁destinés	-7167
▁paysages	-7168
▁transmis	-7169
▁industrie	-7170
▁inférieur	-7171
▁couramment	-7172
▁responsables	-7173
jis	-7174
ump	-7175
abil	-7176
ison	-7177
▁nag	-7178
▁pay	-7179
▁ski	-7180
▁tac	-7181
▁surn	-7182
▁trés	-7183
ouvoir	-7184
▁capac	-7185
▁neutr	-7186
oxygène	-7187
▁paraît	-7188
▁répert	-7189
▁autrich	-7190
▁décrire	-7191
président	-7192
▁attribué	-7193
▁consoles	-7194
▁journaux	-7195
▁répartis	-7196
▁écriture	-7197
▁dominante	-7198
▁nécessite	-7199
▁résidence	-7200
▁variables	-7201
▁difficulté	-7202
▁expressions	-7203
▁immédiatement	-7204
axe	-7205
itr	-7206
élu	-7207
mium	-7208
ogée	-7209
sive	-7210
teil	-7211
▁aus	-7212
auche	-7213
▁dits	-7214
▁sœur	-7215
▁frapp	-7216
▁grimp	-7217
▁manus	-7218
▁madrid	-7219
▁venant	-7220
▁élevés	-7221
▁communi	-7222
▁navires	-7223
▁énergie	-7224
▁archives	-7225
▁dépenses	-7226
▁manifeste	-7227
▁positions	-7228
▁quasiment	-7229
▁financement	-7230
▁soviétiques	-7231
gh	-7232
pc	-7233
gol	-7234
aute	-7235
▁émo	-7236
ombre	-7237
▁clin	-7238
▁jack	-7239
itions	-7240
oppose	-7241
rivent	-7242
▁1990.	-7243
▁dynam	-7244
▁serre	-7245
artiste	-7246
▁troupe	-7247
hypothèse	-7248
▁accident	-7249
▁empereur	-7250
▁festivals	-7251
▁rassemble	-7252
▁impossible	-7253
▁instrument	-7254
installation	-7255
."	-7256
dy	-7257
rè	-7258
▁35	-7259
mala	-7260
▁cac	-7261
▁cub	-7262
▁féc	-7263
ciers	-7264
osaur	-7265
▁hall	-7266
▁marx	-7267
agence	-7268
▁achev	-7269
▁ferme	-7270
▁subit	-7271
▁blancs	-7272
▁entrée	-7273
▁statue	-7274
▁antoine	-7275
▁comédie	-7276
▁confond	-7277
▁limiter	-7278
▁figurent	-7279
▁réalisés	-7280
▁découpage	-7281
▁considérer	-7282
▁proprement	-7283
▁championnat	-7284
▁expériences	-7285
ity	-7286
œuf	-7287
ître	-7288
▁coc	-7289
anski	-7290
bonne	-7291
ougos	-7292
raire	-7293
tallé	-7294
▁audi	-7295
écrire	-7296
▁aller	-7297
▁holly	-7298
▁linux	-7299
▁roger	-7300
▁voter	-7301
▁égypt	-7302
illance	-7303
▁inconn	-7304
▁patron	-7305
approche	-7306
installe	-7307
▁absolue	-7308
▁couches	-7309
▁peuplée	-7310
▁amérindi	-7311
▁créateur	-7312
▁linéaire	-7313
▁maréchal	-7314
▁substitu	-7315
▁traverse	-7316
▁différent	-7317
▁reconnaît	-7318
▁occidental	-7319
▁écologique	-7320
▁instruments	-7321
▁particuliers	-7322
▁signification	-7323
cts	-7324
hou	-7325
sif	-7326
éph	-7327
▁(5	-7328
▁178	-7329
▁city	-7330
▁beaux	-7331
▁camer	-7332
▁dites	-7333
▁enter	-7334
ducteur	-7335
tenance	-7336
▁divine	-7337
▁maladi	-7338
▁occupé	-7339
▁réelle	-7340
▁trouvé	-7341
▁voisin	-7342
▁dizaine	-7343
▁efforts	-7344
▁occasion	-7345
▁découvrir	-7346
▁potentiel	-7347
▁compétitions	-7348
ick	-7349
▁pun	-7350
divin	-7351
ieuse	-7352
isses	-7353
opota	-7354
roise	-7355
truis	-7356
▁1995	-7357
▁1998	-7358
▁choc	-7359
▁cous	-7360
opolis	-7361
atemala	-7362
▁ajoute	-7363
▁croiss	-7364
▁hellén	-7365
▁impact	-7366
▁désigné	-7367
▁établit	-7368
équilibre	-7369
▁minorité	-7370
▁capacités	-7371
▁conserver	-7372
▁funéraire	-7373
▁remplacer	-7374
▁répression	-7375
▁séparation	-7376
▁descendants	-7377
▁financières	-7378
▁administratives	-7379
▁45	-7380
ajout	-7381
▁canc	-7382
▁myst	-7383
otique	-7384
quants	-7385
tenues	-7386
▁longs	-7387
▁rôles	-7388
égalité	-7389
industri	-7390
▁plaines	-7391
▁réserve	-7392
▁révolte	-7393
▁souligne	-7394
▁médiévale	-7395
▁skinheads	-7396
immigration	-7397
intégration	-7398
▁expression	-7399
▁tentatives	-7400
▁circulation	-7401
▁quotidienne	-7402
établissement	-7403
7).	-7404
ppe	-7405
▁gi	-7406
-199	-7407
harm	-7408
lair	-7409
lion	-7410
sept	-7411
vité	-7412
yrus	-7413
▁kub	-7414
▁rio	-7415
▁vot	-7416
liers	-7417
rhône	-7418
▁plat	-7419
ensive	-7420
membre	-7421
▁brass	-7422
▁mines	-7423
▁tenue	-7424
▁analog	-7425
▁démons	-7426
▁nommés	-7427
▁terror	-7428
▁étudie	-7429
abulaire	-7430
▁mauvais	-7431
▁astronom	-7432
▁installé	-7433
▁maintien	-7434
▁remplace	-7435
▁remporté	-7436
▁toulouse	-7437
▁écrivain	-7438
▁décisions	-7439
▁grammaire	-7440
▁municipal	-7441
▁officiels	-7442
▁originale	-7443
▁construits	-7444
▁similaires	-7445
▁souverains	-7446
▁souveraineté	-7447
▁suffisamment	-7448
39	-7449
cés	-7450
dame	-7451
mins	-7452
▁ald	-7453
▁eau	-7454
▁fir	-7455
urgie	-7456
▁stan	-7457
impact	-7458
▁2003,	-7459
▁ajout	-7460
▁juive	-7461
▁narra	-7462
▁pépin	-7463
opinion	-7464
zélande	-7465
▁animal	-7466
▁danger	-7467
▁défunt	-7468
▁inclut	-7469
ortation	-7470
▁raconte	-7471
amsterdam	-7472
▁impérial	-7473
▁napoléon	-7474
▁parfaite	-7475
▁amsterdam	-7476
▁guatemala	-7477
▁installés	-7478
observation	-7479
▁maternelle	-7480
66	-7481
anz	-7482
bor	-7483
cro	-7484
▁mc	-7485
▁jér	-7486
essor	-7487
évalu	-7488
▁brev	-7489
▁goth	-7490
▁land	-7491
mances	-7492
strong	-7493
▁essor	-7494
▁maroc	-7495
garonne	-7496
▁décern	-7497
▁mangas	-7498
▁phases	-7499
▁provis	-7500
▁suscep	-7501
ressionn	-7502
▁phénici	-7503
▁quitter	-7504
▁maladies	-7505
▁rassembl	-7506
▁cinquante	-7507
▁rejoindre	-7508
▁greenpeace	-7509
▁alimentaire	-7510
▁personnelle	-7511
▁performances	-7512
11	-7513
ep	-7514
mie	-7515
ste	-7516
gent	-7517
▁tox	-7518
▁évê	-7519
ender	-7520
faces	-7521
rices	-7522
▁stal	-7523
manuel	-7524
▁étape	-7525
ouvrage	-7526
▁autoch	-7527
▁formant	-7528
▁masculin	-7529
▁suffrage	-7530
▁africains	-7531
▁navigation	-7532
intervention	-7533
▁francophones	-7534
▁civilisations	-7535
▁partiellement	-7536
_2	-7537
ail	-7538
ory	-7539
▁32	-7540
iner	-7541
nord	-7542
obil	-7543
agnol	-7544
igner	-7545
odore	-7546
trois	-7547
▁goût	-7548
▁moul	-7549
▁onze	-7550
atures	-7551
ection	-7552
illage	-7553
rogène	-7554
▁1997,	-7555
▁armén	-7556
▁dette	-7557
▁horiz	-7558
▁attend	-7559
▁crimes	-7560
▁séjour	-7561
viennent	-7562
▁bactéri	-7563
▁notions	-7564
▁servent	-7565
▁associée	-7566
▁renommée	-7567
▁retraite	-7568
architecte	-7569
▁musiciens	-7570
▁tendances	-7571
▁éducation	-7572
▁inférieure	-7573
▁interprétation	-7574
78	-7575
rê	-7576
ral	-7577
thé	-7578
atre	-7579
ault	-7580
chaî	-7581
euro	-7582
▁jup	-7583
▁pau	-7584
agnos	-7585
ourir	-7586
▁mers	-7587
angere	-7588
▁abrit	-7589
▁conci	-7590
▁flore	-7591
▁motiv	-7592
▁verbe	-7593
bilités	-7594
▁chapit	-7595
individu	-7596
▁complet	-7597
▁victime	-7598
▁croyance	-7599
▁internes	-7600
▁polanski	-7601
▁puissant	-7602
▁actuelles	-7603
▁dimensions	-7604
▁organisées	-7605
▁connaissent	-7606
ish	-7607
pas	-7608
agée	-7609
alex	-7610
endi	-7611
mier	-7612
▁fur	-7613
▁mel	-7614
▁phy	-7615
▁ton	-7616
angle	-7617
cules	-7618
nelle	-7619
▁banc	-7620
effond	-7621
▁coûte	-7622
▁incar	-7623
▁pharm	-7624
▁causes	-7625
▁conséc	-7626
▁lumine	-7627
▁picard	-7628
ventions	-7629
▁dangere	-7630
▁déplace	-7631
▁prestig	-7632
animation	-7633
▁démarche	-7634
▁simultan	-7635
▁totalité	-7636
▁composants	-7637
▁psychanalyse	-7638
▁professionnel	-7639
▁mâ	-7640
agog	-7641
entr	-7642
▁dam	-7643
ovine	-7644
quait	-7645
▁requ	-7646
assade	-7647
icisme	-7648
▁actif	-7649
▁froid	-7650
▁inond	-7651
▁insta	-7652
▁rense	-7653
▁seuil	-7654
▁utile	-7655
tissent	-7656
▁artaud	-7657
▁civils	-7658
▁fantas	-7659
▁façade	-7660
▁microp	-7661
ystation	-7662
▁réussit	-7663
▁devaient	-7664
▁grammati	-7665
tionnelles	-7666
▁autrefois	-7667
▁rédaction	-7668
▁sanctuaire	-7669
12	-7670
36	-7671
48	-7672
aro	-7673
aïc	-7674
hol	-7675
mad	-7676
mét	-7677
imes	-7678
oges	-7679
raux	-7680
ïque	-7681
▁flè	-7682
▁jud	-7683
▁rub	-7684
phtys	-7685
ymond	-7686
états	-7687
▁hugo	-7688
▁ponc	-7689
▁soup	-7690
tibles	-7691
▁désir	-7692
▁fleur	-7693
islande	-7694
échange	-7695
▁quelle	-7696
istiques	-7697
▁fournir	-7698
▁philipp	-7699
▁séville	-7700
aquitaine	-7701
arisation	-7702
▁aliments	-7703
▁ancêtres	-7704
▁enseigne	-7705
▁croissant	-7706
▁géométrie	-7707
▁sentiment	-7708
▁constituer	-7709
▁numériques	-7710
▁retrouvent	-7711
alimentation	-7712
▁protestants	-7713
ao	-7714
ala	-7715
oxe	-7716
sel	-7717
ordi	-7718
usta	-7719
veau	-7720
▁dau	-7721
illés	-7722
terie	-7723
▁1930	-7724
▁guér	-7725
antill	-7726
appare	-7727
onymes	-7728
▁gross	-7729
▁remet	-7730
▁rende	-7731
▁solid	-7732
▁émerg	-7733
▁clergé	-7734
▁comédi	-7735
▁envoie	-7736
▁lancer	-7737
▁restre	-7738
▁réunit	-7739
divinité	-7740
▁créteil	-7741
impulsion	-7742
▁individu	-7743
▁stabilité	-7744
▁visiteurs	-7745
▁adaptation	-7746
▁précédente	-7747
olf	-7748
pré	-7749
▁6,	-7750
huit	-7751
arist	-7752
▁remis	-7753
algérie	-7754
aujourd	-7755
autique	-7756
▁massac	-7757
▁cadmium	-7758
▁repouss	-7759
▁châteaux	-7760
▁défendre	-7761
▁coloniale	-7762
▁originaires	-7763
▁playstation	-7764
▁vocabulaire	-7765
▁proportionnelle	-7766
ev	-7767
ula	-7768
▁ox	-7769
atte	-7770
▁beng	-7771
▁fall	-7772
▁vous	-7773
poques	-7774
▁color	-7775
▁exter	-7776
▁hiver	-7777
▁lente	-7778
▁pyram	-7779
▁sarthe	-7780
▁touche	-7781
alytique	-7782
intéress	-7783
▁publiés	-7784
▁rendent	-7785
▁saturne	-7786
▁atomique	-7787
▁culminant	-7788
▁normandie	-7789
▁organisés	-7790
▁syndicats	-7791
▁automatique	-7792
▁laboratoire	-7793
▁perspective	-7794
▁propositions	-7795
▁administratif	-7796
▁industrielles	-7797
▁philosophiques	-7798
75	-7799
cat	-7800
urb	-7801
émi	-7802
▁hy	-7803
lète	-7804
onés	-7805
seur	-7806
▁rpr	-7807
index	-7808
▁(195	-7809
▁baud	-7810
▁dioc	-7811
▁doté	-7812
▁dream	-7813
▁humide	-7814
▁indien	-7815
▁kanjis	-7816
▁revendi	-7817
▁tension	-7818
▁échelle	-7819
▁cameroun	-7820
▁fichiers	-7821
▁recevoir	-7822
▁résoudre	-7823
▁dominique	-7824
▁prononciation	-7825
▁rassemblement	-7826
65	-7827
ary	-7828
lés	-7829
ugu	-7830
▁pd	-7831
▁pt	-7832
abol	-7833
▁ras	-7834
▁tue	-7835
▁vec	-7836
...),	-7837
chiff	-7838
ouard	-7839
alcool	-7840
ieuses	-7841
licité	-7842
rammes	-7843
▁palme	-7844
espèces	-7845
▁adapté	-7846
▁bourse	-7847
▁classés	-7848
extérieur	-7849
intéresse	-7850
▁chambéry	-7851
▁grecques	-7852
▁solutions	-7853
▁événement	-7854
aménagement	-7855
▁accompagné	-7856
▁nationalité	-7857
▁socialistes	-7858
▁bibliothèques	-7859
▁intermédiaire	-7860
▁circonscription	-7861
18	-7862
zy	-7863
]].	-7864
dép	-7865
ray	-7866
cast	-7867
mées	-7868
oshi	-7869
outes	-7870
range	-7871
▁fuji	-7872
▁harm	-7873
tuelle	-7874
▁1992,	-7875
▁charte	-7876
▁commen	-7877
▁défaut	-7878
▁emploi	-7879
▁laissé	-7880
▁monast	-7881
▁peuplé	-7882
▁photos	-7883
▁sahara	-7884
▁vendre	-7885
ductions	-7886
▁communs	-7887
▁définie	-7888
▁serveur	-7889
▁sixième	-7890
▁céréales	-7891
▁modifier	-7892
▁musiques	-7893
▁poissons	-7894
▁salariés	-7895
▁manuscrit	-7896
▁marchands	-7897
▁opération	-7898
▁nourriture	-7899
▁générations	-7900
▁remarquable	-7901
▁occidentales	-7902
▁informatiques	-7903
▁méditerranéen	-7904
▁territoriales	-7905
▁supplémentaires	-7906
gne	-7907
ive	-7908
jor	-7909
ocy	-7910
amer	-7911
sier	-7912
soit	-7913
érap	-7914
▁chau	-7915
agerie	-7916
textes	-7917
▁cents	-7918
▁inhum	-7919
▁récol	-7920
▁jamaïc	-7921
▁magist	-7922
▁python	-7923
▁tempor	-7924
▁sortant	-7925
▁branches	-7926
▁confirme	-7927
▁plateaux	-7928
▁épisodes	-7929
▁molécules	-7930
▁difficiles	-7931
zo	-7932
aus	-7933
bol	-7934
kan	-7935
oub	-7936
terr	-7937
▁boî	-7938
▁hyp	-7939
▁wall	-7940
inture	-7941
ortées	-7942
▁adopte	-7943
▁arrond	-7944
▁canadi	-7945
▁danois	-7946
▁yougos	-7947
▁jupiter	-7948
▁kubrick	-7949
▁nephtys	-7950
▁poussée	-7951
▁époques	-7952
▁cinéaste	-7953
▁incluant	-7954
▁évidence	-7955
initiative	-7956
▁récompens	-7957
▁vainqueur	-7958
inspiration	-7959
▁nucléaires	-7960
▁provisoire	-7961
▁présentant	-7962
▁washington	-7963
▁destination	-7964
▁spécialistes	-7965
fl	-7966
luc	-7967
ora	-7968
oua	-7969
tot	-7970
▁dr	-7971
▁sl	-7972
amon	-7973
orre	-7974
paul	-7975
uies	-7976
▁cod	-7977
▁nam	-7978
ortés	-7979
ulent	-7980
érard	-7981
▁blas	-7982
abbaye	-7983
▁1980.	-7984
▁fluvi	-7985
▁auguste	-7986
▁cabinet	-7987
▁prévoit	-7988
▁raymond	-7989
▁vivants	-7990
▁étoiles	-7991
indonésie	-7992
▁biologie	-7993
▁fédérale	-7994
▁proposent	-7995
▁concernent	-7996
▁continuent	-7997
▁millénaire	-7998
▁électorale	-7999
▁considérées	-8000
dro	-8001
▁29	-8002
▁my	-8003
curr	-8004
lave	-8005
▁bet	-8006
▁mou	-8007
▁oub	-8008
ignon	-8009
▁carn	-8010
▁énor	-8011
chauff	-8012
▁neige	-8013
automne	-8014
▁chirop	-8015
▁légiti	-8016
▁pertes	-8017
▁solide	-8018
▁styles	-8019
adoption	-8020
▁liquide	-8021
▁marchés	-8022
▁télécom	-8023
▁esclaves	-8024
▁vestiges	-8025
▁aventures	-8026
▁disposent	-8027
appellation	-8028
importantes	-8029
▁conseiller	-8030
▁agriculture	-8031
ek	-8032
ési	-8033
agon	-8034
rète	-8035
soci	-8036
épis	-8037
▁bag	-8038
astes	-8039
effic	-8040
▁park	-8041
engage	-8042
office	-8043
raphie	-8044
éennes	-8045
▁innov	-8046
alisées	-8047
élément	-8048
▁annuel	-8049
▁caméra	-8050
▁divise	-8051
▁circuit	-8052
▁dessins	-8053
▁facteur	-8054
américain	-8055
lématique	-8056
impression	-8057
▁autrement	-8058
▁interprét	-8059
▁réception	-8060
▁fondateurs	-8061
▁produisent	-8062
▁globalement	-8063
▁officielles	-8064
▁journalistes	-8065
▁métropolitaine	-8066
71	-8067
-18	-8068
bur	-8069
▁64	-8070
irie	-8071
▁éri	-8072
enreg	-8073
▁sarc	-8074
duites	-8075
▁anglo	-8076
▁parven	-8077
▁propul	-8078
▁entiers	-8079
▁montrer	-8080
▁africain	-8081
▁auxquels	-8082
▁courante	-8083
▁parisien	-8084
▁consacrée	-8085
▁compagnies	-8086
▁promouvoir	-8087
▁mathématique	-8088
arrondissement	-8089
▁constructions	-8090
▁habituellement	-8091
▁fonctionnalités	-8092
sp	-8093
ics	-8094
uns	-8095
▁bé	-8096
▁zo	-8097
loge	-8098
ophes	-8099
▁1997	-8100
▁mini	-8101
▁vass	-8102
aments	-8103
appuie	-8104
tilité	-8105
▁2000.	-8106
▁aient	-8107
▁stéré	-8108
▁compli	-8109
▁duquel	-8110
▁tourné	-8111
▁drapeau	-8112
▁homosex	-8113
▁syntaxe	-8114
▁aérienne	-8115
▁effectue	-8116
▁occupent	-8117
▁ensembles	-8118
▁pyramides	-8119
▁républicain	-8120
▁spécialisés	-8121
▁pratiquement	-8122
▁correspondent	-8123
▁électroniques	-8124
▁universitaires	-8125
▁professionnelle	-8126
69	-8127
hyp	-8128
bdom	-8129
ômes	-8130
▁cru	-8131
icale	-8132
onner	-8133
▁2003	-8134
▁faux	-8135
ulture	-8136
▁arbit	-8137
▁matin	-8138
▁mètre	-8139
▁métro	-8140
▁occit	-8141
aissant	-8142
clusion	-8143
tations	-8144
▁config	-8145
▁global	-8146
▁promul	-8147
▁évolue	-8148
ribution	-8149
▁chaleur	-8150
▁massifs	-8151
▁restant	-8152
▁récente	-8153
▁maîtrise	-8154
▁rappelle	-8155
▁renforce	-8156
▁éditeurs	-8157
▁cimetière	-8158
▁mondiales	-8159
▁négociations	-8160
▁propriétaire	-8161
41	-8162
gi	-8163
ado	-8164
ene	-8165
igh	-8166
ype	-8167
âme	-8168
idés	-8169
▁jet	-8170
▁tap	-8171
arché	-8172
déric	-8173
garde	-8174
icité	-8175
▁chal	-8176
▁sédi	-8177
▁vign	-8178
bdomad	-8179
ouveau	-8180
taires	-8181
▁2015.	-8182
▁bilan	-8183
▁shint	-8184
▁alfred	-8185
▁confes	-8186
▁gagner	-8187
▁hugues	-8188
▁hypoth	-8189
▁marins	-8190
▁pluies	-8191
▁changer	-8192
▁fleuves	-8193
▁signaux	-8194
▁turquie	-8195
▁devenant	-8196
▁implique	-8197
▁micropro	-8198
▁primordi	-8199
▁provence	-8200
▁qualifie	-8201
▁sensible	-8202
▁démocrate	-8203
▁réglement	-8204
▁dénomination	-8205
▁correspondance	-8206
43	-8207
med	-8208
sous	-8209
▁500	-8210
▁moz	-8211
▁prê	-8212
▁roc	-8213
riens	-8214
▁1920	-8215
▁1940	-8216
▁1994	-8217
▁acte	-8218
▁midi	-8219
▁murs	-8220
rienne	-8221
▁final	-8222
▁grave	-8223
▁hydro	-8224
▁pales	-8225
▁scope	-8226
arménie	-8227
▁affect	-8228
▁canaux	-8229
▁mobile	-8230
▁ponctu	-8231
▁restes	-8232
▁souter	-8233
illement	-8234
▁moselle	-8235
▁consacre	-8236
▁assemblée	-8237
▁augmenter	-8238
▁financiers	-8239
▁inégalités	-8240
▁évolutions	-8241
exc	-8242
ski	-8243
llab	-8244
mité	-8245
▁dal	-8246
▁rug	-8247
atori	-8248
berge	-8249
cides	-8250
techn	-8251
▁saou	-8252
abriel	-8253
▁coutu	-8254
inscrit	-8255
▁conclu	-8256
▁future	-8257
▁marais	-8258
▁stable	-8259
▁syllab	-8260
espagnol	-8261
▁choisir	-8262
▁concile	-8263
▁conjoin	-8264
▁observe	-8265
▁serment	-8266
▁suédois	-8267
▁approxim	-8268
▁quarante	-8269
▁scolaire	-8270
américaine	-8271
▁alexandre	-8272
▁financier	-8273
▁transfert	-8274
▁automobile	-8275
▁commandant	-8276
-"	-8277
vo	-8278
ân	-8279
4).	-8280
azz	-8281
bus	-8282
uer	-8283
ult	-8284
arte	-8285
bour	-8286
▁syl	-8287
ockey	-8288
prits	-8289
égard	-8290
▁soul	-8291
ancier	-8292
▁1989,	-8293
▁babyl	-8294
▁clair	-8295
▁marti	-8296
▁verre	-8297
culaire	-8298
▁engend	-8299
▁retard	-8300
alchimie	-8301
▁arrivée	-8302
▁enfance	-8303
▁minimum	-8304
▁libertés	-8305
▁probable	-8306
▁occasionn	-8307
▁participé	-8308
▁phéniciens	-8309
▁alimentaires	-8310
▁dictionnaire	-8311
47	-8312
gv	-8313
acs	-8314
lon	-8315
tins	-8316
▁cio	-8317
▁yam	-8318
armer	-8319
ingue	-8320
échec	-8321
▁mons	-8322
▁stre	-8323
hindou	-8324
kistan	-8325
oivent	-8326
▁mener	-8327
▁métra	-8328
antisme	-8329
▁fécond	-8330
▁fidèles	-8331
▁occupée	-8332
▁routier	-8333
▁spatial	-8334
▁succède	-8335
▁prolonge	-8336
▁récentes	-8337
▁magazines	-8338
▁mexicaine	-8339
▁graphiques	-8340
▁profondeur	-8341
▁constituant	-8342
▁francophone	-8343
▁représentés	-8344
intermédiaire	-8345
▁linguistiques	-8346
▁constantinople	-8347
42	-8348
61	-8349
mir	-8350
▁ts	-8351
jeux	-8352
lule	-8353
▁"".	-8354
▁bio	-8355
▁bir	-8356
▁ern	-8357
cient	-8358
journ	-8359
oncée	-8360
outre	-8361
telle	-8362
▁fins	-8363
▁prém	-8364
groupe	-8365
oureux	-8366
économ	-8367
▁proch	-8368
titudes	-8369
équival	-8370
▁faucon	-8371
▁jouent	-8372
▁letton	-8373
▁emploie	-8374
▁racines	-8375
▁épisode	-8376
autonomie	-8377
extension	-8378
▁banlieue	-8379
▁monétaire	-8380
▁photograph	-8381
▁électriques	-8382
'.	-8383
pé	-8384
èv	-8385
eld	-8386
van	-8387
agir	-8388
chel	-8389
léch	-8390
orce	-8391
prin	-8392
▁hui	-8393
alous	-8394
jette	-8395
lètes	-8396
marin	-8397
onnés	-8398
▁band	-8399
▁1993,	-8400
▁kyoto	-8401
▁salon	-8402
▁arbres	-8403
▁belges	-8404
▁lignée	-8405
▁manuel	-8406
▁déchets	-8407
▁finnois	-8408
▁établie	-8409
installer	-8410
adaptation	-8411
▁faciliter	-8412
▁prospérité	-8413
▁fonctionnaires	-8414
▁nécessairement	-8415
▁reconstruction	-8416
▁arrondissements	-8417
▁investissements	-8418
6),	-8419
dou	-8420
ims	-8421
zég	-8422
ethn	-8423
plan	-8424
▁vel	-8425
isère	-8426
zaine	-8427
▁(198	-8428
▁maïs	-8429
▁plas	-8430
▁théâ	-8431
imagin	-8432
▁1988,	-8433
▁1994,	-8434
▁black	-8435
▁photo	-8436
▁proto	-8437
▁resté	-8438
tissant	-8439
▁aldrin	-8440
▁combus	-8441
▁dublin	-8442
▁moscou	-8443
▁phosph	-8444
zégovine	-8445
▁devenus	-8446
▁laurent	-8447
▁partagé	-8448
▁altitude	-8449
▁jugement	-8450
▁pharaons	-8451
▁histoires	-8452
▁possession	-8453
▁comprennent	-8454
▁réalisateurs	-8455
38	-8456
œu	-8457
hon	-8458
ulf	-8459
▁2.	-8460
▁ga	-8461
▁ho	-8462
erte	-8463
reïn	-8464
▁gib	-8465
▁ibm	-8466
appro	-8467
cript	-8468
ospin	-8469
ouche	-8470
▁1930,	-8471
▁crypt	-8472
▁pionn	-8473
importe	-8474
▁quator	-8475
▁échapp	-8476
▁évolué	-8477
▁chargée	-8478
invention	-8479
versement	-8480
édération	-8481
▁amplific	-8482
▁vraiment	-8483
▁confusion	-8484
▁estoniens	-8485
▁réalisées	-8486
instruction	-8487
élaboration	-8488
▁performance	-8489
fiés	-8490
mort	-8491
▁iso	-8492
▁clar	-8493
▁lamp	-8494
▁mend	-8495
▁subi	-8496
ereurs	-8497
▁delta	-8498
▁forts	-8499
▁laval	-8500
▁rural	-8501
▁terti	-8502
alexand	-8503
▁acteur	-8504
▁arrêté	-8505
▁gérard	-8506
▁norvég	-8507
▁platon	-8508
▁postes	-8509
▁vertic	-8510
▁volcan	-8511
agements	-8512
agissait	-8513
éléments	-8514
▁croatie	-8515
▁dérivés	-8516
▁retourn	-8517
▁sarcoph	-8518
▁spécial	-8519
▁rapporte	-8520
▁transpar	-8521
▁musulmane	-8522
▁électoral	-8523
herzégovine	-8524
▁accueillir	-8525
▁perception	-8526
▁intellectuels	-8527
ops	-8528
agés	-8529
cité	-8530
cour	-8531
trie	-8532
▁abb	-8533
▁dor	-8534
▁sat	-8535
▁sûr	-8536
bleau	-8537
geant	-8538
tones	-8539
tères	-8540
élite	-8541
▁rais	-8542
▁vues	-8543
alsace	-8544
arisme	-8545
avenir	-8546
▁1970.	-8547
▁1991,	-8548
▁essai	-8549
▁têtes	-8550
▁affich	-8551
▁claire	-8552
▁créées	-8553
▁entrer	-8554
▁pilote	-8555
▁places	-8556
▁stabil	-8557
▁trésor	-8558
assassin	-8559
françois	-8560
▁aboutit	-8561
▁cellule	-8562
▁chemins	-8563
▁écrites	-8564
▁chanteur	-8565
▁conduite	-8566
▁finances	-8567
▁identité	-8568
▁laissant	-8569
enregistre	-8570
▁améliorer	-8571
▁armstrong	-8572
▁divisions	-8573
▁magnétique	-8574
▁observations	-8575
▁remplacement	-8576
▁arrondissement	-8577
▁sw	-8578
ahar	-8579
otyp	-8580
urre	-8581
▁lee	-8582
▁wid	-8583
oxyde	-8584
▁bert	-8585
▁oliv	-8586
▁émet	-8587
▁baiss	-8588
▁bruno	-8589
implant	-8590
▁attire	-8591
▁créant	-8592
▁pourra	-8593
▁vendus	-8594
équation	-8595
▁psychan	-8596
▁serpent	-8597
▁tourner	-8598
idéologie	-8599
▁comptent	-8600
▁intégrée	-8601
▁reconnus	-8602
▁remarque	-8603
▁trouvait	-8604
▁dreamcast	-8605
▁renforcer	-8606
internation	-8607
▁japonaises	-8608
▁regroupant	-8609
▁sémantique	-8610
▁artistiques	-8611
▁catholicisme	-8612
▁fondamentale	-8613
▁paléolithique	-8614
▁communications	-8615
▁néandertaliens	-8616
32	-8617
▁8,	-8618
otes	-8619
pays	-8620
▁mér	-8621
▁wis	-8622
accus	-8623
andré	-8624
comté	-8625
▁calc	-8626
▁mené	-8627
▁mout	-8628
isembl	-8629
liques	-8630
évêque	-8631
▁crime	-8632
▁oscar	-8633
▁pacte	-8634
▁poème	-8635
▁évang	-8636
ocation	-8637
▁attent	-8638
▁indire	-8639
▁limitr	-8640
▁manche	-8641
▁tenant	-8642
▁tonnes	-8643
arctique	-8644
ologiste	-8645
▁adultes	-8646
▁ajouter	-8647
▁dessous	-8648
▁saisons	-8649
▁concerts	-8650
▁libérale	-8651
▁notation	-8652
▁autonomie	-8653
▁partagent	-8654
▁électrons	-8655
utilisateur	-8656
▁conversion	-8657
▁couverture	-8658
▁parisienne	-8659
▁université	-8660
▁protestante	-8661
▁comportements	-8662
▁nationalistes	-8663
31	-8664
.),	-8665
awa	-8666
non	-8667
nos	-8668
tet	-8669
▁bh	-8670
ashi	-8671
atel	-8672
chon	-8673
cinq	-8674
illy	-8675
ints	-8676
orne	-8677
uela	-8678
▁ard	-8679
▁fen	-8680
▁ing	-8681
aïsme	-8682
▁hosp	-8683
▁héli	-8684
▁lomb	-8685
▁mens	-8686
▁prit	-8687
▁raff	-8688
▁rede	-8689
▁1996,	-8690
▁duché	-8691
▁foyer	-8692
▁notes	-8693
▁porta	-8694
▁soins	-8695
ordogne	-8696
▁commis	-8697
▁permit	-8698
▁vaisse	-8699
internet	-8700
▁esprits	-8701
▁notable	-8702
▁protect	-8703
▁réduite	-8704
▁sommets	-8705
▁élevées	-8706
▁diamètre	-8707
▁proposer	-8708
▁réchauff	-8709
▁réfugiés	-8710
▁effectifs	-8711
▁substance	-8712
▁funéraires	-8713
▁dégradation	-8714
▁proviennent	-8715
▁reconnaître	-8716
▁stratégique	-8717
▁modification	-8718
▁technologique	-8719
fes	-8720
iop	-8721
nam	-8722
ancy	-8723
▁cau	-8724
▁dar	-8725
▁has	-8726
▁lan	-8727
▁még	-8728
▁sid	-8729
grédi	-8730
lerie	-8731
naire	-8732
onnée	-8733
roits	-8734
édent	-8735
▁coul	-8736
▁prét	-8737
intégr	-8738
onnais	-8739
▁syrie	-8740
▁voici	-8741
▁ballon	-8742
▁engagé	-8743
▁précur	-8744
loration	-8745
▁bahreïn	-8746
▁banques	-8747
▁clients	-8748
▁ingrédi	-8749
▁fouilles	-8750
▁rotation	-8751
▁variétés	-8752
▁vocation	-8753
américains	-8754
▁peintures	-8755
▁puissante	-8756
▁reconstru	-8757
▁diminution	-8758
▁personnels	-8759
▁propagande	-8760
▁équivalent	-8761
▁climatiques	-8762
15	-8763
67	-8764
ake	-8765
▁ze	-8766
aube	-8767
idou	-8768
meub	-8769
onal	-8770
orig	-8771
pont	-8772
èves	-8773
▁gon	-8774
▁néc	-8775
ctori	-8776
illus	-8777
outil	-8778
quets	-8779
▁(192	-8780
▁1988	-8781
▁1993	-8782
▁peau	-8783
▁vive	-8784
▁2008.	-8785
▁carré	-8786
▁gréco	-8787
▁gérer	-8788
▁jacob	-8789
▁verte	-8790
établir	-8791
▁créent	-8792
▁esprit	-8793
▁hydrog	-8794
▁jospin	-8795
émission	-8796
▁censure	-8797
▁intègre	-8798
▁montant	-8799
▁versant	-8800
hydrogène	-8801
▁féminine	-8802
▁milliard	-8803
▁soixante	-8804
▁empereurs	-8805
▁identique	-8806
▁maritimes	-8807
▁testament	-8808
▁interprété	-8809
▁phonétique	-8810
▁préhistoire	-8811
lim	-8812
rak	-8813
sav	-8814
▁ht	-8815
breu	-8816
père	-8817
▁gps	-8818
▁noc	-8819
osyst	-8820
▁1991	-8821
▁metz	-8822
▁poul	-8823
▁rêve	-8824
contre	-8825
▁alent	-8826
▁infin	-8827
▁polyg	-8828
▁santi	-8829
ctement	-8830
inspire	-8831
▁cadres	-8832
▁design	-8833
▁délégu	-8834
▁graves	-8835
▁lutter	-8836
▁lycées	-8837
▁maurit	-8838
▁recens	-8839
▁usines	-8840
▁adoptée	-8841
▁fichier	-8842
▁gabriel	-8843
▁galerie	-8844
▁limoges	-8845
▁revenir	-8846
▁rurales	-8847
▁résulte	-8848
▁chiropra	-8849
▁clermont	-8850
▁lumières	-8851
▁mésopota	-8852
▁pratiqué	-8853
▁triomphe	-8854
▁continuité	-8855
▁intervient	-8856
▁législatif	-8857
▁transforme	-8858
▁conférences	-8859
▁médicaments	-8860
▁précédentes	-8861
▁fontainebleau	-8862
▁littéralement	-8863
72	-8864
bou	-8865
feu	-8866
lot	-8867
▁ms	-8868
alie	-8869
ocde	-8870
ttes	-8871
énom	-8872
éros	-8873
▁dog	-8874
▁hel	-8875
▁taï	-8876
adesh	-8877
▁abol	-8878
▁clés	-8879
▁juan	-8880
▁soph	-8881
enture	-8882
▁bless	-8883
▁brune	-8884
▁chien	-8885
▁débar	-8886
▁jaune	-8887
▁prédé	-8888
▁urban	-8889
linaire	-8890
▁adress	-8891
▁agents	-8892
▁résist	-8893
▁veille	-8894
lèvement	-8895
tisation	-8896
▁diplôme	-8897
▁encoura	-8898
▁mesurer	-8899
▁parlent	-8900
▁passent	-8901
▁sexisme	-8902
▁traiter	-8903
▁original	-8904
hindouisme	-8905
▁favoriser	-8906
▁mortalité	-8907
▁renouveau	-8908
▁équations	-8909
ordinateurs	-8910
▁références	-8911
▁régulières	-8912
▁substances	-8913
aph	-8914
mos	-8915
rose	-8916
vert	-8917
▁héb	-8918
▁tib	-8919
autes	-8920
azote	-8921
▁1992	-8922
▁acad	-8923
▁alph	-8924
▁axes	-8925
▁ence	-8926
▁fera	-8927
▁flex	-8928
▁rose	-8929
enteur	-8930
▁2007.	-8931
▁2020.	-8932
▁basil	-8933
▁délib	-8934
▁illég	-8935
▁domine	-8936
▁faites	-8937
▁impose	-8938
▁passée	-8939
▁sphère	-8940
algorith	-8941
entiques	-8942
▁compens	-8943
▁détails	-8944
▁estimée	-8945
▁singuli	-8946
attention	-8947
▁amateurs	-8948
▁domicile	-8949
▁effectué	-8950
▁confiance	-8951
▁mécanisme	-8952
▁procédure	-8953
▁reprendre	-8954
interaction	-8955
▁complexité	-8956
▁esthétique	-8957
▁réellement	-8958
▁communément	-8959
▁supérieures	-8960
▁intelligence	-8961
▁publications	-8962
90	-8963
▁*	-8964
dule	-8965
haus	-8966
héri	-8967
itif	-8968
▁alé	-8969
▁axe	-8970
▁pul	-8971
▁ral	-8972
▁war	-8973
eront	-8974
▁1945	-8975
▁euro	-8976
▁quan	-8977
▁stim	-8978
entraî	-8979
ientôt	-8980
unités	-8981
▁1974,	-8982
▁camps	-8983
▁macéd	-8984
▁pluie	-8985
▁réélu	-8986
▁island	-8987
▁plaque	-8988
tinction	-8989
▁meurtre	-8990
▁négatif	-8991
▁pluriel	-8992
▁positif	-8993
▁étudier	-8994
▁centaine	-8995
▁chercher	-8996
▁conduire	-8997
▁constant	-8998
▁préoccup	-8999
▁qualités	-9000
▁stockage	-9001
innovation	-9002
▁africaine	-9003
▁centrales	-9004
▁hypothèse	-9005
▁asiatiques	-9006
▁dispositif	-9007
▁continentale	-9008
▁spécifiquement	-9009
etz	-9010
▁wo	-9011
alem	-9012
héli	-9013
▁paï	-9014
▁vig	-9015
usine	-9016
▁apol	-9017
▁jazz	-9018
▁open	-9019
anarch	-9020
anubis	-9021
iement	-9022
▁basic	-9023
▁bruit	-9024
▁cohab	-9025
▁dépit	-9026
▁forum	-9027
▁génie	-9028
▁payer	-9029
▁recul	-9030
▁rugby	-9031
▁émile	-9032
hôpital	-9033
éditeur	-9034
▁avions	-9035
▁cambod	-9036
▁dominé	-9037
▁mélang	-9038
▁nantes	-9039
▁poètes	-9040
▁racont	-9041
▁réclam	-9042
▁usages	-9043
▁étapes	-9044
▁bientôt	-9045
▁charbon	-9046
▁marquer	-9047
▁spécific	-9048
▁théorème	-9049
▁contrôler	-9050
▁ethniques	-9051
▁extérieur	-9052
▁découverts	-9053
▁gastronomie	-9054
▁collectivité	-9055
▁marchandises	-9056
▁modifications	-9057
▁intellectuelle	-9058
▁tv	-9059
vant	-9060
▁atm	-9061
arrêt	-9062
blanc	-9063
endie	-9064
igoth	-9065
offre	-9066
onien	-9067
▁1981	-9068
▁hété	-9069
▁intr	-9070
▁dauph	-9071
▁déser	-9072
▁prépa	-9073
▁récip	-9074
essonne	-9075
visions	-9076
▁absolu	-9077
▁alphab	-9078
▁inclus	-9079
▁indisp	-9080
▁préfet	-9081
pyrénées	-9082
▁apprend	-9083
▁approuv	-9084
▁bateaux	-9085
▁indices	-9086
▁dialogue	-9087
▁héritage	-9088
▁expansion	-9089
▁respecter	-9090
afghanistan	-9091
▁enregistré	-9092
interdiction	-9093
▁contiennent	-9094
▁élémentaires	-9095
▁géographiques	-9096
▁naturellement	-9097
77	-9098
iji	-9099
sau	-9100
fait	-9101
rida	-9102
▁cle	-9103
▁mah	-9104
▁uni	-9105
ogène	-9106
onies	-9107
▁jane	-9108
▁neur	-9109
ataire	-9110
odique	-9111
▁bangl	-9112
▁fores	-9113
austral	-9114
ocratie	-9115
onction	-9116
▁argent	-9117
▁burkin	-9118
▁certif	-9119
▁consol	-9120
▁formés	-9121
▁relais	-9122
▁roches	-9123
exercice	-9124
▁astéroï	-9125
▁clandes	-9126
▁patrick	-9127
▁profite	-9128
▁transit	-9129
▁établir	-9130
avènement	-9131
▁morceaux	-9132
▁retourne	-9133
▁terrains	-9134
▁édifices	-9135
▁abandonné	-9136
▁fréquente	-9137
▁indiquent	-9138
▁minorités	-9139
▁possédant	-9140
▁publicité	-9141
▁meilleures	-9142
▁végétation	-9143
investissement	-9144
cd	-9145
cia	-9146
cus	-9147
old	-9148
pan	-9149
vad	-9150
▁'.	-9151
dier	-9152
oxes	-9153
▁adh	-9154
▁moi	-9155
▁rat	-9156
crire	-9157
explo	-9158
ricts	-9159
▁1996	-9160
▁crue	-9161
▁plur	-9162
▁pâte	-9163
▁rent	-9164
▁élar	-9165
tinent	-9166
▁1981,	-9167
▁2006.	-9168
▁2011.	-9169
▁aband	-9170
▁bulle	-9171
▁gallo	-9172
avaient	-9173
blanche	-9174
illiers	-9175
▁arrivé	-9176
▁avance	-9177
▁changé	-9178
▁lancée	-9179
▁lionel	-9180
▁system	-9181
adhésion	-9182
▁commerç	-9183
▁détient	-9184
▁urbains	-9185
▁chambres	-9186
▁produite	-9187
▁quatorze	-9188
▁wisigoth	-9189
▁autonomes	-9190
▁chamanisme	-9191
▁provenance	-9192
▁construites	-9193
▁prisonniers	-9194
▁traitements	-9195
▁transformer	-9196
▁documentaire	-9197
▁instructions	-9198
▁représentait	-9199
▁touristiques	-9200
isa	-9201
sal	-9202
khen	-9203
mira	-9204
▁poe	-9205
dépar	-9206
super	-9207
▁2021	-9208
▁forc	-9209
▁html	-9210
▁mutu	-9211
▁verd	-9212
▁bénin	-9213
▁causa	-9214
▁culin	-9215
▁diane	-9216
▁encad	-9217
▁fried	-9218
▁grève	-9219
▁invas	-9220
▁milit	-9221
▁perry	-9222
animaux	-9223
ussions	-9224
▁connec	-9225
▁exerce	-9226
▁prêtre	-9227
▁saints	-9228
aviation	-9229
▁cancers	-9230
▁civiles	-9231
▁comprom	-9232
▁enquête	-9233
▁garonne	-9234
▁servant	-9235
▁supprim	-9236
▁vectori	-9237
quisition	-9238
▁athlètes	-9239
▁avantage	-9240
▁ceinture	-9241
▁mauvaise	-9242
▁médicale	-9243
▁oriental	-9244
▁planètes	-9245
▁santiago	-9246
bdomadaire	-9247
▁bactéries	-9248
▁commencer	-9249
▁dépendant	-9250
▁océanique	-9251
▁réactions	-9252
▁vraisembl	-9253
▁mécanismes	-9254
▁permettait	-9255
informations	-9256
▁estimations	-9257
▁institution	-9258
▁diplomatiques	-9259
▁égyptologique	-9260
52	-9261
63	-9262
pf	-9263
sc	-9264
dém	-9265
las	-9266
pel	-9267
écl	-9268
▁ov	-9269
omor	-9270
èler	-9271
▁fal	-9272
▁ion	-9273
▁pet	-9274
▁hisp	-9275
▁maât	-9276
▁path	-9277
▁éduc	-9278
▁1985,	-9279
▁admis	-9280
▁douce	-9281
▁jésus	-9282
▁magas	-9283
▁préal	-9284
▁solde	-9285
▁trace	-9286
clavage	-9287
romaine	-9288
▁albums	-9289
▁attrib	-9290
▁excell	-9291
▁sonore	-9292
▁consens	-9293
▁dominic	-9294
▁dénonce	-9295
▁détruit	-9296
▁ennemis	-9297
▁filiale	-9298
▁rituels	-9299
urrection	-9300
▁apparent	-9301
▁barbares	-9302
▁bombarde	-9303
▁fascisme	-9304
▁hiérarch	-9305
▁majeures	-9306
▁romaines	-9307
▁intitulée	-9308
▁possibilités	-9309
▁éventuellement	-9310
▁constitutionnel	-9311
any	-9312
iba	-9313
bian	-9314
ding	-9315
lles	-9316
ocie	-9317
ouch	-9318
▁alc	-9319
▁arn	-9320
▁pix	-9321
▁rem	-9322
fiées	-9323
omagn	-9324
outan	-9325
oyers	-9326
▁féod	-9327
▁égal	-9328
tentri	-9329
usions	-9330
éviter	-9331
▁2012.	-9332
▁alger	-9333
▁assis	-9334
▁caraï	-9335
▁carth	-9336
▁niger	-9337
▁taure	-9338
▁produc	-9339
▁roland	-9340
▁vastes	-9341
térieurs	-9342
▁globale	-9343
▁gouvern	-9344
▁montage	-9345
▁royales	-9346
▁sapiens	-9347
▁avancées	-9348
▁fragment	-9349
▁mondiaux	-9350
▁préparer	-9351
▁qualifié	-9352
importants	-9353
roissement	-9354
▁règlement	-9355
entreprises	-9356
orientation	-9357
▁croissante	-9358
▁simultanément	-9359
gre	-9360
ian	-9361
lip	-9362
orp	-9363
pri	-9364
sta	-9365
▁"(	-9366
grés	-9367
ight	-9368
tère	-9369
ièvre	-9370
▁1986	-9371
▁1989	-9372
▁chic	-9373
▁dign	-9374
▁déci	-9375
▁folk	-9376
▁hipp	-9377
▁pend	-9378
▁sons	-9379
▁tort	-9380
animal	-9381
crimin	-9382
▁1975,	-9383
▁accél	-9384
▁cible	-9385
▁coups	-9386
▁inuit	-9387
▁reims	-9388
▁tribu	-9389
▁épous	-9390
atrices	-9391
docteur	-9392
orléans	-9393
▁affron	-9394
▁basses	-9395
▁comtes	-9396
▁erreur	-9397
appareil	-9398
▁affiche	-9399
▁demandé	-9400
▁peintre	-9401
expliquer	-9402
organisme	-9403
▁dordogne	-9404
▁pakistan	-9405
▁recouver	-9406
▁sexuelle	-9407
▁indispens	-9408
▁accessible	-9409
▁précédents	-9410
▁récompense	-9411
▁appartiennent	-9412
ffe	-9413
ifa	-9414
vue	-9415
yme	-9416
▁ko	-9417
over	-9418
ymph	-9419
èbre	-9420
▁clo	-9421
▁nés	-9422
▁(190	-9423
▁abus	-9424
▁céra	-9425
▁édit	-9426
antine	-9427
hommes	-9428
occupe	-9429
quatre	-9430
urance	-9431
▁1972,	-9432
▁1986,	-9433
▁détec	-9434
▁venez	-9435
▁élève	-9436
▁affaib	-9437
▁corpus	-9438
▁nécrop	-9439
▁pascal	-9440
héritage	-9441
▁commiss	-9442
▁confuci	-9443
▁mercure	-9444
▁métiers	-9445
▁parlant	-9446
▁patient	-9447
▁renvers	-9448
▁tournoi	-9449
▁vieille	-9450
▁voyages	-9451
▁étendue	-9452
▁évêques	-9453
▁analyses	-9454
▁comprise	-9455
▁héraclès	-9456
▁appliquée	-9457
▁argentine	-9458
▁chronique	-9459
▁destinées	-9460
▁districts	-9461
▁puissants	-9462
▁sculpture	-9463
▁néolithique	-9464
81	-9465
5).	-9466
adn	-9467
ilé	-9468
kel	-9469
rag	-9470
tré	-9471
yle	-9472
évé	-9473
▁"-	-9474
▁1.	-9475
▁7,	-9476
asth	-9477
chet	-9478
mais	-9479
olém	-9480
othé	-9481
tige	-9482
épre	-9483
▁150	-9484
▁kat	-9485
▁lav	-9486
▁one	-9487
▁pon	-9488
▁ska	-9489
urban	-9490
▁buff	-9491
▁dick	-9492
▁fern	-9493
▁karl	-9494
▁shin	-9495
▁vécu	-9496
impose	-9497
unique	-9498
▁1920,	-9499
▁edgar	-9500
▁peter	-9501
▁sable	-9502
▁vendu	-9503
accueil	-9504
isseurs	-9505
▁apogée	-9506
▁arthur	-9507
▁aérien	-9508
▁fleurs	-9509
▁menées	-9510
▁transc	-9511
▁visage	-9512
ulations	-9513
▁accorde	-9514
▁comptes	-9515
▁indonés	-9516
▁ouvrier	-9517
▁silence	-9518
▁collines	-9519
▁constate	-9520
▁revendic	-9521
▁chasseurs	-9522
▁consécuti	-9523
▁venezuela	-9524
▁violences	-9525
▁allemandes	-9526
▁exactement	-9527
▁permanente	-9528
▁poursuivre	-9529
▁développées	-9530
▁départementale	-9531
enh	-9532
voy	-9533
vén	-9534
▁39	-9535
fils	-9536
rhin	-9537
uste	-9538
vous	-9539
▁slo	-9540
athor	-9541
avier	-9542
teaux	-9543
émité	-9544
▁bref	-9545
▁juif	-9546
▁tram	-9547
istéri	-9548
▁1979,	-9549
▁2014.	-9550
▁défic	-9551
▁essay	-9552
▁group	-9553
▁plain	-9554
▁ultra	-9555
alousie	-9556
demment	-9557
▁chauff	-9558
▁degrés	-9559
▁mendès	-9560
▁prévue	-9561
▁ptolém	-9562
▁rouges	-9563
▁superv	-9564
▁citoyen	-9565
▁déchiff	-9566
▁modeste	-9567
▁varient	-9568
▁endroits	-9569
▁géologie	-9570
▁répandue	-9571
installent	-9572
▁assassiné	-9573
▁contraint	-9574
▁dirigeant	-9575
▁permanent	-9576
▁télévisée	-9577
▁dépression	-9578
▁fonctionne	-9579
▁hiérarchie	-9580
▁situations	-9581
▁contribuent	-9582
▁déplacement	-9583
▁participants	-9584
▁établissement	-9585
asi	-9586
raz	-9587
rue	-9588
vic	-9589
▁(4	-9590
roid	-9591
▁160	-9592
▁osi	-9593
phone	-9594
siers	-9595
sière	-9596
écart	-9597
▁zéro	-9598
▁allié	-9599
▁honor	-9600
▁incap	-9601
▁islam	-9602
▁plomb	-9603
▁redéc	-9604
▁opposé	-9605
▁racine	-9606
▁tenter	-9607
▁artisan	-9608
▁classée	-9609
▁massive	-9610
▁tentent	-9611
▁appareil	-9612
▁capitaux	-9613
▁chapitre	-9614
▁ethnique	-9615
▁lectures	-9616
▁tiennent	-9617
▁témoigne	-9618
▁énergies	-9619
▁collectif	-9620
▁irlandais	-9621
▁présentée	-9622
▁auxquelles	-9623
▁propulsion	-9624
▁combinaison	-9625
▁conformément	-9626
▁municipalité	-9627
▁confédération	-9628
_3	-9629
aw	-9630
oro	-9631
exéc	-9632
œufs	-9633
▁gel	-9634
▁laï	-9635
▁mun	-9636
▁sib	-9637
atome	-9638
dicap	-9639
ridge	-9640
équip	-9641
▁brou	-9642
▁lake	-9643
▁nasa	-9644
▁porc	-9645
entrer	-9646
▁1945,	-9647
▁basés	-9648
▁figur	-9649
▁monts	-9650
▁pomme	-9651
▁quête	-9652
actrice	-9653
▁accusé	-9654
▁entité	-9655
▁flotte	-9656
▁forter	-9657
▁hockey	-9658
▁indice	-9659
▁lourde	-9660
▁parlée	-9661
▁treize	-9662
▁élites	-9663
écologie	-9664
▁desquel	-9665
▁normale	-9666
▁reliant	-9667
▁circonst	-9668
▁district	-9669
▁entraîné	-9670
▁illustre	-9671
▁sondages	-9672
▁voyelles	-9673
▁familiale	-9674
▁favorables	-9675
▁projection	-9676
▁autochtones	-9677
▁bénéficient	-9678
▁composantes	-9679
▁ingrédients	-9680
▁condamnation	-9681
▁parfaitement	-9682
62	-9683
vd	-9684
lam	-9685
nat	-9686
ixes	-9687
veux	-9688
▁tub	-9689
lavie	-9690
▁1974	-9691
▁fine	-9692
▁rect	-9693
tenait	-9694
▁costa	-9695
▁dates	-9696
▁dotée	-9697
▁guide	-9698
▁résum	-9699
▁santa	-9700
oncourt	-9701
ukraine	-9702
▁fameux	-9703
▁popper	-9704
▁rituel	-9705
▁robots	-9706
▁sortes	-9707
▁étendu	-9708
culteurs	-9709
étudiant	-9710
▁diagnos	-9711
▁rendant	-9712
▁répandu	-9713
ingénieur	-9714
▁domestic	-9715
▁handicap	-9716
▁prononce	-9717
▁registre	-9718
▁remettre	-9719
▁dictature	-9720
▁mathémati	-9721
▁richesses	-9722
▁sportives	-9723
▁véhicules	-9724
▁complément	-9725
▁supérieurs	-9726
▁philippines	-9727
▁spécialisée	-9728
▁traductions	-9729
▁interactions	-9730
▁néerlandaise	-9731
00.	-9732
dés	-9733
set	-9734
sim	-9735
auré	-9736
dium	-9737
▁euc	-9738
▁gig	-9739
rance	-9740
yotes	-9741
▁2022	-9742
▁sand	-9743
▁thém	-9744
isseur	-9745
térité	-9746
▁2002.	-9747
▁balle	-9748
▁kenya	-9749
▁seize	-9750
▁vents	-9751
▁width	-9752
▁narmer	-9753
▁perdre	-9754
▁sacrée	-9755
▁schéma	-9756
▁attesté	-9757
▁erreurs	-9758
▁instant	-9759
▁inventé	-9760
▁jardins	-9761
▁loisirs	-9762
▁papyrus	-9763
▁sauvage	-9764
▁suggère	-9765
▁existait	-9766
▁initiale	-9767
▁magistra	-9768
▁notables	-9769
▁purement	-9770
▁sauvages	-9771
▁discrimin	-9772
▁disparaît	-9773
archéologie	-9774
département	-9775
▁fréquences	-9776
▁caractérisé	-9777
▁compilateur	-9778
▁méridionale	-9779
▁suppression	-9780
▁surveillance	-9781
73	-9782
cet	-9783
via	-9784
coré	-9785
even	-9786
▁tué	-9787
lette	-9788
▁heur	-9789
▁inéd	-9790
calais	-9791
humour	-9792
▁antic	-9793
▁dense	-9794
▁délim	-9795
▁firme	-9796
▁baltes	-9797
▁essais	-9798
▁margin	-9799
▁sicile	-9800
▁arrière	-9801
▁bassins	-9802
▁cerveau	-9803
▁docteur	-9804
▁décentr	-9805
▁exprime	-9806
▁grenobl	-9807
▁néglige	-9808
▁situent	-9809
▁tardive	-9810
▁auvergne	-9811
▁emmanuel	-9812
▁inauguré	-9813
efficacité	-9814
▁effectuer	-9815
▁existence	-9816
▁seigneurs	-9817
▁traversée	-9818
▁vingtaine	-9819
▁compétence	-9820
▁définitive	-9821
▁restaurants	-9822
▁successeurs	-9823
▁développeurs	-9824
▁réchauffement	-9825
23	-9826
aïk	-9827
▁aî	-9828
▁na	-9829
affi	-9830
éman	-9831
▁bad	-9832
▁big	-9833
▁cyc	-9834
▁esc	-9835
▁hou	-9836
▁jun	-9837
▁nov	-9838
champ	-9839
habit	-9840
ingén	-9841
lisme	-9842
èvres	-9843
▁amer	-9844
▁coïn	-9845
▁émig	-9846
▁2018.	-9847
▁aérop	-9848
▁exten	-9849
▁pèler	-9850
▁sonde	-9851
ariable	-9852
▁center	-9853
▁flèche	-9854
▁motifs	-9855
▁métier	-9856
entielle	-9857
▁indiens	-9858
▁modifié	-9859
▁taureau	-9860
▁demander	-9861
▁marquées	-9862
▁étudiant	-9863
▁asiatique	-9864
▁connexion	-9865
▁chiffrement	-9866
▁contraintes	-9867
▁partenaires	-9868
▁particularité	-9869
▁départementales	-9870
);	-9871
16	-9872
dix	-9873
ius	-9874
nia	-9875
rot	-9876
▁36	-9877
▁9,	-9878
icie	-9879
ocat	-9880
prov	-9881
▁(15	-9882
▁kam	-9883
▁sir	-9884
▁vik	-9885
▁âgé	-9886
inage	-9887
▁1972	-9888
▁1982	-9889
▁buts	-9890
▁hard	-9891
▁héro	-9892
▁punk	-9893
▁remb	-9894
▁shar	-9895
▁vern	-9896
inspir	-9897
▁caval	-9898
▁détri	-9899
▁ramen	-9900
▁tenté	-9901
▁verho	-9902
▁vertu	-9903
aryotes	-9904
fection	-9905
▁assuré	-9906
▁coréen	-9907
▁diverg	-9908
▁dérivé	-9909
▁incont	-9910
▁mairie	-9911
▁oppose	-9912
▁royaux	-9913
▁sécher	-9914
▁couvert	-9915
▁humides	-9916
▁laborat	-9917
▁paroles	-9918
▁rapides	-9919
▁scandin	-9920
▁voiture	-9921
▁vouloir	-9922
▁acquiert	-9923
▁critiqué	-9924
▁estonien	-9925
▁goncourt	-9926
▁sportive	-9927
▁surnommé	-9928
▁synchron	-9929
équivalent	-9930
▁dépassent	-9931
▁essentiel	-9932
▁reçoivent	-9933
▁régulière	-9934
▁téléphone	-9935
▁bangladesh	-9936
▁bouddhistes	-9937
▁disparaître	-9938
▁énergétique	-9939
▁francophonie	-9940
▁conservateurs	-9941
%"	-9942
17	-9943
99	-9944
nr	-9945
sig	-9946
zer	-9947
dies	-9948
itel	-9949
nouv	-9950
nées	-9951
ound	-9952
prop	-9953
rons	-9954
▁ars	-9955
aband	-9956
acier	-9957
ambie	-9958
ampli	-9959
astre	-9960
drome	-9961
▁lamb	-9962
▁spin	-9963
conque	-9964
▁andre	-9965
▁exige	-9966
▁monop	-9967
▁nancy	-9968
▁campus	-9969
▁chanti	-9970
▁courts	-9971
▁lourds	-9972
▁légion	-9973
éditions	-9974
▁diffusé	-9975
▁fondent	-9976
▁immense	-9977
▁parlées	-9978
▁preuves	-9979
▁publier	-9980
▁récents	-9981
▁salaire	-9982
ologistes	-9983
onnements	-9984
philosoph	-9985
▁décident	-9986
▁envisage	-9987
▁formules	-9988
▁hollande	-9989
▁priorité	-9990
▁forcément	-9991
▁multitude	-9992
▁entretient	-9993
▁statistique	-9994
▁strictement	-9995
▁remarquables	-9996
▁effectivement	-9997
▁rapprochement	-9998
13	-9999
46	-10000
mu	-10001
idō	-10002
mur	-10003
alth	-10004
appe	-10005
▁gil	-10006
erson	-10007
incar	-10008
oblig	-10009
▁doub	-10010
▁fini	-10011
▁java	-10012
▁vier	-10013
elaire	-10014
exempl	-10015
▁1960.	-10016
▁2005.	-10017
▁creus	-10018
▁détro	-10019
▁fermi	-10020
▁péruv	-10021
▁stone	-10022
▁étage	-10023
▁bonnes	-10024
▁copern	-10025
▁debian	-10026
▁enchaî	-10027
▁explor	-10028
▁formée	-10029
▁garder	-10030
▁suffit	-10031
▁bhoutan	-10032
▁franche	-10033
▁fromage	-10034
▁gironde	-10035
▁marques	-10036
▁popular	-10037
▁suppose	-10038
▁arrivent	-10039
▁immigrés	-10040
▁messages	-10041
▁musicaux	-10042
▁révision	-10043
▁véhicule	-10044
▁alentours	-10045
▁approches	-10046
▁arguments	-10047
▁aériennes	-10048
▁disposant	-10049
▁générales	-10050
▁maintient	-10051
▁tertiaire	-10052
▁compatible	-10053
▁spectacles	-10054
▁concurrents	-10055
▁travaillent	-10056
▁parlementaires	-10057
56	-10058
ué	-10059
bap	-10060
lib	-10061
oku	-10062
ûte	-10063
▁ip	-10064
èbes	-10065
▁dag	-10066
▁ong	-10067
illac	-10068
▁avis	-10069
▁faso	-10070
avance	-10071
etteur	-10072
illées	-10073
otypes	-10074
▁meiji	-10075
▁égale	-10076
enfants	-10077
éponyme	-10078
▁fermet	-10079
▁gloire	-10080
▁orange	-10081
▁placer	-10082
▁rayons	-10083
▁sombre	-10084
provence	-10085
▁accéder	-10086
▁amélior	-10087
▁frontal	-10088
▁celtique	-10089
▁dialecte	-10090
▁diminuer	-10091
▁champagne	-10092
▁détriment	-10093
▁hollywood	-10094
▁bénéficier	-10095
▁comparable	-10096
▁entreprend	-10097
▁considérant	-10098
▁configuration	-10099
▁périphériques	-10100
ua	-10101
cii	-10102
erb	-10103
erç	-10104
vil	-10105
argu	-10106
ater	-10107
cope	-10108
ieur	-10109
itch	-10110
pira	-10111
▁177	-10112
▁mir	-10113
▁raf	-10114
accal	-10115
ierry	-10116
istol	-10117
livre	-10118
mbler	-10119
meurs	-10120
▁1946	-10121
▁hans	-10122
▁mark	-10123
▁muse	-10124
▁méro	-10125
▁peur	-10126
compos	-10127
offici	-10128
érable	-10129
érales	-10130
▁1968,	-10131
▁1982,	-10132
▁2004.	-10133
▁aider	-10134
▁geste	-10135
▁godin	-10136
▁gusta	-10137
▁plume	-10138
▁ponts	-10139
antaine	-10140
anterie	-10141
appelle	-10142
▁allait	-10143
▁basque	-10144
▁edward	-10145
▁grotte	-10146
▁malade	-10147
▁restri	-10148
▁assiste	-10149
▁bureaux	-10150
▁burkina	-10151
▁faculté	-10152
▁statues	-10153
▁sympath	-10154
activités	-10155
atisation	-10156
orisation	-10157
▁confirmé	-10158
▁coordonn	-10159
▁lecteurs	-10160
▁marquant	-10161
▁molécule	-10162
▁picardie	-10163
▁portrait	-10164
▁septième	-10165
▁visibles	-10166
▁organique	-10167
▁polémique	-10168
▁quantités	-10169
▁remarquer	-10170
▁standards	-10171
▁baudelaire	-10172
▁distinctes	-10173
▁extérieure	-10174
▁portugaise	-10175
▁accessibles	-10176
▁dissolution	-10177
▁diplomatique	-10178
▁nationaliste	-10179
▁spécialisées	-10180
▁significative	-10181
pg	-10182
sax	-10183
ush	-10184
▁3.	-10185
▁85	-10186
audi	-10187
hall	-10188
opes	-10189
oria	-10190
sile	-10191
çait	-10192
éter	-10193
▁10,	-10194
▁ate	-10195
▁fum	-10196
▁lus	-10197
▁1968	-10198
▁1969	-10199
▁1973	-10200
▁1983	-10201
▁adam	-10202
▁agro	-10203
▁clan	-10204
▁gide	-10205
▁guit	-10206
▁scri	-10207
▁épar	-10208
cevoir	-10209
député	-10210
usalem	-10211
▁battu	-10212
▁pieds	-10213
▁rives	-10214
▁tâche	-10215
ticisme	-10216
▁bateau	-10217
▁enjeux	-10218
▁exempl	-10219
▁facile	-10220
▁pistes	-10221
▁pousse	-10222
▁tantôt	-10223
▁variés	-10224
▁virgin	-10225
ographes	-10226
ènements	-10227
▁fortran	-10228
▁réservé	-10229
espérance	-10230
▁aristote	-10231
▁capables	-10232
▁circuits	-10233
▁dimanche	-10234
▁indienne	-10235
▁prononcé	-10236
▁variante	-10237
▁abandonne	-10238
▁composent	-10239
▁distincts	-10240
▁déroulent	-10241
▁fécondité	-10242
▁septentri	-10243
▁théologie	-10244
▁variation	-10245
▁verhoeven	-10246
▁comportant	-10247
▁finlandais	-10248
▁scénariste	-10249
▁désignation	-10250
▁pharaonique	-10251
▁téléphonique	-10252
▁démonstration	-10253
sch	-10254
aile	-10255
bois	-10256
view	-10257
▁(0,	-10258
▁eug	-10259
▁nub	-10260
bains	-10261
fiant	-10262
major	-10263
otype	-10264
étale	-10265
▁fixé	-10266
▁star	-10267
▁tall	-10268
michel	-10269
objets	-10270
savoie	-10271
▁1940,	-10272
▁2009.	-10273
▁venue	-10274
viation	-10275
égation	-10276
▁adoles	-10277
▁apparu	-10278
▁métall	-10279
▁report	-10280
▁sacrés	-10281
▁sépare	-10282
▁atmosph	-10283
▁barrage	-10284
▁dominée	-10285
▁offrent	-10286
▁parfait	-10287
▁retirer	-10288
▁sportif	-10289
organiser	-10290
▁empêcher	-10291
▁inscrits	-10292
▁intégrés	-10293
▁judaïsme	-10294
▁marseill	-10295
▁montrant	-10296
▁portable	-10297
▁publiées	-10298
▁sanction	-10299
▁scandale	-10300
▁capitaine	-10301
▁languedoc	-10302
▁récepteur	-10303
▁sexualité	-10304
exemplaires	-10305
▁collective	-10306
▁orientales	-10307
▁catastrophe	-10308
▁fondamental	-10309
▁témoignages	-10310
▁contribution	-10311
ku	-10312
bul	-10313
opp	-10314
tos	-10315
und	-10316
xie	-10317
âne	-10318
okka	-10319
onin	-10320
▁(')	-10321
▁170	-10322
▁squ	-10323
▁sér	-10324
assan	-10325
▁1978	-10326
▁cite	-10327
▁rati	-10328
▁sent	-10329
▁sida	-10330
▁voté	-10331
▁xixe	-10332
auréat	-10333
uscule	-10334
▁corri	-10335
▁décal	-10336
▁papon	-10337
▁patin	-10338
▁pôles	-10339
effectu	-10340
ogramme	-10341
▁blason	-10342
▁découv	-10343
▁identi	-10344
▁module	-10345
▁répéti	-10346
▁réside	-10347
ajoutent	-10348
▁adaptée	-10349
▁assurée	-10350
▁préfère	-10351
abolition	-10352
▁animales	-10353
▁argentin	-10354
▁favorise	-10355
▁manières	-10356
▁poétique	-10357
▁ressembl	-10358
▁contraste	-10359
exploration	-10360
éronautique	-10361
▁rencontres	-10362
▁alternative	-10363
▁impressionn	-10364
▁parviennent	-10365
▁présidentiel	-10366
fus	-10367
iva	-10368
lux	-10369
osi	-10370
tah	-10371
▁(8	-10372
abbé	-10373
abré	-10374
adig	-10375
ator	-10376
omes	-10377
punk	-10378
▁abd	-10379
▁tan	-10380
henri	-10381
inium	-10382
psych	-10383
tabil	-10384
ticul	-10385
ènent	-10386
▁1985	-10387
▁créd	-10388
▁hand	-10389
▁hond	-10390
▁scep	-10391
▁vinc	-10392
▁vélo	-10393
atisme	-10394
▁décis	-10395
▁lymph	-10396
▁marin	-10397
▁panth	-10398
▁tunis	-10399
présent	-10400
utenant	-10401
▁ambigu	-10402
▁rurale	-10403
totalité	-10404
êtements	-10405
▁affaire	-10406
▁chargés	-10407
continent	-10408
esclavage	-10409
▁attribue	-10410
▁incluent	-10411
▁radicale	-10412
▁soutenue	-10413
▁séquence	-10414
▁associées	-10415
▁consacrés	-10416
▁consensus	-10417
▁installée	-10418
exportation	-10419
institution	-10420
▁légitimité	-10421
▁adaptations	-10422
▁compositeur	-10423
▁controverses	-10424
▁fondamentales	-10425
25	-10426
agi	-10427
ben	-10428
dir	-10429
six	-10430
▁55	-10431
▁68	-10432
▁ry	-10433
exil	-10434
itôt	-10435
sans	-10436
urés	-10437
éfin	-10438
▁bit	-10439
agées	-10440
etnam	-10441
lever	-10442
▁chab	-10443
▁sark	-10444
charge	-10445
ctares	-10446
joseph	-10447
teries	-10448
élique	-10449
▁blocs	-10450
▁démén	-10451
▁glaci	-10452
▁votes	-10453
▁âgées	-10454
anciens	-10455
littéra	-10456
urgence	-10457
▁agglom	-10458
▁brunei	-10459
▁devoir	-10460
▁envoyé	-10461
▁malais	-10462
▁radios	-10463
▁revues	-10464
▁rédigé	-10465
▁taïwan	-10466
équateur	-10467
▁combatt	-10468
▁fortune	-10469
▁libéral	-10470
▁monarch	-10471
▁relatif	-10472
▁suicide	-10473
oussillon	-10474
▁bertrand	-10475
▁collèges	-10476
▁estiment	-10477
▁logement	-10478
▁surfaces	-10479
▁basilique	-10480
▁jérusalem	-10481
▁orthodoxe	-10482
▁passagers	-10483
▁reconnues	-10484
▁thermique	-10485
accalauréat	-10486
▁impliquant	-10487
▁juridiques	-10488
▁reprennent	-10489
amélioration	-10490
▁partenariat	-10491
▁métaphysique	-10492
bsd	-10493
▁(9	-10494
▁51	-10495
▁ki	-10496
arrê	-10497
reur	-10498
vala	-10499
▁175	-10500
▁coi	-10501
▁fis	-10502
▁rod	-10503
enait	-10504
ontan	-10505
▁aire	-10506
▁jord	-10507
▁rite	-10508
▁venu	-10509
▁élue	-10510
métrie	-10511
reinte	-10512
rivant	-10513
▁bière	-10514
▁catal	-10515
▁crues	-10516
▁sauve	-10517
▁sinon	-10518
émiques	-10519
▁défait	-10520
▁dérive	-10521
▁fidèle	-10522
▁foyers	-10523
▁incomp	-10524
applique	-10525
armement	-10526
▁animale	-10527
▁passion	-10528
▁suspend	-10529
▁édouard	-10530
hitchcock	-10531
▁clinique	-10532
▁communau	-10533
▁mémoires	-10534
▁salaires	-10535
▁tableaux	-10536
lématiques	-10537
▁encourage	-10538
▁mentionne	-10539
▁interprète	-10540
▁perfection	-10541
▁biologiques	-10542
▁déplacements	-10543
▁républicains	-10544
▁véritablement	-10545
▁multiplication	-10546
cc	-10547
fou	-10548
sec	-10549
uls	-10550
▁vé	-10551
▁jum	-10552
▁uns	-10553
arabe	-10554
aurer	-10555
clési	-10556
encer	-10557
joint	-10558
ortée	-10559
ozone	-10560
▁dend	-10561
▁doux	-10562
▁rica	-10563
▁saut	-10564
▁vols	-10565
istère	-10566
▁embar	-10567
▁groen	-10568
▁nazis	-10569
▁plong	-10570
▁rétro	-10571
▁souci	-10572
alisant	-10573
ataires	-10574
ativité	-10575
uminium	-10576
èvement	-10577
épreuve	-10578
▁datent	-10579
▁dépour	-10580
▁gilles	-10581
▁leader	-10582
▁pommes	-10583
▁thèbes	-10584
artistes	-10585
▁commuta	-10586
▁diminue	-10587
▁honoris	-10588
▁staline	-10589
▁suscite	-10590
▁artisans	-10591
▁environs	-10592
▁gothique	-10593
▁mystères	-10594
▁pompidou	-10595
▁procédés	-10596
▁provinci	-10597
▁traversé	-10598
▁commandes	-10599
▁générique	-10600
▁provoquer	-10601
▁tribunaux	-10602
▁voyageurs	-10603
▁concurrent	-10604
▁opérateurs	-10605
▁spécialisé	-10606
▁versailles	-10607
instauration	-10608
▁algorithmes	-10609
▁chronologie	-10610
▁commerçants	-10611
▁domestiques	-10612
▁yougoslavie	-10613
▁baccalauréat	-10614
▁reproduction	-10615
▁municipalités	-10616
▁transcription	-10617
▁interprétations	-10618
28	-10619
esc	-10620
pap	-10621
rol	-10622
▁da	-10623
▁rn	-10624
chap	-10625
iège	-10626
meur	-10627
ondu	-10628
rans	-10629
▁puy	-10630
▁sak	-10631
▁vap	-10632
anime	-10633
immig	-10634
oises	-10635
uguay	-10636
▁gère	-10637
▁jugé	-10638
▁miss	-10639
▁roch	-10640
asthme	-10641
encont	-10642
onnées	-10643
▁1973,	-10644
▁activ	-10645
▁cohér	-10646
▁coûts	-10647
▁guère	-10648
▁piste	-10649
▁rayon	-10650
▁savoy	-10651
▁sécur	-10652
horloge	-10653
▁cardin	-10654
▁crises	-10655
▁monter	-10656
▁notori	-10657
▁quitté	-10658
▁refusé	-10659
▁récent	-10660
▁street	-10661
▁étudié	-10662
édemment	-10663
▁pédagog	-10664
▁réfléch	-10665
▁spontan	-10666
▁surmont	-10667
▁tombeau	-10668
▁volumes	-10669
▁voulait	-10670
▁colombie	-10671
▁convient	-10672
▁hospital	-10673
▁inspirée	-10674
▁cherchent	-10675
▁composant	-10676
▁continuer	-10677
▁luxembour	-10678
▁qualifier	-10679
▁qualifiée	-10680
▁cérémonies	-10681
▁navigateur	-10682
▁réflexions	-10683
▁accompagnée	-10684
▁controverse	-10685
▁distinguent	-10686
▁caractérisée	-10687
▁fondamentaux	-10688
▁spécialement	-10689
9),	-10690
akh	-10691
aki	-10692
mag	-10693
achi	-10694
auts	-10695
carb	-10696
isti	-10697
outh	-10698
tuel	-10699
ware	-10700
▁aim	-10701
▁rad	-10702
▁tgv	-10703
▁tun	-10704
accep	-10705
arios	-10706
asaki	-10707
capit	-10708
iciel	-10709
relle	-10710
▁addi	-10711
▁bang	-10712
▁dépe	-10713
▁exil	-10714
▁hind	-10715
▁memp	-10716
▁mira	-10717
▁unix	-10718
ogènes	-10719
▁2013.	-10720
▁ingén	-10721
▁népal	-10722
▁press	-10723
▁sound	-10724
▁steph	-10725
adresse	-10726
annonce	-10727
épisode	-10728
établis	-10729
▁auxili	-10730
▁barcel	-10731
▁cycles	-10732
▁déform	-10733
▁tennis	-10734
▁tombes	-10735
abilités	-10736
annexion	-10737
▁chicago	-10738
▁connait	-10739
▁entouré	-10740
▁olivier	-10741
▁restitu	-10742
▁traject	-10743
augmenter	-10744
inflation	-10745
▁bretonne	-10746
▁caraïbes	-10747
▁contacts	-10748
▁légendes	-10749
▁méroving	-10750
▁transmet	-10751
▁équatori	-10752
attraction	-10753
extinction	-10754
▁invasions	-10755
▁opposants	-10756
▁ouverture	-10757
▁pratiquer	-10758
▁préserver	-10759
▁ressource	-10760
▁réparties	-10761
▁constitués	-10762
▁hypothèses	-10763
▁manuscrits	-10764
▁montagneux	-10765
▁paramètres	-10766
▁témoignent	-10767
▁combattants	-10768
▁championnats	-10769
▁précédemment	-10770
54	-10771
iso	-10772
kon	-10773
lab	-10774
udf	-10775
hann	-10776
orég	-10777
rèze	-10778
tise	-10779
èges	-10780
▁aix	-10781
▁sti	-10782
▁tam	-10783
▁vih	-10784
anjou	-10785
housi	-10786
rales	-10787
uffis	-10788
utent	-10789
▁(197	-10790
▁deal	-10791
▁mous	-10792
▁sard	-10793
▁1962,	-10794
▁corré	-10795
▁gagné	-10796
▁gènes	-10797
▁inqui	-10798
▁lauré	-10799
▁modem	-10800
▁percy	-10801
▁vieil	-10802
abandon	-10803
▁décors	-10804
▁désire	-10805
▁noctur	-10806
▁perses	-10807
▁pseudo	-10808
▁survie	-10809
encontre	-10810
▁ancêtre	-10811
▁détroit	-10812
▁ecclési	-10813
▁fondées	-10814
▁princes	-10815
▁brassens	-10816
▁cousteau	-10817
▁peintres	-10818
▁prédomin	-10819
▁voisines	-10820
▁faisaient	-10821
▁attribuent	-10822
▁engagement	-10823
▁grandement	-10824
▁métropolit	-10825
▁obtiennent	-10826
▁produisant	-10827
▁législature	-10828
▁électromagn	-10829
▁explicitement	-10830
▁indépendantes	-10831
▁installations	-10832
▁supplémentaire	-10833
14	-10834
34	-10835
zi	-10836
ato	-10837
cra	-10838
ozy	-10839
uth	-10840
▁49	-10841
▁65	-10842
▁pn	-10843
chot	-10844
elin	-10845
krit	-10846
méne	-10847
▁cic	-10848
▁gab	-10849
▁tin	-10850
abond	-10851
achat	-10852
berta	-10853
erine	-10854
illir	-10855
obert	-10856
rasse	-10857
▁(189	-10858
▁1962	-10859
▁1979	-10860
▁1984	-10861
▁auss	-10862
▁cond	-10863
▁doig	-10864
▁mall	-10865
▁viêt	-10866
dinand	-10867
martin	-10868
randes	-10869
égorie	-10870
▁1983,	-10871
▁2016.	-10872
▁annon	-10873
▁miner	-10874
▁nazie	-10875
▁optim	-10876
▁recru	-10877
▁titul	-10878
▁éclat	-10879
alevala	-10880
▁carlos	-10881
▁hormis	-10882
▁légère	-10883
▁migrat	-10884
▁stades	-10885
▁tissus	-10886
▁apporté	-10887
▁college	-10888
▁formats	-10889
▁mineurs	-10890
▁minitel	-10891
▁ménages	-10892
▁tempore	-10893
▁variées	-10894
▁aussitôt	-10895
▁copernic	-10896
▁diffusée	-10897
▁monnaies	-10898
assassinat	-10899
historique	-10900
évaluation	-10901
▁désignant	-10902
▁notoriété	-10903
▁composante	-10904
▁généalogie	-10905
▁municipaux	-10906
▁pratiquant	-10907
▁profession	-10908
▁successifs	-10909
▁adversaires	-10910
▁conventions	-10911
▁fournissent	-10912
▁gravitation	-10913
▁multiplient	-10914
▁individuelle	-10915
▁circonstances	-10916
▁individuelles	-10917
▁psychologique	-10918
▁renouvelables	-10919
44	-10920
84	-10921
aque	-10922
ovie	-10923
élie	-10924
▁bip	-10925
▁vag	-10926
ancée	-10927
ilier	-10928
trans	-10929
▁aver	-10930
▁fifa	-10931
▁gris	-10932
▁herb	-10933
▁toit	-10934
arités	-10935
enberg	-10936
ignons	-10937
lèvent	-10938
partie	-10939
▁conte	-10940
▁copie	-10941
▁ghana	-10942
▁naiss	-10943
▁pente	-10944
▁sèche	-10945
▁troph	-10946
imposer	-10947
métique	-10948
étienne	-10949
▁absorb	-10950
▁boulev	-10951
▁drogue	-10952
▁imposé	-10953
▁impôts	-10954
▁julien	-10955
▁larges	-10956
▁oblige	-10957
▁rédige	-10958
▁révélé	-10959
▁surven	-10960
jections	-10961
tination	-10962
▁apparue	-10963
▁baptisé	-10964
▁calculs	-10965
▁ottoman	-10966
▁sarkozy	-10967
▁secrets	-10968
▁argument	-10969
▁prestige	-10970
▁proposée	-10971
▁réussite	-10972
▁secondes	-10973
accompagne	-10974
instrument	-10975
▁attributs	-10976
▁exception	-10977
▁fermeture	-10978
▁finistère	-10979
▁scolaires	-10980
▁sénateurs	-10981
acquisition	-10982
▁fonctionner	-10983
gs	-10984
alb	-10985
omo	-10986
uck	-10987
uge	-10988
una	-10989
▁">	-10990
▁km	-10991
extr	-10992
opée	-10993
▁(17	-10994
▁bis	-10995
▁bov	-10996
▁tak	-10997
ernet	-10998
ester	-10999
rouge	-11000
▁bach	-11001
▁mart	-11002
▁pand	-11003
▁slog	-11004
aurait	-11005
▁1978,	-11006
▁condi	-11007
▁coton	-11008
▁kanji	-11009
▁manuf	-11010
▁perçu	-11011
▁vigne	-11012
arrière	-11013
hercule	-11014
▁abouti	-11015
▁autobi	-11016
▁brevet	-11017
▁mussol	-11018
▁placée	-11019
▁politi	-11020
▁précon	-11021
▁éclate	-11022
▁cheveux	-11023
▁colonne	-11024
▁éditeur	-11025
▁comparée	-11026
▁définies	-11027
▁dépasser	-11028
▁ibérique	-11029
▁médiéval	-11030
engagement	-11031
▁officiers	-11032
▁particule	-11033
▁qualifiés	-11034
▁scénarios	-11035
emplacement	-11036
▁mauritanie	-11037
▁solidarité	-11038
▁théoriques	-11039
▁amérindiens	-11040
▁compilation	-11041
▁définitions	-11042
▁spectateurs	-11043
▁majoritaires	-11044
enregistrement	-11045
▁domestication	-11046
sy	-11047
los	-11048
yss	-11049
zac	-11050
▁ah	-11051
ache	-11052
auto	-11053
avis	-11054
chou	-11055
hard	-11056
héra	-11057
igny	-11058
ilib	-11059
issi	-11060
sign	-11061
work	-11062
èdes	-11063
▁300	-11064
▁bru	-11065
▁cia	-11066
▁fos	-11067
▁haï	-11068
▁php	-11069
attan	-11070
▁1977	-11071
▁spéc	-11072
aniste	-11073
inomin	-11074
orbite	-11075
trices	-11076
ériens	-11077
étoile	-11078
▁1965,	-11079
▁1977,	-11080
▁2017.	-11081
▁appuy	-11082
▁cessé	-11083
▁câble	-11084
▁dédié	-11085
▁exclu	-11086
▁marge	-11087
▁saône	-11088
▁trent	-11089
▁élarg	-11090
adapter	-11091
enquête	-11092
lations	-11093
ométrie	-11094
pellier	-11095
▁cantal	-11096
▁crédit	-11097
▁debout	-11098
▁hitler	-11099
▁nommer	-11100
▁office	-11101
▁talent	-11102
exprimer	-11103
maritime	-11104
▁archées	-11105
▁conclut	-11106
▁courses	-11107
▁cuisson	-11108
▁gravité	-11109
▁renvoie	-11110
▁sondage	-11111
▁écosyst	-11112
▁calculer	-11113
▁disposer	-11114
▁patients	-11115
ordination	-11116
tification	-11117
▁masculine	-11118
▁remplacée	-11119
▁différenci	-11120
▁dépendance	-11121
▁évènements	-11122
▁inondations	-11123
▁progressive	-11124
▁égyptiennes	-11125
▁agriculteurs	-11126
▁laboratoires	-11127
▁préservation	-11128
▁politiquement	-11129
▁protestantisme	-11130
jō	-11131
oît	-11132
anat	-11133
ffre	-11134
ican	-11135
join	-11136
ladi	-11137
mère	-11138
tron	-11139
▁crê	-11140
▁fie	-11141
▁ibn	-11142
▁tis	-11143
arbit	-11144
oïsme	-11145
tatus	-11146
▁dias	-11147
▁jung	-11148
▁laur	-11149
▁loup	-11150
ivores	-11151
▁antil	-11152
▁donna	-11153
▁dress	-11154
▁déliv	-11155
▁jette	-11156
▁motif	-11157
▁posth	-11158
▁rébel	-11159
▁réels	-11160
▁vraie	-11161
▁étern	-11162
▁anvers	-11163
▁creuse	-11164
▁gambie	-11165
▁hivers	-11166
▁hôtels	-11167
▁persan	-11168
▁plages	-11169
ministre	-11170
▁conquis	-11171
▁diffuse	-11172
▁déploie	-11173
▁initial	-11174
▁intense	-11175
▁médical	-11176
▁samoura	-11177
▁thierry	-11178
▁éthique	-11179
iversaire	-11180
▁horizont	-11181
▁latitude	-11182
▁serveurs	-11183
algorithme	-11184
▁annuelles	-11185
▁organiser	-11186
▁policiers	-11187
▁relatives	-11188
▁remontent	-11189
unification	-11190
▁atmosphère	-11191
▁comportent	-11192
▁migrations	-11193
▁collections	-11194
▁moléculaire	-11195
▁professeurs	-11196
▁surréalisme	-11197
▁volontaires	-11198
▁sensiblement	-11199
▁conjointement	-11200
▁normalisation	-11201
▁agglomérations	-11202
53	-11203
had	-11204
khe	-11205
oué	-11206
tém	-11207
▁33	-11208
▁38	-11209
▁gê	-11210
▁hp	-11211
▁ka	-11212
hong	-11213
oslo	-11214
▁htt	-11215
▁kal	-11216
▁lap	-11217
▁sen	-11218
amoto	-11219
essai	-11220
publi	-11221
tille	-11222
yclop	-11223
▁bœuf	-11224
▁chat	-11225
▁mélo	-11226
▁pira	-11227
▁suis	-11228
amitié	-11229
érapie	-11230
▁1984,	-11231
▁bruta	-11232
▁corde	-11233
▁cyber	-11234
▁dépou	-11235
▁gares	-11236
▁moral	-11237
▁rémun	-11238
▁socio	-11239
▁vache	-11240
aniques	-11241
▁décomp	-11242
▁détail	-11243
▁existé	-11244
▁expose	-11245
▁fonder	-11246
▁luttes	-11247
▁rempla	-11248
▁élabor	-11249
▁affecté	-11250
▁apports	-11251
▁modélis	-11252
▁séparés	-11253
▁feuilles	-11254
▁lettonie	-11255
▁passages	-11256
▁penseurs	-11257
▁réunions	-11258
▁attribués	-11259
▁avantages	-11260
▁dynasties	-11261
▁déroulant	-11262
▁désaccord	-11263
▁interface	-11264
▁pratiquée	-11265
▁reprenant	-11266
attribution	-11267
▁astéroïdes	-11268
▁spécialité	-11269
ologiquement	-11270
▁législation	-11271
▁montpellier	-11272
▁métalliques	-11273
▁sensibilité	-11274
tionnellement	-11275
▁dispositions	-11276
▁stratégiques	-11277
▁successivement	-11278
oh	-11279
yō	-11280
cie	-11281
cue	-11282
ias	-11283
loy	-11284
oce	-11285
iend	-11286
itou	-11287
lage	-11288
visé	-11289
émis	-11290
inten	-11291
mière	-11292
▁1966	-11293
▁agré	-11294
▁algé	-11295
▁bons	-11296
▁perl	-11297
▁puce	-11298
▁salt	-11299
▁sémi	-11300
angers	-11301
attend	-11302
ifique	-11303
illard	-11304
▁1971,	-11305
▁1976,	-11306
▁2019.	-11307
▁croco	-11308
▁fixée	-11309
▁indes	-11310
▁léger	-11311
▁wilde	-11312
charles	-11313
▁access	-11314
▁alchim	-11315
▁destru	-11316
▁gaston	-11317
▁jeanne	-11318
▁maires	-11319
▁natura	-11320
▁rennes	-11321
▁tirage	-11322
▁touché	-11323
astronom	-11324
ducteurs	-11325
▁comètes	-11326
▁régimes	-11327
▁textile	-11328
▁vietnam	-11329
technique	-11330
▁dominant	-11331
▁détruire	-11332
▁enceinte	-11333
▁interven	-11334
▁missionn	-11335
▁retrouvé	-11336
▁traduire	-11337
▁vaisseau	-11338
▁construis	-11339
▁friedrich	-11340
▁idéologie	-11341
▁macédoine	-11342
▁mussolini	-11343
▁phosphore	-11344
▁vêtements	-11345
alimentaire	-11346
▁antérieure	-11347
▁pleinement	-11348
▁protocoles	-11349
▁information	-11350
▁élémentaire	-11351
▁conservateur	-11352
▁architectural	-11353
/2	-11354
vé	-11355
gel	-11356
ito	-11357
ona	-11358
azur	-11359
glas	-11360
iade	-11361
kans	-11362
rais	-11363
▁als	-11364
▁box	-11365
▁inn	-11366
▁pag	-11367
▁vos	-11368
artis	-11369
ifier	-11370
japon	-11371
neaux	-11372
rante	-11373
trale	-11374
▁1939	-11375
▁amor	-11376
▁auto	-11377
▁invo	-11378
▁luxe	-11379
▁émer	-11380
claude	-11381
oshima	-11382
▁1958,	-11383
▁admet	-11384
▁amené	-11385
▁antis	-11386
▁atome	-11387
▁marne	-11388
▁persu	-11389
▁poser	-11390
étendre	-11391
▁assist	-11392
▁carref	-11393
▁doctor	-11394
▁jouant	-11395
▁patern	-11396
▁recouv	-11397
viations	-11398
▁adopter	-11399
▁empires	-11400
▁imposer	-11401
▁organes	-11402
▁parenté	-11403
▁reflète	-11404
améliorer	-11405
tractatus	-11406
▁panthéon	-11407
▁paraître	-11408
▁pourcent	-11409
▁spéciaux	-11410
▁violents	-11411
▁étranger	-11412
▁capitales	-11413
▁librement	-11414
▁mexicains	-11415
▁protéines	-11416
▁défenseurs	-11417
▁localement	-11418
▁récepteurs	-11419
▁sculptures	-11420
▁témoignage	-11421
▁conceptions	-11422
▁spécialités	-11423
▁typiquement	-11424
▁manipulation	-11425
▁représentées	-11426
▁représentaient	-11427
83	-11428
85	-11429
rs	-11430
6).	-11431
box	-11432
dra	-11433
eto	-11434
ett	-11435
vol	-11436
wis	-11437
▁47	-11438
▁95	-11439
▁wi	-11440
="10	-11441
août	-11442
avre	-11443
ayak	-11444
côte	-11445
lées	-11446
mart	-11447
▁hir	-11448
▁tén	-11449
accro	-11450
haute	-11451
idées	-11452
mètre	-11453
orial	-11454
érape	-11455
érien	-11456
▁gise	-11457
▁nice	-11458
▁rall	-11459
▁scho	-11460
▁trim	-11461
aïkido	-11462
centre	-11463
gouver	-11464
ussion	-11465
▁1966,	-11466
▁2001.	-11467
▁costu	-11468
▁fland	-11469
▁ondes	-11470
▁orale	-11471
▁quint	-11472
alogues	-11473
animité	-11474
ascript	-11475
emplois	-11476
oureuse	-11477
visible	-11478
édifice	-11479
▁berger	-11480
▁conçus	-11481
▁empris	-11482
▁matchs	-11483
▁tâches	-11484
appuyant	-11485
▁anneaux	-11486
▁brahman	-11487
▁largeur	-11488
▁mineure	-11489
▁moments	-11490
▁placent	-11491
▁suisses	-11492
▁tutelle	-11493
australie	-11494
autoroute	-11495
avariable	-11496
explosion	-11497
homonymie	-11498
▁cambodge	-11499
▁dominent	-11500
▁débarque	-11501
▁fasciste	-11502
▁fromages	-11503
▁handball	-11504
▁observée	-11505
▁remonter	-11506
▁régulier	-11507
▁surprise	-11508
▁affluents	-11509
▁bénéfices	-11510
▁cinéastes	-11511
▁consonnes	-11512
▁démontrer	-11513
▁dépassant	-11514
▁identifié	-11515
▁indiquant	-11516
▁interromp	-11517
▁produites	-11518
▁remporter	-11519
▁toponymie	-11520
▁monastères	-11521
▁récompenses	-11522
▁réalisations	-11523
pn	-11524
cho	-11525
uba	-11526
umb	-11527
atti	-11528
gard	-11529
hipp	-11530
ilée	-11531
kins	-11532
▁120	-11533
▁lud	-11534
▁ved	-11535
abeth	-11536
aigne	-11537
ocène	-11538
rande	-11539
▁1975	-11540
▁corn	-11541
▁dame	-11542
▁irak	-11543
▁ivoi	-11544
▁kong	-11545
▁orch	-11546
▁écou	-11547
entier	-11548
humain	-11549
▁1944,	-11550
▁arbre	-11551
▁audio	-11552
▁chaos	-11553
▁parts	-11554
▁resta	-11555
▁serge	-11556
orateur	-11557
▁beauté	-11558
▁dépens	-11559
▁mexico	-11560
▁réunis	-11561
dictions	-11562
▁binaire	-11563
▁corrèze	-11564
▁leblanc	-11565
▁meurtri	-11566
▁monothé	-11567
▁pensent	-11568
▁quoique	-11569
▁randonn	-11570
▁ressort	-11571
▁retrans	-11572
▁voyelle	-11573
▁évoluer	-11574
ambassade	-11575
icilement	-11576
▁commença	-11577
▁lauréats	-11578
méneutique	-11579
▁aéroports	-11580
▁distances	-11581
▁groenland	-11582
▁quinzaine	-11583
▁regroupés	-11584
▁symbolise	-11585
▁adversaire	-11586
▁dramatique	-11587
▁entraînant	-11588
▁occupation	-11589
urbanisation	-11590
▁successives	-11591
▁carolingiens	-11592
▁indispensable	-11593
bu	-11594
gny	-11595
own	-11596
ust	-11597
veu	-11598
▁52	-11599
ardi	-11600
asis	-11601
ciel	-11602
line	-11603
neuf	-11604
ogie	-11605
ydos	-11606
▁12,	-11607
▁bic	-11608
aders	-11609
aille	-11610
amine	-11611
checs	-11612
mages	-11613
nisme	-11614
▁auth	-11615
▁berb	-11616
▁flot	-11617
▁féli	-11618
▁tiré	-11619
▁écar	-11620
geoise	-11621
icales	-11622
illons	-11623
invent	-11624
listes	-11625
ocytes	-11626
▁arrêt	-11627
▁avion	-11628
▁betty	-11629
▁grass	-11630
▁tirer	-11631
▁villa	-11632
▁voile	-11633
commune	-11634
▁adulte	-11635
▁bayrou	-11636
▁chauss	-11637
▁comète	-11638
▁connex	-11639
▁exhaus	-11640
▁tortue	-11641
▁trains	-11642
▁triple	-11643
▁énorme	-11644
baptiste	-11645
▁amateur	-11646
▁derrida	-11647
▁dioxyde	-11648
▁mozilla	-11649
▁ouverts	-11650
▁procure	-11651
▁succédé	-11652
intensité	-11653
médiaires	-11654
unanimité	-11655
▁contenir	-11656
▁dagobert	-11657
▁démontré	-11658
▁financer	-11659
▁grandeur	-11660
▁matériau	-11661
▁parution	-11662
▁puissent	-11663
▁catherine	-11664
▁musicales	-11665
▁princesse	-11666
▁bouddhiste	-11667
▁intervenir	-11668
▁javascript	-11669
▁lieutenant	-11670
▁nomination	-11671
électronique	-11672
▁anarchistes	-11673
▁appellation	-11674
▁architectes	-11675
▁bourgeoisie	-11676
▁constamment	-11677
▁libéralisme	-11678
▁normalement	-11679
▁spirituelle	-11680
▁spécialiste	-11681
▁hiéroglyphes	-11682
▁difficilement	-11683
▁indépendamment	-11684
sd	-11685
ero	-11686
gan	-11687
nor	-11688
orn	-11689
▁ay	-11690
aven	-11691
ocle	-11692
quin	-11693
tone	-11694
wana	-11695
çonn	-11696
▁act	-11697
▁aud	-11698
▁dvd	-11699
▁fbi	-11700
▁hip	-11701
▁hés	-11702
▁las	-11703
▁sax	-11704
activ	-11705
iopie	-11706
itaux	-11707
leurs	-11708
oient	-11709
opoli	-11710
orses	-11711
paris	-11712
porte	-11713
▁(196	-11714
▁durs	-11715
▁http	-11716
▁hôte	-11717
▁vaud	-11718
cienne	-11719
hattan	-11720
▁aggra	-11721
▁merve	-11722
▁pedro	-11723
▁rebap	-11724
▁sages	-11725
▁therm	-11726
enfance	-11727
exprime	-11728
▁auverg	-11729
▁condor	-11730
▁futurs	-11731
▁immeub	-11732
▁moines	-11733
▁museum	-11734
▁mégret	-11735
▁méthod	-11736
▁palmar	-11737
▁placés	-11738
▁prénom	-11739
▁revers	-11740
▁séance	-11741
▁thèses	-11742
enceinte	-11743
ératrice	-11744
▁absence	-11745
▁décrite	-11746
▁génitif	-11747
▁modifie	-11748
▁observé	-11749
▁plaisir	-11750
▁prépond	-11751
▁stephen	-11752
entretien	-11753
▁consommé	-11754
▁couvrant	-11755
▁exprimer	-11756
▁extrêmes	-11757
▁massacre	-11758
▁maximale	-11759
▁passionn	-11760
tissements	-11761
▁affirmant	-11762
▁déclarant	-11763
▁institute	-11764
▁matériels	-11765
▁nécropole	-11766
▁proposant	-11767
▁trentaine	-11768
▁convaincre	-11769
▁correction	-11770
▁discussion	-11771
▁identiques	-11772
▁rencontrer	-11773
▁suspension	-11774
effondrement	-11775
implantation	-11776
▁germaniques	-11777
▁mésopotamie	-11778
▁sarcophages	-11779
▁cryptographie	-11780
▁modernisation	-11781
▁présidentielles	-11782
74	-11783
ás	-11784
bra	-11785
cio	-11786
kov	-11787
loc	-11788
helm	-11789
leau	-11790
mens	-11791
mons	-11792
tues	-11793
vign	-11794
aucun	-11795
fient	-11796
horiz	-11797
oncés	-11798
ranch	-11799
▁fres	-11800
▁prêt	-11801
▁âges	-11802
espoir	-11803
istres	-11804
riment	-11805
vienne	-11806
▁emacs	-11807
▁euros	-11808
▁océan	-11809
▁prose	-11810
▁scott	-11811
affront	-11812
endrait	-11813
▁bouche	-11814
▁caucas	-11815
▁chants	-11816
▁firent	-11817
▁vapeur	-11818
▁verdun	-11819
▁éclair	-11820
cipation	-11821
▁accepté	-11822
▁accueil	-11823
▁apparus	-11824
▁diffère	-11825
▁endroit	-11826
▁immobil	-11827
▁inspire	-11828
▁rejette	-11829
▁soumise	-11830
extrémité	-11831
▁appropri	-11832
▁baltique	-11833
▁mutation	-11834
▁nagasaki	-11835
▁natalité	-11836
▁proclame	-11837
▁recouvre	-11838
▁souvenir	-11839
▁spéciale	-11840
▁australie	-11841
▁barcelone	-11842
▁cambridge	-11843
▁carrefour	-11844
▁cherchant	-11845
▁interview	-11846
▁organisme	-11847
▁singulier	-11848
▁spirituel	-11849
▁victoires	-11850
▁directions	-11851
▁effectuées	-11852
▁médiatique	-11853
▁partenaire	-11854
▁quelconque	-11855
▁sécheresse	-11856
▁volontaire	-11857
▁véritables	-11858
▁essentielle	-11859
▁extérieures	-11860
▁intercommun	-11861
▁susceptible	-11862
▁subdivisions	-11863
▁environnemental	-11864
22	-11865
37	-11866
;/	-11867
3).	-11868
san	-11869
▁té	-11870
adel	-11871
dele	-11872
empê	-11873
ombe	-11874
trés	-11875
viol	-11876
évin	-11877
ônes	-11878
▁fél	-11879
▁had	-11880
▁ség	-11881
droit	-11882
ilien	-11883
marse	-11884
▁aval	-11885
▁cogn	-11886
▁hill	-11887
▁pous	-11888
▁soud	-11889
▁vins	-11890
ajoute	-11891
images	-11892
épouse	-11893
▁1967,	-11894
▁crâne	-11895
▁denis	-11896
▁géant	-11897
▁implé	-11898
▁johan	-11899
▁scrib	-11900
▁subir	-11901
▁virus	-11902
▁époux	-11903
ampleur	-11904
empêche	-11905
▁chauds	-11906
▁exercé	-11907
▁hondur	-11908
▁landes	-11909
▁mondes	-11910
▁navire	-11911
▁naître	-11912
▁protag	-11913
▁supers	-11914
▁content	-11915
▁conçoit	-11916
▁définis	-11917
▁entrées	-11918
▁fluvial	-11919
▁menaces	-11920
▁aéroport	-11921
▁comparer	-11922
▁laissent	-11923
▁libéraux	-11924
▁migrants	-11925
▁palmarès	-11926
▁parvenir	-11927
▁roumanie	-11928
▁réalisme	-11929
▁sanskrit	-11930
infanterie	-11931
▁combattre	-11932
▁conquêtes	-11933
▁dépendent	-11934
▁grammatic	-11935
▁protégées	-11936
▁tolérance	-11937
▁échantill	-11938
▁activement	-11939
▁délégation	-11940
▁influencée	-11941
iconographie	-11942
▁phénicienne	-11943
▁pratiquants	-11944
▁alphabétique	-11945
▁commentaires	-11946
▁enseignements	-11947
-&	-11948
24	-11949
8)	-11950
hl	-11951
asu	-11952
fam	-11953
rap	-11954
akar	-11955
ctor	-11956
dict	-11957
dote	-11958
reau	-11959
urie	-11960
▁400	-11961
▁céd	-11962
▁cél	-11963
▁lcr	-11964
▁lem	-11965
▁nan	-11966
atéri	-11967
habil	-11968
huile	-11969
relig	-11970
roman	-11971
▁1965	-11972
▁1976	-11973
▁aigu	-11974
▁bohr	-11975
▁héra	-11976
▁isot	-11977
▁itin	-11978
▁kant	-11979
▁loth	-11980
▁posé	-11981
▁réve	-11982
▁sier	-11983
▁thot	-11984
▁élis	-11985
achève	-11986
adress	-11987
discip	-11988
effici	-11989
erreur	-11990
gauche	-11991
vation	-11992
▁2022.	-11993
▁amène	-11994
▁brook	-11995
▁cruci	-11996
▁défor	-11997
▁incor	-11998
▁prête	-11999
▁sauce	-12000
▁tests	-12001
quaient	-12002
élevait	-12003
établit	-12004
▁basées	-12005
▁common	-12006
▁enrich	-12007
▁neutre	-12008
▁restée	-12009
▁stylis	-12010
▁venise	-12011
▁évêque	-12012
logiciel	-12013
▁capture	-12014
▁douglas	-12015
▁irlande	-12016
▁libérer	-12017
▁paradig	-12018
▁voisine	-12019
aharienne	-12020
apparence	-12021
▁attitude	-12022
▁autorisé	-12023
▁chartres	-12024
▁employée	-12025
▁frédéric	-12026
▁jamaïque	-12027
▁posséder	-12028
▁typiques	-12029
▁végétaux	-12030
andalousie	-12031
▁fabriquer	-12032
▁permettra	-12033
▁recueille	-12034
▁descendant	-12035
▁exposition	-12036
▁forteresse	-12037
▁municipale	-12038
▁neutralité	-12039
▁permanents	-12040
▁prestigieux	-12041
▁écologiques	-12042
▁formellement	-12043
▁inscriptions	-12044
▁personnelles	-12045
▁archéologique	-12046
▁documentation	-12047
▁particulières	-12048
▁renouvellement	-12049
▁complémentaires	-12050
tp	-12051
8).	-12052
ady	-12053
alc	-12054
cli	-12055
kat	-12056
uet	-12057
uma	-12058
wig	-12059
adis	-12060
agan	-12061
ands	-12062
arre	-12063
conf	-12064
incl	-12065
phém	-12066
préf	-12067
tale	-12068
▁11,	-12069
▁éti	-12070
ançon	-12071
avion	-12072
strad	-12073
uites	-12074
âteau	-12075
▁ducs	-12076
▁pyra	-12077
▁tués	-12078
keting	-12079
oiseau	-12080
oriser	-12081
▁1999.	-12082
▁croit	-12083
▁diplô	-12084
▁incer	-12085
▁morse	-12086
▁paire	-12087
▁prior	-12088
▁reich	-12089
▁smith	-12090
▁évide	-12091
accéder	-12092
onienne	-12093
▁certes	-12094
▁colère	-12095
▁contes	-12096
▁fourni	-12097
▁levant	-12098
▁profil	-12099
▁étoile	-12100
attitude	-12101
aventure	-12102
▁accordé	-12103
▁affront	-12104
▁berceau	-12105
▁diminué	-12106
▁décerné	-12107
▁express	-12108
▁marqués	-12109
▁morceau	-12110
▁partant	-12111
▁savants	-12112
événement	-12113
▁assimilé	-12114
▁devenues	-12115
▁fraction	-12116
▁provoqué	-12117
▁serpents	-12118
▁violente	-12119
▁alliances	-12120
▁brésilien	-12121
▁condamnés	-12122
▁directive	-12123
▁ferdinand	-12124
▁guerriers	-12125
▁lentement	-12126
▁plutarque	-12127
▁récupérer	-12128
▁semblable	-12129
▁sexuelles	-12130
instabilité	-12131
▁communisme	-12132
▁orthodoxes	-12133
▁peuplement	-12134
▁pseudonyme	-12135
▁ultérieure	-12136
▁volcanique	-12137
▁évidemment	-12138
▁communiquer	-12139
▁continental	-12140
▁constructeur	-12141
▁phéniciennes	-12142
▁agglomération	-12143
▁consommateurs	-12144
▁revendications	-12145
▁technologiques	-12146
▁gouvernementale	-12147
55	-12148
9)	-12149
pu	-12150
8),	-12151
clé	-12152
urch	-12153
ymne	-12154
▁alp	-12155
▁gue	-12156
▁kir	-12157
▁prô	-12158
▁shō	-12159
plant	-12160
▁1971	-12161
▁afro	-12162
▁arme	-12163
▁imag	-12164
▁nout	-12165
▁trin	-12166
▁tron	-12167
illère	-12168
itudes	-12169
otaire	-12170
▁1946,	-12171
▁1959,	-12172
▁1969,	-12173
▁1987,	-12174
▁canon	-12175
▁mixte	-12176
▁pluvi	-12177
▁times	-12178
▁usine	-12179
cidents	-12180
octobre	-12181
▁croire	-12182
▁englob	-12183
▁ennemi	-12184
▁entame	-12185
▁gaules	-12186
▁relier	-12187
▁rendue	-12188
▁réunir	-12189
▁échoue	-12190
ériorité	-12191
▁athènes	-12192
▁charges	-12193
▁diaspor	-12194
▁directs	-12195
▁experts	-12196
▁fantasy	-12197
▁investi	-12198
▁lauréat	-12199
▁memphis	-12200
▁occupés	-12201
▁paradis	-12202
▁préféré	-12203
▁russell	-12204
▁souffre	-12205
ocratique	-12206
▁clotaire	-12207
▁comptant	-12208
▁interrog	-12209
▁marquent	-12210
▁mythique	-12211
▁policier	-12212
▁pyramide	-12213
▁renoncer	-12214
▁archaïque	-12215
▁composées	-12216
▁compromis	-12217
▁dangereux	-12218
▁ordinaire	-12219
▁sensibles	-12220
▁soumettre	-12221
▁wisigoths	-12222
▁conduisent	-12223
▁estonienne	-12224
▁organiques	-12225
▁discussions	-12226
▁expositions	-12227
▁participant	-12228
▁emblématique	-12229
▁publiquement	-12230
▁carolingienne	-12231
▁positionnement	-12232
fu	-12233
oté	-12234
reb	-12235
▁42	-12236
▁63	-12237
inst	-12238
mper	-12239
onio	-12240
quar	-12241
ston	-12242
yves	-12243
zuki	-12244
▁boc	-12245
▁die	-12246
▁foc	-12247
▁nik	-12248
▁rab	-12249
crite	-12250
essay	-12251
impôt	-12252
oscar	-12253
point	-12254
térix	-12255
▁daté	-12256
▁dues	-12257
▁excl	-12258
▁mali	-12259
▁viti	-12260
▁étés	-12261
aucune	-12262
ièrent	-12263
philip	-12264
sbourg	-12265
▁1941,	-12266
▁décom	-12267
▁hébra	-12268
▁moore	-12269
illages	-12270
otiques	-12271
▁arsène	-12272
▁celtes	-12273
▁conçue	-12274
▁examen	-12275
▁mérite	-12276
▁navale	-12277
▁ordonn	-12278
▁promen	-12279
▁quarts	-12280
▁rendez	-12281
▁réputé	-12282
▁samuel	-12283
▁sharon	-12284
▁vierge	-12285
astiques	-12286
culaires	-12287
étriques	-12288
▁chevaux	-12289
▁choisie	-12290
▁hostile	-12291
▁magique	-12292
▁métabol	-12293
▁opposés	-12294
▁parcour	-12295
▁parrain	-12296
▁préside	-12297
▁restera	-12298
▁tempéré	-12299
▁voulant	-12300
▁atteinte	-12301
▁attestée	-12302
▁classées	-12303
▁externes	-12304
▁garantir	-12305
▁légitime	-12306
▁officier	-12307
▁originel	-12308
▁positive	-12309
▁solaires	-12310
▁établies	-12311
anarchisme	-12312
▁apparence	-12313
▁champions	-12314
▁devraient	-12315
▁effectuée	-12316
▁fragments	-12317
▁fréquents	-12318
▁hongroise	-12319
▁manhattan	-12320
▁partielle	-12321
▁profondes	-12322
▁végétales	-12323
▁multination	-12324
▁pourcentage	-12325
▁républiques	-12326
▁transmettre	-12327
▁consultation	-12328
▁républicaine	-12329
▁dictionnaires	-12330
▁distributions	-12331
▁déforestation	-12332
▁exploitations	-12333
▁intermédiaires	-12334
tz	-12335
dos	-12336
ety	-12337
▁(7	-12338
▁46	-12339
▁ev	-12340
alon	-12341
pris	-12342
tels	-12343
wata	-12344
▁153	-12345
▁dil	-12346
▁tém	-12347
atlan	-12348
linux	-12349
rases	-12350
▁1941	-12351
▁1947	-12352
▁1956	-12353
▁assy	-12354
▁bell	-12355
▁cède	-12356
▁fanz	-12357
▁nich	-12358
▁prud	-12359
▁scal	-12360
▁soin	-12361
▁tuer	-12362
arsène	-12363
duisit	-12364
hébreu	-12365
lament	-12366
lettes	-12367
oniens	-12368
uistes	-12369
▁beach	-12370
▁bombe	-12371
▁cache	-12372
▁capet	-12373
▁coiff	-12374
▁défav	-12375
▁hokka	-12376
▁jones	-12377
▁orbit	-12378
ladimir	-12379
onnaise	-12380
quettes	-12381
▁cambri	-12382
▁hathor	-12383
▁irrégu	-12384
▁pompée	-12385
▁pontif	-12386
▁réfère	-12387
▁strict	-12388
▁vagues	-12389
dication	-12390
▁adaptés	-12391
▁dessert	-12392
▁dispers	-12393
▁déficit	-12394
▁incendi	-12395
▁maxwell	-12396
▁mobiles	-12397
▁paradox	-12398
▁protégé	-12399
▁romanes	-12400
▁tendent	-12401
▁vecteur	-12402
▁élaboré	-12403
infrastru	-12404
▁alphabet	-12405
▁dommages	-12406
▁limitées	-12407
▁lumineux	-12408
▁magasins	-12409
▁mexicain	-12410
▁phénomén	-12411
▁précieux	-12412
▁radicaux	-12413
▁trouvant	-12414
obligation	-12415
▁candidate	-12416
▁chevalier	-12417
▁marketing	-12418
▁présentés	-12419
▁africaines	-12420
▁matérielle	-12421
appartenance	-12422
▁corporation	-12423
▁possessions	-12424
▁localisation	-12425
▁photographies	-12426
▁photographique	-12427
26	-12428
51	-12429
57	-12430
hy	-12431
iri	-12432
low	-12433
mul	-12434
oly	-12435
rud	-12436
tat	-12437
ymn	-12438
yon	-12439
▁",	-12440
▁53	-12441
▁up	-12442
angs	-12443
diff	-12444
idae	-12445
jeun	-12446
nels	-12447
utri	-12448
épar	-12449
▁bav	-12450
▁eth	-12451
▁mee	-12452
▁vif	-12453
ivern	-12454
ology	-12455
uaire	-12456
èbres	-12457
▁1944	-12458
▁aîné	-12459
▁brig	-12460
▁buen	-12461
▁burg	-12462
▁diag	-12463
▁faud	-12464
▁magh	-12465
▁pamp	-12466
▁raci	-12467
anvers	-12468
christ	-12469
ingues	-12470
istait	-12471
onnage	-12472
▁aboli	-12473
▁akhen	-12474
▁brest	-12475
▁chœur	-12476
▁cogni	-12477
▁fruit	-12478
▁fuite	-12479
▁gener	-12480
▁idéal	-12481
▁incon	-12482
▁milan	-12483
▁prouv	-12484
hérents	-12485
issante	-12486
ouement	-12487
princip	-12488
utiques	-12489
ôpitaux	-12490
▁barrès	-12491
▁devise	-12492
▁légale	-12493
▁actrice	-12494
▁bretons	-12495
▁clavier	-12496
▁comités	-12497
▁externe	-12498
▁herbert	-12499
▁iranien	-12500
▁paquets	-12501
▁parenth	-12502
▁rigueur	-12503
▁royauté	-12504
▁rythmes	-12505
▁étienne	-12506
estations	-12507
interface	-12508
marseille	-12509
▁apporter	-12510
▁californ	-12511
▁contamin	-12512
▁favorisé	-12513
▁grimpeur	-12514
▁héritier	-12515
▁protagon	-12516
▁rétablir	-12517
▁vacances	-12518
équipement	-12519
▁antiquité	-12520
▁bénéficié	-12521
▁distribué	-12522
▁déclenche	-12523
▁exigences	-12524
▁narration	-12525
▁polonaise	-12526
▁vectoriel	-12527
▁antérieurs	-12528
▁démocrates	-12529
▁mécaniques	-12530
▁pratiquent	-12531
▁protecteur	-12532
▁regroupent	-12533
▁sociologue	-12534
entraînement	-12535
▁définissent	-12536
▁grammatical	-12537
▁géométrique	-12538
▁probabilité	-12539
▁rencontrent	-12540
▁travaillant	-12541
▁écosystèmes	-12542
▁intervention	-12543
▁susceptibles	-12544
▁fréquentation	-12545
▁hellénistique	-12546
hō	-12547
ár	-12548
202	-12549
gas	-12550
key	-12551
▁ig	-12552
agas	-12553
anou	-12554
aris	-12555
encl	-12556
iris	-12557
mane	-12558
olie	-12559
tish	-12560
york	-12561
▁(1,	-12562
▁ave	-12563
▁nou	-12564
▁nun	-12565
exode	-12566
morph	-12567
ocent	-12568
orgue	-12569
▁amon	-12570
▁bann	-12571
▁chyp	-12572
▁free	-12573
▁lisp	-12574
▁mour	-12575
▁noté	-12576
▁péné	-12577
▁sati	-12578
▁tamp	-12579
▁tang	-12580
▁vars	-12581
▁vuln	-12582
▁yves	-12583
issage	-12584
▁2021.	-12585
▁amont	-12586
▁globe	-12587
▁laiti	-12588
▁sigle	-12589
▁sympt	-12590
▁voulu	-12591
andorre	-12592
assique	-12593
général	-12594
▁applic	-12595
▁astron	-12596
▁dissid	-12597
▁hasard	-12598
▁paires	-12599
▁syntax	-12600
iendaire	-12601
occupant	-12602
▁agences	-12603
▁avancée	-12604
▁destitu	-12605
▁détourn	-12606
▁entrent	-12607
▁minière	-12608
▁boissons	-12609
▁coeffici	-12610
▁consonne	-12611
▁dénombre	-12612
▁malheure	-12613
▁pandémie	-12614
▁synonyme	-12615
▁akhenaton	-12616
▁attribuée	-12617
▁dessinées	-12618
▁intention	-12619
▁mentionné	-12620
▁succèdent	-12621
▁fabricants	-12622
▁fondements	-12623
▁indépendan	-12624
▁initiative	-12625
▁libertaire	-12626
▁rapprocher	-12627
▁revendique	-12628
▁rénovation	-12629
▁spectateur	-12630
▁massivement	-12631
▁morphologie	-12632
▁volcaniques	-12633
▁ferroviaires	-12634
▁bibliographie	-12635
▁potentiellement	-12636
bc	-12637
gb	-12638
’«	-12639
cot	-12640
dyn	-12641
imb	-12642
agen	-12643
avie	-12644
elli	-12645
endt	-12646
hisp	-12647
neau	-12648
ther	-12649
tour	-12650
▁cpc	-12651
▁ful	-12652
▁isa	-12653
▁kin	-12654
▁kon	-12655
▁ric	-12656
▁tim	-12657
▁vél	-12658
▁éme	-12659
rigue	-12660
usses	-12661
▁1987	-12662
▁enqu	-12663
▁géré	-12664
▁luis	-12665
▁mouv	-12666
▁vati	-12667
▁visu	-12668
actifs	-12669
alphab	-12670
apollo	-12671
érants	-12672
▁armés	-12673
▁débou	-12674
▁dépôt	-12675
▁dévas	-12676
▁jugée	-12677
▁lille	-12678
▁simon	-12679
▁sœurs	-12680
▁tabac	-12681
▁tissu	-12682
▁trame	-12683
habitat	-12684
hérence	-12685
mistice	-12686
ophiles	-12687
▁benoît	-12688
▁congol	-12689
▁engage	-12690
▁guyane	-12691
▁pauvre	-12692
▁redist	-12693
▁serbie	-12694
▁slaves	-12695
▁venait	-12696
opposent	-12697
▁ajoutée	-12698
▁artiste	-12699
▁fernand	-12700
▁gratuit	-12701
▁incarne	-12702
▁insiste	-12703
▁plaques	-12704
▁stanley	-12705
▁suffixe	-12706
▁talents	-12707
▁tramway	-12708
▁veulent	-12709
actualité	-12710
angulaire	-12711
▁contenus	-12712
▁contrats	-12713
▁désignés	-12714
▁existant	-12715
▁huitième	-12716
▁indigène	-12717
▁polygone	-12718
▁prospère	-12719
▁subsiste	-12720
▁supports	-12721
▁varsovie	-12722
▁éducatif	-12723
▁attention	-12724
▁boulevard	-12725
▁justifier	-12726
▁originaux	-12727
▁plastique	-12728
▁préalable	-12729
▁signifier	-12730
▁spéciales	-12731
européennes	-12732
▁combustion	-12733
▁contrainte	-12734
▁dynamiques	-12735
▁fréquentes	-12736
▁linguistes	-12737
▁provoquant	-12738
▁téléphonie	-12739
▁électoraux	-12740
▁fantastique	-12741
▁propagation	-12742
▁tardivement	-12743
▁appartements	-12744
▁certainement	-12745
▁exploitation	-12746
▁reconstituer	-12747
▁constructeurs	-12748
▁mathématicien	-12749
27	-12750
dj	-12751
hh	-12752
aku	-12753
alt	-12754
aub	-12755
cir	-12756
ctu	-12757
juk	-12758
oge	-12759
téb	-12760
▁if	-12761
▁rw	-12762
ardo	-12763
irak	-12764
isch	-12765
lots	-12766
omie	-12767
sole	-12768
tori	-12769
trer	-12770
▁13,	-12771
▁dem	-12772
▁erg	-12773
▁maz	-12774
▁néf	-12775
▁pdf	-12776
▁éro	-12777
aîtra	-12778
oleur	-12779
quier	-12780
raphe	-12781
èlent	-12782
▁(194	-12783
▁1963	-12784
▁bale	-12785
▁circ	-12786
▁litu	-12787
▁mena	-12788
▁ross	-12789
▁tril	-12790
licite	-12791
outils	-12792
▁déter	-12793
▁galax	-12794
▁hyper	-12795
▁queue	-12796
diennes	-12797
italien	-12798
optères	-12799
section	-12800
vénient	-12801
▁bienve	-12802
▁commém	-12803
▁confid	-12804
▁confie	-12805
▁dépôts	-12806
▁liévin	-12807
▁prévoy	-12808
▁psychi	-12809
▁refuge	-12810
▁syncré	-12811
▁sédent	-12812
▁vignob	-12813
▁écrans	-12814
▁évoqué	-12815
currence	-12816
philippe	-12817
▁alcatel	-12818
▁arrivés	-12819
▁baroque	-12820
▁colonel	-12821
▁coopéra	-12822
▁englobe	-12823
▁fiscale	-12824
▁invente	-12825
▁meeting	-12826
▁session	-12827
▁solides	-12828
atteindre	-12829
effectuer	-12830
opérateur	-12831
▁appliqué	-12832
▁diaspora	-12833
▁licences	-12834
▁opposant	-12835
▁peuplées	-12836
électrique	-12837
▁attentats	-12838
▁concernés	-12839
▁consacrer	-12840
▁entretien	-12841
▁espéranto	-12842
▁indonésie	-12843
▁portables	-12844
▁rattachée	-12845
▁rébellion	-12846
▁atteignent	-12847
▁circulaire	-12848
▁existantes	-12849
▁hollandais	-12850
▁ingénieurs	-12851
▁médicament	-12852
▁météorites	-12853
▁préférence	-12854
▁prévention	-12855
▁titulature	-12856
aristocratie	-12857
▁initiatives	-12858
▁inversement	-12859
▁juridiction	-12860
▁négligeable	-12861
▁trajectoire	-12862
▁électorales	-12863
▁anciennement	-12864
▁importations	-12865
▁introduction	-12866
▁nationalisme	-12867
▁atmosphérique	-12868
▁disparaissent	-12869
▁collaborateurs	-12870
▁exceptionnelle	-12871
'[[	-12872
1).	-12873
ibm	-12874
row	-12875
uée	-12876
▁gn	-12877
▁éb	-12878
ogue	-12879
pare	-12880
ténu	-12881
▁cib	-12882
▁cox	-12883
▁fuj	-12884
▁kra	-12885
▁mpf	-12886
▁ron	-12887
▁wii	-12888
atine	-12889
cents	-12890
ommés	-12891
érait	-12892
▁1967	-12893
▁bots	-12894
▁nant	-12895
▁perm	-12896
▁unes	-12897
élimin	-12898
▁1947,	-12899
▁2023,	-12900
▁animé	-12901
▁covid	-12902
▁doubs	-12903
▁georg	-12904
▁kenne	-12905
▁légal	-12906
▁moham	-12907
▁récur	-12908
▁sauss	-12909
▁tracé	-12910
▁égard	-12911
ajouter	-12912
auguste	-12913
▁ariane	-12914
▁carrés	-12915
▁comtés	-12916
▁grégor	-12917
▁plumes	-12918
▁restés	-12919
▁retire	-12920
▁sierra	-12921
▁suivis	-12922
▁teneur	-12923
inominal	-12924
▁arriver	-12925
▁bengali	-12926
▁blender	-12927
▁emplace	-12928
▁excessi	-12929
▁filière	-12930
▁lourdes	-12931
▁renonce	-12932
▁récipro	-12933
▁secrète	-12934
▁théolog	-12935
▁wilhelm	-12936
aluminium	-12937
▁biblique	-12938
▁calcaire	-12939
▁colonial	-12940
▁déplacer	-12941
▁instance	-12942
▁ouvertes	-12943
▁palestin	-12944
▁pavillon	-12945
▁proposés	-12946
▁travaill	-12947
▁ambassade	-12948
▁demeurent	-12949
▁efficaces	-12950
▁gaulliste	-12951
▁morphèmes	-12952
▁suggèrent	-12953
▁conduisant	-12954
▁extraordin	-12955
▁privilèges	-12956
▁bénéficiant	-12957
▁judiciaires	-12958
▁compilateurs	-12959
▁renouvelable	-12960
▁perturbations	-12961
▁microprocesseur	-12962
87	-12963
dep	-12964
hip	-12965
mic	-12966
oms	-12967
ébé	-12968
▁"*	-12969
▁(-	-12970
▁fm	-12971
="19	-12972
cath	-12973
code	-12974
oche	-12975
outs	-12976
pass	-12977
▁alb	-12978
▁fri	-12979
▁ges	-12980
▁joy	-12981
▁pyr	-12982
agner	-12983
ignan	-12984
inger	-12985
ombra	-12986
ulant	-12987
élarg	-12988
▁1958	-12989
▁1964	-12990
▁alig	-12991
▁cort	-12992
▁data	-12993
▁diac	-12994
▁dévo	-12995
▁gain	-12996
▁prai	-12997
▁tamb	-12998
▁tirs	-12999
▁wood	-13000
affich	-13001
sibles	-13002
▁1956,	-13003
▁céder	-13004
▁delan	-13005
▁estiv	-13006
▁immun	-13007
▁juges	-13008
▁miami	-13009
▁puits	-13010
▁reçut	-13011
▁sabre	-13012
▁terri	-13013
▁turcs	-13014
▁téles	-13015
acteurs	-13016
antoine	-13017
idation	-13018
optique	-13019
érosion	-13020
▁alcool	-13021
▁conjug	-13022
▁ernest	-13023
▁flamme	-13024
▁latins	-13025
▁martel	-13026
▁panthé	-13027
▁pertin	-13028
▁priori	-13029
▁romane	-13030
▁signer	-13031
harmonie	-13032
intégrer	-13033
métrique	-13034
▁bouches	-13035
▁comique	-13036
▁couples	-13037
▁décrois	-13038
▁exporta	-13039
▁équipés	-13040
individus	-13041
▁accepter	-13042
▁colonnes	-13043
▁désignée	-13044
▁exercice	-13045
▁intellig	-13046
▁magiques	-13047
▁menacées	-13048
▁négative	-13049
▁partagée	-13050
▁vladimir	-13051
▁évoluent	-13052
▁confronté	-13053
▁courantes	-13054
▁céramique	-13055
▁islandais	-13056
▁possédait	-13057
▁pressions	-13058
▁registres	-13059
▁samouraïs	-13060
▁séquences	-13061
▁alternance	-13062
▁expédition	-13063
▁rejoignent	-13064
▁semblables	-13065
▁souhaitent	-13066
▁afghanistan	-13067
▁chrétiennes	-13068
▁constituées	-13069
▁innovations	-13070
▁législative	-13071
▁ouvertement	-13072
▁stéréotypes	-13073
▁anniversaire	-13074
▁hydrographie	-13075
▁minoritaires	-13076
ij	-13077
mn	-13078
oa	-13079
oo	-13080
hik	-13081
hir	-13082
lus	-13083
mén	-13084
red	-13085
rév	-13086
▁44	-13087
arin	-13088
insc	-13089
lité	-13090
neur	-13091
ompe	-13092
poli	-13093
prix	-13094
tets	-13095
▁hil	-13096
▁lob	-13097
▁obé	-13098
▁poi	-13099
▁str	-13100
▁véc	-13101
▁zur	-13102
▁étr	-13103
ambre	-13104
field	-13105
goire	-13106
ineux	-13107
rètes	-13108
tesse	-13109
vance	-13110
▁aidé	-13111
▁aven	-13112
▁dens	-13113
▁empi	-13114
▁glis	-13115
altern	-13116
ensuit	-13117
orange	-13118
origin	-13119
vaquie	-13120
érante	-13121
▁1930.	-13122
▁ascii	-13123
▁bourb	-13124
▁brill	-13125
▁camar	-13126
▁garan	-13127
▁intra	-13128
▁intri	-13129
▁noble	-13130
guerres	-13131
osaurus	-13132
utilise	-13133
▁accrue	-13134
▁ajouté	-13135
▁châtel	-13136
▁codage	-13137
▁cosmog	-13138
▁danses	-13139
▁mécont	-13140
▁poitou	-13141
▁résume	-13142
▁school	-13143
▁slogan	-13144
▁soufre	-13145
▁sultan	-13146
▁sushis	-13147
▁séparé	-13148
▁ultime	-13149
adjectif	-13150
▁confère	-13151
▁contrep	-13152
▁critère	-13153
▁exercer	-13154
▁feuille	-13155
▁impacts	-13156
▁mosquée	-13157
▁métrage	-13158
▁témoins	-13159
▁vendues	-13160
▁amoureux	-13161
▁antilles	-13162
▁autorise	-13163
▁bénéfice	-13164
▁démontre	-13165
▁espérant	-13166
▁honduras	-13167
▁lisbonne	-13168
▁mystique	-13169
▁partager	-13170
▁portefeu	-13171
▁posthume	-13172
▁profiter	-13173
▁saussure	-13174
▁vecteurs	-13175
▁écologie	-13176
roussillon	-13177
▁collègues	-13178
▁hébraïque	-13179
▁retrouvés	-13180
▁réguliers	-13181
▁analytique	-13182
▁chevaliers	-13183
▁continents	-13184
▁culinaires	-13185
▁domestique	-13186
▁génétiques	-13187
▁limitrophe	-13188
▁migratoire	-13189
▁métallique	-13190
▁plateforme	-13191
▁présidente	-13192
▁présidents	-13193
▁périodique	-13194
▁durablement	-13195
▁idéologique	-13196
▁projections	-13197
▁correctement	-13198
▁détermination	-13199
▁subsaharienne	-13200
▁luxembourgeois	-13201
▁météorologiques	-13202
82	-13203
ery	-13204
ibu	-13205
ila	-13206
ird	-13207
pil	-13208
▁96	-13209
▁it	-13210
▁wh	-13211
asme	-13212
bant	-13213
burg	-13214
chin	-13215
dieu	-13216
isra	-13217
lack	-13218
oric	-13219
ouff	-13220
uise	-13221
ushi	-13222
yste	-13223
▁hub	-13224
▁nit	-13225
▁plé	-13226
actif	-13227
arbre	-13228
basic	-13229
idémi	-13230
ignée	-13231
terre	-13232
égide	-13233
élité	-13234
▁béta	-13235
▁gour	-13236
▁mono	-13237
▁pent	-13238
▁recr	-13239
▁rime	-13240
active	-13241
apport	-13242
esseur	-13243
hydraz	-13244
oiries	-13245
onnant	-13246
parole	-13247
région	-13248
tionné	-13249
wealth	-13250
▁1939,	-13251
▁1963,	-13252
▁accro	-13253
▁alpin	-13254
▁bleue	-13255
▁crain	-13256
▁dents	-13257
▁faill	-13258
▁fonte	-13259
▁genti	-13260
▁hesse	-13261
▁magie	-13262
▁pâtes	-13263
▁squel	-13264
▁sémin	-13265
▁viole	-13266
▁écras	-13267
affirme	-13268
aisseur	-13269
athènes	-13270
produit	-13271
▁annexe	-13272
▁arabie	-13273
▁chance	-13274
▁collis	-13275
▁disney	-13276
▁hindou	-13277
▁masses	-13278
affirmer	-13279
chapelle	-13280
héraclès	-13281
iliation	-13282
raphique	-13283
▁actives	-13284
▁arrêtés	-13285
▁cercles	-13286
▁cicéron	-13287
▁climats	-13288
▁diriger	-13289
▁géopoli	-13290
▁leaders	-13291
▁marches	-13292
▁obtenue	-13293
▁pasteur	-13294
▁pharmac	-13295
▁retenue	-13296
▁réclame	-13297
▁réputée	-13298
▁sembler	-13299
▁sortent	-13300
▁vatican	-13301
▁volcans	-13302
▁apprécié	-13303
▁cosmique	-13304
▁cuisines	-13305
▁déportés	-13306
▁fabrique	-13307
▁indiquer	-13308
▁mersenne	-13309
▁monopole	-13310
▁quittent	-13311
▁rebaptis	-13312
extraction	-13313
identifier	-13314
organismes	-13315
▁contestée	-13316
▁déclarent	-13317
▁faiblesse	-13318
▁ministéri	-13319
▁modernité	-13320
▁postérité	-13321
▁proposées	-13322
▁randonnée	-13323
▁subissent	-13324
▁équilibre	-13325
▁atteignant	-13326
▁procédures	-13327
▁précurseur	-13328
▁démissionne	-13329
▁fédérations	-13330
▁instruction	-13331
▁sanctuaires	-13332
▁combinaisons	-13333
▁spiritualité	-13334
▁apprentissage	-13335
▁administratifs	-13336
▁amplificateurs	-13337
▁administrations	-13338
29	-13339
lah	-13340
omi	-13341
syn	-13342
▁(6	-13343
▁ud	-13344
bien	-13345
coll	-13346
ency	-13347
eure	-13348
fich	-13349
game	-13350
sauf	-13351
side	-13352
stri	-13353
utsu	-13354
étym	-13355
▁"[[	-13356
▁bak	-13357
▁hun	-13358
▁jon	-13359
▁rud	-13360
▁tyr	-13361
cière	-13362
iscop	-13363
mains	-13364
phère	-13365
ports	-13366
▁biom	-13367
▁flan	-13368
▁gras	-13369
▁hann	-13370
▁harp	-13371
▁jura	-13372
▁lect	-13373
▁lith	-13374
▁nett	-13375
▁racc	-13376
▁somm	-13377
▁zinc	-13378
effort	-13379
naires	-13380
oulême	-13381
uation	-13382
▁1943,	-13383
▁amour	-13384
▁chair	-13385
▁citad	-13386
▁drame	-13387
▁facto	-13388
▁marqu	-13389
▁moine	-13390
▁nuage	-13391
▁robot	-13392
▁shiva	-13393
alisent	-13394
anciers	-13395
ardenne	-13396
langage	-13397
ouchure	-13398
▁abstra	-13399
▁avancé	-13400
▁croise	-13401
▁décida	-13402
▁frappe	-13403
▁garnis	-13404
▁macron	-13405
▁parité	-13406
▁recycl	-13407
▁soulev	-13408
▁varier	-13409
▁voyant	-13410
▁walter	-13411
apparaît	-13412
▁acquise	-13413
▁diocèse	-13414
▁délégué	-13415
▁dénommé	-13416
▁fluides	-13417
▁garçons	-13418
▁germano	-13419
▁janeiro	-13420
▁ordonne	-13421
▁orienté	-13422
▁phrases	-13423
▁violent	-13424
▁étroite	-13425
abondance	-13426
catégorie	-13427
ymétrique	-13428
▁accueill	-13429
▁coupable	-13430
▁décalage	-13431
▁ethernet	-13432
▁facilité	-13433
▁formelle	-13434
▁gigantes	-13435
▁mariages	-13436
▁modifiée	-13437
▁phénicie	-13438
▁promulgu	-13439
▁relevant	-13440
▁scission	-13441
▁scrutins	-13442
▁terminal	-13443
▁voitures	-13444
▁autorisés	-13445
▁chanteurs	-13446
▁confondre	-13447
▁fertilité	-13448
▁fondement	-13449
▁migration	-13450
▁restreint	-13451
▁sacrifice	-13452
▁déterminée	-13453
▁exceptions	-13454
▁satisfaire	-13455
▁transformé	-13456
▁écologiste	-13457
▁autoritaire	-13458
▁carolingien	-13459
▁expéditions	-13460
▁soulèvement	-13461
accroissement	-13462
▁intellectuel	-13463
▁sociologique	-13464
identification	-13465
▁conservatoire	-13466
▁néerlandaises	-13467
fc	-13468
dal	-13469
erl	-13470
eta	-13471
jav	-13472
jer	-13473
kou	-13474
ayes	-13475
ctée	-13476
embl	-13477
heur	-13478
page	-13479
serv	-13480
▁176	-13481
▁fan	-13482
▁jau	-13483
▁put	-13484
arthe	-13485
faire	-13486
genre	-13487
icaux	-13488
other	-13489
vador	-13490
échés	-13491
▁adsl	-13492
▁alan	-13493
▁isab	-13494
▁lagu	-13495
▁loir	-13496
▁meub	-13497
▁obsc	-13498
cartes	-13499
depuis	-13500
obiles	-13501
otechn	-13502
ronyme	-13503
▁1955,	-13504
▁1992.	-13505
▁allég	-13506
▁boliv	-13507
▁brute	-13508
▁compt	-13509
▁cumul	-13510
▁lewis	-13511
▁meuse	-13512
▁mœurs	-13513
▁oncle	-13514
▁smart	-13515
▁soupe	-13516
endront	-13517
ferrand	-13518
journal	-13519
létisme	-13520
veloppe	-13521
▁achevé	-13522
▁alsace	-13523
▁attiré	-13524
▁battre	-13525
▁chiens	-13526
▁chypre	-13527
▁félins	-13528
▁harris	-13529
▁incons	-13530
▁normal	-13531
▁restru	-13532
▁signée	-13533
ogrammes	-13534
trations	-13535
▁algérie	-13536
▁alliées	-13537
▁caucase	-13538
▁exister	-13539
▁inhumée	-13540
▁mystère	-13541
▁procède	-13542
▁sibérie	-13543
▁spectre	-13544
▁suscité	-13545
▁toucher	-13546
appliquer	-13547
▁adoptent	-13548
▁assurant	-13549
▁instaure	-13550
▁logiques	-13551
▁marchais	-13552
▁nocturne	-13553
▁reproche	-13554
▁révoltes	-13555
▁sections	-13556
▁vivaient	-13557
▁armoiries	-13558
▁conservés	-13559
▁créations	-13560
▁détermine	-13561
▁habitudes	-13562
▁inaugurée	-13563
▁instances	-13564
▁abandonnée	-13565
▁accompagne	-13566
▁algorithme	-13567
▁conservent	-13568
▁entraînent	-13569
▁rassembler	-13570
▁romantique	-13571
▁répertoire	-13572
▁résistants	-13573
▁antérieures	-13574
▁brésilienne	-13575
▁concentrent	-13576
▁protectorat	-13577
▁équatoriale	-13578
▁étroitement	-13579
▁significatif	-13580
▁communautaire	-13581
▁missionnaires	-13582
▁proportionnel	-13583
▁psychanalytique	-13584
cp	-13585
dt	-13586
oe	-13587
jam	-13588
len	-13589
mov	-13590
▁ny	-13591
▁vê	-13592
aria	-13593
aéro	-13594
beau	-13595
bern	-13596
ctés	-13597
▁149	-13598
▁cla	-13599
▁cob	-13600
▁gif	-13601
▁nba	-13602
▁vau	-13603
acide	-13604
avère	-13605
croix	-13606
eurre	-13607
tatif	-13608
timis	-13609
écriv	-13610
▁amaz	-13611
▁créa	-13612
▁fans	-13613
▁pire	-13614
▁ptah	-13615
▁saké	-13616
▁unis	-13617
▁verb	-13618
▁âgée	-13619
albert	-13620
alfred	-13621
ennais	-13622
ombres	-13623
onnent	-13624
sectes	-13625
▁1949,	-13626
▁1951,	-13627
▁allan	-13628
▁convo	-13629
▁crème	-13630
▁démis	-13631
▁inhab	-13632
▁inuti	-13633
▁nulle	-13634
▁nunav	-13635
▁pelli	-13636
▁proph	-13637
▁recev	-13638
▁rénov	-13639
▁rétic	-13640
▁stall	-13641
alberta	-13642
ancêtre	-13643
guerite	-13644
nations	-13645
ularité	-13646
▁accède	-13647
▁asimov	-13648
▁belles	-13649
▁bétail	-13650
▁centré	-13651
▁concré	-13652
▁débuté	-13653
▁extrém	-13654
▁garçon	-13655
▁manger	-13656
▁panier	-13657
▁québéc	-13658
▁ressor	-13659
▁sentir	-13660
▁sommes	-13661
▁suites	-13662
▁utiles	-13663
agnement	-13664
imagerie	-13665
itarisme	-13666
éremment	-13667
▁billets	-13668
▁capteur	-13669
▁company	-13670
▁courtes	-13671
▁dirigés	-13672
▁dépassé	-13673
▁exécuté	-13674
▁générer	-13675
▁honneur	-13676
▁invités	-13677
▁lanceur	-13678
▁nourrir	-13679
▁oublier	-13680
▁présidé	-13681
▁sérieux	-13682
▁vassaux	-13683
▁électro	-13684
chimiques	-13685
▁ateliers	-13686
▁bancaire	-13687
▁demandes	-13688
▁engendre	-13689
▁grégoire	-13690
▁modestes	-13691
▁rattaché	-13692
▁rebelles	-13693
▁ressenti	-13694
▁réservée	-13695
▁sénateur	-13696
▁vieilles	-13697
ingénieurs	-13698
▁certitude	-13699
▁condorcet	-13700
▁conservée	-13701
▁créateurs	-13702
▁modalités	-13703
▁poursuite	-13704
▁préfèrent	-13705
▁remplacés	-13706
▁typologie	-13707
▁autoroutes	-13708
▁brièvement	-13709
▁exécutions	-13710
▁familiales	-13711
▁introduite	-13712
▁magistrats	-13713
▁protestant	-13714
autorisation	-13715
▁criminalité	-13716
▁principauté	-13717
international	-13718
▁gratuitement	-13719
▁chronologique	-13720
▁expérimentale	-13721
▁transformations	-13722
aa	-13723
dr	-13724
0),	-13725
aïd	-13726
jar	-13727
lyn	-13728
rec	-13729
top	-13730
tél	-13731
▁48	-13732
▁78	-13733
▁ak	-13734
▁ut	-13735
-198	-13736
aval	-13737
lett	-13738
norm	-13739
oman	-13740
umer	-13741
égém	-13742
▁amd	-13743
▁cyn	-13744
▁osc	-13745
▁our	-13746
▁pit	-13747
▁âme	-13748
chait	-13749
rette	-13750
urait	-13751
élien	-13752
▁1948	-13753
▁1955	-13754
▁1959	-13755
▁bapt	-13756
▁clef	-13757
▁coop	-13758
▁fraî	-13759
▁roll	-13760
▁sulf	-13761
encier	-13762
étisme	-13763
▁aperç	-13764
▁brown	-13765
▁décol	-13766
▁héréd	-13767
▁ignor	-13768
▁maria	-13769
▁plage	-13770
▁sushi	-13771
▁éphém	-13772
▁épuis	-13773
astérix	-13774
souvent	-13775
version	-13776
▁agrand	-13777
▁arendt	-13778
▁boston	-13779
▁brutus	-13780
▁louvre	-13781
▁médioc	-13782
▁paysan	-13783
▁phylog	-13784
▁plates	-13785
▁rachat	-13786
▁émerge	-13787
▁épices	-13788
organise	-13789
sibilité	-13790
utations	-13791
▁convers	-13792
▁coûteux	-13793
▁envoyés	-13794
▁flandre	-13795
▁froides	-13796
▁imposée	-13797
▁numéros	-13798
▁pilotes	-13799
▁prépare	-13800
▁quimper	-13801
▁recette	-13802
▁sorties	-13803
▁tallinn	-13804
▁tunisie	-13805
▁affluent	-13806
▁assurent	-13807
▁carthage	-13808
▁cinquant	-13809
▁garantit	-13810
▁multiple	-13811
▁protégés	-13812
▁précises	-13813
▁shogunat	-13814
▁symétrie	-13815
▁affirment	-13816
▁appellent	-13817
▁apportent	-13818
▁déterminé	-13819
▁instantan	-13820
▁interdits	-13821
▁laguiller	-13822
▁linéaires	-13823
▁palestine	-13824
▁profitant	-13825
▁romancier	-13826
orthographe	-13827
▁bioéthique	-13828
▁cellulaire	-13829
▁christophe	-13830
▁coloniales	-13831
▁conclusion	-13832
▁contribuer	-13833
▁géologique	-13834
▁immigrants	-13835
▁sentiments	-13836
▁suffisante	-13837
▁gouvernance	-13838
▁métallurgie	-13839
▁navigateurs	-13840
▁spécificité	-13841
▁utilisateur	-13842
▁contestation	-13843
▁raisonnement	-13844
▁renforcement	-13845
▁amplificateur	-13846
▁bombardements	-13847
▁divertissement	-13848
bah	-13849
enz	-13850
gie	-13851
hof	-13852
idi	-13853
ism	-13854
jpg	-13855
mém	-13856
nic	-13857
oko	-13858
âts	-13859
▁72	-13860
etzs	-13861
juku	-13862
mers	-13863
tint	-13864
wara	-13865
zone	-13866
èvre	-13867
▁(10	-13868
▁dus	-13869
▁jal	-13870
▁kab	-13871
▁kde	-13872
accél	-13873
andre	-13874
arche	-13875
avril	-13876
encre	-13877
enirs	-13878
maine	-13879
ugawa	-13880
▁1914	-13881
▁adep	-13882
▁alsa	-13883
▁bonn	-13884
▁esqu	-13885
▁géod	-13886
▁nipp	-13887
▁âgés	-13888
airage	-13889
enrich	-13890
loient	-13891
ollion	-13892
présid	-13893
▁1919,	-13894
▁1954,	-13895
▁bijou	-13896
▁caric	-13897
▁dissu	-13898
▁délic	-13899
▁grade	-13900
▁laser	-13901
▁momie	-13902
▁oubli	-13903
▁paras	-13904
▁piano	-13905
▁relan	-13906
▁serbe	-13907
▁veuve	-13908
▁vives	-13909
algèbre	-13910
aristes	-13911
auteurs	-13912
fichier	-13913
étudier	-13914
▁boucle	-13915
▁donald	-13916
▁dédiée	-13917
▁dégâts	-13918
▁exposé	-13919
▁impéra	-13920
▁madele	-13921
▁plante	-13922
▁ruines	-13923
▁sauver	-13924
▁soldat	-13925
▁trajet	-13926
▁verbes	-13927
cessions	-13928
étendent	-13929
▁auvergn	-13930
▁balance	-13931
▁brabant	-13932
▁couvrir	-13933
▁culmine	-13934
▁côtière	-13935
▁danoise	-13936
▁dispens	-13937
▁drogues	-13938
▁dépourv	-13939
▁engagés	-13940
▁exposés	-13941
▁mandats	-13942
▁nigeria	-13943
▁offrant	-13944
▁racisme	-13945
▁sachant	-13946
▁sommeil	-13947
alexandre	-13948
assurance	-13949
▁botswana	-13950
▁capteurs	-13951
▁doctorat	-13952
▁hectares	-13953
▁hôpitaux	-13954
▁militant	-13955
▁préciser	-13956
▁relèvent	-13957
▁reposant	-13958
interprète	-13959
▁atomiques	-13960
▁attribuer	-13961
▁décrivent	-13962
▁entraîner	-13963
▁monastère	-13964
▁norvégien	-13965
▁rencontré	-13966
▁renseigne	-13967
▁répertori	-13968
▁travaillé	-13969
▁anarchiste	-13970
▁compagnons	-13971
▁diagnostic	-13972
▁extensions	-13973
▁fondations	-13974
▁identifier	-13975
▁imaginaire	-13976
▁polémiques	-13977
▁remportent	-13978
instructions	-13979
▁accueillent	-13980
▁apollinaire	-13981
▁capitalisme	-13982
▁nécessitant	-13983
▁poursuivent	-13984
▁couronnement	-13985
▁affrontements	-13986
▁confucianisme	-13987
▁contributions	-13988
▁problématique	-13989
▁renseignement	-13990
=10	-13991
eut	-13992
ips	-13993
phy	-13994
rar	-13995
sen	-13996
tsk	-13997
▁37	-13998
▁99	-13999
▁ic	-14000
-197	-14001
adur	-14002
anga	-14003
lien	-14004
mini	-14005
open	-14006
opep	-14007
oral	-14008
oyen	-14009
rise	-14010
shin	-14011
syst	-14012
tros	-14013
uide	-14014
▁...	-14015
▁167	-14016
▁168	-14017
▁bau	-14018
▁cum	-14019
▁haw	-14020
▁kaz	-14021
▁lat	-14022
▁nau	-14023
aller	-14024
ettre	-14025
icode	-14026
olais	-14027
ronom	-14028
selon	-14029
uxley	-14030
zième	-14031
èches	-14032
▁défi	-14033
▁féri	-14034
▁golf	-14035
▁gout	-14036
▁rita	-14037
▁sois	-14038
diaque	-14039
enneté	-14040
ergure	-14041
tative	-14042
éphale	-14043
▁1948,	-14044
▁2003.	-14045
▁boris	-14046
▁devin	-14047
▁fermé	-14048
▁forcé	-14049
▁lever	-14050
▁levée	-14051
▁raoul	-14052
▁texas	-14053
opposer	-14054
écurité	-14055
▁buenos	-14056
▁exacte	-14057
▁incarn	-14058
▁mixtes	-14059
▁nuages	-14060
▁perçue	-14061
▁plonge	-14062
▁rejeté	-14063
▁sartre	-14064
▁scores	-14065
▁surviv	-14066
▁turing	-14067
▁équipé	-14068
abandonn	-14069
chevêque	-14070
division	-14071
▁achevée	-14072
▁adresse	-14073
▁anonyme	-14074
▁bouddha	-14075
▁dixième	-14076
▁détenus	-14077
▁héberge	-14078
▁interro	-14079
▁johnson	-14080
▁réhabil	-14081
▁secours	-14082
armistice	-14083
hydrazine	-14084
inspirant	-14085
urbanisme	-14086
▁approuvé	-14087
▁conforme	-14088
▁diffuser	-14089
▁fidélité	-14090
▁glaciers	-14091
▁hokkaidō	-14092
▁insuffis	-14093
▁intégrer	-14094
▁métrages	-14095
▁salvador	-14096
▁stallman	-14097
▁syndicat	-14098
▁séparées	-14099
▁tokugawa	-14100
▁échapper	-14101
alisations	-14102
assistance	-14103
ocratiques	-14104
▁critiquée	-14105
▁demandent	-14106
▁féminines	-14107
▁gisements	-14108
▁ingénieur	-14109
▁remontant	-14110
▁restaurer	-14111
▁satisfait	-14112
▁titulaire	-14113
▁assemblées	-14114
▁chroniques	-14115
▁confession	-14116
▁consistant	-14117
▁métropoles	-14118
▁périphérie	-14119
▁redécouver	-14120
▁temporaire	-14121
▁champollion	-14122
▁considérait	-14123
▁indicateurs	-14124
▁parenthèses	-14125
▁terroristes	-14126
▁commonwealth	-14127
▁fournisseurs	-14128
▁mythologiques	-14129
▁volontairement	-14130
▁méditerranéenne	-14131
▁recommandations	-14132
châ	-14133
ial	-14134
ifs	-14135
ink	-14136
mac	-14137
mès	-14138
ouf	-14139
sac	-14140
tax	-14141
udo	-14142
zen	-14143
▁34	-14144
▁79	-14145
cube	-14146
hote	-14147
orch	-14148
oxyd	-14149
race	-14150
ânkh	-14151
éguy	-14152
▁bot	-14153
▁dop	-14154
▁miy	-14155
▁zén	-14156
▁épr	-14157
aisne	-14158
empar	-14159
enfer	-14160
logne	-14161
opold	-14162
otage	-14163
phant	-14164
utive	-14165
▁1900	-14166
▁bagu	-14167
▁revê	-14168
▁same	-14169
▁virg	-14170
▁xbox	-14171
▁œufs	-14172
idémie	-14173
ouches	-14174
rimoni	-14175
sières	-14176
▁1964,	-14177
▁achet	-14178
▁algéb	-14179
▁enfer	-14180
▁genev	-14181
▁pieux	-14182
▁river	-14183
▁étrus	-14184
ciences	-14185
endroit	-14186
horreur	-14187
jective	-14188
premier	-14189
éliques	-14190
▁angles	-14191
▁auront	-14192
▁chutes	-14193
▁confié	-14194
▁cuisin	-14195
▁danube	-14196
▁déposé	-14197
▁fermat	-14198
▁intime	-14199
▁invers	-14200
▁newton	-14201
▁palind	-14202
▁perdue	-14203
▁poussé	-14204
▁pâtiss	-14205
▁script	-14206
▁suzuki	-14207
▁sévère	-14208
▁vosges	-14209
▁zurich	-14210
effectue	-14211
incendie	-14212
rètement	-14213
échanges	-14214
électron	-14215
▁antonio	-14216
▁baisser	-14217
▁balkans	-14218
▁baptême	-14219
▁belfort	-14220
▁enterré	-14221
▁fragile	-14222
▁morales	-14223
▁opposée	-14224
▁révéler	-14225
▁sonores	-14226
▁souffle	-14227
▁soulève	-14228
▁thérape	-14229
▁trouvés	-14230
▁viandes	-14231
▁épreuve	-14232
▁étudiés	-14233
▁boulogne	-14234
▁cardinal	-14235
▁collecte	-14236
▁coréenne	-14237
▁courrier	-14238
▁entendre	-14239
▁entourée	-14240
▁envisagé	-14241
▁estimant	-14242
▁fenêtres	-14243
▁habitats	-14244
▁neustrie	-14245
▁observer	-14246
▁orientée	-14247
▁suédoise	-14248
▁évoquant	-14249
▁évoquent	-14250
▁dialogues	-14251
▁désignent	-14252
▁détection	-14253
▁effective	-14254
▁phénicien	-14255
▁retourner	-14256
▁utilisait	-14257
▁messagerie	-14258
▁traversent	-14259
▁géologiques	-14260
▁surréaliste	-14261
▁compositeurs	-14262
▁contrepartie	-14263
▁coordination	-14264
▁déclarations	-14265
▁radicalement	-14266
▁terminologie	-14267
▁contemporaines	-14268
0).	-14269
aig	-14270
far	-14271
glu	-14272
méd	-14273
ogo	-14274
pat	-14275
▁43	-14276
▁74	-14277
▁bp	-14278
▁ll	-14279
abou	-14280
elon	-14281
ifié	-14282
ilie	-14283
▁600	-14284
▁cah	-14285
▁ker	-14286
▁law	-14287
▁nex	-14288
▁xvi	-14289
anais	-14290
duché	-14291
onses	-14292
tueux	-14293
▁chou	-14294
▁cuba	-14295
▁gymn	-14296
▁noix	-14297
▁nome	-14298
▁race	-14299
▁soft	-14300
▁sunn	-14301
▁vamp	-14302
▁xxie	-14303
antile	-14304
change	-14305
empare	-14306
litude	-14307
ochine	-14308
onales	-14309
phique	-14310
▁1942,	-14311
▁1994.	-14312
▁1998.	-14313
▁canne	-14314
▁chars	-14315
▁corpo	-14316
▁doubl	-14317
▁lumin	-14318
▁neveu	-14319
▁obsta	-14320
▁paléo	-14321
▁vicom	-14322
▁watch	-14323
ardèche	-14324
emporte	-14325
essence	-14326
surtout	-14327
uscules	-14328
▁barque	-14329
▁church	-14330
▁citons	-14331
▁johann	-14332
▁menant	-14333
▁nietzs	-14334
▁noires	-14335
▁offrir	-14336
▁ouvrir	-14337
▁pronom	-14338
▁péchés	-14339
▁rentre	-14340
▁rivaux	-14341
▁ruraux	-14342
▁réconc	-14343
▁shinto	-14344
▁vertéb	-14345
▁attaché	-14346
▁bruxell	-14347
▁centrée	-14348
▁dessine	-14349
▁décline	-14350
▁détruis	-14351
▁fossile	-14352
▁lombard	-14353
▁occitan	-14354
▁piliers	-14355
▁plainte	-14356
▁protège	-14357
▁stables	-14358
▁stricte	-14359
▁vincent	-14360
▁émeutes	-14361
aceutique	-14362
aventures	-14363
intention	-14364
▁babylone	-14365
▁exploité	-14366
▁familial	-14367
▁métrique	-14368
▁partisan	-14369
▁prairies	-14370
▁refusant	-14371
▁refusent	-14372
▁tropical	-14373
ithmétique	-14374
orientales	-14375
production	-14376
étymologie	-14377
▁consommés	-14378
▁définitif	-14379
▁habsbourg	-14380
▁implément	-14381
▁madeleine	-14382
▁résidents	-14383
▁sardaigne	-14384
▁eucaryotes	-14385
▁exhaustive	-14386
▁primordial	-14387
▁progressif	-14388
▁pétrolière	-14389
▁reproduire	-14390
▁répétition	-14391
▁socialisme	-14392
▁terrorisme	-14393
▁télécharge	-14394
▁citoyenneté	-14395
▁coordonnées	-14396
▁déroulement	-14397
▁enseignants	-14398
▁explication	-14399
▁photographe	-14400
▁soutiennent	-14401
▁appellations	-14402
▁cohabitation	-14403
▁distinctions	-14404
▁hebdomadaire	-14405
▁rattachement	-14406
▁restrictions	-14407
▁transparence	-14408
▁reconnaissent	-14409
▁développements	-14410
▁responsabilités	-14411
aks	-14412
bec	-14413
rez	-14414
sex	-14415
war	-14416
▁56	-14417
▁58	-14418
▁pê	-14419
="20	-14420
armé	-14421
aver	-14422
héta	-14423
mund	-14424
oxie	-14425
tons	-14426
▁15,	-14427
▁166	-14428
▁169	-14429
▁800	-14430
▁clô	-14431
▁how	-14432
▁kos	-14433
▁opp	-14434
▁tat	-14435
▁œil	-14436
antis	-14437
endes	-14438
inson	-14439
lando	-14440
▁(193	-14441
▁1870	-14442
▁foul	-14443
▁frit	-14444
▁gers	-14445
▁hach	-14446
▁leon	-14447
▁prag	-14448
▁ruis	-14449
▁traî	-14450
▁vand	-14451
▁verc	-14452
▁épic	-14453
ackard	-14454
advers	-14455
aturge	-14456
entend	-14457
examen	-14458
iphone	-14459
omètre	-14460
quérir	-14461
▁1988.	-14462
▁alter	-14463
▁award	-14464
▁blind	-14465
▁carib	-14466
▁chanc	-14467
▁chrom	-14468
▁corbe	-14469
▁datée	-14470
▁entam	-14471
▁finir	-14472
▁foule	-14473
▁félix	-14474
▁hybri	-14475
▁jumel	-14476
▁mante	-14477
▁menés	-14478
▁mégal	-14479
▁pourv	-14480
▁sangu	-14481
indique	-14482
interro	-14483
lectron	-14484
▁courbe	-14485
▁delano	-14486
▁genèse	-14487
▁huxley	-14488
▁initié	-14489
▁invité	-14490
▁noyaux	-14491
▁patrie	-14492
▁prusse	-14493
▁relati	-14494
▁rocard	-14495
▁tardif	-14496
▁tunnel	-14497
▁unifié	-14498
carbures	-14499
existent	-14500
▁clôture	-14501
▁coréens	-14502
▁envoyer	-14503
▁hollywo	-14504
▁matrice	-14505
▁porteur	-14506
▁segment	-14507
▁statuts	-14508
▁vikings	-14509
représent	-14510
▁accordée	-14511
▁comédies	-14512
▁effectif	-14513
▁emprunté	-14514
▁fusionne	-14515
▁inspirés	-14516
▁poitiers	-14517
▁révèlent	-14518
inventaire	-14519
▁annoncent	-14520
▁assistant	-14521
▁exécution	-14522
▁installer	-14523
▁powerbook	-14524
termination	-14525
▁intégrante	-14526
▁privilégié	-14527
▁regroupées	-14528
▁éventuelle	-14529
▁apparemment	-14530
▁divergences	-14531
▁exemplaires	-14532
▁limitrophes	-14533
▁quarantaine	-14534
▁constituante	-14535
▁regroupement	-14536
▁chiropratique	-14537
▁considérables	-14538
▁investisseurs	-14539
▁généralisation	-14540
bé	-14541
ei	-14542
=19	-14543
[...]
