<unk>	0
<s>	0
</s>	0
▁de	-3.19555
,	-3.24406
'	-3.48887
.	-3.60897
s	-3.63645
▁la	-3.69941
▁le	-3.96717
▁l	-4.02311
▁et	-4.0623
▁	-4.16247
▁les	-4.28987
▁à	-4.36035
▁en	-4.36184
▁d	-4.41768
▁des	-4.43932
▁du	-4.59966
-	-4.78511
▁est	-4.92347
▁dans	-5.05254
▁par	-5.05668
▁un	-5.12769
▁(	-5.19917
▁une	-5.21581
’	-5.28304
▁au	-5.29872
e	-5.34308
▁"	-5.37509
▁pour	-5.3854
▁qui	-5.38643
"	-5.46431
▁que	-5.50003
▁il	-5.5512
▁plus	-5.62936
▁##	-5.67117
▁a	-5.67751
▁sur	-5.70888
▁sont	-5.76056
▁se	-5.8451
▁:	-5.85073
▁ou	-5.89857
▁avec	-5.90271
▁s	-5.94161
r	-5.95232
▁son	-5.95266
)	-5.97843
▁«	-5.98971
nt	-6.02658
▁ce	-6.0978
un	-6.14742
▁comme	-6.15053
▁qu	-6.2354
est	-6.23963
▁sa	-6.25121
a	-6.26673
es	-6.31599
une	-6.36155
▁aux	-6.37719
▁pas	-6.43844
),	-6.44324
▁n	-6.48207
cette	-6.48322
▁ne	-6.49774
▁mais	-6.51403
▁»	-6.51929
).	-6.53047
▁c	-6.53836
il	-6.62232
▁ses	-6.63245
▁deux	-6.65032
▁entre	-6.67061
▁,	-6.68003
ment	-6.69433
▁ont	-6.70634
d	-6.71653
t	-6.72334
▁été	-6.73396
▁pays	-6.74465
",	-6.77943
▁%	-6.78086
▁ainsi	-6.83099
▁ces	-6.84131
▁elle	-6.84237
|	-6.84368
l	-6.84721
en	-6.85564
="	-6.86602
▁fait	-6.8724
▁leur	-6.88972
▁aussi	-6.91761
▁.	-6.9236
▁même	-6.94765
o	-6.95064
é	-6.95277
▁sous	-6.9634
▁on	-6.97954
ant	-6.98989
le	-6.99556
c	-7.00247
▁dont	-7.0103
y	-7.06258
on	-7.07429
▁;	-7.09862
er	-7.10828
▁lui	-7.1098
▁après	-7.12045
▁également	-7.12693
▁peut	-7.13682
▁être	-7.1426
▁depuis	-7.15402
▁alors	-7.18074
▁france	-7.18525
▁très	-7.20918
n	-7.22505
▁y	-7.2526
▁années	-7.2605
▁plusieurs	-7.27714
▁premier	-7.29319
▁où	-7.32053
la	-7.33912
▁partie	-7.34093
à	-7.34302
▁selon	-7.3567
▁ville	-7.36507
i	-7.38645
ci	-7.39425
▁si	-7.3992
▁notamment	-7.41867
▁tout	-7.42794
▁fin	-7.42927
▁première	-7.44344
▁bien	-7.44382
▁était	-7.45108
in	-7.4559
▁monde	-7.45637
▁nord	-7.47131
de	-7.4722
▁nom	-7.48787
▁sud	-7.49435
▁français	-7.50185
▁trois	-7.50223
it	-7.50465
m	-7.50533
doc	-7.50682
▁».	-7.51645
▁lors	-7.52111
/	-7.53081
▁contre	-7.54163
▁politique	-7.56118
>	-7.56334
al	-7.56587
▁vers	-7.59784
ra	-7.60573
▁guerre	-7.60613
▁jusqu	-7.60637
▁puis	-7.61336
▁encore	-7.6135
▁non	-7.61393
▁sans	-7.61961
".	-7.62239
▁nombre	-7.62934
▁grande	-7.63399
▁autres	-7.63578
or	-7.64337
ent	-7.64444
autres	-7.64631
▁département	-7.64706
p	-7.6498
▁»,	-7.66343
ou	-7.66686
▁moins	-7.66892
▁re	-7.68781
▁soit	-7.69169
▁grand	-7.69583
▁avant	-7.70957
▁états	-7.71002
▁région	-7.71268
au	-7.7257
▁leurs	-7.72661
▁population	-7.73233
▁fut	-7.74263
▁certains	-7.74669
▁tous	-7.75774
b	-7.75816
ne	-7.75992
▁exemple	-7.76224
ait	-7.76939
▁peu	-7.78058
état	-7.79097
▁car	-7.79122
▁système	-7.79877
▁celle	-7.80647
▁donc	-7.80689
▁fois	-7.80875
▁souvent	-7.81184
▁cas	-7.81392
▁celui	-7.814
▁partir	-7.81569
▁temps	-7.82294
et	-7.82571
▁place	-7.82681
▁ils	-7.82698
▁ans	-7.83294
ée	-7.84257
▁vie	-7.84384
les	-7.84521
▁forme	-7.8492
ation	-7.85276
▁nombreux	-7.85828
re	-7.86796
▁langue	-7.86999
▁("	-7.87956
▁cependant	-7.88163
▁début	-7.89275
h	-7.89355
f	-7.90357
▁saint	-7.90544
k	-7.92649
g	-7.93006
▁période	-7.93126
▁développement	-7.96917
▁cours	-7.96932
▁nouvelle	-7.97579
▁dé	-7.985
▁suite	-7.98685
unis	-7.98886
▁pouvoir	-7.99491
fr	-7.99498
▁faire	-7.99777
▁mort	-8.00856
elle	-8.02046
▁gouvernement	-8.02173
▁quelques	-8.0342
▁compte	-8.04679
▁dès	-8.05466
▁nouveau	-8.07427
▁part	-8.07587
▁paris	-8.07783
▁chaque	-8.08079
▁film	-8.08436
▁avoir	-8.09844
▁lieu	-8.10507
▁pendant	-8.10533
▁avait	-8.10711
v	-8.11628
▁quatre	-8.11917
▁président	-8.11963
z	-8.12081
ur	-8.12088
▁étant	-8.12351
is	-8.12471
▁jean	-8.13309
te	-8.13448
org	-8.13468
an	-8.13563
▁permet	-8.1394
▁durant	-8.14241
▁parti	-8.1456
▁effet	-8.14977
x	-8.15089
▁général	-8.15351
▁ré	-8.15771
▁groupe	-8.1623
▁française	-8.16337
u	-8.16635
▁société	-8.16868
eau	-8.16961
▁peuvent	-8.17361
▁id	-8.17382
ouest	-8.17452
ch	-8.17495
▁in	-8.1775
▁étaient	-8.18176
origine	-8.18547
aient	-8.19145
▁parmi	-8.19826
▁reste	-8.20047
curi	-8.20366
?	-8.20603
histoire	-8.21133
▁territoire	-8.21222
▁centre	-8.21556
être	-8.21568
▁point	-8.21799
ma	-8.21988
▁nombreuses	-8.22246
ie	-8.22676
▁roi	-8.22786
ar	-8.22893
us	-8.23184
és	-8.23646
▁prix	-8.23937
▁tour	-8.2428
wiki	-8.2434
=	-8.2457
▁près	-8.24647
▁république	-8.24663
▁devient	-8.24805
://	-8.25271
▁jeux	-8.25362
https	-8.25397
categorie	-8.25531
wikipedia	-8.25532
▁url	-8.2554
▁<	-8.25634
▁title	-8.25636
▁</	-8.25689
▁autre	-8.25971
▁national	-8.27159
▁ayant	-8.27694
▁p	-8.2795
▁culture	-8.28252
▁royaume	-8.28457
art	-8.28694
hui	-8.29732
▁toute	-8.31218
▁toujours	-8.31562
▁terme	-8.32388
▁trouve	-8.32983
▁environ	-8.33128
▁niveau	-8.33401
▁doit	-8.34159
▁chez	-8.34497
aux	-8.35331
▁parfois	-8.35341
▁g	-8.35665
▁afin	-8.35794
▁rôle	-8.36068
▁(19	-8.3615
▁nationale	-8.36505
▁certaines	-8.36685
▁économique	-8.37049
▁moyen	-8.37121
▁cela	-8.37315
na	-8.37352
ées	-8.3736
age	-8.37597
▁mouvement	-8.38087
▁grâce	-8.38232
▁b	-8.38523
;	-8.38618
▁toutes	-8.38664
▁rapport	-8.38737
▁cet	-8.38978
▁m	-8.39011
▁japon	-8.3976
▁ceux	-8.39913
▁conseil	-8.40186
▁base	-8.40546
▁terre	-8.41616
")	-8.41918
▁elles	-8.42242
▁mondiale	-8.42284
▁3	-8.42344
▁seconde	-8.42448
ce	-8.42736
▁langues	-8.42752
▁jeu	-8.42829
▁aujourd	-8.43055
▁production	-8.43722
▁existe	-8.43783
époque	-8.43802
ta	-8.44002
▁musique	-8.44187
▁dernier	-8.45035
▁j	-8.4515
▁tard	-8.45232
▁jour	-8.45366
▁tant	-8.45545
▁2	-8.45599
▁sens	-8.4578
▁co	-8.45883
me	-8.45973
ri	-8.46532
▁particulier	-8.47126
▁plupart	-8.47279
▁dieu	-8.47317
▁premiers	-8.47654
▁surtout	-8.48548
autre	-8.48574
to	-8.48945
▁création	-8.49232
▁ni	-8.49398
▁beaucoup	-8.49512
▁manière	-8.49521
▁travail	-8.49801
agit	-8.49864
at	-8.50532
isme	-8.51133
ro	-8.5121
▁grands	-8.51359
▁f	-8.51998
ine	-8.5215
empire	-8.52307
ique	-8.52396
iste	-8.52402
▁projet	-8.52421
que	-8.52597
▁1	-8.527
man	-8.52924
ensemble	-8.53776
▁mer	-8.53779
▁année	-8.54068
ge	-8.54171
ré	-8.54469
▁pierre	-8.54587
▁cinq	-8.54808
▁plan	-8.54861
▁droit	-8.5502
▁r	-8.55161
▁public	-8.55618
▁long	-8.55992
▁raison	-8.56275
▁17	-8.56344
▁généralement	-8.56866
ion	-8.57002
▁seul	-8.57049
▁mois	-8.5714
▁ensuite	-8.5753
▁grandes	-8.58014
▁recherche	-8.58307
▁an	-8.58513
w	-8.58619
lo	-8.58751
▁personnes	-8.58791
▁pro	-8.58852
ing	-8.58888
▁titre	-8.58943
ul	-8.59922
▁mise	-8.60065
▁pré	-8.60349
▁famille	-8.60417
▁tandis	-8.60452
▁différents	-8.60496
▁fonction	-8.60518
té	-8.60529
▁al	-8.60568
▁différentes	-8.60719
▁font	-8.61143
vi	-8.61259
▁eux	-8.61554
▁k	-8.61874
▁face	-8.62038
▁15	-8.62291
▁villes	-8.6242
▁va	-8.62463
année	-8.6251
europe	-8.62841
lé	-8.62856
▁toutefois	-8.62927
▁t	-8.63266
▁loi	-8.63356
▁régions	-8.63428
▁autour	-8.63473
▁mot	-8.63595
▁cinéma	-8.63879
▁membres	-8.64022
même	-8.64287
um	-8.64302
île	-8.64882
▁réseau	-8.64937
▁10	-8.65041
ga	-8.65245
▁écrit	-8.65248
▁politiques	-8.65314
du	-8.65395
▁16	-8.65586
▁succès	-8.65621
▁importante	-8.66119
▁laquelle	-8.66169
ia	-8.66543
union	-8.66593
▁prend	-8.66617
▁gauche	-8.66671
▁important	-8.6684
▁présente	-8.67017
di	-8.67077
▁deuxième	-8.67215
ils	-8.67433
èrent	-8.67727
li	-8.67753
▁enfin	-8.6786
▁roman	-8.67938
▁sein	-8.68002
▁déjà	-8.6839
▁tels	-8.68442
▁connu	-8.68446
da	-8.68909
▁principalement	-8.69007
]]	-8.69082
ex	-8.69236
homme	-8.69273
▁européenne	-8.69681
▁ligne	-8.70136
▁con	-8.70648
▁-	-8.71154
▁sera	-8.71646
▁jours	-8.71826
par	-8.72001
ti	-8.72058
ont	-8.72074
▁malgré	-8.72234
im	-8.72243
▁utilisé	-8.72397
▁liste	-8.72704
▁ailleurs	-8.73036
université	-8.73058
▁moyenne	-8.73152
▁élections	-8.73362
▁5	-8.73623
▁façon	-8.74085
ad	-8.74168
▁seulement	-8.74294
▁série	-8.74584
2	-8.74632
▁4	-8.74754
▁mal	-8.7479
j	-8.74838
▁[[	-8.7501
▁commune	-8.7512
▁mis	-8.75255
▁type	-8.75385
▁majorité	-8.75713
▁capitale	-8.75724
▁tête	-8.75913
▁militaire	-8.75954
▁fils	-8.76029
go	-8.7608
▁droite	-8.76124
après	-8.76557
▁histoire	-8.76599
▁international	-8.77058
▁travers	-8.77201
dire	-8.77256
▁femmes	-8.7732
▁second	-8.77376
ter	-8.77422
▁produit	-8.7746
▁pratique	-8.77513
aire	-8.77554
▁chef	-8.77583
▁taux	-8.77669
▁données	-8.77837
co	-8.77897
qui	-8.78084
▁haute	-8.78196
ry	-8.78479
▁époque	-8.7866
▁nouvelles	-8.78726
armée	-8.79036
el	-8.79123
if	-8.7922
▁é	-8.79307
▁hommes	-8.79497
▁corps	-8.79522
▁eu	-8.79526
▁communes	-8.79527
▁cour	-8.79933
ba	-8.79994
organisation	-8.80461
▁programme	-8.80544
▁met	-8.80956
▁possède	-8.81059
abord	-8.81191
eux	-8.81628
▁lorsque	-8.81775
▁donne	-8.81839
▁devant	-8.82053
ité	-8.82609
▁domaine	-8.82638
▁siècle	-8.82772
▁climat	-8.82922
▁seule	-8.82959
ka	-8.83107
▁europe	-8.83165
▁ma	-8.83716
▁cadre	-8.8373
do	-8.8407
▁celles	-8.84239
▁françois	-8.84305
th	-8.8448
os	-8.84583
eur	-8.84709
ir	-8.8485
▁ministre	-8.84964
▁cause	-8.85176
▁dit	-8.85202
ordre	-8.85338
▁régime	-8.85451
be	-8.8554
▁langage	-8.85577
mer	-8.85662
▁premières	-8.85672
▁()	-8.85754
▁groupes	-8.86024
1	-8.86084
son	-8.8615
▁américain	-8.86292
▁quant	-8.86421
isation	-8.86589
▁service	-8.86591
▁version	-8.866
:	-8.86656
▁produits	-8.86841
▁nature	-8.87132
▁internationale	-8.87359
▁bataille	-8.87371
particulièrement	-8.87445
no	-8.87548
▁milieu	-8.87587
ard	-8.87738
▁haut	-8.88035
▁possible	-8.88122
▁dernière	-8.88402
▁etc	-8.88569
ton	-8.88708
dé	-8.88987
▁furent	-8.88996
▁millions	-8.89116
▁mont	-8.89345
▁mesure	-8.8935
▁présence	-8.8938
ère	-8.89393
able	-8.89697
▁genre	-8.90206
che	-8.90401
▁troisième	-8.90735
▁japonais	-8.9075
▁18	-8.90924
▁livre	-8.90932
▁propre	-8.91237
▁religion	-8.91416
▁films	-8.91447
▁forte	-8.91603
▁bas	-8.91622
▁»)	-8.91979
ut	-8.9204
▁littérature	-8.92262
▁style	-8.92301
▁position	-8.92335
▁moment	-8.92387
▁formula	-8.92714
▁petit	-8.92758
pe	-8.9276
ancien	-8.9279
▁dix	-8.92799
ale	-8.92815
-19	-8.9286
▁principaux	-8.92905
▁modèle	-8.92931
ca	-8.93029
▁outre	-8.93326
école	-8.93559
▁situation	-8.93608
▁scène	-8.93828
▁théorie	-8.93838
▁vue	-8.93965
▁état	-8.93979
▁new	-8.94047
▁plutôt	-8.94143
▁côté	-8.9466
▁zone	-8.94768
▁âge	-8.94826
am	-8.9499
▁serait	-8.95169
▁voit	-8.95242
entre	-8.95358
▁valeur	-8.95392
sur	-8.95436
économie	-8.95549
▁œuvre	-8.95598
ier	-8.95701
▁père	-8.96229
▁populaire	-8.96247
▁inter	-8.96293
▁charles	-8.96319
▁lequel	-8.9635
▁marché	-8.96554
▁2010	-8.96607
▁h	-8.9662
▁six	-8.9684
▁historique	-8.96876
▁travaux	-8.96878
▁constitution	-8.97329
▁représente	-8.97385
▁pu	-8.97393
▁jamais	-8.97845
the	-8.98039
▁pi	-8.98096
istes	-8.98188
uni	-8.98247
▁révolution	-8.98269
▁construction	-8.98415
église	-8.98584
▁éléments	-8.98633
▁code	-8.98847
ille	-8.98867
▁crise	-8.98954
▁question	-8.99125
▁philosophie	-8.99308
ien	-8.99491
ol	-8.99895
action	-8.99901
7	-9.00065
▁but	-9.00144
▁fer	-9.00145
mo	-9.00623
▁critique	-9.00705
▁port	-9.00707
▁7	-9.00752
▁services	-9.0085
▁maison	-9.00851
ac	-9.00888
4	-9.00989
▁bon	-9.01065
▁moitié	-9.01127
▁secteur	-9.01267
▁cuisine	-9.02085
▁sociale	-9.02114
▁aurait	-9.02115
mi	-9.02128
ha	-9.02339
tes	-9.02483
ient	-9.02559
ot	-9.02804
▁(«	-9.02826
▁donné	-9.02958
ienne	-9.02966
ons	-9.02973
▁sol	-9.02975
▁w	-9.03037
▁communauté	-9.03146
▁marque	-9.03345
▁techniques	-9.03386
▁tel	-9.03388
▁appelé	-9.03395
▁moderne	-9.03576
▁droits	-9.03643
▁ensemble	-9.03668
▁proche	-9.03712
▁commence	-9.03894
▁festival	-9.04018
œuvre	-9.04248
▁site	-9.04491
▁faible	-9.04521
bas	-9.0457
▁nouveaux	-9.04831
▁créé	-9.04839
▁porte	-9.04852
▁radio	-9.04944
▁science	-9.04976
_	-9.0529
▁commerce	-9.05336
▁8	-9.0538
afrique	-9.05429
▁néanmoins	-9.05448
▁no	-9.05487
mé	-9.05628
▁quand	-9.05757
▁textes	-9.05788
▁the	-9.06087
▁mai	-9.06127
élection	-9.06301
▁demande	-9.06492
▁contrôle	-9.06497
bo	-9.06582
▁siège	-9.06595
▁ha	-9.06741
as	-9.06833
objet	-9.06868
gi	-9.06916
▁rapidement	-9.06919
▁1990	-9.06962
id	-9.07035
▁principales	-9.07057
▁naissance	-9.07105
▁considéré	-9.07132
pa	-9.07221
▁anti	-9.07246
ph	-9.07259
nes	-9.07532
▁divers	-9.07729
▁femme	-9.07738
▁physique	-9.07789
▁présidentielle	-9.07837
▁anglais	-9.07897
▁retour	-9.07948
▁forces	-9.08162
▁générale	-9.08251
▁ka	-9.08333
▁faut	-9.08402
▁relations	-9.08428
▁jacques	-9.0843
▁campagne	-9.08501
▁date	-9.08556
né	-9.08603
▁commun	-9.08626
ni	-9.08673
ron	-9.08918
ck	-9.08985
"),	-9.09009
▁mots	-9.09061
▁louis	-9.09206
▁or	-9.09214
▁croissance	-9.09238
▁6	-9.09356
▁jeune	-9.09556
▁systèmes	-9.09893
aï	-9.10051
▁v	-9.10077
▁caractéristique	-9.10094
pi	-9.10126
▁finalement	-9.10651
3	-9.10658
▁trop	-9.10713
▁traité	-9.10968
▁ancien	-9.11235
▁12	-9.11246
▁zones	-9.11367
▁entreprises	-9.11391
▁mondial	-9.11852
industrie	-9.11861
▁règne	-9.11969
▁suivant	-9.12103
▁théâtre	-9.12152
5	-9.12218
▁2000	-9.12285
▁habitants	-9.12308
va	-9.12603
égypte	-9.12645
▁libre	-9.12648
auteur	-9.12795
▁texte	-9.12884
▁bo	-9.12893
elles	-9.13069
▁formation	-9.13138
▁chine	-9.13471
ig	-9.13491
&	-9.13663
tion	-9.13731
▁14	-9.13812
▁mode	-9.13898
▁force	-9.14595
▁classe	-9.14705
▁enfants	-9.14768
▁york	-9.14845
gu	-9.14861
▁fort	-9.14879
▁20	-9.15008
▁études	-9.15069
▁annonce	-9.15441
▁cor	-9.15549
▁transport	-9.15568
▁publié	-9.15575
▁bar	-9.15718
ville	-9.15734
▁taille	-9.15843
▁assez	-9.15849
▁faisant	-9.1593
▁voix	-9.1598
utilisation	-9.16001
▁situé	-9.16033
▁santé	-9.16132
ais	-9.1618
ns	-9.16264
▁courant	-9.16517
▁sujet	-9.16546
▁source	-9.16547
▁social	-9.16553
était	-9.16672
▁voir	-9.1668
▁sept	-9.16808
▁ta	-9.16818
▁espèces	-9.17065
▁côte	-9.17164
▁formes	-9.17292
▁1980	-9.17437
▁passe	-9.17439
▁culte	-9.17501
▁principal	-9.17539
influence	-9.17578
fi	-9.17786
▁personne	-9.17845
▁château	-9.17896
▁mo	-9.17959
em	-9.18018
▁statut	-9.18066
▁connaît	-9.18158
mar	-9.18223
▁san	-9.18372
▁rome	-9.18418
▁membre	-9.18562
▁direction	-9.18573
tte	-9.18858
▁2007	-9.18934
▁val	-9.19049
▁to	-9.19223
▁permettant	-9.19278
▁technique	-9.19397
▁sciences	-9.19404
▁total	-9.19483
▁paul	-9.19489
▁1970	-9.19613
bu	-9.19649
ko	-9.20032
rait	-9.20078
").	-9.20107
val	-9.20131
ux	-9.20154
▁peine	-9.20219
environnement	-9.20262
▁britannique	-9.20294
▁né	-9.205
▁gaz	-9.20616
▁référence	-9.20655
▁longue	-9.20734
▁mars	-9.2089
ai	-9.20984
été	-9.2099
▁tourisme	-9.21016
▁jo	-9.211
▁largement	-9.21119
▁dollars	-9.21157
▁sites	-9.21213
tique	-9.2134
▁structure	-9.21351
▁2009	-9.21695
▁centrale	-9.21797
▁2008	-9.21984
▁œuvres	-9.22048
▁présent	-9.2212
allemagne	-9.22219
▁activités	-9.22239
▁qualité	-9.22433
▁cité	-9.22447
iques	-9.22471
ner	-9.22474
▁mar	-9.22515
▁principe	-9.22593
▁anciens	-9.22669
▁presque	-9.22819
▁lorsqu	-9.22923
▁puissance	-9.22978
▁retrouve	-9.23109
▁vidéo	-9.23205
▁essentiellement	-9.23231
voir	-9.23374
▁constitue	-9.23385
près	-9.23508
▁empire	-9.23554
▁ex	-9.23632
▁sortie	-9.23641
▁surface	-9.23657
environ	-9.23764
▁of	-9.23794
▁latin	-9.23869
▁suisse	-9.23911
▁avaient	-9.23962
▁mère	-9.24367
aide	-9.24386
empereur	-9.24758
iens	-9.24804
▁communication	-9.2483
▁front	-9.24904
▁fa	-9.24979
▁terres	-9.25084
image	-9.25279
▁nous	-9.25377
po	-9.254
eurs	-9.25432
▁auteurs	-9.25449
▁îles	-9.25465
ja	-9.25475
espace	-9.25483
▁scientifique	-9.25673
▁lutte	-9.25777
ki	-9.25778
▁cha	-9.25819
▁2012	-9.25902
▁masse	-9.25966
ve	-9.26281
▁11	-9.26443
▁désormais	-9.2645
▁2017	-9.26457
▁jeunes	-9.26457
▁grec	-9.26563
▁notre	-9.26755
▁musée	-9.26773
▁pen	-9.26822
▁classique	-9.26871
▁apparaît	-9.27064
enseignement	-9.27064
▁simple	-9.27108
▁13	-9.27146
▁ar	-9.27161
▁mettre	-9.27181
▁défense	-9.27186
ic	-9.2729
hi	-9.2743
ailleurs	-9.27441
▁voire	-9.27702
▁%)	-9.27709
▁permettent	-9.27754
âge	-9.27832
▁semble	-9.27932
▁petite	-9.27936
▁(18	-9.27953
▁ressources	-9.2814
▁sécurité	-9.28331
▁publique	-9.28446
ement	-9.28446
▁passage	-9.28791
▁pensée	-9.28844
▁choix	-9.28919
▁bois	-9.28945
se	-9.28975
▁vote	-9.29148
lin	-9.29153
▁comprend	-9.29171
ver	-9.29198
▁matière	-9.29338
lu	-9.29404
▁américaine	-9.29418
ive	-9.29477
▁ba	-9.2958
▁russie	-9.29655
▁o	-9.29671
étude	-9.29799
ront	-9.2986
▁prendre	-9.30026
▁i	-9.30041
▁aucun	-9.30075
▁nations	-9.30129
agriculture	-9.30206
▁voie	-9.30256
▁vu	-9.30336
▁tradition	-9.30351
▁nommé	-9.30445
exploitation	-9.30663
▁pris	-9.30766
énergie	-9.30807
indépendance	-9.30812
▁robert	-9.3085
za	-9.30855
▁9	-9.30992
▁protection	-9.30996
(	-9.31101
▁considère	-9.31146
▁go	-9.31187
ly	-9.31295
rie	-9.31309
idée	-9.31363
gt	-9.31386
▁art	-9.314
▁élu	-9.31527
▁coupe	-9.31538
ois	-9.31593
▁na	-9.31786
des	-9.31905
▁notion	-9.31964
▁obtient	-9.32028
▁coup	-9.32111
▁propose	-9.32118
▁1960	-9.32209
wa	-9.32263
▁candidat	-9.32311
▁conditions	-9.3245
▁cap	-9.32451
▁2006	-9.32529
▁2011	-9.32684
▁large	-9.327
▁atteint	-9.32746
▁types	-9.32755
▁per	-9.32789
▁caractère	-9.32922
vo	-9.32947
▁charge	-9.33251
▁utilise	-9.33305
br	-9.33361
▁mi	-9.33397
air	-9.33542
lt	-9.3358
écriture	-9.33594
per	-9.336
io	-9.33813
▁composé	-9.33817
▁militaires	-9.33942
▁diverses	-9.33984
▁champ	-9.34093
sse	-9.34226
▁michel	-9.3427
▁romain	-9.34298
▁utilisée	-9.3436
▁fortement	-9.34553
▁presse	-9.34656
▁po	-9.34722
sa	-9.34731
▁certain	-9.34888
orient	-9.34944
▁peuple	-9.34952
▁bi	-9.35014
▁religieux	-9.35037
▁pourrait	-9.35209
▁mémoire	-9.3525
▁influence	-9.3532
▁directement	-9.35351
▁derniers	-9.35438
▁prise	-9.35491
▁longtemps	-9.35607
▁réalité	-9.35618
▁main	-9.35703
▁située	-9.3582
ables	-9.35837
▁unique	-9.35913
▁x	-9.35936
▁sort	-9.3595
com	-9.36084
ag	-9.36197
▁palais	-9.3624
▁comité	-9.36243
▁correspond	-9.36336
▁européen	-9.36417
▁belgique	-9.36597
▁2016	-9.36714
bi	-9.3683
▁devenu	-9.37122
▁me	-9.37248
usage	-9.3733
▁quartier	-9.37367
▁processus	-9.37665
▁contexte	-9.37674
op	-9.37766
use	-9.37809
▁john	-9.37813
▁départements	-9.37877
▁nintendo	-9.38025
▁ci	-9.38062
ure	-9.38301
▁célèbre	-9.38516
▁concept	-9.38559
▁romaine	-9.38561
▁victoire	-9.38632
ette	-9.38639
▁passé	-9.38708
▁2019	-9.38729
don	-9.38973
▁septembre	-9.39119
▁2018	-9.39333
â	-9.39367
▁traditionnelle	-9.39525
ante	-9.39544
▁bou	-9.39603
▁2013	-9.39617
▁rencontre	-9.39783
▁je	-9.39814
▁vingt	-9.39844
▁juin	-9.40003
▁savoir	-9.40117
▁méthode	-9.40406
entreprise	-9.40537
▁telles	-9.40635
ho	-9.40726
assemblée	-9.40736
▁décembre	-9.4076
si	-9.40798
qu	-9.40928
▁écoles	-9.41086
▁césar	-9.41155
▁2014	-9.41196
▁communiste	-9.41216
▁patrimoine	-9.4129
od	-9.41539
ler	-9.41566
▁soutien	-9.41638
▁vi	-9.41699
oc	-9.41732
▁suivante	-9.41828
▁officielle	-9.41834
▁principale	-9.41834
▁brésil	-9.41957
▁province	-9.42122
▁publie	-9.42158
▁pib	-9.42199
▁rend	-9.42313
chi	-9.42349
ens	-9.42515
▁donner	-9.42614
ance	-9.42821
▁sport	-9.4298
▁savoie	-9.43048
▁mé	-9.43112
▁doivent	-9.43272
▁central	-9.43286
existence	-9.43442
▁janvier	-9.43613
▁utilisés	-9.43686
ble	-9.43768
▁sources	-9.43892
▁)	-9.43942
▁continent	-9.44098
ts	-9.44203
▁décrit	-9.44298
▁définition	-9.44363
▁supérieur	-9.44565
▁double	-9.44581
▁/	-9.44607
▁points	-9.44679
á	-9.44748
▁dernières	-9.44804
▁lettres	-9.44921
▁rouge	-9.45
nom	-9.45082
▁grèce	-9.45156
▁fonctions	-9.45198
italie	-9.45215
ang	-9.45219
▁territoires	-9.45254
étend	-9.45278
▁suivi	-9.45319
intérieur	-9.45355
ke	-9.45384
▁occidentale	-9.45477
▁montre	-9.45526
écrivain	-9.45527
▁mouvements	-9.4564
▁figure	-9.45661
▁justice	-9.45676
▁aucune	-9.45697
▁problème	-9.45734
activité	-9.45836
▁déesse	-9.45866
▁humaine	-9.45975
vis	-9.45993
▁mitterrand	-9.46024
▁concernant	-9.46199
▁termes	-9.46248
▁véritable	-9.46249
cul	-9.46293
ll	-9.46404
évolution	-9.4641
ty	-9.466
▁problèmes	-9.46665
ji	-9.46736
france	-9.46736
▁tri	-9.46763
▁conception	-9.4678
▁représentation	-9.46889
om	-9.46891
▁réforme	-9.47191
▁vol	-9.47207
10	-9.47244
6	-9.47387
]	-9.47591
...	-9.47592
▁2005	-9.47665
▁permis	-9.47733
▁progressivement	-9.47805
ed	-9.47837
▁allemand	-9.48053
▁vivant	-9.48053
▁devenir	-9.48122
▁marseille	-9.48187
ab	-9.4834
▁1999	-9.48497
▁char	-9.48618
▁relation	-9.48631
▁russe	-9.48647
▁ch	-9.48662
▁signifie	-9.48731
▁japonaise	-9.48757
▁économie	-9.48772
▁dieux	-9.48849
▁appelée	-9.48863
ak	-9.49111
▁décide	-9.49153
avoir	-9.49308
▁av	-9.4938
ez	-9.49387
▁reçoit	-9.49393
▁télévision	-9.49393
tre	-9.49404
▁économiques	-9.49413
▁compris	-9.49481
▁populations	-9.49603
▁autant	-9.4964
▁socialiste	-9.49701
▁liberté	-9.49756
mon	-9.49807
▁strasbourg	-9.49934
▁objets	-9.50208
ancienne	-9.50211
▁troupes	-9.5041
▁georges	-9.50422
tu	-9.50467
▁""	-9.50515
▁dispose	-9.50542
▁homme	-9.50557
car	-9.50648
▁critiques	-9.5103
...)	-9.51084
urs	-9.51101
ru	-9.51122
▁déclare	-9.51152
▁appel	-9.5117
▁rue	-9.51332
équipe	-9.51429
▁2002	-9.51451
▁dés	-9.51469
administration	-9.51509
▁via	-9.51567
ix	-9.51571
ise	-9.51632
ub	-9.51677
▁vallée	-9.51719
iers	-9.51931
▁huit	-9.51956
iser	-9.52051
con	-9.52273
▁soleil	-9.52323
▁mieux	-9.52352
▁discours	-9.52423
académie	-9.52507
▁importantes	-9.52533
▁cœur	-9.52534
▁ancienne	-9.52538
tra	-9.52576
9	-9.52599
▁di	-9.52634
▁telle	-9.52639
▁trans	-9.5267
▁vit	-9.52895
▁gestion	-9.52908
▁blanc	-9.52929
▁juillet	-9.53132
▁olympiques	-9.53259
▁durée	-9.5326
▁paix	-9.53265
▁grenoble	-9.53302
ins	-9.53394
amérique	-9.53413
▁créer	-9.53448
00	-9.53488
▁linguistique	-9.53623
▁connue	-9.53652
▁domaines	-9.53719
▁lieux	-9.53772
▁logiciel	-9.53792
mont	-9.53836
▁profit	-9.53868
▁développé	-9.53888
ign	-9.53911
▁découverte	-9.53952
cy	-9.5404
▁relativement	-9.54065
▁vient	-9.5409
gé	-9.54106
expression	-9.54175
▁fondée	-9.54187
▁phénomène	-9.54356
▁sociétés	-9.54527
▁naturel	-9.54562
▁américains	-9.5468
land	-9.54681
▁temple	-9.54694
▁respect	-9.54745
gue	-9.54747
arrivée	-9.54756
▁quasi	-9.54797
▁consommation	-9.54827
▁doute	-9.54895
ologie	-9.54897
▁congrès	-9.54955
▁2001	-9.54959
è	-9.5505
▁parlement	-9.55086
▁quelque	-9.55123
espagne	-9.55142
▁30	-9.55159
▁parle	-9.55203
ence	-9.55286
▁développe	-9.55353
▁résultats	-9.55399
▁corée	-9.5578
▁loin	-9.55811
can	-9.55919
éducation	-9.55921
▁basse	-9.55981
▁novembre	-9.56106
ah	-9.56118
▁lois	-9.56164
▁el	-9.56174
▁départ	-9.56338
▁bande	-9.56394
der	-9.56481
▁vitesse	-9.56501
▁seth	-9.56528
▁noms	-9.56547
▁octobre	-9.5655
▁vis	-9.56559
▁fond	-9.5681
▁parc	-9.56904
▁signe	-9.56994
▁élevé	-9.57007
▁là	-9.57016
▁fille	-9.57029
architecture	-9.57101
ser	-9.57163
13	-9.57197
▁meilleur	-9.57206
▁officiellement	-9.57223
▁pourtant	-9.57226
▁anciennes	-9.57279
▁bonne	-9.57388
▁chacun	-9.57391
▁scrutin	-9.57465
▁superficie	-9.57465
▁capacité	-9.57468
▁personnage	-9.57534
▁continue	-9.57576
▁européens	-9.57686
tif	-9.57716
▁micro	-9.57738
pro	-9.57741
▁réalisateur	-9.57807
▁rang	-9.57835
▁géographie	-9.57857
▁bassin	-9.57885
▁chute	-9.57947
ue	-9.58088
q	-9.58218
▁petits	-9.58223
▁bruxelles	-9.5825
▁nouvel	-9.58297
hu	-9.58405
argent	-9.58484
▁2004	-9.58502
▁lignes	-9.5852
▁conflit	-9.58671
▁carrière	-9.58677
▁antique	-9.58745
hiver	-9.58784
▁propres	-9.58886
▁frontière	-9.58963
▁caractères	-9.58975
delà	-9.59129
12	-9.59213
▁so	-9.59273
isé	-9.59336
▁gi	-9.59419
▁sorte	-9.59433
▁1950	-9.59443
▁mon	-9.5946
▁littéraire	-9.59489
extrême	-9.59499
▁loire	-9.5952
▁objet	-9.59615
▁pa	-9.59736
▁catholique	-9.59757
min	-9.59775
▁humains	-9.59939
▁voyage	-9.60014
▁personnages	-9.60048
▁hors	-9.60067
▁journal	-9.60095
▁explique	-9.60125
▁solaire	-9.60136
▁certaine	-9.60152
▁difficile	-9.60191
▁pharaon	-9.60252
▁rendre	-9.60289
▁représentent	-9.60294
bert	-9.60367
ite	-9.60368
▁informatique	-9.60535
vin	-9.60616
port	-9.60636
▁mexique	-9.60726
▁ad	-9.6085
▁contrairement	-9.61043
▁règles	-9.61158
dessus	-9.61278
association	-9.61339
information	-9.61502
▁créée	-9.61565
▁and	-9.61648
▁puisque	-9.61679
25	-9.61787
▁distribution	-9.61863
▁utilisant	-9.61876
8	-9.61877
ya	-9.6197
▁partis	-9.61995
▁représentant	-9.62184
▁rousseau	-9.62271
▁conduit	-9.62329
▁constitué	-9.62397
▁mandat	-9.62447
▁gu	-9.62467
▁commission	-9.62477
▁locale	-9.62593
▁finale	-9.62644
▁sociales	-9.6269
ade	-9.6274
cha	-9.62769
▁durable	-9.62783
occasion	-9.62793
rent	-9.62858
▁lumière	-9.62891
▁marqué	-9.63078
▁ca	-9.63095
▁lance	-9.63104
inde	-9.63132
▁40	-9.63209
▁breton	-9.63223
euros	-9.63264
▁vision	-9.63337
▁peuples	-9.63373
▁logique	-9.63429
▁lesquels	-9.63509
▁2022	-9.63518
▁fleuve	-9.63533
▁tiers	-9.63557
ill	-9.63589
▁logiciels	-9.63627
mp	-9.63653
▁changement	-9.63761
▁seront	-9.63908
▁marine	-9.6394
odice	-9.63983
▁activité	-9.63997
▁propos	-9.64046
lon	-9.64071
▁e	-9.64111
▁traitement	-9.64175
entrée	-9.64182
▁culturel	-9.64203
liste	-9.64287
▁su	-9.64303
▁étude	-9.64315
▁désigne	-9.64386
▁médias	-9.64412
▁web	-9.64435
amp	-9.64475
▁symbole	-9.64476
ran	-9.64479
▁appelle	-9.64517
onne	-9.64548
▁importants	-9.64555
▁nécessaire	-9.64615
▁internet	-9.64675
▁réalisé	-9.64734
▁seine	-9.64752
▁arts	-9.6486
tt	-9.64877
lement	-9.64954
otan	-9.64957
▁régional	-9.64974
▁ii	-9.64986
▁totale	-9.65073
▁bord	-9.65198
▁allemands	-9.65276
▁marie	-9.65304
arc	-9.65325
▁50	-9.65379
nne	-9.65386
ib	-9.65429
intérêt	-9.65554
▁&	-9.65637
▁philippe	-9.65653
▁provinces	-9.65864
▁probablement	-9.65908
▁tir	-9.65924
ssant	-9.65963
col	-9.66036
og	-9.66099
oise	-9.66118
▁apple	-9.66148
▁joue	-9.66154
▁chinois	-9.66172
▁parties	-9.66192
har	-9.66226
▁avril	-9.66261
▁siècles	-9.66338
▁animaux	-9.66457
▁phase	-9.66487
▁soient	-9.66502
je	-9.66546
ateur	-9.66566
14	-9.66652
naissance	-9.66797
▁os	-9.66981
up	-9.67023
iv	-9.67082
▁nos	-9.67159
▁ri	-9.67348
avec	-9.67376
▁nuit	-9.67397
▁bio	-9.67472
ber	-9.67688
▁limite	-9.67732
▁().	-9.67788
▁passer	-9.67905
▁fi	-9.67906
▁actuellement	-9.68078
▁poste	-9.68084
▁cal	-9.68209
nel	-9.68348
▁riche	-9.68352
▁moyens	-9.68428
▁royal	-9.68461
▁futur	-9.68553
dont	-9.68608
ière	-9.68621
▁matériel	-9.68624
▁cultures	-9.68646
importance	-9.68842
▁régulièrement	-9.68873
▁trouver	-9.68909
▁résistance	-9.68911
▁seuls	-9.68942
euse	-9.6907
▁fondé	-9.69084
▁tendance	-9.69161
▁désigner	-9.69205
▁lettre	-9.69224
▁artistes	-9.69228
▁mor	-9.69245
▁comporte	-9.69353
▁pe	-9.69395
▁rapide	-9.69489
ger	-9.69518
▁ja	-9.69547
ay	-9.69563
▁étrangers	-9.69596
▁rhétorique	-9.69609
17	-9.69652
▁fondation	-9.69714
▁google	-9.69721
antiquité	-9.69735
fa	-9.69763
pt	-9.69814
institut	-9.69826
'«	-9.6989
▁concerne	-9.69921
▁calcul	-9.70048
asie	-9.70121
▁juge	-9.70122
nd	-9.70155
inter	-9.70363
▁hu	-9.70433
▁institutions	-9.70467
▁humain	-9.7049
▁pan	-9.70498
▁consiste	-9.70519
ny	-9.70562
enne	-9.70619
analyse	-9.70621
née	-9.7076
▁civile	-9.70765
▁parler	-9.70832
accès	-9.70865
20	-9.70875
▁tu	-9.70878
lant	-9.70946
▁décision	-9.70976
▁pièces	-9.71043
▁fil	-9.71086
nant	-9.71159
▁grecs	-9.71223
▁grecque	-9.71238
▁faveur	-9.7128
▁livres	-9.71354
▁garde	-9.71463
▁historiques	-9.71471
▁composée	-9.71488
▁résultat	-9.71661
▁température	-9.71662
▁note	-9.71694
▁football	-9.7173
▁accord	-9.71858
▁joueurs	-9.71874
▁agricole	-9.7189
▁[	-9.71923
▁locales	-9.71967
jo	-9.72086
océan	-9.72144
▁devenue	-9.72327
▁sociaux	-9.72409
50	-9.72411
ques	-9.72441
▁lune	-9.7245
gon	-9.72481
,5	-9.72517
▁épouse	-9.72562
▁compétition	-9.72596
▁revanche	-9.72636
▁fit	-9.72731
▁ordre	-9.72771
ana	-9.72772
aires	-9.72823
▁complexe	-9.72865
langue	-9.72936
▁crée	-9.72946
cl	-9.73063
▁royale	-9.73093
▁trouvent	-9.73167
▁proches	-9.73168
▁risque	-9.73261
▁locaux	-9.73322
pl	-9.734
▁chambre	-9.7344
▁développer	-9.73505
▁publics	-9.73528
tin	-9.73535
▁police	-9.73558
ct	-9.73608
▁partage	-9.73775
▁z	-9.73826
▁cycle	-9.73829
▁ra	-9.73966
tive	-9.74105
18	-9.74386
▁soviétique	-9.74392
▁constituent	-9.74415
▁considérée	-9.74442
▁1998	-9.74475
▁couleur	-9.74479
▁support	-9.74545
▁distingue	-9.7455
▁ho	-9.74762
▁uniquement	-9.74891
ium	-9.74901
▁permettre	-9.74975
▁st	-9.75
▁méthodes	-9.75045
▁longueur	-9.7505
▁législatives	-9.7516
▁1995	-9.75173
▁francs	-9.75177
▁pression	-9.75185
article	-9.75269
▁mission	-9.75307
▁bal	-9.75336
▁mesures	-9.75352
▁pratiques	-9.75389
▁vont	-9.75408
▁reçu	-9.75412
▁chaîne	-9.75511
▁volonté	-9.75659
ju	-9.75676
anglais	-9.75749
0	-9.75751
▁majeure	-9.75773
▁bri	-9.75862
▁télé	-9.759
▁compagnie	-9.75918
▁mariage	-9.75927
▁égyptienne	-9.75953
▁couleurs	-9.76111
où	-9.76242
▁dynastie	-9.76305
comme	-9.76323
▁parce	-9.76377
▁estime	-9.76456
▁élus	-9.7649
▁mou	-9.76591
▁lecture	-9.76648
▁combat	-9.76751
▁chasse	-9.76844
80	-9.76889
▁tient	-9.77151
nelle	-9.77161
▁néo	-9.77187
décès	-9.7719
nu	-9.77218
cal	-9.77284
▁réalise	-9.77292
▁noir	-9.77297
27	-9.77323
▁renaissance	-9.77345
▁contraire	-9.7741
out	-9.77456
non	-9.7748
▁forêt	-9.77497
mettent	-9.77593
▁fédération	-9.77616
▁2021	-9.77784
▁chiffre	-9.77912
▁religieuse	-9.77936
▁allemande	-9.78012
▁veut	-9.78021
▁ti	-9.78023
▁console	-9.78112
▁romans	-9.78174
▁transports	-9.78178
pé	-9.7819
pierre	-9.78408
▁har	-9.78443
▁connaissance	-9.78621
▁derrière	-9.78734
▁2003	-9.7875
vé	-9.78865
▁be	-9.78875
▁ju	-9.78952
▁contenu	-9.78979
▁lac	-9.79054
apparition	-9.79143
ist	-9.79151
▁construit	-9.79191
vers	-9.79294
▁forment	-9.79321
▁cent	-9.79328
▁situe	-9.79466
▁supérieure	-9.79516
éro	-9.79544
▁ceci	-9.79575
▁direct	-9.79606
▁écrits	-9.7963
▁table	-9.79653
tor	-9.79675
▁offre	-9.7968
▁liée	-9.79693
▁passant	-9.79694
▁ver	-9.79695
▁manque	-9.79749
saint	-9.7984
26	-9.79861
▁chi	-9.79878
▁accueille	-9.79971
▁candidature	-9.79995
▁ami	-9.80026
men	-9.80032
▁armes	-9.80064
▁pont	-9.80095
univers	-9.80118
▁freud	-9.80196
▁diffusion	-9.80199
sh	-9.80213
▁afrique	-9.80239
▁division	-9.80484
ten	-9.80498
▁idées	-9.80551
▁rien	-9.80612
▁frère	-9.80654
▁britanniques	-9.8066
▁conquête	-9.80688
▁nobel	-9.80697
▁25	-9.80763
▁=	-9.80806
ica	-9.80832
▁revue	-9.80834
▁»).	-9.80841
▁neuf	-9.80884
eu	-9.80905
isant	-9.80909
▁suit	-9.80929
ian	-9.80934
▁démocratique	-9.80935
▁informations	-9.81014
▁géographique	-9.81133
▁maurice	-9.81134
▁composition	-9.81184
▁sports	-9.81207
▁massif	-9.81223
▁carte	-9.81245
▁salle	-9.81267
lan	-9.81269
▁romains	-9.8129
bre	-9.8138
▁quatrième	-9.81486
▁disque	-9.81518
▁naturelles	-9.81664
▁format	-9.81739
▁valeurs	-9.8174
▁issus	-9.81803
▁ko	-9.8185
élève	-9.81893
ino	-9.81903
▁ga	-9.81978
▁unies	-9.82003
unité	-9.82003
res	-9.82017
▁gaule	-9.8212
ori	-9.82252
▁fr	-9.82257
ug	-9.82269
,6	-9.82273
▁bu	-9.82349
▁petites	-9.82387
▁directeur	-9.82391
▁gra	-9.82403
▁planète	-9.82415
aud	-9.82456
▁sommet	-9.82496
▁1997	-9.82555
▁culturelle	-9.82583
esprit	-9.82651
▁scientifiques	-9.82655
▁francisco	-9.82687
tri	-9.82699
▁van	-9.82712
▁religions	-9.82719
end	-9.82719
▁standard	-9.82735
▁ministère	-9.82749
ze	-9.82819
ères	-9.82847
▁bureau	-9.82918
▁urbaine	-9.82928
▁mille	-9.83055
fiction	-9.83172
▁février	-9.83185
▁he	-9.8323
gen	-9.83268
mes	-9.83308
▁évolution	-9.83341
▁représenté	-9.83395
▁viande	-9.83441
-20	-9.83449
▁élément	-9.8355
▁restent	-9.83668
existe	-9.83716
▁marquée	-9.83747
▁horus	-9.8377
▁juste	-9.83844
ès	-9.83885
let	-9.84118
han	-9.8423
▁vaste	-9.84235
▁milliers	-9.84246
ano	-9.84267
▁organisation	-9.84341
▁autorités	-9.84376
▁démocratie	-9.84457
▁demeure	-9.84473
▁jules	-9.845
ét	-9.84571
▁californie	-9.84592
▁recherches	-9.84655
▁londres	-9.84713
▁1930	-9.84717
dis	-9.84729
▁machine	-9.84737
▁super	-9.84866
▁obtenu	-9.84931
▁numéro	-9.84971
16	-9.85001
▁génération	-9.85004
▁im	-9.85048
▁david	-9.85057
▁active	-9.85059
emploi	-9.85064
▁naturels	-9.85085
▁connus	-9.85113
▁candidats	-9.85162
▁précise	-9.85265
▁effets	-9.85395
▁traduit	-9.85522
▁affaires	-9.85531
▁numérique	-9.85598
▁actuelle	-9.85664
teur	-9.85683
ane	-9.85692
ong	-9.85694
▁frontières	-9.85716
▁correspondant	-9.85819
▁août	-9.85856
▁saison	-9.85943
ines	-9.85987
cher	-9.86005
▁modernes	-9.86078
▁secrétaire	-9.86093
▁signal	-9.86116
▁citer	-9.86169
ales	-9.8617
▁remplacé	-9.86186
accord	-9.86249
▁1992	-9.86268
)|	-9.86275
▁los	-9.86356
▁communautés	-9.86365
▁quantité	-9.86377
st	-9.86384
▁participe	-9.86397
24	-9.86429
▁programmes	-9.86535
ici	-9.86553
22	-9.86565
kh	-9.86568
her	-9.86602
év	-9.8665
▁hi	-9.86689
shi	-9.86766
tant	-9.86779
▁microsoft	-9.8679
▁maire	-9.86888
▁couronne	-9.86945
mu	-9.86958
▁projets	-9.87014
▁men	-9.87035
opposition	-9.871
▁cou	-9.87118
▁naturelle	-9.87144
▁sert	-9.87169
▁sé	-9.87263
▁tra	-9.87311
▁densité	-9.87317
mat	-9.87343
▁agricoles	-9.87391
duc	-9.8742
▁origines	-9.87502
▁maître	-9.8751
igne	-9.87612
▁familles	-9.87628
▁indique	-9.87774
40	-9.87878
▁dû	-9.879
▁différence	-9.87946
▁carbone	-9.87948
▁débat	-9.87961
▁extrême	-9.88096
▁tombe	-9.88164
▁dite	-9.88193
▁mécanique	-9.8826
▁man	-9.88327
homo	-9.8853
▁bibliothèque	-9.88581
arabie	-9.88646
▁entièrement	-9.88718
cu	-9.88761
hé	-9.88777
▁civilisation	-9.88777
▁tours	-9.88836
▁déclaration	-9.88911
▁perdu	-9.88932
▁baisse	-9.88985
▁usage	-9.89156
tro	-9.8919
ff	-9.89201
autorité	-9.89252
▁rois	-9.89254
_1	-9.89341
▁henri	-9.89362
ip	-9.89365
▁présidence	-9.89446
30	-9.89546
▁françaises	-9.89558
▁européennes	-9.89568
ouverture	-9.89651
▁ouvrage	-9.89662
▁meilleure	-9.89689
▁abrite	-9.89721
ap	-9.89803
▁1994	-9.89901
▁lien	-9.89906
▁rares	-9.89991
▁mu	-9.89993
ule	-9.89996
▁cathédrale	-9.90063
dy	-9.90111
alité	-9.90123
▁souverain	-9.90165
▁courants	-9.90168
▁voies	-9.90306
années	-9.90334
▁mythologie	-9.90351
▁philosophe	-9.90351
marie	-9.90371
den	-9.90447
ène	-9.90578
▁régionales	-9.90591
19	-9.90639
▁possibilité	-9.90712
tiques	-9.90733
▁utiliser	-9.90791
élevage	-9.90805
▁commercial	-9.9083
amb	-9.90878
▁chargé	-9.90899
▁personnel	-9.9107
islam	-9.91119
▁change	-9.91128
logique	-9.91148
▁jeunesse	-9.91157
▁réseaux	-9.91177
habitants	-9.91186
%	-9.91187
gin	-9.91216
▁divinités	-9.91264
tz	-9.91312
▁présenté	-9.9132
▁trente	-9.91352
▁col	-9.91359
▁orientale	-9.91467
▁actions	-9.91468
▁cancer	-9.91557
▁demi	-9.91567
ions	-9.91598
▁eaux	-9.91635
qué	-9.91714
▁domination	-9.91905
▁tableau	-9.91919
▁route	-9.9192
▁reprises	-9.92062
▁rhône	-9.92102
▁modèles	-9.92104
28	-9.92112
▁wittgenstein	-9.92174
▁respectivement	-9.92305
▁utilisées	-9.92371
▁angeles	-9.92452
su	-9.92529
▁côtés	-9.92544
personnalité	-9.92579
▁classes	-9.92717
▁proximité	-9.92728
ttes	-9.92808
▁internationales	-9.92826
▁|	-9.9284
nie	-9.92999
▁pétrole	-9.93008
ide	-9.93111
avant	-9.93126
▁banque	-9.93131
▁ait	-9.93143
▁court	-9.93157
▁franc	-9.93219
éra	-9.93255
▁repose	-9.93328
▁pouvant	-9.93371
▁utilisent	-9.93462
▁message	-9.93518
gh	-9.93529
▁équipe	-9.93965
▁présents	-9.93973
▁publication	-9.93991
exemple	-9.94001
▁portugais	-9.94004
▁propriété	-9.94117
net	-9.94267
▁appelés	-9.94271
▁armées	-9.94274
▁prince	-9.94302
▁relief	-9.94372
▁constituée	-9.94432
▁recensement	-9.9445
▁olympique	-9.94462
iran	-9.94481
pour	-9.94486
agglomération	-9.94571
▁raisons	-9.94574
▁pose	-9.94582
▁conférence	-9.9459
,3	-9.94603
humanité	-9.94699
▁inspiré	-9.94867
cor	-9.94895
mor	-9.94939
▁congo	-9.94963
▁heures	-9.94978
ina	-9.94993
▁chrétienne	-9.95062
ides	-9.95146
▁meurt	-9.95154
▁nil	-9.95174
ō	-9.9519
▁électrique	-9.95198
▁limites	-9.95231
▁réaliser	-9.95272
▁pièce	-9.9528
rou	-9.95434
ô	-9.95528
▁rythme	-9.9555
▁1993	-9.95552
▁arrive	-9.95574
▁image	-9.95623
▁refuse	-9.95699
70	-9.9575
▁charlemagne	-9.95836
▁trouvé	-9.95854
▁amérique	-9.95879
▁dehors	-9.95925
▁vin	-9.96098
▁1988	-9.96126
▁conscience	-9.9613
▁fête	-9.96293
cé	-9.96296
ification	-9.96344
ente	-9.96437
av	-9.96453
én	-9.96478
▁terrestre	-9.9648
▁mari	-9.96481
▁aspects	-9.96502
▁collaboration	-9.96508
▁artificielle	-9.9656
ok	-9.9657
ren	-9.96574
ey	-9.96606
alliance	-9.96608
ches	-9.9663
▁cités	-9.96638
lle	-9.96642
▁reprend	-9.96661
▁lesquelles	-9.96701
▁noire	-9.96817
▁principes	-9.96826
berg	-9.96853
rat	-9.96896
occupation	-9.96898
▁dirigé	-9.9695
▁noyau	-9.96961
▁quartiers	-9.96981
▁perd	-9.96983
▁péninsule	-9.9699
▁christianisme	-9.97002
▁canton	-9.97011
▁distance	-9.97067
▁ère	-9.97152
▁80	-9.97288
▁revient	-9.973
▁récit	-9.97359
▁ben	-9.97472
▁davantage	-9.97488
▁isis	-9.97504
▁william	-9.97573
▁wa	-9.97582
▁occupe	-9.9759
▁br	-9.97665
▁poids	-9.97707
édition	-9.97771
fl	-9.97776
▁multi	-9.97777
▁).	-9.97841
▁alain	-9.9787
là	-9.97873
▁post	-9.9789
iz	-9.97917
▁analyse	-9.97926
éri	-9.97961
▁terrain	-9.97963
▁médecine	-9.97982
▁administration	-9.97985
▁noter	-9.98042
▁introduit	-9.98056
▁feu	-9.98088
absence	-9.98091
▁unités	-9.98094
▁local	-9.98104
▁stratégie	-9.98158
ster	-9.98208
▁remonte	-9.9823
▁fo	-9.98249
▁conséquence	-9.98254
▁administrative	-9.98258
▁bro	-9.98323
ète	-9.98364
tur	-9.98409
▁clé	-9.98425
▁quantique	-9.98425
▁signé	-9.98442
▁diversité	-9.98491
▁auteur	-9.98503
|*|	-9.9854
▁sch	-9.98549
▁officiel	-9.98557
▁pape	-9.98584
▁caen	-9.98611
▁ligue	-9.98625
15	-9.98657
▁revenus	-9.98698
▁budget	-9.98747
▁pouvoirs	-9.98803
▁condition	-9.98817
▁te	-9.98824
▁questions	-9.98827
▁dépend	-9.98861
▁nucléaire	-9.98863
ole	-9.98925
▁multiples	-9.98939
▁dis	-9.98979
and	-9.99014
▁pouvait	-9.99043
dia	-9.99086
▁images	-9.99116
tel	-9.99149
loire	-9.99195
▁niveaux	-9.99197
▁martin	-9.99247
▁ro	-9.99254
11	-9.99285
ud	-9.99306
pri	-9.99369
▁sorti	-9.99406
estonie	-9.99436
he	-9.99444
bé	-9.99462
▁chanson	-9.99469
▁joueur	-9.99517
deux	-9.99518
▁liens	-9.99538
▁désir	-9.99558
▁discipline	-9.99574
▁populaires	-9.99619
▁saoudite	-9.99638
▁club	-9.99641
▁déc	-9.99699
▁entier	-9.99746
▁thème	-9.99775
tic	-9.99841
▁ford	-9.99897
▁industrielle	-9.99931
▁circonscription	-9.99936
▁pologne	-9.99937
▁1920	-9.99941
▁fonctionnement	-9.99983
▁chrétiens	-9.99997
▁sainte	-10.0002
▁former	-10.0006
▁morts	-10.0007
▁besoin	-10.0008
▁règle	-10.0012
uc	-10.0015
tan	-10.0015
▁montagne	-10.0033
onde	-10.0037
▁lycée	-10.0038
▁artistique	-10.004
▁chemin	-10.004
▁dessin	-10.0044
▁simplement	-10.0049
application	-10.005
▁article	-10.0051
▁station	-10.0051
ps	-10.0053
▁contient	-10.0054
▁issu	-10.0054
▁environnement	-10.0055
60	-10.0056
avait	-10.0061
▁professeur	-10.0062
▁marche	-10.0067
ima	-10.0074
▁hauteur	-10.0075
▁approche	-10.008
étranger	-10.0082
▁produire	-10.0084
▁actuel	-10.0084
▁mac	-10.0101
▁affirme	-10.0102
▁mathématiques	-10.0105
▁osiris	-10.0106
mettant	-10.011
▁couple	-10.0111
▁prennent	-10.0114
tar	-10.0115
▁alliés	-10.0119
▁monnaie	-10.0133
86	-10.0133
▁1991	-10.0133
▁tente	-10.0136
▁bus	-10.014
lic	-10.0144
auto	-10.0144
▁1981	-10.0145
bri	-10.0151
ik	-10.0155
zi	-10.016
▁sièges	-10.0163
▁formule	-10.0164
ographie	-10.0165
▁2015,	-10.017
ié	-10.017
▁quart	-10.0171
archipel	-10.0175
▁judiciaire	-10.0175
▁programmation	-10.0175
▁participation	-10.0175
▁dire	-10.0179
▁2015	-10.0182
▁spécifique	-10.0187
▁suffrages	-10.0191
xi	-10.0194
▁contrat	-10.0195
▁forêts	-10.0196
▁seraient	-10.0199
▁démographique	-10.0205
ché	-10.0205
ies	-10.0205
▁devait	-10.0207
bourg	-10.0211
▁choisi	-10.0213
▁événements	-10.0215
▁suivantes	-10.0228
▁portant	-10.0233
▁réaction	-10.0234
▁gros	-10.0235
▁latine	-10.0237
▁laisse	-10.0241
23	-10.0242
▁ouvrages	-10.0252
▁italie	-10.0253
our	-10.0255
▁titres	-10.0256
▁million	-10.027
▁?	-10.0271
▁mur	-10.028
▁rendu	-10.0285
ste	-10.0296
▁bra	-10.0296
▁fonde	-10.0296
ges	-10.0297
▁technologie	-10.0309
▁structures	-10.0318
▁révolutionnaire	-10.0318
▁24	-10.0318
▁60	-10.0321
▁satellites	-10.0325
ball	-10.0326
▁1945	-10.0328
▁canada	-10.0328
▁métaux	-10.0329
▁pacifique	-10.0338
▁ab	-10.0358
▁1940	-10.0359
▁sub	-10.0362
ative	-10.0363
▁électronique	-10.0365
▁remporte	-10.0373
▁hautes	-10.0378
▁lit	-10.0378
▁ter	-10.0385
émi	-10.0387
▁existent	-10.0387
▁pétain	-10.0391
honneur	-10.0392
▁néerlandais	-10.0393
▁secondaires	-10.0403
▁camp	-10.0411
▁disponibles	-10.0412
43	-10.0416
▁vice	-10.0421
▁maintenant	-10.0421
▁1996	-10.0421
▁1989	-10.0421
issent	-10.0431
▁députés	-10.0435
▁obtenir	-10.0435
▁comp	-10.044
arménie	-10.0447
▁défaite	-10.0448
▁classification	-10.0453
▁1986	-10.0453
ov	-10.0454
urss	-10.0455
▁espagnole	-10.0457
ê	-10.0459
▁dimension	-10.0465
bel	-10.0465
▁vague	-10.0466
ira	-10.0466
all	-10.047
▁ciel	-10.0479
▁interdit	-10.0479
▁magazine	-10.048
▁régionale	-10.0485
▁somme	-10.0492
▁organisations	-10.0497
▁églises	-10.0499
▁village	-10.05
▁proposé	-10.0503
▁comté	-10.0503
▁fu	-10.0505
▁compose	-10.0506
▁secteurs	-10.0508
▁bleu	-10.0513
▁classement	-10.0514
exception	-10.0515
▁phrase	-10.0515
▁augmentation	-10.052
▁continu	-10.0523
▁rê	-10.0523
▁ton	-10.0526
graph	-10.0528
▁destinée	-10.0535
ari	-10.0537
ius	-10.0544
▁2020,	-10.055
▁allemagne	-10.0551
▁cinquième	-10.0562
▁corse	-10.0564
ani	-10.0565
▁liés	-10.0566
isée	-10.0567
rê	-10.0573
▁joué	-10.0574
▁ferroviaire	-10.0578
▁mélange	-10.0578
▁réalisation	-10.058
▁comptait	-10.058
▁rou	-10.0583
rin	-10.0589
▁21	-10.0593
▁beau	-10.06
gre	-10.0607
▁com	-10.061
angleterre	-10.0616
▁besoins	-10.0627
▁contact	-10.0643
ières	-10.0648
▁bé	-10.0648
▁juifs	-10.0649
oire	-10.0649
▁gare	-10.0653
▁albert	-10.0655
sol	-10.0655
▁xx	-10.0662
▁nicolas	-10.0662
▁ge	-10.0678
▁moteur	-10.0683
mêmes	-10.0699
▁opposition	-10.0701
▁sou	-10.0701
▁rené	-10.0703
▁u	-10.0705
▁devint	-10.0711
ire	-10.0721
▁conflits	-10.0734
▁formé	-10.0736
▁cl	-10.0737
▁symbolique	-10.0738
▁score	-10.0739
▁convention	-10.074
▁peinture	-10.0742
▁apparaissent	-10.0755
▁king	-10.0755
▁pé	-10.0758
▁présenter	-10.0758
ret	-10.0759
▁visite	-10.0761
▁vente	-10.0762
ç	-10.0764
rac	-10.0766
▁min	-10.0767
▁dessinée	-10.077
▁trafic	-10.0771
▁propriétés	-10.0772
onu	-10.0773
▁responsable	-10.0774
▁privée	-10.0776
osiris	-10.0779
▁phénomènes	-10.0785
▁andré	-10.0787
▁visant	-10.0788
▁chiffres	-10.0789
ssent	-10.0789
▁cartes	-10.0792
▁ru	-10.0795
▁documents	-10.0799
▁rejoint	-10.0803
▁lancé	-10.0805
▁contemporaine	-10.0806
expérience	-10.0811
▁origine	-10.0812
▁ps	-10.0824
▁1974	-10.0824
▁dynamique	-10.0827
▁récemment	-10.0835
▁suprême	-10.0835
▁transformation	-10.0836
▁tenu	-10.0837
ieux	-10.0839
▁commencé	-10.0843
ban	-10.0844
▁ber	-10.0844
▁publiques	-10.0848
▁bases	-10.0848
▁jouer	-10.0849
▁centaines	-10.0851
cr	-10.0852
▁mat	-10.0858
29	-10.0861
▁difficultés	-10.0861
historien	-10.0864
▁auparavant	-10.0868
écrit	-10.0877
▁milieux	-10.0878
▁gl	-10.0883
▁humaines	-10.0883
▁mit	-10.0885
▁versions	-10.0886
▁déroule	-10.0887
▁pc	-10.0888
▁utilisation	-10.0897
35	-10.09
▁tôt	-10.09
▁établissements	-10.0905
▁for	-10.0906
tal	-10.0909
▁préfecture	-10.091
char	-10.0916
▁ve	-10.0919
isis	-10.092
▁parallèle	-10.0921
ley	-10.0922
▁espace	-10.0925
▁déclin	-10.0932
▁douze	-10.0933
jeu	-10.0934
▁floride	-10.0936
▁majeur	-10.0943
▁reconnu	-10.0944
objectif	-10.0944
▁citoyens	-10.0959
▁refus	-10.0967
kin	-10.0968
▁logo	-10.0968
▁personnalités	-10.097
ave	-10.0978
▁désert	-10.0979
▁sols	-10.0986
▁regard	-10.0986
▁interne	-10.0988
fort	-10.0988
▁plein	-10.0995
pan	-10.0999
▁portugal	-10.0999
▁licence	-10.0999
▁section	-10.1
▁traditions	-10.1001
▁fonds	-10.1002
▁mythe	-10.101
effet	-10.1015
▁0,	-10.1015
▁stade	-10.1015
dou	-10.1018
▁libération	-10.1027
amour	-10.1029
▁construire	-10.1032
▁efficace	-10.1032
▁nîmes	-10.1032
▁belge	-10.1045
ages	-10.1055
▁opérations	-10.1072
ateurs	-10.1078
guerre	-10.1083
dit	-10.1085
90	-10.1094
▁coût	-10.11
▁travaille	-10.11
▁norme	-10.1111
allemand	-10.1112
▁religieuses	-10.112
▁regroupe	-10.1121
▁monuments	-10.1122
▁chefs	-10.1125
▁divinité	-10.1132
▁décret	-10.1133
tsu	-10.1134
▁rive	-10.1138
▁ram	-10.1139
utiliser	-10.1141
cho	-10.1144
▁liaison	-10.1146
▁traduction	-10.1146
▁',	-10.1149
▁égyptiens	-10.1153
▁proportion	-10.1158
▁puisqu	-10.1163
we	-10.117
erie	-10.1174
▁allant	-10.118
exposition	-10.1181
▁impériale	-10.1181
▁ph	-10.1182
▁thèmes	-10.1184
nier	-10.1187
▁architecture	-10.1195
▁exemples	-10.1199
autriche	-10.12
▁semi	-10.12
bl	-10.1201
88	-10.1202
▁ici	-10.1211
▁rivière	-10.1215
isse	-10.1218
▁1972	-10.122
hor	-10.1223
▁riz	-10.1229
▁influencé	-10.1232
▁annoncé	-10.1233
▁réduit	-10.1233
nais	-10.1239
▁george	-10.1239
▁chili	-10.1244
▁vieux	-10.1248
▁catégories	-10.1248
▁directe	-10.1251
▁outils	-10.1253
▁complète	-10.1255
▁monarchie	-10.1267
▁métropole	-10.1267
▁génétique	-10.1267
▁termine	-10.1268
ord	-10.1274
▁équipes	-10.1279
▁associé	-10.1288
▁concurrence	-10.1301
▁photographie	-10.1301
▁école	-10.1306
▁connaître	-10.1311
ition	-10.1317
▁manifeste	-10.1322
▁nationales	-10.1325
vie	-10.1325
▁réponse	-10.1335
insee	-10.1337
▁chacune	-10.1348
▁nombres	-10.1355
▁joseph	-10.1359
▁bâtiments	-10.1364
76	-10.1367
▁parvient	-10.137
▁atteindre	-10.1376
▁montrent	-10.1386
▁considérable	-10.1394
▁comment	-10.1398
▁dinosaures	-10.1398
▁her	-10.141
▁nomme	-10.1414
▁lié	-10.1421
▁ordinateurs	-10.143
▁22	-10.1435
▁air	-10.144
▁définit	-10.1442
▁éditions	-10.1445
▁initialement	-10.1446
▁entraîne	-10.1451
▁député	-10.1453
▁montagnes	-10.1456
dans	-10.146
▁chose	-10.1463
66	-10.1464
▁%).	-10.1465
▁chirac	-10.1474
▁cro	-10.1475
▁évoque	-10.1483
▁suivants	-10.1487
▁particules	-10.1492
▁ouvert	-10.1493
anti	-10.1493
▁secondaire	-10.1502
▁disparition	-10.1508
▁kurosawa	-10.1508
▁reconnaissance	-10.1508
▁basée	-10.1508
▁mag	-10.151
naire	-10.1515
▁étudiants	-10.1517
dr	-10.1518
▁routes	-10.1519
▁euro	-10.1523
alpes	-10.1526
▁hitchcock	-10.153
21	-10.1538
▁chimie	-10.1544
▁biographie	-10.1544
▁centres	-10.1545
▁producteur	-10.155
▁départemental	-10.1551
▁majoritaire	-10.1555
▁cherche	-10.1557
▁boy	-10.1566
▁variété	-10.1568
▁deviennent	-10.1568
▁violence	-10.1568
▁débit	-10.158
▁définitivement	-10.1583
lieu	-10.1583
▁comprendre	-10.1587
▁constitutionnel	-10.1593
▁claude	-10.1594
▁morale	-10.1594
▁représentations	-10.1594
irlande	-10.1599
tr	-10.16
▁fn	-10.1602
▁répond	-10.1606
▁réduire	-10.1613
▁am	-10.1613
▁transition	-10.1616
▁indépendance	-10.1621
▁technologies	-10.1623
▁chercheurs	-10.1631
▁scénario	-10.164
▁menace	-10.1641
ight	-10.1642
thé	-10.1647
▁plateau	-10.165
ara	-10.1657
▁applications	-10.1658
▁james	-10.1658
▁composés	-10.1666
▁pur	-10.1667
éli	-10.167
▁acteurs	-10.1676
affaires	-10.1679
▁1985	-10.1684
▁héros	-10.1684
▁hausse	-10.1684
▁mêmes	-10.1688
ain	-10.1689
▁bouddhisme	-10.169
▁adopté	-10.17
by	-10.1702
af	-10.1703
▁radical	-10.1707
altitude	-10.1707
▁sélection	-10.1711
▁maladie	-10.1712
▁fondateur	-10.1713
▁dure	-10.1717
▁reprise	-10.1717
▁fabrication	-10.1719
▁progrès	-10.1719
▁gaulle	-10.1719
▁1975	-10.1719
▁espaces	-10.1721
pha	-10.1726
▁concentration	-10.1727
▁description	-10.1731
▁disparu	-10.1731
▁divisé	-10.1732
▁kh	-10.1732
▁imp	-10.1734
ries	-10.1737
▁ki	-10.1743
▁plats	-10.1746
▁méditerranée	-10.1748
99	-10.1751
▁%.	-10.1752
▁macarthur	-10.1754
▁windows	-10.1755
exécution	-10.1756
▁italienne	-10.1767
▁considérés	-10.177
iennes	-10.1771
▁décennies	-10.1775
tré	-10.1776
▁totalement	-10.1778
▁bel	-10.1781
▁coll	-10.1784
▁application	-10.1784
vel	-10.1784
▁importance	-10.179
▁game	-10.179
opinion	-10.179
▁nationaux	-10.1792
▁couche	-10.1795
pas	-10.1795
▁plantes	-10.1797
▁cercle	-10.1807
▁côtes	-10.1807
enfant	-10.1815
▁collège	-10.1823
comp	-10.1823
▁unité	-10.1825
▁distinction	-10.1828
pré	-10.184
▁poly	-10.1846
▁portée	-10.1847
▁gaulois	-10.1848
|*	-10.1856
▁moindre	-10.1863
▁papier	-10.1865
▁élevée	-10.1871
▁milliards	-10.1873
▁bloc	-10.1874
▁réussi	-10.1877
▁universelle	-10.1886
ico	-10.1886
▁lyon	-10.1886
aéroport	-10.1888
▁écrite	-10.189
échange	-10.1891
tou	-10.1896
▁répartition	-10.1898
▁édition	-10.1901
▁villages	-10.1902
ell	-10.1902
eff	-10.1904
new	-10.1909
▁ouvre	-10.191
yn	-10.191
▁action	-10.1914
85	-10.1922
essentiel	-10.1923
▁fruits	-10.1924
▁1979	-10.1934
horus	-10.1935
uff	-10.1938
cour	-10.1939
fer	-10.194
phe	-10.1944
▁1982	-10.1948
▁professionnels	-10.195
▁bretagne	-10.1958
▁album	-10.1961
▁nation	-10.1962
-18	-10.1965
▁accès	-10.1966
ob	-10.1968
▁vise	-10.1971
iel	-10.1983
▁majoritairement	-10.1983
▁servi	-10.1987
▁théories	-10.1989
▁objectif	-10.1991
▁célèbres	-10.1997
▁fédéral	-10.1998
...).	-10.2007
▁liées	-10.2008
▁cé	-10.2009
▁ouverte	-10.2021
▁sp	-10.2024
▁extension	-10.2028
atmosphère	-10.2037
vert	-10.2037
▁cannes	-10.2042
▁transmission	-10.2044
▁décidé	-10.2044
▁bosnie	-10.2044
▁can	-10.2048
▁porté	-10.2048
▁manifestations	-10.2049
▁prises	-10.2062
étant	-10.2066
▁riches	-10.2068
▁concepts	-10.2069
▁amis	-10.207
mann	-10.2072
▁concours	-10.2072
▁conserve	-10.2072
▁sacré	-10.2075
▁ed	-10.2076
▁poésie	-10.208
▁molière	-10.2081
▁armée	-10.2083
▁quitte	-10.2083
▁pyrénées	-10.2083
appel	-10.2092
bon	-10.21
64	-10.2101
▁étrangères	-10.2102
▁orbite	-10.2106
informatique	-10.2111
ker	-10.2112
▁périodes	-10.2113
▁ouvrière	-10.2117
▁record	-10.2121
▁plaine	-10.2123
chant	-10.2128
▁sénat	-10.2128
▁tournée	-10.2132
▁représentants	-10.2133
▁bras	-10.2134
▁féminin	-10.2137
nés	-10.2139
▁vite	-10.2143
▁conc	-10.2145
▁bernard	-10.2145
▁connues	-10.2151
agne	-10.2153
axe	-10.2156
▁soi	-10.2157
ada	-10.2158
▁chapelle	-10.2161
▁hé	-10.2165
▁espèce	-10.2167
▁révolte	-10.2169
▁enfant	-10.217
▁document	-10.217
▁jou	-10.2171
ric	-10.218
isés	-10.2183
atlantique	-10.2187
▁poursuit	-10.2188
isent	-10.2189
▁1968	-10.2192
▁guinée	-10.2192
▁bob	-10.2192
hy	-10.2193
▁travailler	-10.2197
▁wi	-10.2197
▁collection	-10.2198
ida	-10.2199
▁bâtiment	-10.2205
▁cu	-10.2206
▁courte	-10.2213
▁lancement	-10.2215
▁sc	-10.2228
▁représenter	-10.2228
▁danemark	-10.2229
rée	-10.2233
iné	-10.2243
▁développée	-10.2251
ura	-10.2253
▁conséquences	-10.2254
▁littoral	-10.2266
vent	-10.2269
▁atlantique	-10.2271
▁spatiale	-10.2273
▁studio	-10.2274
ku	-10.2274
▁belle	-10.2275
seine	-10.2276
az	-10.2278
▁em	-10.2281
▁conservé	-10.2284
ris	-10.2284
▁codes	-10.2285
pu	-10.2291
▁publiée	-10.2295
▁arabe	-10.2302
▁asie	-10.2308
▁capable	-10.2316
▁arrêté	-10.2317
van	-10.2318
▁eut	-10.2322
▁réel	-10.2324
rain	-10.2325
▁rock	-10.2329
▁0	-10.2329
▁io	-10.2334
▁fréquemment	-10.2342
▁remporté	-10.2342
▁signature	-10.2342
▁faisait	-10.2342
▁parents	-10.2344
▁19	-10.2345
▁pied	-10.2345
41	-10.2353
▁températures	-10.2353
▁précis	-10.2356
off	-10.236
▁champs	-10.2366
▁impact	-10.2366
ven	-10.2369
▁ministres	-10.237
ces	-10.2375
▁responsabilité	-10.2379
▁poète	-10.2382
▁caractérise	-10.2386
▁luxembourg	-10.2387
▁disponible	-10.239
▁brut	-10.2391
▁volume	-10.2391
▁guerres	-10.2397
▁intérieur	-10.2397
▁perte	-10.2398
orge	-10.2399
▁musulmans	-10.24
87	-10.24
occident	-10.2411
▁lorraine	-10.2416
▁intitulé	-10.2419
▁coopération	-10.242
▁bat	-10.2423
ast	-10.2431
pp	-10.2436
▁limité	-10.2437
▁échanges	-10.2438
▁pêche	-10.244
▁catholiques	-10.2445
tta	-10.2451
)"	-10.2455
interprétation	-10.2455
▁découvert	-10.2455
▁inf	-10.2457
▁tournage	-10.2458
indice	-10.2458
▁blanche	-10.246
▁recettes	-10.2461
▁sexe	-10.2463
▁sang	-10.2464
▁primaire	-10.2469
▁frères	-10.2471
zo	-10.2474
▁hor	-10.2474
36	-10.2475
▁henry	-10.2477
▁salles	-10.2478
oph	-10.2482
phy	-10.2483
▁récits	-10.2484
78	-10.2485
▁constante	-10.2487
▁universités	-10.2487
▁hauts	-10.2491
▁ordinateur	-10.2491
▁obligatoire	-10.2494
▁printemps	-10.2494
▁procès	-10.2494
▁1983	-10.2494
notamment	-10.2494
nisme	-10.2497
▁lu	-10.2505
▁donnée	-10.2508
▁linéaire	-10.2509
▁découvre	-10.2514
ures	-10.2514
▁sujets	-10.2515
sta	-10.2519
lot	-10.2523
▁auto	-10.2526
▁internationaux	-10.2532
▁mayenne	-10.2533
▁renaud	-10.2533
81	-10.2535
▁précision	-10.2536
▁particulière	-10.254
lier	-10.2547
▁baie	-10.2549
▁présentent	-10.2549
▁occasion	-10.2549
▁cesse	-10.2555
▁sœur	-10.2556
▁pic	-10.2558
so	-10.2558
▁nu	-10.2562
▁ren	-10.2563
ow	-10.2566
▁kilomètres	-10.2567
▁dirigeants	-10.257
▁référendum	-10.2571
▁démographie	-10.2571
▁processeur	-10.2571
▁psychologie	-10.2571
▁égyptien	-10.2576
▁établi	-10.2579
▁changements	-10.258
95	-10.2583
▁consacré	-10.2585
▁étrangère	-10.2587
▁parlementaire	-10.2591
▁canal	-10.2594
▁organisé	-10.2601
▁fixe	-10.2601
83	-10.2605
▁photo	-10.2609
▁froide	-10.2613
▁vert	-10.2616
▁vé	-10.2622
▁maisons	-10.2625
▁réformes	-10.2627
▁cérémonie	-10.2627
my	-10.263
▁divisée	-10.2634
▁classiques	-10.2635
▁articles	-10.2635
▁île	-10.2637
euro	-10.2642
ï	-10.2644
▁1973	-10.2649
▁inc	-10.2651
▁limousin	-10.2658
▁vive	-10.2659
▁accueilli	-10.2661
▁bout	-10.2662
▁espagnols	-10.2662
▁financière	-10.2667
▁soumis	-10.2671
▁différences	-10.2673
▁entreprise	-10.2677
▁vo	-10.2678
67	-10.2678
▁roche	-10.2681
din	-10.2682
▁bronze	-10.2688
▁tribunal	-10.2688
▁augmenté	-10.2688
▁travailleurs	-10.2689
▁vivre	-10.269
oy	-10.2691
▁débuts	-10.2691
anne	-10.2692
étaient	-10.2695
ita	-10.2696
ayant	-10.2696
▁libres	-10.27
illon	-10.2711
▁distinguer	-10.2712
▁yeux	-10.2718
▁chimique	-10.2719
▁mary	-10.272
▁100	-10.2721
▁restauration	-10.2727
▁hommage	-10.2727
▁gnu	-10.2731
▁ouest	-10.2733
nou	-10.2735
▁mains	-10.274
wi	-10.2741
assi	-10.2746
▁militants	-10.2748
▁envers	-10.2749
31	-10.2752
68	-10.2755
▁quotidien	-10.2757
ep	-10.2758
ral	-10.2764
ture	-10.2765
▁trône	-10.2766
79	-10.2771
▁universitaire	-10.2771
▁relative	-10.2776
▁écran	-10.2779
69	-10.278
roi	-10.2786
▁aide	-10.2788
▁médaille	-10.2788
▁déclaré	-10.2792
▁habitant	-10.2793
▁gens	-10.2796
▁four	-10.2796
▁ferme	-10.2797
▁tend	-10.2802
▁naît	-10.2802
▁café	-10.2805
abilité	-10.2805
▁doctrine	-10.2806
▁pauvreté	-10.2806
▁servir	-10.2809
grand	-10.2809
▁historiens	-10.2811
▁page	-10.2812
▁train	-10.2812
▁all	-10.2812
▁tr	-10.2817
▁tokyo	-10.2818
▁color	-10.2819
pos	-10.2823
▁basé	-10.2824
▁définir	-10.2828
▁donnent	-10.2832
bal	-10.2833
ama	-10.2842
▁association	-10.2844
▁colonisation	-10.2846
▁semaines	-10.2849
▁foi	-10.285
▁sauf	-10.2856
▁mono	-10.286
▁pla	-10.2862
rt	-10.2864
▁similaire	-10.2869
▁voisins	-10.2871
▁échange	-10.2873
▁catégorie	-10.2877
▁jusque	-10.2881
▁figures	-10.2881
ky	-10.2882
▁ap	-10.2884
▁chômage	-10.2885
▁promotion	-10.2885
▁finlande	-10.2885
▁succession	-10.2886
▁vérité	-10.2886
▁journée	-10.2889
▁musical	-10.2891
album	-10.2892
▁individus	-10.2893
▁viennent	-10.2895
œil	-10.2897
▁comédie	-10.2903
▁gouverneur	-10.2904
▁inférieur	-10.2904
▁philosophique	-10.291
▁graphique	-10.291
▁rêve	-10.2913
53	-10.2915
ami	-10.2916
ng	-10.2919
▁27	-10.2919
▁rapports	-10.2923
voient	-10.2924
▁découvertes	-10.2924
▁comparaison	-10.2925
▁giscard	-10.2925
▁richard	-10.2925
▁1984	-10.2926
▁envoyé	-10.2927
▁acc	-10.2932
▁rarement	-10.2937
parti	-10.2939
issue	-10.2941
▁iii	-10.2946
▁défend	-10.2947
▁écrire	-10.2958
▁céleste	-10.2966
▁1978	-10.2966
utilisateur	-10.2966
▁créateur	-10.297
opération	-10.2972
33	-10.2976
▁expérience	-10.2977
▁alpes	-10.2983
lus	-10.2987
▁royaumes	-10.2989
lis	-10.3
stra	-10.3001
lit	-10.3001
▁golfe	-10.3002
invasion	-10.3002
installe	-10.3003
cus	-10.3005
▁pérou	-10.3007
▁plans	-10.3007
▁émissions	-10.3009
bar	-10.3011
culture	-10.3012
président	-10.3014
▁précipitations	-10.302
▁comportement	-10.3022
tage	-10.3022
▁iso	-10.3023
▁cru	-10.3025
▁universel	-10.3027
▁montré	-10.3028
65	-10.303
▁dépasse	-10.3031
▁thé	-10.3034
▁gal	-10.304
▁red	-10.3042
▁luc	-10.3043
▁maritime	-10.3046
▁pollution	-10.3046
sson	-10.3049
trice	-10.3054
rd	-10.3055
ves	-10.3056
▁lunaire	-10.3056
▁américaines	-10.3057
▁ke	-10.3065
gar	-10.3072
▁90	-10.3073
▁tar	-10.3076
actuelle	-10.3076
▁échec	-10.3079
▁angleterre	-10.308
▁bénéficie	-10.3081
observation	-10.3085
jean	-10.3086
▁genève	-10.3087
▁italien	-10.3091
▁symboles	-10.3093
▁espagnol	-10.3094
▁apparition	-10.31
▁traite	-10.3102
▁heidegger	-10.3104
▁éviter	-10.3106
aff	-10.3107
tis	-10.311
fu	-10.311
▁traditionnel	-10.3115
installation	-10.3124
▁vienne	-10.3125
▁généraux	-10.3128
▁qatar	-10.313
ach	-10.313
euses	-10.3133
61	-10.3135
nc	-10.3137
uv	-10.314
▁26	-10.3142
▁cd	-10.3143
pin	-10.3145
▁scènes	-10.3147
ef	-10.3151
line	-10.3155
▁(20	-10.3156
37	-10.3163
▁gagne	-10.3164
▁réduction	-10.3169
▁utile	-10.3169
▁pcf	-10.3176
46	-10.318
ham	-10.3181
ice	-10.3182
argentine	-10.3184
ei	-10.3191
▁possèdent	-10.3197
▁chaînes	-10.3206
▁menée	-10.3208
▁1962	-10.321
▁1946	-10.321
▁suivie	-10.3211
identité	-10.3222
▁branche	-10.3225
▁relève	-10.3227
eaux	-10.3229
gène	-10.3229
▁stations	-10.323
tru	-10.3239
▁anglaise	-10.324
45	-10.3242
▁touche	-10.3249
▁ger	-10.3249
▁réalisée	-10.3251
alcool	-10.3251
escalade	-10.3251
▁protéger	-10.3251
▁préparation	-10.3252
▁1977	-10.3252
▁complexes	-10.3261
individu	-10.3264
▁nommée	-10.3268
oï	-10.3271
denis	-10.3275
▁hongrie	-10.3276
yo	-10.3283
▁pr	-10.3288
▁sanctuaire	-10.3293
▁modes	-10.3296
▁auraient	-10.3299
▁russes	-10.3302
échelle	-10.3304
▁verbe	-10.3305
hôtel	-10.3306
▁70	-10.3319
bus	-10.3328
▁solution	-10.333
▁attaque	-10.3333
89	-10.3336
▁blues	-10.3336
▁barre	-10.3339
viennent	-10.3344
▁28	-10.3345
▁manga	-10.3345
▁disques	-10.3346
ordinateur	-10.3348
bretagne	-10.3348
▁puissances	-10.3349
▁révèle	-10.3352
▁élection	-10.3361
▁vide	-10.3362
▁parlé	-10.337
▁fusion	-10.3372
▁semaine	-10.3373
▁administratif	-10.3376
▁bourgogne	-10.3377
▁augmente	-10.3383
attaque	-10.3389
▁reine	-10.339
era	-10.3392
▁culturelles	-10.3393
one	-10.3396
▁chansons	-10.34
ifier	-10.3402
▁max	-10.3405
louis	-10.3408
▁marc	-10.3412
84	-10.3413
▁souris	-10.3419
ria	-10.342
▁caféine	-10.342
▁souhaite	-10.3421
▁perse	-10.3422
luc	-10.3423
▁dirigée	-10.3424
tée	-10.3426
▁facilement	-10.3426
agence	-10.3427
▁professionnelle	-10.3431
▁urbain	-10.3431
intelligence	-10.3433
▁vrai	-10.3449
gan	-10.3459
▁suivent	-10.346
▁défunt	-10.3461
▁quinze	-10.3461
▁précisément	-10.3463
▁objectifs	-10.3465
▁réserves	-10.347
rec	-10.3475
▁électorale	-10.3476
▁privé	-10.348
▁prévu	-10.3482
▁provena	-10.3488
▁gr	-10.3491
▁régionaux	-10.3493
▁phil	-10.3493
▁fêtes	-10.3497
ado	-10.3499
▁rare	-10.3501
▁lynch	-10.3503
anthropologie	-10.3503
▁gamme	-10.3504
▁soutenu	-10.3505
lauréat	-10.3519
▁course	-10.3523
att	-10.3524
▁entière	-10.3535
72	-10.3541
▁pure	-10.3543
▁prison	-10.3543
inématographique	-10.3545
▁maximum	-10.3545
▁sentiment	-10.3545
▁raconte	-10.3546
▁prenant	-10.3546
▁favorable	-10.3546
▁disposition	-10.3547
▁int	-10.3547
▁touristique	-10.3548
ivoire	-10.3549
gén	-10.3551
mm	-10.3553
▁originale	-10.356
98	-10.3562
omb	-10.3569
▁métal	-10.3569
0,	-10.3582
▁recueil	-10.3586
▁maintenir	-10.3588
▁indépendant	-10.3592
atant	-10.36
▁paysans	-10.36
qua	-10.3602
hon	-10.3603
▁franco	-10.3605
tier	-10.3606
▁pri	-10.3606
▁inde	-10.361
indi	-10.3611
▁2020	-10.3613
▁sortir	-10.3618
cou	-10.362
▁littéraires	-10.362
58	-10.3621
▁grave	-10.3623
▁atomique	-10.3631
dor	-10.3631
▁auquel	-10.3631
▁glace	-10.3632
▁(17	-10.3632
▁facteurs	-10.3636
▁médecin	-10.3636
▁nécessaires	-10.3636
▁us	-10.3642
▁touristes	-10.3642
pol	-10.3648
▁sega	-10.3649
expansion	-10.365
intéresse	-10.3651
illa	-10.3653
▁mythes	-10.3662
indre	-10.3663
mas	-10.3663
▁froid	-10.367
cre	-10.3673
▁vigueur	-10.3674
émergence	-10.3675
▁conservation	-10.3675
▁électeurs	-10.3675
▁poisson	-10.3678
▁campagnes	-10.368
immigration	-10.3686
▁temples	-10.369
rom	-10.3698
▁sta	-10.3698
ate	-10.3699
ros	-10.3702
▁épreuves	-10.3709
▁coloniale	-10.3709
▁pilote	-10.3709
▁appartena	-10.3709
▁viol	-10.3712
▁représentée	-10.3714
▁calendrier	-10.3717
▁goût	-10.3718
▁risques	-10.3726
▁protocole	-10.3738
▁industriel	-10.374
ange	-10.374
table	-10.3741
▁chimiques	-10.3741
▁soutient	-10.3749
cas	-10.3749
▁signes	-10.3761
▁1944	-10.3761
▁1969	-10.3761
acier	-10.3775
▁ventes	-10.3777
▁territoriale	-10.378
alphabet	-10.3782
auvergne	-10.3782
▁han	-10.3788
▁soldats	-10.3798
▁pôle	-10.3799
forme	-10.3801
▁machines	-10.3801
▁grammaire	-10.3805
▁lendemain	-10.3805
▁résolution	-10.3805
▁gar	-10.3806
▁matériaux	-10.3806
▁occidentaux	-10.3806
92	-10.3809
▁revenu	-10.3816
▁venus	-10.3816
▁traditionnels	-10.3816
▁donnant	-10.3818
▁écriture	-10.3826
▁associations	-10.3832
habitat	-10.3842
▁tenue	-10.3844
▁1971	-10.3848
▁destruction	-10.3849
▁conçu	-10.3849
▁1976	-10.3849
▁contenant	-10.3849
▁bible	-10.3851
▁écrivains	-10.3851
▁utilisateurs	-10.3853
▁potentiel	-10.3856
acte	-10.3856
▁autonome	-10.3857
▁concert	-10.3858
isa	-10.3866
▁verne	-10.3867
établissement	-10.3868
▁repas	-10.3868
▁frais	-10.3877
cf	-10.3883
▁suivre	-10.3893
animation	-10.3893
▁jobs	-10.3893
▁suède	-10.3893
intégration	-10.3894
mal	-10.3896
▁faune	-10.3902
▁faite	-10.3903
▁spécifiques	-10.3909
ives	-10.3912
antes	-10.3915
émission	-10.3916
▁logements	-10.3927
▁cher	-10.3927
▁arabes	-10.3929
architecte	-10.3933
▁resté	-10.3936
▁cuivre	-10.3937
alimentation	-10.3939
▁fiction	-10.394
▁partisans	-10.3944
var	-10.3944
▁légende	-10.3948
▁puisse	-10.3949
▁pointe	-10.3951
inverse	-10.3961
▁traditionnelles	-10.3965
hal	-10.3972
investissement	-10.398
cent	-10.398
ça	-10.398
▁perspective	-10.3981
▁recours	-10.3983
▁épi	-10.3988
▁présentation	-10.3994
▁seigneur	-10.3994
▁faits	-10.3995
études	-10.3998
39	-10.4002
▁chant	-10.4005
ites	-10.4006
obtenir	-10.4006
las	-10.4009
▁normes	-10.4009
▁fossiles	-10.4012
▁trait	-10.402
▁vent	-10.4021
▁médiévale	-10.4025
▁reptiles	-10.4026
▁flux	-10.4026
▁1966	-10.4026
▁lupin	-10.4027
lou	-10.4029
▁indo	-10.403
▁plat	-10.4031
▁berlin	-10.4033
▁ski	-10.4037
autant	-10.4039
▁optique	-10.404
cons	-10.404
▁sociologie	-10.4042
ât	-10.4045
mie	-10.4046
▁mini	-10.4053
▁fé	-10.4053
mod	-10.4056
▁vivent	-10.4057
gl	-10.4064
73	-10.4066
▁partout	-10.4066
angle	-10.407
marin	-10.4071
impulsion	-10.4071
dre	-10.4072
▁accompagné	-10.4073
75	-10.4073
not	-10.4076
▁commencent	-10.4076
▁mus	-10.4078
aise	-10.4083
▁filles	-10.4083
▁actes	-10.4083
▁visible	-10.4086
hn	-10.4089
raient	-10.4092
▁bur	-10.4093
32	-10.41
▁verts	-10.4102
met	-10.4107
93	-10.4107
▁précédent	-10.4114
▁placé	-10.4114
lie	-10.4114
▁traces	-10.4116
▁façade	-10.4116
▁1965	-10.4116
▁bordeaux	-10.4116
▁devrait	-10.4117
instar	-10.412
▁idée	-10.412
▁tentative	-10.4132
▁communistes	-10.4134
▁indépendante	-10.4135
▁provoque	-10.4136
▁dirige	-10.4137
▁doté	-10.414
approche	-10.4141
▁inférieure	-10.4159
▁différent	-10.416
48	-10.416
▁rassemble	-10.416
▁espagne	-10.4162
ek	-10.4174
▁stable	-10.4174
▁intérieure	-10.4178
▁portent	-10.4186
▁intégré	-10.4191
▁poèmes	-10.4191
▁comte	-10.4198
42	-10.42
▁at	-10.4204
▁000	-10.4205
▁pourquoi	-10.4206
inspiration	-10.4208
▁tournant	-10.4212
▁anubis	-10.4215
▁bre	-10.4215
▁commandement	-10.4219
hō	-10.422
47	-10.4222
▁hall	-10.4225
▁richesse	-10.423
▁commande	-10.4232
film	-10.4235
acteur	-10.424
▁studios	-10.4243
▁accident	-10.4246
▁lire	-10.4247
-1	-10.4249
▁thomas	-10.4252
▁signification	-10.4252
▁prêt	-10.4253
quet	-10.4254
▁colonies	-10.4259
cel	-10.426
interaction	-10.4261
▁réelle	-10.4264
lia	-10.4266
▁za	-10.4271
▁décennie	-10.4272
▁sénégal	-10.4272
▁croyances	-10.4272
94	-10.4277
▁masculin	-10.4281
ouvrage	-10.4282
▁estimé	-10.4283
vol	-10.4285
▁affiche	-10.4285
▁cellules	-10.4286
mort	-10.4296
électricité	-10.4298
▁mammifères	-10.4298
▁étymologie	-10.4301
▁daniel	-10.4302
▁oiseaux	-10.4303
▁culturels	-10.4308
▁construite	-10.4313
▁choses	-10.4315
▁do	-10.4322
▁connaissances	-10.4323
▁simples	-10.4324
2"	-10.4325
pon	-10.4334
▁résidences	-10.4335
▁conséquent	-10.4344
▁pouvaient	-10.4344
▁autorité	-10.4346
▁juive	-10.435
ple	-10.4351
▁concentre	-10.4353
▁prêtres	-10.4355
▁chinoise	-10.4361
▁victimes	-10.4363
▁décor	-10.4367
▁situés	-10.4371
▁dizaines	-10.4374
▁climatique	-10.4376
instruction	-10.4378
▁divine	-10.4385
ray	-10.4386
aquitaine	-10.4387
aut	-10.4388
▁propriétaires	-10.4388
ther	-10.4389
▁quoi	-10.4389
▁défini	-10.4389
▁durkheim	-10.439
▁rep	-10.4393
espèce	-10.4404
▁privées	-10.4406
▁q	-10.4408
▁signifiant	-10.4409
▁retraite	-10.4409
▁juridique	-10.4414
▁langages	-10.4415
▁soul	-10.4415
▁participer	-10.4417
écran	-10.4422
▁divin	-10.4424
49	-10.4425
apple	-10.4433
log	-10.4435
▁confi	-10.4436
▁commerciaux	-10.4437
▁sucre	-10.4438
▁chanteur	-10.4438
▁venir	-10.4447
index	-10.4447
égalité	-10.4451
▁mises	-10.4453
dame	-10.4454
aille	-10.4458
▁exclu	-10.4467
introduction	-10.447
zu	-10.4473
▁traits	-10.4474
nk	-10.4482
▁organise	-10.4483
▁soutenir	-10.4484
▁séjour	-10.4503
▁contemporain	-10.4504
allier	-10.4509
▁mène	-10.451
▁secret	-10.4511
▁quel	-10.4512
▁échelle	-10.4518
▁manuel	-10.452
▁issue	-10.4521
communications	-10.4527
▁engagé	-10.4529
ost	-10.4533
▁financement	-10.4536
los	-10.4547
▁atomes	-10.4551
▁montée	-10.4556
tour	-10.4556
02	-10.4557
▁successeur	-10.4558
▁marcel	-10.456
bil	-10.4565
▁finit	-10.4569
esse	-10.4576
▁vainqueur	-10.4578
▁meilleurs	-10.4579
▁destination	-10.458
▁jury	-10.4581
▁biais	-10.4581
▁th	-10.4591
▁souligne	-10.4594
▁repris	-10.4599
installer	-10.46
▁varie	-10.46
▁parisien	-10.46
éni	-10.4606
▁germanique	-10.4607
▁réflexion	-10.4608
alisme	-10.4611
▁attribue	-10.4612
56	-10.4616
▁liquide	-10.462
▁remise	-10.4621
▁23	-10.4625
▁islamique	-10.4625
trait	-10.4626
▁hou	-10.4627
▁légèrement	-10.4633
▁dia	-10.4638
▁capital	-10.4647
▁développés	-10.4647
▁fortes	-10.4648
▁élèves	-10.4648
▁restant	-10.4649
mit	-10.465
hen	-10.4658
▁rites	-10.4664
alors	-10.4668
▁statistiques	-10.4672
▁coalition	-10.4673
▁infrastructures	-10.4675
▁brive	-10.4676
▁tourne	-10.4676
▁exclusivement	-10.4676
▁laisser	-10.4678
▁maternelle	-10.4684
nique	-10.4686
▁née	-10.4686
nière	-10.4686
▁contemporains	-10.4694
▁chaud	-10.4695
▁app	-10.4699
▁situées	-10.4701
▁accepte	-10.4701
ump	-10.4701
▁mené	-10.4702
▁compter	-10.4705
nor	-10.4707
hel	-10.4709
espéranto	-10.471
jacques	-10.4711
int	-10.4719
▁critères	-10.472
bou	-10.472
▁op	-10.472
▁méthane	-10.4721
▁clovis	-10.4721
▁serre	-10.4724
lay	-10.473
armes	-10.4732
▁mans	-10.4733
rg	-10.4736
équation	-10.4738
▁pin	-10.474
lam	-10.4745
▁mau	-10.4746
▁commerciale	-10.4749
▁courante	-10.4752
▁longues	-10.4756
▁pain	-10.476
▁organisée	-10.4762
▁vend	-10.4764
97	-10.4768
▁démarche	-10.4769
▁synthèse	-10.4769
▁listes	-10.477
èle	-10.4774
▁employé	-10.4776
▁deviendra	-10.4781
cré	-10.4781
▁ouvriers	-10.4782
▁chien	-10.4785
▁organismes	-10.4788
▁nécessite	-10.4792
affaire	-10.4801
▁penser	-10.4805
illi	-10.4809
ème	-10.4813
mine	-10.4814
▁basket	-10.4817
▁procédure	-10.4818
ski	-10.482
▁assemblée	-10.4822
▁physiques	-10.4825
▁guillaume	-10.4838
▁associés	-10.4841
▁blé	-10.4844
struct	-10.4849
sud	-10.4849
▁intérêt	-10.4856
▁31	-10.4856
96	-10.4858
▁classé	-10.486
aménagement	-10.4862
▁retrouver	-10.4863
▁norvège	-10.4866
▁profondément	-10.4866
explique	-10.4868
▁pauvres	-10.4871
cer	-10.4872
▁historiquement	-10.4873
▁automobile	-10.4875
agir	-10.4879
▁musicale	-10.4881
▁étudie	-10.4882
▁sait	-10.4884
ose	-10.4889
▁séries	-10.4893
ace	-10.4896
ogne	-10.4897
▁aspect	-10.49
ken	-10.4903
▁vallées	-10.4903
augmentation	-10.4908
▁tor	-10.4911
▁vichy	-10.4914
▁aller	-10.4925
uk	-10.4929
▁sony	-10.493
▁civil	-10.493
▁complètement	-10.4932
▁minutes	-10.4935
atrice	-10.4939
▁influences	-10.4939
▁lacs	-10.494
pen	-10.4943
▁union	-10.4944
▁danger	-10.4945
▁chrétien	-10.4948
▁assure	-10.4951
ève	-10.4953
▁remplace	-10.4956
▁appartient	-10.4963
▁significative	-10.4963
▁provient	-10.4963
▁dialogue	-10.4964
ev	-10.4974
tho	-10.4974
▁réunion	-10.4978
▁monte	-10.4979
▁enseignement	-10.4981
▁match	-10.4982
▁cr	-10.4982
▁décès	-10.4986
▁laissé	-10.499
▁lot	-10.4991
▁exécuté	-10.4992
▁réserve	-10.4995
▁destiné	-10.4997
ras	-10.5001
▁différente	-10.5003
▁preuve	-10.5004
▁contribue	-10.5005
▁proposition	-10.5006
ava	-10.5006
mètre	-10.5007
▁don	-10.501
▁bits	-10.501
oli	-10.5012
▁nécessité	-10.5013
▁prononce	-10.5013
▁pâte	-10.5013
▁1947	-10.5013
▁1987	-10.5013
▁mètres	-10.5013
▁entités	-10.502
rer	-10.502
▁mario	-10.5026
celle	-10.5032
▁future	-10.5033
▁christian	-10.5034
▁médailles	-10.5035
▁clubs	-10.5041
ram	-10.5054
▁manifestation	-10.5055
▁colonie	-10.5055
uri	-10.5057
membre	-10.5057
▁roosevelt	-10.5062
▁reggae	-10.5062
▁sncf	-10.5062
▁dominante	-10.5063
▁complet	-10.5063
ling	-10.5068
▁jardin	-10.507
án	-10.5078
▁christ	-10.5079
▁fan	-10.5084
▁thèse	-10.5089
ép	-10.509
atoire	-10.5097
nce	-10.5098
▁retrait	-10.5099
▁biologique	-10.5107
▁degré	-10.5107
»	-10.5108
▁indépendants	-10.511
▁dénomination	-10.5112
▁pluton	-10.5112
▁cheval	-10.5113
rus	-10.5118
▁annuel	-10.5122
ième	-10.5122
▁fréquence	-10.5125
▁développent	-10.5125
▁producteurs	-10.5128
▁label	-10.5128
▁fou	-10.5129
î	-10.5132
▁débute	-10.5134
▁processeurs	-10.5142
▁église	-10.5145
▁enregistré	-10.5145
▁exécutif	-10.515
sy	-10.5151
▁maîtrise	-10.5152
▁originaire	-10.5157
▁spectacle	-10.5157
▁procédé	-10.5159
▁beckett	-10.5162
▁confirme	-10.5162
▁1958	-10.5162
▁1941	-10.5162
▁roger	-10.5163
heure	-10.5164
ame	-10.5171
islande	-10.5177
tas	-10.518
plus	-10.5181
▁proto	-10.5184
▁modeste	-10.5191
▁pousse	-10.5196
▁enquête	-10.5197
py	-10.5198
▁syrie	-10.5205
▁déterminer	-10.5207
▁rio	-10.5208
▁protestante	-10.5211
▁[...]	-10.5212
▁millénaire	-10.5212
▁rupture	-10.5212
▁impossible	-10.5212
estaing	-10.5212
▁guide	-10.5217
▁macintosh	-10.5221
aine	-10.5223
▁péri	-10.5224
▁von	-10.5229
▁parallèlement	-10.5231
▁ham	-10.5239
cité	-10.5239
▁apporté	-10.524
▁tourné	-10.5241
▁liaisons	-10.5242
▁débats	-10.5243
▁mass	-10.5243
▁divise	-10.5248
▁peuplé	-10.5248
éré	-10.5253
▁rose	-10.5254
intervention	-10.5258
▁ét	-10.526
▁paysage	-10.526
pr	-10.526
▁variable	-10.526
▁victor	-10.5261
▁négatif	-10.5263
▁défaut	-10.5263
▁noblesse	-10.5265
nat	-10.5265
▁porter	-10.5272
sept	-10.5275
▁gre	-10.5276
▁tenant	-10.5278
tie	-10.5281
rier	-10.5284
▁géorgie	-10.5289
▁fri	-10.5289
▁disciplines	-10.5291
ller	-10.5292
▁musées	-10.5298
▁proportionnelle	-10.53
▁steve	-10.5302
nage	-10.531
▁productions	-10.5311
▁variantes	-10.5311
aspect	-10.5312
▁rayonnement	-10.5313
▁consacrée	-10.5317
▁journaliste	-10.5317
▁découvrir	-10.532
niste	-10.5322
▁accusé	-10.5327
▁subi	-10.5328
unesco	-10.5338
▁transit	-10.5343
▁ob	-10.5344
▁world	-10.5345
▁équivalent	-10.5353
▁cantons	-10.5353
▁subit	-10.5354
▁pleine	-10.5357
dan	-10.536
aventure	-10.5361
▁antiques	-10.5364
▁goscinny	-10.5364
▁suggère	-10.5364
▁routier	-10.5365
▁lecteur	-10.5365
ingénieur	-10.5366
▁vécu	-10.5367
▁exportations	-10.5367
▁resta	-10.5368
▁causa	-10.5371
▁aires	-10.5372
sti	-10.5375
▁quotidienne	-10.5376
▁assurer	-10.5378
marne	-10.5382
▁vieille	-10.5384
▁philosophes	-10.5385
actuel	-10.539
▁condamné	-10.5397
▁final	-10.5402
▁effectué	-10.5402
▁statue	-10.5407
app	-10.5411
▁paraît	-10.5412
▁popularité	-10.5416
oux	-10.5417
▁quelle	-10.5419
▁notation	-10.5419
▁bourse	-10.5419
▁équipements	-10.542
▁lignée	-10.542
▁clairement	-10.5427
▁tensions	-10.5428
gie	-10.5433
▁personnalité	-10.5438
fe	-10.5438
▁charente	-10.5443
▁parcours	-10.5443
court	-10.5445
▁1,	-10.5453
applique	-10.5462
▁constituant	-10.5465
38	-10.5466
▁combinaison	-10.5467
▁comprenant	-10.5467
▁we	-10.5467
▁annuelle	-10.5467
▁1967	-10.5468
apprentissage	-10.5469
▁chaleur	-10.547
▁extérieur	-10.5472
▁conseillers	-10.5473
▁métropolitaine	-10.5474
▁archéologiques	-10.5474
alger	-10.5481
▁troubles	-10.5481
▁rat	-10.5488
kan	-10.5489
▁reconnue	-10.5491
▁exprimés	-10.5491
▁féminine	-10.5491
enseignant	-10.5494
▁actuels	-10.5494
▁municipales	-10.5498
▁dos	-10.5498
▁investi	-10.5499
▁croissant	-10.55
lar	-10.5505
▁couvre	-10.5509
ini	-10.5517
▁libérale	-10.5519
▁corruption	-10.5519
▁michael	-10.5519
▁thaïlande	-10.5519
▁projection	-10.5519
▁salon	-10.552
▁commerciales	-10.552
▁satellite	-10.5523
interdiction	-10.5524
▁charte	-10.5528
55	-10.5529
venu	-10.5534
▁sonore	-10.5534
▁//	-10.5537
▁neige	-10.5537
▁pratiqué	-10.5539
▁nationalité	-10.5545
ks	-10.5552
▁faibles	-10.556
▁attribué	-10.5564
▁palme	-10.5565
sible	-10.5571
▁résulte	-10.5571
▁toulouse	-10.5571
automne	-10.5572
▁défi	-10.5573
▁patron	-10.5573
hypothèse	-10.5574
ouvre	-10.5575
▁impérial	-10.5577
▁cho	-10.5579
assurer	-10.558
▁issues	-10.558
américaine	-10.5584
▁urbaines	-10.56
mul	-10.5601
▁cad	-10.5604
▁semblent	-10.5606
▁ag	-10.5609
▁missions	-10.5621
▁considérer	-10.5623
▁réputation	-10.5623
▁valéry	-10.5623
▁shelley	-10.5624
▁1956	-10.5624
▁ottoman	-10.5624
▁implique	-10.5627
stein	-10.5629
oud	-10.5629
oppose	-10.563
▁manche	-10.5633
▁alternative	-10.5638
▁collectivités	-10.5648
▁conserver	-10.5652
▁apporte	-10.5653
09	-10.5664
▁maintien	-10.5666
▁qualifie	-10.5667
▁system	-10.5668
▁fleur	-10.5673
▁flore	-10.5673
▁légumes	-10.5676
▁progression	-10.5677
▁dialectes	-10.5678
impression	-10.5679
étudiant	-10.568
adhésion	-10.568
▁assiste	-10.5681
▁répondre	-10.5682
▁che	-10.5683
▁nettement	-10.5684
▁locuteurs	-10.5688
▁byzantin	-10.5696
▁puissante	-10.5706
▁pages	-10.5709
▁35	-10.5715
▁possibles	-10.5718
▁écrivain	-10.5718
gr	-10.5722
offre	-10.5723
temps	-10.5728
▁transfert	-10.5729
▁paru	-10.5729
▁inventé	-10.5729
▁privés	-10.573
▁veille	-10.5731
▁64	-10.5731
artiste	-10.5733
impact	-10.5734
dessous	-10.5736
▁résidence	-10.5739
▁sel	-10.574
▁fmi	-10.5741
▁polonais	-10.5744
appui	-10.5744
▁répartis	-10.5744
▁far	-10.5749
▁accords	-10.5751
▁limitée	-10.5751
▁gui	-10.5757
▁pl	-10.5759
▁voiture	-10.5761
▁tire	-10.5768
nos	-10.5772
▁détruit	-10.5772
▁duc	-10.5775
▁désigné	-10.5775
▁médicale	-10.5777
▁appelées	-10.578
évaluation	-10.5782
▁dispositif	-10.5782
▁univers	-10.5783
▁josé	-10.5783
▁rappelle	-10.5787
▁moteurs	-10.5788
▁expression	-10.579
▁difficulté	-10.5794
▁écologique	-10.5794
▁apparaître	-10.5797
▁appareils	-10.5798
emp	-10.58
▁compréhension	-10.5803
▁choisit	-10.5803
▁rép	-10.5805
▁intérêts	-10.5806
▁rhin	-10.5811
▁croix	-10.5815
▁léon	-10.5821
▁inclua	-10.5824
ich	-10.5824
lés	-10.5824
▁copie	-10.5825
▁(15	-10.5831
abbaye	-10.5832
▁considéra	-10.5832
astronomie	-10.5833
efficacité	-10.5836
orléans	-10.5836
▁biodiversité	-10.5836
▁diplôme	-10.5836
▁découpage	-10.5836
▁grève	-10.5836
▁tenir	-10.5837
▁familiale	-10.5841
▁75	-10.5844
die	-10.5845
▁correspondance	-10.5849
▁sortant	-10.5856
▁rassemblement	-10.5863
▁emploie	-10.5873
▁industries	-10.5883
▁industriels	-10.5884
▁installé	-10.5886
▁avance	-10.5889
▁contribué	-10.5889
▁fe	-10.5889
▁concile	-10.589
▁schéma	-10.5891
▁pourraient	-10.5892
cap	-10.5894
▁musulmane	-10.5894
cra	-10.5897
adoption	-10.5899
▁soir	-10.5901
▁fédérale	-10.5903
▁employés	-10.5905
▁genres	-10.5907
▁chargée	-10.591
▁mol	-10.592
▁conte	-10.5922
▁emplois	-10.5922
▁carré	-10.5925
bour	-10.5927
▁gouvernements	-10.5928
▁identité	-10.5929
▁corde	-10.5929
▁seules	-10.5932
mère	-10.5932
▁bourg	-10.5933
uses	-10.5937
▁records	-10.5938
▁intègre	-10.5939
▁participent	-10.594
mond	-10.5942
aki	-10.5942
hôpital	-10.5943
▁bulgarie	-10.5943
▁rédaction	-10.5943
▁galerie	-10.5944
sac	-10.5944
▁1963	-10.5945
▁attendre	-10.5946
▁occidental	-10.5947
alchimie	-10.5954
▁occupé	-10.5956
▁cultes	-10.596
gra	-10.5963
▁pal	-10.5973
▁maine	-10.5975
▁faute	-10.5976
▁colons	-10.5977
▁bol	-10.5979
▁effectue	-10.598
▁intel	-10.598
▁majeurs	-10.5984
▁âgé	-10.5988
▁reconnaît	-10.5994
▁médecins	-10.5995
07	-10.5996
teurs	-10.5997
▁polémique	-10.5998
▁québec	-10.5998
▁maréchal	-10.5998
▁trésor	-10.5998
▁géométrie	-10.5998
écrire	-10.5999
nis	-10.6
uz	-10.6001
▁beaux	-10.6012
▁dépenses	-10.6012
▁hiver	-10.6012
▁bandes	-10.6019
aude	-10.602
▁45	-10.6021
▁remarque	-10.6023
▁rues	-10.6024
▁hongrois	-10.6031
▁expliquer	-10.6031
▁parole	-10.6034
▁traités	-10.6035
▁intégrée	-10.6038
▁renommée	-10.6041
▁antoine	-10.6043
▁méditerranéen	-10.6051
▁mc	-10.6052
zélande	-10.6052
▁magnétique	-10.6052
▁banlieue	-10.6052
▁madrid	-10.6053
form	-10.6053
▁séparation	-10.6053
▁1939	-10.6053
▁compétences	-10.6054
▁collective	-10.6055
▁immédiatement	-10.6058
▁attaques	-10.6062
échec	-10.6064
▁documentaire	-10.6065
▁rh	-10.6066
▁ajoute	-10.6068
iale	-10.607
▁mention	-10.607
▁relie	-10.607
▁dizaine	-10.6071
▁championnat	-10.6072
paul	-10.6077
▁fini	-10.6079
dés	-10.6079
eg	-10.6083
▁venant	-10.6084
appuie	-10.6091
▁variations	-10.6099
▁remplacer	-10.6101
▁sportifs	-10.6103
▁monétaire	-10.6107
▁archives	-10.6107
▁journaux	-10.6107
▁1948	-10.6108
▁drapeau	-10.611
▁abandonné	-10.611
arn	-10.6113
▁théorique	-10.6115
▁décrire	-10.612
assa	-10.6126
▁funéraire	-10.6128
▁minorité	-10.6128
▁dj	-10.613
vu	-10.6132
▁paysages	-10.6133
▁fur	-10.6133
▁lancer	-10.6137
rand	-10.6137
▁alliance	-10.6138
▁absolue	-10.6139
▁ordres	-10.614
équipement	-10.614
plan	-10.614
▁primaires	-10.6144
ern	-10.615
arrêt	-10.6151
élite	-10.6157
▁puissant	-10.6158
innovation	-10.6159
’"	-10.6161
droit	-10.6162
▁réduite	-10.6163
▁cinquante	-10.6163
▁circulation	-10.6163
suffisamment	-10.6163
essor	-10.6166
▁télévisée	-10.6167
essonne	-10.6167
sky	-10.6169
▁cible	-10.6169
▁parcs	-10.6178
nord	-10.6179
▁peuplée	-10.6179
▁aura	-10.6182
▁actifs	-10.6183
▁tribus	-10.6184
▁remarquable	-10.6185
▁seuil	-10.6191
▁sto	-10.6191
fin	-10.6201
▁ports	-10.6202
▁exp	-10.6214
▁cimetière	-10.6218
▁passée	-10.622
▁inuit	-10.622
▁occupée	-10.6222
ile	-10.6226
étique	-10.6227
▁city	-10.6231
▁italiens	-10.6237
▁meurtre	-10.6238
▁conclu	-10.6243
03	-10.6245
▁spécial	-10.6247
▁global	-10.6249
huit	-10.6249
ède	-10.6251
affect	-10.6254
tifs	-10.626
▁terrestres	-10.6264
épi	-10.6269
▁étendue	-10.6271
▁esthétique	-10.6272
▁mauvais	-10.6273
▁répression	-10.6274
▁couramment	-10.6274
▁nourriture	-10.6274
▁soudan	-10.6275
▁variables	-10.6277
▁hy	-10.6281
▁destinés	-10.6286
▁my	-10.6288
▁constate	-10.6288
rhône	-10.6289
▁industrie	-10.6289
▁linux	-10.6291
▁fournir	-10.6294
▁mexicaine	-10.6295
▁méta	-10.6295
▁2,	-10.6298
▁vaut	-10.6302
lique	-10.6306
▁combats	-10.6315
▁responsables	-10.6324
▁créés	-10.6324
▁traverse	-10.6325
▁rejet	-10.6327
uel	-10.6328
lf	-10.6329
▁poussée	-10.633
▁contribution	-10.633
▁1959	-10.6331
▁expressions	-10.6331
▁entrée	-10.6331
igny	-10.6334
▁servent	-10.6335
rate	-10.6339
rap	-10.634
▁matières	-10.634
▁verte	-10.6343
▁proprement	-10.6343
▁souci	-10.6344
algérie	-10.6345
considérablement	-10.6347
garonne	-10.6347
▁(2	-10.6349
01	-10.6356
▁gen	-10.6357
▁suffrage	-10.6357
▁étudié	-10.636
▁mas	-10.6367
▁coréen	-10.6367
isère	-10.6369
▁distribué	-10.637
gna	-10.6376
▁ban	-10.6378
▁animal	-10.6379
▁barrage	-10.6388
▁géant	-10.6389
rich	-10.639
▁leader	-10.6391
▁gau	-10.6393
▁navires	-10.6399
amsterdam	-10.6404
▁limiter	-10.6406
▁vertu	-10.6407
▁inscrit	-10.6417
52	-10.6418
▁couvert	-10.6419
▁personnelle	-10.6424
▁mentionne	-10.6427
▁établit	-10.6429
▁aff	-10.6434
▁municipal	-10.6434
avenir	-10.6434
▁associée	-10.6435
▁napoléon	-10.6444
▁souveraineté	-10.6444
▁1955	-10.6444
51	-10.6445
▁partagé	-10.6446
▁efforts	-10.6447
gg	-10.6447
1,	-10.6448
▁empereur	-10.6451
▁partiellement	-10.6451
▁illustre	-10.6453
▁marquant	-10.6456
▁égypte	-10.6458
▁pot	-10.6461
▁plate	-10.6463
bin	-10.6463
▁alimentaire	-10.6464
▁observe	-10.6467
▁figurent	-10.647
▁étape	-10.6476
groupe	-10.6492
▁appliquée	-10.6496
gues	-10.6499
▁prononciation	-10.6501
▁rejoindre	-10.6501
▁réception	-10.6501
▁régi	-10.6501
▁navigation	-10.6501
▁1964	-10.6501
▁pépin	-10.6501
▁visiteurs	-10.6502
ime	-10.6502
▁fournit	-10.6505
91	-10.6505
▁instruments	-10.6509
▁formations	-10.6511
▁finnois	-10.6518
initiative	-10.6519
▁retourne	-10.6524
▁adapté	-10.6527
▁énergie	-10.6532
▁croyance	-10.6533
▁tur	-10.6533
▁noirs	-10.6542
▁gard	-10.6547
▁domine	-10.6554
▁transforme	-10.6554
▁compatible	-10.6558
▁greenpeace	-10.6558
▁inclut	-10.6558
▁cabinet	-10.6558
▁suscite	-10.6558
▁1949	-10.6559
▁assassiné	-10.6559
06	-10.656
▁battu	-10.6562
lat	-10.6565
issement	-10.6569
élément	-10.6569
abri	-10.6571
▁dénonce	-10.6572
ans	-10.6577
indonésie	-10.6577
▁star	-10.6578
▁skinheads	-10.6581
▁ir	-10.6582
▁rivières	-10.659
▁victime	-10.6592
gy	-10.6592
▁acquis	-10.6593
lette	-10.66
▁professionnel	-10.6604
▁massive	-10.6609
▁contraint	-10.6609
▁particularité	-10.6616
▁positif	-10.6616
▁révélé	-10.6616
▁évolué	-10.6616
▁mauvaise	-10.6617
▁éco	-10.6617
▁présentes	-10.6617
▁métro	-10.6618
▁descendants	-10.6622
▁cat	-10.6624
▁couches	-10.6626
▁étage	-10.663
05	-10.6631
▁consacre	-10.6634
▁systématique	-10.6635
espagnol	-10.6636
divinité	-10.6636
yer	-10.6638
▁existant	-10.664
mis	-10.664
▁expériences	-10.6643
▁consoles	-10.665
tori	-10.6651
▁amsterdam	-10.6657
▁sphère	-10.6658
▁installés	-10.6661
7"	-10.6672
▁constituer	-10.6672
▁clergé	-10.6674
▁guatemala	-10.6674
▁légion	-10.6674
▁téléphone	-10.6674
▁retard	-10.6674
▁maroc	-10.6678
▁formant	-10.6681
▁compositeur	-10.6684
▁réussit	-10.6684
ua	-10.669
▁tournoi	-10.6693
fé	-10.6695
▁onze	-10.6697
pre	-10.6698
▁malade	-10.67
élé	-10.6701
▁jugement	-10.6707
▁intellectuelle	-10.6707
dom	-10.6719
▁adoptée	-10.6721
▁jaune	-10.6723
▁claire	-10.6725
▁tre	-10.6731
▁soviétiques	-10.6733
▁hugo	-10.6737
▁vocabulaire	-10.6742
▁module	-10.6743
▁montant	-10.6755
▁règlement	-10.6757
▁mines	-10.6762
▁musiciens	-10.6765
▁interprétation	-10.6767
ivité	-10.6772
▁performances	-10.6778
▁voter	-10.6778
▁essor	-10.6778
▁converti	-10.6782
kar	-10.6782
▁bru	-10.6785
del	-10.6788
apport	-10.6789
▁navigateur	-10.6792
▁protestants	-10.6793
▁vous	-10.6796
2,	-10.6803
▁altitude	-10.6811
chu	-10.6812
asse	-10.6815
▁similaires	-10.6815
aujourd	-10.6816
embl	-10.682
écart	-10.682
nay	-10.6824
▁administratives	-10.6831
▁humide	-10.6832
ax	-10.6835
âme	-10.6839
▁indigènes	-10.6848
▁ku	-10.6849
▁idéal	-10.685
▁autrefois	-10.6851
▁connaissent	-10.6851
▁polanski	-10.6851
▁psychanalyse	-10.6851
▁collectif	-10.6851
▁adaptation	-10.6852
▁reg	-10.6857
▁cop	-10.6862
▁aérien	-10.6863
▁(1	-10.6863
▁arrivée	-10.6864
▁chapitre	-10.6866
▁publicité	-10.6875
▁intention	-10.6877
44	-10.6877
way	-10.6878
▁construits	-10.6878
▁portes	-10.6883
▁laboratoire	-10.6893
▁précédente	-10.6893
▁totalité	-10.6897
▁impose	-10.6898
▁gouvernementale	-10.6904
▁francophones	-10.6906
imi	-10.6907
▁culminant	-10.691
▁phonétique	-10.691
▁raymond	-10.6911
▁drogue	-10.6911
ust	-10.6912
▁actif	-10.6912
américain	-10.6912
▁jugé	-10.6913
soit	-10.6919
▁compétitions	-10.6921
▁bâti	-10.6929
appareil	-10.6936
▁financières	-10.6942
▁événement	-10.6943
▁(3	-10.6944
04	-10.6945
▁wall	-10.6946
▁officiels	-10.6949
cur	-10.6959
archi	-10.6968
extrémité	-10.697
▁énergétique	-10.697
outre	-10.6972
▁devaient	-10.6972
▁élevés	-10.6972
▁rapporte	-10.6972
▁aliments	-10.6973
▁africains	-10.6975
▁mangas	-10.6975
▁essentiel	-10.6979
▁quitter	-10.6983
icité	-10.6983
▁dédié	-10.6985
▁trou	-10.6989
▁pluriel	-10.699
▁diffusé	-10.6993
▁clair	-10.6995
extérieur	-10.6995
extension	-10.6996
adresse	-10.6999
comté	-10.7003
▁tentatives	-10.7009
▁crimes	-10.701
pul	-10.7012
▁composants	-10.7013
▁tension	-10.7016
▁artaud	-10.7022
▁puce	-10.7028
▁créteil	-10.703
▁playstation	-10.703
▁brevet	-10.703
▁1951	-10.7031
▁confusion	-10.7031
atome	-10.7031
▁stabilité	-10.7031
▁dominique	-10.7032
▁dérive	-10.7032
▁bilan	-10.7033
implantation	-10.7033
▁relatif	-10.7034
▁maladies	-10.7041
▁conseils	-10.7042
arts	-10.7045
▁atteign	-10.7047
impose	-10.7047
▁envoie	-10.7048
▁souverains	-10.705
logie	-10.7059
▁blancs	-10.7067
▁ancêtres	-10.7067
▁normandie	-10.7071
▁choisir	-10.7071
▁conduite	-10.7074
▁étudiant	-10.7074
▁organisées	-10.7079
▁serveur	-10.708
▁var	-10.7083
▁plaines	-10.7085
édifice	-10.7087
▁éducation	-10.7088
▁exception	-10.709
▁cadmium	-10.7091
▁supprimé	-10.7091
▁faucon	-10.7091
▁flèche	-10.7091
▁sixième	-10.7092
▁serv	-10.7095
▁réalisés	-10.7095
▁chance	-10.7095
▁portrait	-10.7097
▁défendre	-10.7097
▁continentale	-10.7098
▁réunit	-10.7101
isées	-10.7103
▁pol	-10.7104
grad	-10.7104
▁saturne	-10.7105
▁rester	-10.711
▁apparu	-10.7111
ft	-10.7112
▁versant	-10.7115
alisation	-10.7116
▁sec	-10.7121
zy	-10.7122
▁fra	-10.713
▁permanente	-10.7136
sous	-10.7136
▁retrouvent	-10.7137
▁probable	-10.7139
▁définie	-10.714
▁cinéaste	-10.7141
▁clan	-10.7142
▁notable	-10.7144
▁céréales	-10.7152
▁déclenche	-10.7152
▁évidence	-10.7152
▁sarthe	-10.7152
élaboration	-10.7153
▁pra	-10.7154
▁séville	-10.7154
▁grotte	-10.7155
▁adaptée	-10.7156
▁rpr	-10.7156
dj	-10.7159
▁profondeur	-10.7162
▁dense	-10.7162
▁cam	-10.7162
▁intermédiaire	-10.7164
▁recul	-10.7167
san	-10.7169
▁verre	-10.7172
▁décisions	-10.7174
appellation	-10.7179
▁villa	-10.7181
▁mel	-10.7183
tisme	-10.7186
▁francis	-10.7186
via	-10.7188
▁not	-10.7188
▁fla	-10.7189
occupe	-10.7197
▁dites	-10.7198
▁forcé	-10.7202
▁circuit	-10.7204
▁syndicats	-10.7204
▁républicain	-10.7208
▁capacités	-10.7212
▁cameroun	-10.7213
▁résoudre	-10.7213
▁jacob	-10.7213
éponyme	-10.7213
▁condamnation	-10.7213
▁dominé	-10.7214
▁filiale	-10.7214
▁douce	-10.7215
arsène	-10.7215
▁cré	-10.7217
thy	-10.7218
humour	-10.7219
▁serment	-10.7219
▁châteaux	-10.7227
ajout	-10.7235
▁adopte	-10.7235
▁allié	-10.7236
▁préfet	-10.7237
▁suppose	-10.7237
▁(16	-10.7238
▁présentée	-10.7239
▁hal	-10.7244
▁émis	-10.7244
▁civilisations	-10.7245
▁répandue	-10.7247
gui	-10.7249
▁2010.	-10.725
▁auguste	-10.7257
▁29	-10.726
rio	-10.7266
ote	-10.7269
▁vir	-10.727
▁emploi	-10.7273
hou	-10.7273
▁chambéry	-10.7275
▁connexion	-10.7275
▁recevoir	-10.7275
rage	-10.7275
▁océanique	-10.7275
▁ballon	-10.7277
▁dimensions	-10.7284
▁réservé	-10.7286
▁sahara	-10.7287
▁civils	-10.7288
▁caractérisé	-10.729
▁python	-10.7293
▁rendent	-10.7293
▁bay	-10.7302
▁kanjis	-10.731
▁indien	-10.7311
▁médi	-10.7314
▁attire	-10.7315
oct	-10.7316
▁rapproche	-10.7324
▁mad	-10.7333
▁facteur	-10.7333
▁dégradation	-10.7337
▁sémantique	-10.7337
igné	-10.7339
▁conseiller	-10.7339
ers	-10.7347
pal	-10.7349
ata	-10.7351
row	-10.7351
▁venue	-10.7351
▁individu	-10.7352
▁récente	-10.7361
▁1900	-10.7361
▁solide	-10.7362
3"	-10.7367
bois	-10.7368
arrondissement	-10.737
▁tendances	-10.7372
ifie	-10.7375
▁opération	-10.7376
euil	-10.7377
aube	-10.7379
▁sensible	-10.7382
▁axe	-10.7388
▁internes	-10.739
▁phases	-10.7392
▁consommé	-10.7394
▁serpent	-10.7395
uma	-10.7396
ash	-10.7397
▁instrument	-10.7399
▁ya	-10.7399
▁prévoit	-10.74
▁psychologique	-10.74
▁plaque	-10.74
▁actuelles	-10.7403
▁arc	-10.7404
▁1990.	-10.7405
▁plateaux	-10.7408
yama	-10.7409
▁propositions	-10.7411
▁salariés	-10.7412
▁résident	-10.7419
ades	-10.7419
ann	-10.742
▁spécialistes	-10.742
for	-10.7421
▁matin	-10.7421
cd	-10.7422
▁continuent	-10.7425
▁profite	-10.7429
burg	-10.7429
▁saut	-10.743
▁vestiges	-10.7435
office	-10.7435
▁organisés	-10.7435
▁expansion	-10.7435
installent	-10.7437
▁rempli	-10.7438
▁68	-10.744
▁formée	-10.7441
▁positions	-10.7447
bit	-10.7447
▁marchands	-10.7449
▁favorise	-10.7449
roy	-10.7454
▁parisienne	-10.7455
▁bill	-10.7457
autoroute	-10.7461
▁modifier	-10.7461
▁nommés	-10.7462
▁jupiter	-10.7462
▁kubrick	-10.7462
▁nephtys	-10.7462
▁invité	-10.7462
▁moyennes	-10.7464
▁festivals	-10.7464
▁télécom	-10.7465
▁expédition	-10.7466
▁originaires	-10.7469
▁demandé	-10.747
▁alfred	-10.7471
▁geste	-10.7471
▁dépendant	-10.7471
▁bruit	-10.7474
▁indienne	-10.7482
4"	-10.7485
risme	-10.7485
vari	-10.7487
▁bl	-10.7489
▁washington	-10.749
▁mil	-10.7494
▁africain	-10.7496
intermédiaire	-10.7498
▁fichiers	-10.7499
▁occident	-10.7507
▁ska	-10.7513
▁muni	-10.7514
▁numériques	-10.7515
▁scolaire	-10.7524
▁syntaxe	-10.7526
▁32	-10.7526
tom	-10.7526
▁montrer	-10.7527
▁charbon	-10.7527
▁sexuelle	-10.7529
▁apprécié	-10.7531
▁intervention	-10.7532
ération	-10.7537
▁aérienne	-10.7537
▁étoiles	-10.7538
usine	-10.7546
▁philosophiques	-10.7549
▁sy	-10.7551
▁sombre	-10.7552
▁initiale	-10.7556
mou	-10.7564
père	-10.7564
▁présentant	-10.7568
œ	-10.757
▁supplémentaires	-10.7576
▁répandu	-10.7577
▁augmenter	-10.758
▁molécules	-10.758
▁auxquel	-10.7585
fo	-10.7586
▁câble	-10.7589
▁produisent	-10.7589
▁récompense	-10.7589
▁finlandais	-10.7589
espèces	-10.759
▁clinique	-10.759
▁géologique	-10.759
▁tropical	-10.759
▁caméra	-10.759
▁shi	-10.759
actif	-10.7592
▁triomphe	-10.7595
▁solutions	-10.7597
▁exprime	-10.7599
▁grain	-10.7603
▁porc	-10.7607
gro	-10.761
▁disposent	-10.7611
▁test	-10.7617
▁évolue	-10.7617
▁(')	-10.7621
évêque	-10.7627
ator	-10.7628
françois	-10.7628
▁chronique	-10.7629
ung	-10.7635
▁iv	-10.7641
▁spatial	-10.7642
▁trace	-10.7643
▁peint	-10.7649
iff	-10.7651
▁dits	-10.7653
▁philip	-10.7653
74	-10.7653
▁catastrophe	-10.7654
▁législatif	-10.7654
▁1942	-10.7654
▁entraîné	-10.7654
assassinat	-10.7655
▁esclaves	-10.7656
▁biologie	-10.7657
▁habituellement	-10.7658
▁bos	-10.7661
▁dirigeant	-10.7664
▁paléolithique	-10.7664
édi	-10.7666
▁globalement	-10.7666
▁rédigé	-10.7666
▁installée	-10.7672
▁fondamentale	-10.7674
bien	-10.7682
▁duché	-10.7687
▁prévue	-10.7688
accent	-10.7688
▁égale	-10.7689
adaptation	-10.7693
importe	-10.7693
▁500	-10.7698
▁notions	-10.77
andré	-10.77
importantes	-10.7701
lio	-10.7702
▁proposent	-10.7708
▁occupent	-10.7708
▁épisodes	-10.7711
▁poissons	-10.7712
▁fréquente	-10.7717
exploration	-10.7718
▁faculté	-10.7718
▁perception	-10.7718
▁duquel	-10.7719
▁circ	-10.7719
▁anglo	-10.772
▁propriétaire	-10.7721
▁passion	-10.7722
▁démocrate	-10.7724
mb	-10.7727
ii	-10.7728
▁midi	-10.7729
lac	-10.7731
▁correspondent	-10.7738
ibilité	-10.7741
▁pou	-10.7757
▁industrielles	-10.7758
maritime	-10.776
▁anne	-10.7763
▁enseigne	-10.7777
▁tha	-10.7782
attraction	-10.7783
▁promouvoir	-10.7783
hercule	-10.7783
▁1936	-10.7784
aviation	-10.7788
▁aventures	-10.7788
▁mobile	-10.7788
▁financier	-10.7788
▁francophone	-10.7788
▁mètre	-10.7789
▁concernent	-10.779
▁nourri	-10.7793
▁pes	-10.7794
mag	-10.7794
▁branches	-10.7796
tha	-10.78
▁classés	-10.7801
▁visage	-10.7802
▁acte	-10.7805
engage	-10.7806
▁autrement	-10.7808
▁psycho	-10.7824
▁témoigne	-10.7824
invention	-10.7825
ît	-10.7826
▁sus	-10.7829
08	-10.7831
▁générations	-10.784
▁attesté	-10.7841
▁fonctionnalités	-10.7842
▁territoriales	-10.7844
▁téléphonique	-10.7848
▁produisa	-10.7849
▁comparable	-10.7849
▁reconstruction	-10.7849
hydrogène	-10.785
▁estimée	-10.7851
établir	-10.7856
win	-10.7856
aile	-10.7858
▁pyramides	-10.7859
ault	-10.7861
▁frappe	-10.7861
▁gagner	-10.7864
▁sèche	-10.787
▁suicide	-10.787
▁cri	-10.7873
tat	-10.7874
▁pratiquement	-10.7875
▁lait	-10.7875
▁faux	-10.7876
▁changer	-10.7879
▁sable	-10.7881
▁appellation	-10.7885
▁couverture	-10.7887
▁électoral	-10.7889
inscrit	-10.7892
▁engagement	-10.7894
▁spécialisés	-10.7895
▁étendu	-10.7898
▁normale	-10.7905
orne	-10.7906
▁pierres	-10.7906
rid	-10.7909
▁jan	-10.7909
ologue	-10.7911
▁réclame	-10.7914
▁turquie	-10.7914
amitié	-10.7915
▁hugues	-10.7915
▁vigne	-10.7917
▁rural	-10.7917
▁dessert	-10.7927
▁is	-10.7927
▁agriculture	-10.7933
▁tué	-10.7933
anc	-10.7937
ciel	-10.7938
▁chat	-10.7941
dragon	-10.7946
▁bibliothèques	-10.795
▁languedoc	-10.7951
▁hel	-10.7951
sme	-10.7952
▁dotée	-10.7954
pays	-10.7962
▁méridionale	-10.7963
▁lancée	-10.7964
égard	-10.7965
▁admis	-10.7967
▁facile	-10.7968
▁laurent	-10.7969
▁souhait	-10.797
▁sépare	-10.7972
▁moselle	-10.7979
▁1954	-10.798
▁dictature	-10.798
▁signaux	-10.798
▁épisode	-10.7981
▁conversion	-10.7981
▁priorité	-10.7981
azote	-10.7982
▁protégé	-10.7982
▁canaux	-10.7985
▁commandant	-10.7985
gramme	-10.7987
▁réparti	-10.7989
titu	-10.8003
▁modifié	-10.8007
resse	-10.8008
▁fixé	-10.8019
▁bruno	-10.8019
▁éditeurs	-10.8021
9"	-10.8024
▁cents	-10.8026
idéologie	-10.8027
autonomie	-10.8027
▁informatiques	-10.8027
▁dictionnaire	-10.803
▁sûr	-10.803
cht	-10.8033
▁pertes	-10.8033
anda	-10.8033
calais	-10.8041
1"	-10.8044
▁minimum	-10.8047
▁quarante	-10.8047
▁mes	-10.8047
▁microprocesseur	-10.8047
▁rotation	-10.8049
▁marais	-10.8052
num	-10.8057
▁mixte	-10.806
▁scope	-10.8062
chin	-10.8065
▁établie	-10.8071
▁grecques	-10.8072
adn	-10.8074
avis	-10.8077
aque	-10.8088
▁succède	-10.809
avion	-10.8095
temp	-10.8097
▁esc	-10.81
cinq	-10.8101
romaine	-10.8102
▁200	-10.8104
avaient	-10.8108
▁négociations	-10.8108
▁interprété	-10.8112
sel	-10.8112
▁profession	-10.8112
▁provoqué	-10.8114
▁thermique	-10.8114
▁censure	-10.8114
▁complexité	-10.8115
▁1919	-10.8115
▁creuse	-10.8116
▁saoudien	-10.8117
électron	-10.8117
▁essai	-10.8117
▁oriental	-10.8119
api	-10.8119
▁journalistes	-10.812
▁mart	-10.8125
▁alexandre	-10.8126
▁possession	-10.8128
▁citoyen	-10.8128
script	-10.813
essai	-10.8135
▁prétend	-10.8137
ature	-10.8137
▁voy	-10.814
▁pluies	-10.8146
▁dette	-10.8151
▁nucléaires	-10.8155
tribu	-10.8158
old	-10.8158
▁entiers	-10.8158
uré	-10.8162
▁cham	-10.8163
instrument	-10.8163
▁phéniciens	-10.8163
pot	-10.8165
▁confronté	-10.8182
▁constantinople	-10.8182
▁emblématique	-10.8182
▁kyoto	-10.8182
▁maïs	-10.8182
▁souvenir	-10.8182
▁inégalités	-10.8183
▁tortue	-10.8184
venir	-10.8185
▁génie	-10.8186
érer	-10.8186
▁commença	-10.8188
▁lib	-10.8192
▁peter	-10.8192
▁design	-10.8195
▁tourner	-10.8196
▁concurrent	-10.8197
▁performance	-10.8198
▁jouent	-10.82
▁crédit	-10.8202
abo	-10.8204
▁environnemental	-10.8204
▁faciliter	-10.8206
4,	-10.8206
▁gratuit	-10.8207
▁mener	-10.8207
rité	-10.821
▁enfance	-10.821
éditeur	-10.8212
▁observé	-10.8224
▁comm	-10.8225
opéra	-10.823
▁dessins	-10.823
exercice	-10.8232
▁compagnies	-10.8237
▁marge	-10.8244
▁financiers	-10.8244
▁démission	-10.8245
▁2015.	-10.8246
▁rencontré	-10.825
▁participé	-10.825
espoir	-10.825
▁annexe	-10.825
▁prospérité	-10.825
▁diamètre	-10.825
▁1924	-10.8251
▁nam	-10.8251
▁séance	-10.8252
▁socialistes	-10.8258
ppe	-10.8259
mba	-10.8263
▁électroniques	-10.8267
gis	-10.8268
▁cellule	-10.8268
sha	-10.827
▁cio	-10.8274
graphie	-10.828
▁universitaires	-10.8282
omi	-10.8283
▁marins	-10.8286
▁west	-10.8288
▁considérées	-10.8289
▁difficiles	-10.8293
▁pre	-10.8293
ios	-10.8302
▁exploité	-10.8302
▁éthique	-10.8307
▁pat	-10.8309
▁mathématique	-10.831
▁devenant	-10.8313
▁confession	-10.8313
archéologie	-10.8318
▁importé	-10.8318
▁ressort	-10.8318
▁gabriel	-10.8318
▁1938	-10.8319
▁léger	-10.8319
▁1929	-10.8319
▁réélu	-10.832
terre	-10.8325
observateur	-10.8325
opérateur	-10.8327
agissait	-10.8335
▁daté	-10.8335
▁remplacement	-10.8337
▁vraiment	-10.8338
hard	-10.8352
▁interface	-10.8353
llé	-10.8357
accompagne	-10.836
▁nasa	-10.837
abréviation	-10.8383
▁perpétu	-10.8386
▁occidentales	-10.8386
▁tom	-10.8387
▁dépression	-10.8387
▁partenariat	-10.8387
▁aldrin	-10.8387
▁moscou	-10.8387
▁décerné	-10.8387
▁sévère	-10.8387
▁poursuivi	-10.8387
▁vocation	-10.8387
▁dublin	-10.8388
ampleur	-10.8388
▁celtique	-10.8388
attribution	-10.839
▁amené	-10.8391
▁solde	-10.8392
vienne	-10.8392
institution	-10.8392
▁ras	-10.8392
▁fonctionnaires	-10.8393
▁persan	-10.8395
▁racines	-10.8398
▁liban	-10.8399
▁fondateurs	-10.8401
▁récentes	-10.8408
▁santa	-10.841
▁tv	-10.8412
▁abandonne	-10.8412
▁arbres	-10.8414
▁qualifiée	-10.8418
▁karl	-10.8418
▁guy	-10.8422
▁alimentaires	-10.8422
▁monument	-10.8423
▁nécessairement	-10.8428
écu	-10.8429
▁acteur	-10.8434
alsace	-10.8442
▁champion	-10.8442
aison	-10.8443
▁envahi	-10.8443
international	-10.8444
▁vivants	-10.8453
ato	-10.8454
anthrop	-10.8455
oxygène	-10.8456
herzégovine	-10.8457
▁catholicisme	-10.8457
▁temporaire	-10.8457
▁déchets	-10.8457
▁1932	-10.8457
▁eau	-10.8457
hindouisme	-10.8457
▁1870	-10.846
▁tonnes	-10.846
oua	-10.8463
appelle	-10.8463
▁magazines	-10.8465
acquisition	-10.8465
1)	-10.847
ula	-10.8472
▁exige	-10.8475
▁positive	-10.8476
▁officielles	-10.8477
ige	-10.8478
▁fidèles	-10.8479
▁exceptionnelle	-10.848
▁modification	-10.8481
▁crue	-10.8481
▁poème	-10.8482
▁client	-10.8483
▁crime	-10.8483
oh	-10.8484
mus	-10.8485
▁fixée	-10.8486
▁scénariste	-10.8487
▁touché	-10.8487
hop	-10.8487
▁flotte	-10.8488
▁apparue	-10.849
▁voisin	-10.849
▁tan	-10.8492
▁kar	-10.8492
▁original	-10.8494
▁mineure	-10.8499
▁publiés	-10.85
exemplaires	-10.8504
▁encourage	-10.8506
▁provence	-10.8508
▁tarn	-10.8512
anubis	-10.8513
▁brésilien	-10.8514
▁conce	-10.8514
ophile	-10.8516
▁pratiquée	-10.852
▁cac	-10.8521
▁héritage	-10.8524
_2	-10.8524
▁rayon	-10.8525
abandon	-10.8525
▁regroupant	-10.8527
▁scandale	-10.8527
▁secrète	-10.8527
avènement	-10.8527
explosion	-10.8527
▁testament	-10.8527
▁changé	-10.8527
rc	-10.8531
▁aboutit	-10.8536
éné	-10.8537
▁vélo	-10.8541
▁isra	-10.8542
▁massifs	-10.8545
▁danois	-10.855
▁particuliers	-10.8551
▁placée	-10.8552
▁stratégique	-10.8552
▁murs	-10.8559
▁améliorer	-10.856
▁minière	-10.8562
▁comprise	-10.8564
dio	-10.8565
mir	-10.8566
▁arrondissements	-10.8568
ulaire	-10.8579
▁proposer	-10.8581
trois	-10.8583
dic	-10.8583
internet	-10.8586
super	-10.8588
▁36	-10.8588
position	-10.8593
▁diminution	-10.8597
▁néolithique	-10.8597
▁théorème	-10.8597
▁firme	-10.8597
quin	-10.8598
▁laissant	-10.8598
ld	-10.86
▁fuji	-10.86
▁investissements	-10.8603
▁land	-10.8604
▁observations	-10.8604
▁pacte	-10.8604
▁por	-10.8607
▁algorithmes	-10.8609
éléments	-10.8611
▁tim	-10.8613
avantage	-10.8614
vre	-10.8616
▁nuage	-10.8616
▁globale	-10.8617
bro	-10.8621
▁tardive	-10.8621
équilibre	-10.8622
▁accueillir	-10.8622
kov	-10.8623
▁créant	-10.8623
▁graphiques	-10.8623
▁substance	-10.8625
▁troupe	-10.8625
▁servant	-10.8626
▁apport	-10.8626
▁causes	-10.8629
▁militant	-10.8629
▁armstrong	-10.8631
ignon	-10.8632
▁delta	-10.8632
shin	-10.8633
nas	-10.8639
▁établir	-10.8641
▁intelligence	-10.8642
hib	-10.8648
udi	-10.8649
▁carl	-10.8651
▁communs	-10.8652
cri	-10.8654
▁paléo	-10.8654
▁époques	-10.8655
▁renforcer	-10.8658
▁envisage	-10.866
appréci	-10.8663
▁essentielle	-10.8665
bat	-10.8666
▁comprennent	-10.8668
▁dreamcast	-10.8668
▁préféré	-10.8668
annexion	-10.8668
▁1937	-10.8669
▁1933	-10.8669
▁1943	-10.8669
▁néandertaliens	-10.8669
▁attaché	-10.8669
▁contraste	-10.8671
atique	-10.8674
espérance	-10.8676
baptiste	-10.8678
dos	-10.8679
▁ibm	-10.8681
ial	-10.8682
▁intellectuels	-10.8688
▁interprète	-10.8689
lib	-10.8692
dict	-10.8695
▁inspirée	-10.8696
lim	-10.8696
bio	-10.8697
▁technologique	-10.8698
▁patient	-10.8699
▁foyer	-10.87
▁favoriser	-10.87
▁finances	-10.8706
▁réputé	-10.8707
mais	-10.871
roman	-10.8711
nder	-10.8718
▁identique	-10.8725
ish	-10.8735
impôt	-10.8735
phi	-10.8737
▁profonde	-10.8738
quant	-10.8738
▁bahreïn	-10.8739
▁gérard	-10.8739
▁ceinture	-10.8739
▁métrage	-10.8739
▁réfugiés	-10.874
▁1914	-10.8741
▁dominant	-10.8744
▁électrons	-10.8745
▁permit	-10.8747
elli	-10.8753
▁évolutions	-10.8754
▁java	-10.8755
▁prit	-10.8761
▁edward	-10.8762
▁gor	-10.8763
▁capteur	-10.8765
▁adultes	-10.8766
▁fichier	-10.8774
hl	-10.8776
els	-10.8779
vier	-10.878
▁(4	-10.8787
▁sacrée	-10.8787
cc	-10.8787
eb	-10.8788
▁équipé	-10.8791
mand	-10.8798
humain	-10.8802
effort	-10.8808
▁estoniens	-10.8809
▁alpin	-10.8809
▁nobles	-10.881
▁domicile	-10.8811
▁négative	-10.8811
▁massacre	-10.8811
▁1918	-10.8812
▁trouvait	-10.8813
▁confirmé	-10.8813
▁continuité	-10.8815
▁revenir	-10.8816
▁reconnaître	-10.8817
▁pense	-10.8817
▁exposé	-10.882
▁profond	-10.8821
itude	-10.8826
▁dérivés	-10.8826
▁autonomie	-10.8833
▁oscar	-10.8837
rum	-10.8842
▁mécanisme	-10.8845
press	-10.8848
adapter	-10.8851
iège	-10.8852
▁mod	-10.8858
▁héritier	-10.8859
▁effectifs	-10.886
▁identifié	-10.886
▁belges	-10.8861
▁réuni	-10.8862
▁sanction	-10.8862
▁affecté	-10.8862
vas	-10.8864
▁arrondissement	-10.8875
▁limitrophe	-10.8884
▁proclame	-10.8884
▁propagande	-10.8884
intensité	-10.8884
▁jospin	-10.8884
▁1952	-10.8884
▁gréco	-10.8885
▁blason	-10.8886
aw	-10.8888
▁partagent	-10.8889
▁dessous	-10.8889
▁longs	-10.8894
▁gps	-10.8894
huile	-10.8896
adi	-10.8896
▁accompagnée	-10.8899
abbé	-10.8904
▁matérielle	-10.8904
igue	-10.8906
▁repos	-10.8914
flu	-10.8915
▁surnommé	-10.8919
coup	-10.8919
▁chemins	-10.892
gal	-10.892
lles	-10.8922
▁extrait	-10.8922
▁emmanuel	-10.8926
cène	-10.893
▁ajouter	-10.8934
▁expérimentale	-10.8935
▁rime	-10.8935
▁1980.	-10.8942
▁apprend	-10.8944
accueil	-10.8948
major	-10.8952
▁électriques	-10.8953
▁moi	-10.8953
cop	-10.8956
imprimante	-10.8957
▁configuration	-10.8957
▁mésopotamie	-10.8957
▁précurseur	-10.8957
▁soixante	-10.8957
▁sexisme	-10.8957
▁poétique	-10.8958
▁jack	-10.8959
▁représentés	-10.8959
▁gérer	-10.8959
▁gastronomie	-10.896
▁dépit	-10.896
illy	-10.8963
▁gagné	-10.8966
zz	-10.8968
▁remis	-10.8975
▁vendus	-10.898
ocde	-10.8982
▁préhistoire	-10.8984
ume	-10.8985
▁montage	-10.8985
éco	-10.8989
▁soumise	-10.899
000	-10.8991
▁collectivité	-10.8995
▁pluie	-10.8996
▁centaine	-10.8996
▁sonde	-10.8997
▁concerné	-10.9005
▁peau	-10.901
▁dépens	-10.9011
inspire	-10.9014
ashi	-10.9014
▁immense	-10.9022
pyrénées	-10.9024
enregistrement	-10.9025
▁limoges	-10.903
▁reflète	-10.903
▁rugby	-10.903
▁mutation	-10.903
▁écologiste	-10.903
▁plastique	-10.9031
▁1961	-10.9031
▁kenya	-10.9031
▁renouveau	-10.9031
▁diffusée	-10.9031
▁voici	-10.9031
4)	-10.9032
▁simon	-10.9033
▁jam	-10.9033
▁réalisées	-10.9036
heim	-10.9039
▁bref	-10.9039
tate	-10.9044
▁soins	-10.9046
apollo	-10.9046
▁survie	-10.9052
tine	-10.9053
▁comportements	-10.9054
▁metz	-10.9057
▁portugaise	-10.9063
▁violente	-10.9064
▁island	-10.9065
▁artistiques	-10.9065
▁linguistiques	-10.9066
▁orale	-10.9071
▁esprits	-10.9074
▁fourni	-10.9075
▁comptent	-10.9085
▁concerts	-10.9089
▁gallo	-10.909
▁zo	-10.9093
irent	-10.9095
▁littéralement	-10.9096
pou	-10.9097
▁bac	-10.9097
tus	-10.9098
étoile	-10.9099
zer	-10.9099
▁2000.	-10.9099
▁canon	-10.91
▁vache	-10.9101
▁bourgeois	-10.9102
▁infini	-10.9102
▁nul	-10.9103
▁correction	-10.9104
▁croatie	-10.9104
▁fontainebleau	-10.9104
▁communément	-10.9104
▁tal	-10.9104
▁stockage	-10.9106
▁symbolise	-10.9108
▁équations	-10.911
▁payer	-10.9111
▁ten	-10.9111
▁reprendre	-10.9115
▁créent	-10.9116
▁binaire	-10.9116
▁balle	-10.9119
▁usines	-10.912
ick	-10.9123
▁mesurer	-10.9124
▁réellement	-10.9126
▁remplacée	-10.9127
chan	-10.9127
▁croissante	-10.9131
▁revi	-10.9132
▁arrivé	-10.9133
animal	-10.9135
▁esprit	-10.9144
);	-10.9151
▁marchés	-10.9153
▁clients	-10.9154
▁éclate	-10.9165
achat	-10.9167
▁surnom	-10.9171
▁thi	-10.9171
écri	-10.9176
uté	-10.9176
rite	-10.9176
▁punk	-10.9178
▁touristiques	-10.9178
▁libertés	-10.9179
▁bientôt	-10.9179
▁hiérarchie	-10.9179
▁égyptologique	-10.9179
▁intervient	-10.9179
▁1926	-10.918
▁wilde	-10.918
▁dépendance	-10.9181
▁passent	-10.9181
▁rurales	-10.9182
cat	-10.9183
▁("")	-10.9184
▁sacrifice	-10.9185
▁transformer	-10.9185
mac	-10.9187
▁nationalistes	-10.9188
▁inclus	-10.9189
▁fouilles	-10.9192
5"	-10.9195
▁fleuves	-10.9195
▁fera	-10.9202
▁parlent	-10.921
▁traiter	-10.9215
▁corne	-10.9216
▁mah	-10.9219
sch	-10.9224
▁gain	-10.9224
▁substances	-10.9225
▁rôles	-10.9228
▁étudier	-10.9231
▁fasciste	-10.9232
▁lutter	-10.9241
▁franche	-10.9241
▁chercher	-10.9242
afghanistan	-10.9251
attention	-10.9251
▁émile	-10.9251
▁brûl	-10.9252
▁lion	-10.9254
rel	-10.9254
▁capitaine	-10.9254
▁mauritanie	-10.9254
▁tertiaire	-10.9254
▁marchandises	-10.9254
▁maintenu	-10.9254
▁synonyme	-10.9254
▁silence	-10.9254
▁confédération	-10.9254
▁provenance	-10.9255
▁jazz	-10.9255
▁argent	-10.9255
▁1953	-10.9255
▁fausse	-10.9255
▁confiance	-10.9255
▁grimpeur	-10.9258
▁wo	-10.9262
américains	-10.9268
orientation	-10.927
▁constructions	-10.927
nam	-10.9282
▁amateurs	-10.9282
▁suédois	-10.9283
▁fortune	-10.9284
▁éclair	-10.9291
▁hypothèse	-10.9292
▁écrites	-10.9294
▁basic	-10.9294
▁flo	-10.9295
ué	-10.9299
zan	-10.9299
▁détail	-10.93
▁ensembles	-10.93
▁pharaons	-10.93
▁climatiques	-10.9301
are	-10.9301
▁funéraires	-10.9302
▁styles	-10.9303
▁platon	-10.9305
▁prêtre	-10.9306
▁outil	-10.9306
▁feuille	-10.9308
▁reconnus	-10.931
aku	-10.9313
▁diminue	-10.9315
contre	-10.9315
▁war	-10.9322
département	-10.9328
blanche	-10.9329
▁tribu	-10.9329
▁biblique	-10.933
▁moléculaire	-10.933
▁clermont	-10.933
▁recouvre	-10.933
▁chamanisme	-10.933
ert	-10.933
▁élevées	-10.9334
▁forum	-10.9335
▁ec	-10.9336
▁favorisé	-10.9336
tec	-10.9337
▁mortalité	-10.9339
▁électro	-10.9343
▁entend	-10.9344
▁soutenue	-10.9348
observ	-10.9348
ati	-10.9349
▁gris	-10.9349
▁laval	-10.9351
ajoutent	-10.9352
rhin	-10.9356
wer	-10.9358
▁divisions	-10.9358
▁poe	-10.936
▁nantes	-10.9361
▁enceinte	-10.9365
irak	-10.937
▁gran	-10.9372
▁avantage	-10.9376
jou	-10.9377
ombre	-10.938
▁pascal	-10.9386
▁*	-10.9386
▁africaine	-10.9386
▁act	-10.9387
dieu	-10.9392
olo	-10.9393
▁peintures	-10.9399
naise	-10.9401
▁intitulée	-10.9403
exportation	-10.9405
science	-10.9406
ordinateurs	-10.9406
▁fascisme	-10.9406
▁homosexuel	-10.9406
▁possédant	-10.9406
▁spécificité	-10.9406
▁gaulliste	-10.9406
▁hostile	-10.9406
▁calcaire	-10.9406
▁détient	-10.9406
▁relais	-10.9406
▁métaphysique	-10.9406
▁païen	-10.9407
▁hérité	-10.9407
▁option	-10.9408
▁médicaments	-10.9409
▁régulières	-10.9409
maur	-10.941
▁édifices	-10.9411
abolition	-10.9413
▁conduire	-10.9414
▁orange	-10.9415
▁censé	-10.9415
▁prononcé	-10.9419
appartenance	-10.9419
▁axes	-10.9422
▁figur	-10.9425
ring	-10.9426
▁variétés	-10.9428
▁revendique	-10.943
▁postes	-10.9431
▁assuré	-10.9433
▁maritimes	-10.9435
▁spécifiquement	-10.9437
▁université	-10.9439
▁départementale	-10.944
▁voyages	-10.9441
▁qualifié	-10.9441
ora	-10.9442
▁avions	-10.9443
▁perçu	-10.9455
▁élève	-10.9458
▁véhicule	-10.9458
▁fidèle	-10.9458
▁fromage	-10.9459
▁peintre	-10.9463
eng	-10.9463
▁empereurs	-10.9466
▁déplacement	-10.9467
▁ajouté	-10.9467
ella	-10.9469
aurait	-10.9475
▁graves	-10.9475
▁mir	-10.9478
▁traversée	-10.948
▁complément	-10.9481
▁contiennent	-10.9483
▁côtière	-10.9483
▁représentait	-10.9483
▁suppression	-10.9483
▁textile	-10.9483
▁stimul	-10.9483
▁provoqua	-10.9483
▁lombard	-10.9483
▁végétation	-10.9483
animaux	-10.9484
▁morceaux	-10.9485
▁bateaux	-10.9486
▁fabriqué	-10.9491
▁parlant	-10.9492
▁devenus	-10.9494
▁parvenu	-10.9496
▁ros	-10.9498
▁directive	-10.9499
étendre	-10.9501
▁détenu	-10.9505
▁institution	-10.9506
▁asiatiques	-10.9507
▁milliard	-10.9508
tō	-10.9508
▁détails	-10.9512
ias	-10.9515
avi	-10.9517
▁prête	-10.9522
▁naturellement	-10.9522
▁respecter	-10.9523
▁critiqué	-10.9524
▁attend	-10.9525
▁restreint	-10.9527
istique	-10.9537
▁notes	-10.9538
▁accessible	-10.9538
▁précédentes	-10.9538
▁triple	-10.954
▁tiré	-10.954
▁agents	-10.9541
▁accompagne	-10.9541
lène	-10.9541
part	-10.9545
arr	-10.9545
mos	-10.9545
acide	-10.9546
organisme	-10.9547
▁roches	-10.9548
▁automatique	-10.9548
modern	-10.9549
issa	-10.9551
▁exerce	-10.9551
▁indiquent	-10.9555
▁docteur	-10.9557
horizon	-10.9557
ney	-10.9558
▁burkina	-10.9561
▁démonstration	-10.9561
▁ordinaire	-10.9561
▁quatorze	-10.9561
instabilité	-10.9561
thérapie	-10.9561
▁nomination	-10.9561
▁patrick	-10.9561
urbanisation	-10.9561
▁voulu	-10.9562
▁zéro	-10.9563
▁lionel	-10.9563
▁moral	-10.9565
▁habité	-10.9567
▁banques	-10.957
▁refusé	-10.9571
atari	-10.9572
▁cache	-10.9572
▁marin	-10.9573
appliquer	-10.9576
/2	-10.9584
▁observée	-10.9591
▁office	-10.9595
]].	-10.9596
▁juan	-10.9598
▁habit	-10.9598
page	-10.96
▁basque	-10.9601
▁(5	-10.9602
▁maîtres	-10.9602
ij	-10.9606
▁bour	-10.9612
ibert	-10.9613
▁découverts	-10.9613
▁favori	-10.9614
▁saisons	-10.9615
dot	-10.9616
▁décrite	-10.9617
▁ouvrier	-10.9618
guer	-10.9619
▁assimilé	-10.962
▁commencer	-10.9623
mur	-10.9625
▁légère	-10.9626
▁contrôler	-10.9627
chée	-10.9628
▁disparaît	-10.9635
▁transféré	-10.9636
▁vendu	-10.9638
esclavage	-10.9639
▁vectoriel	-10.9639
▁narmer	-10.9639
▁conclusion	-10.9639
▁bénin	-10.9639
▁japonaises	-10.964
▁maât	-10.9641
ctor	-10.9642
héritage	-10.9642
▁publications	-10.9642
éviter	-10.9642
▁ethniques	-10.9645
▁net	-10.9646
▁perry	-10.9647
ben	-10.9648
▁créées	-10.9649
▁clés	-10.9649
▁diane	-10.9651
▁sommets	-10.9651
▁attribuée	-10.9655
▁gravé	-10.9655
▁personnels	-10.9664
ket	-10.9665
▁prisonniers	-10.9671
tos	-10.9671
▁biens	-10.9672
▁cab	-10.9674
▁élémentaires	-10.9674
▁lycées	-10.9676
_3	-10.9678
▁étapes	-10.9678
▁minorités	-10.9688
▁modifications	-10.9691
▁sculpture	-10.9698
▁devise	-10.9701
▁free	-10.9702
▁démon	-10.9703
▁socio	-10.9704
▁provisoire	-10.9705
apo	-10.9707
▁html	-10.9714
▁pente	-10.9715
addition	-10.9715
▁substitu	-10.9716
étienne	-10.9717
extinction	-10.9718
▁santiago	-10.9718
▁conférences	-10.9718
▁tranche	-10.9718
▁gri	-10.9718
▁permettait	-10.9718
▁déterminant	-10.9718
▁permanent	-10.9719
▁roland	-10.972
alis	-10.972
▁impliqué	-10.9721
quatre	-10.9724
▁dom	-10.9725
avance	-10.9725
▁frank	-10.9727
gel	-10.9727
▁examen	-10.973
▁bactéries	-10.973
▁indices	-10.9731
▁recens	-10.9732
inger	-10.9733
▁opposé	-10.9738
docteur	-10.9739
▁appareil	-10.974
▁tirage	-10.9743
dja	-10.9743
ssement	-10.9748
accept	-10.975
arme	-10.9754
nan	-10.9756
▁erreur	-10.9756
clé	-10.9758
▁enregistre	-10.976
▁arrière	-10.9769
dar	-10.9772
▁poètes	-10.9776
▁accorde	-10.9779
▁pomme	-10.978
▁tort	-10.9781
▁juif	-10.9784
vic	-10.9785
▁fonctionne	-10.9789
▁produite	-10.9792
▁instructions	-10.9792
▁réalisateurs	-10.9792
▁brun	-10.9796
▁appartiennent	-10.9797
▁délégué	-10.9797
▁désignation	-10.9797
▁fluvial	-10.9797
▁indispensable	-10.9797
▁pakistan	-10.9797
▁dordogne	-10.9797
▁jésus	-10.9797
▁préalable	-10.9797
▁dramatique	-10.9797
▁sapiens	-10.9797
▁surréaliste	-10.9797
inflation	-10.9797
▁intéressant	-10.9797
▁latitude	-10.9798
▁reims	-10.9798
▁1910	-10.9799
▁athlètes	-10.9799
▁sound	-10.98
▁estimations	-10.98
chimiste	-10.98
▁gothique	-10.98
équivalent	-10.98
▁tenté	-10.9803
▁ip	-10.9805
▁mairie	-10.9812
▁préparer	-10.9816
▁open	-10.9819
unique	-10.9825
importants	-10.9827
▁fusionne	-10.9836
ary	-10.9838
▁gall	-10.984
wan	-10.9843
▁mani	-10.9843
▁barbares	-10.9846
▁réside	-10.9855
▁oblige	-10.9855
▁garonne	-10.9856
▁pourra	-10.9856
yō	-10.9861
▁sauvage	-10.9862
▁diplomatiques	-10.9867
▁edgar	-10.9868
▁étroite	-10.9868
▁définitive	-10.9869
▁contra	-10.9872
▁caractérisée	-10.9877
▁grammatical	-10.9877
▁générique	-10.9877
▁coutume	-10.9877
▁déficit	-10.9877
urgence	-10.9877
accroissement	-10.9877
▁géologie	-10.9877
▁taureau	-10.9878
▁cerveau	-10.9878
▁1935	-10.9878
▁serbe	-10.9878
▁soupe	-10.9881
▁simultanément	-10.9881
▁moulin	-10.9881
▁alger	-10.9882
▁rejette	-10.9882
achève	-10.9884
▁"(	-10.9887
▁voté	-10.9891
▁avancé	-10.9892
▁rapprochement	-10.9893
▁édité	-10.9899
▁lumières	-10.99
▁pharaonique	-10.9903
▁construites	-10.9904
▁intense	-10.9908
▁oppose	-10.9909
▁modem	-10.9913
armement	-10.9913
dal	-10.9919
▁band	-10.9919
orgue	-10.9921
▁argentine	-10.9922
cation	-10.9922
uke	-10.9928
▁extra	-10.9933
chet	-10.9935
▁usages	-10.9936
ements	-10.9936
▁dick	-10.9944
▁sh	-10.9944
▁racine	-10.9944
▁renvoie	-10.9945
▁bière	-10.9947
obligation	-10.9954
▁1934	-10.9958
▁conformé	-10.9958
équateur	-10.9958
▁mythique	-10.9958
▁mercure	-10.9958
▁financé	-10.9958
▁amène	-10.9959
▁modifie	-10.996
▁plateforme	-10.996
rien	-10.9963
attache	-10.9963
épisode	-10.9966
▁éventuellement	-10.9967
métrique	-10.9967
▁exactement	-10.9968
▁district	-10.9968
actrice	-10.9968
▁rituels	-10.997
▁légal	-10.9974
▁camps	-10.9976
ographe	-10.9977
▁rituel	-10.9979
asser	-10.9982
vous	-10.9985
▁avancées	-10.9985
▁expose	-10.9988
▁ennemis	-10.999
gué	-10.9991
▁organisa	-10.9995
▁répand	-10.9998
▁conservée	-11
▁élaboré	-11
▁mécanismes	-11
fils	-11.0002
angers	-11.0004
▁tenter	-11.001
▁hum	-11.0014
ncé	-11.0021
▁monter	-11.0022
▁garder	-11.0023
▁classée	-11.0024
▁neuro	-11.0025
▁dérivé	-11.0027
▁isolé	-11.003
expliquer	-11.0032
quer	-11.0033
▁impression	-11.0033
▁diffuse	-11.0035
▁reçoive	-11.0039
▁transcription	-11.0039
▁venezuela	-11.0039
▁tempéré	-11.0039
▁quête	-11.0039
hom	-11.0041
▁vaincu	-11.0043
▁légitime	-11.0046
gm	-11.0046
algorithme	-11.0048
▁héraclès	-11.005
▁renseignement	-11.0052
▁inauguré	-11.0057
ovi	-11.0057
▁commis	-11.0062
▁choc	-11.0062
û	-11.0063
▁hôtel	-11.007
onique	-11.0079
chev	-11.0079
nia	-11.008
▁grosse	-11.0085
amon	-11.0085
logiste	-11.0085
▁implanté	-11.0088
▁arthur	-11.0089
▁assurée	-11.0092
ity	-11.0098
▁stone	-11.0104
▁entité	-11.0104
▁autonomes	-11.0104
rey	-11.0108
▁2008.	-11.0111
▁forts	-11.0112
▁néandertal	-11.012
▁jugée	-11.012
▁mondiaux	-11.0121
▁nécropole	-11.0121
▁unifié	-11.0121
▁consolid	-11.0121
▁1917	-11.0122
▁métiers	-11.0124
▁parlée	-11.0124
livre	-11.013
[	-11.0131
événement	-11.0132
horloge	-11.0132
▁propulsion	-11.0137
▁évêques	-11.0137
hr	-11.0147
▁dominée	-11.0147
▁masculine	-11.0151
▁géré	-11.0153
▁hol	-11.0156
▁descendant	-11.0161
▁chiffrement	-11.0163
bains	-11.0163
▁supérieures	-11.0164
▁employée	-11.0167
▁mark	-11.0167
▁collines	-11.0171
▁bénéficient	-11.0172
well	-11.0175
▁apogée	-11.0181
nistes	-11.0183
▁tentent	-11.0187
▁prolonge	-11.0191
▁compilateur	-11.0196
▁registre	-11.0196
▁ethnique	-11.0197
glo	-11.02
▁formés	-11.0202
commune	-11.0203
▁diocèse	-11.0203
▁idéologique	-11.0203
▁obligé	-11.0203
▁poursuivre	-11.0203
▁treize	-11.0203
▁capitaux	-11.0203
asthme	-11.0203
▁prim	-11.0208
▁taxe	-11.0209
▁urbains	-11.0209
▁bad	-11.0211
▁reliant	-11.0212
▁cumul	-11.0213
épreuve	-11.0215
▁districts	-11.0217
▁géographiques	-11.022
anime	-11.022
▁jette	-11.0223
▁autochtones	-11.0226
▁musiques	-11.0231
haus	-11.0232
▁2020.	-11.0232
▁1970.	-11.0234
▁kan	-11.0236
▁néerlandaise	-11.0236
▁donna	-11.0237
▁55	-11.0237
▁spécialisée	-11.0238
▁constat	-11.0244
▁contribuent	-11.0244
kel	-11.0246
▁entrer	-11.0247
▁varient	-11.0248
▁grandeur	-11.025
▁participants	-11.0259
type	-11.0259
▁terrains	-11.026
far	-11.026
8"	-11.0266
uit	-11.0273
organe	-11.0273
▁indice	-11.0275
▁iranien	-11.0278
iso	-11.0278
infrastructure	-11.0283
▁municipalité	-11.0284
▁explication	-11.0285
▁handicap	-11.0287
▁hockey	-11.0287
▁principauté	-11.0287
▁suffixe	-11.0287
▁souffre	-11.0287
▁reproche	-11.0287
▁corpus	-11.0287
▁mendès	-11.0287
urbanisme	-11.0288
▁vingtaine	-11.0288
▁popper	-11.0288
▁occitan	-11.0288
éric	-11.0289
▁sauce	-11.0289
▁chasseurs	-11.029
▁médiatique	-11.0292
▁préoccupation	-11.0292
▁cite	-11.0293
▁communications	-11.0293
▁parfaitement	-11.0294
▁albums	-11.0295
▁conforme	-11.0299
▁gel	-11.03
éthique	-11.03
député	-11.03
annonce	-11.0301
▁colombie	-11.0304
▁publier	-11.0308
anjou	-11.0311
▁réactions	-11.0313
▁véhicules	-11.0314
▁endroits	-11.0314
▁adam	-11.0315
lois	-11.0316
▁établissement	-11.0317
▁attitude	-11.0317
▁meilleures	-11.032
▁imposé	-11.0325
tir	-11.0325
▁ingrédients	-11.0325
▁mentionné	-11.0327
▁ze	-11.0329
▁rattachée	-11.0331
▁bretonne	-11.0333
zin	-11.0334
▁références	-11.0339
▁précédents	-11.0341
tout	-11.0347
rise	-11.035
▁flori	-11.035
▁présidentiel	-11.0352
ting	-11.0354
berger	-11.0354
▁régulière	-11.0356
▁effectuer	-11.0357
éloigne	-11.0358
▁(200	-11.0359
▁fleurs	-11.0359
▁pap	-11.0364
œuf	-11.0365
▁express	-11.0366
▁compétence	-11.0368
▁hollywood	-11.0369
centre	-11.037
▁métier	-11.037
▁récompensé	-11.0371
▁sociologue	-11.0371
▁surveillance	-11.0371
▁fameux	-11.0371
▁tiennent	-11.0371
▁prospère	-11.0371
width	-11.0371
▁plomb	-11.0371
▁1922	-11.0372
▁debian	-11.0372
▁sportive	-11.0373
▁indiqua	-11.0373
-2	-11.0373
▁bombe	-11.0376
▁auxquelles	-11.0376
effondrement	-11.0378
▁interactions	-11.0378
olive	-11.0381
oche	-11.0383
▁mathématicien	-11.0386
▁dialecte	-11.0386
▁dame	-11.0387
acé	-11.0388
entretien	-11.0389
▁animé	-11.0394
astro	-11.0395
▁idéologie	-11.0396
▁devoir	-11.0398
rag	-11.0401
▁fontaine	-11.0406
informations	-11.0407
▁photos	-11.0413
▁rendant	-11.0417
mise	-11.0431
▁ken	-11.0433
▁libéral	-11.0437
▁51	-11.0441
ukraine	-11.0456
▁approuvé	-11.0456
▁dimanche	-11.0456
▁évident	-11.0456
appuya	-11.0456
▁dispute	-11.0456
▁blessé	-11.0456
apa	-11.0456
▁remettre	-11.0456
▁paroisse	-11.0457
▁1925	-11.0457
▁forteresse	-11.0457
▁réchauffement	-11.0457
▁manipulation	-11.0458
▁2023	-11.0459
▁lourde	-11.0461
▁compara	-11.0462
▁gloire	-11.0464
▁perl	-11.0466
▁perdre	-11.0469
▁radicale	-11.047
▁développeurs	-11.0474
▁loisirs	-11.0475
▁filière	-11.048
▁bell	-11.0488
▁voyelles	-11.0489
▁shin	-11.049
▁sha	-11.0494
oni	-11.0496
▁zi	-11.0496
▁46	-11.0497
▁sondages	-11.0497
polit	-11.0497
▁âme	-11.0507
illard	-11.0508
▁form	-11.0509
▁puissants	-11.051
▁spirituelle	-11.0516
▁ouverture	-11.0522
▁papyrus	-11.0528
lès	-11.0528
bru	-11.053
▁permettra	-11.0533
connect	-11.0535
▁prédécesseur	-11.0541
▁primitive	-11.0541
▁récolte	-11.0541
▁neutre	-11.0541
▁sicile	-11.0541
▁seize	-11.0542
▁philippines	-11.0542
▁1957	-11.0542
▁tâche	-11.0543
▁asiatique	-11.0543
▁statistique	-11.0543
▁plume	-11.0545
▁tro	-11.0547
▁édit	-11.0548
hab	-11.0551
▁allait	-11.0551
▁planètes	-11.0552
▁degrés	-11.0552
▁opéra	-11.0557
▁élites	-11.0557
écologie	-11.0558
tag	-11.0561
▁exercice	-11.0563
▁accessibles	-11.0566
▁possibilités	-11.0569
▁trame	-11.057
andre	-11.0571
exprime	-11.0573
▁vues	-11.058
▁fréquent	-11.0581
▁gardien	-11.0583
▁théologie	-11.0583
▁pair	-11.0584
exploit	-11.0587
ath	-11.0589
▁énergies	-11.0603
▁basés	-11.0603
7,	-11.0605
active	-11.0607
▁composantes	-11.0613
▁aîné	-11.0615
arabe	-11.0617
▁vastes	-11.0623
▁vraie	-11.0626
ascension	-11.0627
▁francophonie	-11.0627
▁pionnier	-11.0627
▁récurrent	-11.0627
assurance	-11.0627
▁goncourt	-11.0627
▁1927	-11.0629
▁vocal	-11.063
▁sigle	-11.063
▁tracé	-11.063
▁sportives	-11.0632
▁organique	-11.0632
▁chambres	-11.0634
▁robots	-11.064
autorisation	-11.064
▁forcément	-11.0645
▁présidé	-11.0646
continent	-11.0647
région	-11.0648
lys	-11.0648
▁cancers	-11.0648
▁violences	-11.0651
▁qualités	-11.0654
▁désignée	-11.0658
▁recueilli	-11.066
▁center	-11.0661
coréen	-11.0663
▁remet	-11.0667
▁restaurants	-11.0667
pat	-11.067
fond	-11.0677
▁baptisé	-11.0678
▁existait	-11.0681
▁rub	-11.0682
▁gré	-11.0684
▁gou	-11.069
▁analyses	-11.0692
▁avis	-11.0693
▁bénéficier	-11.0695
▁ste	-11.0695
▁estonien	-11.0699
▁actrice	-11.0705
▁pac	-11.0706
▁facto	-11.0707
exil	-11.0708
▁royales	-11.0712
▁favorables	-11.0712
aïkido	-11.0714
▁bangladesh	-11.0714
▁multitude	-11.0714
▁photographique	-11.0714
▁pétrolier	-11.0714
▁gironde	-11.0714
▁vouloir	-11.0714
▁offert	-11.0714
tti	-11.0714
▁royaux	-11.0716
▁gén	-11.0717
▁reproduction	-11.0717
▁causé	-11.0721
▁appliqué	-11.0722
▁effectivement	-11.0722
▁transformé	-11.0725
▁traitements	-11.0726
▁obtenue	-11.0728
▁sportif	-11.0728
star	-11.0729
ota	-11.073
oxyde	-11.0731
▁sauvages	-11.0731
illustration	-11.0731
gol	-11.0733
▁85	-11.0734
amélioration	-11.0735
michel	-11.0736
▁erreurs	-11.0739
arbre	-11.0742
▁initial	-11.0743
▁contraintes	-11.0745
▁abouti	-11.0746
▁majeures	-11.0748
▁histoires	-11.0752
▁2007.	-11.0759
str	-11.0761
ith	-11.0762
blue	-11.0763
▁motifs	-11.0763
▁alentours	-11.0766
▁dépassent	-11.0767
occupant	-11.0768
▁disc	-11.0768
fait	-11.0773
▁menées	-11.0774
▁traversé	-11.0776
ode	-11.0779
▁civiles	-11.0779
▁bern	-11.078
ichi	-11.0782
▁séparée	-11.0785
▁peur	-11.0785
▁développées	-11.0786
▁démissionne	-11.0786
national	-11.0787
▁républicaine	-11.0796
arm	-11.0797
gate	-11.0801
▁facilité	-11.0802
▁multiplication	-11.0802
▁périodique	-11.0802
▁révision	-11.0802
▁thématique	-11.0802
▁situent	-11.0802
▁hollande	-11.0802
affirmation	-11.0802
▁croate	-11.0803
instauration	-11.0803
▁absent	-11.0804
▁bateau	-11.0806
▁disparaître	-11.0806
▁nancy	-11.0807
▁conserva	-11.0807
▁départementales	-11.0809
▁strictement	-11.0812
▁heure	-11.0812
▁jardins	-11.0815
fou	-11.0816
▁diminuer	-11.0819
▁costa	-11.0819
▁notables	-11.0819
▁entreprend	-11.082
azur	-11.0823
▁chercha	-11.0825
provence	-11.0825
▁variante	-11.0825
▁pop	-11.0826
▁partenaires	-11.0826
sphère	-11.0827
entreprises	-11.0829
▁demander	-11.0834
naires	-11.0842
▁rattaché	-11.0844
erreur	-11.0845
▁récepteur	-11.0846
mel	-11.0847
ôm	-11.0848
▁entame	-11.0853
*	-11.0854
▁typique	-11.0855
akh	-11.086
▁may	-11.0862
▁ol	-11.0863
▁ker	-11.0865
▁lectures	-11.0866
▁travaillent	-11.0867
▁race	-11.0869
▁65	-11.0871
oir	-11.0873
ités	-11.0876
▁essais	-11.0877
▁têtes	-11.0877
top	-11.0878
▁arrivent	-11.0878
▁lang	-11.0881
▁lampe	-11.0884
utilise	-11.0887
nerie	-11.0889
métrie	-11.089
▁archaïque	-11.089
▁bhoutan	-11.089
▁copernic	-11.089
▁dissolution	-11.089
▁détriment	-11.089
▁combiné	-11.089
auxiliaire	-11.089
▁géométrique	-11.0891
▁démontré	-11.0891
▁aménagé	-11.0891
▁nazie	-11.0892
▁musicaux	-11.0892
▁champagne	-11.0893
▁bœuf	-11.0893
▁faso	-11.0894
▁fondent	-11.0894
▁serge	-11.0897
appelé	-11.0898
▁continuer	-11.0901
▁diplomatique	-11.0902
▁entretient	-11.0902
field	-11.0905
gare	-11.0908
▁déco	-11.0909
exode	-11.0912
▁portable	-11.0913
▁faites	-11.0913
▁syn	-11.0916
▁accéder	-11.0917
boul	-11.0918
▁affecte	-11.0919
▁décident	-11.0922
qa	-11.0923
étale	-11.0924
▁chantier	-11.0925
▁nationaliste	-11.0935
▁marquer	-11.0941
▁arguments	-11.0949
▁audio	-11.0955
▁fiscale	-11.0956
▁entouré	-11.0961
▁puy	-11.0963
▁ur	-11.0965
▁posé	-11.0974
attentat	-11.0976
▁élue	-11.0977
▁partagée	-11.0978
▁probabilité	-11.098
▁scandinave	-11.098
▁vraisemblable	-11.098
orthographe	-11.098
▁suffit	-11.098
▁disposant	-11.098
▁1905	-11.098
▁centrales	-11.0981
dam	-11.0982
▁godin	-11.0982
erve	-11.0983
▁institute	-11.0983
▁restée	-11.0985
▁campus	-11.0988
▁comparée	-11.0988
▁nette	-11.099
rance	-11.0992
6"	-11.0993
▁molécule	-11.0993
▁variation	-11.0993
▁salaire	-11.0994
▁lourds	-11.0997
entraînement	-11.0998
alexandrie	-11.0999
▁extérieure	-11.1003
▁rn	-11.1004
ola	-11.1005
▁spirituel	-11.1006
enquête	-11.1006
aris	-11.1006
▁honori	-11.1008
▁vendre	-11.1009
▁confondu	-11.1021
mbi	-11.1022
▁conservateurs	-11.1023
sans	-11.1024
▁sac	-11.1029
point	-11.1029
▁traductions	-11.1033
▁individuelle	-11.1035
martin	-11.1036
éma	-11.1042
▁récents	-11.1043
▁seigneurs	-11.1044
organiser	-11.1046
▁localisé	-11.1046
▁basses	-11.1055
▁légale	-11.1055
▁romaines	-11.1058
▁exposée	-11.1059
▁2006.	-11.106
ambassade	-11.1061
▁immigrés	-11.1062
▁imposée	-11.1064
lem	-11.1065
inscription	-11.1066
▁shogun	-11.1068
▁accordé	-11.1068
main	-11.1069
▁acquiert	-11.107
▁baudelaire	-11.107
▁bulgare	-11.107
▁comportant	-11.107
▁juridiction	-11.107
▁meiji	-11.107
roussillon	-11.107
▁basilique	-11.107
▁montrant	-11.107
arbitre	-11.107
▁réservée	-11.107
▁irlandais	-11.1071
▁fécondité	-11.1071
▁picardie	-11.1072
▁sensibilité	-11.1073
identifi	-11.1074
▁xix	-11.1074
▁indiens	-11.108
▁fréquences	-11.1081
▁bureaux	-11.1081
▁séquence	-11.1086
▁évoqué	-11.1087
▁conçue	-11.1088
▁fondamental	-11.1088
▁maintient	-11.1091
▁spécialisées	-11.1095
joseph	-11.1098
orbite	-11.1098
▁park	-11.1101
▁maximale	-11.1102
▁venu	-11.1103
▁réussite	-11.1105
▁corporation	-11.1106
▁successeurs	-11.1107
hypo	-11.1107
▁té	-11.1107
▁individuel	-11.1113
▁retirer	-11.1117
anie	-11.112
▁parlées	-11.1124
▁richesses	-11.1124
henri	-11.1128
▁périphériques	-11.1131
▁choisie	-11.1137
▁amélioration	-11.1139
▁paroles	-11.1142
▁sida	-11.1144
▁vents	-11.1147
▁abd	-11.1147
▁autrichien	-11.1147
▁grass	-11.1149
▁2011.	-11.1149
apparente	-11.1151
▁dérivée	-11.1155
expérimentation	-11.1161
▁recommandation	-11.1161
▁restriction	-11.1161
▁verhoeven	-11.1161
▁tantôt	-11.1161
▁compilation	-11.1161
▁chronologie	-11.1161
▁obtienne	-11.1161
▁fermeture	-11.1161
▁1928	-11.1162
▁septième	-11.1163
▁bab	-11.1165
▁rivalité	-11.1165
▁fortran	-11.1165
▁détroit	-11.1167
nois	-11.117
▁rives	-11.1171
six	-11.1173
▁session	-11.118
▁supplémentaire	-11.118
▁colonial	-11.118
▁ajoutée	-11.1181
pes	-11.1181
▁sexualité	-11.1187
▁39	-11.1187
totalité	-11.119
savoie	-11.1191
épouse	-11.1191
▁mondiales	-11.1194
▁gide	-11.1195
▁formelle	-11.1195
neuf	-11.1197
▁2014.	-11.1199
▁aider	-11.12
yu	-11.1204
rouge	-11.1204
▁égal	-11.1205
▁auvergne	-11.1208
▁aidé	-11.1214
▁remarquables	-11.1216
▁52	-11.1217
▁saisi	-11.1229
▁abondante	-11.123
▁concurrents	-11.1231
ref	-11.1231
▁piste	-11.1232
▁porteur	-11.124
cast	-11.1245
emporte	-11.1245
▁aristote	-11.125
▁précédé	-11.1251
▁conscient	-11.1252
▁célébré	-11.1252
▁céramique	-11.1252
▁frappé	-11.1252
opposent	-11.1253
▁résume	-11.1253
▁tombé	-11.1254
▁considération	-11.1254
▁intéressé	-11.1255
text	-11.1255
▁échoue	-11.1256
▁emprunté	-11.1256
▁aériennes	-11.1257
▁existence	-11.1258
encontre	-11.1269
▁ég	-11.1275
arcade	-11.128
act	-11.128
nation	-11.128
▁logement	-11.1282
▁exploite	-11.1282
mina	-11.1283
dore	-11.1284
▁sho	-11.1284
▁coups	-11.1285
▁monts	-11.1285
lien	-11.1288
▁orthodoxe	-11.1292
ût	-11.1292
▁distincts	-11.1294
day	-11.1297
implant	-11.13
aliment	-11.1306
▁olivier	-11.1307
▁retenue	-11.1307
▁bit	-11.131
▁allemandes	-11.1312
▁rouges	-11.1317
▁distinctes	-11.1318
▁préfère	-11.1321
▁déclara	-11.1321
ozone	-11.1323
èvre	-11.1323
▁déroulent	-11.1324
▁press	-11.1326
viva	-11.1326
▁composent	-11.1327
gor	-11.1328
employ	-11.1328
dh	-11.1333
▁95	-11.1336
▁rendue	-11.1338
▁rurale	-11.1339
▁contes	-11.134
▁pseudo	-11.1345
▁différencie	-11.1345
▁judaïsme	-11.1345
▁problématique	-11.1345
▁protecteur	-11.1345
▁préférence	-11.1345
▁pétrolière	-11.1345
▁sécheresse	-11.1345
▁retiré	-11.1345
emblème	-11.1345
▁offrent	-11.1346
▁1923	-11.1346
▁mérite	-11.1348
▁1921	-11.1349
▁passagers	-11.1349
▁baltes	-11.135
latif	-11.1351
▁spectacles	-11.1354
▁rétro	-11.1355
▁théo	-11.1355
▁papon	-11.1356
▁empêcher	-11.1357
▁2012.	-11.1358
ifiant	-11.1363
▁insiste	-11.1366
next	-11.137
européen	-11.1372
▁humides	-11.1375
arrière	-11.1377
▁sinon	-11.1378
▁variés	-11.1379
leur	-11.138
▁affaire	-11.1381
cad	-11.1383
ital	-11.1383
cio	-11.1388
rō	-11.1399
▁natura	-11.1399
▁parlementaires	-11.1402
-16	-11.1403
▁déposé	-11.1404
équipage	-11.1405
▁rayons	-11.1407
▁cadres	-11.1412
▁gère	-11.1415
▁ferr	-11.1416
kha	-11.142
blé	-11.1431
▁affaibli	-11.1435
dôme	-11.1437
insurrection	-11.1438
▁consensus	-11.1438
▁généalogie	-11.1438
▁imprimé	-11.1438
▁incluent	-11.1438
▁revêt	-11.1438
algèbre	-11.1439
épopée	-11.1439
▁bengali	-11.1439
andorre	-11.1439
▁induit	-11.1439
▁dégage	-11.1439
▁compromis	-11.144
▁rédige	-11.1441
▁pistes	-11.1442
▁syllabe	-11.1444
▁préparé	-11.145
▁animale	-11.1451
mn	-11.1451
▁tableaux	-11.1458
atteste	-11.1463
▁reliée	-11.1464
▁démontre	-11.1465
▁fruit	-11.1465
▁pratiquant	-11.147
▁courts	-11.147
time	-11.1471
▁loup	-11.1472
hitchcock	-11.1473
africain	-11.1475
▁témoignages	-11.1477
▁géo	-11.148
▁parviennent	-11.1488
▁accepté	-11.149
mori	-11.1493
rach	-11.1493
ishi	-11.1495
▁spécialisé	-11.1497
▁composant	-11.1501
▁récent	-11.1502
▁supérieurs	-11.1503
▁pasteur	-11.1503
▁salt	-11.1507
ande	-11.1516
mini	-11.152
▁relié	-11.1522
▁bla	-11.1522
▁orné	-11.1523
erne	-11.1526
èche	-11.153
▁réfléchi	-11.1531
▁ultérieur	-11.1532
▁lecteurs	-11.1532
pproximativement	-11.1533
▁diminué	-11.1533
▁délégation	-11.1533
▁mosquée	-11.1533
▁reprennent	-11.1533
▁bertrand	-11.1533
▁polygone	-11.1533
▁impliquant	-11.1533
▁hollandais	-11.1533
▁combine	-11.1533
▁circulaire	-11.1533
▁invoqu	-11.1533
▁enjeux	-11.1533
▁légitimité	-11.1533
▁brunei	-11.1533
▁julien	-11.1534
hymne	-11.1534
▁occasionnelle	-11.1534
illusion	-11.1535
interroge	-11.1535
▁voyageurs	-11.1537
▁"".	-11.1538
-15	-11.1538
▁bancaire	-11.1538
▁opérateurs	-11.1539
▁joua	-11.1541
▁proton	-11.1541
▁médical	-11.1544
▁nulle	-11.1544
-17	-11.1547
▁profil	-11.1547
▁circuits	-11.1548
oma	-11.1548
▁islandais	-11.1557
crit	-11.1559
▁ressource	-11.1562
▁déplacements	-11.1563
▁formules	-11.1567
gla	-11.1569
enfants	-11.1569
faire	-11.1571
tell	-11.1574
oral	-11.1576
▁lake	-11.1578
▁rapides	-11.1579
▁alphabet	-11.1582
▁inscrits	-11.1586
▁remarquer	-11.1587
▁placer	-11.159
▁assistant	-11.159
zé	-11.1595
▁emb	-11.1599
▁33	-11.1599
▁véritablement	-11.16
haute	-11.1605
rm	-11.1606
▁accent	-11.1606
▁grade	-11.1614
▁44	-11.1615
▁fabrique	-11.1615
▁jeanne	-11.1618
▁sortes	-11.1618
▁(8	-11.1618
▁marquées	-11.1618
sui	-11.1622
▁nubie	-11.1622
▁législation	-11.1628
▁législature	-11.1628
▁pavillon	-11.1628
▁préserver	-11.1628
▁quelconque	-11.1628
▁relevé	-11.1628
▁féodal	-11.1628
just	-11.1628
intrigue	-11.1628
▁dossier	-11.1629
▁enterré	-11.163
▁datent	-11.1633
▁animales	-11.1635
▁estiment	-11.1636
▁cousin	-11.1637
nna	-11.1638
▁strat	-11.1638
dique	-11.1642
▁preuves	-11.1645
▁domestication	-11.1645
▁kou	-11.1649
▁entretien	-11.1649
▁faiblesse	-11.1651
▁script	-11.1653
ander	-11.1655
▁reli	-11.1658
▁doux	-11.1663
▁multiple	-11.1663
côte	-11.1666
croix	-11.1667
▁participant	-11.1674
èse	-11.1679
▁éloigné	-11.1681
▁rival	-11.1682
▁libéré	-11.1682
bol	-11.1685
aton	-11.1685
▁ong	-11.1689
▁controverses	-11.169
▁visibles	-11.1692
▁sélectionné	-11.1695
cca	-11.1699
▁dépasser	-11.1703
▁2002.	-11.1707
▁commerçants	-11.1715
adjectif	-11.172
▁statues	-11.1721
écrivant	-11.1724
▁jérusalem	-11.1724
▁marseillais	-11.1724
▁plaisir	-11.1724
▁pompidou	-11.1724
▁proclamé	-11.1724
▁thèbes	-11.1724
▁tribunaux	-11.1724
▁communautaire	-11.1724
▁publicitaire	-11.1724
▁street	-11.1724
▁versailles	-11.1724
▁staline	-11.1725
▁1911	-11.1725
▁voile	-11.1725
▁énorme	-11.1725
▁quitté	-11.1726
▁rétabli	-11.1726
▁consultation	-11.1727
▁anonyme	-11.1727
code	-11.1727
▁artisans	-11.1728
▁chal	-11.1728
▁voulait	-11.1728
▁municipalités	-11.173
occuper	-11.1731
ming	-11.1736
roux	-11.1738
▁49	-11.1739
▁âgées	-11.1743
mission	-11.1744
▁crues	-11.1745
▁délai	-11.1756
ues	-11.1758
▁controverse	-11.1759
key	-11.1761
▁argument	-11.1762
▁colonne	-11.1764
augmenter	-11.1765
empêche	-11.1766
▁réputée	-11.1768
▁compact	-11.1771
▁incarne	-11.1772
▁approches	-11.1775
imposer	-11.1783
▁rite	-11.1783
évo	-11.1787
artistes	-11.1787
▁édouard	-11.1789
▁cherchent	-11.1792
▁souten	-11.1795
lig	-11.1796
grammes	-11.1797
▁pieds	-11.1798
▁strict	-11.1804
▁pôles	-11.1807
▁composante	-11.1807
ogène	-11.1808
▁vih	-11.181
▁bassins	-11.181
cia	-11.1815
jan	-11.1821
aluminium	-11.1821
uruguay	-11.1821
▁baccalauréat	-11.1821
▁cuisson	-11.1821
▁fantastique	-11.1821
▁fondamentaux	-11.1821
▁solidarité	-11.1821
▁spontané	-11.1821
▁tramway	-11.1821
▁viêt	-11.1821
orchestre	-11.1821
▁clavier	-11.1821
▁paramètres	-11.1821
▁convient	-11.1821
▁pixel	-11.1821
▁mêle	-11.1821
▁brillant	-11.1821
▁surprise	-11.1821
▁libertaire	-11.1821
▁ultra	-11.1821
▁luxembourgeois	-11.1822
▁théologique	-11.1822
▁clef	-11.1823
▁influencée	-11.1826
▁confort	-11.1826
▁messages	-11.1827
▁parenté	-11.1827
▁guère	-11.1828
▁princesse	-11.1829
▁atteinte	-11.1829
▁poursuite	-11.1833
life	-11.1834
▁spécialement	-11.1834
▁fondamentales	-11.1836
▁écho	-11.1839
▁singe	-11.1839
▁mali	-11.1842
▁300	-11.1845
▁descend	-11.1846
▁doré	-11.1853
▁normal	-11.1858
▁témoignent	-11.1858
▁courbe	-11.186
▁talent	-11.1866
unification	-11.1877
▁vain	-11.1879
engagement	-11.188
▁intégrés	-11.188
inventeur	-11.189
▁jet	-11.1893
fic	-11.1893
▁ry	-11.1893
▁dan	-11.1894
▁gour	-11.1894
▁argentin	-11.1896
▁dote	-11.1897
▁dédiée	-11.1897
▁nazis	-11.19
igo	-11.1905
▁salaires	-11.1905
oro	-11.1905
▁arrêt	-11.1906
▁retrouvé	-11.1907
péri	-11.191
▁mystères	-11.191
▁sacrés	-11.1912
entend	-11.1919
aristocratie	-11.1919
▁astronomique	-11.1919
▁chicago	-11.1919
▁cohérent	-11.1919
▁groenland	-11.1919
▁lieutenant	-11.1919
▁notoriété	-11.1919
▁significatif	-11.1919
▁trajectoire	-11.1919
▁dépassé	-11.1919
▁flamme	-11.1919
▁tgv	-11.1919
▁college	-11.1919
▁faisaient	-11.1919
▁boucle	-11.192
▁tennis	-11.192
▁minitel	-11.192
▁gilles	-11.1921
▁fraction	-11.1925
▁bonnes	-11.1927
envoi	-11.1927
▁invasions	-11.1929
chang	-11.193
▁tombeau	-11.1933
▁pommes	-11.1941
▁définis	-11.1942
▁coton	-11.1944
▁restes	-11.1945
▁réparties	-11.1947
rousse	-11.1954
▁(7	-11.1955
▁adaptations	-11.1956
of	-11.1956
▁ponts	-11.1958
emplacement	-11.1961
▁fermé	-11.1961
▁fai	-11.1962
apparaît	-11.1964
division	-11.1964
▁juridiques	-11.1967
▁sino	-11.1969
▁reconnues	-11.197
venant	-11.1971
textes	-11.1972
▁maria	-11.1974
oth	-11.1975
▁consacrés	-11.1976
umi	-11.1976
▁hans	-11.1979
color	-11.1981
aria	-11.1987
▁ancêtre	-11.1988
▁pire	-11.1988
unités	-11.1991
▁2018.	-11.1992
écha	-11.1994
▁capables	-11.2
genre	-11.2006
▁progressive	-11.2007
aya	-11.2007
▁38	-11.2013
▁domestiques	-11.2014
▁47	-11.2017
▁atmosphérique	-11.2018
▁aussitôt	-11.2018
▁crâne	-11.2018
▁désignant	-11.2018
▁ibérique	-11.2018
▁migratoire	-11.2018
▁nocturne	-11.2018
▁prestige	-11.2018
▁successifs	-11.2018
▁portuaire	-11.2018
▁brassens	-11.2018
▁navale	-11.2019
▁scott	-11.2019
▁protestantisme	-11.202
▁1913	-11.202
▁renforce	-11.202
▁fifa	-11.2021
▁percy	-11.2023
▁distinguent	-11.2024
étiquette	-11.2025
▁explicitement	-11.2026
▁standards	-11.2026
estimation	-11.2027
▁engendre	-11.2031
▁ana	-11.2033
▁53	-11.2038
▁publiées	-11.2045
▁incendie	-11.2046
▁luxe	-11.2047
▁bouche	-11.2047
▁revues	-11.2048
▁parfait	-11.2051
▁rallie	-11.2053
dō	-11.2058
▁prénom	-11.206
▁opposée	-11.2063
▁kanji	-11.2063
éris	-11.2063
▁particule	-11.2064
▁noté	-11.2066
place	-11.2073
plat	-11.2074
▁foyers	-11.2076
gang	-11.2082
ero	-11.2089
▁nordique	-11.2091
▁quantités	-11.2093
▁subsiste	-11.2094
side	-11.2096
occup	-11.2105
▁sexuel	-11.2107
▁romantique	-11.2111
▁marié	-11.2116
kalevala	-11.2118
▁boulevard	-11.2118
▁manufactur	-11.2118
▁panthéon	-11.2118
▁protestation	-11.2118
▁précédemment	-11.2118
▁pseudonyme	-11.2118
▁sarkozy	-11.2118
▁spectaculaire	-11.2118
▁titulaire	-11.2118
▁cartouche	-11.2118
▁condamne	-11.2118
▁ghana	-11.2118
incident	-11.2119
▁fournissent	-11.2119
▁fonder	-11.2119
▁1931	-11.2119
▁médiéval	-11.212
▁capture	-11.2121
aucun	-11.2121
▁opposants	-11.2122
▁associées	-11.2124
▁gènes	-11.2128
▁installations	-11.2128
▁mine	-11.213
▁rod	-11.2131
gri	-11.2132
▁estonienne	-11.2134
▁fonctionner	-11.2136
▁multiplient	-11.2137
▁partielle	-11.2148
▁mineurs	-11.2153
nov	-11.2153
fact	-11.2156
▁adversaires	-11.2157
▁méditerranéenne	-11.2157
▁combattants	-11.2162
▁interprétations	-11.2164
▁hypothèses	-11.2164
iam	-11.2168
australie	-11.2168
▁adresse	-11.2174
héra	-11.2174
▁électromagnéti	-11.2176
cker	-11.2176
ivor	-11.2177
trans	-11.2185
▁voisines	-11.2186
tain	-11.2188
▁enrichi	-11.2188
▁motif	-11.219
▁éditeur	-11.219
▁collect	-11.2192
activités	-11.2193
▁orientée	-11.2194
tron	-11.2199
iko	-11.22
▁tirer	-11.2209
▁finance	-11.2211
▁sénateurs	-11.2213
▁manuscrits	-11.2215
▁perturb	-11.2215
abondance	-11.2219
▁finistère	-11.2219
▁municipaux	-11.2219
▁doigt	-11.2219
▁sanitaire	-11.2219
▁toponyme	-11.2219
▁relance	-11.222
buffy	-11.222
▁sociologique	-11.222
▁agriculteurs	-11.2221
▁unitaire	-11.2222
▁hip	-11.2222
▁filtre	-11.2223
▁1890	-11.2223
▁hongroise	-11.2224
▁englobe	-11.2225
▁déroulant	-11.2227
▁collèges	-11.2229
▁fuite	-11.2229
azar	-11.223
▁unix	-11.2232
▁rus	-11.2235
▁(12	-11.2236
assou	-11.2238
udf	-11.2239
▁ali	-11.2239
▁cessé	-11.224
▁officiers	-11.2242
▁yougoslavie	-11.2242
▁hôtels	-11.2242
rop	-11.2248
▁occupation	-11.2249
▁disposer	-11.2253
▁peintres	-11.2253
▁musulman	-11.2254
▁vase	-11.2255
vet	-11.2256
▁laïc	-11.2258
▁évalué	-11.2262
▁coïncide	-11.2263
ui	-11.2265
▁variées	-11.2265
▁autorise	-11.227
▁masque	-11.2271
▁établis	-11.2272
▁spécialité	-11.2272
▁orientales	-11.2274
▁gué	-11.2275
▁sam	-11.228
▁ky	-11.2281
▁modifiée	-11.2281
emprunt	-11.2283
charles	-11.2284
tter	-11.2286
aga	-11.2288
▁volumes	-11.2291
▁commandes	-11.2293
pic	-11.2294
istan	-11.23
▁évoluer	-11.2301
états	-11.2304
▁black	-11.2306
▁will	-11.2308
paris	-11.231
▁individuelles	-11.231
▁touchée	-11.2313
▁travailla	-11.2318
▁renouvelables	-11.232
▁indirect	-11.232
▁ressemble	-11.2321
▁cosmique	-11.2321
▁mussolini	-11.2321
▁subvention	-11.2321
▁thierry	-11.2321
▁fragile	-11.2321
▁incapable	-11.2321
▁recherché	-11.2321
▁cheveux	-11.2321
▁attiré	-11.2321
échelon	-11.2321
▁slogan	-11.2321
▁préservation	-11.2322
▁contestation	-11.2322
identification	-11.2322
▁gambie	-11.2322
▁cristal	-11.2322
▁vierge	-11.2322
▁diamant	-11.2322
▁normalisation	-11.2323
▁cantal	-11.2323
▁préféra	-11.2323
▁attributs	-11.2324
▁1896	-11.2324
▁inondations	-11.2324
▁montagneux	-11.2325
▁apparenté	-11.2326
▁impôts	-11.2327
eurent	-11.2329
▁connait	-11.233
▁ray	-11.2331
▁proposée	-11.2335
▁colomb	-11.2335
▁garant	-11.2335
▁républicains	-11.2337
▁privilégié	-11.2337
élie	-11.2338
▁comparer	-11.2338
rf	-11.2339
▁tissus	-11.234
hip	-11.2352
▁orienté	-11.2354
▁égard	-11.2357
dix	-11.2358
▁circonstances	-11.2358
-3	-11.2362
édit	-11.2363
▁qualifier	-11.2363
▁retenu	-11.2363
▁2005.	-11.2364
▁morte	-11.2365
▁bleue	-11.2365
illo	-11.2366
organise	-11.2366
▁poser	-11.2369
interface	-11.2374
▁sondage	-11.2375
exprimer	-11.2377
▁cérémonies	-11.2378
aba	-11.238
▁décline	-11.2382
▁coûts	-11.2384
hommes	-11.2386
petit	-11.2388
politique	-11.2392
▁occupant	-11.2399
▁collecte	-11.2401
▁remonter	-11.2401
ajouter	-11.2404
▁conservateur	-11.2407
▁imaginaire	-11.2416
0"	-11.242
▁distinct	-11.2423
▁alphabétique	-11.2425
▁phosphore	-11.2425
▁procède	-11.2425
▁taïwan	-11.2425
▁titulature	-11.2425
compatibilité	-11.2425
extraction	-11.2425
▁terminal	-11.2425
▁archées	-11.2425
▁toxique	-11.2425
▁marginal	-11.2425
érosion	-11.2425
insecte	-11.2425
▁gravité	-11.2426
▁originel	-11.2428
▁évènements	-11.2428
▁bourgeoisie	-11.2428
pper	-11.2429
▁dates	-11.2431
▁nés	-11.2432
▁procédés	-11.2435
▁détermine	-11.2435
▁attestée	-11.2436
▁biologiques	-11.2437
▁levant	-11.2439
▁php	-11.244
mbo	-11.2441
▁group	-11.2444
▁montagneuse	-11.2444
▁assisté	-11.2445
▁posée	-11.2447
ajoute	-11.2447
▁amérindiens	-11.2451
▁cano	-11.2453
▁aix	-11.2454
affirmer	-11.2456
▁natif	-11.2456
▁(14	-11.2462
▁cuit	-11.2463
▁calculer	-11.2463
▁regroupement	-11.2463
100	-11.2467
▁yoshi	-11.2475
▁proie	-11.2484
▁herm	-11.2486
▁localement	-11.249
▁marne	-11.2492
▁coupable	-11.2492
trop	-11.2493
▁organiser	-11.2495
▁recueille	-11.2495
italien	-11.2496
▁grandement	-11.2497
▁légendes	-11.2502
▁buts	-11.2506
▁canadien	-11.2506
▁architectural	-11.2509
▁2004.	-11.2509
élique	-11.251
1.	-11.251
onyme	-11.2513
tenait	-11.2514
rose	-11.2515
▁boule	-11.2519
améliorer	-11.252
habitude	-11.2525
▁blocs	-11.2528
▁protège	-11.2529
▁appuyé	-11.2529
▁caraïbes	-11.2529
▁encouragé	-11.2529
▁macédoine	-11.2529
▁rébellion	-11.2529
▁savoyard	-11.2529
▁spécification	-11.2529
▁successivement	-11.2529
▁sanskrit	-11.2529
▁symétrie	-11.2529
▁hitler	-11.2529
▁conjointement	-11.2529
ute	-11.2529
▁réfère	-11.253
▁segment	-11.253
▁huitième	-11.253
▁colonel	-11.2531
ouganda	-11.2531
▁scolaires	-11.2531
octet	-11.2532
acheter	-11.2533
▁soulèvement	-11.2537
▁hyper	-11.2541
▁carlos	-11.2542
hat	-11.2542
▁big	-11.2544
▁suis	-11.2546
ours	-11.2546
▁situations	-11.2547
▁autoritaire	-11.2549
▁dessinateur	-11.255
▁cède	-11.2556
▁chaude	-11.2558
▁laboratoires	-11.2559
▁chargés	-11.2559
▁iranienne	-11.256
▁accompli	-11.2561
▁apparence	-11.2566
▁réflexions	-11.2569
jour	-11.2569
▁contestée	-11.2571
▁imposant	-11.2571
nik	-11.2573
▁constant	-11.2573
▁ei	-11.2574
▁déf	-11.2576
▁physicien	-11.2577
▁exacte	-11.2578
tone	-11.2581
alistes	-11.2584
ning	-11.2585
▁lanceur	-11.2585
enceinte	-11.2585
claude	-11.2587
▁comédien	-11.2587
fec	-11.2589
▁élémentaire	-11.2595
▁revers	-11.2596
atrices	-11.2597
▁saône	-11.2597
abandonner	-11.2598
systématiquement	-11.26
▁aborde	-11.2604
▁radi	-11.2606
▁constantin	-11.2608
▁gouverne	-11.261
▁préside	-11.2612
▁gab	-11.2612
opposer	-11.2617
germain	-11.262
ingue	-11.2627
▁tome	-11.2631
voy	-11.2631
▁1960.	-11.2632
marc	-11.2632
▁antérieure	-11.2633
anarchisme	-11.2634
▁déplacé	-11.2634
▁existé	-11.2634
▁montpellier	-11.2634
▁reprenant	-11.2634
▁soupçon	-11.2634
▁successives	-11.2634
▁traduire	-11.2634
▁éducatif	-11.2634
actualité	-11.2634
▁préfixe	-11.2634
▁randonnée	-11.2634
▁surréalisme	-11.2634
▁tutelle	-11.2634
▁gaston	-11.2634
▁généré	-11.2634
▁ibn	-11.2635
orange	-11.2635
▁chassé	-11.2635
▁ménages	-11.2635
▁globe	-11.2636
▁livré	-11.2636
▁provoquer	-11.2636
▁parution	-11.2636
posant	-11.2637
▁désaccord	-11.2638
▁astéroïdes	-11.2638
▁paradis	-11.264
▁forge	-11.264
atelier	-11.2641
▁commandé	-11.2642
▁indépendantes	-11.2643
▁perses	-11.2643
▁comportent	-11.2645
▁séparés	-11.2654
date	-11.2654
iphone	-11.2656
▁conclut	-11.2657
▁largeur	-11.2659
renne	-11.266
prop	-11.2664
▁lie	-11.2665
▁iran	-11.2669
▁anvers	-11.267
▁qualifiés	-11.267
▁réunis	-11.2677
▁retire	-11.2687
▁pratiquer	-11.269
électronique	-11.2697
▁témoignage	-11.2698
▁régulier	-11.2698
▁décors	-11.2699
▁horm	-11.2703
oto	-11.2707
▁hydro	-11.2708
cot	-11.271
▁polonaise	-11.2711
▁destin	-11.2721
▁one	-11.2722
▁exercé	-11.2723
▁norvégien	-11.273
▁modéré	-11.273
▁migrations	-11.273
▁abandonnée	-11.2735
▁romancier	-11.2735
▁skinhead	-11.2735
▁contacts	-11.2737
▁vaisseau	-11.2737
▁physi	-11.2739
▁croise	-11.2739
▁penseurs	-11.274
tractatus	-11.274
éléphant	-11.274
▁détruire	-11.274
▁friedrich	-11.274
▁posthume	-11.274
▁refuge	-11.274
▁museum	-11.274
▁vapeur	-11.274
▁germanophone	-11.274
▁hasard	-11.2741
▁viv	-11.2741
▁plonge	-11.2741
▁contour	-11.2743
▁évangélique	-11.2744
▁1860	-11.2745
▁beauté	-11.2747
▁rennes	-11.2749
▁spectateurs	-11.275
aix	-11.2751
▁princes	-11.2751
▁visité	-11.2757
▁voisine	-11.2759
▁détruite	-11.276
▁sensiblement	-11.2761
▁agglomérations	-11.2765
▁pleinement	-11.277
tech	-11.2773
▁volontaires	-11.2773
▁proportionnel	-11.2773
▁catalan	-11.2774
baud	-11.2778
pac	-11.2781
▁secrets	-11.2787
ouvrir	-11.2787
▁travaillé	-11.2791
produit	-11.2797
▁prochaine	-11.2797
intention	-11.28
▁intra	-11.2801
logiciel	-11.2802
août	-11.2802
journal	-11.2802
▁patients	-11.2803
▁définies	-11.2805
▁externe	-11.2807
▁théoriques	-11.2808
▁voyelle	-11.2812
▁recense	-11.2813
▁vêtements	-11.2815
▁dar	-11.2816
▁plages	-11.282
▁prépare	-11.2824
▁peuplement	-11.2826
▁ennemi	-11.2826
vingt	-11.2829
conc	-11.2831
▁marques	-11.2831
▁hivers	-11.2838
▁avion	-11.284
établit	-11.284
▁hp	-11.2841
▁régul	-11.2843
▁data	-11.2843
▁absolu	-11.2843
▁adulte	-11.2844
igu	-11.2844
assassin	-11.2845
éthiopie	-11.2847
assemblage	-11.2848
hostilité	-11.2848
▁cousteau	-11.2848
▁singulier	-11.2848
▁toponymie	-11.2848
▁photographe	-11.2848
▁propice	-11.2848
dauphin	-11.2848
▁mystique	-11.2848
▁mensuel	-11.2848
▁trompe	-11.2848
oka	-11.2849
▁annuelles	-11.285
ordonnance	-11.2851
▁négligeable	-11.2851
2)	-11.2853
▁organes	-11.2853
mol	-11.2854
▁certificat	-11.2854
inf	-11.2854
exclusion	-11.2856
▁paraître	-11.2856
▁violation	-11.2858
▁affronte	-11.2858
▁rencontrer	-11.286
▁atome	-11.2862
▁typiquement	-11.2863
▁maz	-11.2866
head	-11.2866
pf	-11.2867
▁avocat	-11.2867
▁imposer	-11.287
▁serveurs	-11.2872
▁debout	-11.2873
▁pala	-11.2875
▁christophe	-11.2881
▁subir	-11.2882
▁contrôlée	-11.2888
▁kra	-11.2891
▁éclat	-11.2892
▁comique	-11.2892
écosse	-11.2893
conduct	-11.29
hara	-11.2902
▁raid	-11.2904
usse	-11.2908
▁apports	-11.2908
mot	-11.2909
énoncé	-11.2911
enfance	-11.2912
▁guéri	-11.2914
▁adversaire	-11.2916
▁discussion	-11.2918
▁comète	-11.292
▁amateur	-11.2921
africaine	-11.2925
▁stades	-11.2926
▁démontrer	-11.2927
▁music	-11.2931
▁remporter	-11.2933
gram	-11.2937
▁collections	-11.2939
▁supposé	-11.2939
▁espér	-11.2944
▁protéines	-11.2949
▁antiquité	-11.295
▁datée	-11.295
▁roc	-11.2952
▁métalliques	-11.2952
▁jamaïcain	-11.2953
▁matériau	-11.2954
▁apprentissage	-11.2954
▁bouddhistes	-11.2955
▁résolu	-11.2956
hospital	-11.2956
herméneutique	-11.2957
inconscient	-11.2957
unanimité	-11.2957
épithète	-11.2957
▁académique	-11.2957
▁alternatif	-11.2957
▁carrefour	-11.2957
▁discrimination	-11.2957
▁représentaient	-11.2957
▁stephen	-11.2957
▁tempête	-11.2957
▁handball	-11.2957
▁fameuse	-11.2957
▁pourcentage	-11.2957
▁analogique	-11.2957
▁spéciaux	-11.2958
horreur	-11.2959
▁momie	-11.2959
▁vaud	-11.2959
▁42	-11.296
▁anneaux	-11.2961
▁quoique	-11.2962
▁1880	-11.2963
oyer	-11.2966
▁architectes	-11.2966
utilis	-11.2967
nin	-11.2967
ambassadeur	-11.2968
▁chaos	-11.297
arrêter	-11.2971
▁aboli	-11.2977
uer	-11.2977
▁lauréat	-11.2977
▁policiers	-11.2978
▁émergent	-11.2978
ford	-11.2979
▁assimil	-11.298
▁mich	-11.2981
▁adopter	-11.2985
▁promu	-11.2986
▁majoritaires	-11.2987
▁honor	-11.2988
game	-11.2989
dite	-11.2993
▁feuilles	-11.2994
▁toit	-11.2995
▁matrice	-11.2995
▁suffisante	-11.2995
▁comètes	-11.2995
▁rencontres	-11.2996
▁monnaies	-11.2998
▁cia	-11.3
▁aime	-11.3002
▁arbre	-11.3006
▁inspire	-11.3009
▁oncle	-11.3013
▁tombes	-11.3016
▁défenseurs	-11.3018
▁avantages	-11.3019
kai	-11.3019
▁pénal	-11.302
▁kong	-11.302
▁difficilement	-11.3024
▁prose	-11.3024
▁déterminé	-11.3026
exécuter	-11.3028
▁transmis	-11.3028
trap	-11.3029
▁nice	-11.3036
▁brou	-11.3037
▁achevé	-11.3038
▁(10	-11.3043
▁inconnu	-11.3044
▁réels	-11.3044
inus	-11.3046
▁réunir	-11.3047
▁put	-11.3049
▁63	-11.3053
▁autorisé	-11.3054
upp	-11.306
▁violents	-11.3066
acquérir	-11.3066
▁constamment	-11.3066
▁dépassant	-11.3066
▁mexico	-11.3066
▁suspension	-11.3066
▁betty	-11.3066
▁crêpe	-11.3066
▁culmine	-11.3066
▁modernisation	-11.3066
▁déménage	-11.3067
▁accède	-11.3067
▁34	-11.3067
▁brahman	-11.3068
▁mongol	-11.3068
▁météo	-11.3068
▁fief	-11.3068
dai	-11.3068
audience	-11.3069
american	-11.3069
▁famine	-11.3069
élevait	-11.307
▁tube	-11.3075
▁consonnes	-11.3076
▁mexicains	-11.308
issi	-11.3083
▁faille	-11.3087
▁atmosphère	-11.3087
▁interdite	-11.3087
▁algérien	-11.3088
▁réunions	-11.309
▁scénarios	-11.3091
anisme	-11.3091
▁aire	-11.3094
abat	-11.3096
▁australie	-11.3096
▁acquise	-11.3098
▁fromages	-11.3102
aro	-11.3104
▁pensent	-11.3105
▁cellulaire	-11.3105
pid	-11.3106
▁éloignée	-11.3116
▁proposant	-11.3117
▁dominent	-11.3117
▁grossi	-11.3119
établissent	-11.312
▁spécialités	-11.3123
▁chu	-11.3124
zen	-11.3126
gno	-11.3126
▁nommer	-11.3126
iro	-11.3128
kō	-11.3129
▁volontaire	-11.3133
▁introduite	-11.3135
▁kant	-11.3137
▁stratégiques	-11.3137
▁championnats	-11.3139
▁fragment	-11.314
▁déterminée	-11.3143
▁susceptible	-11.3144
▁regroupés	-11.3147
▁spécialiste	-11.3148
▁financer	-11.3154
▁continental	-11.3156
▁dénommé	-11.3156
▁étranger	-11.3158
▁offici	-11.3163
vern	-11.3165
▁conventions	-11.3166
kami	-11.3167
également	-11.3168
▁soirée	-11.3169
▁jura	-11.3171
▁attribués	-11.3171
▁rica	-11.3173
▁bénéfices	-11.3173
astéroïde	-11.3174
▁vols	-11.3175
▁librement	-11.3176
thèque	-11.3177
▁barcelone	-11.3178
▁collabore	-11.3178
▁consécutive	-11.3178
▁corrèze	-11.3178
▁dagobert	-11.3178
▁hiéroglyphes	-11.3178
▁indépendamment	-11.3178
▁mozilla	-11.3178
▁mégret	-11.3178
▁primitif	-11.3178
▁quinzaine	-11.3178
▁révéler	-11.3178
▁sculpteur	-11.3178
▁derrida	-11.3178
assistance	-11.3178
▁plainte	-11.3178
▁boîte	-11.3178
abydos	-11.3178
▁anglophone	-11.3178
▁javascript	-11.3178
▁libérer	-11.3178
andalousie	-11.3178
▁monarque	-11.3178
▁1908	-11.3178
▁1901	-11.3178
▁intervenir	-11.318
▁confère	-11.318
▁convaincre	-11.318
▁cycles	-11.3181
▁dvd	-11.3181
▁croisade	-11.3181
nçant	-11.3183
shima	-11.3183
▁succédé	-11.3183
pit	-11.3184
▁information	-11.3184
appeler	-11.3185
▁libye	-11.3186
▁consommée	-11.3187
▁décoration	-11.3187
▁mémoires	-11.3188
nalité	-11.3189
▁sibérie	-11.3191
▁entraînant	-11.3191
▁foule	-11.3192
▁formats	-11.3196
ido	-11.3196
▁leblanc	-11.3198
▁normalement	-11.32
▁abus	-11.32
▁tardif	-11.3203
rois	-11.3203
▁sculptures	-11.3205
▁interview	-11.3206
▁déclarant	-11.3207
artisan	-11.3212
▁brute	-11.3216
▁adjoint	-11.3217
élire	-11.3217
▁top	-11.3219
▁transmise	-11.3219
▁couverte	-11.3224
▁spéciale	-11.3225
affichage	-11.3226
▁découle	-11.3226
cti	-11.3231
chaîne	-11.3241
▁http	-11.3241
▁amour	-11.3249
attitude	-11.3249
▁puissent	-11.3249
3,	-11.3251
lettre	-11.3252
▁politiquement	-11.3257
▁partenaire	-11.3259
▁hill	-11.3264
▁formalis	-11.3264
▁mange	-11.3265
finale	-11.3267
▁sabre	-11.3268
▁150	-11.327
▁générales	-11.3272
▁horloge	-11.3275
▁carolingiens	-11.3277
▁400	-11.3278
étroit	-11.3278
▁ondes	-11.3278
▁récepteurs	-11.3279
▁romane	-11.3279
▁média	-11.328
▁rattache	-11.3281
▁sacrifi	-11.3282
évaluer	-11.3284
esclave	-11.3286
▁reçue	-11.3287
homonymie	-11.329
iconographie	-11.329
infanterie	-11.329
▁cambodge	-11.329
▁divertissement	-11.329
▁ecclésiastique	-11.329
▁génitif	-11.329
▁récupérer	-11.329
▁spiritualité	-11.329
▁tolérance	-11.329
▁vacances	-11.329
mavariable	-11.329
▁concession	-11.329
▁contenir	-11.329
▁pedro	-11.329
indique	-11.329
▁rempart	-11.329
▁tunnel	-11.329
▁award	-11.329
▁cryptographie	-11.329
▁détourne	-11.329
▁cambridge	-11.329
maçon	-11.3291
▁pension	-11.3291
▁bascule	-11.3291
▁couronné	-11.3292
▁1912	-11.3292
▁combattre	-11.3294
_5	-11.3294
▁orientation	-11.3294
bb	-11.3297
rue	-11.3299
▁garantie	-11.33
▁documentation	-11.3302
▁contribua	-11.3303
▁toile	-11.3305
▁morse	-11.3306
▁cave	-11.3306
▁méga	-11.3306
▁votes	-11.3312
▁calculs	-11.3316
▁martial	-11.332
▁associe	-11.332
▁constitués	-11.3325
▁aéroports	-11.3331
▁allé	-11.3331
▁implantée	-11.3337
▁brésilienne	-11.3338
▁lauréats	-11.3339
▁criminel	-11.3341
▁professeurs	-11.3342
▁hôte	-11.3342
▁étudiée	-11.3343
▁str	-11.3343
▁gares	-11.3346
objets	-11.3346
▁gratuite	-11.3347
▁municipale	-11.3352
âtre	-11.3358
▁roy	-11.3359
▁rail	-11.336
zone	-11.336
général	-11.3363
apparence	-11.3363
▁borne	-11.3367
▁exceptionnel	-11.3368
pont	-11.3372
▁diffère	-11.3379
▁égyptiennes	-11.3381
▁anarchistes	-11.3381
champ	-11.3382
omo	-11.3386
▁protocoles	-11.3389
▁gam	-11.3391
organ	-11.3392
nard	-11.3392
gall	-11.3394
▁aéroport	-11.3394
▁parvenir	-11.3395
▁affluents	-11.3399
▁dispositions	-11.3401
▁perfection	-11.3403
▁récompenses	-11.3403
▁catherine	-11.3404
▁douglas	-11.3404
▁reconstruit	-11.3404
▁trentaine	-11.3404
▁disciple	-11.3404
▁disputé	-11.3404
▁lumineuse	-11.3404
▁subdivisions	-11.3404
▁prône	-11.3404
▁hellénistique	-11.3404
▁baroque	-11.3404
▁performant	-11.3404
▁verdun	-11.3404
▁emacs	-11.3404
▁suscité	-11.3404
▁berceau	-11.3404
▁milice	-11.3404
▁picard	-11.3406
▁lettonie	-11.3406
inventaire	-11.3406
▁1895	-11.3407
▁inscriptions	-11.3409
▁carolingienne	-11.3409
▁firent	-11.3411
200	-11.3412
▁teneur	-11.3414
▁fbi	-11.3418
▁constructeur	-11.3424
▁bouton	-11.3425
▁éventuelle	-11.3427
érien	-11.3429
▁perdure	-11.3429
low	-11.3429
▁mand	-11.3431
▁tunisie	-11.3439
▁indes	-11.3441
clair	-11.3445
▁sarcophages	-11.345
eure	-11.3452
▁relatives	-11.3455
▁arm	-11.3456
otte	-11.3458
imagerie	-11.3458
bord	-11.3464
▁instaure	-11.3467
▁dol	-11.3467
▁denis	-11.3474
chimique	-11.3478
christ	-11.348
uki	-11.3481
langage	-11.3484
▁déplace	-11.3484
▁organisme	-11.3485
ink	-11.3489
avère	-11.3491
▁win	-11.3491
▁navire	-11.3493
▁bor	-11.3493
▁cuba	-11.3494
▁alternance	-11.3494
▁volcanique	-11.3494
▁poli	-11.3495
▁décida	-11.3496
▁élargi	-11.3496
▁phénicienne	-11.3497
▁cultivé	-11.3499
▁demanda	-11.3501
▁accueil	-11.3502
▁courses	-11.3509
échantillon	-11.3515
▁tâches	-11.3516
object	-11.3517
▁hebdomadaire	-11.3518
infection	-11.3518
▁abrégé	-11.3518
▁analytique	-11.3518
▁chœur	-11.3518
▁conçoit	-11.3518
▁engendré	-11.3518
▁libéraux	-11.3518
▁migrants	-11.3518
▁morphologie	-11.3518
▁nagasaki	-11.3518
▁palmarès	-11.3518
▁préparatoire	-11.3518
▁préservé	-11.3518
▁subdivisé	-11.3518
▁éliminé	-11.3518
▁époux	-11.3518
synthétique	-11.3519
traducteur	-11.3519
▁sultan	-11.3519
▁ultime	-11.3519
▁contradiction	-11.3519
▁affirmant	-11.3519
▁centriste	-11.3519
▁surfaces	-11.3519
observatoire	-11.3519
kayak	-11.3519
▁natalité	-11.3519
▁boursier	-11.3519
▁révélation	-11.3519
▁brève	-11.352
▁afro	-11.352
▁bohr	-11.352
tam	-11.3521
▁libéralisme	-11.3521
▁barrière	-11.3522
▁tués	-11.3522
incarnation	-11.3525
▁stricte	-11.3525
▁mouton	-11.3526
▁colère	-11.3527
▁baltique	-11.3527
▁endroit	-11.353
▁tam	-11.3531
train	-11.3536
▁dépendent	-11.3538
▁ny	-11.3543
▁err	-11.3551
▁empêche	-11.3552
ôn	-11.3557
anni	-11.3557
▁nationalisme	-11.3563
▁landes	-11.3565
▁produites	-11.3565
▁activement	-11.3575
▁payé	-11.3577
▁baron	-11.3578
▁retrouvée	-11.3579
oiseau	-11.3585
▁mutuelle	-11.3585
▁lourd	-11.3586
▁arn	-11.3587
franc	-11.3587
ika	-11.3588
▁prière	-11.3589
▁centrée	-11.359
▁hathor	-11.359
▁paire	-11.3592
▁représentées	-11.3592
▁écart	-11.3595
▁coule	-11.3596
chon	-11.3596
gauche	-11.3598
▁fermée	-11.3598
▁xv	-11.3601
voyage	-11.3602
▁48	-11.3609
▁conçus	-11.3611
osité	-11.3612
▁semblable	-11.3612
▁policier	-11.3612
ignan	-11.3612
▁relier	-11.3615
▁tuer	-11.3615
▁officier	-11.3619
▁cuir	-11.3619
▁consul	-11.3622
alberta	-11.3624
▁ross	-11.3627
▁franchi	-11.3628
roll	-11.3633
oslo	-11.3635
▁posséder	-11.3635
▁budgétaire	-11.3635
▁conduisent	-11.3635
▁couvrant	-11.3635
▁jamaïque	-11.3635
▁privilégie	-11.3635
▁psychanalytique	-11.3635
▁roumanie	-11.3635
▁terrible	-11.3635
▁évidemment	-11.3635
▁souffle	-11.3635
amstrad	-11.3635
▁positionnement	-11.3635
▁croyant	-11.3635
▁doublé	-11.3635
animisme	-11.3635
▁méridien	-11.3635
▁végétaux	-11.3635
▁monopole	-11.3635
▁samuel	-11.3635
moi	-11.3636
▁bayrou	-11.3636
ommage	-11.3636
▁perdue	-11.3636
▁thot	-11.3638
▁réveil	-11.3639
▁shiva	-11.364
▁abrita	-11.364
▁renouvellement	-11.3641
▁1830	-11.3641
▁réalisme	-11.3642
▁drame	-11.3643
▁séisme	-11.3644
▁reich	-11.3645
▁naître	-11.3647
▁formellement	-11.3651
▁pie	-11.3652
▁croit	-11.3653
▁exprimer	-11.3655
oscar	-11.3657
conf	-11.3657
angola	-11.3658
▁centré	-11.3659
▁absence	-11.3662
work	-11.3663
bulletin	-11.3664
▁dessine	-11.3666
▁exposition	-11.3668
▁fabriquer	-11.3669
▁enregistrée	-11.3673
▁panier	-11.3675
▁rapporté	-11.3675
puis	-11.3676
emplois	-11.3679
▁germaniques	-11.3679
bach	-11.3683
dier	-11.3686
oco	-11.3687
▁accuse	-11.3688
▁excellent	-11.3689
▁aval	-11.3692
▁effectuées	-11.3694
▁milan	-11.3696
▁smith	-11.3696
▁tissu	-11.3702
▁publia	-11.3702
▁identiques	-11.3703
améliore	-11.3706
▁accrue	-11.3706
▁consomme	-11.3707
▁conteste	-11.3711
▁gérée	-11.3712
▁consacrer	-11.3715
hébreu	-11.3716
accéder	-11.3717
commun	-11.3717
interprète	-11.3717
préfecture	-11.3717
wood	-11.3717
octobre	-11.3717
▁37	-11.372
▁initié	-11.372
ancêtre	-11.3721
linux	-11.3725
▁restera	-11.3727
▁renoncer	-11.3728
glob	-11.3732
▁pyramide	-11.3733
accentue	-11.3735
tani	-11.3735
▁maires	-11.3738
anneau	-11.3739
▁entrées	-11.374
▁créa	-11.3743
saxon	-11.3744
▁morceau	-11.375
▁confie	-11.3752
récipiendaire	-11.3752
▁frédéric	-11.3752
▁planétaire	-11.3752
▁plutarque	-11.3752
▁prestigieuse	-11.3752
▁prestigieux	-11.3752
▁prédominan	-11.3752
▁recommandé	-11.3752
▁représentative	-11.3752
▁rénovation	-11.3752
▁répétition	-11.3752
▁sépulture	-11.3752
▁narration	-11.3752
▁flandre	-11.3752
▁communiquer	-11.3752
▁qualification	-11.3753
▁chronologique	-11.3753
▁1904	-11.3753
▁1906	-11.3753
▁venise	-11.3753
▁certes	-11.3753
="20	-11.3754
▁démarque	-11.3755
▁réalisations	-11.3755
▁pèlerinage	-11.3755
▁croire	-11.3755
▁savants	-11.3756
maire	-11.3756
▁dangereux	-11.3756
▁attention	-11.3757
▁garantir	-11.3757
▁lentement	-11.3758
▁alpha	-11.3759
▁connecté	-11.376
▁influent	-11.3764
▁dangereuse	-11.3768
sec	-11.3771
aucune	-11.3773
▁matchs	-11.3775
jet	-11.3778
▁ferdinand	-11.3779
▁extérieures	-11.378
garde	-11.378
isch	-11.3781
▁vénéré	-11.3788
▁coréenne	-11.3788
oubli	-11.3792
chou	-11.3792
▁perçue	-11.3795
▁complémentaires	-11.3799
▁accordée	-11.3799
émigration	-11.3799
étendent	-11.38
▁indiqué	-11.3805
rama	-11.3807
▁menacé	-11.3807
brand	-11.3812
▁trains	-11.3813
▁accepta	-11.3813
agé	-11.3815
▁dénombre	-11.3816
▁larges	-11.3819
over	-11.3822
kk	-11.3823
zel	-11.3824
▁chilien	-11.3827
alter	-11.3827
▁démo	-11.3831
▁syndical	-11.3832
▁rassemblé	-11.3832
▁danoise	-11.3834
▁définitions	-11.3836
▁fonte	-11.3836
économique	-11.3837
▁pratiquants	-11.3838
essence	-11.3842
parole	-11.3844
▁bis	-11.3848
▁candidate	-11.3851
▁tyr	-11.3853
▁revendications	-11.3854
▁archéologique	-11.3855
▁robot	-11.3856
▁étoile	-11.3857
;/	-11.386
▁magique	-11.3861
▁consommateurs	-11.3867
▁contrôlé	-11.3869
occurrence	-11.3871
évêché	-11.3871
▁diplômé	-11.3871
▁déforestation	-11.3871
▁fantasy	-11.3871
▁lumineux	-11.3871
▁lymphocyte	-11.3871
▁memphis	-11.3871
▁motivation	-11.3871
▁neutralité	-11.3871
▁remarqué	-11.3871
▁clotaire	-11.3871
▁forestière	-11.3871
▁dispens	-11.3872
▁codage	-11.3872
▁fertile	-11.3872
▁civique	-11.3872
▁découpé	-11.3872
▁divorce	-11.3872
▁technic	-11.3872
▁référ	-11.3872
▁déclinaison	-11.3872
▁stock	-11.3873
▁septentrionale	-11.3873
assyrie	-11.3873
▁sharon	-11.3873
ardèche	-11.3873
gaz	-11.3874
▁herbert	-11.3874
▁veule	-11.3875
▁experts	-11.3875
▁courrier	-11.3875
▁titan	-11.3877
▁russell	-11.3877
aura	-11.3877
▁localisation	-11.3877
▁commentaires	-11.3878
▁virus	-11.3879
angel	-11.3881
▁contente	-11.3882
▁major	-11.3882
▁rejeté	-11.3887
▁ven	-11.3888
▁plant	-11.3888
▁maîtresse	-11.3888
▁thèses	-11.3889
▁communisme	-11.3892
▁apparus	-11.3894
▁pel	-11.3897
▁évêque	-11.3897
▁renonce	-11.3897
▁situa	-11.3897
▁permanents	-11.3899
▁australien	-11.3901
▁arriver	-11.3904
ello	-11.3906
▁usine	-11.3907
▁progresse	-11.3907
▁expositions	-11.3908
▁fondées	-11.3909
ologues	-11.391
▁times	-11.3912
▁soin	-11.3913
▁ariane	-11.3914
▁spin	-11.3915
▁ouverts	-11.3915
▁irlande	-11.3917
▁bir	-11.392
▁énoncé	-11.3921
▁chevalier	-11.3928
imac	-11.3928
▁artificiel	-11.393
▁mexicain	-11.3933
barb	-11.3934
▁royauté	-11.3938
▁guerriers	-11.3946
▁suédoise	-11.3946
dale	-11.3947
andro	-11.3948
▁voyant	-11.3949
▁comtes	-11.395
▁décoré	-11.3955
▁algorithme	-11.3958
▁musicales	-11.3958
incendie	-11.3959
marseille	-11.3959
associe	-11.396
▁green	-11.396
▁partisan	-11.3962
corps	-11.3962
▁celtes	-11.3963
marine	-11.3963
▁effectuée	-11.3963
▁nout	-11.3963
▁publiquement	-11.3973
▁marqua	-11.3975
▁pauvre	-11.3976
▁vecteur	-11.3978
▁séparé	-11.398
▁catal	-11.398
▁chants	-11.398
yves	-11.3987
évènement	-11.3988
appartement	-11.3988
arithmétique	-11.3992
astérix	-11.3992
▁concrète	-11.3992
▁conservatoire	-11.3992
▁détermination	-11.3992
▁manhattan	-11.3992
▁merveille	-11.3992
▁rigueur	-11.3992
▁scission	-11.3992
▁wilhelm	-11.3992
agression	-11.3992
▁dévoile	-11.3992
▁précieux	-11.3992
▁chartres	-11.3992
▁moore	-11.3992
strauss	-11.3992
▁transmettre	-11.3993
▁faudra	-11.3993
▁guyane	-11.3993
▁engagée	-11.3996
▁rendez	-11.3997
environnementaux	-11.4003
▁athènes	-11.4004
▁wisigoths	-11.401
▁localité	-11.4012
iya	-11.4013
apprendre	-11.4014
▁cinéastes	-11.4014
="19	-11.4017
▁perfor	-11.4017
▁inconnue	-11.4018
amé	-11.4019
▁tabac	-11.4021
▁constaté	-11.4024
▁emprunte	-11.4028
▁valide	-11.4029
phone	-11.4029
opère	-11.403
▁chauds	-11.4032
▁gauloise	-11.4038
rot	-11.4043
▁paysanne	-11.4044
ope	-11.4046
quo	-11.405
▁(6	-11.4052
crypt	-11.4052
▁rob	-11.4055
▁engage	-11.4061
uda	-11.4064
▁1850	-11.4064
affiche	-11.4064
▁opérationnel	-11.4068
▁box	-11.407
▁pet	-11.4071
▁personnelles	-11.4072
▁rétablir	-11.4074
▁placés	-11.4075
▁54	-11.4077
système	-11.4077
▁protégées	-11.4079
▁dynasties	-11.4082
▁minéral	-11.4085
▁orthodoxes	-11.4086
cam	-11.4086
effectuer	-11.4086
comte	-11.4089
post	-11.4092
route	-11.4096
anvers	-11.4098
▁administré	-11.41
▁typiques	-11.4102
▁dépôt	-11.4103
▁spectateur	-11.4103
▁consonne	-11.4103
▁dollar	-11.4104
bie	-11.4106
▁honneur	-11.4106
▁vou	-11.4109
▁relat	-11.411
attente	-11.4113
ppa	-11.4113
dramaturge	-11.4114
▁diaspora	-11.4114
▁hébraïque	-11.4114
▁marketing	-11.4114
▁pompée	-11.4114
▁radicaux	-11.4114
▁répertoire	-11.4114
▁vignoble	-11.4114
▁homogène	-11.4114
▁haïti	-11.4114
▁raisonnement	-11.4114
▁hospitalier	-11.4114
▁soumettre	-11.4114
▁maxwell	-11.4114
▁fréquents	-11.4115
▁préhistorique	-11.4115
▁écosystèmes	-11.4116
▁distingué	-11.4117
▁nuance	-11.4117
▁dommages	-11.4117
▁1894	-11.4117
▁1848	-11.4118
▁fréquentation	-11.412
▁report	-11.412
▁tests	-11.4123
▁trouvant	-11.4126
▁jones	-11.4126
▁rom	-11.4128
▁antérieurs	-11.4131
éveil	-11.4135
noir	-11.4135
▁vins	-11.4138
▁agglomération	-11.414
▁commercialisé	-11.414
rice	-11.4141
wen	-11.4141
ligne	-11.4143
▁suspendu	-11.4146
▁isolée	-11.4146
▁exploitations	-11.4146
▁capet	-11.4147
entoure	-11.4152
poli	-11.4153
▁avancée	-11.4155
effectue	-11.4155
▁dépose	-11.4155
▁macro	-11.4157
▁discussions	-11.4157
▁externes	-11.4161
▁nouveauté	-11.4167
▁sérieuse	-11.4168
▁végétales	-11.4172
▁barque	-11.4177
▁gy	-11.4178
▁assis	-11.4182
▁technologiques	-11.4186
▁dam	-11.4187
ân	-11.4187
▁repli	-11.4188
▁contribuer	-11.4196
▁kana	-11.4199
▁distances	-11.4205
long	-11.4208
cycle	-11.4209
▁écologiques	-11.421
station	-11.4219
▁wal	-11.4224
kou	-11.4224
intégr	-11.4226
▁communale	-11.4227
▁moines	-11.423
▁dispers	-11.4233
▁étienne	-11.4235
gestion	-11.4235
taxi	-11.4236
▁bibliographie	-11.4237
▁costume	-11.4237
▁glaciaire	-11.4237
▁légendaire	-11.4237
▁pandémie	-11.4237
▁protagoniste	-11.4237
▁prévention	-11.4237
oxford	-11.4237
▁barrès	-11.4237
▁poussière	-11.4237
arrestation	-11.4237
▁grandissant	-11.4237
chaussée	-11.4237
▁chevaux	-11.4238
▁bouleverse	-11.4238
▁serbie	-11.4238
▁réformé	-11.4238
▁conservatrice	-11.4238
▁devraient	-11.4238
engager	-11.4239
▁verticale	-11.4239
▁1915	-11.4239
▁comptant	-11.4239
artisanat	-11.424
▁lisp	-11.424
▁frein	-11.4241
▁bénéficié	-11.4242
▁savante	-11.4242
▁intime	-11.4243
▁1789	-11.4243
▁1790	-11.4244
▁sexuelles	-11.4245
▁serpents	-11.4247
▁sensibles	-11.4248
antarctique	-11.4248
▁beat	-11.4252
town	-11.4255
▁tré	-11.4258
▁querelle	-11.4259
▁émerge	-11.426
clin	-11.426
▁invente	-11.4266
▁renommé	-11.4268
▁inscrite	-11.4268
▁fréquenté	-11.4275
▁anniversaire	-11.4277
▁partition	-11.4278
▁existantes	-11.4279
▁réaliste	-11.428
optimisation	-11.428
▁vif	-11.4282
▁queue	-11.4287
osaurus	-11.4288
▁roll	-11.4292
▁illustré	-11.4292
▁souche	-11.4293
how	-11.4293
▁yves	-11.4296
▁wii	-11.4298
▁levée	-11.4298
▁tendent	-11.4304
▁signée	-11.4304
▁initiative	-11.4308
▁rot	-11.4311
hei	-11.4311
formes	-11.432
▁98	-11.4322
asi	-11.4324
zon	-11.4324
▁brest	-11.4325
romain	-11.4326
▁regroupent	-11.4329
▁extrêmes	-11.4331
▁champions	-11.4332
▁alliances	-11.4332
voyant	-11.4335
▁exprimée	-11.4335
arrive	-11.4338
▁attendu	-11.4339
tai	-11.4343
▁dictionnaires	-11.4343
▁paquets	-11.4344
▁postérieure	-11.4346
▁martel	-11.4349
élect	-11.435
▁associa	-11.4356
▁organiques	-11.4357
king	-11.4357
▁médicament	-11.4358
▁condamnés	-11.4358
alliage	-11.4359
▁cadet	-11.436
abstention	-11.4362
amplitude	-11.4362
armistice	-11.4362
impératrice	-11.4362
▁coefficient	-11.4362
▁linguistes	-11.4362
▁précède	-11.4362
▁thaïlandais	-11.4362
▁téléphonie	-11.4362
▁bilingue	-11.4362
▁school	-11.4362
interpréter	-11.4362
▁disposé	-11.4362
▁citation	-11.4363
ensuit	-11.4363
▁évoqua	-11.4364
▁priori	-11.4364
▁exigences	-11.4365
▁définissent	-11.4366
▁approprié	-11.4366
▁entré	-11.4369
▁féministe	-11.4374
▁apporter	-11.4374
▁surmonté	-11.4375
▁actionnaire	-11.4377
’«	-11.4378
▁mix	-11.4379
▁polaire	-11.4386
▁magasins	-11.4387
▁voula	-11.4388
nommé	-11.4389
▁phéniciennes	-11.4391
ovide	-11.4392
▁opposés	-11.4394
▁susceptibles	-11.44
▁fragments	-11.44
▁marée	-11.4401
▁bret	-11.4401
▁confié	-11.4404
▁amon	-11.4404
hésite	-11.4406
loi	-11.4406
▁invention	-11.4407
▁succèdent	-11.4408
▁chair	-11.4412
▁enseignements	-11.4422
imait	-11.4432
▁partant	-11.4432
▁classées	-11.4432
scope	-11.4442
▁disco	-11.4447
enberg	-11.4453
▁hard	-11.4456
production	-11.4458
▁akhenaton	-11.4458
▁contrainte	-11.446
▁instance	-11.4461
catégorie	-11.4462
auguste	-11.4462
▁58	-11.4464
▁opposant	-11.447
intégrer	-11.447
outils	-11.4474
optique	-11.4474
▁mobiles	-11.4479
▁artiste	-11.4482
beau	-11.4485
▁protestant	-11.4487
inconvénient	-11.4489
▁combustion	-11.4489
▁originaux	-11.4489
▁propagation	-11.4489
▁sédimentaire	-11.4489
▁électoraux	-11.4489
▁déportation	-11.4489
▁stanley	-11.4489
▁décalage	-11.4489
pâtisserie	-11.4489
▁résumé	-11.4489
▁ordonne	-11.4489
▁routière	-11.4489
▁profane	-11.4489
▁poussé	-11.4489
▁précieuse	-11.4489
homosexualité	-11.4489
▁trophée	-11.4489
▁commissaire	-11.4489
▁instable	-11.4489
▁entretenu	-11.4489
▁portail	-11.449
▁power	-11.449
▁visual	-11.449
▁pdf	-11.4492
osaka	-11.4492
▁phare	-11.4492
uf	-11.4493
▁appartements	-11.4493
ár	-11.4493
inspirant	-11.4496
▁glisse	-11.4496
▁noble	-11.4498
▁potentiellement	-11.4499
▁amont	-11.45
▁agences	-11.4501
▁informe	-11.4503
▁cpc	-11.4504
▁fusil	-11.4507
▁progressiste	-11.4507
hydro	-11.4507
▁lcr	-11.4508
▁tardivement	-11.4511
▁équilibre	-11.4512
▁massivement	-11.4516
▁menaces	-11.4516
▁fournie	-11.4517
▁fasse	-11.4519
▁ménage	-11.4521
▁rapproché	-11.4521
▁benoît	-11.4522
▁détaillée	-11.4525
européennes	-11.4529
▁relate	-11.4529
▁limitées	-11.453
▁utilis	-11.4534
▁rapprocher	-11.4541
▁mik	-11.4545
▁immédiate	-11.4545
▁rencontrent	-11.4551
▁96	-11.4552
▁?"	-11.4554
épée	-11.4556
▁particulières	-11.4559
▁fabricants	-11.4565
▁thor	-11.4568
lock	-11.4568
▁180	-11.457
▁boissons	-11.4572
▁anciennement	-11.4576
▁certainement	-11.4576
▁africaines	-11.4578
▁justifier	-11.4585
▁fm	-11.4587
▁anime	-11.4587
▁pratiquent	-11.459
▁possessions	-11.459
envoyer	-11.4592
▁ingénieurs	-11.4592
atteindre	-11.4592
philippe	-11.4593
▁profondes	-11.4596
▁chou	-11.4596
▁bain	-11.4599
▁transformée	-11.46
arrête	-11.4601
omique	-11.4602
▁ducs	-11.4605
▁renverse	-11.4605
asso	-11.4606
▁fondements	-11.4607
oda	-11.4609
▁exil	-11.461
▁durs	-11.4614
anthropologue	-11.4614
ascendance	-11.4617
essayiste	-11.4617
hydrazine	-11.4617
implémentation	-11.4617
▁diagnostic	-11.4617
▁extraordinaire	-11.4617
▁paradigme	-11.4617
▁programmé	-11.4617
▁varsovie	-11.4617
▁vladimir	-11.4617
▁batterie	-11.4617
▁berbère	-11.4617
▁veuve	-11.4617
implication	-11.4617
▁complice	-11.4617
▁incarné	-11.4617
▁subsaharienne	-11.4617
▁insulaire	-11.4617
▁conducteur	-11.4617
▁sierra	-11.4618
▁adhère	-11.4619
▁chamane	-11.4619
▁garçon	-11.4619
▁bouddhiste	-11.4619
▁renouvelable	-11.4619
▁beach	-11.4619
▁critère	-11.4619
égide	-11.462
ndustrialisation	-11.462
▁céder	-11.462
▁collaborateurs	-11.4621
ardenne	-11.4621
▁résultant	-11.4622
▁bénéficiant	-11.4622
▁attentats	-11.4623
▁reconstituer	-11.4626
▁hesse	-11.4628
▁inversement	-11.4629
▁désordre	-11.4629
▁messagerie	-11.4632
▁incite	-11.4635
▁visuel	-11.4637
opolis	-11.4637
▁letton	-11.4638
▁équivalente	-11.4641
iva	-11.4645
▁intermédiaires	-11.4648
osa	-11.4649
▁achevée	-11.4651
wat	-11.4651
▁introduction	-11.4654
▁gardé	-11.4657
▁établies	-11.4657
▁calme	-11.4658
▁wood	-11.4658
▁concernés	-11.4661
▁arme	-11.4661
human	-11.4663
emb	-11.4666
▁alcatel	-11.4669
intéresser	-11.4669
stad	-11.4677
onné	-11.4678
égal	-11.4682
▁tarte	-11.4684
▁tai	-11.4686
▁brique	-11.4688
▁paires	-11.4689
▁signer	-11.4696
▁modul	-11.4696
uter	-11.4703
vez	-11.4704
▁violent	-11.4704
▁indépendantiste	-11.4705
gha	-11.4713
hand	-11.4713
▁caché	-11.4716
attend	-11.4718
▁multiplie	-11.4723
automobile	-11.4723
▁évit	-11.4723
avocat	-11.4724
premier	-11.4724
chapelle	-11.4724
harmonie	-11.4725
tête	-11.4725
▁prononcée	-11.4726
version	-11.4727
conseil	-11.4728
chrétien	-11.473
fan	-11.4731
▁métrique	-11.4731
▁turc	-11.4731
▁puni	-11.4732
critique	-11.4733
▁comparé	-11.4735
prix	-11.4739
▁demeurent	-11.4742
▁pau	-11.4742
▁venait	-11.4742
intercommunalité	-11.4747
obstacle	-11.4747
▁babylonie	-11.4747
▁conduisant	-11.4747
▁conquérant	-11.4747
▁disparaissent	-11.4747
▁protectorat	-11.4747
▁ptolémée	-11.4747
▁sculpté	-11.4747
▁analysé	-11.4747
▁meeting	-11.4747
▁scribe	-11.4747
▁blender	-11.4747
▁matérialis	-11.4747
▁hydrographie	-11.4747
▁prestation	-11.4747
▁germano	-11.4747
▁cardinal	-11.4747
▁équatoriale	-11.4748
▁crème	-11.4748
▁ernest	-11.4748
▁liévin	-11.475
▁doubs	-11.475
▁mpf	-11.475
▁importations	-11.475
▁1000	-11.4751
▁balance	-11.4752
▁bénéfice	-11.4752
▁manuscrit	-11.4752
▁domestique	-11.4752
▁indigène	-11.4753
▁législative	-11.4753
▁métallique	-11.4753
élimination	-11.4756
▁fred	-11.4757
ibm	-11.4757
expert	-11.4758
▁offensive	-11.4758
▁initiatives	-11.4763
▁sépara	-11.4765
gat	-11.4767
▁rendement	-11.4771
▁tue	-11.4773
gp	-11.4775
▁déplacer	-11.4776
▁constructeurs	-11.478
abou	-11.4787
▁envisagé	-11.4788
▁affluent	-11.4788
rian	-11.4791
▁armés	-11.4791
▁alimente	-11.4792
frère	-11.4799
encre	-11.48
▁minimale	-11.4805
▁météorites	-11.4814
éclairage	-11.4816
▁spectre	-11.4819
mam	-11.4824
▁offrir	-11.4824
▁talents	-11.4828
▁pluri	-11.4837
fenêtre	-11.4841
électro	-11.4841
▁bag	-11.4844
▁recev	-11.4845
▁terminé	-11.4855
▁fat	-11.4856
▁privilèges	-11.4856
illustre	-11.4856
antoine	-11.4857
examen	-11.4857
gur	-11.4857
▁raf	-11.4861
▁affiché	-11.4863
▁gag	-11.4864
▁sacre	-11.4864
▁motor	-11.4864
med	-11.4864
▁chante	-11.4867
▁souterrain	-11.4867
basic	-11.4869
▁ravi	-11.4874
▁démocrates	-11.4875
archevêque	-11.4879
embouchure	-11.4879
▁accessoire	-11.4879
▁analogue	-11.4879
▁doctorat	-11.4879
▁vatican	-11.4879
▁assurant	-11.4879
▁précoce	-11.4879
▁multinationale	-11.4879
▁covid	-11.4879
▁symétrique	-11.4879
ennemi	-11.488
▁ronde	-11.488
▁puits	-11.488
▁perturbations	-11.4881
▁triangle	-11.4881
▁consulat	-11.4881
▁antilles	-11.4881
arrange	-11.4881
play	-11.4882
▁miami	-11.4882
▁canidé	-11.4882
▁propage	-11.4882
▁1899	-11.4884
▁persécution	-11.4885
accompagnement	-11.4886
▁limitation	-11.4887
▁innovations	-11.4888
▁dépôts	-11.4891
_4	-11.4893
▁marxiste	-11.4894
aller	-11.4896
géo	-11.4907
kara	-11.4908
▁carburant	-11.4911
▁desservie	-11.4919
▁62	-11.4922
▁solo	-11.4923
▁ouvertement	-11.4927
▁figuré	-11.4927
gard	-11.4929
▁bulle	-11.493
▁promet	-11.493
▁120	-11.4931
▁morphèmes	-11.4933
▁exercer	-11.4935
▁aéro	-11.4937
adapte	-11.494
▁adaptés	-11.4942
oïde	-11.4945
▁intellectuel	-11.4948
▁"*	-11.495
▁bata	-11.4952
▁emplacement	-11.4953
▁aboutir	-11.4954
▁fonctionnelle	-11.4959
▁disparue	-11.4964
jō	-11.4965
him	-11.4966
▁souhaitent	-11.4966
▁illégale	-11.4969
▁gay	-11.497
▁occupés	-11.4972
▁stéréotypes	-11.4975
▁canne	-11.4976
▁menu	-11.4977
▁slaves	-11.4979
militaire	-11.4992
cœur	-11.4993
▁effective	-11.5
▁génère	-11.5004
identifier	-11.5004
introduir	-11.5004
▁portables	-11.5006
oku	-11.5006
▁plumes	-11.501
▁affirmé	-11.5012
▁certitude	-11.5012
▁chiffré	-11.5012
▁implicite	-11.5012
▁interrogé	-11.5012
▁lisbonne	-11.5012
▁postérité	-11.5012
▁samouraïs	-11.5012
▁saussure	-11.5012
▁syntaxique	-11.5012
▁poitou	-11.5012
▁fanzine	-11.5012
▁modernité	-11.5012
▁paiement	-11.5012
▁ravage	-11.5012
▁soufre	-11.5012
▁cratère	-11.5012
anarchie	-11.5012
▁vau	-11.5012
▁accentué	-11.5012
▁poudre	-11.5013
▁zinc	-11.5013
▁antonio	-11.5013
▁amoureux	-11.5014
▁couvent	-11.5014
▁datation	-11.5014
▁(9	-11.5017
▁zoo	-11.5018
▁généralité	-11.5018
endroit	-11.5018
▁torture	-11.502
▁sentir	-11.5023
▁migration	-11.5024
▁mystère	-11.5024
▁cédé	-11.5025
▁appris	-11.5026
▁magie	-11.5027
▁sénateur	-11.503
iaque	-11.503
affrontement	-11.5031
▁56	-11.5033
▁convaincu	-11.5033
▁chevaliers	-11.5033
ferrand	-11.5034
hérésie	-11.5034
▁lourdes	-11.5035
▁fréquentes	-11.5036
▁rentre	-11.5037
▁volcaniques	-11.5043
▁vendée	-11.5046
▁symbolis	-11.5047
▁ballet	-11.5052
▁exemplaire	-11.5055
▁quadri	-11.5057
éliminer	-11.5062
▁évoluent	-11.5063
lab	-11.5069
▁ouvrir	-11.5069
▁élabore	-11.5074
▁minoritaires	-11.5074
pc	-11.5074
▁critiquée	-11.5075
▁(11	-11.5078
▁indonésie	-11.5079
▁émet	-11.5083
▁fondement	-11.5085
▁bouches	-11.5093
▁retrouvés	-11.5093
▁durablement	-11.5093
▁uniforme	-11.5095
tum	-11.5096
▁spéciales	-11.5097
▁menacées	-11.5098
'[[	-11.5102
▁inaugurée	-11.5117
▁désignés	-11.5118
▁portion	-11.5118
▁profiter	-11.5119
▁autorisée	-11.5119
▁fal	-11.5121
▁monastères	-11.5124
export	-11.5127
▁visuelle	-11.5128
héraclès	-11.5129
alfred	-11.5129
▁achève	-11.5136
▁collègues	-11.5138
▁accepter	-11.5141
oïdes	-11.5143
▁confirmée	-11.5143
▁peuplées	-11.5145
▁ministériel	-11.5147
▁portefeuille	-11.5147
abstraction	-11.5147
disciplinaire	-11.5147
explorateur	-11.5147
électorat	-11.5147
▁amérindienne	-11.5147
▁cicéron	-11.5147
▁collision	-11.5147
▁communiqué	-11.5147
▁correctement	-11.5147
▁dépouille	-11.5147
▁honduras	-11.5147
▁mœurs	-11.5147
▁possédait	-11.5147
▁rejoignent	-11.5147
▁relevant	-11.5147
▁symptôme	-11.5147
▁typologie	-11.5147
▁allusion	-11.5147
▁vedette	-11.5147
▁mépris	-11.5147
▁métaphore	-11.5147
▁mersenne	-11.5147
▁humaniste	-11.5147
▁salut	-11.5148
▁créature	-11.5148
▁confér	-11.515
▁poule	-11.515
▁#	-11.515
irm	-11.5151
▁interprétée	-11.5151
▁transfér	-11.5153
▁grille	-11.5156
▁carolingien	-11.5157
▁compilateurs	-11.5159
▁registres	-11.5159
=21	-11.5159
▁plaques	-11.516
▁rattachement	-11.5162
organismes	-11.5162
▁golf	-11.5163
éloge	-11.5168
ncèrent	-11.5169
▁magiques	-11.5171
astre	-11.5172
nuclé	-11.5173
▁solides	-11.5177
▁lituanie	-11.5178
▁mig	-11.5179
▁800	-11.5179
▁neveu	-11.518
▁pill	-11.518
▁tang	-11.5182
▁kin	-11.5183
▁passionné	-11.5186
▁généralisation	-11.5188
▁inhumée	-11.5188
hiro	-11.5191
▁météorologiques	-11.5192
aisne	-11.5196
▁moine	-11.5197
chemin	-11.5197
▁géorgien	-11.5201
▁arrivés	-11.5206
argile	-11.5206
wy	-11.5207
cours	-11.5208
▁élaborée	-11.5211
face	-11.5216
▁ascii	-11.5216
ministre	-11.5217
▁taxon	-11.5217
combe	-11.5218
▁algérie	-11.522
▁témoins	-11.5225
▁confiée	-11.5225
▁tenta	-11.5231
▁quittent	-11.5239
▁réalisa	-11.5245
▁vendues	-11.5253
▁dioxy	-11.5253
▁écologie	-11.5256
riot	-11.5256
▁déportés	-11.5257
▁patin	-11.5257
▁séquences	-11.526
▁nourrir	-11.5262
▁sushis	-11.5264
▁dresse	-11.5269
▁moto	-11.5271
▁procure	-11.5271
▁télévisé	-11.5274
sauf	-11.5274
▁phénicie	-11.5275
depuis	-11.5275
aca	-11.5277
cola	-11.5277
▁loge	-11.5277
épidémie	-11.528
collaborateur	-11.528
flexion	-11.5281
titre	-11.5281
▁commémor	-11.5284
angoulême	-11.5284
approbation	-11.5284
▁botswana	-11.5284
▁chypre	-11.5284
▁exhaustive	-11.5284
▁fertilité	-11.5284
▁gigantesque	-11.5284
▁kennedy	-11.5284
▁satisfaire	-11.5284
▁satisfait	-11.5284
▁1871	-11.5284
▁bétail	-11.5284
▁guitare	-11.5284
▁logistique	-11.5284
▁renversé	-11.5284
▁géographe	-11.5284
▁ethernet	-11.5284
éruption	-11.5284
▁géopolitique	-11.5284
▁oublier	-11.5284
▁livonie	-11.5284
▁dégradé	-11.5284
▁générer	-11.5284
▁contrée	-11.5284
▁décimal	-11.5284
▁disney	-11.5285
▁saké	-11.5285
▁turcs	-11.5286
aragon	-11.5286
▁battre	-11.5287
▁shogunat	-11.5287
▁vivaient	-11.5288
▁fibre	-11.5288
▁afghanistan	-11.529
oiseaux	-11.529
▁canard	-11.529
▁1815	-11.529
▁malais	-11.5292
▁walter	-11.5293
▁définitif	-11.5295
▁souterraine	-11.5296
▁vecteurs	-11.53
▁lewis	-11.5303
isra	-11.5303
▁consistant	-11.5304
▁soldat	-11.5305
▁arctique	-11.5307
▁métallurgie	-11.5309
▁sushi	-11.531
▁syndicat	-11.5311
rock	-11.5312
hébergement	-11.5314
▁arbitraire	-11.5315
▁plante	-11.5318
▁haye	-11.5322
▁perce	-11.5324
▁hébreu	-11.5327
▁ressenti	-11.5328
▁command	-11.5328
▁600	-11.5332
▁culinaires	-11.5333
▁aigu	-11.5336
▁domin	-11.5336
▁réguliers	-11.5341
▁augustin	-11.5344
▁optim	-11.5346
▁hue	-11.5346
▁recouvert	-11.5349
▁manger	-11.5351
▁patri	-11.5354
▁gif	-11.5357
▁sortent	-11.5358
▁équipés	-11.5361
▁diriger	-11.5364
obi	-11.5366
▁baptis	-11.5366
▁chauff	-11.5367
born	-11.5367
▁carrés	-11.5373
urban	-11.5374
▁colonnes	-11.5374
▁formel	-11.5375
▁conservent	-11.5376
porteuse	-11.5377
orateur	-11.5377
▁explore	-11.539
df	-11.5394
apollon	-11.5394
enseigne	-11.5398
▁amplificateurs	-11.5399
▁1,5	-11.5401
compositeur	-11.5407
▁barbe	-11.5407
athènes	-11.5409
technique	-11.5409
hyper	-11.5412
▁casque	-11.5415
uchi	-11.5418
économiste	-11.5419
enfer	-11.5419
▁précéd	-11.542
duché	-11.542
▁garçons	-11.5421
▁âgée	-11.5422
▁chrono	-11.5423
athlétisme	-11.5423
inscrire	-11.5423
élévation	-11.5423
▁armoiries	-11.5423
▁catalogue	-11.5423
▁chiropratique	-11.5423
▁confrontation	-11.5423
▁empirique	-11.5423
▁instauré	-11.5423
▁jésuite	-11.5423
▁marchais	-11.5423
audiovisuel	-11.5423
▁grégorien	-11.5423
▁promesse	-11.5423
▁camarade	-11.5423
▁gouverné	-11.5423
▁neustrie	-11.5423
▁félins	-11.5423
▁brown	-11.5423
▁janeiro	-11.5423
▁psychique	-11.5423
▁tumeur	-11.5423
érable	-11.5423
▁1907	-11.5424
▁missionnaires	-11.5424
▁1916	-11.5425
▁pluvi	-11.5425
▁alchimique	-11.5425
▁confondre	-11.5426
▁harris	-11.5426
▁rachat	-11.5427
histo	-11.5428
entourage	-11.5428
▁habitudes	-11.5428
différ	-11.5428
assaut	-11.5429
▁manœuvre	-11.5429
▁piano	-11.543
albert	-11.543
▁finir	-11.5435
▁fluides	-11.5436
▁lointain	-11.5436
▁macron	-11.5437
▁conquis	-11.5437
opep	-11.5439
▁exécutions	-11.5439
ouf	-11.5442
▁couvrir	-11.5442
▁autrichienne	-11.5443
▁étroitement	-11.5445
▁monastère	-11.5447
▁sand	-11.5449
▁espéranto	-11.5452
▁entourée	-11.5453
aph	-11.5459
▁alliées	-11.5467
▁déclarent	-11.5469
▁instruction	-11.5471
▁identifiée	-11.5471
▁(13	-11.5472
arlette	-11.5472
isolement	-11.5483
▁concentré	-11.5489
pra	-11.549
▁guill	-11.549
▁théologien	-11.5497
gni	-11.5498
▁thu	-11.5502
▁sommeil	-11.5503
▁notée	-11.5505
▁file	-11.5509
▁axé	-11.551
▁rude	-11.5511
endra	-11.5514
▁volcans	-11.5518
▁antonin	-11.5518
▁entraînent	-11.5522
nova	-11.5524
▁clandestin	-11.5527
viendra	-11.5544
fasci	-11.5547
▁renforcé	-11.5547
▁codé	-11.5549
arctique	-11.555
effondre	-11.5551
offensive	-11.5551
▁adsl	-11.5552
immeuble	-11.556
inondation	-11.556
▁alan	-11.5563
▁visée	-11.5564
envergure	-11.5564
▁absorbé	-11.5564
▁brièvement	-11.5564
▁caucase	-11.5564
▁condorcet	-11.5564
▁emprisonné	-11.5564
▁périphérie	-11.5564
▁québécois	-11.5564
▁requête	-11.5564
▁rwanda	-11.5564
▁tallinn	-11.5564
▁arendt	-11.5564
▁company	-11.5564
▁modalités	-11.5564
▁gisements	-11.5564
▁square	-11.5564
▁gouvernance	-11.5564
▁sauvegarde	-11.5564
▁ptah	-11.5564
▁scalaire	-11.5564
▁mâle	-11.5564
▁contrepartie	-11.5564
▁aquatique	-11.5564
▁réplique	-11.5564
▁rumeur	-11.5565
▁garnison	-11.5565
intégrité	-11.5565
▁stèle	-11.5566
▁requis	-11.5566
▁amplificateur	-11.5567
▁dixième	-11.5568
▁palette	-11.5568
▁instances	-11.557
▁coûteux	-11.5571
imagination	-11.5571
intégralité	-11.5572
▁autoroutes	-11.5573
▁garantit	-11.5575
électeur	-11.5575
▁renforcée	-11.5581
▁gratuitement	-11.5581
▁sérieux	-11.5582
▁utilisable	-11.5583
▁platine	-11.5587
haut	-11.5588
isso	-11.5589
▁hôpitaux	-11.5589
▁semblables	-11.5592
▁nazi	-11.5592
▁proposées	-11.5596
▁varier	-11.5599
▁"[[	-11.56
▁cern	-11.5603
▁attribuer	-11.5604
▁dépendante	-11.5606
▁caill	-11.5612
▁résistants	-11.5618
▁inverse	-11.5619
▁adoptent	-11.5625
conte	-11.5626
▁antérieures	-11.5628
estuaire	-11.5629
poi	-11.563
▁couronnement	-11.5631
amende	-11.5632
nob	-11.5635
▁supposée	-11.5636
▁anarchiste	-11.564
▁concentrée	-11.5642
philosoph	-11.5643
▁aisée	-11.5647
asile	-11.5649
▁diversifié	-11.5659
▁débuté	-11.566
ménag	-11.566
▁complété	-11.5661
bir	-11.5661
▁néerlandaises	-11.5663
mandant	-11.5665
▁animée	-11.5668
▁ev	-11.5672
▁népal	-11.5682
▁fum	-11.5687
wo	-11.5692
impliqu	-11.5693
▁grim	-11.5695
démocrate	-11.5696
étape	-11.5696
alexandre	-11.5697
étymologie	-11.5697
avril	-11.5698
souvent	-11.5698
▁concour	-11.5698
▁marchand	-11.57
▁conjoint	-11.5706
installa	-11.5706
▁écoute	-11.5706
▁ralenti	-11.5707
ambiguïté	-11.5707
humidité	-11.5707
intersection	-11.5707
▁attaqué	-11.5707
▁baptême	-11.5707
▁boîtier	-11.5707
▁comptoir	-11.5707
▁criminalité	-11.5707
▁cérébral	-11.5707
▁dégâts	-11.5707
▁fidélité	-11.5707
▁fraîche	-11.5707
▁grégoire	-11.5707
▁inutile	-11.5707
▁réglementation	-11.5707
▁terminologie	-11.5707
hérault	-11.5707
▁palestine	-11.5707
▁laguiller	-11.5707
▁offrant	-11.5707
▁vassaux	-11.5707
▁réclama	-11.5707
monsieur	-11.5707
▁hydroélectrique	-11.5707
▁forestier	-11.5707
▁naissant	-11.5707
hotep	-11.5707
▁quimper	-11.5707
▁clôture	-11.5707
▁trajet	-11.5707
▁gagnant	-11.5707
▁résida	-11.5707
vignette	-11.5708
▁bioéthique	-11.5708
▁volont	-11.5709
efface	-11.571
▁osirien	-11.571
▁épices	-11.5711
▁affrontements	-11.5711
▁1885	-11.5712
▁ateliers	-11.5712
▁constituante	-11.5712
▁remplaçant	-11.5714
ophones	-11.5716
▁retourner	-11.5717
▁boris	-11.5717
▁flamand	-11.5717
▁brutus	-11.5718
utilité	-11.5719
▁billets	-11.572
=15	-11.5721
habit	-11.5721
▁industrialisé	-11.5721
▁renforcement	-11.5725
▁prolongement	-11.5728
▁partager	-11.5728
▁crois	-11.573
venaient	-11.5734
▁alsace	-11.5738
▁secours	-11.5742
▁progress	-11.5743
▁bombardements	-11.5743
amm	-11.5744
▁georg	-11.5744
▁préfèrent	-11.5745
étain	-11.5748
▁essence	-11.5749
▁autorisés	-11.5753
▁toucher	-11.5757
▁74	-11.5758
orage	-11.5761
▁capitalisme	-11.5761
▁amd	-11.5763
▁norman	-11.5768
▁complétée	-11.5769
▁muet	-11.5778
▁assurent	-11.5779
▁relèvent	-11.5792
▁minier	-11.5797
▁nba	-11.5798
▁immigrants	-11.5798
▁asimov	-11.5801
▁aéronautique	-11.581
jam	-11.5811
▁magistrats	-11.5812
note	-11.5816
▁tab	-11.5818
▁régiment	-11.582
▁crainte	-11.582
▁entraîner	-11.5822
yorkais	-11.5827
tendant	-11.5829
▁institutionnel	-11.5832
polo	-11.5836
aco	-11.5842
fichier	-11.5843
intel	-11.5843
micro	-11.5845
▁ferré	-11.5847
▁gold	-11.5849
▁diffuser	-11.5849
▁eric	-11.5851
▁afghan	-11.5851
adhérents	-11.5852
avortement	-11.5852
immobilier	-11.5852
▁asymétrique	-11.5852
▁champollion	-11.5852
▁codifié	-11.5852
▁célébrité	-11.5852
▁morphologique	-11.5852
▁permanence	-11.5852
▁poursuivent	-11.5852
▁remporta	-11.5852
▁télescope	-11.5852
affranchi	-11.5852
▁danube	-11.5852
▁faillite	-11.5852
▁carthage	-11.5852
▁squelette	-11.5852
▁théoricien	-11.5852
▁adepte	-11.5852
▁brabant	-11.5852
▁donald	-11.5852
▁homologue	-11.5852
▁agraire	-11.5852
▁tambour	-11.5852
▁interrompu	-11.5852
▁marquis	-11.5852
▁souple	-11.5852
▁bueno	-11.5852
▁restauré	-11.5852
urier	-11.5853
▁1902	-11.5853
▁belfort	-11.5853
▁instant	-11.5853
aliser	-11.5854
▁avéré	-11.5855
accroître	-11.5855
▁boston	-11.5855
▁préposition	-11.5855
▁1898	-11.5856
mari	-11.5857
▁chacal	-11.5858
▁rebelles	-11.5858
▁épreuve	-11.586
▁adopt	-11.5861
▁transmet	-11.5866
▁johnson	-11.5867
inclusion	-11.5868
▁rassembler	-11.5873
▁meuse	-11.5876
▁gravi	-11.5878
▁canonique	-11.5879
énonce	-11.588
sèvres	-11.5881
▁tract	-11.5885
▁steven	-11.5886
nger	-11.5887
▁sûre	-11.5887
▁floue	-11.589
▁originelle	-11.5895
▁virtuelle	-11.5896
▁diversifiée	-11.59
▁déposée	-11.5905
idae	-11.5914
maj	-11.5915
midi	-11.5919
▁acceptée	-11.592
▁vic	-11.592
▁abordé	-11.5925
▁émetteur	-11.5927
▁agent	-11.5928
▁arabo	-11.5928
▁apportent	-11.593
élever	-11.5936
▁agro	-11.5939
▁avenue	-11.5942
▁byzantine	-11.5944
▁observer	-11.5946
▁sauver	-11.595
▁retrouva	-11.5951
▁échapper	-11.5957
▁mér	-11.5962
▁décrivent	-11.5965
▁préciser	-11.5965
▁remportent	-11.5967
▁kde	-11.5969
▁affirment	-11.597
▁péd	-11.5977
▁familial	-11.5985
▁geb	-11.5987
expédition	-11.5991
occitan	-11.5991
physique	-11.5992
quartier	-11.5993
étudier	-11.5993
source	-11.5994
▁jane	-11.5998
héraldique	-11.5999
▁commonwealth	-11.5999
▁coordination	-11.5999
▁foncier	-11.5999
▁parenthèses	-11.5999
▁pellicule	-11.5999
▁recommande	-11.5999
▁repoussé	-11.5999
▁salvador	-11.5999
▁tokugawa	-11.5999
▁remontant	-11.5999
▁restaurer	-11.5999
▁annonça	-11.5999
attaquant	-11.5999
▁exportateur	-11.5999
▁accueillent	-11.5999
▁caricatur	-11.5999
▁raoul	-11.5999
▁racisme	-11.5999
▁nippon	-11.5999
▁popularisé	-11.5999
▁détache	-11.5999
▁couloir	-11.5999
ajustement	-11.5999
▁texas	-11.6
▁nigeria	-11.6
oasis	-11.6
▁vincent	-11.6
▁indicateurs	-11.6002
▁descente	-11.6003
▁capitalisation	-11.6003
▁fenêtres	-11.6003
▁jamaïcaine	-11.6004
▁ancré	-11.6007
▁loir	-11.6009
▁compagnons	-11.6009
▁allan	-11.6009
▁prétexte	-11.601
▁nécessitant	-11.601
▁aménagements	-11.6011
▁alimenté	-11.6011
ador	-11.6011
▁kurt	-11.6012
▁mentale	-11.6013
=23	-11.6013
▁controversée	-11.6015
▁volontairement	-11.6015
télé	-11.6017
▁newton	-11.6018
▁marx	-11.6023
▁tch	-11.6028
▁hokkaidō	-11.603
▁intégrer	-11.603
▁madeleine	-11.6032
▁harmonie	-11.6034
bâ	-11.6036
▁marchande	-11.6039
▁consist	-11.6039
agisse	-11.6042
▁phénicien	-11.6042
étage	-11.6044
▁régulation	-11.6047
hésit	-11.6048
▁apollinaire	-11.6049
▁rire	-11.6051
▁plage	-11.6054
▁importe	-11.6056
loir	-11.6056
▁mill	-11.6067
▁identifier	-11.6069
▁profitant	-11.6071
het	-11.6073
▁ruines	-11.6078
igan	-11.6078
▁échappe	-11.6087
épaisseur	-11.6091
▁contesté	-11.6092
▁bp	-11.6092
empare	-11.6098
▁finno	-11.6104
▁otto	-11.6113
▁77	-11.6123
▁congé	-11.6124
▁consult	-11.6126
ythm	-11.6132
▁habite	-11.6134
▁hein	-11.6136
nouvelle	-11.614
aider	-11.614
importation	-11.6144
#	-11.6144
gouvernement	-11.6146
▁terroristes	-11.6147
surtout	-11.6148
encyclopédie	-11.6148
▁algébrique	-11.6148
▁annulé	-11.6148
▁bouddha	-11.6148
▁détection	-11.6148
▁généalogique	-11.6148
▁habsbourg	-11.6148
▁insuffisant	-11.6148
▁prairies	-11.6148
▁représentatif	-11.6148
▁suzuki	-11.6148
▁étrusque	-11.6148
▁mayennais	-11.6148
▁zurich	-11.6148
▁prévision	-11.6148
▁donjon	-11.6148
▁glaciers	-11.6148
▁bâton	-11.6148
▁vosges	-11.6148
▁détaché	-11.6148
▁animiste	-11.6148
▁régénér	-11.6148
▁chauve	-11.6148
▁clause	-11.6148
▁flottant	-11.6148
packard	-11.6149
▁sartre	-11.6149
▁essaye	-11.6149
▁1909	-11.6149
▁castres	-11.6149
héliopolis	-11.6149
▁progressif	-11.6149
▁estimant	-11.615
▁complot	-11.615
▁convoi	-11.6151
orientales	-11.6152
valoir	-11.6152
▁single	-11.6152
chimie	-11.6152
▁cohabitation	-11.6153
▁œufs	-11.6155
▁fermat	-11.6155
▁entendre	-11.6156
▁turing	-11.6157
intéress	-11.6162
▁farine	-11.6162
▁gene	-11.6163
▁turque	-11.6168
allonge	-11.6168
rome	-11.6169
▁ingénieur	-11.6171
▁socialisme	-11.6171
▁rita	-11.6172
▁radicalement	-11.6174
rôle	-11.6176
▁mythologiques	-11.6178
▁pieux	-11.6181
selon	-11.6184
▁paroi	-11.6187
▁honoré	-11.6194
▁fossile	-11.6194
▁déclarée	-11.6202
1,2	-11.6203
0)	-11.6206
administrateur	-11.6208
moto	-11.6213
▁fournisseurs	-11.6214
ensis	-11.6216
▁ratio	-11.6234
wald	-11.6238
articule	-11.624
▁primordial	-11.6243
taka	-11.6243
▁bordée	-11.6251
▁foie	-11.6254
four	-11.6258
▁indiquer	-11.6258
▁jim	-11.6265
aussi	-11.6267
▁175	-11.6269
▁centralisé	-11.6272
▁arriva	-11.6275
▁johann	-11.628
slav	-11.6287
▁débarque	-11.6287
▁causée	-11.6288
▁baisser	-11.6292
accusation	-11.6295
nazi	-11.6297
officier	-11.6298
adversaire	-11.6298
capitale	-11.6299
▁apparemment	-11.6299
▁babylone	-11.6299
▁citoyenneté	-11.6299
▁eucaryotes	-11.6299
▁fédéré	-11.6299
▁héréditaire	-11.6299
▁imaginé	-11.6299
▁investisseurs	-11.6299
▁minuscule	-11.6299
▁multiplié	-11.6299
▁mélodie	-11.6299
▁péguy	-11.6299
▁rectangulaire	-11.6299
▁reproduire	-11.6299
▁sardaigne	-11.6299
▁similitude	-11.6299
▁simplifié	-11.6299
▁tragédie	-11.6299
▁xbox	-11.6299
▁boulogne	-11.6299
▁gravure	-11.6299
▁génome	-11.6299
▁voûte	-11.6299
▁balkans	-11.6299
▁cartographie	-11.6299
project	-11.63
▁soutiennent	-11.63
▁cultiva	-11.63
vilaine	-11.63
▁transparence	-11.63
jpg	-11.63
▁watch	-11.63
▁invite	-11.63
▁rivaux	-11.63
▁citons	-11.63
escalier	-11.63
▁terrorisme	-11.63
▁persiste	-11.63
▁poterie	-11.6301
enclave	-11.6301
▁émeutes	-11.6301
▁supporte	-11.6301
▁rocard	-11.6301
▁alert	-11.6302
traité	-11.6302
▁compilé	-11.6302
instant	-11.6303
▁consent	-11.6303
▁1893	-11.6304
etti	-11.6304
▁distributeur	-11.6304
▁utilisait	-11.6305
anus	-11.6305
écoulement	-11.6306
▁coordonnées	-11.6307
▁regroupées	-11.6308
▁noix	-11.6309
▁débarquement	-11.6312
▁august	-11.6312
▁demandent	-11.6312
feu	-11.6316
▁enseigné	-11.6322
▁confucianisme	-11.6325
assimilation	-11.6326
▁terminée	-11.6327
cloud	-11.6335
▁agrandi	-11.6336
hétéro	-11.6338
▁metal	-11.634
▁cachée	-11.6343
essa	-11.6349
▁volcan	-11.6351
▁intégrante	-11.6354
▁primordiale	-11.6357
▁déroulement	-11.6359
▁hit	-11.6362
ppen	-11.6364
psych	-11.6365
="11	-11.6366
pole	-11.6372
▁périphérique	-11.6375
▁habituel	-11.6376
▁transporté	-11.6381
éenne	-11.6385
herbe	-11.6389
▁supporter	-11.6404
get	-11.6404
▁évoquent	-11.6408
▁prime	-11.6412
▁gro	-11.6418
▁divergences	-11.6419
▁détaillé	-11.6419
▁vikings	-11.6423
▁péchés	-11.6427
▁métropolitain	-11.6433
villa	-11.6437
▁manipul	-11.6441
▁soulève	-11.6442
▁effectif	-11.6448
▁chaire	-11.645
▁révéla	-11.645
▁hectares	-11.645
tiv	-11.645
▁cohabit	-11.6452
historique	-11.6453
▁traversent	-11.6453
▁combustible	-11.6453
▁célébration	-11.6453
▁embarqué	-11.6453
▁félix	-11.6453
▁guerrière	-11.6453
▁huxley	-11.6453
▁poitiers	-11.6453
▁powerbook	-11.6453
▁quarantaine	-11.6453
▁stallman	-11.6453
▁tremblement	-11.6453
hémisphère	-11.6453
▁délimité	-11.6453
▁hybride	-11.6453
▁paradoxe	-11.6453
▁galaxie	-11.6453
▁cardiaque	-11.6453
▁ruraux	-11.6453
▁tragique	-11.6453
▁tactique	-11.6453
▁boursière	-11.6453
▁sagesse	-11.6453
▁ajoutant	-11.6454
▁galilée	-11.6454
▁prototype	-11.6454
▁prusse	-11.6454
▁sanguin	-11.6454
▁motivé	-11.6454
empreinte	-11.6454
▁désastre	-11.6454
hebdomadaire	-11.6454
▁urbanisé	-11.6454
public	-11.6455
▁compléter	-11.6456
▁shinto	-11.6457
èze	-11.6458
▁1889	-11.6458
▁1793	-11.646
▁joint	-11.646
guinée	-11.646
fondé	-11.6461
▁déploiement	-11.6461
▁bush	-11.6462
▁delano	-11.6463
▁modérée	-11.6469
▁noyaux	-11.6469
▁dose	-11.6472
▁piliers	-11.6472
▁appartenait	-11.6473
▁désignent	-11.6479
▁fuir	-11.6486
▁dénommée	-11.6488
▁réfugie	-11.6489
fol	-11.649
▁coffre	-11.6497
▁regrouper	-11.6501
▁malaisie	-11.6508
eve	-11.6512
vée	-11.6514
=20	-11.6516
▁patrie	-11.6517
ington	-11.6523
▁boisson	-11.6526
▁repousser	-11.653
métrage	-11.653
▁limit	-11.6534
▁trip	-11.6539
▁pay	-11.6544
▁révèlent	-11.6544
▁rosa	-11.6545
▁poulet	-11.6546
▁valable	-11.6547
kyō	-11.6553
▁facilite	-11.6553
inspir	-11.6568
▁usuelle	-11.6577
▁mortel	-11.6582
▁conventionnelle	-11.6587
▁survol	-11.6591
▁genèse	-11.6597
back	-11.6597
▁exclusive	-11.6597
▁péruvien	-11.6599
accroît	-11.6605
indicateur	-11.6606
chen	-11.6606
▁anna	-11.6608
princip	-11.6608
▁antisémite	-11.6609
▁cognitive	-11.6609
▁hiéroglyphique	-11.6609
▁incertain	-11.6609
▁invisible	-11.6609
▁léopold	-11.6609
▁marguerite	-11.6609
▁mobilier	-11.6609
▁provincial	-11.6609
▁pénètre	-11.6609
▁trimestre	-11.6609
▁émergé	-11.6609
electronic	-11.6609
excellence	-11.6609
▁endémique	-11.6609
▁indication	-11.6609
▁suspect	-11.6609
aurillac	-11.661
▁cinquanta	-11.661
▁cyberpunk	-11.661
acronyme	-11.661
▁arménienne	-11.661
▁jauge	-11.661
▁vénus	-11.661
▁cultive	-11.661
▁exclusif	-11.661
indochine	-11.661
▁dignité	-11.661
▁transforma	-11.661
▁immatériel	-11.661
▁percée	-11.661
▁fresque	-11.661
aptitude	-11.661
▁paraissent	-11.661
▁martyr	-11.661
▁biosphère	-11.6611
▁hélios	-11.6611
▁banc	-11.6611
semblait	-11.6611
imprimerie	-11.6612
▁fallait	-11.6612
aristote	-11.6613
▁1892	-11.6614
élargissement	-11.6616
▁rappelant	-11.6618
▁nue	-11.6618
▁indonésien	-11.6619
▁1814	-11.6619
▁baseball	-11.6621
moselle	-11.6622
▁bordure	-11.6624
▁rentrée	-11.6628
▁posture	-11.6629
board	-11.6629
▁johannes	-11.663
edfou	-11.6632
▁beauce	-11.6635
▁tribune	-11.6637
pom	-11.6639
▁tomber	-11.664
▁zen	-11.6643
hiroshima	-11.6645
écrivent	-11.6646
▁misère	-11.6648
▁poche	-11.6648
▁cerf	-11.6649
▁kir	-11.6652
gli	-11.6653
▁édifié	-11.6658
▁documenté	-11.6667
▁garni	-11.6668
▁guerrier	-11.667
▁admet	-11.6673
▁57	-11.6673
▁clément	-11.6677
▁couvrent	-11.6684
path	-11.6697
iba	-11.6699
▁ordonné	-11.6699
▁sénégalais	-11.6699
▁albi	-11.6699
▁saisir	-11.6701
▁dominicaine	-11.6704
▁raz	-11.6704
formula	-11.6707
▁intégrant	-11.6711
▁nicol	-11.6713
▁exécut	-11.6721
▁subiss	-11.6722
▁alice	-11.6726
aven	-11.6734
▁reconnaisse	-11.6736
▁tribut	-11.6745
▁compare	-11.6745
▁vii	-11.6748
▁fusée	-11.6749
▁maya	-11.6752
▁amn	-11.6753
▁fiable	-11.6753
▁curie	-11.6756
hindou	-11.6759
▁négocia	-11.6767
▁refusent	-11.6768
hippocrate	-11.6768
héroïne	-11.6768
itinéraire	-11.6768
▁cohérence	-11.6768
▁conversation	-11.6768
▁détention	-11.6768
▁expliqué	-11.6768
▁supériorité	-11.6768
▁vampire	-11.6768
▁vietnamien	-11.6768
amphétamine	-11.6768
▁bruxellois	-11.6768
▁infantile	-11.6768
▁institué	-11.6768
▁médiocre	-11.6768
▁beurre	-11.6768
décentralisation	-11.6768
▁gilbert	-11.6768
▁mélangé	-11.6768
▁aléatoire	-11.6768
▁bête	-11.6768
▁gêne	-11.6768
▁retrace	-11.6768
inclure	-11.6769
virgule	-11.6769
orlando	-11.6769
▁polytechnique	-11.6769
▁encadré	-11.6769
▁décédé	-11.6769
▁mnr	-11.6769
▁chèvre	-11.677
agissant	-11.677
▁demeura	-11.6772
explication	-11.6772
▁rouen	-11.6772
▁dirac	-11.6773
intervalle	-11.6773
musulman	-11.6774
▁revendiqué	-11.6774
▁forgé	-11.6774
▁passa	-11.6774
html	-11.6775
femme	-11.6775
esthétique	-11.6775
entier	-11.6775
▁chanteuse	-11.678
▁vassal	-11.6781
ossé	-11.6784
idéal	-11.6785
=11	-11.6786
▁mondialisation	-11.6786
amant	-11.679
▁envoyer	-11.68
immun	-11.68
▁vot	-11.6801
5)	-11.6804
opposé	-11.6805
▁entendu	-11.6808
punk	-11.6809
▁dévi	-11.6818
▁parfaite	-11.6819
▁impos	-11.6822
émile	-11.6822
ougrien	-11.6824
▁empreinte	-11.6824
▁éventuel	-11.6824
accordent	-11.6829
▁valu	-11.6831
▁flou	-11.6833
▁fabricant	-11.6834
▁grenoblois	-11.6834
▁exact	-11.6835
▁commentaire	-11.6842
entente	-11.6842
▁colline	-11.6845
attaquer	-11.6856
▁rappel	-11.6856
▁élit	-11.6858
▁prolongée	-11.6866
aqua	-11.6869
▁caractérisent	-11.6875
▁garc	-11.6883
vy	-11.6886
▁km	-11.6888
hem	-11.6892
▁maternel	-11.6893
afficher	-11.6895
alain	-11.6896
blanc	-11.6898
▁privilégiée	-11.6905
mono	-11.6909
▁repère	-11.6913
▁inédit	-11.6913
africa	-11.6916
chot	-11.6924
offrande	-11.6926
▁porto	-11.6928
▁pontifica	-11.6929
accélération	-11.693
ascendant	-11.693
héritière	-11.693
obtention	-11.693
▁chirurgie	-11.693
▁ludwig	-11.693
▁mallarmé	-11.693
▁morbihan	-11.693
▁mouvance	-11.693
▁mêlé	-11.693
▁pharmacie	-11.693
▁propulsive	-11.693
▁renouvelé	-11.693
▁rigoureuse	-11.693
▁sceptre	-11.693
▁technology	-11.693
▁terminaux	-11.693
▁transistor	-11.693
▁blessure	-11.693
▁terroir	-11.693
engouement	-11.693
▁thrace	-11.693
▁iwata	-11.693
▁terrasse	-11.693
▁délicat	-11.693
▁achète	-11.693
▁douleur	-11.693
▁bloque	-11.693
▁bolivie	-11.693
▁socle	-11.693
▁discuté	-11.693
▁1903	-11.6931
▁prud	-11.6931
▁fournissant	-11.6931
▁fiscalité	-11.6931
▁préface	-11.6932
▁orwell	-11.6932
▁acheté	-11.6932
▁privat	-11.6932
▁savane	-11.6933
▁offrandes	-11.6933
▁oratoire	-11.6934
▁gentil	-11.6934
▁croisés	-11.6935
▁lexique	-11.6937
nature	-11.6937
insul	-11.6937
▁irré	-11.6937
initiation	-11.6938
romancier	-11.6938
▁nominal	-11.6941
▁master	-11.6943
▁originellement	-11.6944
▁métis	-11.6947
▁herbes	-11.6949
camp	-11.6961
▁fiscal	-11.6971
▁vérifier	-11.6972
ariège	-11.6975
▁affectée	-11.6981
▁éphémère	-11.6982
▁schr	-11.699
▁souhaité	-11.6992
entraîn	-11.6996
pati	-11.6998
▁témoin	-11.7
▁spectr	-11.7003
▁connut	-11.7011
▁mènent	-11.7015
▁tirée	-11.7017
▁colon	-11.7017
▁rationnelle	-11.7019
▁payant	-11.7021
▁modifia	-11.7025
natural	-11.7026
▁explicite	-11.7034
▁fen	-11.7035
▁baptisée	-11.7042
ignac	-11.7051
▁clos	-11.7051
argumentation	-11.7054
▁envahisse	-11.7055
▁space	-11.7057
▁rédigée	-11.7062
▁villiers	-11.7066
▁assimilée	-11.7067
▁traduite	-11.7071
▁évite	-11.7072
iou	-11.7074
▁xiv	-11.7081
appropri	-11.7085
essif	-11.7089
adolescent	-11.7089
accusatif	-11.7093
antisémitisme	-11.7093
▁affilié	-11.7093
▁brooklyn	-11.7093
▁chevènement	-11.7093
▁comptabilis	-11.7093
▁conviction	-11.7093
▁cordillère	-11.7093
▁crocodile	-11.7093
▁domestiqué	-11.7093
▁gamecube	-11.7093
▁nomenclature	-11.7093
▁orbitale	-11.7093
▁promenade	-11.7093
▁protectrice	-11.7093
▁réciproque	-11.7093
▁sécession	-11.7093
▁thérapeutique	-11.7093
▁mobilisé	-11.7093
▁rédacteur	-11.7093
▁botanique	-11.7093
▁ronald	-11.7093
▁lothaire	-11.7093
aveyron	-11.7093
▁miracle	-11.7093
élysée	-11.7094
▁manifestants	-11.7094
▁plantations	-11.7094
▁fortifications	-11.7094
▁déduit	-11.7094
▁falaise	-11.7094
▁dogme	-11.7094
▁supervise	-11.7095
▁descartes	-11.7096
▁patinage	-11.7096
▁high	-11.7096
▁leçon	-11.7097
adolf	-11.7097
hellénis	-11.7097
▁attribua	-11.7098
▁hindi	-11.7099
▁1840	-11.7102
▁attirer	-11.7102
▁souhaitait	-11.7104
express	-11.7105
▁austro	-11.7106
château	-11.7106
▁déroul	-11.7107
▁franchise	-11.7108
▁musicien	-11.7109
atom	-11.7109
▁fox	-11.711
▁"«	-11.7113
musique	-11.7114
▁piment	-11.7118
▁arrivant	-11.712
▁argentique	-11.712
▁employa	-11.7123
united	-11.7126
join	-11.713
▁étrange	-11.7132
▁temporelle	-11.714
▁fonctionnent	-11.7145
▁traverser	-11.7148
▁mach	-11.7149
exercer	-11.7153
▁play	-11.7155
▁condamnée	-11.7157
▁portait	-11.7158
▁dominicain	-11.7161
▁vitale	-11.7163
bron	-11.7169
▁chère	-11.7172
▁niche	-11.7174
venait	-11.7182
quadr	-11.7185
▁rituelle	-11.719
ponty	-11.7201
▁coin	-11.7208
▁suffisant	-11.7209
▁aride	-11.7214
▁immédiat	-11.7218
▁développa	-11.7235
▁postal	-11.724
▁fécond	-11.7259
▁andalou	-11.7259
irrigation	-11.726
▁authentique	-11.726
▁balladur	-11.726
▁copenhague	-11.726
▁cosmogonie	-11.726
▁dissident	-11.726
▁hispanique	-11.726
▁humoristique	-11.726
▁incontournable	-11.726
▁monothéisme	-11.726
▁mystérieuse	-11.726
▁néfaste	-11.726
▁pâques	-11.726
▁scolarité	-11.726
▁vestimentaire	-11.726
▁épiscopal	-11.726
▁polluant	-11.726
▁pulsion	-11.726
▁violemment	-11.726
▁andrew	-11.726
▁quasar	-11.726
▁meuble	-11.726
▁neptune	-11.726
▁mayotte	-11.726
▁desquelles	-11.726
ampoule	-11.7261
▁surnaturel	-11.7261
estonien	-11.7261
▁nautique	-11.7261
▁estivale	-11.7261
▁réunissent	-11.7261
albanais	-11.7262
▁junte	-11.7263
▁définissant	-11.7263
▁ramené	-11.7263
▁1897	-11.7265
jutsu	-11.7266
▁manette	-11.7266
▁madame	-11.7266
▁calvin	-11.7267
▁east	-11.7268
▁exporté	-11.7269
▁harry	-11.7271
▁marbre	-11.7271
▁vendue	-11.7272
▁stocker	-11.7272
▁rappeler	-11.7272
imaginaire	-11.7275
intègre	-11.7275
▁brian	-11.7275
genèse	-11.7276
échir	-11.728
▁distincte	-11.7281
▁camus	-11.7285
▁océans	-11.729
moins	-11.7291
▁architecturale	-11.7292
▁partent	-11.7292
▁julia	-11.7292
▁défait	-11.7296
climat	-11.7296
▁statuette	-11.7297
étendant	-11.7298
▁tyran	-11.73
▁tarif	-11.73
▁chlore	-11.7301
ergol	-11.7303
▁annuellement	-11.7303
▁discute	-11.7303
▁exécute	-11.7306
alpin	-11.7309
iwa	-11.731
▁fusionné	-11.7313
▁turin	-11.7316
chef	-11.7327
urbain	-11.7327
▁émigré	-11.733
▁analogie	-11.7341
▁météorite	-11.7342
▁théâtrale	-11.7351
▁monté	-11.7352
▁ruine	-11.7356
▁chercheur	-11.7357
▁généralisée	-11.7359
2000	-11.7367
européenne	-11.7371
▁diffus	-11.7371
▁adressée	-11.738
pur	-11.7381
amus	-11.7396
▁prouver	-11.7397
▁participa	-11.7404
mund	-11.7405
▁défenseur	-11.7408
live	-11.7408
environnementale	-11.7412
lius	-11.7415
▁stocké	-11.7415
▁horizontale	-11.7418
oignon	-11.7421
▁réduis	-11.7421
éteint	-11.7424
▁nomma	-11.7424
local	-11.7425
astronome	-11.7426
athlète	-11.7426
accélérer	-11.743
exupéry	-11.743
innombrables	-11.743
massachusetts	-11.743
▁baguettes	-11.743
▁birmanie	-11.743
▁bourguignon	-11.743
▁dynamisme	-11.743
▁instinct	-11.743
▁obtenant	-11.743
▁pédagogique	-11.743
▁reconstitué	-11.743
▁society	-11.743
▁sollicité	-11.743
▁thompson	-11.743
▁vulnérable	-11.743
▁ambigu	-11.743
▁chêne	-11.743
▁guérilla	-11.743
▁débouche	-11.743
▁innovant	-11.743
▁décoratif	-11.743
▁lyrique	-11.743
▁graphisme	-11.743
gaillarde	-11.743
agrément	-11.743
hudson	-11.743
▁baleine	-11.743
▁prouvé	-11.743
emprise	-11.743
▁general	-11.743
▁topographie	-11.743
▁isaac	-11.7431
▁week	-11.7431
ancrage	-11.7431
hérétique	-11.7431
interdisant	-11.7431
▁privatisation	-11.7431
▁naturaliste	-11.7431
▁abstrait	-11.7431
▁écrivi	-11.7431
▁muraille	-11.7431
▁msx	-11.7432
▁grès	-11.7432
▁manteau	-11.7432
▁kendo	-11.7433
▁astronomes	-11.7434
▁prévenir	-11.7434
▁détenteur	-11.7434
▁1857	-11.7434
▁jadis	-11.7435
▁échantillons	-11.7435
▁1881	-11.7436
▁reproduit	-11.7437
épuise	-11.7437
▁abréviations	-11.7439
▁expliquant	-11.7442
▁golden	-11.7443
▁brutale	-11.7444
jacent	-11.7445
immigrés	-11.7447
première	-11.7447
peuple	-11.7448
▁formulation	-11.7448
▁gpl	-11.7448
moul	-11.7452
adsl	-11.7452
▁séparer	-11.7452
▁coûte	-11.7453
vironnementales	-11.7456
▁couché	-11.7459
▁perdent	-11.7459
ware	-11.746
▁perche	-11.746
▁kon	-11.7464
entité	-11.7466
▁canadienne	-11.7466
neuve	-11.7467
▁fixer	-11.7469
explorer	-11.747
▁justifie	-11.7473
monde	-11.7473
▁écarté	-11.7473
▁supprimer	-11.7478
communiste	-11.7478
néfer	-11.7479
▁réorganisation	-11.7485
▁128	-11.749
▁voué	-11.7496
▁médian	-11.7497
hormone	-11.7502
radio	-11.7507
bara	-11.7512
▁bull	-11.7516
program	-11.7517
▁provoquent	-11.7522
▁360	-11.7527
▁argil	-11.753
▁qualifi	-11.753
▁xxi	-11.7532
rov	-11.7534
▁essaie	-11.7539
soul	-11.754
open	-11.7543
▁more	-11.7543
▁castel	-11.7545
▁1/	-11.7546
▁hérite	-11.7551
▁fermi	-11.7555
▁convertir	-11.7567
▁irlandaise	-11.7572
engagent	-11.7574
▁volant	-11.7575
viendrait	-11.758
estime	-11.7583
▁distingua	-11.7585
▁menacée	-11.7586
▁miel	-11.759
émotion	-11.7594
imitation	-11.7597
atterrissage	-11.7602
enthousiasme	-11.7602
perçoit	-11.7602
▁bienveillant	-11.7602
▁bijoux	-11.7602
▁cambrioleur	-11.7602
▁childéric	-11.7602
▁compliqué	-11.7602
▁disposait	-11.7602
▁génocide	-11.7602
▁identitaire	-11.7602
▁inhérent	-11.7602
▁nietzsche	-11.7602
▁palindrome	-11.7602
▁ponctuation	-11.7602
▁productivité	-11.7602
▁souffrance	-11.7602
▁suggéré	-11.7602
▁uninominal	-11.7602
▁discrète	-11.7602
▁cavalier	-11.7602
▁gibier	-11.7602
▁mobilise	-11.7602
▁pendule	-11.7602
▁kor	-11.7602
▁agroalimentaire	-11.7602
▁desquels	-11.7602
▁aisément	-11.7602
▁1863	-11.7603
▁favorisant	-11.7603
▁impressionnant	-11.7604
▁redéfini	-11.7605
▁phonèmes	-11.7606
▁immeubles	-11.7607
▁alliages	-11.7607
▁léman	-11.7609
▁navigable	-11.7609
▁2030	-11.7609
étalon	-11.7609
phore	-11.7611
▁goutte	-11.7614
▁pillage	-11.7615
fried	-11.7618
strike	-11.762
▁indonésienne	-11.7621
gran	-11.7622
égyptien	-11.7622
littéralement	-11.7623
immense	-11.7623
infini	-11.7623
▁votée	-11.7627
opposant	-11.7635
▁démoli	-11.7635
▁coûteuse	-11.7638
▁traitant	-11.7638
dès	-11.7643
▁ignore	-11.7645
▁volet	-11.7647
▁clandestine	-11.7648
▁khan	-11.7652
▁250	-11.7653
▁sentier	-11.7657
▁messi	-11.7676
▁bang	-11.7677
▁assise	-11.7684
▁heurte	-11.7684
▁minoritaire	-11.7696
▁restaurant	-11.7696
▁normalisé	-11.7698
▁structurée	-11.7702
▁bombard	-11.771
▁signifi	-11.7712
▁class	-11.7713
▁identifie	-11.7735
▁exprimé	-11.7736
▁surnommée	-11.7742
revue	-11.7749
▁bordé	-11.775
doub	-11.7759
▁jung	-11.7762
cadre	-11.7762
imposa	-11.7763
▁lexicale	-11.7765
bras	-11.7774
incertitude	-11.7777
inscrivent	-11.7777
▁accéléré	-11.7777
▁confection	-11.7777
▁disponibilité	-11.7777
▁hewlett	-11.7777
▁innocent	-11.7777
▁jérôme	-11.7777
▁maghreb	-11.7777
▁nicholson	-11.7777
▁nunavut	-11.7777
▁papauté	-11.7777
▁reconstitution	-11.7777
▁rocksteady	-11.7777
▁sassanide	-11.7777
▁software	-11.7777
expulsion	-11.7777
▁advance	-11.7777
▁cadavre	-11.7777
▁excessive	-11.7777
▁exerça	-11.7777
▁ouvrant	-11.7777
▁éternelle	-11.7777
intérim	-11.7777
▁revend	-11.7777
impossibilité	-11.7777
existaient	-11.7778
▁boycott	-11.7778
édification	-11.7778
▁médiatisé	-11.7778
▁bâle	-11.7778
▁poupée	-11.7778
▁démarre	-11.7778
▁florence	-11.7778
▁soumission	-11.7778
▁opéré	-11.7779
▁blonde	-11.7779
▁dégrade	-11.7779
▁dioxygène	-11.778
alaska	-11.778
counter	-11.7781
▁bouillon	-11.7781
▁fondamentalisme	-11.7781
▁émotions	-11.7781
▁mesur	-11.7782
▁compos	-11.7782
céphal	-11.7782
ffer	-11.7782
▁1884	-11.7783
▁photons	-11.7783
▁1865	-11.7783
▁comble	-11.7784
▁lundi	-11.7786
▁parfum	-11.7786
▁valence	-11.7787
scence	-11.7788
2001	-11.7789
utah	-11.779
▁triade	-11.7792
▁niger	-11.7794
▁bourbonnais	-11.7794
▁nomades	-11.7795
▁tabou	-11.7798
engrais	-11.78
avancée	-11.78
accident	-11.7801
▁brisé	-11.7801
kur	-11.7801
▁tester	-11.7805
jusqu	-11.7805
▁automatiquement	-11.7806
ainsi	-11.7808
▁obéi	-11.7808
▁gustave	-11.7814
alimentaire	-11.7816
▁théoriquement	-11.7817
oxy	-11.7818
▁subsistent	-11.7821
take	-11.7822
lang	-11.7825
▁british	-11.7826
▁obti	-11.7829
austrasie	-11.783
aigle	-11.783
▁étatique	-11.7834
▁feux	-11.7838
gawa	-11.7838
resp	-11.7848
▁abords	-11.7856
▁visiter	-11.7862
aîné	-11.7867
▁organisent	-11.7871
cum	-11.7873
albi	-11.7874
▁illustrée	-11.7877
▁fournisseur	-11.7878
▁minute	-11.7879
▁augmentent	-11.7881
▁combattant	-11.7882
▁mentionnée	-11.7891
allie	-11.7892
▁chanter	-11.7895
▁desservi	-11.7905
statu	-11.7905
▁rejetée	-11.7912
▁arb	-11.7912
phos	-11.7913
▁incluse	-11.7914
koku	-11.792
juli	-11.7923
▁cross	-11.7937
▁conquise	-11.7938
attribut	-11.7945
▁construis	-11.7951
pier	-11.7954
bokken	-11.7956
phénoménologie	-11.7956
pprovisionnement	-11.7956
écrivait	-11.7956
▁chocolat	-11.7956
▁contradictoire	-11.7956
▁cyclable	-11.7956
▁cyclades	-11.7956
▁foncière	-11.7956
▁godwin	-11.7956
▁inaugure	-11.7956
▁mobilité	-11.7956
▁phonologique	-11.7956
▁préfigur	-11.7956
▁pénurie	-11.7956
▁quelquefois	-11.7956
▁satisfaisant	-11.7956
▁singapour	-11.7956
▁sédiments	-11.7956
▁tronçon	-11.7956
appuyer	-11.7956
frankenstein	-11.7956
▁excès	-11.7956
▁prédateurs	-11.7956
▁retenir	-11.7956
▁redécouverte	-11.7956
▁cultuel	-11.7956
▁cliché	-11.7956
▁pianiste	-11.7956
▁stabilise	-11.7956
▁ernst	-11.7956
▁réservoir	-11.7956
▁merleau	-11.7956
▁verbale	-11.7956
▁kingston	-11.7956
▁fidji	-11.7956
▁circadien	-11.7956
▁comprenait	-11.7956
▁corbeil	-11.7956
▁exempt	-11.7956
altération	-11.7957
▁wolf	-11.7957
paraissant	-11.7957
▁didier	-11.7958
▁valentin	-11.7958
▁franklin	-11.7958
▁déformation	-11.7959
▁modélisation	-11.7959
▁volaille	-11.7959
▁meurthe	-11.7959
▁sucré	-11.7959
▁désignai	-11.7959
▁habitations	-11.796
▁fallu	-11.7961
▁accusations	-11.7961
▁guyana	-11.7961
▁valley	-11.7962
▁1868	-11.7962
▁zeus	-11.7962
▁book	-11.7963
▁annexée	-11.7963
▁délivre	-11.7964
▁tau	-11.7965
▁rétablissement	-11.7966
▁oublié	-11.7967
▁bah	-11.7972
▁hong	-11.7972
▁procureur	-11.7975
▁léo	-11.7977
▁bordage	-11.7978
▁effectua	-11.7982
[...]
