<unk>	0
<s>	0
</s>	0
▁t	-0
▁a	-1
he	-2
in	-3
▁the	-4
er	-5
▁o	-6
▁s	-7
re	-8
on	-9
▁c	-10
at	-11
ed	-12
en	-13
▁w	-14
an	-15
▁b	-16
is	-17
it	-18
▁in	-19
or	-20
▁an	-21
es	-22
▁of	-23
▁p	-24
▁f	-25
al	-26
ar	-27
▁m	-28
ic	-29
▁and	-30
▁d	-31
ro	-32
as	-33
ing	-34
ion	-35
▁h	-36
▁to	-37
le	-38
us	-39
ent	-40
▁e	-41
▁l	-42
▁n	-43
▁re	-44
un	-45
▁th	-46
ur	-47
om	-48
ly	-49
ct	-50
▁g	-51
il	-52
st	-53
▁be	-54
ut	-55
ol	-56
am	-57
ve	-58
id	-59
▁as	-60
▁"	-61
ul	-62
im	-63
ation	-64
▁is	-65
ch	-66
ce	-67
ad	-68
▁for	-69
▁1	-70
▁al	-71
▁st	-72
▁on	-73
ig	-74
ot	-75
ir	-76
ver	-77
▁was	-78
et	-79
ra	-80
ith	-81
el	-82
▁con	-83
ter	-84
her	-85
ow	-86
▁(	-87
▁with	-88
ist	-89
▁by	-90
▁wh	-91
▁that	-92
ri	-93
▁it	-94
▁de	-95
os	-96
▁he	-97
▁pro	-98
um	-99
▁at	-100
ay	-101
and	-102
▁v	-103
rom	-104
th	-105
em	-106
op	-107
▁com	-108
▁mo	-109
▁or	-110
ers	-111
est	-112
ag	-113
ate	-114
▁su	-115
if	-116
▁un	-117
ies	-118
ac	-119
▁2	-120
▁r	-121
ab	-122
▁ch	-123
▁se	-124
▁are	-125
ain	-126
▁k	-127
▁ex	-128
▁from	-129
pe	-130
oc	-131
▁j	-132
res	-133
ity	-134
▁ar	-135
▁19	-136
ud	-137
ian	-138
▁co	-139
▁his	-140
ug	-141
qu	-142
iv	-143
ia	-144
ich	-145
ant	-146
ort	-147
od	-148
ive	-149
ment	-150
▁#	-151
▁##	-152
ess	-153
▁ne	-154
se	-155
ical	-156
▁us	-157
pp	-158
ated	-159
art	-160
ial	-161
pt	-162
ill	-163
all	-164
▁20	-165
ht	-166
▁am	-167
ere	-168
▁le	-169
▁which	-170
ber	-171
und	-172
ip	-173
ure	-174
▁en	-175
▁were	-176
ction	-177
▁ac	-178
og	-179
ak	-180
ous	-181
ard	-182
▁ha	-183
▁ad	-184
▁ab	-185
der	-186
so	-187
▁so	-188
▁pl	-189
cl	-190
▁not	-191
▁wor	-192
ine	-193
ther	-194
▁comp	-195
▁af	-196
▁this	-197
▁y	-198
ge	-199
▁sh	-200
ary	-201
ast	-202
ish	-203
ame	-204
up	-205
red	-206
ust	-207
▁fo	-208
per	-209
rit	-210
ans	-211
ect	-212
▁cont	-213
du	-214
ition	-215
▁have	-216
ome	-217
ie	-218
iz	-219
▁cl	-220
ong	-221
▁had	-222
ugh	-223
▁whe	-224
ell	-225
▁also	-226
ult	-227
ide	-228
ub	-229
▁sp	-230
ap	-231
ight	-232
▁its	-233
▁int	-234
▁ro	-235
ib	-236
▁tr	-237
ik	-238
▁has	-239
▁form	-240
end	-241
▁other	-242
ations	-243
▁man	-244
ign	-245
",	-246
▁all	-247
ass	-248
▁comm	-249
▁but	-250
ence	-251
),	-252
ry	-253
ph	-254
▁part	-255
av	-256
▁their	-257
age	-258
unt	-259
ally	-260
▁fir	-261
▁im	-262
▁ag	-263
uld	-264
▁res	-265
fer	-266
▁can	-267
ars	-268
pl	-269
ater	-270
ack	-271
▁per	-272
▁dis	-273
ire	-274
ang	-275
▁one	-276
▁first	-277
ld	-278
▁te	-279
vel	-280
ory	-281
clud	-282
▁sc	-283
ates	-284
ree	-285
ue	-286
▁bec	-287
con	-288
act	-289
ord	-290
▁ind	-291
▁sy	-292
ok	-293
▁they	-294
out	-295
ren	-296
▁been	-297
oll	-298
ions	-299
="	-300
▁cent	-301
ance	-302
ace	-303
00	-304
the	-305
ric	-306
".	-307
).	-308
▁tw	-309
hed	-310
▁includ	-311
▁des	-312
▁after	-313
ime	-314
own	-315
▁inter	-316
erm	-317
ff	-318
▁spe	-319
able	-320
▁new	-321
▁mar	-322
▁who	-323
ced	-324
▁ap	-325
▁most	-326
ile	-327
▁po	-328
orm	-329
ore	-330
▁ser	-331
▁some	-332
te	-333
ces	-334
co	-335
▁me	-336
ach	-337
ru	-338
▁bo	-339
ens	-340
uring	-341
▁em	-342
▁ye	-343
▁ph	-344
▁go	-345
▁ev	-346
port	-347
ron	-348
▁such	-349
cess	-350
▁more	-351
▁there	-352
▁no	-353
▁cons	-354
ice	-355
vers	-356
ts	-357
▁ear	-358
eric	-359
▁used	-360
▁app	-361
amp	-362
we	-363
▁two	-364
ved	-365
lic	-366
ose	-367
ors	-368
▁gro	-369
▁18	-370
▁201	-371
▁ele	-372
land	-373
▁pre	-374
ism	-375
ould	-376
▁reg	-377
ress	-378
ite	-379
ks	-380
▁rel	-381
▁ca	-382
ents	-383
ase	-384
ational	-385
ari	-386
ade	-387
▁200	-388
▁over	-389
ury	-390
▁ra	-391
olog	-392
ited	-393
▁ass	-394
ied	-395
ath	-396
▁col	-397
▁into	-398
▁when	-399
▁her	-400
▁gen	-401
▁fe	-402
les	-403
ative	-404
▁bet	-405
▁i	-406
ular	-407
uth	-408
rib	-409
▁produ	-410
▁than	-411
▁att	-412
▁rec	-413
▁may	-414
▁bl	-415
▁pe	-416
reat	-417
urn	-418
▁kn	-419
▁during	-420
▁these	-421
▁pr	-422
ted	-423
▁fl	-424
one	-425
▁many	-426
wn	-427
als	-428
▁3	-429
▁hig	-430
▁out	-431
ics	-432
▁americ	-433
ased	-434
ings	-435
use	-436
▁war	-437
▁lar	-438
▁time	-439
▁sub	-440
iss	-441
▁under	-442
▁would	-443
ft	-444
▁bel	-445
▁do	-446
▁act	-447
▁only	-448
▁ma	-449
▁num	-450
▁ant	-451
ween	-452
oth	-453
▁pres	-454
▁between	-455
ific	-456
▁inf	-457
▁qu	-458
ough	-459
▁we	-460
aw	-461
▁acc	-462
▁car	-463
▁him	-464
▁up	-465
▁jo	-466
▁world	-467
tern	-468
▁how	-469
▁count	-470
▁pop	-471
▁def	-472
stem	-473
gan	-474
ind	-475
▁eng	-476
▁off	-477
ities	-478
ists	-479
▁sch	-480
▁system	-481
ual	-482
▁inc	-483
old	-484
ost	-485
ten	-486
▁arm	-487
▁thro	-488
uc	-489
▁met	-490
ys	-491
vern	-492
▁br	-493
▁trans	-494
▁work	-495
▁spec	-496
ild	-497
▁pol	-498
▁art	-499
▁pub	-500
▁hist	-501
▁inst	-502
ince	-503
▁dif	-504
▁found	-505
ium	-506
▁play	-507
cur	-508
very	-509
▁through	-510
▁them	-511
ike	-512
▁mon	-513
▁char	-514
▁air	-515
▁about	-516
ons	-517
▁rem	-518
▁rep	-519
velop	-520
▁par	-521
▁while	-522
ne	-523
▁use	-524
ished	-525
▁gener	-526
ep	-527
ah	-528
▁call	-529
▁govern	-530
ject	-531
▁supp	-532
▁ob	-533
ople	-534
▁city	-535
int	-536
doc	-537
▁where	-538
▁develop	-539
ollow	-540
▁years	-541
▁states	-542
uro	-543
ward	-544
19	-545
▁pos	-546
wik	-547
▁<	-548
ral	-549
▁follow	-550
ll	-551
▁inv	-552
ating	-553
▁tra	-554
▁known	-555
ient	-556
ower	-557
▁later	-558
▁min	-559
are	-560
hes	-561
ram	-562
▁199	-563
▁prov	-564
ever	-565
ail	-566
▁writ	-567
ident	-568
▁4	-569
▁add	-570
cent	-571
▁high	-572
ake	-573
ious	-574
ict	-575
▁set	-576
▁she	-577
ution	-578
form	-579
ments	-580
ond	-581
▁bro	-582
▁dist	-583
fore	-584
▁bu	-585
▁century	-586
▁mem	-587
▁however	-588
▁loc	-589
▁sm	-590
cept	-591
▁cre	-592
ix	-593
▁state	-594
▁exp	-595
▁both	-596
▁early	-597
ized	-598
ps	-599
▁sur	-600
ures	-601
cted	-602
▁dec	-603
ories	-604
▁med	-605
ays	-606
▁est	-607
▁again	-608
▁vari	-609
▁5	-610
angu	-611
▁sign	-612
▁lo	-613
ines	-614
io	-615
▁group	-616
▁well	-617
ran	-618
▁const	-619
▁made	-620
▁ed	-621
ually	-622
▁z	-623
▁sim	-624
▁pers	-625
▁dep	-626
ife	-627
▁mus	-628
▁eff	-629
ural	-630
ians	-631
ins	-632
▁being	-633
ically	-634
▁nor	-635
0,	-636
▁people	-637
▁imp	-638
ula	-639
▁tit	-640
▁stud	-641
▁fil	-642
hip	-643
▁became	-644
round	-645
lex	-646
▁american	-647
cond	-648
▁differ	-649
▁ext	-650
▁three	-651
."	-652
ible	-653
▁then	-654
arch	-655
gest	-656
▁including	-657
▁number	-658
tle	-659
tain	-660
inal	-661
▁sever	-662
ood	-663
ise	-664
▁united	-665
▁called	-666
its	-667
▁main	-668
hen	-669
ined	-670
▁brit	-671
ctions	-672
ature	-673
▁langu	-674
▁sa	-675
ather	-676
▁end	-677
▁will	-678
ving	-679
▁since	-680
iet	-681
▁ent	-682
our	-683
ily	-684
other	-685
ues	-686
lish	-687
▁rom	-688
000	-689
uss	-690
ider	-691
▁ty	-692
ught	-693
▁second	-694
ier	-695
de	-696
ology	-697
▁orig	-698
ause	-699
▁any	-700
orn	-701
hem	-702
▁ur	-703
ters	-704
ov	-705
ateg	-706
▁king	-707
▁term	-708
lished	-709
▁sl	-710
ty	-711
▁uni	-712
uch	-713
ially	-714
ger	-715
▁maj	-716
▁fam	-717
▁euro	-718
led	-719
ants	-720
man	-721
▁national	-722
ck	-723
▁dire	-724
imes	-725
▁if	-726
▁like	-727
elf	-728
ages	-729
ility	-730
▁government	-731
▁6	-732
▁because	-733
▁u	-734
▁17	-735
iel	-736
▁mil	-737
▁film	-738
▁major	-739
rist	-740
▁large	-741
▁suc	-742
▁south	-743
▁common	-744
1,	-745
ob	-746
bers	-747
raph	-748
▁several	-749
erman	-750
▁contin	-751
▁ret	-752
▁desc	-753
▁long	-754
▁land	-755
ros	-756
▁before	-757
▁accord	-758
▁result	-759
▁str	-760
▁could	-761
▁year	-762
▁lead	-763
▁oper	-764
▁198	-765
ale	-766
az	-767
▁197	-768
▁soc	-769
cy	-770
lu	-771
ful	-772
ulation	-773
▁north	-774
ived	-775
ning	-776
ke	-777
▁europe	-778
▁intern	-779
▁formula	-780
▁gr	-781
▁cor	-782
ision	-783
▁appe	-784
▁title	-785
▁four	-786
ract	-787
ae	-788
▁partic	-789
▁aust	-790
▁bas	-791
til	-792
▁("	-793
illion	-794
▁elect	-795
▁mat	-796
▁name	-797
▁ri	-798
▁cap	-799
org	-800
▁val	-801
ital	-802
▁against	-803
ton	-804
ames	-805
▁book	-806
ick	-807
▁pa	-808
ange	-809
▁same	-810
▁oc	-811
▁often	-812
2,	-813
▁hum	-814
▁chur	-815
▁each	-816
▁rev	-817
ample	-818
omet	-819
▁own	-820
▁support	-821
20	-822
ool	-823
ute	-824
though	-825
▁consider	-826
▁commun	-827
▁pri	-828
osed	-829
ared	-830
rop	-831
▁design	-832
▁german	-833
▁christ	-834
▁ge	-835
ene	-836
iew	-837
▁ang	-838
to	-839
▁7	-840
▁moder	-841
inc	-842
oun	-843
▁small	-844
▁according	-845
▁serv	-846
ina	-847
▁categ	-848
▁incre	-849
xt	-850
▁hy	-851
atic	-852
▁public	-853
ork	-854
▁until	-855
▁trad	-856
▁conf	-857
▁remain	-858
iod	-859
ield	-860
▁ast	-861
▁196	-862
▁leg	-863
▁contro	-864
▁death	-865
els	-866
ax	-867
gy	-868
5,	-869
▁ins	-870
▁british	-871
ius	-872
▁cour	-873
▁gu	-874
vent	-875
▁prog	-876
ional	-877
▁ii	-878
▁dem	-879
▁different	-880
bo	-881
▁la	-882
▁bat	-883
▁ref	-884
▁port	-885
▁although	-886
▁life	-887
conom	-888
▁mod	-889
han	-890
ock	-891
▁great	-892
▁effect	-893
▁8	-894
▁country	-895
▁univers	-896
▁example	-897
ided	-898
▁import	-899
▁among	-900
▁success	-901
▁organ	-902
▁arch	-903
▁power	-904
hern	-905
chn	-906
▁op	-907
aking	-908
▁ter	-909
▁det	-910
ired	-911
ives	-912
rent	-913
min	-914
▁class	-915
▁law	-916
▁school	-917
▁ann	-918
▁sing	-919
ised	-920
▁cult	-921
▁compan	-922
ides	-923
ank	-924
▁modern	-925
be	-926
ird	-927
▁sol	-928
▁bra	-929
▁phil	-930
ued	-931
▁around	-932
▁id	-933
▁av	-934
▁include	-935
6,	-936
▁history	-937
hn	-938
▁lit	-939
▁hous	-940
▁near	-941
▁econom	-942
cer	-943
oy	-944
ting	-945
▁cur	-946
▁back	-947
itions	-948
▁mark	-949
get	-950
▁miss	-951
▁following	-952
▁di	-953
ves	-954
▁period	-955
mber	-956
gen	-957
way	-958
ries	-959
▁div	-960
3,	-961
▁did	-962
▁fin	-963
▁island	-964
▁record	-965
yl	-966
▁polit	-967
▁gl	-968
▁estab	-969
ruct	-970
9,	-971
enn	-972
▁equ	-973
▁categories	-974
edia	-975
ha	-976
▁those	-977
▁colle	-978
4,	-979
▁gree	-980
▁order	-981
imate	-982
ids	-983
▁techn	-984
8,	-985
▁el	-986
7,	-987
▁alex	-988
▁offic	-989
▁refer	-990
▁pat	-991
par	-992
▁ara	-993
▁even	-994
com	-995
ograph	-996
▁direct	-997
▁gre	-998
▁'	-999
▁due	-1000
▁allow	-1001
▁bar	-1002
▁area	-1003
▁milit	-1004
▁charact	-1005
▁church	-1006
▁show	-1007
▁cal	-1008
bert	-1009
▁language	-1010
ner	-1011
ration	-1012
▁histor	-1013
ave	-1014
arm	-1015
oph	-1016
lem	-1017
▁another	-1018
ified	-1019
ley	-1020
")	-1021
//	-1022
▁requ	-1023
▁appro	-1024
▁person	-1025
ged	-1026
▁non	-1027
yn	-1028
ipedia	-1029
▁alb	-1030
ander	-1031
que	-1032
▁water	-1033
wikipedia	-1034
ize	-1035
▁afric	-1036
://	-1037
tps	-1038
▁url	-1039
ony	-1040
wiki	-1041
▁lat	-1042
▁</	-1043
https	-1044
unc	-1045
curid	-1046
▁fun	-1047
▁much	-1048
ugust	-1049
▁general	-1050
▁god	-1051
▁rele	-1052
▁fore	-1053
▁stat	-1054
ason	-1055
▁poss	-1056
ript	-1057
▁right	-1058
li	-1059
▁ber	-1060
▁prob	-1061
▁series	-1062
▁influ	-1063
▁es	-1064
▁exper	-1065
▁pass	-1066
▁john	-1067
aim	-1068
▁adv	-1069
0.	-1070
▁ke	-1071
▁based	-1072
oci	-1073
▁16	-1074
▁bod	-1075
ended	-1076
▁describ	-1077
▁ir	-1078
ollo	-1079
▁15	-1080
air	-1081
▁tem	-1082
ices	-1083
me	-1084
rodu	-1085
▁music	-1086
▁began	-1087
por	-1088
▁stand	-1089
son	-1090
ilar	-1091
▁mid	-1092
raft	-1093
▁repres	-1094
">	-1095
ement	-1096
▁word	-1097
▁within	-1098
▁prop	-1099
▁population	-1100
▁program	-1101
ently	-1102
18	-1103
ences	-1104
▁million	-1105
▁anc	-1106
ization	-1107
ull	-1108
▁plan	-1109
▁auth	-1110
amed	-1111
▁english	-1112
▁west	-1113
▁black	-1114
▁je	-1115
▁belie	-1116
▁giv	-1117
▁august	-1118
▁cr	-1119
▁using	-1120
▁prot	-1121
▁rad	-1122
▁arg	-1123
▁similar	-1124
▁process	-1125
▁er	-1126
▁mag	-1127
pect	-1128
eng	-1129
▁rest	-1130
▁sw	-1131
▁vis	-1132
aced	-1133
▁addition	-1134
▁fre	-1135
▁perform	-1136
▁report	-1137
▁international	-1138
▁typ	-1139
▁roman	-1140
▁associ	-1141
une	-1142
▁ve	-1143
used	-1144
▁comput	-1145
ience	-1146
▁expl	-1147
▁opp	-1148
ured	-1149
ried	-1150
▁emp	-1151
▁military	-1152
▁.	-1153
ets	-1154
ross	-1155
omin	-1156
ases	-1157
▁very	-1158
▁rece	-1159
tal	-1160
ark	-1161
▁sal	-1162
▁aff	-1163
omen	-1164
▁open	-1165
▁still	-1166
day	-1167
rench	-1168
▁,	-1169
▁along	-1170
▁my	-1171
▁popular	-1172
▁arab	-1173
▁comple	-1174
▁tradition	-1175
▁treat	-1176
▁apollo	-1177
▁return	-1178
▁cer	-1179
▁east	-1180
anc	-1181
▁now	-1182
▁development	-1183
▁(19	-1184
▁family	-1185
▁9	-1186
▁human	-1187
▁bre	-1188
▁day	-1189
▁run	-1190
▁10	-1191
▁eas	-1192
pre	-1193
ven	-1194
val	-1195
▁hel	-1196
▁hand	-1197
ball	-1198
▁camp	-1199
▁child	-1200
▁university	-1201
▁–	-1202
▁led	-1203
by	-1204
ister	-1205
▁considered	-1206
▁fr	-1207
▁build	-1208
lin	-1209
▁team	-1210
▁win	-1211
▁important	-1212
ense	-1213
arian	-1214
▁fact	-1215
▁last	-1216
gin	-1217
▁resp	-1218
br	-1219
▁194	-1220
ness	-1221
▁space	-1222
▁various	-1223
▁nat	-1224
▁represent	-1225
▁pur	-1226
▁army	-1227
1.	-1228
bit	-1229
▁place	-1230
▁crit	-1231
▁members	-1232
sc	-1233
ological	-1234
▁old	-1235
▁202	-1236
▁region	-1237
▁fran	-1238
▁line	-1239
erv	-1240
▁test	-1241
estern	-1242
ze	-1243
med	-1244
▁aut	-1245
▁indust	-1246
▁anal	-1247
▁head	-1248
alth	-1249
▁just	-1250
▁start	-1251
▁contain	-1252
▁sea	-1253
▁said	-1254
▁what	-1255
ink	-1256
rote	-1257
▁home	-1258
▁relig	-1259
▁ste	-1260
row	-1261
craft	-1262
▁sout	-1263
▁origin	-1264
▁short	-1265
▁particular	-1266
na	-1267
▁rese	-1268
eder	-1269
ned	-1270
▁less	-1271
▁fur	-1272
▁vers	-1273
▁present	-1274
▁comb	-1275
ots	-1276
istic	-1277
ash	-1278
▁french	-1279
▁president	-1280
▁signific	-1281
▁del	-1282
▁bud	-1283
▁bi	-1284
▁bus	-1285
▁hal	-1286
tic	-1287
ament	-1288
dom	-1289
▁dr	-1290
▁character	-1291
wh	-1292
▁tele	-1293
▁lim	-1294
▁local	-1295
ably	-1296
▁austral	-1297
apt	-1298
▁bor	-1299
▁move	-1300
▁late	-1301
yal	-1302
▁somet	-1303
▁times	-1304
▁court	-1305
▁house	-1306
ember	-1307
epend	-1308
▁anim	-1309
▁claim	-1310
ilt	-1311
oss	-1312
ively	-1313
▁base	-1314
▁every	-1315
▁published	-1316
▁sk	-1317
▁greek	-1318
▁dev	-1319
▁195	-1320
▁sug	-1321
▁political	-1322
▁wrote	-1323
ribut	-1324
▁prof	-1325
wards	-1326
ound	-1327
▁given	-1328
▁men	-1329
▁sym	-1330
▁largest	-1331
▁low	-1332
ality	-1333
▁empire	-1334
2.	-1335
af	-1336
ai	-1337
▁control	-1338
▁sour	-1339
▁author	-1340
▁mean	-1341
▁species	-1342
▁ide	-1343
ator	-1344
▁bur	-1345
▁works	-1346
▁territ	-1347
ites	-1348
▁struct	-1349
century	-1350
ither	-1351
ination	-1352
▁son	-1353
ung	-1354
▁product	-1355
ague	-1356
▁point	-1357
empt	-1358
▁took	-1359
hod	-1360
▁lab	-1361
▁without	-1362
▁included	-1363
▁bc	-1364
▁though	-1365
▁proper	-1366
▁cond	-1367
▁prim	-1368
▁init	-1369
▁mult	-1370
▁field	-1371
▁down	-1372
▁company	-1373
count	-1374
vered	-1375
rian	-1376
ison	-1377
ring	-1378
▁party	-1379
▁union	-1380
▁let	-1381
▁few	-1382
▁earth	-1383
▁developed	-1384
▁li	-1385
bs	-1386
ery	-1387
ham	-1388
▁mass	-1389
▁further	-1390
erc	-1391
▁pract	-1392
▁russ	-1393
▁view	-1394
▁make	-1395
olic	-1396
▁need	-1397
▁become	-1398
▁ep	-1399
▁phys	-1400
ument	-1401
ec	-1402
▁occur	-1403
▁ident	-1404
ata	-1405
▁production	-1406
igh	-1407
▁way	-1408
▁grow	-1409
ival	-1410
ards	-1411
▁event	-1412
▁significant	-1413
ior	-1414
▁12	-1415
▁left	-1416
▁net	-1417
mon	-1418
pec	-1419
▁introdu	-1420
▁exist	-1421
▁western	-1422
▁level	-1423
▁$	-1424
cing	-1425
▁countries	-1426
▁alm	-1427
▁jan	-1428
▁former	-1429
▁single	-1430
less	-1431
gr	-1432
ention	-1433
▁educ	-1434
▁established	-1435
▁obs	-1436
ple	-1437
▁tri	-1438
▁independ	-1439
▁disc	-1440
ril	-1441
▁iss	-1442
aur	-1443
▁light	-1444
▁philos	-1445
▁ju	-1446
▁river	-1447
▁ancient	-1448
▁held	-1449
ex	-1450
▁vi	-1451
▁nort	-1452
▁rul	-1453
▁redu	-1454
▁central	-1455
▁vol	-1456
▁age	-1457
ott	-1458
▁attack	-1459
▁chang	-1460
▁game	-1461
▁read	-1462
▁five	-1463
▁thus	-1464
▁third	-1465
▁oct	-1466
olution	-1467
▁suggest	-1468
▁193	-1469
▁top	-1470
▁tro	-1471
iety	-1472
3.	-1473
▁ox	-1474
▁post	-1475
▁named	-1476
▁usually	-1477
▁decl	-1478
ential	-1479
▁others	-1480
▁strong	-1481
ats	-1482
▁jew	-1483
▁systems	-1484
idence	-1485
lect	-1486
iving	-1487
ops	-1488
▁14	-1489
ou	-1490
▁service	-1491
▁european	-1492
▁repl	-1493
▁separ	-1494
mer	-1495
▁having	-1496
ths	-1497
▁object	-1498
aster	-1499
▁da	-1500
▁town	-1501
▁body	-1502
▁disco	-1503
▁turn	-1504
sh	-1505
▁method	-1506
ones	-1507
ining	-1508
▁ach	-1509
▁sum	-1510
▁civ	-1511
▁activ	-1512
akes	-1513
▁invol	-1514
▁free	-1515
ama	-1516
▁mount	-1517
▁social	-1518
▁produced	-1519
▁dra	-1520
▁mor	-1521
▁der	-1522
▁ce	-1523
ware	-1524
au	-1525
▁attempt	-1526
▁case	-1527
ret	-1528
ploy	-1529
▁six	-1530
▁kingdom	-1531
ency	-1532
▁see	-1533
ances	-1534
ox	-1535
▁mot	-1536
▁11	-1537
▁alexander	-1538
▁christian	-1539
mit	-1540
sequ	-1541
▁cy	-1542
▁gra	-1543
▁research	-1544
▁women	-1545
lear	-1546
▁forces	-1547
▁sent	-1548
hest	-1549
▁budd	-1550
▁mater	-1551
aut	-1552
uary	-1553
▁written	-1554
5.	-1555
ove	-1556
▁sept	-1557
▁real	-1558
▁york	-1559
▁instit	-1560
▁best	-1561
zer	-1562
ches	-1563
read	-1564
▁syn	-1565
▁constit	-1566
▁groups	-1567
yle	-1568
▁father	-1569
face	-1570
▁wide	-1571
▁league	-1572
▁original	-1573
▁theory	-1574
ying	-1575
▁battle	-1576
▁cat	-1577
ivid	-1578
▁prom	-1579
ipp	-1580
▁came	-1581
hol	-1582
ruction	-1583
ana	-1584
▁relations	-1585
▁prev	-1586
▁built	-1587
▁civil	-1588
▁abs	-1589
ission	-1590
acy	-1591
▁pain	-1592
▁current	-1593
dro	-1594
hing	-1595
emb	-1596
oms	-1597
ria	-1598
ublic	-1599
▁tur	-1600
istan	-1601
▁force	-1602
self	-1603
ler	-1604
▁sec	-1605
ule	-1606
▁dece	-1607
▁ban	-1608
▁cir	-1609
rew	-1610
ude	-1611
▁ital	-1612
verse	-1613
ising	-1614
▁inform	-1615
side	-1616
ways	-1617
ability	-1618
atures	-1619
▁natural	-1620
▁march	-1621
hers	-1622
▁languages	-1623
▁southern	-1624
aces	-1625
aken	-1626
ends	-1627
line	-1628
▁occ	-1629
▁care	-1630
itive	-1631
▁individ	-1632
4.	-1633
▁described	-1634
put	-1635
▁red	-1636
iness	-1637
▁function	-1638
▁den	-1639
▁does	-1640
▁sold	-1641
▁problem	-1642
▁electron	-1643
▁admin	-1644
▁areas	-1645
▁released	-1646
bur	-1647
ored	-1648
▁vict	-1649
ling	-1650
▁total	-1651
ye	-1652
▁pal	-1653
▁bir	-1654
7.	-1655
ille	-1656
▁sometimes	-1657
▁youn	-1658
▁help	-1659
▁pot	-1660
▁kill	-1661
▁september	-1662
▁side	-1663
lant	-1664
▁never	-1665
▁special	-1666
ka	-1667
▁eth	-1668
▁either	-1669
cul	-1670
9.	-1671
for	-1672
ctor	-1673
▁account	-1674
pecially	-1675
▁material	-1676
aries	-1677
▁cell	-1678
▁england	-1679
▁project	-1680
▁role	-1681
▁13	-1682
ann	-1683
sp	-1684
ending	-1685
▁bal	-1686
rict	-1687
▁appear	-1688
ane	-1689
▁should	-1690
▁capital	-1691
10	-1692
▁won	-1693
ara	-1694
ergy	-1695
8.	-1696
ades	-1697
▁april	-1698
ered	-1699
▁cop	-1700
▁liter	-1701
work	-1702
osp	-1703
6.	-1704
▁vir	-1705
▁games	-1706
▁take	-1707
"),	-1708
▁meas	-1709
ote	-1710
gypt	-1711
▁x	-1712
ales	-1713
▁mic	-1714
ober	-1715
ected	-1716
▁apple	-1717
ray	-1718
▁anti	-1719
▁chem	-1720
▁white	-1721
▁[	-1722
▁children	-1723
▁july	-1724
▁official	-1725
▁republic	-1726
ification	-1727
ogn	-1728
▁january	-1729
,000	-1730
▁dest	-1731
▁scient	-1732
▁command	-1733
incip	-1734
▁acid	-1735
▁pred	-1736
▁colon	-1737
▁food	-1738
▁northern	-1739
ead	-1740
▁pet	-1741
▁december	-1742
▁half	-1743
▁song	-1744
enced	-1745
ains	-1746
▁counc	-1747
ma	-1748
aged	-1749
▁position	-1750
dle	-1751
▁egypt	-1752
▁close	-1753
▁good	-1754
ges	-1755
▁beh	-1756
▁june	-1757
▁america	-1758
▁october	-1759
17	-1760
lam	-1761
cle	-1762
▁acad	-1763
▁heav	-1764
▁market	-1765
▁economic	-1766
kn	-1767
▁award	-1768
go	-1769
▁range	-1770
▁royal	-1771
▁rather	-1772
▁nav	-1773
▁must	-1774
▁hit	-1775
ached	-1776
hib	-1777
▁sat	-1778
▁died	-1779
▁received	-1780
▁especially	-1781
ese	-1782
iation	-1783
▁nove	-1784
ography	-1785
▁astron	-1786
ada	-1787
▁ver	-1788
▁throughout	-1789
▁hen	-1790
asing	-1791
▁continued	-1792
▁study	-1793
▁princip	-1794
aves	-1795
▁fa	-1796
▁november	-1797
of	-1798
▁created	-1799
▁aud	-1800
▁cath	-1801
▁council	-1802
▁priv	-1803
▁star	-1804
▁upon	-1805
▁wall	-1806
▁concer	-1807
▁eastern	-1808
▁bul	-1809
▁club	-1810
▁hydro	-1811
▁feder	-1812
▁previous	-1813
orts	-1814
▁generally	-1815
osition	-1816
▁african	-1817
▁invest	-1818
here	-1819
▁computer	-1820
fic	-1821
▁recogn	-1822
▁mission	-1823
▁flight	-1824
▁har	-1825
ought	-1826
▁athen	-1827
▁192	-1828
ino	-1829
▁forms	-1830
▁super	-1831
▁next	-1832
vision	-1833
▁standard	-1834
verage	-1835
▁health	-1836
▁tour	-1837
12	-1838
▁interest	-1839
ounced	-1840
▁express	-1841
▁profess	-1842
▁full	-1843
iam	-1844
ster	-1845
▁himself	-1846
▁list	-1847
▁least	-1848
ety	-1849
iate	-1850
15	-1851
▁possible	-1852
ca	-1853
▁coast	-1854
▁ball	-1855
▁jud	-1856
▁instead	-1857
▁schol	-1858
▁dri	-1859
▁conn	-1860
▁begin	-1861
▁atlant	-1862
▁played	-1863
▁administ	-1864
lo	-1865
etic	-1866
▁accept	-1867
▁deb	-1868
▁capt	-1869
▁lower	-1870
▁agre	-1871
ips	-1872
▁tre	-1873
▁impro	-1874
▁season	-1875
▁certain	-1876
▁formed	-1877
▁thought	-1878
▁aircraft	-1879
ta	-1880
▁education	-1881
▁making	-1882
ief	-1883
▁ren	-1884
▁broad	-1885
▁regard	-1886
like	-1887
▁data	-1888
▁far	-1889
▁temper	-1890
ators	-1891
iment	-1892
apan	-1893
▁fund	-1894
▁final	-1895
▁evidence	-1896
bra	-1897
▁mer	-1898
▁type	-1899
▁version	-1900
americ	-1901
▁academ	-1902
▁culture	-1903
▁ill	-1904
itect	-1905
▁press	-1906
ained	-1907
▁desp	-1908
chan	-1909
icle	-1910
ulf	-1911
▁fail	-1912
▁higher	-1913
ront	-1914
▁once	-1915
▁hold	-1916
▁subst	-1917
▁foot	-1918
▁offer	-1919
imately	-1920
jan	-1921
▁center	-1922
▁subject	-1923
▁community	-1924
iction	-1925
uis	-1926
▁middle	-1927
▁above	-1928
▁engine	-1929
▁followed	-1930
▁transport	-1931
let	-1932
anish	-1933
▁avail	-1934
▁parts	-1935
▁society	-1936
uf	-1937
▁consist	-1938
▁soft	-1939
▁almost	-1940
16	-1941
icy	-1942
ghan	-1943
gether	-1944
▁together	-1945
inted	-1946
▁seen	-1947
▁compet	-1948
viet	-1949
▁reported	-1950
ensive	-1951
▁energy	-1952
▁islands	-1953
▁fri	-1954
▁neg	-1955
▁crew	-1956
▁complete	-1957
ples	-1958
oman	-1959
▁tex	-1960
▁rock	-1961
ero	-1962
▁cro	-1963
▁business	-1964
▁africa	-1965
rap	-1966
▁exam	-1967
▁hard	-1968
▁complex	-1969
ceed	-1970
▁indic	-1971
umb	-1972
▁religious	-1973
ym	-1974
bon	-1975
lim	-1976
▁relative	-1977
▁terms	-1978
vir	-1979
▁france	-1980
▁territory	-1981
▁fig	-1982
▁magn	-1983
bor	-1984
ows	-1985
ffic	-1986
▁architect	-1987
▁host	-1988
▁fac	-1989
▁tar	-1990
▁norm	-1991
▁altern	-1992
burg	-1993
▁san	-1994
▁defe	-1995
▁ground	-1996
▁elements	-1997
▁amb	-1998
gress	-1999
▁rights	-2000
ert	-2001
▁alg	-2002
▁located	-2003
▁germany	-2004
ban	-2005
▁multip	-2006
eth	-2007
▁japan	-2008
▁building	-2009
13	-2010
▁adop	-2011
▁surface	-2012
▁movement	-2013
▁ax	-2014
▁alk	-2015
▁frequ	-2016
arily	-2017
▁gold	-2018
▁travel	-2019
▁alph	-2020
▁mother	-2021
▁park	-2022
▁means	-2023
▁style	-2024
▁trade	-2025
ount	-2026
ali	-2027
▁186	-2028
▁che	-2029
▁fall	-2030
▁doub	-2031
itude	-2032
▁days	-2033
▁despite	-2034
▁album	-2035
ads	-2036
▁model	-2037
cript	-2038
▁philosoph	-2039
▁introduced	-2040
▁prote	-2041
▁employ	-2042
▁foreign	-2043
▁novel	-2044
50	-2045
▁ib	-2046
▁rail	-2047
▁today	-2048
ption	-2049
▁information	-2050
▁william	-2051
rated	-2052
▁little	-2053
▁mathem	-2054
▁office	-2055
▁numer	-2056
▁numbers	-2057
ints	-2058
▁sex	-2059
useum	-2060
▁change	-2061
▁brother	-2062
▁pen	-2063
▁stre	-2064
▁domin	-2065
▁industry	-2066
▁latin	-2067
▁across	-2068
▁albert	-2069
▁member	-2070
american	-2071
ms	-2072
uments	-2073
▁&	-2074
zil	-2075
▁books	-2076
▁access	-2077
▁associated	-2078
▁sil	-2079
▁science	-2080
▁successful	-2081
ened	-2082
▁armen	-2083
▁available	-2084
▁fire	-2085
▁born	-2086
▁transl	-2087
▁abb	-2088
▁sam	-2089
▁sound	-2090
pr	-2091
▁lun	-2092
▁tax	-2093
▁concept	-2094
▁influence	-2095
▁sem	-2096
▁soviet	-2097
aign	-2098
▁coll	-2099
").	-2100
▁mach	-2101
▁hom	-2102
idge	-2103
▁dut	-2104
▁hon	-2105
▁average	-2106
het	-2107
ties	-2108
▁entire	-2109
▁taken	-2110
▁campaign	-2111
bru	-2112
icles	-2113
▁lost	-2114
▁determ	-2115
▁structure	-2116
▁imm	-2117
▁except	-2118
▁know	-2119
▁ten	-2120
▁rich	-2121
▁services	-2122
ands	-2123
▁australia	-2124
▁fav	-2125
▁sen	-2126
▁traditional	-2127
▁story	-2128
att	-2129
erved	-2130
▁related	-2131
▁cross	-2132
▁sun	-2133
▁text	-2134
▁museum	-2135
▁itself	-2136
▁meaning	-2137
▁gave	-2138
▁afghan	-2139
aring	-2140
▁economy	-2141
king	-2142
▁dav	-2143
.,	-2144
▁percent	-2145
▁players	-2146
▁respect	-2147
▁catholic	-2148
▁remained	-2149
▁trib	-2150
▁eventually	-2151
la	-2152
isc	-2153
not	-2154
sel	-2155
▁cit	-2156
▁television	-2157
rael	-2158
▁approx	-2159
▁aber	-2160
▁young	-2161
uel	-2162
▁brazil	-2163
▁log	-2164
▁site	-2165
pro	-2166
tained	-2167
ald	-2168
▁oil	-2169
▁inte	-2170
▁displ	-2171
▁estim	-2172
▁ho	-2173
▁india	-2174
▁increased	-2175
iers	-2176
▁value	-2177
▁say	-2178
▁circ	-2179
bruary	-2180
▁names	-2181
viron	-2182
stand	-2183
unic	-2184
▁sit	-2185
unter	-2186
▁veh	-2187
▁effects	-2188
▁commit	-2189
▁referred	-2190
ricult	-2191
▁democ	-2192
▁cities	-2193
ania	-2194
▁lack	-2195
▁surv	-2196
▁wee	-2197
rast	-2198
▁ord	-2199
▁establish	-2200
oted	-2201
ours	-2202
▁announced	-2203
▁forest	-2204
▁earl	-2205
▁instr	-2206
14	-2207
0,000	-2208
▁environ	-2209
ica	-2210
ope	-2211
aria	-2212
▁foc	-2213
▁glob	-2214
▁nature	-2215
▁find	-2216
▁exec	-2217
▁poly	-2218
▁believed	-2219
ii	-2220
ingu	-2221
utes	-2222
▁particularly	-2223
▁emper	-2224
▁february	-2225
▁subsequ	-2226
▁allowed	-2227
▁rea	-2228
istance	-2229
ych	-2230
▁100	-2231
▁atom	-2232
▁meet	-2233
▁feature	-2234
▁agricult	-2235
lement	-2236
▁events	-2237
sen	-2238
▁190	-2239
anted	-2240
▁whose	-2241
▁berlin	-2242
▁critic	-2243
▁depart	-2244
▁served	-2245
▁source	-2246
▁diffic	-2247
▁distin	-2248
ming	-2249
▁designed	-2250
ky	-2251
▁wind	-2252
▁cost	-2253
▁words	-2254
▁symb	-2255
▁dam	-2256
▁growth	-2257
▁features	-2258
▁technology	-2259
ef	-2260
ises	-2261
▁rate	-2262
▁difficult	-2263
▁lunar	-2264
▁achie	-2265
▁champ	-2266
▁commerc	-2267
▁ess	-2268
▁size	-2269
▁private	-2270
▁therefore	-2271
▁dom	-2272
rial	-2273
▁able	-2274
▁vide	-2275
▁doc	-2276
▁moved	-2277
▁applic	-2278
▁rule	-2279
unch	-2280
▁includes	-2281
utions	-2282
clus	-2283
▁nuc	-2284
▁spir	-2285
ulated	-2286
▁islam	-2287
pir	-2288
▁dig	-2289
▁basic	-2290
▁arri	-2291
ilities	-2292
▁cho	-2293
▁might	-2294
uries	-2295
▁writing	-2296
atory	-2297
▁defin	-2298
rel	-2299
▁bos	-2300
▁brought	-2301
0%	-2302
off	-2303
▁key	-2304
▁amount	-2305
▁asia	-2306
▁fest	-2307
▁becom	-2308
▁micro	-2309
▁native	-2310
aps	-2311
▁saw	-2312
▁respons	-2313
▁stri	-2314
▁quest	-2315
▁gas	-2316
▁provided	-2317
berg	-2318
▁went	-2319
▁medic	-2320
▁aim	-2321
▁returned	-2322
▁software	-2323
▁viol	-2324
▁antib	-2325
▁cases	-2326
▁increasing	-2327
▁federal	-2328
▁constitution	-2329
▁assemb	-2330
ols	-2331
ste	-2332
▁bank	-2333
▁cast	-2334
▁founded	-2335
▁farm	-2336
▁grand	-2337
▁specific	-2338
mar	-2339
▁types	-2340
xic	-2341
pan	-2342
iding	-2343
▁parli	-2344
▁arabic	-2345
bl	-2346
▁manag	-2347
ems	-2348
▁cam	-2349
reg	-2350
▁minister	-2351
▁tal	-2352
ondon	-2353
▁bulg	-2354
▁constant	-2355
rest	-2356
▁primary	-2357
▁radio	-2358
▁techni	-2359
▁provide	-2360
▁products	-2361
▁189	-2362
▁started	-2363
▁ol	-2364
ufact	-2365
▁anth	-2366
▁appo	-2367
▁uses	-2368
nel	-2369
▁put	-2370
▁past	-2371
▁mal	-2372
▁convent	-2373
▁commonly	-2374
ributed	-2375
▁living	-2376
▁leading	-2377
fl	-2378
▁fem	-2379
▁self	-2380
je	-2381
istry	-2382
▁election	-2383
hist	-2384
▁don	-2385
based	-2386
▁front	-2387
wor	-2388
vert	-2389
▁alf	-2390
hel	-2391
▁alle	-2392
oses	-2393
▁lay	-2394
▁lib	-2395
▁birth	-2396
ental	-2397
▁remains	-2398
▁individual	-2399
uses	-2400
▁away	-2401
▁london	-2402
▁required	-2403
▁mix	-2404
▁latter	-2405
▁conditions	-2406
▁manufact	-2407
▁personal	-2408
▁iii	-2409
▁historical	-2410
▁mill	-2411
▁larger	-2412
ners	-2413
▁beginning	-2414
▁parliament	-2415
▁moon	-2416
▁prevent	-2417
▁accom	-2418
▁billion	-2419
tt	-2420
hab	-2421
otic	-2422
▁mur	-2423
▁wat	-2424
▁earlier	-2425
elling	-2426
▁division	-2427
▁mechan	-2428
▁compound	-2429
▁widely	-2430
▁leaders	-2431
▁added	-2432
▁wal	-2433
▁dial	-2434
▁increase	-2435
ola	-2436
ify	-2437
osaur	-2438
▁scholars	-2439
▁reb	-2440
▁congress	-2441
uk	-2442
▁live	-2443
▁step	-2444
▁wood	-2445
▁companies	-2446
▁hor	-2447
▁emer	-2448
ibility	-2449
▁russian	-2450
▁typically	-2451
▁mostly	-2452
▁sources	-2453
200	-2454
aff	-2455
▁outside	-2456
▁whether	-2457
▁treatment	-2458
umin	-2459
mediate	-2460
isl	-2461
▁fell	-2462
▁vill	-2463
▁cause	-2464
▁schools	-2465
omy	-2466
▁fort	-2467
▁arc	-2468
▁clear	-2469
▁eight	-2470
bai	-2471
▁187	-2472
▁daugh	-2473
▁construction	-2474
▁interpre	-2475
▁separate	-2476
ole	-2477
known	-2478
▁sain	-2479
aching	-2480
▁regions	-2481
▁towards	-2482
▁majority	-2483
west	-2484
▁dyn	-2485
inary	-2486
▁board	-2487
▁months	-2488
▁labor	-2489
▁limited	-2490
ques	-2491
▁fra	-2492
▁variety	-2493
30	-2494
▁azer	-2495
▁studies	-2496
▁pit	-2497
▁alco	-2498
baijan	-2499
lands	-2500
atives	-2501
▁reason	-2502
▁cultural	-2503
▁condu	-2504
▁caused	-2505
▁concent	-2506
▁relationship	-2507
▁fut	-2508
▁speak	-2509
▁produce	-2510
met	-2511
▁climate	-2512
▁environment	-2513
▁stated	-2514
resp	-2515
▁gun	-2516
▁squ	-2517
anded	-2518
▁unit	-2519
omb	-2520
▁highest	-2521
fe	-2522
oney	-2523
▁portug	-2524
▁emperor	-2525
arc	-2526
war	-2527
▁video	-2528
▁you	-2529
ering	-2530
ishop	-2531
▁likely	-2532
5%	-2533
ked	-2534
▁laws	-2535
▁blood	-2536
▁occup	-2537
▁fer	-2538
▁minor	-2539
ios	-2540
▁mel	-2541
▁college	-2542
▁card	-2543
▁azerbaijan	-2544
hy	-2545
▁ps	-2546
▁independent	-2547
istics	-2548
▁particip	-2549
▁action	-2550
▁commercial	-2551
ape	-2552
▁below	-2553
▁frank	-2554
▁results	-2555
selves	-2556
▁australian	-2557
▁1,	-2558
▁journ	-2559
oid	-2560
▁communic	-2561
▁physical	-2562
▁stra	-2563
▁adapt	-2564
▁liber	-2565
▁indian	-2566
ires	-2567
year	-2568
▁cele	-2569
▁greater	-2570
▁discovered	-2571
▁ris	-2572
ength	-2573
▁peace	-2574
▁prior	-2575
▁reform	-2576
▁mathemat	-2577
▁seven	-2578
▁changes	-2579
▁working	-2580
ysis	-2581
▁fish	-2582
▁recent	-2583
▁media	-2584
▁originally	-2585
uted	-2586
▁soon	-2587
▁color	-2588
▁always	-2589
▁financ	-2590
▁muslim	-2591
▁deg	-2592
▁lif	-2593
▁sett	-2594
▁spanish	-2595
▁1.	-2596
▁ben	-2597
▁dise	-2598
▁lear	-2599
▁era	-2600
▁acqu	-2601
▁revolution	-2602
,"	-2603
ode	-2604
lied	-2605
▁come	-2606
▁drug	-2607
▁arist	-2608
▁films	-2609
▁spect	-2610
▁writers	-2611
80	-2612
▁sn	-2613
▁mas	-2614
▁whom	-2615
▁extre	-2616
▁visit	-2617
ously	-2618
▁hall	-2619
▁fight	-2620
▁lines	-2621
▁killed	-2622
▁review	-2623
▁directly	-2624
uals	-2625
▁rap	-2626
▁paul	-2627
▁necess	-2628
▁mention	-2629
▁province	-2630
▁uk	-2631
▁network	-2632
▁operations	-2633
11	-2634
▁pric	-2635
ney	-2636
▁bron	-2637
▁hill	-2638
▁supported	-2639
uation	-2640
ili	-2641
onso	-2642
▁spok	-2643
▁britain	-2644
▁football	-2645
▁big	-2646
▁chief	-2647
▁element	-2648
▁sac	-2649
respond	-2650
tr	-2651
iter	-2652
▁centre	-2653
▁themselves	-2654
▁thom	-2655
▁numerous	-2656
▁|	-2657
▁letter	-2658
▁target	-2659
rative	-2660
▁regular	-2661
ores	-2662
▁alc	-2663
▁longer	-2664
▁commission	-2665
="">	-2666
▁orbit	-2667
▁defined	-2668
▁appeared	-2669
▁max	-2670
▁nar	-2671
▁chemical	-2672
▁properties	-2673
▁ash	-2674
▁wife	-2675
▁democr	-2676
▁animals	-2677
▁que	-2678
▁spirit	-2679
iles	-2680
▁conqu	-2681
▁quant	-2682
▁centuries	-2683
▁launch	-2684
▁settle	-2685
ume	-2686
umn	-2687
cour	-2688
▁too	-2689
▁van	-2690
▁plant	-2691
▁carbon	-2692
▁alternative	-2693
phas	-2694
▁jack	-2695
▁buddha	-2696
▁future	-2697
▁bene	-2698
▁prime	-2699
▁proposed	-2700
▁americans	-2701
ror	-2702
▁replaced	-2703
▁approximately	-2704
▁q	-2705
part	-2706
▁hol	-2707
▁nob	-2708
▁career	-2709
–19	-2710
anian	-2711
▁conserv	-2712
▁problems	-2713
▁correspond	-2714
den	-2715
str	-2716
▁bit	-2717
rod	-2718
▁deal	-2719
▁bird	-2720
▁david	-2721
ects	-2722
▁legisl	-2723
▁points	-2724
orge	-2725
▁ethn	-2726
▁reached	-2727
▁district	-2728
pped	-2729
▁band	-2730
▁grad	-2731
▁mart	-2732
▁nearly	-2733
▁troops	-2734
mad	-2735
pper	-2736
alled	-2737
▁canada	-2738
▁regional	-2739
▁rank	-2740
▁global	-2741
▁opt	-2742
▁policy	-2743
▁academy	-2744
25	-2745
▁bell	-2746
▁nation	-2747
po	-2748
pected	-2749
ago	-2750
▁emb	-2751
▁metal	-2752
▁destro	-2753
▁script	-2754
▁0.	-2755
▁jews	-2756
▁fle	-2757
▁ec	-2758
asion	-2759
▁purp	-2760
▁units	-2761
▁pay	-2762
igned	-2763
▁legal	-2764
▁secret	-2765
▁paris	-2766
ket	-2767
rang	-2768
▁atari	-2769
nia	-2770
iences	-2771
▁nations	-2772
ests	-2773
anced	-2774
▁alcohol	-2775
▁examples	-2776
▁(18	-2777
▁via	-2778
osing	-2779
40	-2780
▁better	-2781
▁smaller	-2782
▁probably	-2783
▁association	-2784
ee	-2785
▁stage	-2786
▁citiz	-2787
▁estimated	-2788
▁performed	-2789
ux	-2790
▁30	-2791
ready	-2792
▁involved	-2793
sour	-2794
▁oce	-2795
▁active	-2796
▁relatively	-2797
▁organization	-2798
time	-2799
▁disp	-2800
▁contem	-2801
ribution	-2802
▁philosophy	-2803
▁scientific	-2804
▁et	-2805
▁code	-2806
▁baseball	-2807
▁airport	-2808
▁continu	-2809
▁italy	-2810
▁multiple	-2811
▁practice	-2812
onse	-2813
wing	-2814
▁mac	-2815
ivity	-2816
▁literature	-2817
..	-2818
cles	-2819
isms	-2820
▁bond	-2821
▁plat	-2822
▁hop	-2823
▁1990	-2824
▁loss	-2825
▁compared	-2826
▁du	-2827
▁ven	-2828
▁25	-2829
lected	-2830
▁china	-2831
▁player	-2832
cont	-2833
▁classical	-2834
▁mig	-2835
riage	-2836
▁phot	-2837
can	-2838
aded	-2839
ched	-2840
▁inn	-2841
porary	-2842
▁speed	-2843
▁governor	-2844
▁launc	-2845
▁theat	-2846
▁placed	-2847
▁dutch	-2848
▁ly	-2849
aving	-2850
▁road	-2851
gebra	-2852
▁jewish	-2853
▁discuss	-2854
▁prec	-2855
▁henry	-2856
▁highly	-2857
▁already	-2858
ump	-2859
onic	-2860
reen	-2861
izing	-2862
▁largely	-2863
za	-2864
▁aj	-2865
▁adopted	-2866
▁distinct	-2867
▁recorded	-2868
▁experiment	-2869
▁independence	-2870
▁ae	-2871
lled	-2872
▁pra	-2873
lying	-2874
▁ever	-2875
ressed	-2876
▁medical	-2877
▁mole	-2878
▁neigh	-2879
▁charles	-2880
inese	-2881
▁students	-2882
ients	-2883
isions	-2884
▁station	-2885
rary	-2886
ference	-2887
▁daughter	-2888
itor	-2889
▁give	-2890
ression	-2891
▁consum	-2892
▁elected	-2893
ford	-2894
▁bay	-2895
▁require	-2896
▁()	-2897
using	-2898
▁characters	-2899
▁temperature	-2900
iro	-2901
ights	-2902
▁male	-2903
▁james	-2904
▁extreme	-2905
▁records	-2906
▁188	-2907
▁famous	-2908
▁george	-2909
lor	-2910
▁ut	-2911
▁191	-2912
▁diss	-2913
▁ze	-2914
eral	-2915
uls	-2916
▁21	-2917
▁anarch	-2918
▁-	-2919
▁cust	-2920
kh	-2921
▁mu	-2922
▁vot	-2923
▁arsen	-2924
▁flow	-2925
▁fres	-2926
ements	-2927
ss	-2928
▁idea	-2929
▁path	-2930
mitted	-2931
▁russia	-2932
ya	-2933
ush	-2934
▁sens	-2935
ffer	-2936
▁rome	-2937
▁summer	-2938
▁additional	-2939
▁analysis	-2940
▁industrial	-2941
▁get	-2942
▁imper	-2943
isation	-2944
▁worked	-2945
▁alexand	-2946
men	-2947
▁fif	-2948
▁hot	-2949
▁belg	-2950
▁bound	-2951
▁creat	-2952
▁border	-2953
▁divided	-2954
▁letters	-2955
▁married	-2956
▁sus	-2957
▁bapt	-2958
unicip	-2959
▁scott	-2960
▁display	-2961
aled	-2962
=2	-2963
▁asc	-2964
▁pan	-2965
▁deli	-2966
▁leader	-2967
▁tom	-2968
▁training	-2969
▁influenced	-2970
▁bill	-2971
▁secur	-2972
▁length	-2973
▁implement	-2974
▁afghanistan	-2975
▁ta	-2976
cast	-2977
▁abd	-2978
iance	-2979
▁promin	-2980
▁measure	-2981
▁surround	-2982
▁rare	-2983
▁synthe	-2984
▁performance	-2985
▁tor	-2986
▁ammon	-2987
▁conflic	-2988
oln	-2989
back	-2990
▁mis	-2991
▁financial	-2992
writ	-2993
▁arts	-2994
▁religion	-2995
▁alt	-2996
▁compon	-2997
▁strateg	-2998
▁immediate	-2999
▁yet	-3000
▁champions	-3001
▁24	-3002
▁barb	-3003
▁freed	-3004
▁belief	-3005
mod	-3006
ables	-3007
ledge	-3008
▁derived	-3009
oration	-3010
hold	-3011
ston	-3012
▁ens	-3013
▁burn	-3014
▁detail	-3015
▁mainly	-3016
▁athens	-3017
▁conver	-3018
▁response	-3019
▁ult	-3020
▁cells	-3021
▁recon	-3022
▁italian	-3023
▁professional	-3024
va	-3025
▁vo	-3026
▁cut	-3027
▁pow	-3028
▁authority	-3029
="2	-3030
amb	-3031
uit	-3032
▁ga	-3033
ithm	-3034
olved	-3035
▁1980	-3036
▁release	-3037
▁1970	-3038
▁look	-3039
incoln	-3040
▁enter	-3041
▁levels	-3042
▁claimed	-3043
▁initial	-3044
▁methods	-3045
▁louis	-3046
▁chinese	-3047
▁objects	-3048
▁sequ	-3049
▁whole	-3050
▁appears	-3051
▁destroy	-3052
▁suggested	-3053
alo	-3054
ented	-3055
▁churches	-3056
log	-3057
▁mc	-3058
lines	-3059
ferred	-3060
▁annual	-3061
▁artists	-3062
▁electric	-3063
▁cred	-3064
▁municip	-3065
▁contains	-3066
▁potential	-3067
ygen	-3068
▁shah	-3069
utive	-3070
ension	-3071
▁green	-3072
iated	-3073
▁mich	-3074
▁shown	-3075
▁enough	-3076
ging	-3077
iforn	-3078
▁poor	-3079
▁quar	-3080
▁algebra	-3081
ody	-3082
▁demon	-3083
▁lincoln	-3084
▁nit	-3085
ground	-3086
▁extra	-3087
▁noted	-3088
▁table	-3089
▁impact	-3090
▁threat	-3091
▁buildings	-3092
sis	-3093
hood	-3094
arent	-3095
stein	-3096
▁hyp	-3097
astic	-3098
itation	-3099
▁spread	-3100
▁californ	-3101
ares	-3102
▁aar	-3103
iting	-3104
▁assum	-3105
▁ocean	-3106
oper	-3107
▁nas	-3108
acter	-3109
▁dram	-3110
idents	-3111
▁activity	-3112
▁question	-3113
ias	-3114
key	-3115
anda	-3116
orph	-3117
▁true	-3118
▁institute	-3119
car	-3120
ech	-3121
▁celebr	-3122
▁represented	-3123
dam	-3124
▁our	-3125
▁expans	-3126
▁document	-3127
▁link	-3128
▁finally	-3129
▁incor	-3130
▁places	-3131
▁appointed	-3132
36	-3133
ey	-3134
wer	-3135
win	-3136
);	-3137
zo	-3138
▁basis	-3139
▁initially	-3140
...	-3141
igen	-3142
▁mos	-3143
▁1960	-3144
▁security	-3145
ils	-3146
▁ple	-3147
▁opened	-3148
cap	-3149
▁observ	-3150
▁anthrop	-3151
wise	-3152
▁psych	-3153
▁texts	-3154
▁medicine	-3155
nd	-3156
ship	-3157
change	-3158
▁create	-3159
▁completed	-3160
▁dro	-3161
▁status	-3162
▁carried	-3163
oot	-3164
ris	-3165
wide	-3166
▁reign	-3167
▁shows	-3168
▁smith	-3169
mp	-3170
heast	-3171
▁heart	-3172
▁stars	-3173
wana	-3174
▁cover	-3175
▁fourth	-3176
standing	-3177
rane	-3178
▁ded	-3179
▁love	-3180
▁rapid	-3181
▁upper	-3182
dp	-3183
▁cle	-3184
▁quick	-3185
▁cannot	-3186
▁defense	-3187
ela	-3188
▁conv	-3189
▁passed	-3190
board	-3191
▁kind	-3192
icated	-3193
sm	-3194
anch	-3195
▁bed	-3196
▁cand	-3197
▁break	-3198
▁issue	-3199
▁anglic	-3200
▁location	-3201
▁philosop	-3202
▁=	-3203
inton	-3204
▁myth	-3205
▁administration	-3206
▁ott	-3207
adian	-3208
▁thous	-3209
▁machine	-3210
▁contrast	-3211
▁director	-3212
▁investig	-3213
▁experience	-3214
▁rat	-3215
liest	-3216
▁date	-3217
▁orth	-3218
▁rain	-3219
▁formation	-3220
▁primarily	-3221
▁flu	-3222
▁deep	-3223
▁issues	-3224
▁treaty	-3225
▁california	-3226
enes	-3227
▁county	-3228
▁plants	-3229
▁notable	-3230
ga	-3231
▁pair	-3232
▁sports	-3233
▁assembly	-3234
▁confeder	-3235
▁festival	-3236
▁resistance	-3237
asons	-3238
▁prison	-3239
▁marriage	-3240
▁presence	-3241
ibly	-3242
-2	-3243
jo	-3244
ns	-3245
opp	-3246
uge	-3247
▁ark	-3248
▁done	-3249
▁virgin	-3250
▁accepted	-3251
ested	-3252
▁joined	-3253
▁needed	-3254
▁signed	-3255
ba	-3256
olk	-3257
▁chall	-3258
▁forced	-3259
▁robert	-3260
▁changed	-3261
▁connect	-3262
▁victory	-3263
▁reaction	-3264
▁compounds	-3265
▁resulting	-3266
my	-3267
alus	-3268
▁assist	-3269
▁combined	-3270
▁bad	-3271
▁pie	-3272
▁argued	-3273
▁oxygen	-3274
▁mom	-3275
▁harm	-3276
people	-3277
mark	-3278
zant	-3279
▁property	-3280
▁night	-3281
▁failed	-3282
▁launched	-3283
▁operation	-3284
icted	-3285
orial	-3286
▁keep	-3287
▁scul	-3288
▁washing	-3289
▁maintain	-3290
▁functions	-3291
arus	-3292
▁tas	-3293
amine	-3294
▁risk	-3295
▁conne	-3296
new	-3297
▁blue	-3298
▁graph	-3299
▁hours	-3300
▁makes	-3301
app	-3302
▁improve	-3303
hus	-3304
see	-3305
uda	-3306
▁mess	-3307
▁carry	-3308
▁deaths	-3309
▁hydrogen	-3310
▁japanese	-3311
ilies	-3312
▁lord	-3313
▁sense	-3314
▁israel	-3315
▁prem	-3316
▁maxim	-3317
▁spain	-3318
▁ability	-3319
▁citizens	-3320
▁earliest	-3321
ams	-3322
▁mob	-3323
▁composed	-3324
head	-3325
▁rules	-3326
▁knowledge	-3327
▁crow	-3328
▁reco	-3329
▁taking	-3330
▁valley	-3331
▁decided	-3332
sec	-3333
▁rise	-3334
▁materials	-3335
rad	-3336
▁2.	-3337
aches	-3338
elled	-3339
field	-3340
dule	-3341
osis	-3342
rone	-3343
▁iron	-3344
▁contract	-3345
▁mont	-3346
▁saint	-3347
▁supre	-3348
▁memory	-3349
▁pressure	-3350
ern	-3351
itic	-3352
tical	-3353
▁happ	-3354
▁suffer	-3355
▁monarch	-3356
▁protect	-3357
▁internal	-3358
▁identified	-3359
▁thomas	-3360
▁counter	-3361
▁observed	-3362
▁collection	-3363
▁cas	-3364
▁tim	-3365
erson	-3366
▁cart	-3367
▁scot	-3368
ply	-3369
▁184	-3370
▁pun	-3371
▁swit	-3372
▁behind	-3373
▁committe	-3374
▁distance	-3375
32	-3376
yr	-3377
▁26	-3378
▁bab	-3379
▁block	-3380
▁sculpt	-3381
izations	-3382
view	-3383
▁subs	-3384
▁weap	-3385
lection	-3386
▁reduced	-3387
ont	-3388
reng	-3389
▁gar	-3390
▁sexual	-3391
▁intended	-3392
▁previously	-3393
ij	-3394
▁alas	-3395
undred	-3396
▁decre	-3397
▁exhib	-3398
osaurus	-3399
▁here	-3400
▁urban	-3401
▁musical	-3402
▁becoming	-3403
▁defeated	-3404
▁ak	-3405
▁lived	-3406
▁compos	-3407
fficient	-3408
▁astronaut	-3409
▁department	-3410
no	-3411
▁amaz	-3412
▁hosp	-3413
▁richard	-3414
▁washington	-3415
onia	-3416
▁ibn	-3417
▁teams	-3418
▁armenia	-3419
▁agreement	-3420
book	-3421
▁cod	-3422
mir	-3423
uese	-3424
▁chap	-3425
▁diam	-3426
▁hung	-3427
▁navy	-3428
▁arrang	-3429
▁compar	-3430
▁consequ	-3431
do	-3432
which	-3433
▁behav	-3434
▁varian	-3435
ael	-3436
▁aqu	-3437
▁cry	-3438
▁magaz	-3439
cks	-3440
▁poet	-3441
▁calcul	-3442
▁matter	-3443
▁values	-3444
▁pattern	-3445
▁expansion	-3446
37	-3447
▁flo	-3448
▁rob	-3449
▁peter	-3450
ulations	-3451
▁johnson	-3452
▁imperial	-3453
▁pil	-3454
aging	-3455
▁share	-3456
▁corpor	-3457
▁definition	-3458
lit	-3459
▁ham	-3460
▁week	-3461
vey	-3462
▁..	-3463
▁archae	-3464
▁ethnic	-3465
▁friends	-3466
che	-3467
ona	-3468
▁beg	-3469
ellig	-3470
▁brain	-3471
▁faith	-3472
▁resour	-3473
▁hundred	-3474
▁techniques	-3475
▁az	-3476
▁ion	-3477
ensus	-3478
▁acids	-3479
▁winter	-3480
dra	-3481
▁bol	-3482
▁dan	-3483
▁algor	-3484
▁money	-3485
▁bosnia	-3486
bi	-3487
▁ah	-3488
▁soldiers	-3489
bed	-3490
band	-3491
imin	-3492
ceeded	-3493
▁arbit	-3494
▁advert	-3495
▁kh	-3496
ault	-3497
dess	-3498
▁coup	-3499
▁inhab	-3500
▁architecture	-3501
▁contemporary	-3502
";	-3503
▁2000	-3504
▁vary	-3505
▁corre	-3506
▁ideas	-3507
▁turned	-3508
▁mountain	-3509
erve	-3510
▁cup	-3511
▁double	-3512
▁individuals	-3513
wood	-3514
▁carri	-3515
▁degree	-3516
▁streng	-3517
▁conclud	-3518
▁offered	-3519
▁activities	-3520
ift	-3521
rine	-3522
▁bah	-3523
▁byzant	-3524
▁applied	-3525
▁possess	-3526
▁atlantic	-3527
▁bulgaria	-3528
39	-3529
da	-3530
enc	-3531
▁friend	-3532
▁sector	-3533
▁responsible	-3534
▁iv	-3535
with	-3536
▁cab	-3537
▁remo	-3538
▁bishop	-3539
▁phen	-3540
▁autom	-3541
▁older	-3542
▁unlike	-3543
▁address	-3544
▁decision	-3545
▁programs	-3546
agn	-3547
ida	-3548
alle	-3549
▁screen	-3550
▁paper	-3551
otswana	-3552
▁speech	-3553
▁section	-3554
▁effective	-3555
eles	-3556
rents	-3557
▁dead	-3558
▁slow	-3559
▁brand	-3560
▁ended	-3561
▁franc	-3562
▁spent	-3563
▁dynast	-3564
▁apparent	-3565
▁colonies	-3566
▁respectively	-3567
igu	-3568
och	-3569
ieval	-3570
▁nine	-3571
▁heavy	-3572
▁instrument	-3573
gn	-3574
ext	-3575
▁anat	-3576
▁woman	-3577
▁humans	-3578
▁consists	-3579
▁provides	-3580
▁bak	-3581
▁uns	-3582
tered	-3583
▁bri	-3584
▁rot	-3585
▁pack	-3586
▁weight	-3587
▁atlanta	-3588
▁declared	-3589
comm	-3590
▁185	-3591
▁vow	-3592
where	-3593
▁animal	-3594
▁charge	-3595
most	-3596
▁armed	-3597
▁sites	-3598
▁depend	-3599
▁disease	-3600
▁direction	-3601
iga	-3602
olf	-3603
▁cru	-3604
acity	-3605
▁weak	-3606
▁theore	-3607
▁ful	-3608
▁hunt	-3609
iments	-3610
▁catal	-3611
▁staff	-3612
sterdam	-3613
▁symbol	-3614
▁landing	-3615
eter	-3616
▁react	-3617
▁figures	-3618
over	-3619
▁atoms	-3620
▁theatre	-3621
90	-3622
▁face	-3623
▁families	-3624
▁controvers	-3625
▁communities	-3626
▁ali	-3627
▁shar	-3628
▁wars	-3629
▁stone	-3630
▁goddess	-3631
▁advanced	-3632
▁astronom	-3633
▁incorpor	-3634
▁remaining	-3635
▁alexandria	-3636
70	-3637
▁bey	-3638
▁fel	-3639
▁benef	-3640
▁currently	-3641
▁historian	-3642
▁favor	-3643
▁vehicle	-3644
dr	-3645
▁40	-3646
cons	-3647
▁alpha	-3648
▁aristot	-3649
▁botswana	-3650
▁portuguese	-3651
▁applications	-3652
60	-3653
▁hab	-3654
▁fair	-3655
▁ship	-3656
akh	-3657
▁songs	-3658
▁bridge	-3659
▁resulted	-3660
▁wil	-3661
light	-3662
▁claims	-3663
▁models	-3664
▁prince	-3665
▁abu	-3666
▁mir	-3667
rical	-3668
ructed	-3669
▁protest	-3670
▁prominent	-3671
▁fal	-3672
omm	-3673
odox	-3674
▁reve	-3675
▁queen	-3676
▁mountains	-3677
▁foundation	-3678
]]	-3679
enna	-3680
imal	-3681
▁allowing	-3682
35	-3683
▁turk	-3684
▁apost	-3685
▁temple	-3686
▁belarus	-3687
▁condition	-3688
aph	-3689
▁50	-3690
enth	-3691
▁ram	-3692
imens	-3693
▁neut	-3694
▁crown	-3695
▁mexic	-3696
▁plays	-3697
▁alaska	-3698
▁islamic	-3699
era	-3700
ipl	-3701
ansas	-3702
▁mars	-3703
▁supreme	-3704
▁broadcast	-3705
▁subsequently	-3706
eda	-3707
orders	-3708
▁female	-3709
▁formal	-3710
▁street	-3711
▁descript	-3712
▁amsterdam	-3713
▁agriculture	-3714
3"	-3715
ls	-3716
▁rand	-3717
▁honor	-3718
▁negative	-3719
▁mentioned	-3720
vi	-3721
his	-3722
▁alab	-3723
▁reject	-3724
▁signal	-3725
▁entered	-3726
▁occurred	-3727
▁wild	-3728
▁bring	-3729
▁round	-3730
▁candid	-3731
▁exchange	-3732
more	-3733
▁pac	-3734
▁match	-3735
▁simple	-3736
▁extended	-3737
▁existence	-3738
pa	-3739
din	-3740
nes	-3741
cell	-3742
olit	-3743
ooth	-3744
ouse	-3745
amaic	-3746
▁assy	-3747
▁approach	-3748
▁territories	-3749
-19	-3750
asc	-3751
ble	-3752
▁belong	-3753
estic	-3754
ville	-3755
▁doct	-3756
▁confir	-3757
▁emphas	-3758
▁greece	-3759
▁clinton	-3760
rog	-3761
spe	-3762
mission	-3763
▁whereas	-3764
tery	-3765
▁alumin	-3766
▁beyond	-3767
▁augustine	-3768
▁contribut	-3769
▁administrative	-3770
rd	-3771
▁...	-3772
▁birds	-3773
▁analog	-3774
▁collect	-3775
▁appearance	-3776
▁contact	-3777
▁journal	-3778
▁interpret	-3779
edy	-3780
oria	-3781
▁aer	-3782
▁cra	-3783
▁cave	-3784
▁austin	-3785
▁intellig	-3786
abor	-3787
iled	-3788
▁image	-3789
▁affair	-3790
▁egyptian	-3791
bc	-3792
sa	-3793
▁jose	-3794
▁equal	-3795
▁murder	-3796
▁positive	-3797
▁progress	-3798
1"	-3799
▁aclu	-3800
▁achieve	-3801
▁ottoman	-3802
▁anglican	-3803
▁opposition	-3804
col	-3805
outh	-3806
▁177	-3807
▁jer	-3808
▁intel	-3809
▁think	-3810
▁alberta	-3811
▁comment	-3812
▁medieval	-3813
▁transform	-3814
abul	-3815
▁atm	-3816
▁pict	-3817
▁rang	-3818
▁stock	-3819
▁giving	-3820
▁spears	-3821
▁ari	-3822
▁pap	-3823
▁efforts	-3824
▁reflect	-3825
▁starting	-3826
▁structures	-3827
34	-3828
iff	-3829
▁enc	-3830
▁kar	-3831
▁lake	-3832
▁prep	-3833
▁motor	-3834
▁committee	-3835
▁2,	-3836
▁bow	-3837
▁virt	-3838
▁antibi	-3839
▁refers	-3840
▁simply	-3841
▁spoken	-3842
▁attacks	-3843
▁quickly	-3844
▁championship	-3845
comp	-3846
▁alphab	-3847
38	-3848
icit	-3849
▁nucle	-3850
▁alfred	-3851
▁allows	-3852
▁export	-3853
▁powers	-3854
▁greatest	-3855
▁necessary	-3856
ita	-3857
anth	-3858
life	-3859
▁fix	-3860
▁mah	-3861
▁analy	-3862
▁equip	-3863
▁month	-3864
▁square	-3865
▁operating	-3866
▁ire	-3867
ensity	-3868
▁geomet	-3869
▁orthodox	-3870
▁regarded	-3871
emis	-3872
▁purch	-3873
▁agreed	-3874
▁library	-3875
▁elections	-3876
▁containing	-3877
▁settlement	-3878
▁amp	-3879
▁exc	-3880
itable	-3881
▁abort	-3882
▁marked	-3883
▁equival	-3884
▁opposed	-3885
▁computers	-3886
▁gal	-3887
▁police	-3888
▁overall	-3889
▁refused	-3890
▁presented	-3891
▁custom	-3892
▁moment	-3893
▁specif	-3894
▁parties	-3895
▁democratic	-3896
▁protection	-3897
▁immediately	-3898
ds	-3899
▁22	-3900
▁wit	-3901
▁told	-3902
▁asked	-3903
ception	-3904
▁dynasty	-3905
anks	-3906
▁sla	-3907
illed	-3908
▁clos	-3909
▁aspect	-3910
▁freedom	-3911
▁management	-3912
gt	-3913
iph	-3914
rich	-3915
▁acts	-3916
▁brief	-3917
▁oldest	-3918
brew	-3919
quar	-3920
inity	-3921
▁repe	-3922
rose	-3923
▁oly	-3924
otics	-3925
▁folk	-3926
▁gram	-3927
▁immig	-3928
▁figure	-3929
▁module	-3930
▁jackson	-3931
▁versions	-3932
▁frequently	-3933
▁bce	-3934
inces	-3935
ternal	-3936
▁aspir	-3937
▁sport	-3938
▁devices	-3939
▁ordered	-3940
▁serious	-3941
▁distingu	-3942
sk	-3943
ogen	-3944
usion	-3945
▁2020	-3946
▁hero	-3947
▁ancest	-3948
▁awards	-3949
▁palace	-3950
▁officially	-3951
.)	-3952
ugg	-3953
▁fat	-3954
▁inj	-3955
▁voc	-3956
pired	-3957
▁swed	-3958
▁integr	-3959
▁leaving	-3960
▁ages	-3961
▁tend	-3962
▁authors	-3963
▁vehicles	-3964
isf	-3965
▁3.	-3966
adesh	-3967
▁antim	-3968
▁patri	-3969
▁atomic	-3970
▁decades	-3971
▁actually	-3972
▁exact	-3973
raction	-3974
▁columb	-3975
▁slight	-3976
▁spacecraft	-3977
▁subsequent	-3978
9"	-3979
gon	-3980
olute	-3981
▁choice	-3982
▁convention	-3983
oh	-3984
▁ic	-3985
olis	-3986
▁ans	-3987
▁chann	-3988
▁fully	-3989
▁wealth	-3990
▁equipment	-3991
2"	-3992
▁[[	-3993
▁2010	-3994
ussels	-3995
▁astro	-3996
▁blues	-3997
▁olymp	-3998
▁twent	-3999
▁bacter	-4000
▁showed	-4001
ini	-4002
non	-4003
▁178	-4004
▁1950	-4005
▁poll	-4006
▁takes	-4007
▁reference	-4008
mat	-4009
ream	-4010
onian	-4011
▁pron	-4012
▁growing	-4013
▁continue	-4014
▁critical	-4015
▁commander	-4016
▁expressed	-4017
ān	-4018
▁anx	-4019
▁aph	-4020
▁nasa	-4021
▁chron	-4022
▁reven	-4023
▁scientists	-4024
▁institutions	-4025
▁course	-4026
▁digital	-4027
▁nuclear	-4028
▁distribution	-4029
uck	-4030
▁vel	-4031
ivers	-4032
othes	-4033
water	-4034
▁holy	-4035
▁helped	-4036
ding	-4037
▁mut	-4038
force	-4039
▁apart	-4040
▁glass	-4041
▁inside	-4042
▁unique	-4043
ographic	-4044
▁purpose	-4045
▁creation	-4046
▁importance	-4047
▁28	-4048
▁sand	-4049
▁things	-4050
▁aristotle	-4051
gu	-4052
itz	-4053
▁aw	-4054
haps	-4055
izes	-4056
▁dark	-4057
▁mind	-4058
▁pope	-4059
▁encour	-4060
▁master	-4061
▁instruments	-4062
lt	-4063
▁lands	-4064
▁occurs	-4065
▁magazine	-4066
ila	-4067
▁nic	-4068
ortun	-4069
antage	-4070
▁bible	-4071
▁meant	-4072
▁motion	-4073
▁artemis	-4074
▁agricultural	-4075
ken	-4076
▁sets	-4077
▁ways	-4078
▁effic	-4079
▁paint	-4080
▁plate	-4081
▁metals	-4082
▁expected	-4083
▁jur	-4084
iform	-4085
▁device	-4086
▁michael	-4087
▁scotland	-4088
eds	-4089
well	-4090
order	-4091
▁enem	-4092
▁aramaic	-4093
▁airlines	-4094
▁brussels	-4095
▁spiritual	-4096
▁differences	-4097
▁significantly	-4098
oe	-4099
gal	-4100
inus	-4101
▁kings	-4102
▁branch	-4103
▁magnitude	-4104
agon	-4105
▁meeting	-4106
▁accompan	-4107
oured	-4108
▁stay	-4109
alities	-4110
▁arrived	-4111
▁politics	-4112
▁connected	-4113
▁resources	-4114
▁combination	-4115
oral	-4116
ately	-4117
▁follows	-4118
▁recognized	-4119
di	-4120
▁nin	-4121
▁wave	-4122
▁income	-4123
▁conflict	-4124
▁bang	-4125
▁newsp	-4126
uscript	-4127
▁article	-4128
▁planned	-4129
mal	-4130
such	-4131
▁mary	-4132
▁ships	-4133
▁closed	-4134
▁directed	-4135
▁hospital	-4136
▁principle	-4137
inu	-4138
oka	-4139
▁adj	-4140
▁stad	-4141
▁aberde	-4142
▁playing	-4143
▁writings	-4144
▁grew	-4145
▁heat	-4146
entially	-4147
▁closely	-4148
▁unknown	-4149
▁expanded	-4150
▁wa	-4151
rate	-4152
▁lad	-4153
ching	-4154
▁evolution	-4155
▁0	-4156
▁mand	-4157
▁news	-4158
▁adult	-4159
▁georg	-4160
▁prize	-4161
▁rough	-4162
▁solar	-4163
akistan	-4164
▁railway	-4165
3%	-4166
4"	-4167
bu	-4168
what	-4169
▁comes	-4170
▁believe	-4171
▁village	-4172
▁completely	-4173
7%	-4174
ees	-4175
nam	-4176
▁os	-4177
chest	-4178
▁frag	-4179
▁moving	-4180
▁content	-4181
▁factors	-4182
▁removed	-4183
▁powerful	-4184
bre	-4185
▁(),	-4186
rants	-4187
▁seat	-4188
▁vote	-4189
▁joint	-4190
▁price	-4191
▁andrew	-4192
▁toward	-4193
▁awarded	-4194
▁instance	-4195
▁recently	-4196
▁solution	-4197
▁attempted	-4198
▁bon	-4199
▁lic	-4200
▁sav	-4201
▁tun	-4202
▁bomb	-4203
▁seem	-4204
▁gives	-4205
▁weeks	-4206
▁severe	-4207
▁quality	-4208
▁armenian	-4209
▁aluminium	-4210
▁manuscript	-4211
yll	-4212
▁182	-4213
▁dur	-4214
▁says	-4215
rodite	-4216
▁workers	-4217
6"	-4218
▁ice	-4219
claim	-4220
▁reach	-4221
▁track	-4222
▁gained	-4223
▁sought	-4224
▁determined	-4225
alt	-4226
bar	-4227
neg	-4228
uer	-4229
▁rac	-4230
ulate	-4231
▁abst	-4232
▁caes	-4233
▁steel	-4234
▁standards	-4235
▁axi	-4236
▁mov	-4237
rison	-4238
illery	-4239
▁write	-4240
▁joseph	-4241
▁recomm	-4242
▁wanted	-4243
▁winning	-4244
lar	-4245
set	-4246
|19	-4247
▁lm	-4248
encies	-4249
▁alger	-4250
▁notes	-4251
▁astero	-4252
▁stories	-4253
▁featured	-4254
▁difference	-4255
gov	-4256
▁capp	-4257
▁impl	-4258
▁+	-4259
thing	-4260
▁minutes	-4261
▁attention	-4262
▁astronauts	-4263
ti	-4264
ras	-4265
ordin	-4266
uated	-4267
▁ireland	-4268
▁byzantine	-4269
▁traditions	-4270
1%	-4271
oty	-4272
oned	-4273
road	-4274
usal	-4275
ician	-4276
▁coal	-4277
▁accur	-4278
rations	-4279
▁inspired	-4280
▁executive	-4281
9%	-4282
_2	-4283
▁anne	-4284
▁cars	-4285
▁ring	-4286
8"	-4287
anes	-4288
▁jes	-4289
ograp	-4290
▁cycl	-4291
▁race	-4292
▁tried	-4293
cluding	-4294
▁absolute	-4295
▁captured	-4296
▁suggests	-4297
acc	-4298
awa	-4299
ipped	-4300
▁exped	-4301
▁writer	-4302
unct	-4303
ani	-4304
urs	-4305
▁hus	-4306
▁sir	-4307
▁revol	-4308
▁studied	-4309
▁positions	-4310
65	-4311
▁ace	-4312
▁dog	-4313
▁sar	-4314
▁anch	-4315
▁drive	-4316
▁causes	-4317
▁tribes	-4318
▁convers	-4319
▁persian	-4320
▁researc	-4321
▁gard	-4322
▁ther	-4323
▁drink	-4324
▁focus	-4325
▁sales	-4326
▁martin	-4327
▁notably	-4328
cop	-4329
indu	-4330
▁lin	-4331
▁wid	-4332
▁kept	-4333
▁pure	-4334
▁atmosp	-4335
▁dedicated	-4336
▁depending	-4337
bury	-4338
▁bronx	-4339
▁hebrew	-4340
▁paralle	-4341
▁succession	-4342
uns	-4343
fect	-4344
▁cos	-4345
▁mad	-4346
▁saf	-4347
raeli	-4348
▁ones	-4349
▁peak	-4350
▁tank	-4351
hammad	-4352
▁defence	-4353
▁fighting	-4354
7"	-4355
ella	-4356
▁berm	-4357
▁mort	-4358
elaide	-4359
▁nomin	-4360
▁views	-4361
igenous	-4362
▁census	-4363
▁reduce	-4364
▁saying	-4365
▁proport	-4366
▁opportun	-4367
▁worldwide	-4368
tes	-4369
amin	-4370
cock	-4371
ctic	-4372
zegov	-4373
▁draw	-4374
▁gall	-4375
▁frame	-4376
▁lingu	-4377
▁defend	-4378
▁fields	-4379
▁normal	-4380
▁spring	-4381
▁perhaps	-4382
▁typical	-4383
▁possibly	-4384
▁(2	-4385
▁mes	-4386
▁dipl	-4387
▁gain	-4388
▁sons	-4389
▁hands	-4390
▁maced	-4391
instein	-4392
▁domestic	-4393
▁specifically	-4394
ube	-4395
greg	-4396
onym	-4397
teen	-4398
▁cold	-4399
▁rein	-4400
▁tree	-4401
▁scale	-4402
mas	-4403
▁oxid	-4404
▁tenn	-4405
▁proced	-4406
▁raised	-4407
▁influential	-4408
▁ale	-4409
▁swe	-4410
pping	-4411
▁corn	-4412
▁amiga	-4413
▁proved	-4414
zegovina	-4415
▁running	-4416
▁colonial	-4417
▁describe	-4418
▁pakistan	-4419
▁sciences	-4420
1)	-4421
4%	-4422
miss	-4423
anger	-4424
▁grant	-4425
▁ruled	-4426
▁texas	-4427
▁ammonia	-4428
▁od	-4429
iders	-4430
▁serve	-4431
▁shell	-4432
▁alabama	-4433
▁receive	-4434
▁secondary	-4435
▁traditionally	-4436
2%	-4437
aq	-4438
ora	-4439
pres	-4440
▁avoid	-4441
▁integ	-4442
▁phase	-4443
▁artist	-4444
▁bodies	-4445
omp	-4446
lers	-4447
▁183	-4448
uther	-4449
▁aband	-4450
▁inhib	-4451
▁athena	-4452
▁cp	-4453
▁arth	-4454
ranean	-4455
▁chain	-4456
6%	-4457
hr	-4458
▁bes	-4459
▁mit	-4460
▁sant	-4461
▁thir	-4462
▁2009,	-4463
▁defeat	-4464
▁inhabit	-4465
▁arkansas	-4466
▁capacity	-4467
▁historically	-4468
yah	-4469
hman	-4470
rupt	-4471
▁audi	-4472
▁hell	-4473
▁mouth	-4474
▁adelaide	-4475
▁literary	-4476
▁leadership	-4477
▁increasingly	-4478
ancy	-4479
▁ath	-4480
▁jul	-4481
stone	-4482
▁agent	-4483
▁issued	-4484
▁rivers	-4485
▁covered	-4486
▁student	-4487
inian	-4488
▁liqu	-4489
▁births	-4490
▁colony	-4491
▁sister	-4492
▁supply	-4493
▁throne	-4494
▁advance	-4495
▁shortly	-4496
▁destroyed	-4497
▁indigenous	-4498
gom	-4499
fall	-4500
isters	-4501
racted	-4502
▁brown	-4503
▁slaves	-4504
▁belgium	-4505
▁aphrodite	-4506
▁extensive	-4507
las	-4508
▁27	-4509
▁gdp	-4510
cules	-4511
right	-4512
▁2011,	-4513
▁golden	-4514
▁volume	-4515
▁visited	-4516
▁herzegovina	-4517
▁ba	-4518
▁sel	-4519
▁2017,	-4520
▁alleg	-4521
▁compr	-4522
▁print	-4523
▁experi	-4524
▁challen	-4525
▁albanian	-4526
▁relation	-4527
▁interview	-4528
▁temperatures	-4529
uet	-4530
▁tv	-4531
▁fit	-4532
orter	-4533
▁indu	-4534
▁note	-4535
▁combat	-4536
▁planet	-4537
▁conducted	-4538
▁christianity	-4539
▁orb	-4540
▁isol	-4541
▁room	-4542
▁2019,	-4543
▁absor	-4544
▁mixed	-4545
▁towns	-4546
▁assass	-4547
▁effort	-4548
▁perman	-4549
▁missile	-4550
▁settled	-4551
▁alphabet	-4552
▁franklin	-4553
▁headquar	-4554
▁obtained	-4555
ker	-4556
char	-4557
▁180	-4558
▁runs	-4559
▁2018,	-4560
▁infant	-4561
▁electrons	-4562
agan	-4563
▁alone	-4564
▁respond	-4565
iterranean	-4566
▁historians	-4567
▁popularity	-4568
▁mathematical	-4569
su	-4570
cher	-4571
▁fuel	-4572
▁khan	-4573
▁semi	-4574
▁tell	-4575
▁silver	-4576
▁anxiety	-4577
▁reports	-4578
▁inscript	-4579
▁similarly	-4580
▁developing	-4581
▁etc	-4582
organ	-4583
▁fast	-4584
▁loyal	-4585
▁shape	-4586
▁ashoka	-4587
▁orders	-4588
▁output	-4589
▁actions	-4590
▁discovery	-4591
▁mathematics	-4592
▁dry	-4593
itors	-4594
▁duke	-4595
▁advoc	-4596
▁fifth	-4597
▁solid	-4598
▁exclus	-4599
▁nether	-4600
▁senate	-4601
▁shared	-4602
▁justice	-4603
▁aberdeen	-4604
▁projects	-4605
ki	-4606
▁km	-4607
rence	-4608
▁boron	-4609
▁cerem	-4610
▁quarter	-4611
▁artillery	-4612
▁environmental	-4613
rie	-4614
from	-4615
tion	-4616
▁achill	-4617
▁useful	-4618
▁slavery	-4619
▁regarding	-4620
▁something	-4621
▁succeeded	-4622
▁aal	-4623
▁ign	-4624
▁lie	-4625
▁1930	-4626
▁brune	-4627
▁plans	-4628
▁advent	-4629
▁assault	-4630
▁surrounding	-4631
("	-4632
▁)	-4633
joy	-4634
▁nap	-4635
▁feed	-4636
▁yield	-4637
▁stable	-4638
▁therap	-4639
▁situation	-4640
cts	-4641
ffalo	-4642
▁chic	-4643
▁epis	-4644
▁merc	-4645
▁pray	-4646
▁auton	-4647
▁chart	-4648
▁cooper	-4649
▁descent	-4650
▁southeast	-4651
▁christians	-4652
vo	-4653
yes	-4654
aeus	-4655
▁amph	-4656
icians	-4657
▁prepar	-4658
▁austria	-4659
▁context	-4660
cs	-4661
gg	-4662
ja	-4663
aling	-4664
▁route	-4665
▁amazon	-4666
▁opening	-4667
▁entirely	-4668
▁substant	-4669
▁transfer	-4670
▁composition	-4671
▁netherlands	-4672
▁organizations	-4673
▁understanding	-4674
▁23	-4675
▁cham	-4676
▁felt	-4677
▁sult	-4678
▁daily	-4679
▁promot	-4680
▁fiction	-4681
▁alliance	-4682
▁background	-4683
▁components	-4684
-1	-4685
ür	-4686
now	-4687
▁(20	-4688
▁ajax	-4689
▁2020,	-4690
▁beaut	-4691
▁limit	-4692
▁molec	-4693
▁users	-4694
▁diplom	-4695
▁labour	-4696
▁survey	-4697
▁einstein	-4698
▁slightly	-4699
▁converted	-4700
rec	-4701
osen	-4702
▁easily	-4703
▁taught	-4704
▁disraeli	-4705
▁competition	-4706
8%	-4707
▁naz	-4708
▁sty	-4709
ladesh	-4710
▁trees	-4711
▁nearby	-4712
▁replace	-4713
▁mediterranean	-4714
iant	-4715
▁bib	-4716
▁luc	-4717
▁paid	-4718
▁negot	-4719
▁detect	-4720
▁owners	-4721
▁advantage	-4722
hi	-4723
illa	-4724
oles	-4725
▁1920	-4726
▁foss	-4727
▁poem	-4728
ection	-4729
▁2012,	-4730
▁split	-4731
entions	-4732
▁arrest	-4733
▁houses	-4734
▁canadian	-4735
▁phenomen	-4736
▁universe	-4737
▁describes	-4738
▁providing	-4739
500	-4740
oon	-4741
lies	-4742
▁teac	-4743
action	-4744
gomery	-4745
▁mobile	-4746
▁causing	-4747
▁attempts	-4748
▁rub	-4749
▁innov	-4750
▁rates	-4751
▁tourism	-4752
▁buddhist	-4753
▁ministry	-4754
racy	-4755
▁gir	-4756
acing	-4757
▁cuis	-4758
▁buddh	-4759
▁herit	-4760
▁leave	-4761
▁newly	-4762
▁cancer	-4763
▁andalus	-4764
▁creating	-4765
▁neighbor	-4766
▁practices	-4767
▁producing	-4768
▁description	-4769
don	-4770
brit	-4771
ione	-4772
▁got	-4773
phone	-4774
▁else	-4775
▁peop	-4776
▁jesus	-4777
▁becomes	-4778
▁critics	-4779
▁granted	-4780
▁reasons	-4781
▁hypothes	-4782
▁aid	-4783
▁(200	-4784
▁2007	-4785
▁bind	-4786
▁2010,	-4787
▁2021,	-4788
▁fixed	-4789
▁rival	-4790
▁linear	-4791
▁achieved	-4792
▁sequence	-4793
▁controlled	-4794
▁generation	-4795
zy	-4796
ilit	-4797
orage	-4798
ictions	-4799
▁conson	-4800
▁albania	-4801
▁failure	-4802
▁equivalent	-4803
▁continental	-4804
▁rh	-4805
umen	-4806
works	-4807
▁courts	-4808
▁turkey	-4809
▁acquired	-4810
▁columbia	-4811
▁partners	-4812
rum	-4813
▁bag	-4814
▁skin	-4815
▁asian	-4816
▁branc	-4817
▁dance	-4818
▁drugs	-4819
▁polar	-4820
▁illust	-4821
▁termin	-4822
▁heritage	-4823
▁rejected	-4824
▁montgomery	-4825
▁ultimately	-4826
qa	-4827
asi	-4828
iox	-4829
born	-4830
seud	-4831
soft	-4832
inite	-4833
pread	-4834
▁user	-4835
ifying	-4836
▁arian	-4837
▁simpl	-4838
▁legacy	-4839
▁visual	-4840
▁stadium	-4841
▁dialects	-4842
▁provinces	-4843
▁bangladesh	-4844
▁conference	-4845
▁statistics	-4846
▁application	-4847
aper	-4848
trans	-4849
▁core	-4850
▁penn	-4851
ologies	-4852
▁discip	-4853
▁edition	-4854
▁peoples	-4855
▁reconst	-4856
▁contained	-4857
▁inhabitants	-4858
',	-4859
bro	-4860
lav	-4861
yan	-4862
▁sod	-4863
inter	-4864
▁zone	-4865
▁seems	-4866
istered	-4867
▁concluded	-4868
sch	-4869
ills	-4870
▁aol	-4871
▁gods	-4872
▁amino	-4873
▁cryst	-4874
▁usage	-4875
▁occasion	-4876
▁fundament	-4877
▁statement	-4878
75	-4879
|20	-4880
iber	-4881
warz	-4882
▁amd	-4883
ening	-4884
▁2011	-4885
▁ainu	-4886
▁moral	-4887
▁weapons	-4888
▁particles	-4889
▁sufficient	-4890
▁publication	-4891
rid	-4892
yst	-4893
iring	-4894
▁bott	-4895
▁plus	-4896
▁fleet	-4897
▁guard	-4898
▁heavily	-4899
▁hardware	-4900
▁platform	-4901
▁technique	-4902
▁engineering	-4903
iced	-4904
▁arms	-4905
▁cris	-4906
▁feel	-4907
▁goal	-4908
▁2008,	-4909
▁2014,	-4910
▁naval	-4911
▁slave	-4912
▁brunei	-4913
▁demand	-4914
▁uniform	-4915
▁universal	-4916
ois	-4917
▁gh	-4918
heim	-4919
eness	-4920
▁2016,	-4921
▁enjoy	-4922
▁wides	-4923
▁listed	-4924
▁reprodu	-4925
▁astrolog	-4926
▁employed	-4927
▁chemistry	-4928
▁experiments	-4929
▁ori	-4930
▁sle	-4931
▁2009	-4932
▁fine	-4933
utation	-4934
▁damage	-4935
▁mexico	-4936
▁propos	-4937
▁pacific	-4938
▁austrian	-4939
▁essential	-4940
uz	-4941
ala	-4942
▁cel	-4943
▁cool	-4944
▁chosen	-4945
▁existing	-4946
▁internet	-4947
▁strength	-4948
▁teaching	-4949
▁intellect	-4950
▁organized	-4951
▁principal	-4952
▁connection	-4953
▁widespread	-4954
ny	-4955
equ	-4956
leg	-4957
▁py	-4958
amic	-4959
odes	-4960
udes	-4961
▁sed	-4962
▁obser	-4963
▁external	-4964
▁thousands	-4965
▁constructed	-4966
ado	-4967
press	-4968
▁stop	-4969
▁veget	-4970
▁voice	-4971
▁liberal	-4972
▁personnel	-4973
▁facilities	-4974
▁transportation	-4975
85	-4976
▁brom	-4977
▁conc	-4978
▁sultan	-4979
▁electro	-4980
▁augustus	-4981
▁residents	-4982
▁technical	-4983
oring	-4984
▁attend	-4985
▁medium	-4986
▁ranked	-4987
▁500	-4988
▁beng	-4989
▁cook	-4990
▁lith	-4991
▁snow	-4992
▁vast	-4993
▁anton	-4994
▁cabin	-4995
▁neuro	-4996
▁trial	-4997
ologists	-4998
▁correct	-4999
▁historic	-5000
▁improved	-5001
▁invasion	-5002
▁intelligence	-5003
gro	-5004
▁seats	-5005
▁bright	-5006
▁bermuda	-5007
▁affected	-5008
▁behavior	-5009
▁muhammad	-5010
▁advertising	-5011
47	-5012
ture	-5013
state	-5014
▁guit	-5015
▁descend	-5016
ati	-5017
eed	-5018
know	-5019
house	-5020
▁zero	-5021
ceived	-5022
▁2006,	-5023
▁edward	-5024
▁portion	-5025
▁reading	-5026
▁schwarz	-5027
▁scottish	-5028
▁extremely	-5029
rac	-5030
▁4.	-5031
stood	-5032
▁2008	-5033
ructure	-5034
▁string	-5035
▁warhol	-5036
▁dialect	-5037
▁setting	-5038
▁controll	-5039
▁monaster	-5040
▁transition	-5041
▁ped	-5042
rogen	-5043
▁2006	-5044
▁pros	-5045
▁carib	-5046
▁demonst	-5047
▁francis	-5048
▁missions	-5049
▁processes	-5050
▁attributed	-5051
▁programming	-5052
▁concentration	-5053
▁bav	-5054
aland	-5055
▁safe	-5056
▁shot	-5057
called	-5058
mology	-5059
▁2007,	-5060
▁minim	-5061
▁quite	-5062
▁arsenic	-5063
▁accounts	-5064
bb	-5065
▁flat	-5066
▁phon	-5067
▁chair	-5068
▁schem	-5069
▁affairs	-5070
▁successor	-5071
▁consisting	-5072
▁manufactur	-5073
▁abc	-5074
▁box	-5075
▁los	-5076
isted	-5077
▁canon	-5078
▁ideal	-5079
▁conduct	-5080
▁diamond	-5081
▁speakers	-5082
▁algebraic	-5083
▁algorithm	-5084
▁additionally	-5085
oly	-5086
▁pas	-5087
▁walls	-5088
▁twenty	-5089
▁alleged	-5090
▁explain	-5091
▁exception	-5092
▁;	-5093
ett	-5094
elve	-5095
play	-5096
ropri	-5097
▁2014	-5098
▁burk	-5099
▁horse	-5100
theless	-5101
▁alkali	-5102
▁disput	-5103
▁online	-5104
▁stress	-5105
inations	-5106
▁parents	-5107
▁articles	-5108
▁selected	-5109
▁stations	-5110
▁experienced	-5111
▁introduction	-5112
▁philosophers	-5113
bean	-5114
gger	-5115
▁die	-5116
raham	-5117
▁mode	-5118
▁viet	-5119
contin	-5120
vation	-5121
▁bluet	-5122
▁sympt	-5123
▁teach	-5124
▁boston	-5125
▁factor	-5126
▁search	-5127
atically	-5128
▁identity	-5129
▁nevertheless	-5130
95	-5131
ni	-5132
emen	-5133
mers	-5134
▁2012	-5135
▁circum	-5136
▁republican	-5137
▁researchers	-5138
ials	-5139
▁clo	-5140
▁und	-5141
▁beer	-5142
ishops	-5143
▁angle	-5144
▁wales	-5145
igation	-5146
▁learning	-5147
▁frequency	-5148
▁chlor	-5149
▁dates	-5150
▁roughly	-5151
▁assyrian	-5152
▁separated	-5153
64	-5154
rey	-5155
emic	-5156
vant	-5157
▁2016	-5158
▁going	-5159
▁lives	-5160
▁sides	-5161
▁debate	-5162
▁crowley	-5163
▁maximum	-5164
▁younger	-5165
▁occupied	-5166
21	-5167
bel	-5168
ova	-5169
roll	-5170
▁flag	-5171
▁suff	-5172
▁cycle	-5173
▁irish	-5174
▁polic	-5175
▁angeles	-5176
▁husband	-5177
▁parallel	-5178
▁criticism	-5179
▁maintained	-5180
3)	-5181
tra	-5182
▁phr	-5183
5,000	-5184
▁gates	-5185
▁valid	-5186
▁extent	-5187
▁liquid	-5188
▁marine	-5189
▁cuisine	-5190
▁secretary	-5191
▁designated	-5192
86	-5193
amm	-5194
lis	-5195
▁ety	-5196
ānanda	-5197
▁agass	-5198
issance	-5199
▁braille	-5200
▁traffic	-5201
rif	-5202
▁""	-5203
▁cla	-5204
▁cub	-5205
iling	-5206
▁calls	-5207
▁theories	-5208
▁authorities	-5209
langu	-5210
urally	-5211
western	-5212
▁coming	-5213
▁rebell	-5214
▁spaces	-5215
▁alfonso	-5216
▁treated	-5217
including	-5218
▁officials	-5219
▁translation	-5220
gar	-5221
opes	-5222
▁sail	-5223
▁resemb	-5224
▁sevent	-5225
▁studio	-5226
▁scholar	-5227
▁suffered	-5228
▁contributed	-5229
open	-5230
ripp	-5231
▁din	-5232
▁crus	-5233
▁isot	-5234
▁depos	-5235
related	-5236
▁alchem	-5237
▁greatly	-5238
▁argument	-5239
▁officers	-5240
▁requires	-5241
▁investment	-5242
▁supporting	-5243
▁communication	-5244
mic	-5245
adel	-5246
under	-5247
▁antar	-5248
▁antis	-5249
▁hindu	-5250
▁hitch	-5251
▁agency	-5252
▁managed	-5253
▁physics	-5254
▁violence	-5255
▁fru	-5256
hetic	-5257
▁owned	-5258
▁strugg	-5259
▁ānanda	-5260
▁chicago	-5261
▁origins	-5262
▁abortion	-5263
▁revealed	-5264
▁reactions	-5265
▁expedition	-5266
▁considerable	-5267
irs	-5268
▁60	-5269
also	-5270
▁boy	-5271
▁2001	-5272
▁clin	-5273
▁gulf	-5274
ishing	-5275
▁copper	-5276
▁nothing	-5277
▁strongly	-5278
▁classification	-5279
ón	-5280
hum	-5281
term	-5282
▁nut	-5283
upunct	-5284
▁2015,	-5285
▁plane	-5286
▁youth	-5287
▁deploy	-5288
▁images	-5289
▁charged	-5290
▁forming	-5291
▁interior	-5292
▁operated	-5293
▁confirmed	-5294
2)	-5295
mus	-5296
town	-5297
▁sax	-5298
▁shap	-5299
▁clubs	-5300
▁acting	-5301
hetamine	-5302
▁carrier	-5303
▁density	-5304
▁emerged	-5305
▁holding	-5306
▁brothers	-5307
▁founding	-5308
▁household	-5309
▁northwest	-5310
▁represents	-5311
45	-5312
300	-5313
ato	-5314
▁(1	-5315
down	-5316
▁ago	-5317
▁sin	-5318
▁marg	-5319
▁soil	-5320
▁opera	-5321
▁crisis	-5322
▁format	-5323
▁legend	-5324
▁dominant	-5325
▁prepared	-5326
▁variable	-5327
▁alongside	-5328
▁protestant	-5329
▁na	-5330
after	-5331
eties	-5332
qaeda	-5333
▁opin	-5334
iminal	-5335
▁philip	-5336
▁portra	-5337
▁capable	-5338
▁wallace	-5339
▁bluetooth	-5340
bal	-5341
vin	-5342
–18	-5343
uros	-5344
▁bear	-5345
▁qual	-5346
olitan	-5347
▁fresh	-5348
▁appeal	-5349
▁belize	-5350
▁fought	-5351
▁select	-5352
▁styles	-5353
▁withdra	-5354
▁academic	-5355
▁christie	-5356
▁portugal	-5357
▁strategy	-5358
▁otherwise	-5359
▁universities	-5360
ci	-5361
alf	-5362
kes	-5363
wan	-5364
ocks	-5365
▁cav	-5366
▁ske	-5367
negie	-5368
▁2019	-5369
astern	-5370
▁juris	-5371
▁kabul	-5372
▁basket	-5373
▁binary	-5374
▁novels	-5375
▁obtain	-5376
▁bulgarian	-5377
▁presidential	-5378
aso	-5379
ipel	-5380
▁cin	-5381
▁2005	-5382
▁abbe	-5383
▁nick	-5384
▁vess	-5385
▁amber	-5386
▁carol	-5387
▁hence	-5388
▁input	-5389
▁leaves	-5390
▁adapted	-5391
▁branches	-5392
▁professor	-5393
▁3,	-5394
▁80	-5395
iana	-5396
pers	-5397
▁hem	-5398
▁onto	-5399
▁oppon	-5400
▁pseud	-5401
enegger	-5402
ologist	-5403
▁hunting	-5404
▁neither	-5405
▁increases	-5406
obe	-5407
pop	-5408
▁mere	-5409
▁sust	-5410
hedral	-5411
▁exerc	-5412
certain	-5413
eration	-5414
▁column	-5415
▁exists	-5416
▁lowest	-5417
▁polish	-5418
▁waters	-5419
▁buffalo	-5420
▁muslims	-5421
naissance	-5422
▁caribbean	-5423
▁institution	-5424
fin	-5425
▁tact	-5426
active	-5427
▁decor	-5428
▁aspects	-5429
▁classes	-5430
▁hitchcock	-5431
▁synthesis	-5432
_3	-5433
lan	-5434
yer	-5435
kins	-5436
rics	-5437
▁von	-5438
ading	-5439
gence	-5440
ribed	-5441
▁feat	-5442
▁firm	-5443
▁twelve	-5444
▁acupunct	-5445
▁approved	-5446
▁understood	-5447
▁schwarzenegger	-5448
▁aur	-5449
while	-5450
▁sulf	-5451
▁tiss	-5452
▁archb	-5453
▁philipp	-5454
▁testing	-5455
▁worship	-5456
▁somewhat	-5457
▁characteristics	-5458
bes	-5459
osph	-5460
class	-5461
erves	-5462
usalem	-5463
▁goods	-5464
▁actual	-5465
▁decade	-5466
▁coastal	-5467
▁infrast	-5468
▁carnegie	-5469
▁modified	-5470
▁normally	-5471
▁paintings	-5472
▁varieties	-5473
▁classified	-5474
▁principles	-5475
bus	-5476
▁32	-5477
aker	-5478
fully	-5479
▁iran	-5480
▁soul	-5481
orters	-5482
▁anthe	-5483
▁crime	-5484
▁divers	-5485
▁narrow	-5486
▁safety	-5487
▁unable	-5488
▁abraham	-5489
▁forward	-5490
▁turkish	-5491
▁molecules	-5492
ih	-5493
ko	-5494
agu	-5495
ogue	-5496
antly	-5497
▁2018	-5498
▁lies	-5499
▁2005,	-5500
▁index	-5501
▁copies	-5502
orf	-5503
aust	-5504
▁ada	-5505
▁jobs	-5506
▁kenn	-5507
▁kore	-5508
▁serb	-5509
▁basin	-5510
unction	-5511
▁chance	-5512
▁penins	-5513
▁radical	-5514
▁produces	-5515
▁conservative	-5516
–2	-5517
aka	-5518
▁lam	-5519
aming	-5520
ricts	-5521
▁2017	-5522
▁bass	-5523
▁bases	-5524
▁affect	-5525
▁angola	-5526
▁evolved	-5527
▁attacked	-5528
▁geometry	-5529
▁symptoms	-5530
▁translated	-5531
▁philosophical	-5532
arn	-5533
iner	-5534
agues	-5535
osite	-5536
▁abol	-5537
▁brig	-5538
▁plot	-5539
▁multi	-5540
▁bronze	-5541
▁titles	-5542
▁volunt	-5543
▁decline	-5544
▁diverse	-5545
▁involve	-5546
▁rapidly	-5547
▁category	-5548
ographical	-5549
▁expression	-5550
▁manufacturing	-5551
":	-5552
▁4,	-5553
osure	-5554
verty	-5555
▁flor	-5556
▁susp	-5557
▁broke	-5558
▁holds	-5559
speaking	-5560
▁channel	-5561
▁fresnel	-5562
▁indicate	-5563
▁celebrated	-5564
ws	-5565
▁5.	-5566
that	-5567
capital	-5568
▁anatol	-5569
▁greeks	-5570
▁capture	-5571
▁centaur	-5572
▁graphics	-5573
▁measured	-5574
▁predomin	-5575
▁headquarters	-5576
ozo	-5577
▁31	-5578
▁eu	-5579
rick	-5580
▁hat	-5581
▁calc	-5582
▁sell	-5583
▁2001,	-5584
▁ratio	-5585
▁allied	-5586
▁batter	-5587
▁danger	-5588
▁favour	-5589
▁finished	-5590
▁memorial	-5591
▁communications	-5592
orus	-5593
▁dub	-5594
▁ran	-5595
▁sie	-5596
ctors	-5597
enger	-5598
world	-5599
▁cros	-5600
▁enco	-5601
▁2022,	-5602
▁newton	-5603
▁movements	-5604
▁corporation	-5605
▁corresponding	-5606
ek	-5607
gl	-5608
celer	-5609
▁ille	-5610
▁audio	-5611
▁boliv	-5612
▁inner	-5613
▁score	-5614
▁baptist	-5615
▁designs	-5616
▁determine	-5617
▁atmosphere	-5618
tw	-5619
add	-5620
iac	-5621
▁29	-5622
▁dna	-5623
▁lyn	-5624
produ	-5625
▁shut	-5626
itudes	-5627
omorph	-5628
▁needs	-5629
▁scene	-5630
▁acknow	-5631
▁armies	-5632
▁turing	-5633
▁aspirin	-5634
▁focused	-5635
abilities	-5636
▁abandoned	-5637
▁component	-5638
▁recording	-5639
▁variations	-5640
ano	-5641
pha	-5642
rete	-5643
lical	-5644
▁faso	-5645
hisatt	-5646
▁compl	-5647
▁roads	-5648
▁allies	-5649
▁assumed	-5650
▁burkina	-5651
▁classic	-5652
▁poverty	-5653
▁audience	-5654
▁repeated	-5655
▁permanent	-5656
fa	-5657
law	-5658
wal	-5659
reek	-5660
▁why	-5661
gment	-5662
ormon	-5663
▁doll	-5664
ighter	-5665
▁nobel	-5666
▁expect	-5667
▁jurisd	-5668
▁luther	-5669
▁conquest	-5670
▁interpretation	-5671
iny	-5672
oen	-5673
▁ru	-5674
iary	-5675
▁aus	-5676
▁gri	-5677
▁2015	-5678
▁fried	-5679
▁tests	-5680
▁veloc	-5681
▁agassi	-5682
▁buried	-5683
▁restaur	-5684
▁substit	-5685
▁patients	-5686
▁superior	-5687
▁fundamental	-5688
▁incorporated	-5689
oke	-5690
▁ul	-5691
ette	-5692
▁pel	-5693
▁actor	-5694
jection	-5695
▁pieces	-5696
▁gradually	-5697
▁infrastructure	-5698
gh	-5699
yd	-5700
▁aa	-5701
arab	-5702
eless	-5703
▁bicy	-5704
▁clim	-5705
▁guid	-5706
▁purs	-5707
▁maria	-5708
▁argues	-5709
▁divine	-5710
▁orange	-5711
▁organic	-5712
▁purposes	-5713
▁practical	-5714
▁35	-5715
iger	-5716
▁gene	-5717
▁rural	-5718
▁truth	-5719
▁budget	-5720
▁guitar	-5721
▁orchest	-5722
▁storage	-5723
▁infantry	-5724
▁producer	-5725
▁restrict	-5726
▁dominated	-5727
▁etymology	-5728
▁involving	-5729
▁processing	-5730
▁constitutional	-5731
▁°	-5732
kan	-5733
urb	-5734
▁eye	-5735
▁lee	-5736
▁greg	-5737
yllium	-5738
▁banks	-5739
▁enemy	-5740
▁signs	-5741
▁adding	-5742
▁agripp	-5743
▁dating	-5744
▁publish	-5745
▁attended	-5746
▁criminal	-5747
▁radiation	-5748
▁recognition	-5749
opt	-5750
▁ky	-5751
oque	-5752
oric	-5753
▁vac	-5754
antic	-5755
▁mist	-5756
▁zeus	-5757
▁plain	-5758
▁manager	-5759
▁prisoners	-5760
▁successfully	-5761
_4	-5762
mn	-5763
sky	-5764
phil	-5765
▁egg	-5766
▁fly	-5767
erted	-5768
▁ampl	-5769
▁batt	-5770
▁cards	-5771
▁deriv	-5772
▁wound	-5773
istical	-5774
urosawa	-5775
▁metrop	-5776
▁viewed	-5777
▁georgia	-5778
▁achilles	-5779
▁missiles	-5780
▁philosopher	-5781
pat	-5782
free	-5783
uate	-5784
icill	-5785
▁(199	-5786
▁ants	-5787
▁eyes	-5788
▁none	-5789
▁roll	-5790
stream	-5791
▁laure	-5792
ropical	-5793
▁preced	-5794
▁acceler	-5795
▁protein	-5796
▁visible	-5797
▁doctrine	-5798
▁formally	-5799
▁invented	-5800
▁measures	-5801
▁acupuncture	-5802
rav	-5803
izon	-5804
vere	-5805
hered	-5806
idges	-5807
tolem	-5808
▁insur	-5809
▁theme	-5810
▁consec	-5811
▁fellow	-5812
▁poetry	-5813
▁prohib	-5814
▁borders	-5815
▁opposite	-5816
ifications	-5817
▁peninsula	-5818
▁selection	-5819
iy	-5820
bour	-5821
otes	-5822
▁pent	-5823
▁twice	-5824
▁explan	-5825
▁linked	-5826
▁patron	-5827
▁sample	-5828
▁terror	-5829
▁forests	-5830
▁officer	-5831
▁witness	-5832
▁approval	-5833
▁identify	-5834
▁kurosawa	-5835
▁continues	-5836
obi	-5837
▁bid	-5838
odies	-5839
▁bern	-5840
▁jean	-5841
▁tall	-5842
▁judic	-5843
▁shoot	-5844
▁poland	-5845
▁satisf	-5846
▁declined	-5847
▁demonstr	-5848
▁electronic	-5849
▁establishment	-5850
4)	-5851
ena	-5852
▁haw	-5853
▁jac	-5854
▁beat	-5855
▁arrow	-5856
▁mormon	-5857
▁therapy	-5858
▁weather	-5859
▁painting	-5860
▁policies	-5861
▁brazilian	-5862
▁locations	-5863
▁reduction	-5864
▁references	-5865
▁antibiotics	-5866
▁populations	-5867
des	-5868
cape	-5869
hens	-5870
irot	-5871
pass	-5872
rant	-5873
rees	-5874
▁179	-5875
▁bin	-5876
▁hur	-5877
dered	-5878
▁bede	-5879
▁emot	-5880
▁rose	-5881
▁sole	-5882
▁partly	-5883
▁symbols	-5884
▁reducing	-5885
▁candidate	-5886
▁documents	-5887
▁electrical	-5888
iful	-5889
abled	-5890
itism	-5891
▁2013,	-5892
▁ascii	-5893
clusion	-5894
▁aarhus	-5895
▁senior	-5896
▁serving	-5897
▁zealand	-5898
▁appropri	-5899
▁bacteria	-5900
▁proteins	-5901
▁mathematic	-5902
cal	-5903
rim	-5904
rob	-5905
aric	-5906
uing	-5907
▁fox	-5908
▁ing	-5909
▁pul	-5910
▁sud	-5911
▁2013	-5912
▁aest	-5913
▁amate	-5914
▁movie	-5915
▁ruler	-5916
▁theorem	-5917
▁nitrogen	-5918
▁districts	-5919
▁interface	-5920
▁assistance	-5921
▁characterized	-5922
cel	-5923
ylv	-5924
▁(,	-5925
▁dar	-5926
▁desert	-5927
▁manner	-5928
▁remark	-5929
▁showing	-5930
▁reaching	-5931
▁uncertain	-5932
▁conventional	-5933
but	-5934
mes	-5935
foot	-5936
uble	-5937
▁diet	-5938
▁imag	-5939
▁iraq	-5940
▁myst	-5941
illing	-5942
▁antip	-5943
▁bonds	-5944
▁check	-5945
▁initi	-5946
▁pione	-5947
▁poirot	-5948
▁consisted	-5949
▁reputation	-5950
)"	-5951
ira	-5952
vis	-5953
icks	-5954
oids	-5955
▁wis	-5956
place	-5957
rayed	-5958
▁germ	-5959
▁sund	-5960
▁thin	-5961
▁runner	-5962
▁writes	-5963
▁accused	-5964
▁effectively	-5965
wa	-5966
ados	-5967
mann	-5968
▁ray	-5969
▁sky	-5970
▁dual	-5971
▁2002,	-5972
▁axiom	-5973
claimed	-5974
▁protoc	-5975
▁surren	-5976
▁matches	-5977
▁involves	-5978
▁straight	-5979
▁jerusalem	-5980
top	-5981
ura	-5982
▁sab	-5983
angel	-5984
ellow	-5985
▁lect	-5986
▁abbre	-5987
▁merch	-5988
▁tools	-5989
▁prices	-5990
▁ptolem	-5991
▁circuit	-5992
▁periods	-5993
▁picture	-5994
▁biblical	-5995
▁virginia	-5996
▁beryllium	-5997
▁originated	-5998
100	-5999
bell	-6000
fort	-6001
▁cot	-6002
▁ell	-6003
▁nom	-6004
▁tail	-6005
ulture	-6006
▁roots	-6007
▁bottom	-6008
▁elimin	-6009
▁expand	-6010
▁satell	-6011
▁algeria	-6012
▁amounts	-6013
▁quantum	-6014
▁windows	-6015
▁artistic	-6016
▁assigned	-6017
▁attached	-6018
▁cultures	-6019
▁representation	-6020
div	-6021
soud	-6022
▁kid	-6023
▁syll	-6024
▁param	-6025
▁romans	-6026
▁proceed	-6027
▁winners	-6028
▁concepts	-6029
▁continent	-6030
ims	-6031
pet	-6032
▁().	-6033
▁300	-6034
ighth	-6035
owned	-6036
▁stan	-6037
▁tren	-6038
ribute	-6039
▁admir	-6040
▁racing	-6041
▁strict	-6042
▁hungary	-6043
▁diseases	-6044
▁thousand	-6045
▁bodhisatt	-6046
▁generated	-6047
▁preferred	-6048
▁accompanied	-6049
▁consumption	-6050
▁/	-6051
pes	-6052
come	-6053
gers	-6054
rome	-6055
▁liv	-6056
▁agar	-6057
▁tens	-6058
▁vowel	-6059
ylvania	-6060
▁rarely	-6061
▁victor	-6062
▁antisem	-6063
▁massoud	-6064
▁depicted	-6065
▁biological	-6066
▁transferred	-6067
akers	-6068
enburg	-6069
▁breed	-6070
▁piece	-6071
communic	-6072
▁coordin	-6073
▁markets	-6074
▁signals	-6075
▁credited	-6076
▁newspaper	-6077
▁protected	-6078
▁conversion	-6079
▁observations	-6080
68	-6081
▁elder	-6082
▁error	-6083
▁pilot	-6084
▁campus	-6085
▁height	-6086
▁priest	-6087
▁benefit	-6088
▁bishops	-6089
▁details	-6090
▁genetic	-6091
▁partner	-6092
▁renamed	-6093
▁request	-6094
▁survived	-6095
▁microsoft	-6096
atus	-6097
rain	-6098
uled	-6099
▁map	-6100
▁2004	-6101
▁gran	-6102
▁babyl	-6103
▁logic	-6104
▁train	-6105
▁worth	-6106
▁airline	-6107
▁highway	-6108
▁killing	-6109
▁orbital	-6110
▁passage	-6111
▁centauri	-6112
▁disorder	-6113
▁geography	-6114
▁surviving	-6115
▁telephone	-6116
▁opportunity	-6117
78	-6118
euro	-6119
▁(17	-6120
▁hub	-6121
▁neo	-6122
▁disk	-6123
▁fled	-6124
▁pick	-6125
▁task	-6126
▁unus	-6127
▁arabs	-6128
▁flood	-6129
▁leads	-6130
uration	-6131
▁continuous	-6132
ev	-6133
ew	-6134
mo	-6135
any	-6136
▁bm	-6137
rage	-6138
▁ere	-6139
iency	-6140
▁carl	-6141
▁cogn	-6142
german	-6143
▁theod	-6144
icillin	-6145
▁sodium	-6146
▁absence	-6147
▁existed	-6148
▁founder	-6149
▁massive	-6150
▁revenue	-6151
▁archbishop	-6152
dis	-6153
icon	-6154
▁ibm	-6155
▁web	-6156
amics	-6157
point	-6158
▁join	-6159
▁scand	-6160
▁storm	-6161
▁tourn	-6162
▁attract	-6163
▁rational	-6164
▁divisions	-6165
▁criticized	-6166
▁resolution	-6167
'.	-6168
ache	-6169
▁aege	-6170
▁cant	-6171
▁guns	-6172
▁vent	-6173
father	-6174
▁habit	-6175
▁recept	-6176
▁beliefs	-6177
▁message	-6178
▁persons	-6179
▁premier	-6180
▁explained	-6181
▁substance	-6182
▁industries	-6183
▁confederate	-6184
bah	-6185
itt	-6186
nal	-6187
oys	-6188
edes	-6189
▁150	-6190
▁osc	-6191
▁anime	-6192
▁decay	-6193
▁tanks	-6194
▁aurang	-6195
▁colour	-6196
▁retain	-6197
idepress	-6198
▁vietnam	-6199
▁educational	-6200
66	-6201
uba	-6202
unk	-6203
▁lu	-6204
long	-6205
▁axis	-6206
▁andor	-6207
▁trust	-6208
▁saints	-6209
▁dropped	-6210
▁operate	-6211
▁patterns	-6212
▁velocity	-6213
▁entertain	-6214
▁featuring	-6215
▁solutions	-6216
uff	-6217
anal	-6218
rust	-6219
▁alp	-6220
▁las	-6221
omous	-6222
▁salt	-6223
▁stro	-6224
adelph	-6225
▁toxic	-6226
▁afonso	-6227
▁cultiv	-6228
▁landsc	-6229
▁refuge	-6230
▁volcan	-6231
▁samples	-6232
▁membership	-6233
▁supporters	-6234
illy	-6235
umber	-6236
▁abba	-6237
▁jeff	-6238
▁kent	-6239
ashion	-6240
▁proof	-6241
▁resid	-6242
▁antiqu	-6243
▁crosby	-6244
▁ending	-6245
▁titled	-6246
ructions	-6247
▁baroque	-6248
▁learned	-6249
▁collected	-6250
▁variation	-6251
▁antidepress	-6252
án	-6253
zeb	-6254
adic	-6255
oked	-6256
aceae	-6257
elian	-6258
power	-6259
▁fame	-6260
▁neur	-6261
▁shif	-6262
▁baham	-6263
▁consc	-6264
▁desire	-6265
▁mineral	-6266
▁subjects	-6267
imensional	-6268
▁acknowled	-6269
▁computing	-6270
▁federation	-6271
▁immigrants	-6272
▁experimental	-6273
▁contributions	-6274
▁representatives	-6275
ses	-6276
rika	-6277
▁181	-6278
▁inse	-6279
▁shel	-6280
▁stim	-6281
▁delay	-6282
▁explo	-6283
▁genus	-6284
▁heard	-6285
▁judge	-6286
▁layer	-6287
▁arthur	-6288
▁escape	-6289
▁excess	-6290
▁extens	-6291
▁varies	-6292
▁consult	-6293
▁concerns	-6294
▁conquered	-6295
▁preserved	-6296
▁constantin	-6297
▁governments	-6298
▁astronomical	-6299
▁conservation	-6300
_1	-6301
who	-6302
▁(;	-6303
ager	-6304
base	-6305
ruck	-6306
▁ker	-6307
▁pir	-6308
▁diff	-6309
▁gins	-6310
aliyah	-6311
ussian	-6312
english	-6313
▁argent	-6314
▁routes	-6315
▁statue	-6316
▁neutral	-6317
▁tenness	-6318
▁explicit	-6319
▁machines	-6320
▁furthermore	-6321
pol	-6322
▁wr	-6323
abil	-6324
icts	-6325
enses	-6326
▁boys	-6327
▁cass	-6328
▁hair	-6329
▁horn	-6330
▁want	-6331
▁drawn	-6332
▁treas	-6333
▁serves	-6334
ithmetic	-6335
▁artific	-6336
▁denmark	-6337
▁accident	-6338
▁promoted	-6339
▁concerned	-6340
▁hypothesis	-6341
▁amphetamine	-6342
▁demonstrated	-6343
▁metropolitan	-6344
chw	-6345
gas	-6346
–20	-6347
▁bh	-6348
▁ko	-6349
▁unc	-6350
▁costs	-6351
▁prefer	-6352
national	-6353
sylvania	-6354
▁accompl	-6355
▁mixture	-6356
▁formerly	-6357
▁momentum	-6358
▁animation	-6359
▁encounter	-6360
▁representing	-6361
▁characteristic	-6362
iano	-6363
word	-6364
▁aeg	-6365
▁bbc	-6366
▁hij	-6367
▁eliz	-6368
▁huge	-6369
▁adobe	-6370
▁anglo	-6371
▁cinem	-6372
▁doing	-6373
▁inher	-6374
▁talib	-6375
▁limits	-6376
▁phrase	-6377
▁vision	-6378
▁passing	-6379
▁restric	-6380
▁buddhism	-6381
▁communist	-6382
▁possibility	-6383
▁−	-6384
asy	-6385
lat	-6386
net	-6387
uchy	-6388
umes	-6389
▁lav	-6390
level	-6391
▁fear	-6392
▁corps	-6393
ishment	-6394
▁mining	-6395
▁saturn	-6396
▁ambrose	-6397
▁captain	-6398
▁chamber	-6399
▁perfect	-6400
▁ginsberg	-6401
▁hundreds	-6402
▁expensive	-6403
▁rit	-6404
achus	-6405
going	-6406
▁hind	-6407
▁dated	-6408
▁phill	-6409
▁losing	-6410
▁stages	-6411
▁constitu	-6412
▁tennessee	-6413
oven	-6414
phal	-6415
▁12,	-6416
▁dim	-6417
▁mun	-6418
▁tea	-6419
found	-6420
itled	-6421
▁1940	-6422
ancing	-6423
▁aalen	-6424
▁abbey	-6425
▁medal	-6426
▁shall	-6427
▁speer	-6428
▁danish	-6429
▁resist	-6430
▁promote	-6431
▁mechanism	-6432
▁receiving	-6433
▁testament	-6434
▁depression	-6435
▁influences	-6436
▁connections	-6437
▁constantinople	-6438
-13	-6439
cus	-6440
▁70	-6441
▁rig	-6442
▁flem	-6443
▁thor	-6444
▁grown	-6445
▁renew	-6446
▁waste	-6447
▁baltic	-6448
▁offers	-6449
▁propag	-6450
▁degrees	-6451
▁dispute	-6452
▁supposed	-6453
▁aurangzeb	-6454
▁legislative	-6455
aya	-6456
osh	-6457
bill	-6458
▁jim	-6459
▁your	-6460
atible	-6461
inated	-6462
▁athan	-6463
▁lakes	-6464
▁phoen	-6465
▁waves	-6466
vereign	-6467
▁agents	-6468
▁vienna	-6469
▁bavaria	-6470
▁episode	-6471
▁abstract	-6472
▁extension	-6473
▁questions	-6474
▁laboratory	-6475
rix	-6476
▁um	-6477
grad	-6478
rons	-6479
▁11,	-6480
avian	-6481
burgh	-6482
▁1998	-6483
▁bach	-6484
▁feet	-6485
▁meat	-6486
▁tomb	-6487
wealth	-6488
▁cable	-6489
▁ports	-6490
▁braves	-6491
▁indeed	-6492
▁relief	-6493
▁arrival	-6494
▁funding	-6495
▁exposure	-6496
▁retained	-6497
▁pennsylvania	-6498
_5	-6499
box	-6500
bul	-6501
erg	-6502
ikh	-6503
iop	-6504
nat	-6505
type	-6506
▁les	-6507
hauer	-6508
▁1999	-6509
▁2003	-6510
▁2021	-6511
icular	-6512
▁brook	-6513
▁store	-6514
▁caliph	-6515
▁colors	-6516
▁precip	-6517
▁revers	-6518
▁sharon	-6519
▁appoint	-6520
▁visitors	-6521
▁communion	-6522
▁encouraged	-6523
▁performing	-6524
▁philadelph	-6525
▁understand	-6526
▁archaeological	-6527
▁representative	-6528
"-	-6529
62	-6530
fir	-6531
iii	-6532
lon	-6533
appe	-6534
apse	-6535
cers	-6536
hire	-6537
▁tet	-6538
▁bund	-6539
▁harv	-6540
▁memo	-6541
engers	-6542
▁array	-6543
▁cited	-6544
▁grace	-6545
▁verte	-6546
▁garden	-6547
▁hosted	-6548
▁arsenal	-6549
▁bitumen	-6550
▁illness	-6551
▁constell	-6552
)|	-6553
▁—	-6554
▁64	-6555
▁kil	-6556
etime	-6557
▁edge	-6558
▁ions	-6559
ruption	-6560
▁anthem	-6561
▁commod	-6562
▁domain	-6563
▁swedish	-6564
openhauer	-6565
▁champion	-6566
▁discover	-6567
▁comparison	-6568
▁mechanical	-6569
▁partnership	-6570
azz	-6571
▁mm	-6572
real	-6573
▁afl	-6574
▁gate	-6575
▁jers	-6576
▁soph	-6577
arians	-6578
▁abund	-6579
▁caves	-6580
▁johan	-6581
▁stopp	-6582
▁comedy	-6583
▁random	-6584
▁ruling	-6585
▁belgian	-6586
▁denomin	-6587
▁horizon	-6588
▁printed	-6589
▁annually	-6590
▁barbados	-6591
▁carrying	-6592
▁changing	-6593
▁networks	-6594
▁astrology	-6595
▁basketball	-6596
▁proportion	-6597
▁distinction	-6598
▁legislation	-6599
▁substantial	-6600
vid	-6601
▁bry	-6602
▁obl	-6603
asius	-6604
iscop	-6605
range	-6606
▁root	-6607
▁vice	-6608
▁chrom	-6609
▁males	-6610
▁mayor	-6611
▁morph	-6612
british	-6613
largest	-6614
▁archim	-6615
▁cattle	-6616
▁poison	-6617
▁publis	-6618
▁vector	-6619
language	-6620
▁chapter	-6621
▁taliban	-6622
▁infinite	-6623
▁returning	-6624
▁stability	-6625
▁concentrated	-6626
72	-6627
▁6,	-6628
inct	-6629
inoza	-6630
scale	-6631
▁trig	-6632
assium	-6633
chwitz	-6634
▁chose	-6635
▁marsh	-6636
▁sleep	-6637
▁veter	-6638
▁fashion	-6639
▁housing	-6640
▁incident	-6641
▁isolated	-6642
▁rebellion	-6643
▁southwest	-6644
▁establishing	-6645
▁schopenhauer	-6646
ota	-6647
▁haz	-6648
▁job	-6649
▁pig	-6650
faces	-6651
ipher	-6652
▁wing	-6653
▁brass	-6654
▁cloud	-6655
▁pregn	-6656
▁amphib	-6657
▁earned	-6658
▁editor	-6659
▁amateur	-6660
▁bridges	-6661
▁offices	-6662
▁estimates	-6663
▁functional	-6664
▁municipality	-6665
▁distinguished	-6666
42	-6667
def	-6668
▁6.	-6669
aman	-6670
pean	-6671
▁170	-6672
▁apl	-6673
▁(198	-6674
govern	-6675
▁faced	-6676
▁lovel	-6677
▁taxes	-6678
▁hijack	-6679
▁inspir	-6680
▁napole	-6681
▁angular	-6682
▁borough	-6683
▁variant	-6684
▁drinking	-6685
▁standing	-6686
▁andalusia	-6687
▁astronomy	-6688
▁sovereign	-6689
▁percentage	-6690
▁electricity	-6691
▁consequently	-6692
▁intellectual	-6693
alty	-6694
ules	-6695
▁csm	-6696
▁ger	-6697
▁pus	-6698
▁send	-6699
▁sixth	-6700
▁assess	-6701
▁commem	-6702
▁sacred	-6703
▁strike	-6704
▁stating	-6705
▁victoria	-6706
▁delivered	-6707
▁indicated	-6708
▁consistent	-6709
▁separation	-6710
▁anthropology	-6711
9)	-6712
har	-6713
rep	-6714
van	-6715
▁5,	-6716
room	-6717
stad	-6718
▁bot	-6719
▁kyi	-6720
worth	-6721
▁asym	-6722
▁deco	-6723
▁file	-6724
▁hors	-6725
▁laid	-6726
▁2004,	-6727
▁begun	-6728
▁clean	-6729
▁siege	-6730
▁tower	-6731
▁vocal	-6732
▁caesar	-6733
▁codice	-6734
▁imposs	-6735
▁mental	-6736
▁prayer	-6737
▁concert	-6738
▁anything	-6739
▁germanic	-6740
▁apostolic	-6741
▁musicians	-6742
▁organisms	-6743
▁arithmetic	-6744
▁renaissance	-6745
▁occasionally	-6746
▁revolutionary	-6747
__	-6748
"("	-6749
zen	-6750
▁7.	-6751
fare	-6752
igan	-6753
zona	-6754
▁charl	-6755
▁cloth	-6756
▁pitch	-6757
▁rodin	-6758
▁sched	-6759
▁thick	-6760
▁doctor	-6761
▁fuller	-6762
▁engaged	-6763
▁farming	-6764
▁precise	-6765
▁asteroids	-6766
▁naturally	-6767
48	-6768
▁ss	-6769
▁ric	-6770
atine	-6771
icide	-6772
astron	-6773
▁spart	-6774
▁miller	-6775
▁revolt	-6776
▁sweden	-6777
ographer	-6778
▁aaliyah	-6779
▁arizona	-6780
▁speaking	-6781
▁vertical	-6782
▁committed	-6783
▁meanwhile	-6784
▁descendants	-6785
▁implemented	-6786
▁philadelphia	-6787
▁investigation	-6788
?"	-6789
–1	-6790
▁gel	-6791
▁vic	-6792
ithms	-6793
▁actin	-6794
▁amend	-6795
▁disag	-6796
▁label	-6797
▁remov	-6798
▁votes	-6799
▁config	-6800
▁ensure	-6801
▁estate	-6802
▁lasted	-6803
▁stored	-6804
▁nucleus	-6805
▁anatolia	-6806
▁sections	-6807
▁theology	-6808
▁biography	-6809
▁directors	-6810
▁hungarian	-6811
▁migration	-6812
▁accounting	-6813
▁controversial	-6814
67	-6815
kin	-6816
sole	-6817
▁cul	-6818
▁suu	-6819
achen	-6820
black	-6821
chron	-6822
▁agree	-6823
▁metab	-6824
▁persu	-6825
▁recru	-6826
▁sight	-6827
▁autobi	-6828
▁condem	-6829
▁festiv	-6830
▁mentions	-6831
▁auschwitz	-6832
▁monastery	-6833
▁continuing	-6834
▁destruction	-6835
rat	-6836
rors	-6837
uver	-6838
▁cha	-6839
▁nfl	-6840
abeth	-6841
elect	-6842
▁bure	-6843
▁hera	-6844
▁indo	-6845
▁prin	-6846
rahman	-6847
roscop	-6848
▁2000,	-6849
▁accum	-6850
▁arbor	-6851
▁false	-6852
▁steps	-6853
actions	-6854
iveness	-6855
▁anders	-6856
▁dismiss	-6857
▁retired	-6858
▁agrippina	-6859
▁interests	-6860
▁molecular	-6861
▁northeast	-6862
▁technologies	-6863
aj	-6864
▁zo	-6865
hand	-6866
leys	-6867
iable	-6868
anians	-6869
iations	-6870
▁struck	-6871
▁vowels	-6872
▁exports	-6873
▁florida	-6874
▁opinion	-6875
▁teacher	-6876
▁circumst	-6877
▁spectrum	-6878
▁potassium	-6879
▁structural	-6880
▁statistical	-6881
▁significance	-6882
▁parliamentary	-6883
gb	-6884
tv	-6885
1),	-6886
urg	-6887
ahar	-6888
▁try	-6889
osoph	-6890
▁cert	-6891
▁conj	-6892
▁knew	-6893
▁nazi	-6894
albert	-6895
▁aphas	-6896
▁entry	-6897
▁hills	-6898
▁hyper	-6899
asiatic	-6900
▁actors	-6901
▁cotton	-6902
▁yellow	-6903
▁charges	-6904
▁seasons	-6905
▁varying	-6906
▁ceremony	-6907
▁cathedral	-6908
▁purchased	-6909
▁concerning	-6910
▁interpreted	-6911
▁commonwealth	-6912
phe	-6913
enny	-6914
ptic	-6915
abapt	-6916
orous	-6917
rance	-6918
▁mugh	-6919
▁roma	-6920
▁warm	-6921
▁2003,	-6922
▁shift	-6923
▁circle	-6924
▁trying	-6925
▁exactly	-6926
▁minimum	-6927
▁armoured	-6928
▁arranged	-6929
▁offering	-6930
▁particle	-6931
▁integrated	-6932
▁restricted	-6933
tz	-6934
iast	-6935
lets	-6936
▁rug	-6937
estab	-6938
irect	-6939
▁cruc	-6940
▁debt	-6941
▁grav	-6942
▁oral	-6943
▁webs	-6944
▁recre	-6945
▁ambigu	-6946
▁explos	-6947
▁weapon	-6948
▁concern	-6949
▁mounted	-6950
▁clinical	-6951
▁recovery	-6952
▁challenge	-6953
▁disorders	-6954
▁reflected	-6955
▁complexity	-6956
▁participated	-6957
cor	-6958
esp	-6959
nost	-6960
▁bmw	-6961
▁fib	-6962
▁hip	-6963
acent	-6964
▁bakr	-6965
▁ches	-6966
▁goes	-6967
▁rear	-6968
▁subt	-6969
lywood	-6970
ultane	-6971
▁genes	-6972
▁stret	-6973
▁prompt	-6974
▁themes	-6975
▁grounds	-6976
▁partial	-6977
▁theater	-6978
▁carriers	-6979
▁regularly	-6980
▁controversy	-6981
▁distributed	-6982
▁municipalities	-6983
00,	-6984
run	-6985
wis	-6986
▁39	-6987
etts	-6988
ricket	-6989
uccess	-6990
▁1999,	-6991
▁balls	-6992
▁clock	-6993
▁legit	-6994
▁noble	-6995
▁proto	-6996
▁warri	-6997
ulating	-6998
▁bought	-6999
▁compil	-7000
▁orient	-7001
▁phosph	-7002
▁rising	-7003
▁shares	-7004
heastern	-7005
▁clearly	-7006
▁drawing	-7007
▁factory	-7008
▁fishing	-7009
▁spinoza	-7010
▁trading	-7011
▁planning	-7012
▁campaigns	-7013
▁identical	-7014
▁indicates	-7015
▁narrative	-7016
▁referring	-7017
▁responded	-7018
▁simultane	-7019
▁describing	-7020
▁territorial	-7021
▁reconstruction	-7022
55	-7023
adi	-7024
▁eat	-7025
eland	-7026
▁easy	-7027
▁furn	-7028
cribed	-7029
strong	-7030
▁roles	-7031
▁closer	-7032
▁sacrif	-7033
▁survive	-7034
▁sustain	-7035
▁detailed	-7036
▁settlers	-7037
▁terminal	-7038
▁villages	-7039
▁discussed	-7040
▁mythology	-7041
▁specialized	-7042
▁inscriptions	-7043
▁establishments	-7044
33	-7045
aug	-7046
iat	-7047
ods	-7048
▁ai	-7049
hell	-7050
ieri	-7051
▁fis	-7052
rates	-7053
▁cort	-7054
▁diox	-7055
▁emig	-7056
▁goth	-7057
▁sher	-7058
▁items	-7059
▁petro	-7060
▁spoke	-7061
▁covers	-7062
▁oxford	-7063
▁depends	-7064
▁finding	-7065
▁equation	-7066
▁lifetime	-7067
▁magnetic	-7068
▁situated	-7069
▁installed	-7070
▁antibiotic	-7071
▁experiences	-7072
vol	-7073
adow	-7074
agen	-7075
uten	-7076
▁10,	-7077
▁vul	-7078
erals	-7079
▁aung	-7080
▁epit	-7081
▁pale	-7082
ession	-7083
▁autoc	-7084
▁floor	-7085
▁stack	-7086
▁albums	-7087
▁basque	-7088
▁singer	-7089
▁feather	-7090
dimensional	-7091
▁α	-7092
fit	-7093
arth	-7094
iture	-7095
uable	-7096
▁burg	-7097
▁hier	-7098
▁aster	-7099
▁strip	-7100
▁aegean	-7101
▁credit	-7102
▁complic	-7103
▁episcop	-7104
▁singles	-7105
▁stephen	-7106
▁meetings	-7107
▁minority	-7108
▁coalition	-7109
▁intention	-7110
▁transmission	-7111
▁mr	-7112
▁ts	-7113
hung	-7114
iest	-7115
ique	-7116
▁lot	-7117
▁ton	-7118
etary	-7119
rator	-7120
▁spot	-7121
▁wire	-7122
▁ahmad	-7123
▁comic	-7124
▁links	-7125
▁manif	-7126
▁relat	-7127
ancient	-7128
history	-7129
itarian	-7130
rikaans	-7131
uations	-7132
▁briefly	-7133
▁cricket	-7134
▁construct	-7135
▁dependent	-7136
▁employees	-7137
▁followers	-7138
▁francisco	-7139
▁sculpture	-7140
▁algorithms	-7141
▁artificial	-7142
▁impossible	-7143
▁azerbaijani	-7144
▁architectural	-7145
▁responsibility	-7146
sea	-7147
▁ot	-7148
ante	-7149
umni	-7150
▁pin	-7151
rency	-7152
▁alan	-7153
▁eval	-7154
modern	-7155
▁chips	-7156
▁escap	-7157
▁bengal	-7158
▁broken	-7159
▁metall	-7160
▁rocket	-7161
▁secure	-7162
▁anabapt	-7163
▁flights	-7164
▁entitled	-7165
▁proposal	-7166
▁variants	-7167
▁christmas	-7168
▁multiplic	-7169
▁recommended	-7170
▁8,	-7171
agram	-7172
chang	-7173
iliar	-7174
▁pier	-7175
▁argue	-7176
▁occas	-7177
▁radar	-7178
▁denied	-7179
▁flying	-7180
▁hydrox	-7181
▁overse	-7182
european	-7183
▁install	-7184
▁reserves	-7185
▁arguments	-7186
▁religions	-7187
▁relationships	-7188
▁implementation	-7189
27	-7190
-20	-7191
aga	-7192
ete	-7193
lock	-7194
path	-7195
▁sho	-7196
▁wel	-7197
gency	-7198
ovsky	-7199
▁1996	-7200
▁1997	-7201
▁drop	-7202
christ	-7203
▁outer	-7204
▁castle	-7205
▁freder	-7206
▁lyrics	-7207
▁regime	-7208
▁contest	-7209
▁kennedy	-7210
▁reality	-7211
▁claiming	-7212
▁collabor	-7213
▁monument	-7214
▁municipal	-7215
69	-7216
uy	-7217
mud	-7218
▁9,	-7219
iday	-7220
▁buy	-7221
▁pup	-7222
rough	-7223
▁2002	-7224
▁anax	-7225
▁fans	-7226
▁guar	-7227
▁kash	-7228
▁ukra	-7229
▁wear	-7230
second	-7231
▁crops	-7232
▁essay	-7233
▁miles	-7234
▁resol	-7235
▁mosque	-7236
▁notion	-7237
▁balance	-7238
▁enforce	-7239
▁enjoyed	-7240
▁democrats	-7241
▁perceived	-7242
▁strategic	-7243
▁athanasius	-7244
▁autonomous	-7245
▁statements	-7246
▁surrounded	-7247
ua	-7248
fts	-7249
ido	-7250
▁38	-7251
assy	-7252
haus	-7253
▁175	-7254
▁fab	-7255
otype	-7256
▁adam	-7257
bridge	-7258
french	-7259
▁bened	-7260
▁excav	-7261
▁aachen	-7262
▁austro	-7263
▁adverse	-7264
▁ptolemy	-7265
▁antiquity	-7266
▁displayed	-7267
▁ministers	-7268
▁difficulty	-7269
▁organisation	-7270
24	-7271
ika	-7272
zed	-7273
▁45	-7274
inth	-7275
▁gam	-7276
white	-7277
▁clar	-7278
iously	-7279
▁alter	-7280
▁syria	-7281
▁thing	-7282
pective	-7283
▁almond	-7284
▁filled	-7285
▁finite	-7286
▁hellen	-7287
▁unless	-7288
▁exposed	-7289
▁revival	-7290
▁challeng	-7291
▁deposits	-7292
▁imprison	-7293
▁socialist	-7294
▁consonants	-7295
▁exclusively	-7296
ée	-7297
isp	-7298
▁pc	-7299
otam	-7300
▁16,	-7301
▁400	-7302
third	-7303
▁2022	-7304
▁amal	-7305
▁guil	-7306
▁spin	-7307
incial	-7308
▁1998,	-7309
▁algae	-7310
▁ashes	-7311
▁canal	-7312
▁adults	-7313
▁declar	-7314
▁subsid	-7315
▁trained	-7316
▁aviation	-7317
▁afrikaans	-7318
▁14,	-7319
ecess	-7320
itals	-7321
oking	-7322
▁tons	-7323
▁anchor	-7324
▁depict	-7325
▁bolivia	-7326
▁journey	-7327
▁planets	-7328
▁seconds	-7329
▁thermal	-7330
▁unusual	-7331
achusetts	-7332
▁beautiful	-7333
▁procedure	-7334
▁employment	-7335
▁arbitration	-7336
bat	-7337
osa	-7338
▁tu	-7339
acts	-7340
spec	-7341
▁120	-7342
▁13,	-7343
▁aes	-7344
▁bau	-7345
▁mol	-7346
▁rud	-7347
▁hipp	-7348
▁wine	-7349
▁diagn	-7350
▁fewer	-7351
▁monks	-7352
▁invent	-7353
▁thirty	-7354
▁biggest	-7355
▁selling	-7356
▁adoption	-7357
▁asteroid	-7358
▁elsewhere	-7359
▁oxidation	-7360
▁predecess	-7361
▁adaptation	-7362
▁quantities	-7363
▁essentially	-7364
!"	-7365
99	-7366
fam	-7367
low	-7368
una	-7369
ethe	-7370
zhen	-7371
arium	-7372
backs	-7373
uting	-7374
▁drew	-7375
▁fant	-7376
▁logo	-7377
▁andre	-7378
▁bones	-7379
▁voted	-7380
terbury	-7381
▁armour	-7382
▁driven	-7383
▁merely	-7384
▁alexios	-7385
▁aphasia	-7386
▁battles	-7387
▁kashmir	-7388
▁longest	-7389
▁reviews	-7390
▁democracy	-7391
▁elizabeth	-7392
▁marketing	-7393
▁approaches	-7394
▁complement	-7395
▁explanation	-7396
▁commissioned	-7397
fil	-7398
acus	-7399
bach	-7400
nest	-7401
stit	-7402
vals	-7403
▁pav	-7404
phony	-7405
▁acous	-7406
▁aimed	-7407
▁funds	-7408
▁parad	-7409
▁plato	-7410
▁stood	-7411
▁begins	-7412
▁slowly	-7413
▁trials	-7414
▁voting	-7415
▁hearing	-7416
▁matters	-7417
▁seventh	-7418
▁diameter	-7419
▁attracted	-7420
▁fragments	-7421
77	-7422
nom	-7423
star	-7424
▁asu	-7425
▁bob	-7426
ifies	-7427
▁cere	-7428
▁pill	-7429
encing	-7430
▁pharm	-7431
▁wheel	-7432
rington	-7433
writers	-7434
▁define	-7435
▁elabor	-7436
▁fossil	-7437
▁persec	-7438
▁presid	-7439
▁rulers	-7440
▁monitor	-7441
▁adjacent	-7442
▁carolina	-7443
▁emphasis	-7444
▁frequent	-7445
▁generate	-7446
▁suitable	-7447
▁tropical	-7448
▁anarchism	-7449
▁canterbury	-7450
▁passengers	-7451
22	-7452
98	-7453
▁"-	-7454
▁cm	-7455
this	-7456
▁kel	-7457
▁ares	-7458
member	-7459
▁aberd	-7460
▁apply	-7461
▁diver	-7462
▁motiv	-7463
▁parks	-7464
▁poets	-7465
itative	-7466
▁capone	-7467
ictional	-7468
▁calling	-7469
▁engines	-7470
▁prosper	-7471
▁monarchy	-7472
▁moreover	-7473
▁operates	-7474
▁performances	-7475
▁massachusetts	-7476
acle	-7477
race	-7478
▁arn	-7479
▁lik	-7480
▁page	-7481
former	-7482
rehens	-7483
▁lists	-7484
▁skull	-7485
cession	-7486
▁faster	-7487
unciation	-7488
▁publicly	-7489
▁valuable	-7490
▁efficient	-7491
▁candidates	-7492
▁appearances	-7493
▁instruction	-7494
ez	-7495
gi	-7496
ikos	-7497
ippi	-7498
▁hour	-7499
▁hybr	-7500
▁intr	-7501
▁neck	-7502
▁suit	-7503
ipsych	-7504
▁advis	-7505
▁femin	-7506
▁teles	-7507
onymous	-7508
▁adjust	-7509
▁borrow	-7510
▁lesser	-7511
▁scheme	-7512
▁farmers	-7513
▁gregory	-7514
▁millenn	-7515
▁ranging	-7516
▁commemor	-7517
▁executed	-7518
▁monarchs	-7519
▁remember	-7520
▁festivals	-7521
kel	-7522
▁34	-7523
aked	-7524
aths	-7525
cope	-7526
rier	-7527
umed	-7528
▁dat	-7529
▁tel	-7530
bourn	-7531
idden	-7532
olith	-7533
roman	-7534
▁phyl	-7535
▁beads	-7536
▁caval	-7537
▁metaph	-7538
▁papers	-7539
▁ranges	-7540
▁anarcho	-7541
▁accommod	-7542
▁approxim	-7543
▁arrested	-7544
▁purchase	-7545
▁williams	-7546
▁decisions	-7547
▁offensive	-7548
▁apparently	-7549
▁archimedes	-7550
▁linguistic	-7551
▁publishing	-7552
▁distinguish	-7553
▁entertainment	-7554
3),	-7555
enz	-7556
urd	-7557
aste	-7558
hyth	-7559
olas	-7560
▁bom	-7561
▁vii	-7562
▁voy	-7563
eters	-7564
first	-7565
rians	-7566
▁axon	-7567
▁creed	-7568
zerland	-7569
▁sounds	-7570
▁walter	-7571
iversary	-7572
▁cabinet	-7573
▁portrayed	-7574
▁predicted	-7575
▁teachings	-7576
▁diplomatic	-7577
▁procedures	-7578
):	-7579
–0	-7580
ded	-7581
ean	-7582
kee	-7583
sub	-7584
▁7,	-7585
fish	-7586
olid	-7587
▁(16	-7588
apers	-7589
ystem	-7590
▁gang	-7591
opotam	-7592
▁blind	-7593
▁deleg	-7594
▁nickn	-7595
▁santa	-7596
▁toler	-7597
▁antigu	-7598
▁flower	-7599
▁andorra	-7600
▁binding	-7601
▁facilit	-7602
▁leagues	-7603
▁reforms	-7604
▁initiated	-7605
▁landscape	-7606
▁partially	-7607
▁provincial	-7608
▁documentary	-7609
▁antisemitism	-7610
ré	-7611
aic	-7612
jew	-7613
ref	-7614
vas	-7615
▁65	-7616
="19	-7617
xual	-7618
▁ank	-7619
▁gly	-7620
itsyn	-7621
▁1994	-7622
▁avic	-7623
▁elev	-7624
▁synd	-7625
▁debut	-7626
▁draft	-7627
▁inaug	-7628
▁dispers	-7629
▁tourist	-7630
▁downtown	-7631
▁dramatic	-7632
▁facility	-7633
▁childhood	-7634
▁opponents	-7635
▁recognize	-7636
▁businesses	-7637
▁appropriate	-7638
▁cooperation	-7639
▁legislature	-7640
bab	-7641
cow	-7642
edo	-7643
sor	-7644
wed	-7645
emed	-7646
orth	-7647
rous	-7648
▁han	-7649
▁isa	-7650
▁kal	-7651
▁sic	-7652
ether	-7653
▁bits	-7654
▁corp	-7655
▁cous	-7656
▁trip	-7657
▁walk	-7658
herent	-7659
▁recip	-7660
issippi	-7661
▁franch	-7662
▁gather	-7663
▁varied	-7664
▁germans	-7665
▁semitic	-7666
▁antimony	-7667
▁antipsych	-7668
▁passenger	-7669
▁antibodies	-7670
▁presidency	-7671
▁settlements	-7672
▁switzerland	-7673
fc	-7674
oa	-7675
▁é	-7676
fix	-7677
▁90	-7678
roph	-7679
▁hay	-7680
olics	-7681
▁eggs	-7682
▁adhes	-7683
▁drama	-7684
▁homes	-7685
▁hosts	-7686
▁marry	-7687
▁rocks	-7688
▁rouss	-7689
▁honour	-7690
▁stabil	-7691
▁anthony	-7692
▁chronic	-7693
▁congreg	-7694
▁invited	-7695
▁reserve	-7696
▁americas	-7697
▁astatine	-7698
▁resident	-7699
▁satellite	-7700
▁unsuccess	-7701
▁arrangement	-7702
▁terminology	-7703
▁intermediate	-7704
▁circumstances	-7705
79	-7706
fs	-7707
ima	-7708
ovo	-7709
|18	-7710
ador	-7711
▁kin	-7712
▁qur	-7713
imoff	-7714
itzer	-7715
there	-7716
▁seek	-7717
▁util	-7718
comput	-7719
▁dress	-7720
▁giant	-7721
▁learn	-7722
▁owner	-7723
▁pleas	-7724
ipelago	-7725
▁ambros	-7726
▁heaven	-7727
▁jersey	-7728
▁really	-7729
▁shield	-7730
▁societ	-7731
▁centers	-7732
▁evangel	-7733
▁guarant	-7734
▁olympic	-7735
▁covering	-7736
▁kingdoms	-7737
▁protocol	-7738
▁restored	-7739
▁rotation	-7740
▁tournament	-7741
▁anniversary	-7742
▁measurements	-7743
76	-7744
alk	-7745
enh	-7746
how	-7747
irk	-7748
rol	-7749
itis	-7750
▁sut	-7751
▁tut	-7752
inger	-7753
▁ends	-7754
▁herb	-7755
▁hope	-7756
▁nerv	-7757
making	-7758
▁gross	-7759
▁pairs	-7760
▁massac	-7761
▁parent	-7762
▁stands	-7763
▁stream	-7764
▁bahamas	-7765
▁besides	-7766
▁seeking	-7767
zhenitsyn	-7768
▁composer	-7769
▁decrease	-7770
▁occupation	-7771
▁operational	-7772
▁requirements	-7773
ups	-7774
chem	-7775
eded	-7776
nian	-7777
▁vit	-7778
ensed	-7779
hydro	-7780
ratic	-7781
▁1000	-7782
▁alps	-7783
▁bard	-7784
rolled	-7785
▁croat	-7786
▁autumn	-7787
▁patent	-7788
▁scenes	-7789
▁server	-7790
▁sunday	-7791
▁shorter	-7792
▁valleys	-7793
▁avicenna	-7794
▁benedict	-7795
▁estimate	-7796
▁minerals	-7797
▁supplies	-7798
▁photograph	-7799
▁solzhenitsyn	-7800
49	-7801
88	-7802
800	-7803
aea	-7804
cho	-7805
chs	-7806
mem	-7807
sey	-7808
udi	-7809
▁17,	-7810
ilian	-7811
▁bonn	-7812
▁dioc	-7813
▁sort	-7814
▁tark	-7815
united	-7816
▁abbas	-7817
▁delta	-7818
▁deput	-7819
▁lewis	-7820
▁pagan	-7821
▁ranks	-7822
▁ready	-7823
▁subur	-7824
▁theor	-7825
agement	-7826
▁daniel	-7827
▁ethics	-7828
▁racial	-7829
▁accurate	-7830
▁judicial	-7831
▁framework	-7832
▁mesopotam	-7833
▁programme	-7834
▁suffering	-7835
▁roussimoff	-7836
▁brandenburg	-7837
▁inspiration	-7838
aus	-7839
inf	-7840
uct	-7841
ums	-7842
yth	-7843
aret	-7844
idal	-7845
▁gem	-7846
style	-7847
ussia	-7848
▁aged	-7849
▁bull	-7850
▁copy	-7851
▁rays	-7852
▁slav	-7853
ammals	-7854
lation	-7855
▁banjo	-7856
▁grain	-7857
▁oxide	-7858
▁realm	-7859
▁sanct	-7860
▁tasks	-7861
compass	-7862
ignment	-7863
issions	-7864
▁capita	-7865
▁horses	-7866
▁wooden	-7867
▁museums	-7868
▁optical	-7869
▁tribute	-7870
▁mainland	-7871
▁ordinary	-7872
▁newspapers	-7873
tan	-7874
udd	-7875
▁ay	-7876
aint	-7877
iece	-7878
imen	-7879
▁akk	-7880
▁aven	-7881
▁bioc	-7882
▁lose	-7883
▁rebu	-7884
▁sale	-7885
aments	-7886
econom	-7887
▁marks	-7888
ections	-7889
general	-7890
▁aggress	-7891
▁looking	-7892
▁vessels	-7893
▁equations	-7894
▁profession	-7895
▁theological	-7896
▁assassination	-7897
▁manufacturers	-7898
uv	-7899
city	-7900
oker	-7901
▁rif	-7902
▁tan	-7903
icrob	-7904
ocene	-7905
▁1995	-7906
▁gosp	-7907
▁jazz	-7908
▁resc	-7909
▁tort	-7910
employ	-7911
ipping	-7912
ulsion	-7913
▁goals	-7914
▁helic	-7915
▁incom	-7916
▁schwe	-7917
▁teeth	-7918
▁whorf	-7919
▁andron	-7920
▁scored	-7921
▁compens	-7922
▁lithium	-7923
▁streets	-7924
▁synthes	-7925
▁wealthy	-7926
▁collapse	-7927
▁happened	-7928
▁rainfall	-7929
▁alternate	-7930
▁distribut	-7931
▁intervent	-7932
▁variables	-7933
▁afterwards	-7934
▁explicitly	-7935
ho	-7936
ía	-7937
aly	-7938
ipe	-7939
wid	-7940
▁gy	-7941
aean	-7942
arsh	-7943
idae	-7944
▁(15	-7945
▁10%	-7946
▁kit	-7947
▁wet	-7948
▁sche	-7949
▁tube	-7950
▁twin	-7951
archae	-7952
course	-7953
▁flour	-7954
▁fruit	-7955
amation	-7956
▁advice	-7957
▁announ	-7958
▁anyone	-7959
▁beings	-7960
▁camera	-7961
▁exceed	-7962
▁guilty	-7963
▁physic	-7964
▁cavalry	-7965
▁comprom	-7966
▁females	-7967
▁readers	-7968
▁secular	-7969
▁entrance	-7970
▁producers	-7971
▁scheduled	-7972
▁acceptance	-7973
▁corruption	-7974
▁participate	-7975
▁preparation	-7976
urt	-7977
erts	-7978
▁rod	-7979
about	-7980
atter	-7981
ellar	-7982
▁1992	-7983
▁belt	-7984
▁brad	-7985
▁gent	-7986
▁pand	-7987
▁roof	-7988
▁tang	-7989
jewish	-7990
▁flows	-7991
▁poems	-7992
▁prove	-7993
▁sweet	-7994
▁excell	-7995
▁symmet	-7996
▁herself	-7997
▁hopkins	-7998
▁someone	-7999
▁tourists	-8000
▁phenomenon	-8001
▁substances	-8002
▁threatened	-8003
▁observation	-8004
▁politicians	-8005
4),	-8006
oli	-8007
▁33	-8008
▁kb	-8009
▁coc	-8010
▁sid	-8011
▁upd	-8012
build	-8013
▁memb	-8014
▁aaron	-8015
▁aston	-8016
▁fired	-8017
▁hotel	-8018
▁wings	-8019
▁namely	-8020
▁seeing	-8021
▁tempor	-8022
▁crossed	-8023
▁priests	-8024
▁apostles	-8025
▁deployed	-8026
▁permitted	-8027
▁recovered	-8028
▁antimicrob	-8029
▁potentially	-8030
cas	-8031
tar	-8032
amps	-8033
elsh	-8034
icism	-8035
▁rect	-8036
▁upgr	-8037
optery	-8038
▁annex	-8039
▁dense	-8040
▁raise	-8041
▁stead	-8042
▁wider	-8043
ropolis	-8044
▁angles	-8045
▁banach	-8046
▁beauty	-8047
▁retire	-8048
▁targets	-8049
▁thereby	-8050
▁likewise	-8051
▁americium	-8052
▁commanded	-8053
▁conflicts	-8054
▁hollywood	-8055
▁strengthe	-8056
▁exhibition	-8057
▁reportedly	-8058
▁bodhisattva	-8059
▁difficulties	-8060
▁instructions	-8061
▁antidepressants	-8062
gs	-8063
mid	-8064
sax	-8065
tyl	-8066
▁"[	-8067
▁(5	-8068
omer	-8069
▁atp	-8070
▁eug	-8071
▁lux	-8072
graph	-8073
ridge	-8074
▁1974	-8075
▁cape	-8076
▁gord	-8077
▁scar	-8078
▁tool	-8079
▁craft	-8080
▁curve	-8081
▁exile	-8082
▁genre	-8083
▁penet	-8084
▁wrong	-8085
▁calend	-8086
▁clergy	-8087
▁termed	-8088
▁winner	-8089
▁illegal	-8090
▁lieuten	-8091
▁bachchan	-8092
▁bringing	-8093
▁resigned	-8094
▁sentence	-8095
▁inscription	-8096
▁mississippi	-8097
▁underground	-8098
▁neighborhood	-8099
▁independently	-8100
89	-8101
aks	-8102
eff	-8103
mah	-8104
tem	-8105
▁au	-8106
ario	-8107
omic	-8108
wers	-8109
▁gat	-8110
▁beta	-8111
▁deck	-8112
▁prox	-8113
▁1994,	-8114
▁1996,	-8115
▁popul	-8116
▁roger	-8117
natural	-8118
▁alumni	-8119
▁banned	-8120
▁chains	-8121
▁duties	-8122
▁headed	-8123
▁libert	-8124
▁retail	-8125
▁charter	-8126
▁painted	-8127
▁plastic	-8128
▁salieri	-8129
▁stopped	-8130
▁benefits	-8131
allosaurus	-8132
▁albanians	-8133
▁frederick	-8134
▁friedrich	-8135
▁horizontal	-8136
▁pronounced	-8137
▁philippines	-8138
communications	-8139
▁predominantly	-8140
lb	-8141
haz	-8142
mel	-8143
▁8.	-8144
gery	-8145
▁lev	-8146
asian	-8147
bound	-8148
▁1991	-8149
▁jord	-8150
▁ninth	-8151
▁tells	-8152
ication	-8153
▁choose	-8154
▁marble	-8155
▁matrix	-8156
▁mughal	-8157
▁samuel	-8158
▁retreat	-8159
▁theolog	-8160
billboard	-8161
▁boundary	-8162
▁michigan	-8163
▁moderate	-8164
▁napoleon	-8165
▁engineers	-8166
▁occurring	-8167
▁tarkovsky	-8168
▁absorption	-8169
▁mechanisms	-8170
▁replacement	-8171
▁theoretical	-8172
zz	-8173
nan	-8174
oma	-8175
upt	-8176
▁36	-8177
apat	-8178
▁tab	-8179
width	-8180
▁bone	-8181
▁sayy	-8182
forced	-8183
▁apopt	-8184
▁foods	-8185
▁kinds	-8186
▁surpr	-8187
tenance	-8188
▁affili	-8189
▁conven	-8190
▁losses	-8191
▁plural	-8192
▁tissue	-8193
▁voters	-8194
▁alkanes	-8195
▁disappe	-8196
▁houston	-8197
▁invaded	-8198
▁phillip	-8199
▁predict	-8200
▁violent	-8201
▁orbitals	-8202
▁encompass	-8203
▁infection	-8204
▁insurance	-8205
▁invention	-8206
▁thereafter	-8207
▁archipelago	-8208
28	-8209
ayd	-8210
cht	-8211
hal	-8212
▁),	-8213
-130	-8214
aped	-8215
holm	-8216
▁cow	-8217
▁"...	-8218
▁aver	-8219
▁boat	-8220
▁clay	-8221
▁frog	-8222
▁1997,	-8223
▁chess	-8224
▁encod	-8225
▁milan	-8226
▁salts	-8227
▁enabled	-8228
▁singers	-8229
▁warfare	-8230
▁romantic	-8231
▁decreased	-8232
▁reception	-8233
▁residence	-8234
▁everything	-8235
▁distinctive	-8236
92	-8237
lia	-8238
oba	-8239
▁bbs	-8240
▁hob	-8241
▁rab	-8242
▁tip	-8243
aders	-8244
icate	-8245
omers	-8246
▁1919	-8247
▁hits	-8248
▁mild	-8249
▁save	-8250
▁stem	-8251
orning	-8252
▁hired	-8253
▁infer	-8254
▁alchemy	-8255
▁bicycle	-8256
▁decimal	-8257
▁deliver	-8258
▁devoted	-8259
▁locally	-8260
▁nervous	-8261
▁singing	-8262
▁educated	-8263
▁familiar	-8264
▁periodic	-8265
▁spending	-8266
▁catholics	-8267
▁sacrifice	-8268
▁virtually	-8269
▁comprehens	-8270
▁discussion	-8271
▁interested	-8272
▁concentrations	-8273
hd	-8274
oft	-8275
was	-8276
gian	-8277
prop	-8278
▁bru	-8279
▁rum	-8280
▁spr	-8281
▁wed	-8282
jamin	-8283
space	-8284
▁epic	-8285
▁rout	-8286
orship	-8287
▁amway	-8288
▁enhan	-8289
▁10,000	-8290
▁parish	-8291
▁remove	-8292
▁undert	-8293
▁wilson	-8294
▁amongst	-8295
▁ceremon	-8296
▁contrad	-8297
▁colleges	-8298
▁disputed	-8299
▁princess	-8300
▁railroad	-8301
▁unemploy	-8302
▁amendment	-8303
▁dangerous	-8304
▁defensive	-8305
▁objective	-8306
▁capability	-8307
▁documented	-8308
▁registered	-8309
▁treatments	-8310
▁maintenance	-8311
▁neighboring	-8312
▁constellation	-8313
=3	-8314
bas	-8315
hop	-8316
alin	-8317
anta	-8318
anti	-8319
high	-8320
wick	-8321
▁bahá	-8322
▁bush	-8323
▁jump	-8324
▁lady	-8325
▁spar	-8326
▁moscow	-8327
▁airways	-8328
▁antigua	-8329
▁consent	-8330
▁damaged	-8331
▁victims	-8332
▁antibody	-8333
▁engineer	-8334
▁specimen	-8335
▁spelling	-8336
▁supports	-8337
▁surfaces	-8338
▁antarctic	-8339
▁ownership	-8340
▁phenomena	-8341
▁provision	-8342
▁contribution	-8343
▁developments	-8344
dem	-8345
him	-8346
ico	-8347
▁ip	-8348
aren	-8349
olla	-8350
owed	-8351
▁bac	-8352
▁bub	-8353
▁shr	-8354
▁vib	-8355
▁vin	-8356
ender	-8357
otrop	-8358
renal	-8359
▁chip	-8360
▁door	-8361
▁flav	-8362
▁flex	-8363
▁accus	-8364
▁ahmed	-8365
▁bands	-8366
▁tribe	-8367
▁arctic	-8368
▁battal	-8369
▁couple	-8370
▁gender	-8371
▁layers	-8372
▁prosec	-8373
▁disagre	-8374
▁enemies	-8375
▁flowers	-8376
▁channels	-8377
▁consumer	-8378
▁governed	-8379
▁calculated	-8380
▁friendship	-8381
▁mainstream	-8382
▁manuscripts	-8383
▁instrumental	-8384
▁negotiations	-8385
97	-8386
del	-8387
exp	-8388
vet	-8389
▁oh	-8390
body	-8391
odyn	-8392
▁asl	-8393
▁cpu	-8394
▁afro	-8395
▁dict	-8396
▁fert	-8397
▁loan	-8398
▁obst	-8399
▁sick	-8400
▁2009.	-8401
▁basil	-8402
▁codes	-8403
▁girls	-8404
▁rhyth	-8405
▁squad	-8406
▁uncon	-8407
ethoven	-8408
▁abbrev	-8409
▁arabia	-8410
▁asympt	-8411
▁deemed	-8412
▁eighth	-8413
ervation	-8414
▁indones	-8415
▁defended	-8416
▁indirect	-8417
▁johnston	-8418
▁struggle	-8419
▁consonant	-8420
▁episcopal	-8421
▁synthetic	-8422
▁challenged	-8423
▁civilization	-8424
▁jurisdiction	-8425
▁participation	-8426
▁('	-8427
▁75	-8428
harm	-8429
▁sul	-8430
grand	-8431
▁drag	-8432
▁inqu	-8433
▁mans	-8434
igious	-8435
mation	-8436
▁abbot	-8437
▁angel	-8438
▁guide	-8439
▁salam	-8440
▁steve	-8441
▁sugar	-8442
▁tends	-8443
▁alaric	-8444
▁extend	-8445
▁injury	-8446
▁intent	-8447
▁merged	-8448
▁preval	-8449
▁tracks	-8450
▁triang	-8451
▁distant	-8452
▁doubled	-8453
▁falcons	-8454
▁praised	-8455
▁removal	-8456
▁admitted	-8457
▁ancestry	-8458
▁armstrong	-8459
▁execution	-8460
▁surrender	-8461
▁innovation	-8462
▁lieutenant	-8463
▁restoration	-8464
▁acknowledged	-8465
▁capabilities	-8466
"—	-8467
▁37	-8468
ürer	-8469
▁hut	-8470
▁sig	-8471
inals	-8472
owulf	-8473
▁evil	-8474
▁ford	-8475
▁nato	-8476
▁tram	-8477
▁2008.	-8478
▁argon	-8479
▁cance	-8480
▁depth	-8481
▁fluor	-8482
▁magic	-8483
bouring	-8484
▁easier	-8485
▁facult	-8486
▁hitler	-8487
▁palest	-8488
▁radius	-8489
▁stones	-8490
▁suffix	-8491
aculture	-8492
▁heavier	-8493
▁circular	-8494
▁creative	-8495
▁diversity	-8496
▁patriarch	-8497
▁aberration	-8498
▁possession	-8499
▁declaration	-8500
▁necessarily	-8501
▁transformed	-8502
▁championships	-8503
▁pronunciation	-8504
87	-8505
bec	-8506
god	-8507
two	-8508
rell	-8509
uits	-8510
uxley	-8511
▁(195	-8512
▁butt	-8513
▁cauc	-8514
▁alien	-8515
▁falls	-8516
▁resur	-8517
▁usual	-8518
anthrop	-8519
▁hybrid	-8520
▁landed	-8521
▁passes	-8522
▁seemed	-8523
▁crystal	-8524
▁enlight	-8525
▁fantasy	-8526
▁grammar	-8527
▁mammals	-8528
▁pointed	-8529
▁humanity	-8530
▁lutheran	-8531
▁pictures	-8532
▁spectral	-8533
▁argentina	-8534
▁assistant	-8535
▁emergency	-8536
▁requiring	-8537
▁regardless	-8538
▁consecutive	-8539
▁administered	-8540
▁manufacturer	-8541
▁publications	-8542
rh	-8543
eld	-8544
iah	-8545
inn	-8546
pal	-8547
apor	-8548
orig	-8549
ride	-8550
▁11.	-8551
▁160	-8552
▁gib	-8553
▁jun	-8554
▁row	-8555
▁yan	-8556
anium	-8557
inage	-8558
south	-8559
▁doug	-8560
▁girl	-8561
▁rice	-8562
▁zinc	-8563
writer	-8564
▁jacob	-8565
▁moses	-8566
▁darwin	-8567
▁eccles	-8568
▁livest	-8569
▁merger	-8570
▁stayed	-8571
▁customs	-8572
▁keeping	-8573
▁morning	-8574
▁pitcher	-8575
▁undergo	-8576
▁advertis	-8577
▁airports	-8578
▁stronger	-8579
▁citizenship	-8580
▁extensively	-8581
-4	-8582
oz	-8583
="3	-8584
agle	-8585
amem	-8586
oint	-8587
ulus	-8588
▁15,	-8589
▁tag	-8590
alone	-8591
ctica	-8592
inois	-8593
ogene	-8594
oslav	-8595
▁juda	-8596
▁quad	-8597
august	-8598
istent	-8599
▁deter	-8600
▁phone	-8601
▁piano	-8602
▁swiss	-8603
▁wrest	-8604
amemnon	-8605
▁ankara	-8606
▁archer	-8607
▁entity	-8608
▁prophe	-8609
▁skills	-8610
▁arabian	-8611
▁bosnian	-8612
▁earthqu	-8613
▁helicop	-8614
▁license	-8615
▁succeed	-8616
▁notation	-8617
▁promised	-8618
▁studying	-8619
▁accrington	-8620
▁attempting	-8621
▁infections	-8622
▁supplement	-8623
▁restaurants	-8624
▁precipitation	-8625
oi	-8626
ayy	-8627
sem	-8628
uce	-8629
uum	-8630
yon	-8631
olar	-8632
omed	-8633
talk	-8634
▁ame	-8635
itime	-8636
onese	-8637
party	-8638
▁encl	-8639
▁karl	-8640
▁leon	-8641
ateral	-8642
ogenic	-8643
ometer	-8644
rating	-8645
▁attor	-8646
▁immun	-8647
▁jones	-8648
▁shore	-8649
▁watch	-8650
▁acquis	-8651
▁dishes	-8652
▁fisher	-8653
▁remote	-8654
▁spider	-8655
restrial	-8656
▁behavio	-8657
▁burning	-8658
▁console	-8659
▁volunte	-8660
▁advances	-8661
▁benjamin	-8662
▁entities	-8663
▁isotopes	-8664
▁protests	-8665
▁shooting	-8666
▁addressed	-8667
▁confusion	-8668
▁daughters	-8669
▁louisiana	-8670
▁replacing	-8671
▁constitute	-8672
▁punishment	-8673
▁astronomers	-8674
▁correspondence	-8675
cut	-8676
ien	-8677
pur	-8678
abdu	-8679
amar	-8680
zyme	-8681
▁eld	-8682
▁hun	-8683
▁obv	-8684
etics	-8685
osity	-8686
▁apoc	-8687
▁auto	-8688
▁grey	-8689
▁pool	-8690
▁seed	-8691
▁tong	-8692
▁bread	-8693
▁dürer	-8694
▁griff	-8695
▁manip	-8696
▁zones	-8697
ometers	-8698
▁cousin	-8699
▁huxley	-8700
▁ingred	-8701
▁bigfoot	-8702
▁sectors	-8703
▁chairman	-8704
▁concrete	-8705
▁molecule	-8706
▁volcanic	-8707
▁orchestra	-8708
▁submitted	-8709
▁collections	-8710
▁definitions	-8711
▁interaction	-8712
▁regulations	-8713
▁interactions	-8714
▁reproduction	-8715
▁restrictions	-8716
▁simultaneously	-8717
cm	-8718
lif	-8719
nst	-8720
▁$1	-8721
eman	-8722
khov	-8723
rium	-8724
ylan	-8725
–200	-8726
▁176	-8727
▁27,	-8728
▁dal	-8729
▁vik	-8730
athan	-8731
inson	-8732
▁fulf	-8733
▁glac	-8734
▁1,000	-8735
▁1991,	-8736
▁2010.	-8737
▁2017.	-8738
▁claud	-8739
▁heter	-8740
▁posit	-8741
▁welsh	-8742
▁celest	-8743
▁drives	-8744
▁tribut	-8745
▁compact	-8746
▁intense	-8747
▁melting	-8748
▁recover	-8749
▁temples	-8750
▁terrain	-8751
▁guidance	-8752
▁murdered	-8753
▁thinking	-8754
▁processor	-8755
▁societies	-8756
▁perception	-8757
▁processors	-8758
▁recognised	-8759
▁integration	-8760
ami	-8761
lay	-8762
sur	-8763
anim	-8764
rani	-8765
uous	-8766
▁21,	-8767
▁ata	-8768
▁dos	-8769
▁pad	-8770
ailed	-8771
eller	-8772
inced	-8773
later	-8774
▁volt	-8775
▁wolf	-8776
▁worn	-8777
script	-8778
ulates	-8779
▁1969,	-8780
▁bears	-8781
▁physi	-8782
▁unity	-8783
ipation	-8784
▁errors	-8785
▁convert	-8786
▁senator	-8787
▁disputes	-8788
▁explains	-8789
▁conscious	-8790
▁andronikos	-8791
▁millennium	-8792
▁systematic	-8793
▁neighbouring	-8794
-3	-8795
▁9.	-8796
bahá	-8797
hard	-8798
othe	-8799
zing	-8800
▁cia	-8801
▁oak	-8802
vised	-8803
▁flee	-8804
▁flew	-8805
▁milk	-8806
▁2019.	-8807
▁heads	-8808
▁lions	-8809
▁verse	-8810
▁aspart	-8811
▁notice	-8812
▁option	-8813
▁resign	-8814
▁tennis	-8815
▁vulner	-8816
▁dioxide	-8817
▁judaism	-8818
▁attested	-8819
▁autonomy	-8820
▁register	-8821
▁accordion	-8822
▁antarctica	-8823
▁discipline	-8824
▁initiative	-8825
▁probability	-8826
▁considerably	-8827
last	-8828
undi	-8829
▁24,	-8830
▁gab	-8831
▁lyd	-8832
▁nag	-8833
arius	-8834
ingly	-8835
▁auro	-8836
▁blow	-8837
▁cosm	-8838
▁rhod	-8839
▁verb	-8840
states	-8841
▁2007.	-8842
▁2020.	-8843
▁arose	-8844
▁coinc	-8845
▁pages	-8846
▁races	-8847
▁rhine	-8848
develop	-8849
opteryx	-8850
▁anaxim	-8851
▁axioms	-8852
▁bardot	-8853
▁coined	-8854
▁guards	-8855
▁masses	-8856
▁persia	-8857
▁sayyaf	-8858
▁serbia	-8859
▁appeals	-8860
▁dollars	-8861
▁logical	-8862
▁metabol	-8863
▁suicide	-8864
ographics	-8865
▁baptists	-8866
▁dinosaur	-8867
▁keyboard	-8868
▁teachers	-8869
▁andersson	-8870
▁convinced	-8871
▁economics	-8872
▁livestock	-8873
▁nominated	-8874
▁agreements	-8875
▁electronics	-8876
▁measurement	-8877
▁confederation	-8878
44	-8879
6)	-8880
oo	-8881
hra	-8882
atha	-8883
avia	-8884
erce	-8885
▁ken	-8886
oxide	-8887
▁1977	-8888
▁hymn	-8889
▁span	-8890
atlant	-8891
irical	-8892
▁antic	-8893
▁aruba	-8894
▁camus	-8895
▁innoc	-8896
▁korea	-8897
▁crater	-8898
▁crewed	-8899
▁modest	-8900
▁plains	-8901
▁stores	-8902
▁imposed	-8903
aboration	-8904
▁altitude	-8905
▁atlantis	-8906
▁attribut	-8907
▁quantity	-8908
▁visiting	-8909
▁commodore	-8910
▁composers	-8911
▁corporate	-8912
▁discontin	-8913
▁electoral	-8914
▁temporary	-8915
▁indicating	-8916
▁situations	-8917
29	-8918
▁:	-8919
ser	-8920
fire	-8921
▁lud	-8922
▁unf	-8923
ifier	-8924
nings	-8925
▁1989	-8926
▁1993	-8927
▁forb	-8928
▁hang	-8929
▁libr	-8930
▁lomb	-8931
▁tied	-8932
▁1990,	-8933
▁2018.	-8934
▁alive	-8935
▁scope	-8936
▁vital	-8937
borough	-8938
▁alloys	-8939
▁sacram	-8940
▁tested	-8941
although	-8942
ependent	-8943
isations	-8944
ractions	-8945
▁finance	-8946
clamation	-8947
▁civilian	-8948
▁currency	-8949
▁equipped	-8950
▁imported	-8951
▁acropolis	-8952
▁fictional	-8953
▁requested	-8954
▁architects	-8955
▁navigation	-8956
▁aquaculture	-8957
-5	-8958
8)	-8959
cen	-8960
uma	-8961
usa	-8962
–17	-8963
agne	-8964
alex	-8965
ieth	-8966
▁gif	-8967
▁1969	-8968
▁jane	-8969
teenth	-8970
▁enact	-8971
▁prest	-8972
▁spons	-8973
achment	-8974
▁cinema	-8975
▁deeply	-8976
▁proton	-8977
iversity	-8978
▁aerodyn	-8979
▁aurochs	-8980
▁citizen	-8981
▁polynom	-8982
▁strings	-8983
▁trigger	-8984
▁unclear	-8985
▁accuracy	-8986
▁illinois	-8987
▁manifest	-8988
▁associate	-8989
▁dissolved	-8990
▁conclusion	-8991
▁connecting	-8992
▁dependence	-8993
▁withdrawal	-8994
▁environments	-8995
▁translations	-8996
wig	-8997
ando	-8998
ders	-8999
zech	-9000
▁50%	-9001
▁rib	-9002
▁tub	-9003
lived	-9004
obile	-9005
ubayd	-9006
▁1975	-9007
▁deaf	-9008
▁mong	-9009
▁tape	-9010
aneous	-9011
urated	-9012
▁doubt	-9013
▁honey	-9014
▁topic	-9015
▁trend	-9016
▁afford	-9017
▁culmin	-9018
▁ethiop	-9019
▁mutual	-9020
▁stroke	-9021
▁tribal	-9022
cription	-9023
▁crucial	-9024
▁erected	-9025
▁exhibit	-9026
▁turning	-9027
▁aberdare	-9028
▁animated	-9029
▁consolid	-9030
▁displays	-9031
▁exercise	-9032
▁aesthetic	-9033
▁recommend	-9034
▁challenges	-9035
▁suggesting	-9036
▁involvement	-9037
▁mesopotamia	-9038
▁politically	-9039
▁improvements	-9040
cin	-9041
dri	-9042
eria	-9043
four	-9044
thel	-9045
when	-9046
▁20,	-9047
▁gil	-9048
▁orn	-9049
▁bore	-9050
▁bulk	-9051
▁fred	-9052
▁mike	-9053
▁ross	-9054
▁1993,	-9055
▁aside	-9056
▁beach	-9057
▁benin	-9058
▁filed	-9059
▁reloc	-9060
▁rugby	-9061
▁saved	-9062
▁sword	-9063
▁appell	-9064
▁backup	-9065
▁gordon	-9066
▁manual	-9067
▁baptism	-9068
▁battery	-9069
▁bromine	-9070
▁driving	-9071
▁forcing	-9072
▁integer	-9073
▁mercury	-9074
▁volumes	-9075
ographers	-9076
▁demanded	-9077
▁entering	-9078
▁fraction	-9079
▁maritime	-9080
▁supplied	-9081
▁beethoven	-9082
▁cardinals	-9083
▁companion	-9084
▁intercept	-9085
▁mechanics	-9086
▁populated	-9087
▁personally	-9088
▁proclaimed	-9089
▁autobiography	-9090
▁mathematician	-9091
ogy	-9092
▁cd	-9093
▁fu	-9094
apul	-9095
gent	-9096
gram	-9097
oras	-9098
▁buc	-9099
▁jon	-9100
acles	-9101
ritis	-9102
▁lind	-9103
▁nich	-9104
▁plut	-9105
oisier	-9106
▁1995,	-9107
▁aware	-9108
▁camps	-9109
▁isaac	-9110
▁skill	-9111
▁median	-9112
▁actress	-9113
▁chekhov	-9114
▁deliber	-9115
▁escaped	-9116
▁fossils	-9117
▁ongoing	-9118
▁shuttle	-9119
▁speaker	-9120
▁website	-9121
▁cappella	-9122
▁commerce	-9123
▁emperors	-9124
▁symphony	-9125
▁transmit	-9126
▁veterans	-9127
▁agamemnon	-9128
▁macedonia	-9129
▁considering	-9130
▁evolutionary	-9131
▁antimicrobial	-9132
7)	-9133
cre	-9134
jab	-9135
pit	-9136
▁(3	-9137
▁48	-9138
▁jr	-9139
▁vs	-9140
atra	-9141
▁avo	-9142
▁fan	-9143
orted	-9144
▁pant	-9145
▁prey	-9146
▁solo	-9147
▁swim	-9148
common	-9149
string	-9150
▁optim	-9151
▁touch	-9152
▁behalf	-9153
▁enthus	-9154
▁lauren	-9155
▁muscle	-9156
▁switch	-9157
▁desired	-9158
▁extinct	-9159
▁mexican	-9160
▁abundant	-9161
▁agencies	-9162
▁gathered	-9163
▁informed	-9164
▁overseas	-9165
▁lavoisier	-9166
▁maintains	-9167
▁remainder	-9168
▁compatible	-9169
▁controller	-9170
▁consequences	-9171
▁unemployment	-9172
▁opportunities	-9173
een	-9174
lad	-9175
tus	-9176
▁ig	-9177
▁ms	-9178
conn	-9179
esco	-9180
leum	-9181
oton	-9182
tics	-9183
▁eur	-9184
▁hex	-9185
inery	-9186
▁crop	-9187
▁duty	-9188
▁emit	-9189
▁sack	-9190
▁talk	-9191
▁tick	-9192
▁abner	-9193
▁chile	-9194
▁davis	-9195
▁forth	-9196
▁sharp	-9197
▁uncle	-9198
▁acetyl	-9199
▁agnost	-9200
▁ariane	-9201
▁blacks	-9202
▁casual	-9203
▁caught	-9204
▁plates	-9205
▁barbuda	-9206
▁imports	-9207
▁iranian	-9208
ologically	-9209
▁mortality	-9210
▁travelled	-9211
▁macedonian	-9212
▁confederacy	-9213
▁exploration	-9214
▁maintaining	-9215
cc	-9216
sl	-9217
00.	-9218
aws	-9219
orb	-9220
rus	-9221
▁44	-9222
▁8-	-9223
care	-9224
math	-9225
tele	-9226
▁abi	-9227
▁dor	-9228
▁kos	-9229
▁nik	-9230
▁syd	-9231
▁wes	-9232
▁aort	-9233
▁casp	-9234
▁dogs	-9235
▁heir	-9236
▁jagu	-9237
▁legs	-9238
▁plea	-9239
apulco	-9240
▁acorn	-9241
▁fluid	-9242
▁tiber	-9243
regular	-9244
▁abroad	-9245
▁albedo	-9246
▁profit	-9247
▁smooth	-9248
▁sudden	-9249
▁powered	-9250
▁calendar	-9251
▁fragment	-9252
▁franchise	-9253
▁analytical	-9254
▁belarusian	-9255
▁regulation	-9256
▁battlefield	-9257
▁generations	-9258
▁improvement	-9259
archaeopteryx	-9260
▁broadcasting	-9261
burn	-9262
conf	-9263
cost	-9264
ydos	-9265
▁10.	-9266
▁adm	-9267
▁lag	-9268
▁rid	-9269
▁rio	-9270
gener	-9271
haust	-9272
night	-9273
▁1982	-9274
▁bath	-9275
▁cash	-9276
▁hear	-9277
▁lung	-9278
▁mile	-9279
gments	-9280
▁dimin	-9281
▁lifes	-9282
▁volta	-9283
chester	-9284
ressive	-9285
▁danube	-9286
▁engage	-9287
▁seized	-9288
▁tunnel	-9289
▁vacuum	-9290
▁algiers	-9291
▁brigade	-9292
▁durrani	-9293
▁funeral	-9294
▁readily	-9295
▁millions	-9296
▁thirteen	-9297
▁elevation	-9298
▁specimens	-9299
▁completion	-9300
▁consequence	-9301
▁hellenistic	-9302
▁progressive	-9303
_7	-9304
bn	-9305
hom	-9306
uan	-9307
▁pp	-9308
alph	-9309
avid	-9310
lass	-9311
norm	-9312
▁19,	-9313
▁aug	-9314
▁cem	-9315
▁tai	-9316
▁tap	-9317
great	-9318
greek	-9319
izers	-9320
lysis	-9321
offic	-9322
▁bars	-9323
▁clus	-9324
▁empt	-9325
▁lamb	-9326
▁mete	-9327
▁wore	-9328
enment	-9329
orical	-9330
▁1986,	-9331
▁2013.	-9332
▁acute	-9333
▁alloy	-9334
▁boats	-9335
▁elite	-9336
▁enorm	-9337
▁niger	-9338
▁turks	-9339
covered	-9340
olithic	-9341
romatic	-9342
through	-9343
▁proven	-9344
▁trojan	-9345
▁arguing	-9346
▁carolla	-9347
▁demands	-9348
▁derives	-9349
▁privile	-9350
ationally	-9351
▁crossing	-9352
▁findings	-9353
▁frontier	-9354
▁honorary	-9355
▁observer	-9356
▁presents	-9357
▁relevant	-9358
▁survival	-9359
government	-9360
▁inherited	-9361
▁sensitive	-9362
▁amphibians	-9363
▁babylonian	-9364
▁geographic	-9365
▁encountered	-9366
▁enforcement	-9367
▁multiplication	-9368
96	-9369
lyn	-9370
▁(4	-9371
▁mi	-9372
izer	-9373
jack	-9374
keep	-9375
ylus	-9376
▁cad	-9377
▁dir	-9378
ashed	-9379
icals	-9380
ophan	-9381
▁bowl	-9382
▁loop	-9383
▁vacc	-9384
estone	-9385
orient	-9386
▁2014.	-9387
▁decis	-9388
▁doses	-9389
▁dylan	-9390
▁paras	-9391
present	-9392
ubaydah	-9393
▁korean	-9394
▁malays	-9395
▁shadow	-9396
▁anatomy	-9397
▁defines	-9398
▁enterpr	-9399
▁patriot	-9400
▁prussia	-9401
▁anderson	-9402
▁feathers	-9403
▁metallic	-9404
▁arbitrage	-9405
▁consensus	-9406
▁emergence	-9407
▁furniture	-9408
▁reasoning	-9409
▁boundaries	-9410
▁efficiency	-9411
▁inhibitors	-9412
▁comparative	-9413
▁counterpart	-9414
▁perspective	-9415
▁competitions	-9416
ji	-9417
mu	-9418
cat	-9419
phy	-9420
rot	-9421
just	-9422
▁ask	-9423
▁ble	-9424
▁joe	-9425
▁lip	-9426
▁ron	-9427
▁tob	-9428
▁vig	-9429
break	-9430
▁angu	-9431
▁balk	-9432
▁coat	-9433
▁fold	-9434
▁meth	-9435
▁whit	-9436
aining	-9437
igible	-9438
rights	-9439
▁1992,	-9440
▁beast	-9441
▁bever	-9442
▁defic	-9443
▁flown	-9444
▁motif	-9445
▁noise	-9446
▁oblig	-9447
▁recei	-9448
▁alcott	-9449
▁athlon	-9450
▁genera	-9451
▁looked	-9452
▁respir	-9453
▁speeds	-9454
▁thanks	-9455
▁unesco	-9456
▁window	-9457
▁segment	-9458
▁surgery	-9459
▁ukraine	-9460
christian	-9461
▁fortress	-9462
▁generals	-9463
▁integral	-9464
▁octavian	-9465
▁zubaydah	-9466
▁bandwidth	-9467
▁celestial	-9468
▁certainly	-9469
▁elaborate	-9470
▁inhabited	-9471
▁contribute	-9472
▁schweitzer	-9473
▁geographical	-9474
▁collaboration	-9475
▁psychological	-9476
");	-9477
ais	-9478
five	-9479
ixon	-9480
otus	-9481
quet	-9482
ymes	-9483
▁ost	-9484
▁rus	-9485
▁sri	-9486
▁tot	-9487
eding	-9488
opher	-9489
shire	-9490
three	-9491
▁cord	-9492
▁dock	-9493
▁gone	-9494
ficial	-9495
▁1972,	-9496
▁adopt	-9497
▁arcad	-9498
▁creek	-9499
▁crust	-9500
▁czech	-9501
▁divor	-9502
▁liver	-9503
▁shock	-9504
▁trace	-9505
▁answer	-9506
▁bryozo	-9507
▁deputy	-9508
▁exclud	-9509
▁judges	-9510
▁shaped	-9511
▁ethical	-9512
▁militia	-9513
▁reaches	-9514
▁transit	-9515
▁injuries	-9516
▁membrane	-9517
▁peripher	-9518
▁refugees	-9519
▁regiment	-9520
▁geological	-9521
31	-9522
én	-9523
és	-9524
ele	-9525
esh	-9526
tim	-9527
▁$2	-9528
bage	-9529
fran	-9530
mail	-9531
▁dop	-9532
▁gay	-9533
▁mam	-9534
▁odd	-9535
child	-9536
▁1972	-9537
▁aard	-9538
▁bart	-9539
▁coff	-9540
▁emir	-9541
▁rely	-9542
▁2012.	-9543
▁coins	-9544
▁embra	-9545
▁grass	-9546
▁loose	-9547
▁moves	-9548
▁overs	-9549
▁angels	-9550
▁cauchy	-9551
▁disapp	-9552
▁jaguar	-9553
▁munich	-9554
▁pushed	-9555
▁venice	-9556
▁100,000	-9557
▁feeling	-9558
▁ancestor	-9559
▁breaking	-9560
▁chloride	-9561
▁designer	-9562
▁abolished	-9563
▁egyptians	-9564
▁petroleum	-9565
▁scientist	-9566
▁sophistic	-9567
▁specified	-9568
apatosaurus	-9569
▁extraction	-9570
▁competitive	-9571
▁commercially	-9572
▁manufactured	-9573
mi	-9574
3).	-9575
bir	-9576
ogl	-9577
she	-9578
tax	-9579
▁).	-9580
asca	-9581
asia	-9582
bard	-9583
chen	-9584
enos	-9585
ieck	-9586
mond	-9587
oard	-9588
only	-9589
post	-9590
uter	-9591
▁bil	-9592
▁sap	-9593
arked	-9594
chell	-9595
heric	-9596
mouth	-9597
opoly	-9598
plane	-9599
thend	-9600
ynthe	-9601
▁athe	-9602
▁bare	-9603
▁eald	-9604
▁fasc	-9605
▁iber	-9606
▁monk	-9607
▁nest	-9608
▁peas	-9609
▁shep	-9610
▁2011.	-9611
▁aleut	-9612
▁boost	-9613
▁coach	-9614
▁gases	-9615
▁kidna	-9616
▁owing	-9617
▁seeds	-9618
essions	-9619
ugoslav	-9620
▁handle	-9621
▁prefix	-9622
▁ritual	-9623
▁sulfur	-9624
▁sydney	-9625
▁aristoc	-9626
▁courses	-9627
▁extends	-9628
▁russell	-9629
▁studios	-9630
▁willing	-9631
thendieck	-9632
▁defining	-9633
▁apoptosis	-9634
▁cartridge	-9635
▁considers	-9636
▁governing	-9637
▁comparable	-9638
▁respective	-9639
▁underlying	-9640
▁scholarship	-9641
▁consistently	-9642
▁unsuccessful	-9643
▁identification	-9644
ava	-9645
gue	-9646
ito	-9647
–16	-9648
▁55	-9649
gans	-9650
text	-9651
▁165	-9652
▁18,	-9653
▁dod	-9654
▁enz	-9655
▁jam	-9656
books	-9657
leton	-9658
▁aene	-9659
▁cher	-9660
▁dick	-9661
▁gift	-9662
▁maur	-9663
aceous	-9664
flight	-9665
▁2023,	-9666
▁acted	-9667
▁allen	-9668
▁camer	-9669
▁lithu	-9670
▁rings	-9671
▁solve	-9672
attered	-9673
ultural	-9674
written	-9675
▁abydos	-9676
▁burned	-9677
▁fertil	-9678
▁gospel	-9679
▁inland	-9680
▁minute	-9681
▁adrenal	-9682
▁discour	-9683
▁equally	-9684
▁gallery	-9685
▁helping	-9686
▁liberty	-9687
▁shifted	-9688
▁statues	-9689
▁attorney	-9690
▁traveled	-9691
▁customers	-9692
▁dismissed	-9693
▁emissions	-9694
▁geometric	-9695
▁precision	-9696
▁victories	-9697
established	-9698
▁photographs	-9699
▁configuration	-9700
▁enlightenment	-9701
fr	-9702
2),	-9703
ansk	-9704
best	-9705
mitt	-9706
ucky	-9707
▁"",	-9708
▁26,	-9709
▁700	-9710
▁ecl	-9711
treat	-9712
▁1981	-9713
▁chal	-9714
▁dost	-9715
▁guth	-9716
▁kant	-9717
▁nile	-9718
▁sakh	-9719
engths	-9720
hetics	-9721
▁celeb	-9722
▁metro	-9723
▁revel	-9724
▁turns	-9725
▁wheat	-9726
▁balkan	-9727
▁devast	-9728
▁queens	-9729
▁sparta	-9730
▁vessel	-9731
▁agarose	-9732
▁conspir	-9733
▁falling	-9734
▁fleming	-9735
▁neurons	-9736
ibilities	-9737
▁acapulco	-9738
▁clothing	-9739
▁printing	-9740
▁anarchist	-9741
▁designers	-9742
▁promoting	-9743
▁anarchists	-9744
▁compromise	-9745
▁liberation	-9746
▁relativity	-9747
▁celebration	-9748
▁grothendieck	-9749
5"	-9750
61	-9751
had	-9752
sup	-9753
ugu	-9754
upp	-9755
ader	-9756
east	-9757
icus	-9758
ipes	-9759
wall	-9760
▁aik	-9761
▁hes	-9762
▁jup	-9763
▁raw	-9764
▁unw	-9765
acker	-9766
allas	-9767
mates	-9768
sburg	-9769
▁1988	-9770
▁cens	-9771
▁scen	-9772
▁troy	-9773
▁unst	-9774
hentic	-9775
season	-9776
shaped	-9777
ulator	-9778
weight	-9779
▁1968,	-9780
▁1985,	-9781
▁almor	-9782
▁deity	-9783
▁demol	-9784
▁faces	-9785
▁hawai	-9786
▁lumin	-9787
▁rally	-9788
▁sheep	-9789
▁steam	-9790
onsored	-9791
▁apprec	-9792
▁carved	-9793
▁corner	-9794
▁explor	-9795
▁ninete	-9796
▁overth	-9797
▁shells	-9798
relation	-9799
▁cartoon	-9800
▁centres	-9801
▁compete	-9802
▁douglas	-9803
▁exhaust	-9804
▁holiday	-9805
▁comments	-9806
▁definite	-9807
▁opposing	-9808
▁realized	-9809
▁bacterial	-9810
▁behaviour	-9811
▁governors	-9812
▁assumption	-9813
▁correction	-9814
▁directions	-9815
▁corresponds	-9816
▁destination	-9817
▁immigration	-9818
▁dramatically	-9819
▁denominations	-9820
gm	-9821
ör	-9822
cha	-9823
may	-9824
pos	-9825
▁68	-9826
alon	-9827
bird	-9828
door	-9829
held	-9830
olan	-9831
ucci	-9832
▁dil	-9833
▁pam	-9834
▁pon	-9835
▁raj	-9836
▁rav	-9837
agger	-9838
phalt	-9839
saxon	-9840
▁golf	-9841
▁marc	-9842
▁ahead	-9843
▁catch	-9844
▁finds	-9845
▁modes	-9846
▁pasha	-9847
▁perse	-9848
▁pilgr	-9849
▁souls	-9850
▁trump	-9851
▁assert	-9852
▁confer	-9853
▁digits	-9854
▁genres	-9855
▁gothic	-9856
▁deities	-9857
▁dynamic	-9858
▁heating	-9859
▁lawsuit	-9860
▁returns	-9861
▁revised	-9862
▁secured	-9863
▁attitude	-9864
▁emission	-9865
▁properly	-9866
▁singular	-9867
▁yugoslav	-9868
ordination	-9869
▁distances	-9870
▁inflation	-9871
▁accessible	-9872
▁restaurant	-9873
▁christopher	-9874
iov	-9875
uag	-9876
feld	-9877
rill	-9878
▁cpc	-9879
▁jar	-9880
▁joy	-9881
chief	-9882
cular	-9883
insic	-9884
ogens	-9885
ogram	-9886
polit	-9887
techn	-9888
vaeus	-9889
▁1984	-9890
▁cock	-9891
▁fisc	-9892
▁lock	-9893
▁mane	-9894
▁ties	-9895
ivaldi	-9896
▁2005.	-9897
▁homer	-9898
▁wavel	-9899
atories	-9900
ilitary	-9901
minster	-9902
▁athlet	-9903
▁crimes	-9904
▁facing	-9905
▁fallen	-9906
▁funded	-9907
▁hemisp	-9908
▁hunter	-9909
▁punjab	-9910
▁serial	-9911
▁subset	-9912
▁finland	-9913
▁jupiter	-9914
▁ranking	-9915
▁emerging	-9916
▁preserve	-9917
▁receives	-9918
▁treatise	-9919
▁assembled	-9920
▁competing	-9921
▁approached	-9922
▁households	-9923
▁provisions	-9924
▁transmitted	-9925
ét	-9926
bod	-9927
cod	-9928
pri	-9929
sim	-9930
whe	-9931
órd	-9932
▁49	-9933
▁si	-9934
case	-9935
pson	-9936
rect	-9937
supp	-9938
▁23,	-9939
▁amm	-9940
▁dun	-9941
▁fet	-9942
▁gaz	-9943
▁guy	-9944
▁gym	-9945
▁jos	-9946
aemen	-9947
iants	-9948
ianus	-9949
ilton	-9950
ioxid	-9951
▁arag	-9952
▁cypr	-9953
▁labs	-9954
▁pose	-9955
▁sees	-9956
▁tone	-9957
commun	-9958
▁2021.	-9959
▁coron	-9960
▁herod	-9961
▁playw	-9962
▁trium	-9963
▁worst	-9964
section	-9965
▁blocks	-9966
▁lacked	-9967
▁shapes	-9968
▁sphere	-9969
▁antonio	-9970
▁closest	-9971
▁diction	-9972
▁getting	-9973
▁lasting	-9974
▁plateau	-9975
▁reverse	-9976
istically	-9977
▁assisted	-9978
▁episodes	-9979
▁warriors	-9980
▁belonging	-9981
▁achievement	-9982
▁orientation	-9983
46	-9984
bh	-9985
ori	-9986
sum	-9987
▁sr	-9988
▁dee	-9989
▁tay	-9990
arist	-9991
human	-9992
oting	-9993
▁1985	-9994
▁oath	-9995
▁plas	-9996
▁unic	-9997
▁bruce	-9998
▁emanc	-9999
▁epist	-10000
▁happy	-10001
▁harsh	-10002
▁mines	-10003
▁tetra	-10004
▁troub	-10005
members	-10006
▁cyprus	-10007
▁expert	-10008
▁fairly	-10009
▁hurric	-10010
▁permit	-10011
building	-10012
▁biology	-10013
▁insects	-10014
▁isotope	-10015
▁raising	-10016
▁sending	-10017
▁vivaldi	-10018
▁akkadian	-10019
▁judgment	-10020
▁psychiat	-10021
▁resolved	-10022
▁revenues	-10023
▁cognitive	-10024
▁combining	-10025
▁commented	-10026
▁extending	-10027
▁libraries	-10028
▁physician	-10029
▁reinforce	-10030
▁modulation	-10031
▁reflection	-10032
▁repeatedly	-10033
▁separately	-10034
▁northwestern	-10035
▁preservation	-10036
hl	-10037
tur	-10038
uly	-10039
▁',	-10040
drew	-10041
ilst	-10042
load	-10043
rele	-10044
ulas	-10045
▁gon	-10046
▁kim	-10047
▁tin	-10048
aurus	-10049
comes	-10050
ctive	-10051
ethyl	-10052
▁berg	-10053
▁diab	-10054
▁dust	-10055
▁feud	-10056
▁hans	-10057
▁sang	-10058
▁shir	-10059
▁teen	-10060
▁1971,	-10061
▁2006.	-10062
▁kelly	-10063
▁laser	-10064
▁memor	-10065
▁newer	-10066
changed	-10067
fiction	-10068
▁alpine	-10069
▁avenue	-10070
▁memoir	-10071
▁precur	-10072
▁sicily	-10073
▁supers	-10074
▁weekly	-10075
▁applies	-10076
▁caesium	-10077
▁carries	-10078
▁collaps	-10079
▁columns	-10080
▁ealdred	-10081
▁evening	-10082
▁mystery	-10083
▁neutron	-10084
▁starred	-10085
▁editions	-10086
▁messages	-10087
▁withdrew	-10088
▁authentic	-10089
▁departure	-10090
▁descended	-10091
▁europeans	-10092
▁andalusian	-10093
▁exceptions	-10094
▁freshwater	-10095
▁recordings	-10096
▁republicans	-10097
▁demographics	-10098
▁intervention	-10099
cr	-10100
big	-10101
gir	-10102
blue	-10103
iffs	-10104
ista	-10105
made	-10106
pent	-10107
rene	-10108
stan	-10109
▁12.	-10110
▁600	-10111
▁jet	-10112
▁lis	-10113
▁meg	-10114
ionys	-10115
maker	-10116
▁1966	-10117
▁1986	-10118
▁ally	-10119
▁deer	-10120
▁epid	-10121
▁sure	-10122
number	-10123
▁affir	-10124
▁capit	-10125
▁datab	-10126
▁overt	-10127
▁pasht	-10128
ometric	-10129
▁barium	-10130
▁extant	-10131
▁testim	-10132
iliation	-10133
▁faculty	-10134
▁macedon	-10135
▁reduces	-10136
▁ulvaeus	-10137
▁inherent	-10138
▁olympics	-10139
▁thorough	-10140
generation	-10141
▁comprises	-10142
▁monuments	-10143
▁occasions	-10144
▁earthquake	-10145
▁questioned	-10146
▁proclamation	-10147
▁similarities	-10148
▁southeastern	-10149
▁transformation	-10150
▁interpretations	-10151
-7	-10152
.'	-10153
you	-10154
lord	-10155
thal	-10156
wart	-10157
▁kaz	-10158
▁pom	-10159
alpha	-10160
idium	-10161
panic	-10162
▁carn	-10163
▁gluc	-10164
▁lion	-10165
▁ment	-10166
▁otto	-10167
▁summ	-10168
brates	-10169
couver	-10170
ington	-10171
master	-10172
▁1977,	-10173
▁1989,	-10174
▁2001.	-10175
▁andes	-10176
▁besie	-10177
▁chick	-10178
▁fract	-10179
▁moroc	-10180
▁nutri	-10181
▁spend	-10182
▁dubbed	-10183
▁enzyme	-10184
▁perpet	-10185
▁whilst	-10186
function	-10187
▁abalone	-10188
▁armored	-10189
▁batting	-10190
▁counted	-10191
▁doubles	-10192
▁faction	-10193
▁lacking	-10194
▁nitride	-10195
▁passion	-10196
▁absorbed	-10197
▁acoustic	-10198
▁enhanced	-10199
▁everyone	-10200
▁hierarch	-10201
▁merchant	-10202
▁opponent	-10203
▁antoninus	-10204
▁directory	-10205
▁exclusive	-10206
▁strongest	-10207
▁criticised	-10208
▁hemisphere	-10209
▁prevention	-10210
▁productions	-10211
▁calculations	-10212
26	-10213
:"	-10214
▁!	-10215
fri	-10216
jud	-10217
pub	-10218
via	-10219
|21	-10220
anna	-10221
aque	-10222
disc	-10223
orum	-10224
rock	-10225
ymph	-10226
▁iso	-10227
▁kam	-10228
▁lob	-10229
aceut	-10230
iliad	-10231
islam	-10232
plete	-10233
▁1987	-10234
▁acry	-10235
▁bald	-10236
▁córd	-10237
▁desk	-10238
▁gray	-10239
▁pear	-10240
kelium	-10241
opping	-10242
person	-10243
▁2016.	-10244
▁altru	-10245
▁covid	-10246
▁doctr	-10247
▁navig	-10248
▁pound	-10249
▁tales	-10250
▁venus	-10251
anskrit	-10252
ascular	-10253
osexual	-10254
▁ambass	-10255
▁apocry	-10256
▁crafts	-10257
▁subdiv	-10258
▁voyage	-10259
▁abscess	-10260
▁balkans	-10261
▁bernard	-10262
▁donated	-10263
▁seroton	-10264
▁suburbs	-10265
hungarian	-10266
▁antioxid	-10267
▁belonged	-10268
▁converse	-10269
▁detected	-10270
▁enormous	-10271
▁numbered	-10272
▁reformed	-10273
▁abolition	-10274
▁commentary	-10275
▁preventing	-10276
▁predecessor	-10277
▁effectiveness	-10278
▁mathematicians	-10279
–8	-10280
cro	-10281
mur	-10282
▁"(	-10283
▁ku	-10284
="18	-10285
rape	-10286
rays	-10287
went	-10288
whel	-10289
▁boe	-10290
▁hoc	-10291
▁lig	-10292
▁ore	-10293
▁spa	-10294
arded	-10295
borne	-10296
etery	-10297
onium	-10298
ysics	-10299
▁1968	-10300
▁1976	-10301
▁adds	-10302
▁forg	-10303
▁ward	-10304
▁welf	-10305
itated	-10306
olloqu	-10307
ughter	-10308
▁artif	-10309
▁feast	-10310
▁scyth	-10311
taining	-10312
▁aboard	-10313
▁acidic	-10314
▁butter	-10315
▁filter	-10316
▁julius	-10317
▁nuclei	-10318
▁quoted	-10319
▁reader	-10320
▁traced	-10321
▁wisdom	-10322
▁burundi	-10323
▁equator	-10324
▁masters	-10325
▁soldier	-10326
▁voltage	-10327
▁cemetery	-10328
▁coverage	-10329
▁mitchell	-10330
▁monetary	-10331
▁reflects	-10332
▁renowned	-10333
▁reversed	-10334
▁striking	-10335
▁syndrome	-10336
▁irregular	-10337
▁prototype	-10338
▁suspended	-10339
▁telescope	-10340
▁allegiance	-10341
▁complicated	-10342
▁monasteries	-10343
dy	-10344
rs	-10345
iot	-10346
iti	-10347
phi	-10348
sat	-10349
sex	-10350
–15	-10351
both	-10352
oppy	-10353
pine	-10354
▁iod	-10355
▁sad	-10356
piece	-10357
▁adhe	-10358
▁didn	-10359
▁edin	-10360
▁kand	-10361
▁rhet	-10362
spring	-10363
▁1983,	-10364
▁abuse	-10365
▁adams	-10366
▁digit	-10367
▁inert	-10368
▁ridge	-10369
▁attila	-10370
▁berber	-10371
▁boards	-10372
▁bubble	-10373
▁enable	-10374
▁naming	-10375
▁noting	-10376
▁traces	-10377
▁yields	-10378
articles	-10379
etheless	-10380
▁comfort	-10381
▁extract	-10382
▁steiner	-10383
▁algerian	-10384
▁athenian	-10385
▁chancell	-10386
▁consumed	-10387
▁settings	-10388
▁cambridge	-10389
▁operators	-10390
▁primitive	-10391
▁vancouver	-10392
▁derivative	-10393
▁prohibited	-10394
▁psychology	-10395
▁conventions	-10396
▁determining	-10397
▁personality	-10398
▁temporarily	-10399
▁proportional	-10400
▁antipsychotics	-10401
94	-10402
adv	-10403
iar	-10404
zes	-10405
▁">	-10406
▁nm	-10407
mont	-10408
plus	-10409
▁irr	-10410
attan	-10411
eline	-10412
inism	-10413
letch	-10414
shore	-10415
▁dies	-10416
▁lift	-10417
▁rabb	-10418
▁sara	-10419
▁2000.	-10420
▁2015.	-10421
▁laden	-10422
▁winds	-10423
andalus	-10424
russian	-10425
▁aeneas	-10426
▁bitola	-10427
▁ceased	-10428
▁decomp	-10429
▁peters	-10430
▁relied	-10431
▁reward	-10432
▁abelian	-10433
▁banking	-10434
▁bauhaus	-10435
▁córdoba	-10436
▁dealing	-10437
▁joining	-10438
▁legally	-10439
▁missing	-10440
▁options	-10441
▁placing	-10442
▁surpass	-10443
▁factions	-10444
▁friendly	-10445
▁hydrocar	-10446
▁lectures	-10447
▁priority	-10448
▁aftermath	-10449
▁defendant	-10450
▁pollution	-10451
▁publisher	-10452
▁comprising	-10453
▁depictions	-10454
▁journalist	-10455
▁permission	-10456
▁sculptures	-10457
▁nonetheless	-10458
▁accomplished	-10459
▁jurisdictions	-10460
_10	-10461
bet	-10462
bol	-10463
tas	-10464
▁51	-10465
▁dw	-10466
▁nu	-10467
▁ow	-10468
olen	-10469
phew	-10470
roid	-10471
▁13.	-10472
▁30,	-10473
▁eve	-10474
group	-10475
parag	-10476
▁1971	-10477
▁gest	-10478
▁leaf	-10479
▁mack	-10480
▁mini	-10481
▁sung	-10482
▁tony	-10483
▁unex	-10484
effect	-10485
romeda	-10486
▁altar	-10487
▁andré	-10488
▁conce	-10489
▁crude	-10490
▁dream	-10491
▁fever	-10492
▁files	-10493
▁harry	-10494
▁regul	-10495
istence	-10496
▁aegina	-10497
▁azores	-10498
▁eleven	-10499
▁endors	-10500
▁fabric	-10501
▁fruits	-10502
▁fusion	-10503
▁layout	-10504
▁meteor	-10505
▁reconc	-10506
▁topics	-10507
▁triple	-10508
▁colours	-10509
▁diocese	-10510
▁phoenix	-10511
▁walking	-10512
▁expelled	-10513
▁margaret	-10514
▁portions	-10515
▁reliable	-10516
▁severely	-10517
rimination	-10518
▁appearing	-10519
▁condemned	-10520
▁measuring	-10521
▁telegraph	-10522
▁ecological	-10523
▁pharmaceut	-10524
▁catholicism	-10525
▁persecution	-10526
▁reformation	-10527
▁presentation	-10528
▁comprehensive	-10529
aki	-10530
000,	-10531
acon	-10532
good	-10533
idon	-10534
iors	-10535
otal	-10536
▁enh	-10537
▁fro	-10538
▁tum	-10539
▁vog	-10540
combe	-10541
iyama	-10542
stadt	-10543
▁coun	-10544
▁gaul	-10545
▁hast	-10546
▁perp	-10547
▁reef	-10548
▁tale	-10549
▁wool	-10550
aloids	-10551
romagn	-10552
terson	-10553
▁1945,	-10554
▁1984,	-10555
▁algol	-10556
▁illeg	-10557
▁shops	-10558
▁sizes	-10559
▁taxon	-10560
abulary	-10561
aemenid	-10562
dington	-10563
selling	-10564
▁antony	-10565
▁bureau	-10566
▁firing	-10567
▁latest	-10568
▁pierre	-10569
▁strait	-10570
▁trains	-10571
▁collins	-10572
▁constra	-10573
▁enhance	-10574
▁gardens	-10575
▁geology	-10576
▁implies	-10577
▁scandin	-10578
▁announce	-10579
▁breeding	-10580
▁favorite	-10581
▁numerals	-10582
▁operator	-10583
▁railways	-10584
▁recalled	-10585
▁senators	-10586
▁tiberius	-10587
▁treasury	-10588
▁conceived	-10589
▁decorated	-10590
▁expanding	-10591
▁prevented	-10592
▁impression	-10593
▁retirement	-10594
▁achievements	-10595
▁polarization	-10596
▁substantially	-10597
63	-10598
si	-10599
awi	-10600
mag	-10601
▁dv	-10602
ails	-10603
bing	-10604
elin	-10605
eous	-10606
kees	-10607
riac	-10608
▁nan	-10609
april	-10610
eries	-10611
lined	-10612
▁1979	-10613
▁bast	-10614
▁fate	-10615
▁load	-10616
▁pine	-10617
▁scan	-10618
▁wish	-10619
▁alkal	-10620
▁buses	-10621
▁crash	-10622
▁empty	-10623
▁galax	-10624
▁humid	-10625
▁premi	-10626
▁quart	-10627
▁trail	-10628
areness	-10629
writing	-10630
▁arcade	-10631
▁canton	-10632
▁chapel	-10633
▁movies	-10634
▁organs	-10635
▁oscill	-10636
▁render	-10637
▁acrylic	-10638
▁affects	-10639
▁altered	-10640
▁induced	-10641
▁rivalry	-10642
▁sympath	-10643
▁traject	-10644
▁wearing	-10645
imensions	-10646
populated	-10647
▁cardinal	-10648
▁nicholas	-10649
▁ordained	-10650
▁pandemic	-10651
▁variance	-10652
especially	-10653
▁awareness	-10654
▁emotional	-10655
▁improving	-10656
▁practiced	-10657
▁serotonin	-10658
▁terrorist	-10659
▁decorative	-10660
▁ecclesiast	-10661
▁legitimate	-10662
▁practition	-10663
▁successors	-10664
▁arrangements	-10665
▁associations	-10666
▁combinations	-10667
600	-10668
arr	-10669
cup	-10670
has	-10671
iab	-10672
imm	-10673
ocy	-10674
asus	-10675
fted	-10676
leth	-10677
ogan	-10678
omon	-10679
otte	-10680
▁118	-10681
▁kat	-10682
front	-10683
ullah	-10684
▁2600	-10685
▁cann	-10686
▁fier	-10687
▁tril	-10688
acular	-10689
cities	-10690
intosh	-10691
▁1987,	-10692
▁artic	-10693
▁henri	-10694
▁taste	-10695
central	-10696
urgical	-10697
▁amines	-10698
▁barcel	-10699
▁circul	-10700
▁jordan	-10701
▁virtue	-10702
▁whites	-10703
▁aquatic	-10704
▁bombing	-10705
▁colloqu	-10706
▁colonel	-10707
▁playoff	-10708
▁tissues	-10709
▁wounded	-10710
▁yankees	-10711
▁connects	-10712
▁lovelace	-10713
▁monastic	-10714
▁neutrons	-10715
▁alkaloids	-10716
▁aspartame	-10717
▁chemicals	-10718
▁defeating	-10719
▁impressed	-10720
▁relatives	-10721
▁scripture	-10722
▁dimensions	-10723
▁acquisition	-10724
▁atmospheric	-10725
▁demonstrate	-10726
▁outstanding	-10727
▁diamondbacks	-10728
▁sophisticated	-10729
▁internationally	-10730
23	-10731
;"	-10732
sw	-10733
ál	-10734
bow	-10735
nas	-10736
nie	-10737
▁hu	-10738
▁om	-10739
arov	-10740
iden	-10741
list	-10742
ribe	-10743
taic	-10744
wash	-10745
▁ket	-10746
▁nur	-10747
▁roy	-10748
actic	-10749
hazen	-10750
▁beam	-10751
▁cyan	-10752
▁eucl	-10753
▁insu	-10754
▁lank	-10755
▁marl	-10756
▁remn	-10757
▁styl	-10758
▁woll	-10759
mother	-10760
rupted	-10761
▁aesch	-10762
▁fifty	-10763
▁hoped	-10764
▁leban	-10765
▁rooms	-10766
▁saudi	-10767
▁umayy	-10768
lemagne	-10769
rection	-10770
▁dances	-10771
▁dionys	-10772
▁freely	-10773
▁garner	-10774
▁poorly	-10775
▁weaken	-10776
arnation	-10777
computer	-10778
oriented	-10779
▁catalog	-10780
▁conquer	-10781
▁cooking	-10782
▁minimal	-10783
▁prepare	-10784
▁bicycles	-10785
▁cellular	-10786
▁delivery	-10787
▁eventual	-10788
▁floating	-10789
▁kentucky	-10790
▁ambiguity	-10791
▁aragonese	-10792
▁audiences	-10793
▁berkelium	-10794
▁contempor	-10795
▁edinburgh	-10796
▁persuaded	-10797
▁planetary	-10798
▁promotion	-10799
▁suspected	-10800
▁attendance	-10801
▁parameters	-10802
▁foundations	-10803
▁anthroposoph	-10804
-"	-10805
74	-10806
cos	-10807
ige	-10808
reb	-10809
▁41	-10810
▁ok	-10811
asis	-10812
flow	-10813
▁20%	-10814
▁ceo	-10815
▁sor	-10816
icked	-10817
▁aims	-10818
▁eric	-10819
▁gaud	-10820
▁glad	-10821
▁mine	-10822
▁ohio	-10823
▁vesp	-10824
▁wins	-10825
agonal	-10826
uating	-10827
ustion	-10828
▁1975,	-10829
▁forty	-10830
▁isles	-10831
▁merit	-10832
oastron	-10833
tically	-10834
▁assets	-10835
▁citing	-10836
▁comics	-10837
assyrian	-10838
▁calcium	-10839
▁feeding	-10840
▁ignored	-10841
▁israeli	-10842
▁lighter	-10843
▁painter	-10844
▁sharing	-10845
▁springs	-10846
▁tactics	-10847
▁welfare	-10848
▁believes	-10849
▁elevated	-10850
▁garrison	-10851
▁nickname	-10852
▁activists	-10853
▁barcelona	-10854
▁excellent	-10855
▁collective	-10856
▁elementary	-10857
▁healthcare	-10858
▁vocabulary	-10859
▁illustrated	-10860
▁journalists	-10861
▁acceleration	-10862
▁compositions	-10863
▁destinations	-10864
▁interference	-10865
▁participants	-10866
▁specification	-10867
far	-10868
orp	-10869
abad	-10870
aras	-10871
avis	-10872
helm	-10873
urus	-10874
▁15.	-10875
▁25,	-10876
▁bcd	-10877
▁dre	-10878
▁dys	-10879
▁gut	-10880
▁kom	-10881
▁sas	-10882
▁var	-10883
court	-10884
▁boom	-10885
▁obsc	-10886
▁radi	-10887
▁silk	-10888
▁tent	-10889
ophone	-10890
▁1966,	-10891
▁1980,	-10892
▁1999.	-10893
▁2022.	-10894
▁arter	-10895
▁chest	-10896
▁crypt	-10897
▁forum	-10898
▁franz	-10899
▁nouns	-10900
▁surve	-10901
rically	-10902
▁bitter	-10903
▁conjug	-10904
▁corpus	-10905
▁donald	-10906
▁methan	-10907
▁paying	-10908
▁antigen	-10909
▁categor	-10910
▁crusade	-10911
▁guthrie	-10912
▁profile	-10913
▁replied	-10914
▁scandal	-10915
▁signing	-10916
▁virtual	-10917
▁arriving	-10918
▁handling	-10919
▁overwhel	-10920
▁starring	-10921
capitalism	-10922
▁ambrosius	-10923
▁goddesses	-10924
▁highlight	-10925
▁introduce	-10926
▁twentieth	-10927
▁vegetables	-10928
▁charlemagne	-10929
▁controllers	-10930
▁evangelical	-10931
▁grandfather	-10932
▁transported	-10933
▁contributing	-10934
▁discontinued	-10935
ben	-10936
gam	-10937
gbt	-10938
hor	-10939
maj	-10940
soc	-10941
="17	-10942
alid	-10943
cycl	-10944
main	-10945
olds	-10946
osom	-10947
prof	-10948
stra	-10949
▁(14	-10950
▁31,	-10951
▁800	-10952
▁esp	-10953
▁kay	-10954
▁lod	-10955
▁ont	-10956
acrit	-10957
▁1918	-10958
▁1965	-10959
▁1983	-10960
▁biod	-10961
▁dish	-10962
▁glut	-10963
▁mend	-10964
▁sket	-10965
apollo	-10966
mented	-10967
▁1974,	-10968
▁1988,	-10969
▁cargo	-10970
▁ordin	-10971
▁pitts	-10972
▁therm	-10973
▁tight	-10974
▁burial	-10975
▁driver	-10976
▁edited	-10977
▁floppy	-10978
▁indies	-10979
▁lifest	-10980
▁solely	-10981
▁warner	-10982
ogeneous	-10983
▁combine	-10984
▁delayed	-10985
▁drought	-10986
▁harbour	-10987
▁harmony	-10988
▁herbert	-10989
▁onwards	-10990
▁protons	-10991
▁crystall	-10992
▁prompted	-10993
▁resource	-10994
▁suppress	-10995
▁youngest	-10996
stonecraft	-10997
▁caliphate	-10998
▁vegetation	-10999
▁expressions	-11000
▁frequencies	-11001
▁manufacture	-11002
▁requirement	-11003
▁sovereignty	-11004
71	-11005
mm	-11006
7),	-11007
8),	-11008
iry	-11009
ivb	-11010
olo	-11011
▁dj	-11012
▁ll	-11013
acia	-11014
amaz	-11015
anus	-11016
arks	-11017
game	-11018
icut	-11019
itus	-11020
ucks	-11021
▁agp	-11022
▁coe	-11023
▁eva	-11024
▁fed	-11025
▁jay	-11026
▁kol	-11027
▁spl	-11028
▁zen	-11029
oglob	-11030
somet	-11031
thood	-11032
▁1900	-11033
▁ames	-11034
▁anem	-11035
▁fern	-11036
▁maps	-11037
▁push	-11038
afghan	-11039
ogenes	-11040
ported	-11041
▁1970,	-11042
▁marie	-11043
▁timur	-11044
station	-11045
▁ascent	-11046
▁cosmic	-11047
▁hidden	-11048
▁lovell	-11049
▁phonem	-11050
▁proxim	-11051
▁reserv	-11052
▁resort	-11053
▁rhythm	-11054
▁rubber	-11055
▁tongue	-11056
▁alhazen	-11057
▁fifteen	-11058
▁legends	-11059
▁lineage	-11060
▁obvious	-11061
▁reorgan	-11062
▁currents	-11063
▁instruct	-11064
▁morality	-11065
▁receptor	-11066
▁smallest	-11067
▁targeted	-11068
▁toriyama	-11069
▁unlikely	-11070
▁aeschylus	-11071
▁allegedly	-11072
▁arbitrary	-11073
▁connector	-11074
▁intensity	-11075
▁magazines	-11076
▁preceding	-11077
▁alcoholism	-11078
▁biographer	-11079
▁imprisoned	-11080
▁objectives	-11081
▁penicillin	-11082
▁strategies	-11083
▁successive	-11084
▁adaptations	-11085
▁constituent	-11086
▁commissioner	-11087
▁consideration	-11088
')	-11089
59	-11090
–4	-11091
abs	-11092
dez	-11093
lik	-11094
nut	-11095
▁5%	-11096
▁lt	-11097
bras	-11098
idas	-11099
ilis	-11100
othy	-11101
▁22,	-11102
▁bic	-11103
▁blo	-11104
endum	-11105
isons	-11106
itary	-11107
olean	-11108
years	-11109
▁fill	-11110
▁gren	-11111
▁manh	-11112
coming	-11113
iorent	-11114
▁alloc	-11115
▁apoll	-11116
▁crowd	-11117
▁embed	-11118
▁farms	-11119
▁moist	-11120
▁spear	-11121
osystem	-11122
▁adject	-11123
▁arrows	-11124
▁divide	-11125
▁incomp	-11126
▁planes	-11127
▁recall	-11128
▁reluct	-11129
▁repair	-11130
▁syriac	-11131
▁abandon	-11132
▁amazons	-11133
▁barrier	-11134
▁parthen	-11135
▁promise	-11136
▁romania	-11137
▁tension	-11138
▁unified	-11139
▁additive	-11140
▁broadway	-11141
▁efficacy	-11142
▁informal	-11143
▁relating	-11144
▁shipping	-11145
▁symbolic	-11146
▁unstable	-11147
▁colonists	-11148
▁detection	-11149
▁instances	-11150
▁merchants	-11151
▁pregnancy	-11152
▁witnesses	-11153
▁associates	-11154
▁eliminated	-11155
▁nationwide	-11156
▁calculation	-11157
▁introducing	-11158
▁terrestrial	-11159
▁conservatives	-11160
▁organisations	-11161
▁technological	-11162
82	-11163
-10	-11164
-18	-11165
pov	-11166
rup	-11167
sts	-11168
____	-11169
atin	-11170
illo	-11171
ioch	-11172
lore	-11173
▁28,	-11174
▁ged	-11175
▁hug	-11176
▁sha	-11177
▁tib	-11178
accio	-11179
latin	-11180
▁hart	-11181
▁pars	-11182
▁pump	-11183
▁rans	-11184
▁rash	-11185
▁unre	-11186
elines	-11187
inding	-11188
▁1982,	-11189
▁2003.	-11190
▁cubic	-11191
▁duchy	-11192
▁eleph	-11193
▁grave	-11194
▁guest	-11195
▁inver	-11196
▁lying	-11197
▁manga	-11198
▁penal	-11199
▁tenth	-11200
▁cannon	-11201
▁cernan	-11202
▁charts	-11203
▁julian	-11204
▁metric	-11205
▁presby	-11206
▁traged	-11207
▁abbrevi	-11208
▁belongs	-11209
▁corinth	-11210
▁creates	-11211
▁empires	-11212
▁evident	-11213
▁experts	-11214
▁penalty	-11215
▁pursued	-11216
▁renewed	-11217
▁routine	-11218
▁seville	-11219
iorentina	-11220
▁actinium	-11221
▁advocate	-11222
▁confused	-11223
▁criteria	-11224
▁disaster	-11225
▁florence	-11226
▁graduate	-11227
▁insisted	-11228
▁integers	-11229
▁maryland	-11230
▁outcomes	-11231
▁patriots	-11232
▁phylogen	-11233
▁removing	-11234
▁shopping	-11235
▁advocated	-11236
▁highlands	-11237
▁incidents	-11238
▁sponsored	-11239
▁testimony	-11240
▁traveling	-11241
▁formations	-11242
▁vulnerable	-11243
▁allegations	-11244
▁discoveries	-11245
▁collectively	-11246
▁discrimination	-11247
yg	-11248
alg	-11249
ear	-11250
hma	-11251
iqu	-11252
boin	-11253
dist	-11254
ilia	-11255
some	-11256
▁29,	-11257
▁30%	-11258
▁ald	-11259
▁usa	-11260
▁yah	-11261
inder	-11262
ports	-11263
speed	-11264
track	-11265
▁atax	-11266
▁bohr	-11267
▁fart	-11268
▁lens	-11269
▁nova	-11270
▁roth	-11271
▁stap	-11272
▁unve	-11273
bourne	-11274
ennial	-11275
philos	-11276
rapeut	-11277
▁1967,	-11278
▁1979,	-11279
▁arche	-11280
▁brack	-11281
▁copyr	-11282
▁equil	-11283
▁ferry	-11284
▁geoff	-11285
▁quran	-11286
▁reass	-11287
▁rever	-11288
▁rifle	-11289
▁sheet	-11290
▁simon	-11291
▁spite	-11292
▁stake	-11293
ighters	-11294
▁brooks	-11295
▁dramat	-11296
▁easter	-11297
▁immune	-11298
▁karpov	-11299
▁meters	-11300
▁nephew	-11301
▁pseudo	-11302
▁salmon	-11303
▁scales	-11304
▁starts	-11305
▁tasman	-11306
▁tended	-11307
letchley	-11308
▁asphalt	-11309
▁fathers	-11310
▁marched	-11311
▁marking	-11312
▁moments	-11313
▁patient	-11314
▁serbian	-11315
▁warning	-11316
▁borrowed	-11317
▁centered	-11318
▁contrary	-11319
▁controls	-11320
▁counties	-11321
▁interact	-11322
▁marketed	-11323
▁migrated	-11324
▁switched	-11325
▁arthritis	-11326
▁celebrate	-11327
▁literally	-11328
▁organised	-11329
▁physicist	-11330
▁regulated	-11331
▁resistant	-11332
▁engagement	-11333
▁physically	-11334
▁descriptions	-11335
▁wollstonecraft	-11336
asp	-11337
▁42	-11338
ifer	-11339
inte	-11340
prot	-11341
step	-11342
tank	-11343
▁eup	-11344
▁iph	-11345
▁len	-11346
▁mlb	-11347
▁sib	-11348
arest	-11349
ayana	-11350
ishes	-11351
laved	-11352
otion	-11353
▁acre	-11354
▁brut	-11355
▁helm	-11356
▁mail	-11357
▁ruth	-11358
▁slay	-11359
▁vern	-11360
erated	-11361
ophers	-11362
▁antig	-11363
▁conve	-11364
▁flora	-11365
▁fring	-11366
▁pipel	-11367
▁raids	-11368
▁stops	-11369
▁swift	-11370
ophanes	-11371
▁assume	-11372
▁clause	-11373
▁dealer	-11374
▁derive	-11375
▁lawyer	-11376
jections	-11377
▁conclus	-11378
▁croatia	-11379
▁focuses	-11380
▁resolve	-11381
▁campbell	-11382
▁colorado	-11383
▁meanings	-11384
▁portrait	-11385
▁premiere	-11386
▁releases	-11387
▁schedule	-11388
▁strictly	-11389
▁accounted	-11390
▁afterlife	-11391
▁ancestors	-11392
▁loyalists	-11393
▁qualities	-11394
▁scattered	-11395
▁achaemenid	-11396
▁aesthetics	-11397
▁fiorentina	-11398
▁nomination	-11399
▁coordinates	-11400
05	-11401
–3	-11402
–7	-11403
bad	-11404
rin	-11405
▁mh	-11406
="15	-11407
aine	-11408
cath	-11409
even	-11410
olly	-11411
outs	-11412
uefa	-11413
ynes	-11414
▁70%	-11415
▁agr	-11416
▁bip	-11417
▁kir	-11418
▁kon	-11419
▁sof	-11420
ahani	-11421
ameda	-11422
ashes	-11423
ocide	-11424
orian	-11425
rared	-11426
tiary	-11427
▁andy	-11428
▁aure	-11429
▁gast	-11430
▁gide	-11431
▁hein	-11432
▁horm	-11433
▁icon	-11434
▁noun	-11435
▁perm	-11436
▁soci	-11437
amorph	-11438
rising	-11439
ysical	-11440
▁1961,	-11441
▁aalto	-11442
▁depri	-11443
▁gaudí	-11444
▁hatch	-11445
▁mycen	-11446
▁phara	-11447
▁recur	-11448
current	-11449
ointing	-11450
roscopy	-11451
▁apples	-11452
▁assign	-11453
▁eating	-11454
▁heroes	-11455
▁levant	-11456
▁margin	-11457
▁mercen	-11458
▁unions	-11459
▁verses	-11460
▁versus	-11461
▁warned	-11462
atlantic	-11463
▁antioch	-11464
▁charity	-11465
▁conform	-11466
▁enzymes	-11467
▁favored	-11468
▁fellows	-11469
▁instant	-11470
▁loyalty	-11471
▁outcome	-11472
▁pronoun	-11473
▁prophet	-11474
▁rebuilt	-11475
▁session	-11476
▁stanley	-11477
▁travels	-11478
▁trinity	-11479
▁venture	-11480
endicular	-11481
▁anguilla	-11482
▁compiled	-11483
▁massacre	-11484
▁subordin	-11485
▁tactical	-11486
▁vespucci	-11487
▁contracts	-11488
▁excessive	-11489
▁salvation	-11490
▁voluntary	-11491
▁attributes	-11492
▁authorized	-11493
▁colleagues	-11494
▁dictionary	-11495
▁emphasized	-11496
▁subsidiary	-11497
▁circulation	-11498
▁departments	-11499
▁innovations	-11500
▁residential	-11501
▁availability	-11502
43	-11503
400	-11504
arg	-11505
fly	-11506
iaz	-11507
oyd	-11508
sac	-11509
uin	-11510
▁fm	-11511
▁ov	-11512
away	-11513
elle	-11514
fast	-11515
hour	-11516
inch	-11517
iron	-11518
itan	-11519
quer	-11520
ulum	-11521
▁110	-11522
▁130	-11523
▁151	-11524
▁90%	-11525
▁aux	-11526
▁lex	-11527
▁moz	-11528
▁wag	-11529
atoes	-11530
brand	-11531
elson	-11532
erner	-11533
north	-11534
osius	-11535
▁1860	-11536
▁1880	-11537
▁1944	-11538
▁1967	-11539
▁aids	-11540
▁amar	-11541
▁bias	-11542
▁fees	-11543
▁seas	-11544
▁slot	-11545
makers	-11546
urance	-11547
▁1976,	-11548
▁athle	-11549
▁comed	-11550
▁facto	-11551
▁fraud	-11552
▁macro	-11553
▁oscar	-11554
▁secre	-11555
▁thess	-11556
▁urged	-11557
ilation	-11558
usually	-11559
▁abacus	-11560
▁airbus	-11561
▁asking	-11562
▁cataly	-11563
▁harbor	-11564
▁harmon	-11565
▁johann	-11566
▁knight	-11567
▁norway	-11568
▁praise	-11569
▁presum	-11570
▁purely	-11571
economic	-11572
specific	-11573
▁anticip	-11574
▁bengali	-11575
▁boolean	-11576
▁dischar	-11577
▁indians	-11578
▁martial	-11579
▁resumed	-11580
▁thunder	-11581
▁whereby	-11582
▁asserted	-11583
▁departed	-11584
▁profound	-11585
▁sediment	-11586
▁appellate	-11587
▁assistive	-11588
▁bletchley	-11589
▁convicted	-11590
▁declaring	-11591
▁ecosystem	-11592
▁eddington	-11593
▁hospitals	-11594
▁limestone	-11595
▁macintosh	-11596
▁proximity	-11597
▁casualties	-11598
▁governance	-11599
▁pittsburgh	-11600
▁differently	-11601
▁electromagn	-11602
▁ingredients	-11603
ea	-11604
agi	-11605
aud	-11606
die	-11607
eav	-11608
▁uz	-11609
▁xx	-11610
="16	-11611
beat	-11612
borg	-11613
exts	-11614
horn	-11615
icia	-11616
kind	-11617
olve	-11618
plan	-11619
rite	-11620
yers	-11621
▁gap	-11622
▁lap	-11623
aning	-11624
built	-11625
▁1973	-11626
▁aque	-11627
▁dome	-11628
▁eros	-11629
▁ghaz	-11630
▁juan	-11631
▁pole	-11632
▁wake	-11633
abling	-11634
otypes	-11635
tanbul	-11636
▁intra	-11637
▁pompe	-11638
▁probe	-11639
▁reson	-11640
▁20,000	-11641
▁absent	-11642
▁alboin	-11643
▁dragon	-11644
▁marple	-11645
▁privat	-11646
▁timber	-11647
military	-11648
ordinary	-11649
▁aqueous	-11650
▁fighter	-11651
▁healing	-11652
▁knights	-11653
▁putting	-11654
▁actively	-11655
▁claudius	-11656
▁commands	-11657
▁contexts	-11658
▁deterior	-11659
▁enslaved	-11660
▁habsburg	-11661
▁istanbul	-11662
▁mobility	-11663
▁nobility	-11664
▁painters	-11665
▁persians	-11666
▁petition	-11667
▁reactive	-11668
▁taxation	-11669
▁tendency	-11670
▁accession	-11671
▁charlotte	-11672
▁eliminate	-11673
▁herodotus	-11674
▁inclusion	-11675
▁manhattan	-11676
▁observers	-11677
▁seriously	-11678
▁astronomer	-11679
▁attraction	-11680
▁cultivated	-11681
▁nineteenth	-11682
▁accordingly	-11683
▁associative	-11684
▁cultivation	-11685
▁surrendered	-11686
▁assassinated	-11687
▁emancipation	-11688
▁representations	-11689
–5	-11690
–9	-11691
auc	-11692
bos	-11693
gra	-11694
oto	-11695
rox	-11696
wat	-11697
▁ny	-11698
days	-11699
gard	-11700
left	-11701
▁por	-11702
▁som	-11703
amber	-11704
grade	-11705
izard	-11706
lance	-11707
rahim	-11708
words	-11709
▁1962	-11710
▁1964	-11711
▁raid	-11712
▁vass	-11713
▁vogt	-11714
▁whig	-11715
ductor	-11716
ibrium	-11717
living	-11718
ortion	-11719
▁1944,	-11720
▁1962,	-11721
▁5,000	-11722
▁crack	-11723
▁fault	-11724
▁fauna	-11725
▁gifts	-11726
▁worsh	-11727
ackeray	-11728
austral	-11729
ogether	-11730
▁aikido	-11731
▁hazard	-11732
▁heated	-11733
▁ludwig	-11734
▁mahmud	-11735
▁manuel	-11736
▁pursue	-11737
▁rivals	-11738
▁shrine	-11739
▁tonnes	-11740
▁violin	-11741
▁assyria	-11742
▁closure	-11743
▁conting	-11744
▁derleth	-11745
▁doctors	-11746
▁restore	-11747
▁semicon	-11748
▁assuming	-11749
▁birthday	-11750
▁caucasus	-11751
▁invested	-11752
▁licensed	-11753
▁prisoner	-11754
▁sanskrit	-11755
▁tensions	-11756
▁apartment	-11757
▁believing	-11758
▁civilians	-11759
▁complexes	-11760
▁dominance	-11761
▁indonesia	-11762
▁isolation	-11763
▁offspring	-11764
▁sequences	-11765
▁underwent	-11766
▁assessment	-11767
▁reflecting	-11768
philosophers	-11769
▁appointment	-11770
▁radioactive	-11771
fo	-11772
sd	-11773
1).	-11774
]],	-11775
oes	-11776
▁dh	-11777
▁kö	-11778
▁oz	-11779
acco	-11780
atri	-11781
beit	-11782
olph	-11783
rypt	-11784
▁168	-11785
▁40%	-11786
▁80%	-11787
▁mcc	-11788
▁nab	-11789
recip	-11790
urred	-11791
▁1890	-11792
▁alde	-11793
▁beef	-11794
▁byte	-11795
▁curt	-11796
▁echo	-11797
▁fram	-11798
▁holl	-11799
▁mant	-11800
▁marx	-11801
▁pull	-11802
▁rush	-11803
▁vest	-11804
▁voic	-11805
anders	-11806
culine	-11807
heimer	-11808
igraph	-11809
▁abdul	-11810
▁adiab	-11811
▁bytes	-11812
▁crete	-11813
▁gamma	-11814
▁naked	-11815
▁panel	-11816
▁pater	-11817
▁rocky	-11818
eastern	-11819
itivity	-11820
osynthe	-11821
popular	-11822
▁cement	-11823
▁franco	-11824
▁kansas	-11825
▁orbits	-11826
▁purple	-11827
▁stolen	-11828
▁transc	-11829
omorphic	-11830
rapeutic	-11831
▁asparag	-11832
▁avoided	-11833
▁biochem	-11834
▁eternal	-11835
▁flemish	-11836
▁revived	-11837
▁runners	-11838
▁sisters	-11839
▁africans	-11840
▁focusing	-11841
▁globally	-11842
▁latitude	-11843
▁maternal	-11844
▁tertiary	-11845
▁thoughts	-11846
▁topology	-11847
▁andromeda	-11848
▁neighbour	-11849
▁reporting	-11850
▁sanctuary	-11851
▁signature	-11852
▁remarkable	-11853
▁examination	-11854
▁continuously	-11855
""	-11856
sr	-11857
-12	-11858
sym	-11859
bons	-11860
etri	-11861
yahu	-11862
▁$1.	-11863
▁dup	-11864
▁esc	-11865
▁kra	-11866
▁lac	-11867
▁zar	-11868
assis	-11869
holic	-11870
ilaus	-11871
onent	-11872
stant	-11873
▁crem	-11874
▁dens	-11875
▁drum	-11876
▁keys	-11877
▁peru	-11878
▁pike	-11879
bercul	-11880
isting	-11881
izable	-11882
rition	-11883
▁1973,	-11884
▁2004.	-11885
▁3,000	-11886
▁allah	-11887
▁fires	-11888
▁relie	-11889
▁sampl	-11890
▁weigh	-11891
powered	-11892
▁andhra	-11893
▁apache	-11894
▁eldest	-11895
▁happen	-11896
▁mirror	-11897
▁plague	-11898
▁syllab	-11899
▁taylor	-11900
▁visits	-11901
▁wished	-11902
isfahani	-11903
▁angolan	-11904
▁archery	-11905
▁castile	-11906
▁commons	-11907
▁deficit	-11908
▁denoted	-11909
▁drivers	-11910
▁fastest	-11911
▁harvard	-11912
▁package	-11913
▁pathway	-11914
▁stellar	-11915
▁strikes	-11916
▁tobacco	-11917
▁uranium	-11918
▁fluoride	-11919
▁servants	-11920
▁spectrom	-11921
▁attacking	-11922
▁coastline	-11923
▁copyright	-11924
▁gathering	-11925
▁incorrect	-11926
▁numbering	-11927
▁acceptable	-11928
▁combustion	-11929
▁communicate	-11930
▁permanently	-11931
▁insufficient	-11932
▁laboratories	-11933
▁sufficiently	-11934
▁consciousness	-11935
▁perpendicular	-11936
_6	-11937
dec	-11938
loc	-11939
pad	-11940
uli	-11941
▁cu	-11942
alan	-11943
anni	-11944
elic	-11945
gart	-11946
inks	-11947
took	-11948
▁aed	-11949
▁cun	-11950
▁gur	-11951
▁hiv	-11952
▁hyd	-11953
▁viz	-11954
artes	-11955
being	-11956
ikova	-11957
inded	-11958
omans	-11959
otten	-11960
porus	-11961
ulder	-11962
▁benn	-11963
▁evac	-11964
▁luke	-11965
▁nero	-11966
▁ster	-11967
▁stom	-11968
▁torn	-11969
monton	-11970
resist	-11971
▁baden	-11972
▁drove	-11973
▁eagle	-11974
▁eaten	-11975
▁hound	-11976
▁stere	-11977
▁widde	-11978
▁width	-11979
beowulf	-11980
islamic	-11981
▁attain	-11982
▁backed	-11983
▁breast	-11984
▁decide	-11985
▁neural	-11986
▁plasma	-11987
▁rebels	-11988
roscopic	-11989
▁confess	-11990
▁crowned	-11991
▁devised	-11992
▁jeffrey	-11993
▁legitim	-11994
▁monthly	-11995
▁pharaoh	-11996
▁sparrow	-11997
▁touring	-11998
▁winters	-11999
▁agrarian	-12000
▁equality	-12001
▁folklore	-12002
▁geoffrey	-12003
▁journals	-12004
▁pregnant	-12005
▁sakharov	-12006
▁swimming	-12007
▁syllable	-12008
▁anglicans	-12009
▁appletalk	-12010
▁attending	-12011
▁creatures	-12012
▁detective	-12013
▁factories	-12014
▁launching	-12015
▁poisoning	-12016
▁premiered	-12017
▁privately	-12018
▁receptors	-12019
▁accurately	-12020
▁affiliated	-12021
▁confidence	-12022
▁conspiracy	-12023
▁decreasing	-12024
▁developers	-12025
▁trajectory	-12026
▁aristophanes	-12027
▁corporations	-12028
-8	-12029
imb	-12030
tha	-12031
▁gö	-12032
elli	-12033
jevo	-12034
male	-12035
usan	-12036
wald	-12037
▁(10	-12038
afric	-12039
avids	-12040
ennon	-12041
ribes	-12042
▁1947	-12043
▁1978	-12044
▁anna	-12045
▁arct	-12046
▁asce	-12047
▁brew	-12048
▁slam	-12049
▁uefa	-12050
cester	-12051
soviet	-12052
▁1960,	-12053
▁1996.	-12054
▁adequ	-12055
▁bohem	-12056
▁frogs	-12057
▁malay	-12058
▁myths	-12059
▁nerve	-12060
▁nomen	-12061
▁peaks	-12062
▁quiet	-12063
▁rigid	-12064
▁risks	-12065
▁sudan	-12066
herical	-12067
▁ataxia	-12068
▁brands	-12069
▁coffee	-12070
▁fitted	-12071
▁neuron	-12072
▁optics	-12073
▁oxides	-12074
▁pupils	-12075
▁rating	-12076
▁rescue	-12077
▁thrown	-12078
▁turkic	-12079
▁antagon	-12080
▁babylon	-12081
▁broader	-12082
▁depicts	-12083
▁diacrit	-12084
▁fertile	-12085
▁habitat	-12086
▁harvest	-12087
▁outdoor	-12088
▁posthum	-12089
▁sensory	-12090
▁arminian	-12091
▁grandson	-12092
▁heracles	-12093
▁opinions	-12094
▁prospect	-12095
▁remarked	-12096
▁reserved	-12097
▁sporting	-12098
▁synchron	-12099
▁thompson	-12100
▁unveiled	-12101
▁agesilaus	-12102
▁carefully	-12103
▁electroph	-12104
▁hydroxide	-12105
▁machinery	-12106
▁methodist	-12107
▁prevalent	-12108
▁recruited	-12109
▁responses	-12110
▁subjected	-12111
▁thackeray	-12112
▁commitment	-12113
▁minorities	-12114
▁phoenician	-12115
▁unexpected	-12116
▁widdecombe	-12117
▁originating	-12118
],	-12119
lf	-12120
2).	-12121
aro	-12122
bek	-12123
flu	-12124
fre	-12125
yar	-12126
|17	-12127
▁66	-12128
▁dc	-12129
▁kg	-12130
▁mn	-12131
ardi	-12132
atal	-12133
baby	-12134
▁(0.	-12135
▁105	-12136
▁cyl	-12137
▁nam	-12138
▁nev	-12139
ensen	-12140
green	-12141
heads	-12142
print	-12143
roads	-12144
▁1910	-12145
▁abac	-12146
▁chim	-12147
▁grat	-12148
▁guer	-12149
▁guin	-12150
▁quot	-12151
▁scre	-12152
avenny	-12153
icides	-12154
thirds	-12155
▁2,000	-12156
▁cream	-12157
▁kourn	-12158
▁paved	-12159
burials	-12160
▁analys	-12161
▁barrel	-12162
▁calvin	-12163
▁decree	-12164
▁denote	-12165
▁giants	-12166
▁grants	-12167
▁howard	-12168
▁insign	-12169
▁junior	-12170
▁kosovo	-12171
▁peaked	-12172
▁phases	-12173
▁pilots	-12174
▁tables	-12175
▁thebes	-12176
▁transp	-12177
analysis	-12178
▁acquire	-12179
▁anagram	-12180
▁andaman	-12181
▁bearing	-12182
▁chassis	-12183
▁cooling	-12184
▁crosses	-12185
▁dancing	-12186
▁disturb	-12187
▁heights	-12188
▁ibrahim	-12189
▁lifeson	-12190
▁sitting	-12191
▁warming	-12192
president	-12193
stitution	-12194
▁bosporus	-12195
▁enabling	-12196
▁hamilton	-12197
▁offshore	-12198
▁ottomans	-12199
▁segments	-12200
▁acetylene	-12201
▁admiralty	-12202
▁athenians	-12203
▁chronicle	-12204
▁favorable	-12205
▁jefferson	-12206
▁necessity	-12207
▁preparing	-12208
▁proceeded	-12209
▁proposals	-12210
▁aggressive	-12211
▁constantly	-12212
▁coordinate	-12213
▁generating	-12214
▁liturgical	-12215
▁preference	-12216
▁presidents	-12217
▁prosperity	-12218
▁reinforced	-12219
▁remembered	-12220
▁revelation	-12221
▁yugoslavia	-12222
▁archaeology	-12223
▁interchange	-12224
▁mountainous	-12225
▁sustainable	-12226
▁recreational	-12227
;/	-12228
cd	-12229
hm	-12230
=15	-12231
=16	-12232
iks	-12233
iva	-12234
lab	-12235
mac	-12236
owa	-12237
pic	-12238
▁gi	-12239
▁ka	-12240
▁ya	-12241
ahan	-12242
ardo	-12243
drin	-12244
emin	-12245
etry	-12246
heav	-12247
imir	-12248
inum	-12249
ovak	-12250
stat	-12251
urgy	-12252
vens	-12253
▁152	-12254
▁25%	-12255
▁250	-12256
▁acm	-12257
▁cum	-12258
▁dru	-12259
▁hym	-12260
▁ros	-12261
aeans	-12262
anmar	-12263
aware	-12264
mount	-12265
ouses	-12266
sized	-12267
souri	-12268
▁1945	-12269
▁amid	-12270
▁mahā	-12271
▁mall	-12272
▁nurs	-12273
▁pret	-12274
▁vene	-12275
associ	-12276
ifiers	-12277
indian	-12278
irable	-12279
omical	-12280
▁anger	-12281
▁congo	-12282
▁deals	-12283
▁facts	-12284
▁flash	-12285
▁fluct	-12286
▁fount	-12287
▁grade	-12288
▁hasan	-12289
▁invas	-12290
▁lords	-12291
▁milne	-12292
▁pelop	-12293
▁breath	-12294
▁cycles	-12295
▁michel	-12296
▁murray	-12297
▁scores	-12298
▁taiwan	-12299
cellular	-12300
formerly	-12301
official	-12302
▁alameda	-12303
▁auction	-12304
▁morocco	-12305
▁romance	-12306
▁summers	-12307
dependent	-12308
languages	-12309
ographies	-12310
▁ammonium	-12311
▁aromatic	-12312
▁contents	-12313
▁genocide	-12314
▁populous	-12315
▁addresses	-12316
▁alabaster	-12317
▁canonical	-12318
▁depicting	-12319
▁platforms	-12320
▁predators	-12321
▁scholarly	-12322
▁watterson	-12323
▁commanders	-12324
▁medication	-12325
▁philippine	-12326
▁referendum	-12327
▁suggestion	-12328
▁theodosius	-12329
▁investments	-12330
▁nationalist	-12331
▁westminster	-12332
▁missionaries	-12333
▁archaeoastron	-12334
▁headquartered	-12335
2-	-12336
41	-12337
-21	-12338
=17	-12339
imp	-12340
pot	-12341
six	-12342
ycl	-12343
▁($	-12344
▁(6	-12345
▁43	-12346
▁ub	-12347
ambo	-12348
arts	-12349
hips	-12350
irus	-12351
oons	-12352
roit	-12353
they	-12354
week	-12355
▁16.	-12356
▁17.	-12357
▁pic	-12358
▁tac	-12359
apore	-12360
assic	-12361
▁bead	-12362
▁chry	-12363
▁cret	-12364
▁hugh	-12365
▁odys	-12366
▁pled	-12367
▁pont	-12368
▁trim	-12369
▁viii	-12370
▁wald	-12371
boards	-12372
necess	-12373
orious	-12374
profit	-12375
▁ambit	-12376
▁dying	-12377
▁globe	-12378
▁papal	-12379
▁singh	-12380
▁swing	-12381
▁convey	-12382
▁corrid	-12383
▁cortex	-12384
▁exempt	-12385
▁expend	-12386
▁feared	-12387
▁handed	-12388
▁incons	-12389
▁marcus	-12390
▁neighb	-12391
▁norman	-12392
▁thrace	-12393
original	-12394
▁amalric	-12395
▁debuted	-12396
▁differs	-12397
▁gaining	-12398
▁gradual	-12399
▁needles	-12400
▁nominal	-12401
▁patrick	-12402
▁sailing	-12403
▁schemes	-12404
▁updated	-12405
atibility	-12406
published	-12407
▁applying	-12408
▁besieged	-12409
▁catalyst	-12410
▁confined	-12411
▁crystals	-12412
▁decisive	-12413
▁griffith	-12414
▁highways	-12415
▁kandahar	-12416
▁sarajevo	-12417
▁treating	-12418
▁ultimate	-12419
▁battalion	-12420
▁collapsed	-12421
▁consumers	-12422
▁economies	-12423
▁empirical	-12424
▁hurricane	-12425
▁legendary	-12426
▁lifestyle	-12427
▁tolerance	-12428
▁deposition	-12429
▁kournikova	-12430
▁petersburg	-12431
▁prediction	-12432
▁disappeared	-12433
▁equilibrium	-12434
▁limitations	-12435
84	-12436
pc	-12437
.),	-12438
aan	-12439
abd	-12440
tor	-12441
adan	-12442
core	-12443
onto	-12444
orno	-12445
perm	-12446
sing	-12447
vich	-12448
▁1.5	-12449
▁14.	-12450
▁ard	-12451
▁awk	-12452
▁hil	-12453
▁ora	-12454
▁ted	-12455
▁thy	-12456
estag	-12457
ghans	-12458
owski	-12459
ranco	-12460
▁benz	-12461
▁cush	-12462
▁fron	-12463
▁hole	-12464
▁jain	-12465
▁lanc	-12466
▁leop	-12467
▁null	-12468
▁tiny	-12469
▁carth	-12470
▁divis	-12471
▁energ	-12472
▁ether	-12473
▁firms	-12474
▁negro	-12475
▁steal	-12476
▁strat	-12477
▁venet	-12478
▁widow	-12479
▁commut	-12480
▁dostum	-12481
▁filmed	-12482
▁finish	-12483
▁harass	-12484
▁powder	-12485
▁solved	-12486
▁speaks	-12487
▁therop	-12488
aircraft	-12489
chemical	-12490
election	-12491
historia	-12492
historic	-12493
▁almonds	-12494
▁babbage	-12495
▁beneath	-12496
▁cutting	-12497
▁desktop	-12498
▁elector	-12499
▁grammat	-12500
▁illumin	-12501
▁natives	-12502
▁nomencl	-12503
▁payment	-12504
▁pradesh	-12505
▁rectang	-12506
▁scripts	-12507
▁threats	-12508
▁wilhelm	-12509
developed	-12510
istration	-12511
▁adaptive	-12512
▁airplane	-12513
▁alcohols	-12514
▁bankrupt	-12515
▁brooklyn	-12516
▁chapters	-12517
▁confront	-12518
▁embedded	-12519
▁formulas	-12520
▁ideology	-12521
▁malaysia	-12522
▁rendered	-12523
▁triangle	-12524
▁uniforms	-12525
berculosis	-12526
controlled	-12527
▁attribute	-12528
▁explosive	-12529
▁extracted	-12530
▁numerical	-12531
▁singapore	-12532
▁switching	-12533
continental	-12534
▁conceptual	-12535
▁decoration	-12536
▁facilitate	-12537
▁homosexual	-12538
▁suppressed	-12539
▁conferences	-12540
▁constantine	-12541
▁designation	-12542
▁intercourse	-12543
▁respiratory	-12544
▁investigated	-12545
▁complementary	-12546
fi	-12547
yp	-12548
gel	-12549
gun	-12550
hof	-12551
lie	-12552
uri	-12553
–10	-12554
–12	-12555
▁85	-12556
▁kr	-12557
▁ww	-12558
prim	-12559
▁166	-12560
▁pix	-12561
encer	-12562
esian	-12563
▁1830	-12564
▁amir	-12565
▁ayck	-12566
▁bats	-12567
▁cran	-12568
▁hume	-12569
▁mono	-12570
▁palm	-12571
▁serm	-12572
columb	-12573
erving	-12574
▁1991.	-12575
▁1998.	-12576
▁aardv	-12577
▁alkyl	-12578
▁bless	-12579
▁botan	-12580
▁cheap	-12581
▁crews	-12582
▁dozen	-12583
▁flame	-12584
▁gains	-12585
▁hymns	-12586
▁hypot	-12587
▁inequ	-12588
▁ivory	-12589
▁jewel	-12590
▁mills	-12591
▁pedro	-12592
▁prose	-12593
▁rises	-12594
▁ruins	-12595
▁sarah	-12596
▁soils	-12597
▁thrac	-12598
▁celtic	-12599
▁dispat	-12600
▁domest	-12601
▁guided	-12602
▁housed	-12603
▁marath	-12604
▁summar	-12605
▁artwork	-12606
▁borland	-12607
▁bromide	-12608
▁counsel	-12609
▁debated	-12610
▁enacted	-12611
▁gravity	-12612
▁handled	-12613
▁hostile	-12614
▁imaging	-12615
▁inverse	-12616
▁perseus	-12617
▁umayyad	-12618
▁warrior	-12619
▁darkness	-12620
▁earthsea	-12621
▁infrared	-12622
▁ratified	-12623
▁wireless	-12624
▁abortions	-12625
▁analogous	-12626
▁certified	-12627
▁composite	-12628
▁displaced	-12629
▁lithuania	-12630
▁palestine	-12631
▁protector	-12632
▁alchemical	-12633
▁brightness	-12634
▁contracted	-12635
▁cretaceous	-12636
▁missionary	-12637
▁accommodate	-12638
▁compilation	-12639
▁demographic	-12640
▁disabilities	-12641
▁contemporaries	-12642
py	-12643
ém	-12644
6),	-12645
="1	-12646
=19	-12647
_18	-12648
aba	-12649
chi	-12650
igo	-12651
kar	-12652
▁47	-12653
▁ja	-12654
▁pm	-12655
acad	-12656
alia	-12657
auth	-12658
fers	-12659
inea	-12660
ophy	-12661
oths	-12662
resh	-12663
song	-12664
▁125	-12665
chlor	-12666
guard	-12667
ioned	-12668
major	-12669
named	-12670
uerto	-12671
urnal	-12672
▁2023	-12673
▁asex	-12674
▁dose	-12675
▁ease	-12676
▁fing	-12677
▁hect	-12678
▁sele	-12679
▁sikh	-12680
atever	-12681
ensing	-12682
iances	-12683
oteric	-12684
▁1993.	-12685
▁draws	-12686
▁enlar	-12687
▁horns	-12688
▁shots	-12689
▁smart	-12690
▁stero	-12691
▁synag	-12692
▁tubes	-12693
▁vapor	-12694
clusive	-12695
▁aggreg	-12696
▁delphi	-12697
▁endang	-12698
▁eugene	-12699
▁fiscal	-12700
▁morris	-12701
▁occupy	-12702
▁segreg	-12703
▁slavic	-12704
▁summit	-12705
▁towers	-12706
▁weaker	-12707
▁wesley	-12708
graduate	-12709
▁abbasid	-12710
▁immense	-12711
▁inherit	-12712
▁observe	-12713
▁tablets	-12714
▁appealed	-12715
▁arianism	-12716
▁difranco	-12717
▁everyday	-12718
▁faithful	-12719
▁inferior	-12720
▁innocent	-12721
▁landmark	-12722
▁receiver	-12723
▁resemble	-12724
▁sculptor	-12725
▁surprise	-12726
▁alcoholic	-12727
▁ambitious	-12728
▁ayckbourn	-12729
▁catalogue	-12730
▁defending	-12731
▁doctrines	-12732
▁judiciary	-12733
▁liberties	-12734
▁processed	-12735
▁automobile	-12736
▁descendant	-12737
▁occurrence	-12738
▁publishers	-12739
▁anabaptists	-12740
▁connecticut	-12741
▁theologians	-12742
▁northeastern	-12743
▁southwestern	-12744
▁extraordinary	-12745
▁practitioners	-12746
|4	-12747
oga	-12748
pra	-12749
tre	-12750
vae	-12751
▁1%	-12752
▁58	-12753
aved	-12754
ello	-12755
oine	-12756
sche	-12757
wich	-12758
zens	-12759
▁aly	-12760
▁cis	-12761
▁mim	-12762
▁scr	-12763
attes	-12764
eenth	-12765
enzie	-12766
idine	-12767
ierra	-12768
names	-12769
▁gaut	-12770
▁herm	-12771
▁kong	-12772
▁limb	-12773
▁magh	-12774
market	-12775
minute	-12776
▁1941,	-12777
▁1981,	-12778
▁aided	-12779
▁amput	-12780
▁aorta	-12781
▁assim	-12782
▁baker	-12783
▁blake	-12784
▁engra	-12785
▁exter	-12786
▁indef	-12787
▁knock	-12788
▁lynch	-12789
▁onset	-12790
▁renov	-12791
▁saxon	-12792
▁stamp	-12793
▁trick	-12794
▁voter	-12795
quality	-12796
▁aldrin	-12797
▁dollar	-12798
▁fibers	-12799
▁foster	-12800
▁glands	-12801
▁hector	-12802
▁manage	-12803
▁myster	-12804
▁shakes	-12805
▁solids	-12806
▁stoker	-12807
▁unanim	-12808
▁advised	-12809
▁bonding	-12810
▁failing	-12811
▁honored	-12812
▁satisfy	-12813
▁skilled	-12814
▁utility	-12815
▁consoles	-12816
▁disabled	-12817
▁uprising	-12818
▁wildlife	-12819
containing	-12820
▁ambiguous	-12821
▁artifacts	-12822
▁therapies	-12823
▁accordance	-12824
▁beneficial	-12825
▁chancellor	-12826
▁committees	-12827
▁guidelines	-12828
▁innovative	-12829
▁neurotrans	-12830
▁polynomial	-12831
▁prescribed	-12832
▁reasonable	-12833
▁computation	-12834
▁conjunction	-12835
▁enterprises	-12836
▁therapeutic	-12837
▁bodhisattvas	-12838
▁imprisonment	-12839
▁nomenclature	-12840
▁demonstration	-12841
▁determination	-12842
▁professionals	-12843
ás	-12844
–6	-12845
cia	-12846
dig	-12847
gau	-12848
iae	-12849
jah	-12850
pen	-12851
sil	-12852
▁il	-12853
▁ud	-12854
andy	-12855
axis	-12856
ceae	-12857
gary	-12858
ican	-12859
mill	-12860
mund	-12861
okes	-12862
prov	-12863
quis	-12864
then	-12865
werp	-12866
▁128	-12867
▁eis	-12868
▁leo	-12869
▁mud	-12870
▁sah	-12871
elles	-12872
illes	-12873
leans	-12874
orman	-12875
tiles	-12876
▁azad	-12877
▁bust	-12878
▁elli	-12879
▁iowa	-12880
▁lane	-12881
▁pyth	-12882
▁rape	-12883
▁reun	-12884
▁seab	-12885
▁seal	-12886
▁shop	-12887
▁wart	-12888
ethyst	-12889
headed	-12890
▁1947,	-12891
▁1995.	-12892
▁armin	-12893
▁baghd	-12894
▁diego	-12895
▁evans	-12896
▁holes	-12897
▁limbs	-12898
▁norse	-12899
▁pursu	-12900
▁pyram	-12901
▁stick	-12902
▁tract	-12903
▁wells	-12904
▁yemen	-12905
america	-12906
▁arrive	-12907
▁copied	-12908
▁endeav	-12909
▁hockey	-12910
▁larvae	-12911
▁parker	-12912
▁prelim	-12913
▁propri	-12914
▁talmud	-12915
▁venues	-12916
▁voiced	-12917
▁yearly	-12918
▁ajaccio	-12919
▁alkenes	-12920
▁anchors	-12921
▁autocad	-12922
▁editors	-12923
▁farther	-12924
▁injured	-12925
▁myanmar	-12926
▁passive	-12927
▁pilgrim	-12928
▁propell	-12929
▁recount	-12930
▁shipped	-12931
▁trapped	-12932
establish	-12933
resistant	-12934
▁altruism	-12935
▁anywhere	-12936
▁councils	-12937
▁creature	-12938
▁displace	-12939
▁drainage	-12940
▁feelings	-12941
▁frankish	-12942
▁musician	-12943
▁overcome	-12944
▁skeleton	-12945
▁symmetry	-12946
▁treaties	-12947
▁advocates	-12948
▁amplitude	-12949
▁automatic	-12950
▁bundestag	-12951
▁encourage	-12952
▁exercised	-12953
▁investors	-12954
▁precursor	-12955
▁successes	-12956
▁accomplish	-12957
▁disability	-12958
▁maximilian	-12959
▁propaganda	-12960
▁abbreviated	-12961
▁abstraction	-12962
▁controlling	-12963
▁countryside	-12964
▁marlborough	-12965
▁congressional	-12966
▁advertisements	-12967
:1	-12968
hu	-12969
pu	-12970
civ	-12971
igm	-12972
▁(8	-12973
▁88	-12974
▁ia	-12975
="13	-12976
agar	-12977
budd	-12978
grow	-12979
inda	-12980
iser	-12981
issa	-12982
mass	-12983
obic	-12984
rann	-12985
ukas	-12986
▁ana	-12987
▁bio	-12988
▁dot	-12989
▁dum	-12990
▁fee	-12991
▁lys	-12992
earth	-12993
keley	-12994
marks	-12995
otive	-12996
▁ante	-12997
▁chan	-12998
▁dias	-12999
▁pard	-13000
▁plug	-13001
▁raym	-13002
▁sene	-13003
ailing	-13004
oresis	-13005
▁ayahu	-13006
▁doors	-13007
▁lover	-13008
▁pamph	-13009
▁relic	-13010
▁spell	-13011
foreign	-13012
▁30,000	-13013
▁aragon	-13014
▁arnold	-13015
▁carbox	-13016
▁deeper	-13017
▁dozens	-13018
▁drinks	-13019
▁fierce	-13020
▁finger	-13021
▁gemini	-13022
▁motifs	-13023
▁onward	-13024
▁rahman	-13025
▁robust	-13026
▁rudolf	-13027
▁safely	-13028
▁sailed	-13029
▁saxony	-13030
▁afghans	-13031
▁baldwin	-13032
▁chemist	-13033
▁circles	-13034
▁orleans	-13035
▁polymer	-13036
▁prayers	-13037
▁thomson	-13038
religious	-13039
▁concerts	-13040
▁database	-13041
▁missouri	-13042
▁ornament	-13043
▁quarters	-13044
▁rothbard	-13045
▁sometime	-13046
▁whatever	-13047
recipients	-13048
▁adventure	-13049
▁alphabets	-13050
▁ayahuasca	-13051
▁delegates	-13052
▁intrinsic	-13053
▁novelists	-13054
▁possessed	-13055
▁releasing	-13056
▁continuity	-13057
▁conviction	-13058
▁explaining	-13059
▁metabolism	-13060
▁occasional	-13061
▁refraction	-13062
▁intelligent	-13063
▁ecclesiastical	-13064
▁investigations	-13065
83	-13066
hs	-13067
vs	-13068
:00	-13069
aux	-13070
cot	-13071
iya	-13072
jar	-13073
lou	-13074
oni	-13075
osc	-13076
alam	-13077
bone	-13078
cole	-13079
late	-13080
mans	-13081
pack	-13082
▁ave	-13083
▁wol	-13084
acher	-13085
alism	-13086
ambig	-13087
chers	-13088
wheel	-13089
▁1870	-13090
▁1914	-13091
▁buck	-13092
▁dwar	-13093
▁pace	-13094
atomic	-13095
compan	-13096
minton	-13097
ochond	-13098
ointed	-13099
▁aberg	-13100
▁alice	-13101
▁chord	-13102
▁grows	-13103
▁helps	-13104
▁imply	-13105
▁ionic	-13106
▁loved	-13107
▁subdu	-13108
▁throw	-13109
▁truly	-13110
▁worse	-13111
lements	-13112
organic	-13113
rolling	-13114
▁aimery	-13115
▁ajanta	-13116
▁awaken	-13117
▁conrad	-13118
▁exiled	-13119
▁graham	-13120
▁impair	-13121
▁luxury	-13122
▁puerto	-13123
▁talent	-13124
▁valued	-13125
electric	-13126
ications	-13127
▁antwerp	-13128
▁asserts	-13129
▁compass	-13130
▁divorce	-13131
▁flowing	-13132
▁hitting	-13133
▁prolong	-13134
▁relates	-13135
▁shepard	-13136
▁spirits	-13137
amination	-13138
effective	-13139
mentation	-13140
▁bornholm	-13141
▁chambers	-13142
▁discrete	-13143
▁dopamine	-13144
▁drawings	-13145
▁edmonton	-13146
▁encoding	-13147
▁examined	-13148
▁exhibits	-13149
▁pleasure	-13150
▁proceeds	-13151
▁shakespe	-13152
▁toxicity	-13153
▁abundance	-13154
▁conquests	-13155
▁decreases	-13156
▁diagnosis	-13157
▁differing	-13158
▁dinosaurs	-13159
▁economist	-13160
▁melbourne	-13161
▁mitochond	-13162
▁offerings	-13163
▁precisely	-13164
▁presbyter	-13165
▁righteous	-13166
▁victorian	-13167
ambiguation	-13168
▁ceremonies	-13169
▁conception	-13170
▁morphology	-13171
▁negotiated	-13172
▁scriptures	-13173
▁undertaken	-13174
▁abergavenny	-13175
▁instability	-13176
▁interesting	-13177
▁proceedings	-13178
▁coordination	-13179
▁overwhelming	-13180
▁preparations	-13181
▁productivity	-13182
▁computational	-13183
▁modifications	-13184
ün	-13185
=30	-13186
apa	-13187
gil	-13188
kit	-13189
kyo	-13190
▁$3	-13191
▁dy	-13192
="30	-13193
="36	-13194
gold	-13195
hall	-13196
viol	-13197
▁kur	-13198
▁mhz	-13199
▁mtv	-13200
▁nad	-13201
aired	-13202
asted	-13203
eches	-13204
gated	-13205
occup	-13206
river	-13207
▁(190	-13208
▁(197	-13209
▁1963	-13210
▁baku	-13211
▁bing	-13212
▁dign	-13213
▁gust	-13214
▁hitt	-13215
▁illy	-13216
▁latt	-13217
▁pept	-13218
▁rept	-13219
aharan	-13220
apolis	-13221
holder	-13222
olving	-13223
▁4,000	-13224
▁burma	-13225
▁dealt	-13226
▁flank	-13227
▁pupil	-13228
▁rebel	-13229
▁reich	-13230
▁acadia	-13231
▁auxili	-13232
▁bullet	-13233
▁execut	-13234
▁iodine	-13235
▁metres	-13236
▁submar	-13237
▁suspic	-13238
▁thrust	-13239
▁unrest	-13240
▁baghdad	-13241
▁burgess	-13242
▁closing	-13243
▁clothes	-13244
▁default	-13245
▁deposed	-13246
▁expense	-13247
▁raymond	-13248
▁shallow	-13249
▁telling	-13250
political	-13251
▁blockade	-13252
▁democrat	-13253
▁enrolled	-13254
▁excluded	-13255
▁famously	-13256
▁interven	-13257
▁organism	-13258
▁passages	-13259
▁prophets	-13260
▁requests	-13261
▁seasonal	-13262
▁sunlight	-13263
▁textiles	-13264
▁weakness	-13265
▁anonymous	-13266
▁ballistic	-13267
▁calculate	-13268
▁capturing	-13269
▁comprised	-13270
▁declining	-13271
▁fortified	-13272
▁masculine	-13273
▁neolithic	-13274
▁pioneered	-13275
▁protocols	-13276
▁selective	-13277
▁supporter	-13278
▁witnessed	-13279
▁anaximenes	-13280
▁antimatter	-13281
▁companions	-13282
▁exposition	-13283
▁extensions	-13284
▁instituted	-13285
▁inventions	-13286
▁performers	-13287
▁productive	-13288
▁profitable	-13289
▁compression	-13290
▁generalized	-13291
▁helicopters	-13292
▁shuttlecock	-13293
albertosaurus	-13294
▁announcement	-13295
▁participating	-13296
5)	-13297
19,	-13298
=36	-13299
_12	-13300
afa	-13301
ema	-13302
rem	-13303
ihad	-13304
lyph	-13305
neum	-13306
rise	-13307
umer	-13308
▁kor	-13309
▁mec	-13310
▁rim	-13311
▁ski	-13312
iolet	-13313
mberg	-13314
month	-13315
▁bagp	-13316
▁dess	-13317
▁euch	-13318
▁hull	-13319
▁incl	-13320
▁stup	-13321
access	-13322
around	-13323
family	-13324
gement	-13325
▁basal	-13326
▁borne	-13327
▁lobby	-13328
▁mound	-13329
▁pride	-13330
▁redes	-13331
▁rober	-13332
▁threw	-13333
▁tibet	-13334
▁tokyo	-13335
▁virus	-13336
italian	-13337
itional	-13338
keeping	-13339
logical	-13340
ulative	-13341
▁alcuin	-13342
▁client	-13343
▁lucius	-13344
▁magnet	-13345
▁mandel	-13346
▁motors	-13347
▁static	-13348
hydrogen	-13349
▁epithet	-13350
▁filming	-13351
▁inmates	-13352
▁leather	-13353
▁prefect	-13354
▁scoring	-13355
▁wartime	-13356
▁athletic	-13357
▁berkeley	-13358
▁circuits	-13359
▁dialogue	-13360
▁duration	-13361
▁emotions	-13362
▁fourteen	-13363
▁liberals	-13364
▁maneuver	-13365
▁outbreak	-13366
▁pentagon	-13367
▁russians	-13368
▁affecting	-13369
▁anthropic	-13370
▁cancelled	-13371
▁communism	-13372
▁correctly	-13373
▁descartes	-13374
▁mackenzie	-13375
▁spherical	-13376
▁sustained	-13377
▁wrestling	-13378
▁activation	-13379
▁addressing	-13380
▁conversely	-13381
▁interviews	-13382
▁manchester	-13383
▁prominence	-13384
▁discussions	-13385
▁philanthrop	-13386
▁preliminary	-13387
▁shakespeare	-13388
▁congregation	-13389
▁deliberately	-13390
▁economically	-13391
▁installation	-13392
93	-13393
aca	-13394
eys	-13395
hex	-13396
▁dé	-13397
="37	-13398
anas	-13399
anga	-13400
anol	-13401
card	-13402
fold	-13403
ithe	-13404
ppen	-13405
▁(1.	-13406
▁60%	-13407
▁abj	-13408
▁afc	-13409
▁dak	-13410
▁hok	-13411
acons	-13412
blade	-13413
cover	-13414
eterm	-13415
rific	-13416
smith	-13417
▁1942	-13418
▁mate	-13419
▁mood	-13420
▁samp	-13421
▁tran	-13422
▁trap	-13423
astics	-13424
orasan	-13425
retion	-13426
▁1942,	-13427
▁1943,	-13428
▁1978,	-13429
▁beers	-13430
▁herat	-13431
▁jimmy	-13432
▁paths	-13433
▁relax	-13434
▁stems	-13435
holders	-13436
▁counts	-13437
▁hotels	-13438
▁matthe	-13439
▁methyl	-13440
▁microp	-13441
▁morgan	-13442
▁overlo	-13443
▁ransom	-13444
▁viking	-13445
missions	-13446
▁broadly	-13447
▁graphic	-13448
▁lebanon	-13449
▁pioneer	-13450
▁pirates	-13451
▁schmitt	-13452
▁silicon	-13453
▁suspect	-13454
alexander	-13455
itational	-13456
sometimes	-13457
▁dynamics	-13458
▁steadily	-13459
▁affection	-13460
▁batteries	-13461
▁blackjack	-13462
▁resembles	-13463
▁sentiment	-13464
▁spreading	-13465
▁ambassador	-13466
▁satellites	-13467
▁anglicanism	-13468
▁constituted	-13469
▁grammatical	-13470
▁predominant	-13471
▁propagation	-13472
▁quantitative	-13473
▁administrator	-13474
▁automatically	-13475
▁institutional	-13476
▁electrophoresis	-13477
:5	-13478
eg	-13479
9),	-13480
=13	-13481
hon	-13482
syn	-13483
tri	-13484
var	-13485
▁$5	-13486
▁77	-13487
▁ix	-13488
▁va	-13489
-120	-13490
acht	-13491
apes	-13492
arms	-13493
empl	-13494
etes	-13495
hana	-13496
have	-13497
hill	-13498
inos	-13499
kets	-13500
orov	-13501
shar	-13502
unar	-13503
yrus	-13504
▁174	-13505
▁agm	-13506
▁ink	-13507
▁kaf	-13508
▁laz	-13509
▁spo	-13510
▁taj	-13511
▁umb	-13512
▁zun	-13513
anton	-13514
arity	-13515
armed	-13516
icity	-13517
isans	-13518
itter	-13519
liber	-13520
naeus	-13521
▁bent	-13522
▁bloc	-13523
▁gamb	-13524
▁gand	-13525
▁josé	-13526
▁meta	-13527
▁oreg	-13528
▁pock	-13529
▁rite	-13530
▁stir	-13531
▁sync	-13532
▁vlad	-13533
angers	-13534
animal	-13535
locked	-13536
ocaust	-13537
veland	-13538
▁admit	-13539
▁aired	-13540
▁chand	-13541
▁ernst	-13542
▁fiber	-13543
▁hokka	-13544
▁tries	-13545
▁unpre	-13546
defined	-13547
▁buffer	-13548
▁chiefs	-13549
▁chorus	-13550
▁clouds	-13551
▁iconic	-13552
▁naples	-13553
▁nobles	-13554
▁ronald	-13555
▁silent	-13556
▁sympat	-13557
▁trends	-13558
▁worker	-13559
republic	-13560
▁admired	-13561
▁beastie	-13562
▁calgary	-13563
▁domains	-13564
▁honours	-13565
▁paradox	-13566
▁revenge	-13567
▁triumph	-13568
geography	-13569
imination	-13570
propelled	-13571
▁affinity	-13572
▁arcturus	-13573
▁certific	-13574
▁khorasan	-13575
▁literacy	-13576
▁managers	-13577
▁peaceful	-13578
▁withdraw	-13579
▁anointing	-13580
▁badminton	-13581
▁bryozoans	-13582
▁depiction	-13583
▁recession	-13584
▁theorists	-13585
▁capitalism	-13586
▁collecting	-13587
▁destroying	-13588
▁monitoring	-13589
▁politician	-13590
▁protecting	-13591
▁regulatory	-13592
▁worshipped	-13593
▁attractions	-13594
▁conclusions	-13595
▁identifying	-13596
▁medications	-13597
▁possessions	-13598
▁uncertainty	-13599
▁celebrations	-13600
▁predecessors	-13601
▁standardized	-13602
▁tuberculosis	-13603
▁pharmaceutical	-13604
▁reconnaissance	-13605
▁electromagnetic	-13606
ei	-13607
ng	-13608
zi	-13609
.).	-13610
ahu	-13611
gem	-13612
hay	-13613
iri	-13614
jos	-13615
ped	-13616
▁ng	-13617
="12	-13618
ikov	-13619
ivan	-13620
niak	-13621
pora	-13622
pton	-13623
test	-13624
uine	-13625
wind	-13626
▁155	-13627
▁164	-13628
▁172	-13629
▁ars	-13630
▁fol	-13631
▁mys	-13632
atisf	-13633
helor	-13634
imper	-13635
often	-13636
schel	-13637
ships	-13638
▁1800	-13639
▁1840	-13640
▁ansi	-13641
▁baby	-13642
▁carb	-13643
▁cors	-13644
▁fles	-13645
▁hong	-13646
▁lang	-13647
▁math	-13648
▁nose	-13649
ologne	-13650
ptions	-13651
wegian	-13652
▁1971.	-13653
▁1972.	-13654
▁arena	-13655
▁bursa	-13656
▁clips	-13657
▁embry	-13658
▁gabri	-13659
▁ghost	-13660
▁homin	-13661
▁monoc	-13662
▁mourn	-13663
▁overl	-13664
▁scots	-13665
▁smoke	-13666
▁suite	-13667
▁talks	-13668
▁verbs	-13669
african	-13670
▁enters	-13671
▁ferdin	-13672
▁hollow	-13673
▁ideals	-13674
▁immort	-13675
▁listen	-13676
▁martyr	-13677
▁reveal	-13678
▁scotia	-13679
▁traits	-13680
catholic	-13681
ogenesis	-13682
▁diagram	-13683
▁formats	-13684
▁harmful	-13685
▁iceland	-13686
▁impacts	-13687
▁inhibit	-13688
▁innings	-13689
▁lawyers	-13690
▁muscles	-13691
▁printer	-13692
▁reveals	-13693
▁torture	-13694
▁corridor	-13695
▁explored	-13696
▁hispanic	-13697
▁homeland	-13698
▁lawrence	-13699
▁managing	-13700
▁paternal	-13701
▁plutarch	-13702
▁remnants	-13703
▁rubidium	-13704
▁validity	-13705
university	-13706
▁abilities	-13707
▁acclaimed	-13708
▁adhesives	-13709
▁asymptote	-13710
▁churchill	-13711
▁customary	-13712
▁dimension	-13713
▁graduated	-13714
▁guarantee	-13715
▁observing	-13716
▁qualified	-13717
▁secession	-13718
▁stationed	-13719
▁temperate	-13720
▁convenient	-13721
▁endangered	-13722
▁indefinite	-13723
▁propulsion	-13724
▁volunteers	-13725
▁expeditions	-13726
▁tributaries	-13727
▁expectations	-13728
▁principality	-13729
disambiguation	-13730
▁neighbourhood	-13731
▁neurotransmit	-13732
▁antidepressant	-13733
▁á	-13734
-16	-13735
=37	-13736
fal	-13737
flo	-13738
gus	-13739
hig	-13740
isa	-13741
mol	-13742
nov	-13743
oro	-13744
▁56	-13745
▁bn	-13746
▁nl	-13747
alco	-13748
irra	-13749
mese	-13750
neys	-13751
▁0.0	-13752
▁dvd	-13753
▁kas	-13754
▁tod	-13755
itate	-13756
ophon	-13757
recht	-13758
▁1939	-13759
▁1956	-13760
▁boot	-13761
▁caps	-13762
▁diod	-13763
▁empl	-13764
▁gets	-13765
▁giac	-13766
▁hydr	-13767
▁inev	-13768
▁lgbt	-13769
▁oval	-13770
▁sarc	-13771
▁sphe	-13772
▁stig	-13773
▁till	-13774
nation	-13775
ptical	-13776
▁aarau	-13777
▁appar	-13778
▁baron	-13779
▁bench	-13780
▁coven	-13781
▁fungi	-13782
▁patch	-13783
▁prair	-13784
▁ralph	-13785
▁resin	-13786
▁spont	-13787
▁steep	-13788
▁venez	-13789
hetical	-13790
hungary	-13791
landers	-13792
mingham	-13793
usanias	-13794
▁boeing	-13795
▁contra	-13796
▁franks	-13797
▁insert	-13798
▁legion	-13799
▁magnes	-13800
▁submit	-13801
▁traded	-13802
▁wonder	-13803
ilingual	-13804
standard	-13805
▁bounded	-13806
▁capitol	-13807
▁colored	-13808
▁cycling	-13809
▁detroit	-13810
▁explore	-13811
▁generic	-13812
▁healthy	-13813
▁refined	-13814
▁soluble	-13815
▁streams	-13816
▁suscept	-13817
▁textual	-13818
▁tragedy	-13819
omorphism	-13820
▁adhesive	-13821
▁alyattes	-13822
▁bavarian	-13823
▁founders	-13824
▁genetics	-13825
▁heinrich	-13826
▁interrog	-13827
▁speeches	-13828
▁aspirated	-13829
▁attitudes	-13830
▁concludes	-13831
▁disciples	-13832
▁partition	-13833
▁sentenced	-13834
▁demolished	-13835
▁deployment	-13836
▁flourished	-13837
▁instructed	-13838
▁presumably	-13839
▁speculated	-13840
▁theatrical	-13841
ographically	-13842
▁protestants	-13843
▁salamanders	-13844
▁speculation	-13845
▁compensation	-13846
▁governmental	-13847
73	-13848
=1	-13849
ís	-13850
erb	-13851
kat	-13852
oda	-13853
–13	-13854
▁mg	-13855
bron	-13856
chur	-13857
fact	-13858
fell	-13859
lett	-13860
ogle	-13861
opro	-13862
velt	-13863
vous	-13864
will	-13865
▁106	-13866
▁140	-13867
▁16-	-13868
▁abm	-13869
▁alz	-13870
▁arb	-13871
▁kap	-13872
▁ved	-13873
ensis	-13874
seven	-13875
▁adri	-13876
▁cuts	-13877
▁dots	-13878
▁rode	-13879
▁thri	-13880
▁toll	-13881
▁unix	-13882
▁ussr	-13883
altern	-13884
intern	-13885
oluble	-13886
ospace	-13887
phones	-13888
rocess	-13889
scient	-13890
▁1948,	-13891
▁ammun	-13892
▁aries	-13893
▁armor	-13894
▁assur	-13895
▁axons	-13896
▁bills	-13897
▁blank	-13898
▁chari	-13899
▁chris	-13900
▁edgar	-13901
▁forts	-13902
▁irrad	-13903
▁julia	-13904
enhagen	-13905
winning	-13906
▁arnulf	-13907
▁arrays	-13908
▁attica	-13909
▁baltim	-13910
▁coptic	-13911
▁dallas	-13912
▁essays	-13913
▁grains	-13914
▁jerome	-13915
▁mature	-13916
▁mennon	-13917
▁occult	-13918
▁oregon	-13919
▁relate	-13920
▁sequel	-13921
▁shores	-13922
▁tradem	-13923
▁vocals	-13924
distance	-13925
ressions	-13926
▁clients	-13927
▁creator	-13928
▁embassy	-13929
▁frances	-13930
▁genesis	-13931
▁lengths	-13932
▁maghreb	-13933
▁ontario	-13934
▁placebo	-13935
▁reservo	-13936
▁solomon	-13937
▁solvent	-13938
▁statute	-13939
▁trilogy	-13940
▁vincent	-13941
▁albinism	-13942
▁amethyst	-13943
▁ammonius	-13944
▁amounted	-13945
▁analyzed	-13946
▁compiler	-13947
▁deceased	-13948
▁guardian	-13949
▁hinduism	-13950
▁infinity	-13951
▁mistaken	-13952
▁pipeline	-13953
▁robinson	-13954
▁sessions	-13955
▁vicinity	-13956
▁finishing	-13957
▁lightning	-13958
▁pausanias	-13959
▁altogether	-13960
▁anabaptist	-13961
▁antibacter	-13962
▁birmingham	-13963
▁ceremonial	-13964
▁helicopter	-13965
▁physicians	-13966
▁protective	-13967
▁recreation	-13968
▁travelling	-13969
▁afroasiatic	-13970
▁constitutes	-13971
▁derivatives	-13972
▁encompasses	-13973
▁prominently	-13974
▁accompanying	-13975
▁modification	-13976
▁controversies	-13977
▁implementations	-13978
/"	-13979
alb	-13980
sal	-13981
sin	-13982
▁54	-13983
▁ni	-13984
athy	-13985
cule	-13986
idus	-13987
isan	-13988
seus	-13989
▁119	-13990
▁173	-13991
▁lep	-13992
▁nim	-13993
▁nov	-13994
▁xen	-13995
3,000	-13996
atial	-13997
atile	-13998
berra	-13999
colon	-14000
comed	-14001
cycle	-14002
emann	-14003
irish	-14004
ivism	-14005
uches	-14006
▁1943	-14007
▁1948	-14008
▁1961	-14009
▁adul	-14010
▁amos	-14011
▁cler	-14012
▁dawn	-14013
▁idol	-14014
▁phry	-14015
▁skir	-14016
▁turb	-14017
little	-14018
owners	-14019
▁1964,	-14020
▁2002.	-14021
▁arius	-14022
▁boris	-14023
▁civic	-14024
▁extin	-14025
▁frust	-14026
▁loans	-14027
▁lungs	-14028
▁perce	-14029
▁roose	-14030
▁snake	-14031
▁stiff	-14032
▁tombs	-14033
▁unite	-14034
playing	-14035
program	-14036
▁accent	-14037
▁basins	-14038
▁disney	-14039
▁guinea	-14040
▁loaded	-14041
▁minnes	-14042
▁rounds	-14043
▁staged	-14044
▁suburb	-14045
▁surviv	-14046
▁wright	-14047
uremberg	-14048
▁cheaper	-14049
▁confirm	-14050
▁exagger	-14051
▁genuine	-14052
▁grouped	-14053
▁holland	-14054
▁iberian	-14055
▁illegit	-14056
▁jointly	-14057
▁stomach	-14058
▁wherein	-14059
necessary	-14060
▁archives	-14061
▁columbus	-14062
▁customer	-14063
▁diaspora	-14064
▁eligible	-14065
▁energies	-14066
▁exceeded	-14067
▁migrants	-14068
▁pointing	-14069
▁poseidon	-14070
▁activated	-14071
▁assyrians	-14072
▁doubleday	-14073
▁ethnicity	-14074
▁hierarchy	-14075
▁holocaust	-14076
▁overthrow	-14077
▁roosevelt	-14078
▁sculptors	-14079
▁variously	-14080
▁voiceless	-14081
▁enthusiast	-14082
▁incorporate	-14083
▁popularized	-14084
▁principally	-14085
▁problematic	-14086
▁resignation	-14087
▁spaceflight	-14088
▁vertebrates	-14089
▁abbreviation	-14090
▁alternatively	-14091
▁austroasiatic	-14092
▁specifications	-14093
%.	-14094
cf	-14095
-47	-14096
=18	-14097
iec	-14098
opy	-14099
ski	-14100
tos	-14101
yne	-14102
▁5-	-14103
▁52	-14104
alom	-14105
bius	-14106
educ	-14107
iman	-14108
jans	-14109
prob	-14110
raam	-14111
rapy	-14112
shir	-14113
▁18.	-14114
▁650	-14115
▁tig	-14116
▁vas	-14117
allah	-14118
berry	-14119
blood	-14120
ceded	-14121
death	-14122
ensky	-14123
hmael	-14124
lings	-14125
oning	-14126
ppers	-14127
▁$100	-14128
▁1952	-14129
▁anis	-14130
▁banu	-14131
▁eleg	-14132
▁extr	-14133
▁hapl	-14134
▁irre	-14135
▁klan	-14136
▁komn	-14137
deaths	-14138
erting	-14139
imeter	-14140
intend	-14141
rators	-14142
school	-14143
umbent	-14144
▁1994.	-14145
▁ashur	-14146
▁fatty	-14147
▁gland	-14148
▁kills	-14149
▁lacks	-14150
▁pacif	-14151
▁samoa	-14152
▁surge	-14153
elected	-14154
ophones	-14155
▁advant	-14156
▁graves	-14157
▁intact	-14158
▁operas	-14159
▁overla	-14160
▁prolif	-14161
▁quotes	-14162
▁racism	-14163
▁riding	-14164
▁staple	-14165
▁suited	-14166
▁toured	-14167
▁velvet	-14168
▁admiral	-14169
▁aligned	-14170
▁animism	-14171
▁antares	-14172
▁archive	-14173
▁caspian	-14174
▁chicken	-14175
▁cologne	-14176
▁concord	-14177
▁emotion	-14178
▁empress	-14179
▁ishmael	-14180
▁matting	-14181
▁portray	-14182
▁trouble	-14183
▁wedding	-14184
▁attained	-14185
▁basilica	-14186
▁bolivian	-14187
▁feminine	-14188
▁fountain	-14189
▁limiting	-14190
▁vertebra	-14191
▁watching	-14192
▁automated	-14193
▁cleveland	-14194
▁employers	-14195
▁inscribed	-14196
▁integrity	-14197
▁minnesota	-14198
▁projected	-14199
▁rejection	-14200
▁sacrament	-14201
▁statistic	-14202
▁unpopular	-14203
▁ammunition	-14204
▁attractive	-14205
▁battalions	-14206
▁confession	-14207
▁expressing	-14208
▁identifies	-14209
▁peripheral	-14210
▁screenplay	-14211
▁supposedly	-14212
▁interactive	-14213
▁prestigious	-14214
▁synthesized	-14215
▁aerodynamics	-14216
▁abbreviations	-14217
▁approximation	-14218
▁characterised	-14219
▁compatibility	-14220
▁intentionally	-14221
▁neighborhoods	-14222
81	-14223
uh	-14224
').	-14225
akk	-14226
roe	-14227
voy	-14228
āna	-14229
▁99	-14230
▁db	-14231
▁eb	-14232
▁kl	-14233
area	-14234
awar	-14235
cott	-14236
dale	-14237
fund	-14238
gone	-14239
icho	-14240
inas	-14241
lamm	-14242
mate	-14243
mult	-14244
ococ	-14245
page	-14246
▁32-	-14247
▁adb	-14248
▁cbs	-14249
▁lub	-14250
▁mul	-14251
▁phy	-14252
allax	-14253
apple	-14254
cence	-14255
ische	-14256
onius	-14257
ulous	-14258
urday	-14259
▁1912	-14260
▁ayer	-14261
▁gild	-14262
▁isab	-14263
▁ivan	-14264
▁neop	-14265
▁nora	-14266
▁rows	-14267
▁sake	-14268
▁selj	-14269
▁spor	-14270
▁sued	-14271
▁trop	-14272
▁xiii	-14273
acious	-14274
icable	-14275
ozniak	-14276
phrine	-14277
uptake	-14278
▁1968.	-14279
▁anode	-14280
▁barra	-14281
▁brick	-14282
▁loren	-14283
▁melod	-14284
▁perfe	-14285
▁rabbi	-14286
▁repub	-14287
▁trips	-14288
buffalo	-14289
▁canova	-14290
▁carter	-14291
▁duplic	-14292
▁ernest	-14293
▁famine	-14294
▁harold	-14295
▁honors	-14296
▁monoch	-14297
▁nathan	-14298
▁nicene	-14299
▁orwell	-14300
▁palmer	-14301
▁parade	-14302
▁punish	-14303
▁tenure	-14304
▁annexed	-14305
▁beaches	-14306
▁bradley	-14307
▁bureauc	-14308
▁burgund	-14309
▁chiefly	-14310
▁cluster	-14311
▁denotes	-14312
▁gautama	-14313
▁interim	-14314
▁knowing	-14315
▁recruit	-14316
▁regards	-14317
▁simpler	-14318
▁strains	-14319
▁summary	-14320
▁bleeding	-14321
▁comprise	-14322
▁dividing	-14323
▁fighters	-14324
▁flexible	-14325
▁lighting	-14326
▁protagon	-14327
▁weakened	-14328
▁whenever	-14329
▁baltimore	-14330
▁commenced	-14331
▁metabolic	-14332
▁nuremberg	-14333
▁renewable	-14334
▁unchanged	-14335
▁advantages	-14336
▁indication	-14337
▁indirectly	-14338
▁irrigation	-14339
▁simplified	-14340
▁anticipated	-14341
▁consecrated	-14342
▁elimination	-14343
▁mercenaries	-14344
▁photography	-14345
▁resemblance	-14346
▁sympathetic	-14347
▁illegitimate	-14348
▁resurrection	-14349
abh	-14350
dut	-14351
oan	-14352
obs	-14353
pin	-14354
roc	-14355
–14	-14356
▁95	-14357
="14	-14358
love	-14359
nish	-14360
obia	-14361
park	-14362
uela	-14363
urer	-14364
▁(12	-14365
▁21.	-14366
▁aon	-14367
▁bug	-14368
▁fbi	-14369
▁jaw	-14370
▁kle	-14371
▁nbc	-14372
▁pod	-14373
▁rhe	-14374
▁tir	-14375
angra	-14376
apart	-14377
arbon	-14378
birth	-14379
civil	-14380
icing	-14381
thren	-14382
▁1955	-14383
▁bold	-14384
▁coch	-14385
▁dean	-14386
▁hide	-14387
▁orch	-14388
▁perf	-14389
▁pink	-14390
▁reed	-14391
▁sard	-14392
▁vend	-14393
dragon	-14394
length	-14395
opatra	-14396
▁1992.	-14397
▁dixon	-14398
▁focal	-14399
▁fuels	-14400
▁hepha	-14401
▁mobil	-14402
▁monte	-14403
▁pneum	-14404
▁pulse	-14405
▁punct	-14406
▁reads	-14407
▁sands	-14408
▁sofia	-14409
kingham	-14410
▁40,000	-14411
▁cruise	-14412
▁dispos	-14413
▁entrep	-14414
▁exempl	-14415
▁google	-14416
▁herald	-14417
▁mongol	-14418
▁nomine	-14419
▁steven	-14420
▁ticket	-14421
▁trophy	-14422
▁worlds	-14423
atherine	-14424
treaties	-14425
▁ascetic	-14426
▁astoria	-14427
▁bombard	-14428
▁debates	-14429
▁essence	-14430
▁fingers	-14431
▁inquiry	-14432
▁jacques	-14433
▁pelopon	-14434
▁pottery	-14435
▁princes	-14436
▁rebuild	-14437
▁refract	-14438
▁rituals	-14439
▁schirra	-14440
▁seattle	-14441
▁textile	-14442
▁thermod	-14443
▁weights	-14444
▁wozniak	-14445
▁arcadius	-14446
▁bachelor	-14447
▁capitals	-14448
▁chlorine	-14449
▁hectares	-14450
▁inserted	-14451
▁marshall	-14452
▁overview	-14453
▁parallax	-14454
▁parishes	-14455
▁peasants	-14456
▁platinum	-14457
▁reuptake	-14458
▁rotating	-14459
▁severity	-14460
▁simplest	-14461
▁suddenly	-14462
▁adherents	-14463
▁aerospace	-14464
▁contested	-14465
▁ferdinand	-14466
▁norwegian	-14467
▁providers	-14468
▁retaining	-14469
▁synagogue	-14470
▁violation	-14471
▁copenhagen	-14472
▁evaluation	-14473
▁foreigners	-14474
▁guaranteed	-14475
▁aristocracy	-14476
▁assumptions	-14477
▁dissolution	-14478
▁investigate	-14479
▁technically	-14480
▁counterparts	-14481
▁differential	-14482
▁documentation	-14483
▁gravitational	-14484
▁fortifications	-14485
=10	-14486
agh	-14487
ahl	-14488
dep	-14489
ecd	-14490
eta	-14491
los	-14492
rik	-14493
▁(7	-14494
▁2-	-14495
▁72	-14496
altz	-14497
heid	-14498
idel	-14499
iper	-14500
ipse	-14501
oded	-14502
onda	-14503
rett	-14504
than	-14505
ulin	-14506
▁bun	-14507
▁mum	-14508
▁omn	-14509
▁tam	-14510
▁urn	-14511
▁yaz	-14512
2,000	-14513
baran	-14514
films	-14515
iates	-14516
liter	-14517
ocles	-14518
onaut	-14519
▁1941	-14520
▁aden	-14521
▁biom	-14522
▁busy	-14523
▁cuba	-14524
▁deut	-14525
▁kirk	-14526
▁leto	-14527
▁luis	-14528
▁maya	-14529
urable	-14530
▁1938,	-14531
▁1990.	-14532
▁arise	-14533
▁atlas	-14534
▁bloom	-14535
▁burns	-14536
▁byron	-14537
▁clair	-14538
▁delhi	-14539
▁edict	-14540
▁juven	-14541
▁meets	-14542
▁meter	-14543
▁poles	-14544
▁seeks	-14545
▁socio	-14546
▁ultra	-14547
saharan	-14548
without	-14549
▁albeit	-14550
▁cheese	-14551
▁colomb	-14552
▁galaxy	-14553
▁hermes	-14554
▁infect	-14555
▁madrid	-14556
▁magist	-14557
▁rhodes	-14558
▁sacked	-14559
▁scroll	-14560
▁slower	-14561
▁stance	-14562
▁thesis	-14563
▁wizard	-14564
atorship	-14565
cedented	-14566
▁blocked	-14567
▁chipset	-14568
▁compuls	-14569
▁crushed	-14570
▁elastic	-14571
▁employs	-14572
▁fortune	-14573
▁fulfill	-14574
▁insight	-14575
▁labeled	-14576
▁lateral	-14577
▁lecture	-14578
▁lengthy	-14579
▁maurice	-14580
▁methane	-14581
▁oceanic	-14582
▁profits	-14583
▁pursuit	-14584
mentioned	-14585
operation	-14586
▁antigens	-14587
▁athletes	-14588
▁detector	-14589
▁exported	-14590
▁marginal	-14591
▁motorola	-14592
▁odysseus	-14593
▁regained	-14594
▁revision	-14595
▁troubles	-14596
▁achieving	-14597
▁alzheimer	-14598
▁anchorage	-14599
▁cleopatra	-14600
▁comparing	-14601
▁directing	-14602
▁excavated	-14603
▁linguists	-14604
▁obtaining	-14605
▁orthodoxy	-14606
▁undertook	-14607
▁adventures	-14608
▁magnitudes	-14609
▁similarity	-14610
▁strengthen	-14611
▁stronghold	-14612
▁structured	-14613
▁accelerated	-14614
▁accusations	-14615
▁commutative	-14616
▁encouraging	-14617
▁homogeneous	-14618
▁inaugurated	-14619
▁linguistics	-14620
▁conversation	-14621
▁distributors	-14622
▁congregations	-14623
▁constellations	-14624
▁anthropologists	-14625
_11	-14626
bib	-14627
cra	-14628
dic	-14629
ibi	-14630
tel	-14631
▁3-	-14632
▁89	-14633
▁bé	-14634
▁mp	-14635
agus	-14636
anto	-14637
comb	-14638
dish	-14639
ixed	-14640
near	-14641
onal	-14642
pred	-14643
spir	-14644
vial	-14645
▁12-	-14646
▁cox	-14647
▁piv	-14648
▁raf	-14649
aints	-14650
copes	-14651
idean	-14652
louis	-14653
strad	-14654
super	-14655
▁1850	-14656
▁glas	-14657
▁joan	-14658
▁jury	-14659
▁lamo	-14660
▁loud	-14661
▁meal	-14662
▁nash	-14663
▁pork	-14664
▁scal	-14665
▁shiv	-14666
▁solv	-14667
▁trio	-14668
▁veto	-14669
arabic	-14670
ermost	-14671
handed	-14672
icante	-14673
icking	-14674
ielder	-14675
onents	-14676
▁1965,	-14677
▁1989.	-14678
▁1997.	-14679
▁ariet	-14680
▁cairo	-14681
▁fatal	-14682
▁fused	-14683
▁nazis	-14684
▁obama	-14685
▁posed	-14686
▁redis	-14687
▁seism	-14688
▁sumer	-14689
▁thorn	-14690
▁visig	-14691
▁yards	-14692
amazing	-14693
apacity	-14694
country	-14695
induced	-14696
meaning	-14697
▁50,000	-14698
▁adoles	-14699
▁breaks	-14700
▁coasts	-14701
▁jensen	-14702
▁lenses	-14703
▁lydian	-14704
▁mozart	-14705
▁picked	-14706
▁scarce	-14707
▁steady	-14708
▁steins	-14709
▁videos	-14710
▁watson	-14711
electron	-14712
▁backing	-14713
▁caution	-14714
▁coupled	-14715
▁happens	-14716
▁matthew	-14717
▁pillars	-14718
▁sensors	-14719
[...]
