<unk>	0
<s>	0
</s>	0
▁the	-2.99201
,	-3.23914
s	-3.3752
.	-3.43256
▁of	-3.64122
▁and	-3.88227
▁in	-3.92976
▁a	-4.15061
▁to	-4.17636
▁	-4.34101
▁"	-4.83697
-	-4.90598
▁is	-4.98779
▁was	-5.04648
"	-5.0759
▁as	-5.09242
▁for	-5.20852
'	-5.23735
▁by	-5.26156
ed	-5.26806
▁that	-5.28275
ing	-5.30451
▁with	-5.31486
▁(	-5.42508
▁on	-5.43396
▁from	-5.64166
▁his	-5.72954
▁it	-5.73742
▁an	-5.74801
▁are	-5.76046
▁he	-5.81854
##	-5.84437
d	-5.85758
▁at	-5.87085
▁be	-5.88839
e	-5.88928
▁or	-5.92318
)	-5.9569
▁which	-5.98198
a	-6.03845
▁were	-6.04751
ly	-6.08708
▁this	-6.16703
y	-6.29436
er	-6.32027
▁have	-6.32964
▁had	-6.341
|	-6.34467
▁not	-6.3505
▁also	-6.35808
al	-6.37013
t	-6.39016
▁has	-6.39634
;	-6.40721
th	-6.41473
i	-6.47441
▁but	-6.47455
n	-6.47603
▁their	-6.49307
es	-6.50275
:	-6.51335
▁its	-6.54332
▁one	-6.54431
▁other	-6.54631
▁first	-6.57591
",	-6.63041
in	-6.63729
en	-6.65949
o	-6.66217
▁been	-6.66388
c	-6.67845
="	-6.68793
),	-6.72911
▁they	-6.7293
▁after	-6.75812
r	-6.78754
g	-6.79906
the	-6.81382
▁who	-6.81888
▁all	-6.82416
▁such	-6.83423
▁some	-6.83889
m	-6.84387
▁more	-6.8526
▁re	-6.85919
▁most	-6.86548
▁used	-6.86835
▁new	-6.86882
▁two	-6.87534
▁can	-6.8828
".	-6.90044
).	-6.94448
▁when	-6.97214
▁into	-6.98405
▁than	-7.03486
▁there	-7.03994
k	-7.04183
p	-7.04986
▁during	-7.05217
▁many	-7.05488
ic	-7.05783
▁time	-7.05932
l	-7.06147
▁may	-7.06659
▁over	-7.07881
▁these	-7.08086
or	-7.09689
b	-7.09728
▁would	-7.10931
▁de	-7.11268
/	-7.12708
▁only	-7.1321
▁her	-7.14544
▁between	-7.15039
re	-7.18031
▁18	-7.22675
▁war	-7.23239
an	-7.2346
us	-7.24202
▁world	-7.2439
▁no	-7.24574
f	-7.28994
▁about	-7.30701
▁while	-7.31893
doc	-7.31926
ion	-7.33599
▁so	-7.33941
▁use	-7.352
ation	-7.35497
▁city	-7.36541
>	-7.37357
▁i	-7.37915
▁years	-7.38733
▁known	-7.38956
▁states	-7.3953
▁later	-7.39849
▁him	-7.40546
h	-7.40741
on	-7.41221
le	-7.42082
▁state	-7.42585
▁under	-7.4324
▁however	-7.45047
▁out	-7.45067
ers	-7.45851
▁century	-7.46285
▁both	-7.46414
▁early	-7.47718
▁where	-7.48564
▁al	-7.49178
▁people	-7.49448
▁d	-7.49477
▁up	-7.49708
▁well	-7.49922
to	-7.50163
▁made	-7.50379
▁un	-7.50519
▁being	-7.51448
st	-7.51671
▁number	-7.52468
▁american	-7.53039
▁became	-7.54262
▁three	-7.55354
v	-7.55548
▁through	-7.55736
ar	-7.56109
▁including	-7.56997
▁system	-7.5705
▁united	-7.57699
▁called	-7.57928
▁part	-7.58167
▁since	-7.58376
it	-7.58877
ism	-7.59585
na	-7.60133
ity	-7.6043
▁she	-7.6163
▁government	-7.63063
▁work	-7.64441
▁them	-7.66137
u	-7.66242
ian	-7.66361
▁g	-7.67161
▁title	-7.67684
w	-7.67847
▁if	-7.68479
▁1	-7.68489
▁b	-7.68995
▁because	-7.69137
▁national	-7.69399
▁formula	-7.69526
▁large	-7.70766
–	-7.71304
▁year	-7.71372
▁do	-7.71388
x	-7.71512
z	-7.71817
▁several	-7.72456
ia	-7.72501
▁high	-7.7256
▁then	-7.72849
▁could	-7.72885
ist	-7.72899
▁second	-7.73094
man	-7.73222
▁before	-7.73335
▁17	-7.73829
el	-7.74519
▁c	-7.74612
▁co	-7.7586
▁against	-7.77618
ma	-7.77707
▁any	-7.78031
▁found	-7.78761
ta	-7.79166
▁name	-7.79295
ent	-7.7941
▁same	-7.79544
co	-7.79838
▁south	-7.80261
ment	-7.80305
▁form	-7.80417
▁each	-7.80945
la	-7.81127
ra	-7.81762
as	-7.81838
▁north	-7.81946
ch	-7.82055
▁often	-7.8207
▁life	-7.82871
is	-7.8304
▁("	-7.83162
▁3	-7.839
ri	-7.84126
at	-7.84995
▁according	-7.85191
id	-7.8556
il	-7.85568
▁until	-7.8641
ter	-7.86628
▁british	-7.86778
▁example	-7.87354
▁will	-7.87723
able	-7.88648
▁although	-7.88671
▁per	-7.88993
▁group	-7.89939
▁e	-7.90004
▁among	-7.90382
▁f	-7.90661
se	-7.90728
▁country	-7.90755
ry	-7.90795
ro	-7.91088
ne	-7.91125
▁p	-7.91581
▁different	-7.91686
te	-7.9234
▁include	-7.92443
▁modern	-7.9288
ive	-7.93151
de	-7.93446
org	-7.93655
▁end	-7.93772
▁con	-7.93956
un	-7.94818
▁major	-7.94901
▁u	-7.95586
▁like	-7.95627
▁around	-7.95683
▁id	-7.95761
▁4	-7.9604
▁water	-7.96096
2	-7.96147
▁history	-7.96246
?	-7.96718
▁st	-7.97012
▁film	-7.97859
▁following	-7.98167
▁la	-7.98249
▁due	-7.98516
▁did	-7.98712
▁k	-7.98762
—	-7.98892
▁categories	-7.99003
▁four	-7.99163
▁those	-7.99924
▁language	-8.00066
ck	-8.00354
ate	-8.00406
▁even	-8.00564
▁population	-8.00853
▁m	-8.01432
▁general	-8.01479
▁power	-8.01763
▁area	-8.01811
ur	-8.02029
."	-8.02302
ine	-8.02498
▁sa	-8.03156
▁church	-8.03441
▁roman	-8.03521
")	-8.03602
ol	-8.03615
▁common	-8.0389
▁5	-8.04163
▁another	-8.042
▁sea	-8.04373
▁16	-8.04421
▁period	-8.04626
▁2	-8.04826
um	-8.05053
wikipedia	-8.05676
wiki	-8.05809
▁death	-8.0589
://	-8.06275
https	-8.06275
▁url	-8.06338
▁home	-8.06374
tic	-8.06425
▁set	-8.06471
▁long	-8.06564
▁<	-8.06623
curid	-8.0667
▁</	-8.06741
▁much	-8.0728
▁million	-8.07492
ton	-8.08007
▁us	-8.08283
be	-8.08407
ce	-8.08965
▁series	-8.09287
▁non	-8.09327
ul	-8.09642
▁v	-8.09954
5	-8.09979
ated	-8.10204
▁own	-8.10308
▁based	-8.10725
et	-8.11213
▁public	-8.11398
▁international	-8.11737
▁began	-8.12395
▁o	-8.13347
▁air	-8.13745
▁15	-8.13767
▁art	-8.14092
▁within	-8.14383
▁english	-8.14439
▁development	-8.14451
▁using	-8.14541
▁book	-8.14589
▁small	-8.14698
▁king	-8.14951
▁order	-8.15207
▁man	-8.15327
li	-8.15651
▁apollo	-8.16533
▁10	-8.1705
▁west	-8.17129
me	-8.17236
▁black	-8.17396
▁support	-8.17539
▁east	-8.17555
▁very	-8.18047
and	-8.18158
▁military	-8.18541
▁back	-8.18569
▁day	-8.18909
▁le	-8.19163
▁still	-8.19241
▁pre	-8.19258
ge	-8.19328
3	-8.19411
am	-8.19582
▁ii	-8.19823
▁(19	-8.20309
ba	-8.20327
▁great	-8.20543
▁land	-8.21063
▁6	-8.21128
▁music	-8.2138
▁20	-8.21786
▁place	-8.21953
▁family	-8.22122
▁w	-8.22388
no	-8.23303
▁university	-8.23335
ary	-8.23413
▁german	-8.23581
ti	-8.23585
▁ma	-8.24203
▁school	-8.24205
▁now	-8.24351
▁men	-8.24429
▁region	-8.24862
▁led	-8.24871
▁'	-8.24875
▁important	-8.24926
▁point	-8.25183
▁court	-8.2538
▁considered	-8.25537
▁term	-8.25543
▁army	-8.2584
▁–	-8.26368
▁various	-8.26537
▁7	-8.26572
ant	-8.26896
▁di	-8.27059
ac	-8.27069
8	-8.27112
▁french	-8.28045
▁12	-8.28232
▁said	-8.28334
os	-8.28539
▁main	-8.28792
ized	-8.29296
▁what	-8.29605
▁human	-8.29799
▁11	-8.29837
ad	-8.30225
da	-8.31074
do	-8.31125
4	-8.31358
▁dis	-8.31606
age	-8.31741
▁local	-8.31815
0	-8.32246
▁control	-8.32334
▁late	-8.32486
▁car	-8.32895
▁single	-8.33043
▁empire	-8.33153
ted	-8.333
6	-8.33396
▁make	-8.33789
▁vi	-8.33924
▁we	-8.3404
▁son	-8.34069
▁greek	-8.34301
▁last	-8.34336
▁r	-8.34591
lo	-8.34914
he	-8.34996
▁ca	-8.35017
j	-8.35441
▁union	-8.35442
ig	-8.35568
▁law	-8.35595
son	-8.35757
▁along	-8.35828
▁light	-8.36006
▁published	-8.36272
▁given	-8.36347
▁bc	-8.36371
▁political	-8.36437
▁wrote	-8.36808
ous	-8.36912
up	-8.36957
ca	-8.37153
▁largest	-8.37201
vi	-8.37255
▁production	-8.37256
▁8	-8.37425
▁similar	-8.38128
▁species	-8.38335
century	-8.38448
▁without	-8.38811
go	-8.38929
▁become	-8.38943
▁took	-8.39125
▁popular	-8.39232
▁though	-8.39446
▁anti	-8.39516
ha	-8.3952
▁t	-8.39572
▁sub	-8.39622
▁act	-8.39858
▁included	-8.39917
▁way	-8.39926
ally	-8.39951
1	-8.40086
con	-8.40185
▁h	-8.40569
▁company	-8.40722
▁developed	-8.40819
ir	-8.41069
land	-8.41144
▁less	-8.415
ci	-8.41532
▁me	-8.41745
▁mo	-8.41866
▁members	-8.41882
nd	-8.41953
▁near	-8.42044
▁game	-8.42102
▁party	-8.42302
▁president	-8.42552
▁left	-8.43508
▁countries	-8.43547
▁pro	-8.43772
▁european	-8.43974
bo	-8.44123
▁river	-8.443
▁john	-8.44486
▁service	-8.44583
▁western	-8.44782
▁14	-8.45013
▁line	-8.451
▁ancient	-8.45401
tion	-8.45503
ga	-8.45591
▁en	-8.45825
▁league	-8.45872
ies	-8.46072
▁house	-8.46323
ve	-8.4638
▁europe	-8.4656
▁battle	-8.46561
di	-8.46707
▁free	-8.46817
▁established	-8.46906
▁central	-8.47178
ish	-8.47408
pa	-8.47413
▁age	-8.47458
▁times	-8.47533
▁held	-8.47689
▁ad	-8.4773
▁result	-8.47893
▁god	-8.47914
▁came	-8.48121
▁na	-8.4824
▁thus	-8.48303
▁research	-8.48387
▁third	-8.48609
▁case	-8.4863
va	-8.48664
▁five	-8.48701
▁space	-8.48788
▁down	-8.48855
ni	-8.4892
▁named	-8.49665
▁head	-8.4973
ness	-8.49795
▁short	-8.5016
▁role	-8.50181
▁having	-8.50298
▁usually	-8.50338
▁team	-8.50869
▁body	-8.51111
▁works	-8.51196
▁island	-8.51197
▁ex	-8.51248
▁march	-8.51344
▁every	-8.51638
▁ten	-8.5182
ty	-8.52077
▁13	-8.5209
▁few	-8.52475
▁range	-8.52552
▁se	-8.52607
per	-8.52851
é	-8.53273
ium	-8.53354
▁kingdom	-8.53484
im	-8.53627
▁produced	-8.53688
▁bar	-8.53815
ting	-8.5389
ial	-8.5393
▁old	-8.54105
▁economic	-8.54264
rs	-8.5431
est	-8.54683
▁earth	-8.54833
▁original	-8.54854
▁l	-8.55009
▁father	-8.55054
pe	-8.55124
▁19	-8.55184
▁alexander	-8.55276
▁post	-8.55304
▁further	-8.55345
bi	-8.55352
▁low	-8.55367
▁written	-8.55598
▁present	-8.55649
▁total	-8.55722
▁just	-8.55799
▁force	-8.55931
▁women	-8.56195
▁york	-8.56334
▁best	-8.56819
▁side	-8.5702
ke	-8.57102
▁systems	-8.57477
▁august	-8.57497
▁built	-8.57554
if	-8.57596
▁forces	-8.57739
▁n	-8.57885
▁theory	-8.58609
▁america	-8.58698
min	-8.5893
▁9	-8.59172
▁field	-8.59201
▁word	-8.59363
ut	-8.59495
_	-8.59673
ius	-8.59696
▁white	-8.60368
▁natural	-8.60614
ts	-8.60723
▁should	-8.60816
▁center	-8.60828
▁southern	-8.60937
ex	-8.60983
▁former	-8.61365
▁groups	-8.6138
amp	-8.61425
▁described	-8.6164
▁released	-8.62032
▁sometimes	-8.62604
▁j	-8.62612
▁take	-8.62661
▁does	-8.62781
▁hand	-8.62876
▁september	-8.62908
▁social	-8.62921
men	-8.62926
iv	-8.63391
ka	-8.63495
ling	-8.63514
ie	-8.63678
▁either	-8.63742
▁season	-8.63914
au	-8.644
▁ba	-8.64434
▁process	-8.64486
em	-8.64693
▁go	-8.64863
mo	-8.65006
▁england	-8.65122
ance	-8.65557
▁ha	-8.65654
▁inter	-8.65659
▁play	-8.65757
ll	-8.65776
we	-8.66147
▁position	-8.66272
▁base	-8.66738
00	-8.66894
▁apple	-8.6693
▁san	-8.67065
▁capital	-8.67109
sa	-8.67321
▁languages	-8.67398
▁african	-8.67939
▁far	-8.67991
▁april	-8.68045
▁trade	-8.68159
▁show	-8.68192
▁addition	-8.68383
7	-8.68536
ph	-8.68798
▁royal	-8.68804
▁areas	-8.68904
op	-8.69121
▁computer	-8.69224
▁design	-8.69302
ron	-8.69409
▁january	-8.6946
day	-8.69471
▁children	-8.69606
sh	-8.69638
▁right	-8.69647
▁july	-8.69827
▁october	-8.70026
▁half	-8.7024
▁december	-8.70269
ization	-8.70535
▁games	-8.70797
lu	-8.70865
ab	-8.71108
▁ta	-8.71239
▁northern	-8.71496
▁how	-8.71743
line	-8.71783
▁council	-8.7199
ists	-8.72006
▁won	-8.72123
▁lo	-8.72243
▁standard	-8.72261
▁food	-8.72491
▁office	-8.72533
▁november	-8.72737
▁bo	-8.72762
▁throughout	-8.72857
▁received	-8.72937
▁june	-8.72956
▁surface	-8.73072
▁died	-8.73134
▁rather	-8.73157
▁created	-8.73318
▁continued	-8.73372
▁study	-8.73581
▁especially	-8.736
▁park	-8.73666
▁upon	-8.73707
▁generally	-8.74296
▁special	-8.74313
▁li	-8.74683
▁type	-8.74712
io	-8.74725
▁must	-8.75082
▁significant	-8.75155
▁open	-8.75238
▁acid	-8.75336
▁others	-8.75446
▁next	-8.75525
▁eastern	-8.7555
tra	-8.75592
ite	-8.75993
▁off	-8.76149
▁sp	-8.76177
ny	-8.76266
▁version	-8.76284
▁aircraft	-8.76317
▁data	-8.76395
▁town	-8.76705
▁six	-8.7678
one	-8.76872
"),	-8.76919
less	-8.76962
▁himself	-8.76999
▁instead	-8.7701
▁evidence	-8.77253
▁least	-8.77258
▁possible	-8.77427
▁final	-8.77545
▁ka	-8.77763
▁lower	-8.78105
▁flight	-8.78227
mi	-8.78302
▁mission	-8.78535
▁played	-8.78536
▁program	-8.78603
▁france	-8.78755
▁mid	-8.79117
▁red	-8.79199
▁making	-8.79231
▁education	-8.79377
ru	-8.7952
▁x	-8.79635
▁thought	-8.79856
ence	-8.79866
qui	-8.79871
▁am	-8.79975
gi	-8.79986
▁allow	-8.80016
ber	-8.80213
que	-8.80383
▁christian	-8.80433
▁po	-8.80485
▁mar	-8.80858
▁su	-8.80859
▁culture	-8.80908
mon	-8.80915
ho	-8.81029
tor	-8.81069
▁top	-8.81122
ot	-8.81145
pt	-8.8117
▁model	-8.8128
pi	-8.81467
▁formed	-8.81572
oc	-8.81614
ating	-8.81802
▁higher	-8.82334
ful	-8.82364
▁once	-8.82433
pro	-8.82582
▁followed	-8.82717
▁ti	-8.82846
▁together	-8.82899
9	-8.82899
▁middle	-8.82994
▁fire	-8.83042
▁pe	-8.831
▁above	-8.83362
▁market	-8.83476
ward	-8.83765
▁again	-8.83768
]	-8.83796
10	-8.83814
om	-8.83925
lin	-8.84059
▁real	-8.84078
▁almost	-8.84132
▁ni	-8.84138
▁community	-8.84292
▁function	-8.84329
▁project	-8.84516
▁seen	-8.84527
▁building	-8.84933
▁style	-8.85013
▁society	-8.85043
▁star	-8.85143
ten	-8.8523
▁average	-8.85421
▁forms	-8.8545
les	-8.85636
▁religious	-8.85799
ag	-8.8583
ns	-8.85879
▁energy	-8.86058
ā	-8.86258
,000	-8.86293
▁germany	-8.86332
▁structure	-8.86339
ster	-8.86471
▁movement	-8.86655
ap	-8.86743
▁health	-8.86759
vo	-8.86814
po	-8.87118
▁territory	-8.87137
lt	-8.87164
▁view	-8.87353
▁value	-8.87726
▁africa	-8.87814
▁change	-8.87836
▁ground	-8.87843
ger	-8.87873
▁never	-8.88028
▁ar	-8.88063
▁located	-8.88104
▁ball	-8.88117
▁person	-8.88201
▁latin	-8.88321
▁character	-8.88569
▁command	-8.88693
▁level	-8.88724
▁sent	-8.88748
▁provide	-8.88837
▁meaning	-8.88841
▁help	-8.89018
ler	-8.89169
gen	-8.89188
espite	-8.89302
▁see	-8.89369
fa	-8.89494
way	-8.8962
▁science	-8.89648
▁minister	-8.89674
▁current	-8.89795
▁influence	-8.8997
ship	-8.90014
ver	-8.90065
american	-8.90166
▁size	-8.90198
▁my	-8.90222
gu	-8.90292
▁certain	-8.90392
▁effect	-8.906
▁islands	-8.90616
der	-8.90777
▁member	-8.9091
▁album	-8.90961
▁foreign	-8.91161
▁elements	-8.91241
ah	-8.91337
▁means	-8.91495
ities	-8.91673
▁information	-8.91765
mer	-8.91925
time	-8.92089
▁good	-8.92201
▁introduced	-8.92269
mar	-8.92592
▁little	-8.92681
▁william	-8.93185
▁terms	-8.93215
▁lost	-8.93307
▁return	-8.93316
▁rights	-8.93407
▁tri	-8.93461
▁today	-8.93494
▁soviet	-8.93501
tri	-8.9354
▁official	-8.93685
▁industry	-8.93697
▁across	-8.93821
ja	-8.93836
▁site	-8.93846
▁rock	-8.9387
0,000	-8.93894
▁associated	-8.93906
▁civil	-8.93942
▁catholic	-8.93974
▁sound	-8.94002
50	-8.94133
▁fact	-8.94151
▁available	-8.94315
▁campaign	-8.95041
▁taken	-8.95066
pl	-8.95159
▁full	-8.95405
▁particular	-8.95441
▁itself	-8.95822
ard	-8.96321
▁parts	-8.9637
▁pa	-8.96372
▁lu	-8.96497
▁television	-8.96616
▁test	-8.96617
▁born	-8.96699
▁&	-8.9671
▁australia	-8.96759
▁story	-8.96859
▁gave	-8.96861
ley	-8.97071
▁traditional	-8.97109
▁economy	-8.9743
fi	-8.9757
tal	-8.97609
▁mass	-8.97681
▁days	-8.97706
▁record	-8.97877
▁crew	-8.97929
▁gas	-8.98031
ide	-8.98057
▁sun	-8.98137
▁mother	-8.98223
▁treatment	-8.98227
▁source	-8.98351
ak	-8.98355
▁remained	-8.98507
▁young	-8.98562
▁increased	-8.98685
▁india	-8.98714
▁eventually	-8.98886
▁club	-8.98948
▁museum	-8.99029
▁oil	-8.99071
▁native	-8.99434
▁referred	-8.9952
ure	-8.99711
ana	-8.99712
▁bi	-8.99738
▁basic	-8.99774
▁related	-8.99894
▁rate	-8.99989
act	-9.00068
▁met	-9.00164
ors	-9.00289
▁strong	-9.00355
ud	-9.00418
▁players	-9.00571
▁run	-9.00597
▁announced	-9.0065
▁lack	-9.00811
▁ne	-9.00912
▁host	-9.00929
▁super	-9.00936
ize	-9.00968
▁designed	-9.01092
▁cities	-9.011
▁2010	-9.01192
den	-9.01249
▁cha	-9.01365
▁books	-9.01577
▁business	-9.01636
▁emperor	-9.01825
▁reported	-9.02045
▁college	-9.0216
▁february	-9.0216
▁come	-9.02203
▁travel	-9.02264
ator	-9.02358
▁era	-9.02652
11	-9.02818
▁30	-9.02836
ner	-9.02864
▁attack	-9.02877
▁code	-9.02884
▁fall	-9.02895
▁subject	-9.02949
▁allowed	-9.03022
▁believed	-9.03133
ology	-9.03143
▁rule	-9.03229
▁berlin	-9.03286
▁ro	-9.03438
wa	-9.03604
▁particularly	-9.03604
▁services	-9.03611
her	-9.03709
▁board	-9.03709
▁cr	-9.03734
za	-9.03789
▁nature	-9.03864
tu	-9.03939
▁served	-9.03975
▁port	-9.04116
ill	-9.04347
▁whose	-9.04389
▁technology	-9.0448
▁writing	-9.04512
▁lunar	-9.04635
▁events	-9.04818
▁growth	-9.04939
▁private	-9.04999
▁sha	-9.05033
▁list	-9.05088
▁1990	-9.05123
▁individual	-9.05179
▁21	-9.05313
▁might	-9.05341
▁unit	-9.05425
▁effects	-9.05467
for	-9.05477
▁close	-9.0557
▁therefore	-9.05572
▁live	-9.05761
▁features	-9.05855
▁moved	-9.06126
▁centre	-9.06248
▁went	-9.0627
▁turn	-9.06447
▁numbers	-9.06475
▁el	-9.06501
▁video	-9.06505
(	-9.06514
hi	-9.06648
▁russian	-9.06879
▁election	-9.06919
▁complex	-9.07037
▁saw	-9.07111
▁pi	-9.07344
▁fi	-9.07556
▁interest	-9.07594
▁software	-9.07795
▁ra	-9.07833
lic	-9.07905
▁beginning	-9.07917
ning	-9.08017
▁success	-9.08095
ations	-9.08125
▁brought	-9.08387
ical	-9.08457
12	-9.08548
by	-9.08873
▁construction	-9.08882
▁media	-9.08906
ea	-9.08929
out	-9.09049
▁indian	-9.09053
▁2009	-9.09121
▁physical	-9.09244
▁able	-9.09258
▁award	-9.09315
").	-9.09349
▁increase	-9.09402
▁moon	-9.09477
▁republic	-9.09493
yl	-9.09495
▁words	-9.09535
dic	-9.09536
▁returned	-9.09587
▁ho	-9.09627
▁account	-9.09687
▁asia	-9.09709
▁federal	-9.09742
▁started	-9.0988
red	-9.10052
year	-9.10067
▁key	-9.10264
▁launch	-9.10271
▁provided	-9.10298
▁primary	-9.1043
▁direct	-9.10628
▁rest	-9.10647
▁living	-9.10695
▁billion	-9.10724
based	-9.10804
▁division	-9.10834
▁founded	-9.10893
▁climate	-9.10917
▁mark	-9.10978
▁25	-9.11014
▁text	-9.1117
▁self	-9.11234
▁required	-9.11539
▁personal	-9.11591
▁material	-9.11835
▁bank	-9.11876
▁outside	-9.11955
▁arabic	-9.1197
▁product	-9.12014
ach	-9.12036
▁cause	-9.12068
▁latter	-9.12145
ell	-9.12167
▁da	-9.12195
▁leading	-9.12259
hu	-9.12371
ring	-9.12576
pp	-9.12576
ions	-9.12598
▁you	-9.12603
▁hit	-9.12631
▁2011	-9.1267
▁london	-9.12765
▁plant	-9.12847
▁commonly	-9.12942
▁br	-9.13048
▁trans	-9.13068
▁sch	-9.13072
▁2000	-9.13218
▁larger	-9.13232
▁author	-9.13299
ya	-9.13425
▁method	-9.13451
▁added	-9.13511
▁governor	-9.13514
▁transport	-9.13563
▁fa	-9.1366
▁fe	-9.13723
▁cultural	-9.13747
▁iii	-9.13769
▁earlier	-9.13891
▁away	-9.13894
▁products	-9.13937
▁class	-9.13967
▁ja	-9.1403
20	-9.14046
▁legal	-9.1434
▁lead	-9.14519
▁performance	-9.14586
▁global	-9.14773
ki	-9.14845
▁radio	-9.14855
▁seven	-9.15023
▁reason	-9.15035
▁conditions	-9.15054
tro	-9.15071
▁remains	-9.1515
▁2007	-9.15174
q	-9.1533
▁produce	-9.15356
▁2008	-9.15431
▁consist	-9.15566
▁report	-9.15692
ct	-9.15726
▁australian	-9.15748
can	-9.15763
▁whether	-9.15793
▁typically	-9.15849
▁widely	-9.15864
com	-9.159
▁religion	-9.15921
▁action	-9.15984
▁includes	-9.15985
▁companies	-9.16002
▁cases	-9.16043
▁types	-9.1607
▁names	-9.16084
▁practice	-9.16182
ff	-9.16255
▁historical	-9.16279
▁limited	-9.16283
▁specific	-9.16318
▁coast	-9.16378
mb	-9.16421
▁studies	-9.16436
our	-9.16631
ran	-9.16632
vers	-9.16795
▁0	-9.16888
80	-9.17004
▁buddha	-9.17083
▁association	-9.17213
▁daughter	-9.17213
▁2019	-9.17231
▁caused	-9.17384
▁access	-9.1766
▁majority	-9.17774
▁highest	-9.17819
▁relationship	-9.17871
▁independent	-9.17987
▁2018	-9.18019
▁front	-9.18086
▁variety	-9.18126
istic	-9.18263
á	-9.1832
▁active	-9.18478
ene	-9.18496
&	-9.18535
side	-9.18538
▁mostly	-9.18591
▁2017	-9.18677
▁network	-9.18703
▁prevent	-9.18864
▁towards	-9.18898
▁need	-9.19022
▁chemical	-9.19023
▁commercial	-9.19086
▁stated	-9.19116
▁double	-9.19129
▁bell	-9.19215
off	-9.19232
▁stage	-9.19329
▁bur	-9.19338
ised	-9.1937
ification	-9.19426
led	-9.1948
tan	-9.19545
▁blood	-9.19563
▁[	-9.19615
▁discovered	-9.19677
mp	-9.19812
▁1970	-9.19861
▁months	-9.19991
▁soon	-9.19991
▁hard	-9.20127
▁van	-9.20251
▁2020	-9.20276
▁sold	-9.20322
▁past	-9.20406
▁below	-9.20407
▁1980	-9.20536
▁put	-9.206
▁province	-9.20625
▁likely	-9.20638
▁paul	-9.20673
let	-9.20804
30	-9.20835
ified	-9.20848
▁color	-9.20875
▁spanish	-9.20925
ung	-9.20928
▁recent	-9.20938
▁greater	-9.21004
▁song	-9.21039
25	-9.21098
▁z	-9.21246
▁com	-9.21303
▁2006	-9.21347
▁schools	-9.2146
▁hall	-9.21521
▁object	-9.21662
▁alternative	-9.2181
▁letter	-9.21903
▁originally	-9.22061
▁metal	-9.22091
▁working	-9.22219
▁prime	-9.22343
▁career	-9.22347
▁britain	-9.22414
bit	-9.22493
▁directly	-9.22671
▁always	-9.22691
=2	-9.22712
▁brother	-9.22742
▁sources	-9.2276
▁du	-9.22824
▁2016	-9.2285
▁successful	-9.2289
▁killed	-9.22916
▁tradition	-9.22961
like	-9.2309
▁multi	-9.23142
▁percent	-9.23238
ham	-9.23275
▁target	-9.23378
▁future	-9.23382
bel	-9.23389
har	-9.23437
▁district	-9.23451
▁organization	-9.23459
▁numerous	-9.23515
▁review	-9.23681
of	-9.23751
▁supported	-9.23753
▁festival	-9.23792
nt	-9.23811
▁football	-9.24073
▁whom	-9.24163
▁band	-9.24212
▁david	-9.24214
gar	-9.24356
▁separate	-9.24394
▁chief	-9.24427
▁properties	-9.2449
ko	-9.24493
ries	-9.24621
▁defined	-9.24626
▁writers	-9.24686
–19	-9.24695
ven	-9.24709
▁100	-9.24833
log	-9.24852
15	-9.24858
▁themselves	-9.24909
▁carbon	-9.24915
▁longer	-9.24934
my	-9.25044
▁institute	-9.25193
▁operations	-9.25289
▁appeared	-9.25405
▁pan	-9.25409
▁birth	-9.25449
▁troops	-9.25613
zo	-9.25632
▁24	-9.25679
=1	-9.25783
▁regions	-9.26117
▁famous	-9.26131
▁changes	-9.26178
▁proposed	-9.2622
si	-9.26232
▁complete	-9.26245
▁wife	-9.26328
▁summer	-9.26336
head	-9.26373
▁length	-9.26453
▁centuries	-9.26465
▁contract	-9.26551
ü	-9.26607
▁hu	-9.26637
end	-9.26863
▁valley	-9.269
ou	-9.26903
▁approximately	-9.27002
▁results	-9.27045
14	-9.27124
od	-9.2736
▁eight	-9.27416
old	-9.27484
ric	-9.27578
▁congress	-9.27611
▁tu	-9.27632
17	-9.27728
▁win	-9.27731
▁replaced	-9.27799
av	-9.27914
▁via	-9.27982
▁nearly	-9.28002
▁reached	-9.28084
▁canada	-9.28101
▁origin	-9.28113
▁scientific	-9.28148
▁charles	-9.28343
ative	-9.2837
▁professional	-9.28449
▁1960	-9.28496
▁speed	-9.28544
▁release	-9.2872
▁appear	-9.28735
▁cur	-9.28802
che	-9.28927
▁academy	-9.29064
▁lines	-9.29103
▁2001	-9.29126
▁multiple	-9.29211
▁smaller	-9.29334
▁regional	-9.29349
▁ju	-9.29366
▁cross	-9.29424
▁fl	-9.29425
▁plan	-9.29487
▁wide	-9.29491
rt	-9.29638
▁atari	-9.2974
▁dutch	-9.29763
du	-9.29776
▁gra	-9.29806
ise	-9.29929
▁response	-9.29946
▁better	-9.29948
qu	-9.30124
▁china	-9.30132
%	-9.30317
▁units	-9.30327
ec	-9.3038
▁problems	-9.3042
▁probably	-9.30538
▁george	-9.30538
16	-9.30564
_1	-9.30573
▁player	-9.30597
▁brazil	-9.30626
▁policy	-9.30686
ix	-9.30802
▁italy	-9.30868
▁station	-9.30985
air	-9.30988
▁prior	-9.31068
▁give	-9.31098
21	-9.31103
▁philosophy	-9.31134
▁2005	-9.31162
▁ph	-9.3118
▁ru	-9.31313
duc	-9.31327
▁grand	-9.31549
▁orbit	-9.31565
ier	-9.31578
▁literature	-9.31583
▁ocean	-9.31583
▁relatively	-9.31595
▁risk	-9.31671
▁mis	-9.31677
▁financial	-9.31733
nder	-9.31927
▁gold	-9.31972
▁classical	-9.32016
18	-9.3202
mes	-9.32039
▁baseball	-9.32043
▁har	-9.32058
ris	-9.32074
▁jews	-9.32089
▁estimated	-9.32109
ow	-9.32117
▁novel	-9.32144
▁va	-9.32163
▁animals	-9.32176
▁forest	-9.32178
▁decision	-9.32185
▁2015	-9.32214
ze	-9.32266
ae	-9.3231
▁(18	-9.32328
king	-9.32363
▁involved	-9.32549
▁love	-9.3262
tive	-9.32632
▁create	-9.32677
▁paper	-9.32704
▁table	-9.3272
▁stone	-9.32747
▁clear	-9.32762
ip	-9.32899
▁temperature	-9.3296
▁compared	-9.32976
▁rise	-9.3304
port	-9.33054
▁distance	-9.33078
▁already	-9.33094
▁performed	-9.33138
▁previous	-9.33172
ox	-9.3328
▁road	-9.33567
▁airport	-9.33582
▁gu	-9.33643
bar	-9.3367
▁mi	-9.33695
▁scholars	-9.33764
▁ever	-9.33935
▁bay	-9.33971
▁placed	-9.34067
▁nations	-9.3414
▁collection	-9.34225
▁medical	-9.34324
▁tax	-9.34362
▁arab	-9.34453
ep	-9.34563
▁male	-9.3461
▁definition	-9.34629
▁ga	-9.34636
▁highly	-9.34695
▁uses	-9.34868
▁films	-9.34901
ect	-9.34924
▁peace	-9.34931
cent	-9.34951
ob	-9.35017
▁sign	-9.35018
▁idea	-9.35028
ö	-9.35117
▁ac	-9.35153
▁em	-9.35203
▁jewish	-9.35251
▁adopted	-9.35254
car	-9.35259
▁element	-9.35263
ib	-9.35299
▁formation	-9.35383
ible	-9.35407
▁james	-9.35454
▁elected	-9.35457
▁count	-9.35472
art	-9.35504
▁russia	-9.3553
▁egypt	-9.35622
all	-9.35655
▁too	-9.35986
ang	-9.36026
▁sh	-9.36054
▁afghanistan	-9.36191
▁cor	-9.36248
▁leader	-9.36303
ice	-9.36335
▁flow	-9.36392
▁amount	-9.36473
▁approach	-9.36501
▁ko	-9.36554
▁border	-9.3661
▁ya	-9.36781
ability	-9.36826
bu	-9.36873
uc	-9.36924
▁wall	-9.36979
▁micro	-9.36979
▁2013	-9.37004
▁bio	-9.3702
gh	-9.37082
▁recorded	-9.37103
▁parliament	-9.37109
▁italian	-9.37131
▁sector	-9.37171
▁attempt	-9.37182
▁students	-9.37213
kin	-9.37308
▁agreement	-9.3731
tes	-9.37359
▁ce	-9.37536
▁points	-9.37595
▁independence	-9.37932
▁henry	-9.37934
13	-9.38006
▁whole	-9.38049
▁rome	-9.38076
▁camp	-9.38085
▁para	-9.38175
▁tour	-9.38299
40	-9.38352
▁read	-9.38366
▁street	-9.38413
▁married	-9.38413
▁appearance	-9.38432
▁call	-9.38446
▁additional	-9.3853
▁ab	-9.38545
▁training	-9.38546
▁ri	-9.38689
▁wood	-9.3882
▁start	-9.3884
▁analysis	-9.38912
▁industrial	-9.39076
▁broad	-9.39078
▁move	-9.39217
▁female	-9.39221
▁te	-9.39493
▁conflict	-9.39543
▁auto	-9.39615
▁divided	-9.39616
▁hi	-9.39668
su	-9.39817
▁poor	-9.39856
▁robert	-9.39883
▁entire	-9.39968
▁paris	-9.40048
ina	-9.4031
▁department	-9.40359
▁influenced	-9.40412
▁ban	-9.40457
=3	-9.40521
▁relations	-9.40551
ians	-9.40633
fe	-9.40827
so	-9.40838
form	-9.40921
▁par	-9.41015
▁direction	-9.41354
▁worked	-9.4138
▁defense	-9.41512
chi	-9.41518
▁pressure	-9.41524
▁annual	-9.4162
▁yet	-9.41645
▁represent	-9.41798
▁eu	-9.41807
▁letters	-9.41827
▁medicine	-9.41844
▁question	-9.41856
cre	-9.41864
▁cost	-9.41958
▁visit	-9.41989
sis	-9.42199
▁characters	-9.42268
▁initial	-9.42286
▁cell	-9.42353
▁sense	-9.42412
▁depend	-9.42418
▁records	-9.42451
des	-9.42484
);	-9.42559
▁derived	-9.42562
▁settlement	-9.42687
▁athens	-9.4269
▁shah	-9.42745
▁authority	-9.42746
ile	-9.42765
▁problem	-9.42812
▁tend	-9.42986
gr	-9.4304
ging	-9.43092
▁constant	-9.4315
▁refer	-9.43233
ria	-9.43233
▁temple	-9.43244
ai	-9.43518
▁reign	-9.43522
▁simple	-9.43523
▁night	-9.43606
▁issue	-9.43617
▁machine	-9.43652
▁enough	-9.43699
▁internal	-9.43717
▁face	-9.43725
▁upper	-9.43829
▁constitution	-9.43909
▁suggested	-9.43914
▁winter	-9.4392
▁pair	-9.43942
len	-9.44006
▁marriage	-9.44029
=	-9.44085
▁claimed	-9.44138
han	-9.44142
▁sc	-9.44193
▁chinese	-9.44199
res	-9.44255
▁op	-9.44285
▁mu	-9.44331
▁green	-9.44344
▁navy	-9.4437
▁director	-9.44502
▁churches	-9.44512
▁shown	-9.44526
▁regard	-9.44552
▁event	-9.44578
▁queen	-9.44715
▁mainly	-9.44752
▁bra	-9.44765
▁bu	-9.4477
gue	-9.44846
tt	-9.44907
▁sal	-9.44998
70	-9.45015
ov	-9.4505
▁believe	-9.45125
▁finally	-9.45164
▁represented	-9.45241
▁(20	-9.4526
▁date	-9.45312
▁potential	-9.45342
▁true	-9.45401
▁initially	-9.4546
comp	-9.45534
▁security	-9.4557
nes	-9.45575
▁foundation	-9.45696
▁impact	-9.45756
▁imp	-9.45817
▁abd	-9.45905
▁location	-9.45972
▁activity	-9.45973
▁blue	-9.4606
▁administration	-9.46089
zi	-9.46148
▁find	-9.4616
▁lincoln	-9.46263
▁spread	-9.46267
ub	-9.46285
90	-9.46291
ned	-9.46413
▁objects	-9.46432
▁examples	-9.46443
▁kind	-9.46554
▁experience	-9.46602
▁custom	-9.46611
▁basis	-9.46634
▁laws	-9.46667
ft	-9.46773
▁status	-9.46799
dra	-9.4685
▁cells	-9.46855
▁contains	-9.46972
▁display	-9.46983
ey	-9.46985
▁fish	-9.4702
▁artists	-9.47062
▁jo	-9.4711
▁our	-9.47116
▁nor	-9.47196
▁treaty	-9.47227
▁heart	-9.47253
▁brain	-9.47344
dy	-9.47433
▁cannot	-9.47576
phy	-9.47653
▁methods	-9.47677
ean	-9.47686
ves	-9.47836
▁carried	-9.4784
▁completed	-9.47889
▁smith	-9.47919
▁electron	-9.48099
▁appointed	-9.48125
▁concept	-9.48165
▁done	-9.48168
▁ge	-9.48277
well	-9.48281
ious	-9.48299
▁revolution	-9.48345
▁speech	-9.4837
▁japanese	-9.48469
▁california	-9.48548
▁bill	-9.48561
▁focus	-9.48573
don	-9.48624
▁americans	-9.48761
▁reaction	-9.48784
▁appears	-9.48951
aw	-9.49085
lan	-9.49123
ological	-9.49221
▁assembly	-9.49261
▁egyptian	-9.49266
▁primarily	-9.4944
lia	-9.49469
br	-9.49491
▁race	-9.49505
see	-9.49509
▁dr	-9.49522
people	-9.49573
▁levels	-9.49576
▁$	-9.49602
▁presence	-9.49622
▁opened	-9.49626
99	-9.49682
▁consider	-9.49774
▁fourth	-9.49821
▁saint	-9.49859
ites	-9.4991
+	-9.49938
cha	-9.4994
▁sexual	-9.50045
27	-9.50049
▁aim	-9.5006
▁semi	-9.50141
▁resistance	-9.50166
▁buildings	-9.50183
ev	-9.50243
47	-9.5031
▁get	-9.50454
▁county	-9.50556
▁combined	-9.50602
bra	-9.50641
▁expansion	-9.50704
▁operation	-9.50722
▁()	-9.50861
▁changed	-9.50875
bert	-9.50938
▁=	-9.5099
í	-9.51004
85	-9.51106
▁forced	-9.51132
86	-9.51178
tur	-9.51299
▁block	-9.51316
ular	-9.51318
▁23	-9.5139
▁nine	-9.51427
▁contrast	-9.51433
▁nation	-9.51457
▁prince	-9.5149
▁weight	-9.51498
▁alcohol	-9.51607
▁richard	-9.51629
gan	-9.51699
kh	-9.51721
▁oxygen	-9.518
▁ram	-9.51801
▁launched	-9.51845
▁needed	-9.51967
▁notable	-9.51986
▁victory	-9.52022
▁signed	-9.52041
▁passed	-9.52076
▁gun	-9.52078
60	-9.5212
▁1,	-9.52137
▁50	-9.5214
▁iron	-9.52146
▁azerbaijan	-9.52159
▁joined	-9.52163
▁christ	-9.52169
ren	-9.52171
tr	-9.52259
▁bridge	-9.52317
▁failed	-9.52344
▁poly	-9.52449
▁prominent	-9.52537
▁spain	-9.526
▁lord	-9.52654
▁exist	-9.52692
▁albert	-9.52715
▁deal	-9.5283
▁accepted	-9.52864
▁exchange	-9.52908
▁course	-9.52932
▁ethnic	-9.5305
▁pen	-9.53074
ari	-9.53098
▁hydrogen	-9.53101
▁issues	-9.53103
▁sin	-9.53119
▁peter	-9.53124
▁hours	-9.53138
▁texts	-9.53204
▁compounds	-9.5325
▁child	-9.53273
▁mean	-9.5328
▁taking	-9.53347
▁environment	-9.53374
▁charge	-9.53427
gon	-9.53466
▁property	-9.53478
▁argued	-9.53572
▁resulting	-9.53583
▁hill	-9.53605
▁regular	-9.53613
▁2004	-9.5369
▁anglican	-9.53754
▁sports	-9.53823
▁track	-9.53902
▁here	-9.53937
▁contain	-9.53945
▁appeal	-9.54029
▁im	-9.54115
▁difficult	-9.54199
75	-9.54203
▁22	-9.54322
▁care	-9.54325
▁chain	-9.54328
▁composed	-9.54405
▁ottoman	-9.54414
▁uk	-9.54421
▁decided	-9.54468
▁remain	-9.54553
▁intended	-9.54556
tel	-9.54753
▁signal	-9.54831
▁behind	-9.54972
fu	-9.55017
▁arts	-9.55134
▁ver	-9.55194
▁ship	-9.55208
which	-9.55383
▁plants	-9.55387
▁stars	-9.55389
row	-9.55498
▁40	-9.55534
▁earliest	-9.55542
▁ability	-9.55587
▁protect	-9.556
rid	-9.55614
▁ku	-9.55619
af	-9.5573
▁memory	-9.55743
▁observed	-9.55794
▁fu	-9.55886
cy	-9.55899
▁27	-9.56112
▁drive	-9.56135
▁motor	-9.56163
fer	-9.56182
▁matter	-9.56206
▁26	-9.56295
▁knowledge	-9.56308
▁washington	-9.56308
ides	-9.56433
cus	-9.56434
ids	-9.56442
▁musical	-9.56479
▁content	-9.56502
▁theatre	-9.56536
▁previously	-9.56594
▁shows	-9.56596
24	-9.56653
▁armenia	-9.56682
▁reduced	-9.5677
▁share	-9.56818
▁commander	-9.56826
▁thomas	-9.56886
▁avoid	-9.56889
▁architecture	-9.56894
▁hold	-9.56913
rd	-9.56922
▁noted	-9.56951
ping	-9.56968
war	-9.56969
tin	-9.57014
ji	-9.57018
▁magazine	-9.57079
▁urban	-9.5728
mat	-9.57286
▁horse	-9.57321
▁cast	-9.57321
▁money	-9.57344
▁heavy	-9.57468
▁feature	-9.57483
▁bosnia	-9.57493
▁heat	-9.57514
▁2003	-9.57516
ture	-9.57647
▁cut	-9.57697
▁committee	-9.58052
▁alexandria	-9.58075
over	-9.58081
▁becoming	-9.58138
ng	-9.58195
▁identified	-9.58201
▁claim	-9.58219
▁square	-9.58251
▁organ	-9.58264
▁places	-9.58313
▁audi	-9.58328
▁bring	-9.58342
▁occur	-9.58363
oid	-9.58422
▁image	-9.58433
▁28	-9.58454
arian	-9.58488
with	-9.58489
▁defeat	-9.5852
▁defeated	-9.58565
▁albanian	-9.58619
▁landing	-9.58647
▁advance	-9.58664
▁1950	-9.58677
field	-9.58692
val	-9.58699
nic	-9.58701
▁equal	-9.58735
▁break	-9.58756
▁degree	-9.58896
wi	-9.58953
▁disease	-9.59001
▁imperial	-9.59034
▁develop	-9.5906
▁positive	-9.59174
22	-9.59178
▁section	-9.59245
▁bishop	-9.5934
▁pay	-9.59341
▁mono	-9.59359
ez	-9.59394
▁functions	-9.59483
19	-9.59517
▁convention	-9.59536
▁rich	-9.59546
▁wa	-9.59558
az	-9.59582
▁combination	-9.59628
▁voice	-9.59653
▁johnson	-9.59709
rk	-9.59733
▁don	-9.59804
▁ur	-9.59811
▁lived	-9.5986
▁1999	-9.60048
▁poem	-9.60065
▁turned	-9.60116
88	-9.60202
ica	-9.60223
state	-9.60255
▁scale	-9.60277
▁wind	-9.60373
▁applied	-9.60426
▁cave	-9.60431
▁atlantic	-9.60463
dr	-9.60565
▁loss	-9.60619
▁japan	-9.6063
▁railway	-9.60635
▁animal	-9.60648
▁minor	-9.60657
▁ships	-9.60698
▁materials	-9.60729
▁establish	-9.608
▁contemporary	-9.60827
▁effective	-9.60853
▁2002	-9.60912
tus	-9.60973
rus	-9.60974
▁mode	-9.60989
ue	-9.6101
▁script	-9.61016
▁match	-9.61057
28	-9.61198
▁deep	-9.61378
▁alaska	-9.61434
▁bulgaria	-9.61444
▁techniques	-9.6147
▁rules	-9.61504
▁offered	-9.61583
66	-9.6162
▁instance	-9.61638
mu	-9.61711
▁cup	-9.61734
▁cy	-9.6183
▁responsible	-9.61837
▁abu	-9.61871
▁alpha	-9.61895
▁soldiers	-9.61996
▁activities	-9.62041
cc	-9.6205
use	-9.62111
ban	-9.62116
▁address	-9.62139
▁louis	-9.6222
▁bear	-9.6237
▁reduce	-9.62372
▁armed	-9.62373
▁volume	-9.62381
▁press	-9.62509
▁receive	-9.6252
lon	-9.62535
▁qua	-9.62535
▁dance	-9.62545
▁...	-9.62547
▁dead	-9.62558
77	-9.62607
▁increasing	-9.6263
▁respectively	-9.62709
med	-9.62731
most	-9.62793
ps	-9.62838
gn	-9.6284
cl	-9.62856
▁module	-9.62859
▁principal	-9.62861
▁ben	-9.62952
32	-9.62963
ug	-9.62969
▁hospital	-9.63063
55	-9.63079
▁declared	-9.63125
36	-9.63166
fl	-9.63218
▁labor	-9.63267
▁woman	-9.63286
▁2022	-9.63297
not	-9.63312
▁goal	-9.63328
▁vehicle	-9.63383
▁ring	-9.63486
▁ibn	-9.63502
nce	-9.63547
▁islamic	-9.63572
▁historian	-9.63598
burg	-9.6364
▁teaching	-9.63662
▁choice	-9.63687
graph	-9.63739
▁spent	-9.63802
mit	-9.63809
sur	-9.63849
ery	-9.63865
tz	-9.63908
▁staff	-9.63913
49	-9.63919
▁sum	-9.63933
▁remaining	-9.64018
ld	-9.64105
▁older	-9.64229
▁muslim	-9.64243
▁pass	-9.64246
▁know	-9.64392
▁families	-9.64512
▁moral	-9.64618
▁wi	-9.64682
ax	-9.64765
▁mer	-9.64846
▁condition	-9.64887
rr	-9.64894
▁honor	-9.64907
▁reference	-9.64909
▁situation	-9.6493
▁atlanta	-9.64931
▁reform	-9.64984
pho	-9.65003
par	-9.65024
▁symbol	-9.6504
ola	-9.65092
▁vote	-9.65139
ay	-9.65191
▁currently	-9.65203
▁protection	-9.65227
▁zone	-9.6528
▁relative	-9.65343
▁1998	-9.65366
▁pal	-9.655
▁magnitude	-9.65561
35	-9.65637
cur	-9.65649
▁advanced	-9.65656
aries	-9.65663
bri	-9.65674
37	-9.6585
▁secret	-9.65957
▁values	-9.65988
▁tra	-9.66004
▁exception	-9.66123
74	-9.66177
▁step	-9.66208
▁communities	-9.66407
▁except	-9.66428
▁angle	-9.66439
▁portuguese	-9.66512
▁makes	-9.66612
ama	-9.6664
▁individuals	-9.66705
▁ideas	-9.66801
▁stra	-9.66886
▁ven	-9.66991
▁generation	-9.67005
▁resulted	-9.67025
cycl	-9.6705
▁critical	-9.67117
▁ended	-9.67188
▁fr	-9.67257
▁colonies	-9.6727
29	-9.67272
▁phase	-9.67278
▁palace	-9.67278
]]	-9.67295
▁ke	-9.67309
▁min	-9.67417
van	-9.67459
▁competition	-9.67476
▁figure	-9.67522
▁nasa	-9.67555
01	-9.67564
▁figures	-9.67644
▁police	-9.67691
▁spring	-9.6772
▁mc	-9.67722
▁agriculture	-9.67906
▁occurred	-9.67919
▁gain	-9.67934
▁entered	-9.68024
▁crown	-9.68054
dor	-9.6812
▁mentioned	-9.68214
berg	-9.68218
▁stand	-9.68234
izing	-9.68243
▁lake	-9.68247
bb	-9.68248
▁shape	-9.68316
▁amsterdam	-9.68338
▁clinton	-9.68339
64	-9.68349
meter	-9.6846
▁app	-9.68553
▁supreme	-9.68555
cri	-9.68622
ese	-9.68646
▁atoms	-9.68717
▁formal	-9.68744
▁subsequently	-9.68764
ros	-9.68772
▁beyond	-9.68773
▁freedom	-9.68794
▁comment	-9.68814
▁motion	-9.6885
▁alberta	-9.68853
▁consists	-9.68886
▁negative	-9.68913
79	-9.68913
▁ice	-9.68915
▁atom	-9.68919
▁round	-9.6895
-19	-9.68962
▁stop	-9.69027
▁master	-9.69059
set	-9.69154
▁opposition	-9.69212
rop	-9.69311
89	-9.69344
▁commission	-9.69381
▁alphabet	-9.69429
▁persian	-9.69522
▁acids	-9.6957
▁concentration	-9.69647
▁contact	-9.69647
▁greece	-9.69647
▁operating	-9.69666
▁room	-9.69713
97	-9.69716
▁applications	-9.69812
▁ty	-9.69846
▁bad	-9.69858
▁deaths	-9.6987
▁demand	-9.70015
▁judge	-9.70088
▁existence	-9.70105
▁|	-9.70128
▁programs	-9.70151
26	-9.70166
▁extended	-9.70173
▁publication	-9.7023
▁grant	-9.70237
ash	-9.70292
▁cal	-9.70321
dis	-9.70345
▁2014	-9.704
▁augustine	-9.70411
42	-9.70435
▁suggest	-9.7044
▁territories	-9.70529
▁austin	-9.70531
▁distinct	-9.70612
54	-9.70627
▁provides	-9.7066
▁mountains	-9.70686
gt	-9.70732
gg	-9.70745
▁botswana	-9.70751
▁distribution	-9.70751
book	-9.70786
vis	-9.70831
▁administrative	-9.70973
▁teams	-9.70982
▁sister	-9.71015
▁benefit	-9.71196
▁variable	-9.71196
83	-9.71205
39	-9.71212
▁claims	-9.71291
▁armenian	-9.71432
▁price	-9.71435
▁village	-9.71446
▁weak	-9.71458
|19	-9.71473
pan	-9.71536
rate	-9.71559
▁engine	-9.71597
▁pope	-9.71599
▁domestic	-9.71643
▁farm	-9.71679
▁quickly	-9.71708
▁2012	-9.718
mate	-9.71859
▁aclu	-9.71898
▁branch	-9.71932
▁spoken	-9.71958
▁sites	-9.71981
▁den	-9.72005
95	-9.72033
▁prize	-9.7204
ju	-9.72081
▁scene	-9.72112
5%	-9.72142
▁medieval	-9.72203
▁hot	-9.72206
▁democratic	-9.72212
▁month	-9.72283
▁simply	-9.72317
▁spiritual	-9.72322
▁reach	-9.7233
▁reflect	-9.72348
▁giving	-9.7248
▁$1	-9.72495
back	-9.72499
78	-9.72542
▁necessary	-9.72543
▁string	-9.72579
▁fort	-9.72598
▁gene	-9.72601
▁songs	-9.72666
ual	-9.72696
▁perform	-9.72713
yan	-9.72727
ek	-9.72729
▁mon	-9.72758
▁whereas	-9.72779
▁brand	-9.72788
▁aid	-9.7286
▁bre	-9.72954
87	-9.73004
▁championship	-9.73007
▁debate	-9.73038
▁birds	-9.73086
▁fell	-9.73094
▁spears	-9.73125
ane	-9.73128
mann	-9.73129
▁burn	-9.73162
▁atomic	-9.73277
▁sport	-9.73316
34	-9.73414
▁bat	-9.73435
▁amazon	-9.73451
▁edition	-9.73451
▁digital	-9.73451
▁composition	-9.73454
▁1930	-9.73484
▁marked	-9.73494
56	-9.73521
▁bomb	-9.73675
▁library	-9.73679
▁refused	-9.73679
▁regarded	-9.73682
ula	-9.73693
ik	-9.73881
▁byzantine	-9.73908
▁starting	-9.73975
▁immediately	-9.73994
▁efforts	-9.73995
▁fer	-9.74007
top	-9.74009
ants	-9.74033
▁overall	-9.74035
▁sex	-9.74046
ata	-9.74076
▁os	-9.74124
jo	-9.74131
▁priest	-9.74154
▁greatest	-9.7423
je	-9.74251
ates	-9.74305
▁explain	-9.74312
▁extreme	-9.74334
▁za	-9.74351
▁serious	-9.74374
los	-9.74404
▁article	-9.7443
▁gr	-9.74441
ever	-9.745
▁agreed	-9.74522
▁executive	-9.74598
▁translation	-9.74598
pu	-9.74609
▁wave	-9.7463
▁officially	-9.74645
ford	-9.74673
▁orthodox	-9.74828
▁leaving	-9.74829
▁jackson	-9.74844
▁purpose	-9.74862
▁creation	-9.74875
▁asked	-9.74894
▁containing	-9.74979
▁fo	-9.75084
72	-9.75168
ray	-9.75207
▁parties	-9.75257
▁plays	-9.75295
▁cover	-9.753
now	-9.75312
33	-9.75313
ore	-9.75416
oli	-9.7543
▁neo	-9.75528
▁management	-9.75536
▁pra	-9.75582
▁hero	-9.75714
▁continue	-9.75748
▁dynasty	-9.75758
▁sequence	-9.75758
▁quarter	-9.75758
▁solid	-9.75762
▁context	-9.75769
▁1996	-9.75775
▁presented	-9.75836
▁bible	-9.75841
▁device	-9.7587
▁told	-9.75875
▁actually	-9.75909
▁joint	-9.75969
▁description	-9.75991
hal	-9.76055
▁bond	-9.76089
▁frequently	-9.76094
▁ray	-9.7621
▁opposed	-9.76226
▁connect	-9.76228
▁stock	-9.76237
▁oldest	-9.76294
▁route	-9.76392
92	-9.76418
84	-9.76443
";	-9.76489
▁mountain	-9.76506
but	-9.76675
uk	-9.76696
▁martin	-9.7675
ney	-9.76755
rac	-9.76776
arch	-9.76823
▁ali	-9.7684
▁ordered	-9.76926
▁bus	-9.7693
▁agricultural	-9.76931
▁spacecraft	-9.76938
▁subsequent	-9.7694
▁dy	-9.76963
▁bce	-9.76966
▁glass	-9.76989
▁models	-9.77007
▁hop	-9.77041
▁counter	-9.77053
▁dig	-9.77073
▁principle	-9.77087
bul	-9.77148
▁equipment	-9.77168
▁attacks	-9.77183
▁tell	-9.77235
right	-9.77299
▁fully	-9.77354
23	-9.77358
▁opera	-9.77396
▁inside	-9.77511
▁cl	-9.77571
▁studio	-9.77642
▁sta	-9.77661
▁walk	-9.77668
▁maintain	-9.77821
tre	-9.77824
▁[[	-9.77886
▁importance	-9.7789
▁growing	-9.78019
non	-9.7809
▁expressed	-9.78098
▁faith	-9.78105
▁planned	-9.78133
▁leaders	-9.78134
▁unique	-9.78141
ches	-9.78156
▁steel	-9.78156
▁income	-9.78168
bal	-9.78178
▁mind	-9.78199
▁shell	-9.78389
ably	-9.7847
work	-9.78477
▁refers	-9.78631
▁showed	-9.78707
▁devices	-9.78723
▁meeting	-9.78731
▁expected	-9.78845
pre	-9.78848
▁decades	-9.78863
▁big	-9.7894
xi	-9.78944
▁setting	-9.78953
▁nuclear	-9.78977
▁producer	-9.78991
low	-9.78994
sk	-9.7912
cal	-9.79147
▁portion	-9.79163
▁vehicles	-9.79187
▁michael	-9.79321
law	-9.79393
uff	-9.79434
iz	-9.79447
ulat	-9.7949
▁nu	-9.79491
▁brussels	-9.79563
▁si	-9.7966
93	-9.7972
tar	-9.7977
▁sand	-9.79772
▁conference	-9.79806
▁channel	-9.79806
▁ion	-9.79848
onic	-9.79866
▁week	-9.79877
71	-9.79928
nal	-9.80043
isation	-9.8005
▁31	-9.80058
▁sur	-9.80066
▁drug	-9.8008
bs	-9.80082
born	-9.80101
▁fuel	-9.80118
▁lm	-9.80163
▁foot	-9.80202
41	-9.80245
▁advantage	-9.80293
▁aristotle	-9.80293
▁alfred	-9.80293
▁solution	-9.80321
▁mel	-9.80322
▁things	-9.80386
▁holy	-9.80401
▁structures	-9.80415
such	-9.80443
81	-9.8048
▁allows	-9.80504
▁scotland	-9.80538
▁transfer	-9.80564
ode	-9.80583
▁scientists	-9.80639
▁elections	-9.80774
▁aramaic	-9.80783
▁picture	-9.80783
38	-9.80834
ino	-9.80868
cle	-9.80871
▁republican	-9.80899
new	-9.80919
▁helped	-9.81087
ration	-9.81114
▁unlike	-9.81146
▁resources	-9.81168
°	-9.81202
▁supply	-9.81275
▁plate	-9.81315
▁sir	-9.81383
▁fear	-9.81386
▁successor	-9.81387
▁say	-9.81408
▁friend	-9.81411
▁path	-9.81476
▁han	-9.81478
▁fund	-9.81487
▁electronic	-9.81517
▁powerful	-9.81611
▁afghan	-9.81611
ef	-9.81659
▁completely	-9.8167
▁keep	-9.81676
house	-9.81744
▁sar	-9.8176
▁baptist	-9.81769
▁alliance	-9.8177
73	-9.81788
eo	-9.81802
▁connected	-9.81819
▁humans	-9.81846
▁fine	-9.81851
sha	-9.81922
ire	-9.81955
▁threat	-9.81981
▁write	-9.81993
▁politics	-9.82017
▁census	-9.82017
52	-9.82065
▁arrived	-9.82098
▁difference	-9.8212
til	-9.82154
▁awards	-9.82218
▁screen	-9.82268
▁solar	-9.82333
▁cold	-9.82373
▁instruments	-9.82383
▁significantly	-9.82431
▁institutions	-9.82488
▁experiment	-9.825
del	-9.82567
▁airlines	-9.82583
68	-9.82636
▁equivalent	-9.82662
▁aberdeen	-9.82765
▁grew	-9.82813
▁duke	-9.82815
▁chi	-9.8287
▁bor	-9.82875
bre	-9.82916
lar	-9.8303
▁1997	-9.83038
int	-9.83059
▁israel	-9.83067
▁29	-9.83096
69	-9.83103
▁soul	-9.83121
-1	-9.83191
▁1920	-9.83306
mor	-9.83374
▁removed	-9.83397
ble	-9.8341
▁differences	-9.83429
▁recently	-9.8344
cu	-9.83442
▁attention	-9.83519
▁mac	-9.83522
▁moving	-9.83523
ins	-9.83613
▁closed	-9.83638
▁layer	-9.83725
▁joseph	-9.83772
▁silver	-9.8379
▁peak	-9.83809
▁ser	-9.83867
▁card	-9.83913
▁gen	-9.83924
▁rain	-9.83951
▁mag	-9.83955
ware	-9.8396
▁salt	-9.83963
▁blues	-9.83975
31	-9.83979
▁mathematical	-9.84025
hr	-9.8403
▁defence	-9.84032
▁build	-9.84035
▁recognized	-9.84046
▁justice	-9.84059
▁attract	-9.84079
▁occurs	-9.84099
▁islam	-9.84108
65	-9.84183
▁quality	-9.84189
▁1994	-9.84297
▁andrew	-9.84303
▁directed	-9.84341
▁fleet	-9.84385
▁wanted	-9.84389
▁follow	-9.84394
▁determined	-9.8447
59	-9.84517
▁survey	-9.84533
▁universal	-9.84533
▁writer	-9.84564
▁versions	-9.84582
▁follows	-9.84616
▁cu	-9.84631
pha	-9.84672
46	-9.84729
▁surrounding	-9.84788
▁attempted	-9.84849
▁normal	-9.84867
▁expanded	-9.84883
▁buddhist	-9.84898
▁toward	-9.84951
▁cat	-9.84977
run	-9.85002
▁stories	-9.85051
▁naval	-9.85072
▁playing	-9.85146
▁mor	-9.85211
ker	-9.85227
▁aluminium	-9.853
▁awarded	-9.85395
▁seat	-9.85453
era	-9.85474
91	-9.85488
▁tree	-9.85513
▁artist	-9.85541
▁amiga	-9.85559
▁combat	-9.85567
▁describe	-9.85749
▁bal	-9.85778
▁relation	-9.85783
▁sought	-9.85815
▁liberal	-9.85817
▁saying	-9.85824
▁computers	-9.8585
dd	-9.8593
53	-9.85972
▁citizens	-9.85994
ok	-9.86
-2	-9.86002
▁visual	-9.86075
▁meant	-9.8611
▁slow	-9.86154
sta	-9.86218
▁y	-9.86227
cit	-9.86287
▁shot	-9.86289
▁manuscript	-9.86333
▁crime	-9.86336
▁colour	-9.8634
43	-9.8636
ville	-9.86365
▁ideal	-9.86391
mic	-9.86397
▁says	-9.86571
▁closely	-9.86583
▁kept	-9.86612
▁captured	-9.8664
▁gar	-9.86671
▁absolute	-9.86683
▁gained	-9.86694
▁factors	-9.86706
▁rare	-9.86723
known	-9.86798
cul	-9.86831
▁join	-9.86854
▁winning	-9.86857
▁alkali	-9.86872
▁differ	-9.87057
▁metals	-9.87079
▁belief	-9.87121
press	-9.87222
▁technical	-9.87244
▁proved	-9.87272
▁let	-9.87288
▁hy	-9.87307
vel	-9.87311
▁tank	-9.87316
09	-9.87317
▁electric	-9.87385
▁tried	-9.87388
▁1991	-9.87395
▁serve	-9.87462
98	-9.87472
▁featured	-9.87498
▁astronauts	-9.87521
fin	-9.87557
–20	-9.87585
▁ireland	-9.87639
$	-9.87648
▁worldwide	-9.87657
▁unknown	-9.87694
▁cycle	-9.87695
▁require	-9.87871
▁inspired	-9.87901
▁workers	-9.87979
anti	-9.88034
45	-9.88064
▁favor	-9.8809
▁wild	-9.88116
▁respect	-9.88129
comm	-9.88153
▁perhaps	-9.88165
▁tro	-9.88172
▁axiom	-9.88178
▁minutes	-9.88218
▁myth	-9.88358
▁gre	-9.88379
▁studied	-9.8843
▁ammonia	-9.8843
▁split	-9.88443
▁athena	-9.88448
▁broadcast	-9.88467
ara	-9.88522
96	-9.88622
▁fair	-9.88686
▁error	-9.88695
▁arch	-9.8877
▁affect	-9.88858
▁disc	-9.88871
▁weeks	-9.88958
▁universe	-9.88961
ani	-9.8904
▁acts	-9.89048
dom	-9.89081
▁notably	-9.89157
▁dedicated	-9.89228
▁takes	-9.89265
▁succession	-9.89381
tical	-9.89408
▁add	-9.89449
▁parallel	-9.89495
▁statue	-9.89497
▁investment	-9.89515
▁orbital	-9.89535
_3	-9.89549
ala	-9.89574
▁pure	-9.89662
▁hebrew	-9.89763
▁running	-9.89793
▁vo	-9.89796
▁typical	-9.89805
▁interpretation	-9.89853
ert	-9.89885
▁express	-9.89926
▁guard	-9.90008
▁failure	-9.90038
▁expression	-9.90181
dia	-9.90215
▁fighting	-9.90247
▁leg	-9.90272
pri	-9.90357
▁plane	-9.90378
▁raised	-9.90465
▁mechanism	-9.90572
▁damage	-9.90589
▁tru	-9.90631
▁suggests	-9.90658
▁champion	-9.90829
din	-9.90834
▁einstein	-9.90843
02	-9.90851
▁firm	-9.90855
▁analog	-9.90858
▁score	-9.90866
ram	-9.90886
48	-9.90908
▁powers	-9.90918
▁assyrian	-9.90982
▁student	-9.90982
▁possibly	-9.91013
▁train	-9.9103
▁secondary	-9.91077
▁soil	-9.9109
05	-9.91118
qaeda	-9.9112
▁pop	-9.91128
▁etc	-9.91228
▁tur	-9.9126
▁je	-9.91261
▁sen	-9.91309
▁cla	-9.91363
mark	-9.91395
rite	-9.91404
▁specifically	-9.91435
count	-9.9145
▁austrian	-9.91524
water	-9.91543
▁missile	-9.91553
▁recording	-9.91559
94	-9.91585
istan	-9.91625
▁conservative	-9.9166
▁alabama	-9.9166
▁texas	-9.9166
ini	-9.91683
▁increasingly	-9.9169
▁+	-9.91724
▁effort	-9.91829
▁gives	-9.91871
▁agent	-9.91871
▁comes	-9.91923
▁behavior	-9.91934
▁audience	-9.91955
mus	-9.91963
oon	-9.92039
▁cap	-9.92041
▁sales	-9.92158
▁fri	-9.92187
▁notes	-9.92203
▁influential	-9.92209
▁bronx	-9.92209
▁1995	-9.92233
▁khan	-9.92348
▁canadian	-9.924
▁del	-9.92419
sch	-9.9244
ement	-9.92447
▁murder	-9.92452
▁ashoka	-9.92486
are	-9.9249
▁interview	-9.92494
▁throne	-9.92495
▁austria	-9.92566
ken	-9.92588
part	-9.92591
▁writings	-9.92657
cious	-9.92669
▁capacity	-9.92745
▁bodies	-9.92761
04	-9.92766
fo	-9.92768
ath	-9.92847
ada	-9.92938
▁arkansas	-9.93038
▁favour	-9.93038
▁tribes	-9.93061
▁fight	-9.93118
▁sim	-9.93141
▁suit	-9.9329
▁belgium	-9.93315
▁indigenous	-9.93315
tis	-9.93317
ory	-9.93332
▁extensive	-9.93366
▁tv	-9.93408
amine	-9.93415
ami	-9.93435
pla	-9.93442
▁ruled	-9.93482
▁marine	-9.93514
▁opening	-9.93545
!	-9.93586
▁pakistan	-9.93594
zer	-9.93601
▁mixed	-9.93612
▁basin	-9.93617
▁dog	-9.93706
ball	-9.93731
▁environmental	-9.93732
63	-9.93743
ich	-9.93803
▁destroyed	-9.93814
lam	-9.93851
▁ch	-9.93864
▁folk	-9.93873
▁corporation	-9.93873
61	-9.93875
▁abortion	-9.93898
▁val	-9.93976
▁aphrodite	-9.94008
▁ran	-9.94026
▁store	-9.94066
▁conducted	-9.94086
▁expedition	-9.94153
▁invasion	-9.94154
▁brown	-9.94158
▁ways	-9.94167
▁shortly	-9.94269
▁herzegovina	-9.94434
▁literary	-9.94434
▁anchor	-9.94441
▁switch	-9.94447
▁1992	-9.94458
▁causes	-9.94557
▁plain	-9.94619
▁issued	-9.94634
▁alone	-9.94638
▁movie	-9.94719
▁1993	-9.94738
▁visited	-9.94742
point	-9.94745
▁gdp	-9.94746
▁discovery	-9.94787
arm	-9.9482
▁obtained	-9.9484
▁colonial	-9.94885
▁est	-9.94915
▁hindu	-9.94967
tell	-9.94974
▁labour	-9.94999
▁descent	-9.95013
▁iv	-9.95066
57	-9.95098
bil	-9.95137
bl	-9.95247
mm	-9.9526
▁genetic	-9.95339
board	-9.95345
▁traditionally	-9.95368
▁limit	-9.9544
from	-9.95477
bro	-9.95536
▁shi	-9.95563
▁artillery	-9.95566
▁assault	-9.95566
▁netherlands	-9.95566
▁search	-9.95593
▁send	-9.95622
▁abba	-9.95653
▁settled	-9.95661
▁format	-9.95685
▁mal	-9.95694
▁des	-9.95719
▁algebraic	-9.95826
▁pri	-9.95849
▁something	-9.95869
▁skin	-9.95872
▁stable	-9.95881
▁leave	-9.95883
▁covered	-9.95953
sp	-9.96044
pos	-9.96048
▁standards	-9.96081
▁historically	-9.9609
▁output	-9.96134
▁mathematics	-9.96136
▁dispute	-9.96137
hor	-9.96141
lav	-9.96152
▁skill	-9.96155
ctor	-9.96171
▁colony	-9.96232
vin	-9.96402
▁(1	-9.96414
wo	-9.96419
▁introduction	-9.9643
▁franklin	-9.96436
▁criticism	-9.96451
▁core	-9.96456
▁spin	-9.96471
▁ki	-9.9655
▁christianity	-9.96582
07	-9.96649
▁golden	-9.96669
ita	-9.96698
▁anxiety	-9.9671
▁doctrine	-9.9671
▁message	-9.96711
▁compris	-9.96711
term	-9.96714
▁columbia	-9.96725
▁pin	-9.96726
▁slavery	-9.96748
▁reading	-9.96753
▁che	-9.96756
▁protestant	-9.96764
▁destroy	-9.96771
▁note	-9.96777
▁cancer	-9.96779
▁intelligence	-9.96796
▁converted	-9.96821
lie	-9.96838
▁60	-9.96899
▁spirit	-9.96927
▁artemis	-9.96999
▁challenge	-9.97001
▁leadership	-9.97023
▁stress	-9.97027
▁correct	-9.97053
▁application	-9.97071
▁plea	-9.97145
▁hum	-9.97156
yn	-9.97239
▁adelaide	-9.97287
net	-9.97316
▁felt	-9.97322
▁strength	-9.97443
quite	-9.97455
▁traditions	-9.97463
▁paid	-9.97468
▁permanent	-9.97577
hood	-9.9758
▁meet	-9.97616
▁senate	-9.97626
▁emb	-9.97636
▁entirely	-9.97691
▁slaves	-9.97698
▁partner	-9.97711
▁fellow	-9.97729
▁shared	-9.97747
▁boron	-9.9775
▁dry	-9.97768
▁useful	-9.97782
▁succeeded	-9.97795
▁similarly	-9.97825
▁progress	-9.97832
ç	-9.97868
▁taught	-9.97879
67	-9.97908
other	-9.97993
▁developing	-9.9802
dal	-9.98064
▁yield	-9.9816
type	-9.98164
▁sultan	-9.98165
▁accept	-9.98174
ida	-9.98189
eus	-9.98212
▁conduct	-9.98234
▁positions	-9.98263
▁pitch	-9.98273
matic	-9.98273
▁ill	-9.98308
tric	-9.98322
▁popularity	-9.98405
▁brunei	-9.98453
▁turkey	-9.98455
▁professor	-9.98466
light	-9.98469
|20	-9.98504
▁rose	-9.98592
03	-9.98639
hen	-9.98682
▁user	-9.98699
▁easily	-9.98745
▁external	-9.98745
▁concert	-9.98747
▁link	-9.98761
▁authors	-9.98776
▁slightly	-9.98802
▁rec	-9.98851
▁teacher	-9.98933
wood	-9.98936
▁academic	-9.98949
rat	-9.99026
▁mediterranean	-9.99039
▁revenue	-9.99039
▁flu	-9.99067
▁2.	-9.991
▁singer	-9.99108
44	-9.99148
▁react	-9.99275
▁chart	-9.99288
▁2021	-9.99295
▁disraeli	-9.99334
▁fifth	-9.99335
▁ajax	-9.99337
▁southeast	-9.9937
▁bound	-9.99411
▁think	-9.99449
▁births	-9.99458
▁instrument	-9.9946
▁gal	-9.9948
ans	-9.99542
▁fiction	-9.99599
▁representation	-9.99606
▁background	-9.99638
lock	-9.99659
▁strip	-9.99704
fr	-9.99716
▁electro	-9.99748
▁safe	-9.99819
▁km	-9.99824
06	-9.99882
pped	-9.99916
▁creating	-9.99937
08	-9.9996
▁mobile	-10.0015
_2	-10.0018
▁connection	-10.0019
▁desert	-10.0024
▁nearby	-10.0028
▁sets	-10.0031
▁friends	-10.0046
▁views	-10.005
▁tea	-10.0052
▁photograph	-10.0053
▁edward	-10.0054
▁understanding	-10.0055
▁extra	-10.0055
▁temperatures	-10.0061
mir	-10.0062
▁mat	-10.0062
▁file	-10.0079
▁ministry	-10.0082
▁providing	-10.0082
▁philip	-10.0083
▁components	-10.0089
ali	-10.009
▁defend	-10.009
▁electrons	-10.009
ency	-10.0092
uch	-10.0101
▁rejected	-10.0103
▁architect	-10.0111
▁heritage	-10.0112
▁daily	-10.0112
▁conquest	-10.0114
▁achieved	-10.0115
▁runner	-10.0116
▁amino	-10.0118
▁controlled	-10.012
▁ste	-10.0122
▁cool	-10.0131
▁got	-10.0133
▁usage	-10.0133
▁slave	-10.0135
▁sy	-10.0139
▁factor	-10.0139
▁episode	-10.0142
▁causing	-10.0143
▁1969	-10.0145
▁char	-10.0147
▁lay	-10.0147
▁plans	-10.0149
▁canon	-10.0156
▁statement	-10.0158
ku	-10.017
lay	-10.0172
▁inhabitants	-10.0173
▁fixed	-10.0173
▁map	-10.0174
wan	-10.0176
▁sciences	-10.0184
▁historians	-10.0185
▁speak	-10.019
tim	-10.019
▁fields	-10.0192
▁technique	-10.0197
▁frank	-10.0202
ó	-10.0202
▁acquired	-10.0203
▁traffic	-10.0203
▁heavily	-10.0203
▁carry	-10.0204
▁hardware	-10.0204
▁dark	-10.0206
▁epi	-10.0206
▁manager	-10.0212
▁tourism	-10.0213
▁reli	-10.0218
▁producing	-10.0227
▁liquid	-10.0233
▁pilot	-10.0234
▁linear	-10.0238
▁journal	-10.0243
▁tele	-10.0247
▁asian	-10.0253
▁consul	-10.0257
▁stadium	-10.0264
▁crystal	-10.0264
ase	-10.0273
gy	-10.028
place	-10.0289
shi	-10.0293
▁pacific	-10.0294
▁albania	-10.0298
▁programme	-10.0306
▁sky	-10.0309
▁measure	-10.0322
vent	-10.0327
▁classification	-10.0328
▁transition	-10.033
ille	-10.0333
▁statistics	-10.0335
▁reports	-10.0339
▁engineering	-10.0354
▁fundamental	-10.0356
▁jesus	-10.0356
▁garden	-10.0357
▁continuous	-10.0358
mis	-10.0363
▁belong	-10.0365
etic	-10.0366
▁programming	-10.0371
nc	-10.0372
long	-10.0383
▁improved	-10.0384
nova	-10.0386
▁dialect	-10.0387
▁concluded	-10.0398
hom	-10.04
▁trees	-10.0408
▁dialects	-10.0417
▁montgomery	-10.0418
▁platform	-10.0418
▁sufficient	-10.0418
▁husband	-10.0418
▁offer	-10.0419
▁virgin	-10.0419
▁runs	-10.042
▁net	-10.0421
room	-10.0421
▁kill	-10.0425
national	-10.0425
▁listed	-10.0433
▁critics	-10.0434
▁holding	-10.0436
▁ci	-10.0437
▁rh	-10.0438
▁existing	-10.0439
▁alter	-10.0439
▁determine	-10.0443
▁page	-10.0443
ography	-10.0444
▁users	-10.0457
▁rapid	-10.0459
▁actions	-10.0469
▁sam	-10.0471
▁rival	-10.0478
▁legacy	-10.048
▁ultimately	-10.048
▁zero	-10.0484
▁arms	-10.0487
▁employed	-10.0498
▁ratio	-10.05
hy	-10.0506
its	-10.0507
▁raid	-10.0509
▁bangladesh	-10.0511
▁cuisine	-10.0511
▁mexico	-10.0511
▁polish	-10.0511
▁trial	-10.0513
▁weapons	-10.0516
▁chemistry	-10.0517
ii	-10.0528
rom	-10.0528
▁historic	-10.0542
▁projects	-10.0545
rahman	-10.0547
▁bow	-10.0549
▁snow	-10.0549
▁2012,	-10.0559
sum	-10.056
▁contained	-10.0566
▁circuit	-10.0574
▁identify	-10.0574
▁augustus	-10.0575
▁practical	-10.0579
▁flat	-10.0583
▁granted	-10.0586
76	-10.059
▁kings	-10.06
▁seems	-10.0603
▁organizations	-10.0605
▁facilities	-10.0605
▁particles	-10.0606
▁internet	-10.0608
▁1972	-10.0608
▁plot	-10.0609
▁amd	-10.0611
▁continental	-10.0624
▁grow	-10.0628
▁improve	-10.0636
volving	-10.0637
▁describes	-10.0642
▁organized	-10.0644
▁pain	-10.0644
▁apparent	-10.0646
▁essential	-10.0646
▁chosen	-10.0648
hand	-10.0648
▁severe	-10.0648
▁highway	-10.0651
▁belarus	-10.0661
▁finding	-10.0665
▁scott	-10.067
▁1989	-10.0672
▁1940	-10.0673
51	-10.068
rant	-10.068
2"	-10.0687
▁hands	-10.0699
▁2021,	-10.0711
metric	-10.0717
▁transportation	-10.0717
cher	-10.0721
▁label	-10.0723
▁algorithm	-10.0723
▁2014,	-10.0725
▁uniform	-10.0733
▁personnel	-10.0733
▁dam	-10.0733
put	-10.0733
ising	-10.0736
▁feed	-10.0739
ura	-10.0744
▁dar	-10.0748
sign	-10.0753
called	-10.0754
▁die	-10.0758
▁advertising	-10.0765
▁nevertheless	-10.0765
▁advis	-10.0769
▁plus	-10.0771
▁warm	-10.0772
▁attempts	-10.0776
▁affected	-10.0778
▁newly	-10.0778
▁begin	-10.0779
life	-10.078
lip	-10.078
▁look	-10.0794
2.	-10.0796
▁constructed	-10.0797
gram	-10.0798
▁medium	-10.0799
▁scottish	-10.0799
▁eye	-10.0803
eu	-10.0806
▁experiments	-10.0816
▁ago	-10.0823
▁drugs	-10.0827
▁reasons	-10.0827
▁widespread	-10.0829
▁guitar	-10.083
▁towns	-10.083
▁employ	-10.0838
▁stay	-10.0841
▁mount	-10.0842
met	-10.0845
down	-10.0847
▁moment	-10.0847
▁criminal	-10.0861
▁perfect	-10.0862
uz	-10.0866
ral	-10.0871
ette	-10.0873
ré	-10.0877
ges	-10.0878
▁request	-10.0879
▁thousands	-10.0881
▁kh	-10.0882
▁vast	-10.0885
▁residents	-10.0885
▁proper	-10.0894
▁ranked	-10.0898
▁practices	-10.0898
▁carrier	-10.0902
▁assert	-10.0904
▁boy	-10.0909
ection	-10.0911
script	-10.0918
▁tar	-10.0919
▁protest	-10.0922
▁selected	-10.0923
▁arsenic	-10.0926
kan	-10.0927
▁sm	-10.0927
▁alp	-10.0931
▁cook	-10.0933
tha	-10.0935
▁broke	-10.0939
▁attributed	-10.0943
▁scholar	-10.0945
▁ainu	-10.0947
▁2,	-10.0949
inter	-10.0958
▁bermuda	-10.0959
▁muhammad	-10.0959
▁option	-10.0964
▁passage	-10.0967
cho	-10.0971
▁shift	-10.0974
▁communication	-10.0981
pol	-10.0983
▁fossil	-10.0992
▁et	-10.0992
pass	-10.0994
▁1974	-10.0995
▁32	-10.0997
▁pur	-10.1001
▁poet	-10.1002
▁adam	-10.1002
lor	-10.1014
win	-10.1016
▁cars	-10.1016
▁interior	-10.1025
▁strike	-10.1025
pic	-10.1029
▁flag	-10.103
gate	-10.1031
▁breed	-10.1036
▁classic	-10.1042
ano	-10.1052
▁occasion	-10.1056
▁frequency	-10.1058
▁incident	-10.1058
▁lands	-10.1058
power	-10.106
▁sons	-10.1061
▁define	-10.1065
▁airline	-10.1065
▁rail	-10.1068
▁beer	-10.1071
aga	-10.1073
▁tre	-10.1075
▁vary	-10.1079
▁height	-10.1085
vid	-10.1086
▁bulgarian	-10.1089
▁extent	-10.1091
▁braille	-10.1092
▁processes	-10.1094
rum	-10.1094
5,000	-10.1099
range	-10.1101
▁80	-10.1112
▁sample	-10.1118
▁hal	-10.1118
▁identity	-10.1124
82	-10.1125
▁separated	-10.1126
▁wear	-10.1127
including	-10.1127
.5%	-10.1129
▁valid	-10.1133
ically	-10.1133
▁household	-10.114
▁christians	-10.1148
▁argument	-10.1152
▁enter	-10.1153
▁learning	-10.1157
▁crowley	-10.1158
▁extension	-10.1158
▁composer	-10.1158
▁box	-10.1158
▁watch	-10.1158
▁draw	-10.1161
▁provinces	-10.1164
leg	-10.1166
ira	-10.1173
▁experienced	-10.1179
▁tan	-10.1187
▁roughly	-10.1199
ux	-10.1203
east	-10.1203
▁additionally	-10.1214
bed	-10.122
▁nazi	-10.122
who	-10.1222
▁researchers	-10.1224
▁sculpture	-10.1225
▁interface	-10.1226
▁decade	-10.1226
▁capable	-10.1229
▁philosophers	-10.1232
▁wales	-10.1238
▁ham	-10.1244
▁rates	-10.1245
mid	-10.1257
▁worship	-10.1258
▁olympic	-10.1258
▁chamber	-10.1258
aceae	-10.126
rie	-10.126
▁1968	-10.1261
▁comic	-10.1262
▁theories	-10.1263
▁warhol	-10.1264
▁noble	-10.1269
▁disk	-10.1269
sky	-10.127
dar	-10.1272
▁younger	-10.1281
▁synthesis	-10.129
▁q	-10.129
▁superior	-10.1292
▁affairs	-10.1292
▁boston	-10.1292
▁maximum	-10.1294
▁abc	-10.1296
▁speakers	-10.1297
▁maintained	-10.1297
▁promote	-10.1298
▁mary	-10.1306
▁photo	-10.1306
▁exhibit	-10.1311
nia	-10.1312
▁occupied	-10.1312
▁guns	-10.1312
▁campus	-10.1313
▁rivers	-10.1318
▁forward	-10.1322
▁twenty	-10.1326
▁hundred	-10.1326
▁secretary	-10.133
ties	-10.1334
▁founder	-10.1338
ess	-10.1338
▁angeles	-10.1342
▁attend	-10.1345
ew	-10.1345
▁violence	-10.1345
cker	-10.1351
▁craft	-10.1355
▁monument	-10.136
▁gi	-10.1361
▁(),	-10.1363
▁parents	-10.1363
▁authorities	-10.1364
▁functional	-10.1364
▁doctor	-10.1366
nu	-10.1372
1,	-10.1373
▁designated	-10.1373
▁pu	-10.1375
▁suffered	-10.1376
onia	-10.1378
▁agassi	-10.1394
▁rap	-10.1395
▁export	-10.1401
▁considerable	-10.1401
▁web	-10.1402
rm	-10.1402
▁dan	-10.1405
▁tower	-10.1408
mal	-10.1415
▁fit	-10.1417
▁strategy	-10.1428
▁fruit	-10.1428
▁copper	-10.1428
▁boat	-10.143
▁nothing	-10.1431
also	-10.1442
▁managed	-10.1442
▁alfonso	-10.1443
ude	-10.1447
▁angel	-10.1451
west	-10.1456
▁density	-10.1463
pir	-10.1463
▁contest	-10.1466
speaking	-10.147
town	-10.1473
band	-10.1474
▁institution	-10.1477
▁arm	-10.148
play	-10.1481
▁radical	-10.1481
▁print	-10.1486
chan	-10.1489
▁der	-10.149
▁gates	-10.1491
▁georgia	-10.1497
▁allied	-10.15
▁1984	-10.15
▁200	-10.1504
▁von	-10.1504
rated	-10.1504
▁rad	-10.1507
▁bluetooth	-10.1513
lit	-10.1515
char	-10.152
▁articles	-10.1526
▁confirmed	-10.1527
rous	-10.153
▁cent	-10.1532
▁vietnam	-10.1532
▁ānanda	-10.1532
▁column	-10.1532
▁burkina	-10.1532
▁revolt	-10.1532
qua	-10.1534
▁1977	-10.1535
▁patent	-10.1536
▁adult	-10.1539
ose	-10.154
▁mere	-10.154
▁online	-10.1545
▁swa	-10.1545
▁poll	-10.1548
▁going	-10.1553
▁seats	-10.156
▁gui	-10.1561
▁revealed	-10.1564
▁dominant	-10.1566
▁agency	-10.1567
▁organisation	-10.1567
▁gulf	-10.157
bla	-10.1579
▁sat	-10.1581
▁treated	-10.1586
▁hence	-10.1592
shire	-10.1595
▁chicago	-10.1601
▁ibm	-10.1602
▁1971	-10.1604
▁theorem	-10.1604
▁collect	-10.1604
▁alongside	-10.1608
▁mol	-10.1614
▁sil	-10.1617
▁electrical	-10.1619
▁greatly	-10.1622
▁prepared	-10.1632
▁confederate	-10.1636
▁neither	-10.1636
▁physics	-10.1636
▁fought	-10.1636
▁infection	-10.1636
▁officers	-10.1638
▁strongly	-10.1639
▁stations	-10.1639
▁northwest	-10.164
▁irish	-10.164
▁fast	-10.1644
▁actual	-10.1652
▁continent	-10.1654
▁spec	-10.1658
had	-10.1662
cap	-10.1665
▁universities	-10.1671
▁editor	-10.1671
▁constitute	-10.1671
tern	-10.1672
▁bass	-10.1672
▁1975	-10.1675
▁miss	-10.1675
▁mus	-10.1676
ett	-10.1676
▁treat	-10.1678
language	-10.1682
▁pattern	-10.1684
free	-10.1685
gal	-10.1689
▁constitutional	-10.1697
▁500	-10.1702
▁requires	-10.1702
oy	-10.1706
▁aol	-10.1706
▁hitchcock	-10.1707
▁schwarzenegger	-10.1707
▁investigation	-10.1707
▁opinion	-10.1707
member	-10.1707
▁array	-10.1709
▁domain	-10.1709
gor	-10.1709
▁christie	-10.171
vert	-10.1711
▁intention	-10.1711
▁medal	-10.1714
2)	-10.1714
illa	-10.1716
▁pet	-10.1724
▁branches	-10.1732
▁operated	-10.1734
▁onto	-10.174
▁crisis	-10.1742
▁infantry	-10.1744
polis	-10.1744
▁1986	-10.1746
▁youth	-10.1753
some	-10.1754
▁check	-10.1755
pen	-10.1768
▁lee	-10.1771
▁legend	-10.1776
▁circle	-10.1777
▁philosophical	-10.1777
▁contributed	-10.1778
▁kabul	-10.178
▁binary	-10.178
▁emerged	-10.1785
▁interaction	-10.1787
▁walls	-10.1792
ella	-10.1793
▁35	-10.1793
▁approved	-10.1796
▁charged	-10.1796
▁coming	-10.1801
▁tomb	-10.1802
▁deco	-10.1805
▁cho	-10.1807
pat	-10.181
pon	-10.181
▁beat	-10.1812
hra	-10.1812
▁understood	-10.1813
▁chapter	-10.1813
▁belize	-10.1814
▁gods	-10.1816
▁otherwise	-10.1818
lum	-10.1822
mos	-10.1822
▁possess	-10.1832
▁obtain	-10.1833
▁wish	-10.1834
dan	-10.1843
▁phrase	-10.1849
▁ages	-10.1849
▁algebra	-10.185
▁classes	-10.1859
▁muslims	-10.1859
▁indicate	-10.1861
cht	-10.1861
▁ensure	-10.1861
▁planet	-10.1866
▁acting	-10.1869
–18	-10.1874
stein	-10.1875
▁adapted	-10.1878
▁houses	-10.188
direct	-10.1883
▁enemy	-10.1885
▁narrow	-10.1885
▁modified	-10.1885
▁1985	-10.1888
post	-10.1892
▁sk	-10.1893
200	-10.1894
▁presidential	-10.1896
▁lowest	-10.1897
ati	-10.19
300	-10.1903
ole	-10.1904
9"	-10.1906
▁hydro	-10.1909
▁allies	-10.1912
▁want	-10.1915
▁caribbean	-10.192
▁intellectual	-10.192
▁portugal	-10.192
▁tun	-10.1925
mil	-10.1926
▁decline	-10.1928
▁arc	-10.1934
thus	-10.194
▁capture	-10.194
800	-10.1943
▁mention	-10.1943
▁victoria	-10.1954
▁carnegie	-10.1957
▁specimen	-10.1957
▁varieties	-10.1957
▁prayer	-10.1957
▁wallace	-10.1957
▁sentence	-10.1962
▁input	-10.1963
star	-10.1966
stone	-10.1972
▁couple	-10.1972
oma	-10.1978
▁task	-10.1984
▁orders	-10.1988
▁girl	-10.1993
▁orange	-10.1997
▁somewhat	-10.1998
8"	-10.2002
▁hol	-10.2004
▁supporting	-10.2005
▁processor	-10.2011
▁unable	-10.2013
3"	-10.2014
lab	-10.2021
gro	-10.2022
▁peninsula	-10.2029
▁classified	-10.2032
▁maria	-10.2034
yo	-10.2036
▁70	-10.2039
▁aspects	-10.2044
▁conventional	-10.2046
▁resolution	-10.2048
▁becomes	-10.2054
▁atmosphere	-10.2066
▁infrastructure	-10.2066
▁twelve	-10.2066
▁col	-10.2067
▁anthem	-10.2068
▁dates	-10.2069
▁1988	-10.2069
▁roll	-10.2074
▁drop	-10.2079
▁por	-10.2087
▁frame	-10.2094
▁buffalo	-10.2099
late	-10.2109
▁selection	-10.211
▁adaptation	-10.2113
▁sto	-10.2114
▁stream	-10.2127
▁component	-10.2131
▁turkish	-10.2139
▁telephone	-10.2139
▁missions	-10.2141
▁accounts	-10.2141
ade	-10.2143
▁ann	-10.2146
oh	-10.2156
that	-10.2158
▁bit	-10.2158
▁owned	-10.2163
▁edge	-10.2163
▁aspirin	-10.2164
▁offering	-10.2164
ace	-10.2168
▁sel	-10.2173
▁arrangement	-10.2176
▁safety	-10.2178
▁1966	-10.2179
▁bro	-10.2184
▁angola	-10.2185
▁delay	-10.2187
▁bru	-10.2188
▁newton	-10.2191
▁talk	-10.2194
▁testing	-10.2202
related	-10.2204
och	-10.2205
▁mouth	-10.2208
▁normally	-10.2211
▁manufacturing	-10.2213
▁reduction	-10.2213
▁conversion	-10.2213
▁license	-10.2213
▁vocal	-10.2214
▁guide	-10.2215
▁opposite	-10.2215
▁continu	-10.2217
▁inner	-10.2217
▁organic	-10.2221
mission	-10.2222
▁coastal	-10.2225
▁characteristics	-10.2238
▁convert	-10.224
▁genre	-10.2241
▁communist	-10.2243
ets	-10.2247
▁fresnel	-10.225
▁diverse	-10.225
▁eat	-10.225
▁iraq	-10.2251
▁euro	-10.2251
▁armies	-10.2253
more	-10.2261
▁iran	-10.2265
world	-10.2269
1"	-10.2271
▁correspond	-10.2274
▁audio	-10.2274
ong	-10.2276
▁rod	-10.2283
▁officials	-10.2284
▁measured	-10.2285
▁turing	-10.2285
▁depict	-10.2286
▁tall	-10.2286
▁why	-10.2291
▁elder	-10.2292
▁cro	-10.2294
▁gradually	-10.2295
▁dna	-10.2295
▁cable	-10.2301
▁evolution	-10.2302
▁brazilian	-10.2303
▁goddess	-10.2309
▁expand	-10.2311
cut	-10.2317
▁reserve	-10.232
▁leaves	-10.2321
▁ter	-10.2322
▁finished	-10.2322
▁accident	-10.2325
▁symptoms	-10.2325
▁jack	-10.2326
▁reactions	-10.2327
▁improvement	-10.233
▁kar	-10.2333
▁translated	-10.2334
▁manner	-10.2336
▁images	-10.2336
▁extend	-10.2336
▁tube	-10.2339
▁represents	-10.2339
α	-10.2345
▁killing	-10.2348
▁curve	-10.2349
▁rapidly	-10.2352
kes	-10.2355
▁category	-10.2363
▁memorial	-10.2363
▁archbishop	-10.2363
▁geometry	-10.2363
▁index	-10.2367
▁los	-10.2367
2,	-10.2369
zy	-10.237
ori	-10.2374
▁corresponding	-10.2375
▁assumed	-10.2378
▁attacked	-10.2384
▁document	-10.2384
▁spoke	-10.2385
mail	-10.239
▁chip	-10.2391
▁jobs	-10.24
▁approval	-10.24
▁patriot	-10.2401
▁divine	-10.2401
▁compete	-10.2401
▁balance	-10.2403
▁1983	-10.2404
▁founding	-10.241
▁celebrated	-10.2414
▁drawing	-10.2419
▁brothers	-10.2425
zar	-10.2437
▁headquarters	-10.2438
▁jurisdiction	-10.2438
▁vector	-10.2438
▁seem	-10.2439
▁calls	-10.2439
▁evolved	-10.2444
▁lives	-10.245
▁principles	-10.2451
▁abandoned	-10.2458
▁regulation	-10.2459
nis	-10.2465
space	-10.2466
ugh	-10.2468
lem	-10.2471
▁molecules	-10.2471
▁copies	-10.2476
▁caesar	-10.2477
▁1982	-10.2478
▁philosopher	-10.248
▁forming	-10.2485
▁capp	-10.2486
▁implementation	-10.2486
▁graphics	-10.2494
▁wealth	-10.2496
▁exists	-10.2497
▁drink	-10.2503
▁budget	-10.2514
▁orchestra	-10.2514
▁buried	-10.2515
▁1987	-10.2518
lm	-10.2518
▁drama	-10.2518
▁faso	-10.2519
ibility	-10.2523
▁proportion	-10.2523
rin	-10.2544
ographic	-10.2545
▁seed	-10.2551
▁bronze	-10.2553
▁proposal	-10.2553
▁candidate	-10.2559
▁compound	-10.256
▁communications	-10.2566
cr	-10.2566
▁fox	-10.257
▁novels	-10.257
▁experimental	-10.2571
claim	-10.2576
pel	-10.258
▁protein	-10.258
▁attended	-10.2582
4"	-10.2584
nus	-10.2586
▁phil	-10.2586
stra	-10.2587
▁ada	-10.2588
mel	-10.259
▁poverty	-10.2591
▁provision	-10.2593
▁zeus	-10.26
▁dominated	-10.26
▁desire	-10.2602
ms	-10.2603
▁exile	-10.2609
▁theater	-10.2611
rich	-10.2612
ages	-10.2614
phone	-10.2617
where	-10.2617
▁dating	-10.2623
▁focused	-10.2625
▁fra	-10.2626
▁lies	-10.2627
▁etymology	-10.263
▁honour	-10.263
▁decay	-10.263
▁scheme	-10.263
▁scr	-10.2636
▁battleship	-10.2638
▁alloy	-10.2643
▁origins	-10.2643
▁logic	-10.2644
▁officer	-10.2651
eon	-10.2652
▁successfully	-10.2655
▁credit	-10.2656
▁loyal	-10.2667
▁anatolia	-10.2668
▁senior	-10.2669
▁radiation	-10.267
▁biological	-10.2672
▁eva	-10.2675
▁root	-10.2685
▁py	-10.2691
▁load	-10.2694
▁syria	-10.2698
▁adding	-10.2704
code	-10.2706
▁comparison	-10.2707
▁consequence	-10.2707
▁exercise	-10.2707
▁restaurant	-10.2707
▁struggle	-10.2707
▁actor	-10.2713
▁reader	-10.2719
▁pat	-10.272
▁mil	-10.2721
▁debut	-10.2721
wick	-10.2722
▁seek	-10.2723
▁elect	-10.2727
▁pieces	-10.2728
class	-10.2731
pr	-10.2736
1.	-10.274
▁ending	-10.2742
▁incorporated	-10.2742
▁linguistic	-10.2744
accompanied	-10.2746
▁recognition	-10.2746
▁tissue	-10.2746
▁storage	-10.2746
▁abraham	-10.2746
▁ascii	-10.2748
▁1976	-10.2749
▁cle	-10.2752
▁viewed	-10.276
▁jean	-10.2762
▁sides	-10.2764
▁characteristic	-10.2764
▁nobel	-10.2767
▁argues	-10.2773
bol	-10.2774
▁variations	-10.2775
▁spa	-10.279
▁increases	-10.2791
▁clubs	-10.2795
▁painting	-10.28
▁hope	-10.28
▁paintings	-10.2812
avi	-10.2816
hon	-10.2818
hn	-10.2819
▁acupuncture	-10.2825
▁twice	-10.2825
▁weather	-10.2825
▁essay	-10.2825
▁visible	-10.2825
▁draft	-10.2826
▁achilles	-10.2831
▁hip	-10.2834
▁mayor	-10.2835
▁patients	-10.2836
▁thousand	-10.2841
ute	-10.2842
▁estate	-10.2844
6"	-10.2844
[	-10.2851
▁roads	-10.2856
▁proceed	-10.2863
lf	-10.2864
▁isotope	-10.2865
▁collapse	-10.2865
▁abbey	-10.2865
▁debt	-10.2866
▁anal	-10.2866
▁patron	-10.2867
▁poetry	-10.2869
▁fame	-10.2874
▁trip	-10.2875
▁objective	-10.2875
dent	-10.2879
▁anne	-10.2886
bin	-10.2887
▁truth	-10.2889
lian	-10.2889
▁establishment	-10.289
▁preced	-10.289
▁bottom	-10.2904
▁kurosawa	-10.2904
angular	-10.2914
▁ap	-10.2918
▁prisoners	-10.2924
▁bicycle	-10.2944
▁rural	-10.2947
extremely	-10.295
uri	-10.2952
▁rob	-10.2953
▁poland	-10.2954
▁showing	-10.2954
▁soft	-10.2962
▁prop	-10.2968
▁holds	-10.297
▁sell	-10.2974
▁formally	-10.2974
app	-10.2978
▁piece	-10.2979
▁sn	-10.2984
▁captain	-10.2984
▁serving	-10.2984
▁invented	-10.2986
▁apply	-10.2987
▁coll	-10.2992
▁hyper	-10.2995
rap	-10.2997
▁processing	-10.3004
ough	-10.3004
▁mad	-10.3021
▁styles	-10.3022
▁policies	-10.3024
▁zealand	-10.3024
▁amateur	-10.3024
▁therapy	-10.3025
yard	-10.3028
▁effectively	-10.303
▁amp	-10.303
test	-10.3031
▁verb	-10.3033
▁missiles	-10.3041
▁sight	-10.3041
▁rocket	-10.3047
▁disorder	-10.305
▁purposes	-10.3052
▁dual	-10.3055
▁cult	-10.3062
▁aarhus	-10.3065
▁mormon	-10.3067
▁1967	-10.3067
▁fly	-10.3068
▁corps	-10.3072
▁giant	-10.3076
▁°	-10.3077
▁neuro	-10.3086
wn	-10.3087
▁vision	-10.3089
via	-10.3092
▁declined	-10.3097
▁distinguish	-10.3097
vol	-10.3099
▁mental	-10.3101
▁hunting	-10.3102
chu	-10.3104
base	-10.3105
▁rebellion	-10.3105
▁mixture	-10.3106
▁artistic	-10.3106
ón	-10.3106
▁assistance	-10.3106
ister	-10.3107
nk	-10.3119
▁achieve	-10.3121
▁brief	-10.3123
▁batter	-10.3132
▁ruler	-10.3134
▁bacteria	-10.3137
▁ze	-10.3142
▁emphasis	-10.3146
▁nitrogen	-10.3146
▁poirot	-10.3146
▁aesthetic	-10.3146
▁reputation	-10.3146
▁assigned	-10.3146
▁vertical	-10.3147
▁1981	-10.3149
ili	-10.3149
0"	-10.3152
inus	-10.3153
▁characterized	-10.3156
▁buy	-10.3157
▁oxide	-10.3158
▁escape	-10.3158
last	-10.3161
▁rand	-10.3162
▁bird	-10.3168
vari	-10.3169
▁courts	-10.3171
▁cards	-10.3174
▁biblical	-10.3187
▁designs	-10.3187
▁survive	-10.3199
dh	-10.3214
▁linked	-10.3218
▁accurate	-10.3228
▁pioneer	-10.3228
▁row	-10.3228
▁preferred	-10.3228
▁(17	-10.3233
▁none	-10.3237
▁tools	-10.3239
cia	-10.324
▁bin	-10.3241
▁produces	-10.325
▁gall	-10.3251
▁antibiotics	-10.3253
later	-10.3256
ress	-10.3264
▁regime	-10.3268
▁mathematician	-10.3269
▁quantum	-10.3269
▁innovation	-10.3269
▁floor	-10.3269
▁reducing	-10.3269
▁measures	-10.3271
▁amber	-10.3274
cra	-10.3274
5"	-10.3276
▁jerusalem	-10.3285
▁distinction	-10.3288
▁partly	-10.3292
▁survived	-10.3297
▁newspaper	-10.3301
▁ant	-10.3303
lands	-10.3305
▁rarely	-10.3305
▁continues	-10.3308
▁satellite	-10.331
▁surrender	-10.331
▁matches	-10.331
▁anarchist	-10.331
▁1945	-10.3313
▁accused	-10.3314
▁pick	-10.3318
▁advocate	-10.3321
▁spot	-10.3322
▁bede	-10.3328
▁wars	-10.333
▁hair	-10.3332
▁anglo	-10.3342
mod	-10.3342
▁virginia	-10.335
▁topic	-10.3351
▁explanation	-10.3351
▁protocol	-10.3351
▁terminal	-10.3352
!"	-10.3353
ped	-10.3353
▁chance	-10.3359
▁reaching	-10.336
▁decrease	-10.3364
.4%	-10.3366
amb	-10.3368
▁plato	-10.3371
▁er	-10.3376
▁hor	-10.3378
▁lion	-10.338
▁generated	-10.3381
ret	-10.3384
▁mine	-10.3387
▁vowel	-10.3388
▁consumption	-10.3393
▁migration	-10.3394
▁tail	-10.3395
▁senator	-10.3395
▁renamed	-10.3399
▁preparation	-10.3401
trans	-10.3405
lim	-10.3406
his	-10.3407
bur	-10.341
▁lift	-10.3412
▁goods	-10.3412
7"	-10.3417
▁thr	-10.3419
_4	-10.3426
bus	-10.3427
city	-10.3428
lio	-10.3428
▁involves	-10.3429
▁originated	-10.3429
ios	-10.343
▁arrival	-10.3435
▁1979	-10.3439
▁statistical	-10.3444
▁percentage	-10.3445
.6%	-10.3456
bad	-10.3461
german	-10.3462
▁protected	-10.3464
▁proteins	-10.347
▁beryllium	-10.3477
▁massoud	-10.3477
found	-10.3479
▁armoured	-10.3486
▁apart	-10.3505
▁zo	-10.351
ome	-10.3511
▁amphetamine	-10.3519
▁opportunity	-10.3519
▁animation	-10.3519
▁voting	-10.3523
scale	-10.3533
▁proto	-10.3534
▁operate	-10.3539
list	-10.354
ks	-10.3546
bach	-10.3548
▁needs	-10.3551
▁armour	-10.3554
▁hungary	-10.3557
▁substance	-10.3562
▁storm	-10.3563
▁racing	-10.3563
▁rational	-10.3564
▁details	-10.3564
body	-10.3565
▁references	-10.357
▁agree	-10.3571
▁clean	-10.3574
▁bodhisattva	-10.3575
▁massive	-10.3576
▁pot	-10.3577
▁winners	-10.3583
▁attached	-10.3585
▁trace	-10.3591
▁64	-10.3594
ison	-10.3604
▁occupation	-10.3604
▁surviving	-10.3604
▁computing	-10.3604
▁tournament	-10.3604
▁monitor	-10.3604
▁narrative	-10.3604
▁mosque	-10.3604
▁criticized	-10.3606
▁1944	-10.3607
▁federation	-10.3608
▁geography	-10.3611
▁grain	-10.3612
▁artificial	-10.3618
▁algeria	-10.3623
▁sla	-10.3634
▁fat	-10.3642
▁centauri	-10.3647
▁siege	-10.3647
▁suburb	-10.3647
▁gift	-10.3648
▁transferred	-10.3649
▁arrow	-10.3651
▁gel	-10.366
▁luc	-10.3661
▁diet	-10.3663
atory	-10.3664
ord	-10.3671
.1%	-10.3677
high	-10.368
▁observations	-10.3681
▁vice	-10.3681
▁ants	-10.3685
.7%	-10.3685
▁belgian	-10.369
▁codice	-10.369
▁sodium	-10.369
▁microsoft	-10.369
tine	-10.3691
▁wheel	-10.3693
▁1973	-10.3693
▁hub	-10.3708
awa	-10.3713
roll	-10.3716
hl	-10.3721
▁roots	-10.3721
rn	-10.3722
tech	-10.3724
▁temp	-10.373
−	-10.3732
▁flood	-10.3733
▁absence	-10.3733
▁explained	-10.3743
▁credited	-10.3747
▁associate	-10.3748
▁pl	-10.3749
roman	-10.3753
▁denote	-10.3754
▁windows	-10.3755
▁designer	-10.3755
liber	-10.3756
▁notion	-10.3766
pal	-10.3768
–1	-10.3773
▁educational	-10.3773
▁undergo	-10.3774
▁industries	-10.3776
▁rear	-10.3784
▁hotel	-10.3787
pur	-10.3792
▁brew	-10.3807
tte	-10.3808
▁import	-10.381
▁retain	-10.3812
▁fled	-10.3814
▁cardinal	-10.382
▁arbor	-10.382
▁dropped	-10.382
▁balkan	-10.382
▁axon	-10.3823
.3%	-10.3823
▁eyes	-10.3824
rel	-10.3825
▁symbols	-10.3829
▁movements	-10.3832
2%	-10.3832
▁logo	-10.3834
▁supporters	-10.3835
▁borders	-10.384
▁meat	-10.3849
▁mechanical	-10.3849
▁pla	-10.3851
▁existed	-10.3854
▁crosby	-10.3863
sustain	-10.3864
▁danish	-10.3866
▁axis	-10.3872
▁consumer	-10.3872
heim	-10.3873
▁banks	-10.3875
▁bonds	-10.3886
▁65	-10.3894
▁forests	-10.3895
▁bases	-10.3898
▁exploit	-10.3907
▁conservation	-10.3907
▁suppress	-10.3907
▁pr	-10.3907
▁emission	-10.3912
▁proof	-10.3914
▁rom	-10.3918
▁variation	-10.392
▁discussion	-10.3924
▁mineral	-10.3924
▁demonstrated	-10.3924
▁signs	-10.3929
glo	-10.3929
▁documents	-10.3951
▁afonso	-10.3951
▁astronomical	-10.3951
▁buddhism	-10.3951
▁featuring	-10.3951
▁sponsor	-10.3951
▁velocity	-10.3951
▁baroque	-10.3951
▁exceed	-10.3951
▁heaven	-10.3952
far	-10.3952
▁poison	-10.3953
english	-10.3953
▁furthermore	-10.3954
▁trust	-10.3954
▁pc	-10.3955
▁your	-10.3959
▁proton	-10.3963
▁controller	-10.3963
▁moderate	-10.3976
▁prison	-10.3976
▁locations	-10.3977
bury	-10.398
nik	-10.3989
▁hypothesis	-10.3995
▁neutral	-10.3995
▁1962	-10.3995
▁invention	-10.3996
▁denmark	-10.3997
▁ger	-10.3998
▁mari	-10.3999
▁prices	-10.4003
▁varies	-10.4007
▁coup	-10.401
▁ep	-10.401
▁mur	-10.4016
▁discuss	-10.4017
gel	-10.4017
▁generate	-10.402
▁indicat	-10.4021
cat	-10.4024
ras	-10.4028
▁magic	-10.403
▁exact	-10.4034
▁learned	-10.404
▁tests	-10.4043
▁mill	-10.4046
▁rotation	-10.4048
▁abstract	-10.4049
▁grace	-10.4051
▁collected	-10.4061
▁$2	-10.4062
chen	-10.4064
▁heard	-10.4079
▁arthur	-10.4085
▁answer	-10.4085
▁formerly	-10.4089
▁momentum	-10.4089
▁thin	-10.4094
▁genus	-10.4099
bat	-10.4102
ope	-10.4105
▁drawn	-10.4105
▁writes	-10.4114
▁conquered	-10.4115
fold	-10.4119
cas	-10.4124
▁waste	-10.4127
▁ambrose	-10.4129
▁appropriate	-10.4129
▁expensive	-10.4129
▁depression	-10.4129
wing	-10.4131
▁carl	-10.4132
▁pun	-10.4155
aya	-10.4163
▁promoted	-10.4167
pent	-10.4171
iya	-10.4171
▁signals	-10.4172
▁exposure	-10.4174
▁ginsberg	-10.4174
▁lecture	-10.4174
▁integer	-10.4175
▁handle	-10.4176
▁braves	-10.4177
▁concerned	-10.4177
▁huge	-10.4184
▁verse	-10.4184
▁premier	-10.4193
▁districts	-10.4195
án	-10.4198
level	-10.4201
▁castle	-10.4202
▁barb	-10.4202
▁bou	-10.4208
▁andorra	-10.4213
▁metropolitan	-10.422
▁strategic	-10.422
▁adobe	-10.422
psycho	-10.422
▁anime	-10.4221
▁saturn	-10.4222
▁concepts	-10.4227
▁unusual	-10.4229
▁observer	-10.4238
▁passing	-10.4239
▁preserved	-10.4239
▁representative	-10.4246
▁patterns	-10.4249
▁(2	-10.4253
▁scar	-10.4254
▁jet	-10.426
▁tennessee	-10.4265
▁possibility	-10.4265
▁landscape	-10.4265
▁vienna	-10.4265
print	-10.4271
▁baltic	-10.4271
▁membership	-10.4271
▁dia	-10.4273
▁supposed	-10.4273
kha	-10.4274
▁feet	-10.4276
pec	-10.4279
600	-10.428
▁kit	-10.4282
▁losing	-10.4291
die	-10.4295
cies	-10.4307
▁concerns	-10.431
▁immigrants	-10.431
▁destination	-10.4311
▁legislative	-10.4311
▁taliban	-10.4311
▁pel	-10.4311
rad	-10.4316
▁bishops	-10.4317
▁canal	-10.4323
▁indeed	-10.4323
▁mont	-10.433
▁lot	-10.4332
▁possession	-10.4333
▁mining	-10.4333
▁horn	-10.4336
▁amounts	-10.4337
▁rank	-10.4338
▁meta	-10.4344
▁realm	-10.4347
▁stem	-10.4351
▁cer	-10.4352
▁understand	-10.4353
▁syn	-10.4355
▁arithmetic	-10.4357
▁constantinople	-10.4357
▁sleep	-10.4357
▁speer	-10.4357
▁hymn	-10.4357
▁laboratory	-10.4357
▁abbot	-10.4358
▁cinema	-10.4358
ddle	-10.4369
aba	-10.4375
▁representatives	-10.4378
cor	-10.438
▁outer	-10.4392
cm	-10.44
▁aurangzeb	-10.4403
▁structural	-10.4403
how	-10.4403
▁solve	-10.4404
▁ruling	-10.4409
bia	-10.4409
▁gil	-10.441
▁diseases	-10.4411
even	-10.4412
▁samples	-10.4412
▁dress	-10.4413
▁aalen	-10.4416
▁gate	-10.4425
▁substantial	-10.4426
▁door	-10.4435
▁titled	-10.4439
▁polar	-10.4441
▁beliefs	-10.4448
▁receiving	-10.4449
▁reconstruction	-10.4449
▁arsenal	-10.4449
▁testament	-10.4449
▁basketball	-10.4449
▁tanks	-10.445
▁relief	-10.445
▁−	-10.445
▁visitors	-10.4453
▁bbc	-10.4453
than	-10.4457
1)	-10.4466
▁civilian	-10.4466
▁shore	-10.4468
▁norm	-10.4476
▁palm	-10.4483
▁cre	-10.4488
▁mig	-10.4489
▁camera	-10.4495
▁laid	-10.4495
▁bitumen	-10.4496
▁cathedral	-10.4496
▁console	-10.4496
▁transmission	-10.4497
ancy	-10.4499
▁sharon	-10.4502
ima	-10.4503
▁retained	-10.4504
aka	-10.4506
▁contributions	-10.4506
▁depicted	-10.4513
▁thick	-10.4515
▁exhibition	-10.4516
dimensional	-10.4518
▁derive	-10.4519
▁pseudo	-10.4521
▁job	-10.4526
▁eth	-10.4527
▁brass	-10.4529
▁solutions	-10.4537
▁bright	-10.4541
▁accus	-10.4541
▁constellation	-10.4542
▁controversial	-10.4542
▁jersey	-10.4542
▁pennsylvania	-10.4542
▁separation	-10.4542
▁taxes	-10.4544
3)	-10.4545
▁operator	-10.4545
western	-10.4549
▁faction	-10.455
▁dated	-10.4553
▁phone	-10.4558
▁encouraged	-10.4561
▁bavaria	-10.4565
▁grave	-10.4575
▁twin	-10.4587
▁funding	-10.4589
▁hundreds	-10.4589
▁banjo	-10.4591
▁partnership	-10.4591
.2%	-10.4592
▁cited	-10.4595
▁drinking	-10.4603
▁begun	-10.4606
▁grown	-10.4612
▁log	-10.4613
▁dynamic	-10.4618
3.	-10.4628
▁limits	-10.4636
▁communion	-10.4636
▁recruit	-10.4636
▁reinforce	-10.4636
▁machines	-10.4637
▁changing	-10.4637
poli	-10.465
▁300	-10.4652
▁spaces	-10.4657
▁clinical	-10.4662
▁leads	-10.4672
▁—	-10.4673
▁weapon	-10.4677
▁serves	-10.4682
owing	-10.4683
▁neutron	-10.4684
▁fashion	-10.4684
▁merchant	-10.4684
corn	-10.4684
▁housing	-10.4684
▁coordinate	-10.4685
oids	-10.4685
▁random	-10.4686
▁1978	-10.4688
▁achievement	-10.4689
▁concentrated	-10.4691
▁performing	-10.4694
▁greeks	-10.4696
▁parish	-10.4704
table	-10.4722
▁chose	-10.4723
▁vol	-10.4724
▁barbados	-10.4731
▁cattle	-10.4734
morph	-10.4735
fra	-10.4735
▁comedy	-10.4735
▁prove	-10.4741
largest	-10.4745
▁interpret	-10.4745
general	-10.4747
▁(3	-10.4748
▁annually	-10.4749
▁hungarian	-10.4755
▁mm	-10.4756
word	-10.4764
▁socialist	-10.4768
▁saints	-10.477
▁miles	-10.4772
ending	-10.4778
▁discipline	-10.4779
▁legislature	-10.4779
▁schopenhauer	-10.4779
▁ancestor	-10.4779
▁expert	-10.4779
?"	-10.4779
▁finance	-10.4781
var	-10.4782
▁illness	-10.4783
▁csm	-10.4785
▁radar	-10.4788
round	-10.4791
nie	-10.4792
▁standing	-10.4793
▁recognize	-10.4793
bon	-10.48
▁doing	-10.4804
▁span	-10.4806
▁carrying	-10.481
▁journalist	-10.4812
.9%	-10.4821
▁anthropology	-10.4827
▁astronomy	-10.4827
▁emphasiz	-10.4827
▁sweden	-10.4827
▁segment	-10.4827
▁isolated	-10.4828
▁sharp	-10.4828
▁bull	-10.4828
▁tha	-10.4829
▁1965	-10.4831
▁municipality	-10.4832
▁stability	-10.4838
path	-10.4838
▁tale	-10.4839
nne	-10.484
100	-10.4846
▁routes	-10.4849
jan	-10.4849
▁pap	-10.4853
▁miller	-10.4854
▁neuron	-10.4857
▁andalusia	-10.4858
▁divisions	-10.4863
▁worth	-10.4872
gas	-10.4873
erie	-10.4873
▁variant	-10.4875
▁archaeological	-10.4876
▁calculation	-10.4876
▁napoleon	-10.4876
▁precise	-10.4876
▁astrology	-10.4876
▁meanwhile	-10.4876
fish	-10.4879
mn	-10.4883
▁civilization	-10.4883
▁tin	-10.4884
british	-10.4891
cott	-10.4893
▁sho	-10.4894
▁connections	-10.4897
▁mix	-10.4898
▁earned	-10.4898
▁sort	-10.4903
olo	-10.4908
▁sacrifice	-10.4909
▁borough	-10.4915
▁concern	-10.4922
▁companion	-10.4924
▁legislation	-10.4924
▁prophet	-10.4925
▁organisms	-10.4925
▁committed	-10.4925
▁kyi	-10.4926
▁stored	-10.4927
▁southwest	-10.493
▁electricity	-10.4934
▁notice	-10.4934
▁kin	-10.4936
second	-10.494
▁cultures	-10.4942
▁costs	-10.4949
▁printed	-10.4949
cast	-10.495
▁afl	-10.495
▁faced	-10.4959
▁germanic	-10.4962
lot	-10.4963
take	-10.4963
she	-10.4965
▁apostolic	-10.4973
▁arizona	-10.4973
▁journey	-10.4973
▁sacred	-10.4973
▁stephen	-10.4974
▁consequently	-10.4978
▁particle	-10.4983
▁distinguished	-10.4986
stat	-10.4987
dict	-10.4989
▁rodin	-10.4993
black	-10.4996
hol	-10.4999
▁estimates	-10.5017
▁commemorat	-10.5022
▁yellow	-10.5022
▁cloud	-10.5022
▁identical	-10.5022
▁phillip	-10.5023
▁muscle	-10.5023
▁anything	-10.5023
▁1961	-10.5025
▁hell	-10.5029
▁profit	-10.5033
▁boys	-10.5039
1%	-10.5041
▁lifetime	-10.5042
▁straight	-10.5047
▁coal	-10.5052
zu	-10.5053
▁feeling	-10.5061
|18	-10.5062
▁loan	-10.5064
▁returning	-10.5064
▁consistent	-10.5064
▁fuller	-10.5065
"("	-10.5067
uv	-10.5071
▁enzyme	-10.5071
▁nucleus	-10.5071
▁swedish	-10.5071
▁territorial	-10.5071
▁false	-10.5071
▁concerning	-10.5072
▁occasionally	-10.5075
▁tape	-10.5078
dec	-10.5079
▁harm	-10.5092
mun	-10.5092
,500	-10.5094
anda	-10.5102
lau	-10.5114
▁delivered	-10.5116
▁bolivia	-10.5118
elli	-10.5118
▁inhibitor	-10.5118
ski	-10.5119
▁conclusion	-10.5121
▁molecular	-10.5121
▁monastery	-10.5121
▁feather	-10.5121
▁diamond	-10.5121
▁athenian	-10.5121
▁alternate	-10.5122
fall	-10.5123
▁trend	-10.5124
▁naturally	-10.5125
▁belt	-10.5126
aj	-10.5129
▁wing	-10.5136
european	-10.514
▁stating	-10.5145
ée	-10.5152
▁bone	-10.5159
▁musicians	-10.5162
▁roma	-10.5165
▁implemented	-10.5166
▁indicated	-10.5169
▁server	-10.5169
▁auschwitz	-10.5171
▁controversy	-10.5171
▁destruction	-10.5171
▁crusade	-10.5171
▁basque	-10.5171
▁florida	-10.5171
▁entry	-10.5171
style	-10.5175
▁thermal	-10.5177
▁ign	-10.5177
▁observation	-10.518
vor	-10.5182
▁offers	-10.5184
▁rev	-10.5186
sim	-10.519
▁bob	-10.519
▁charter	-10.5196
▁doubt	-10.5197
▁gla	-10.52
lle	-10.5214
▁sixth	-10.5215
▁hunt	-10.5219
▁expect	-10.5219
▁renaissance	-10.5221
▁spectrum	-10.5221
▁technologies	-10.5221
▁arabs	-10.5221
fix	-10.5222
▁biography	-10.5223
▁hearing	-10.5224
▁retired	-10.5228
▁integrated	-10.523
▁degrees	-10.5231
▁partial	-10.5235
▁36	-10.5241
ancient	-10.5241
▁engaged	-10.5241
▁speaking	-10.5242
▁fur	-10.5243
▁agents	-10.5245
▁santa	-10.5263
▁adopt	-10.5264
ann	-10.5264
▁beach	-10.5266
▁subjects	-10.527
▁alleged	-10.527
▁accumulat	-10.5271
▁agrippina	-10.5271
▁potassium	-10.5271
▁significance	-10.5271
▁struck	-10.5271
media	-10.5272
▁bid	-10.5282
▁continuing	-10.5287
▁equation	-10.5289
adi	-10.529
mmer	-10.5296
▁northeast	-10.5297
former	-10.5298
ferr	-10.53
nian	-10.5304
▁questions	-10.5318
▁trying	-10.532
▁elizabeth	-10.5321
▁margin	-10.5321
▁mythology	-10.5324
▁nfl	-10.5327
ule	-10.5328
▁goes	-10.5328
▁sunday	-10.5329
▁minority	-10.5334
▁recovery	-10.5335
▁remember	-10.5336
)"	-10.5338
▁magnetic	-10.5342
ér	-10.5344
▁carriers	-10.5344
▁wine	-10.5348
itt	-10.5354
▁farming	-10.5356
ois	-10.5357
▁waves	-10.5358
▁persons	-10.5362
▁argue	-10.5365
vision	-10.5365
▁commonwealth	-10.5372
▁oxford	-10.5372
▁closer	-10.5372
▁lev	-10.5372
▁learn	-10.5373
▁retreat	-10.5377
▁distributed	-10.5377
▁suu	-10.538
▁pack	-10.5389
dp	-10.539
▁complexity	-10.5394
white	-10.5397
ologist	-10.5398
▁varying	-10.5398
▁bengal	-10.5401
▁stages	-10.5413
face	-10.5413
▁ken	-10.5415
▁replace	-10.5417
▁critic	-10.5422
▁intermediate	-10.5423
▁minimum	-10.5423
▁plastic	-10.5423
▁installed	-10.5424
":	-10.5427
▁accounting	-10.5429
▁bed	-10.543
▁asteroids	-10.543
▁roger	-10.543
▁reflected	-10.5438
▁thor	-10.5442
▁antibiotic	-10.5443
this	-10.5446
▁secure	-10.5446
▁lakes	-10.5448
▁exactly	-10.5449
.8%	-10.545
▁infinite	-10.545
▁oppos	-10.5453
name	-10.5454
▁mounted	-10.5454
pra	-10.546
▁try	-10.5461
▁restricted	-10.5464
▁markets	-10.5465
▁ceremony	-10.5474
▁arranged	-10.5474
▁bmw	-10.5474
▁easy	-10.5475
▁cotton	-10.5475
▁pala	-10.5475
crypt	-10.5476
▁planning	-10.5479
▁sugar	-10.548
▁regularly	-10.5485
▁extract	-10.5489
▁azerbaijani	-10.5491
▁paint	-10.5492
french	-10.5499
modern	-10.5499
fire	-10.5514
▁detailed	-10.5522
▁aegean	-10.5526
▁offensive	-10.5526
▁situated	-10.5526
▁stretch	-10.5526
▁graduate	-10.5526
▁municipalities	-10.5527
▁interpreted	-10.553
▁1947	-10.5531
▁stack	-10.5533
▁knew	-10.5533
▁parliamentary	-10.5535
▁rising	-10.5538
▁45	-10.5539
▁pitcher	-10.554
▁jan	-10.5542
▁icon	-10.5543
riot	-10.5547
night	-10.5548
▁frequent	-10.5555
▁descendants	-10.5557
▁neck	-10.5563
pot	-10.5564
ij	-10.5564
itz	-10.5574
▁aaliyah	-10.5578
▁celebration	-10.5578
▁coalition	-10.5578
▁revival	-10.5578
▁impossible	-10.5578
▁initiative	-10.558
▁caves	-10.5582
▁discussed	-10.5586
▁clearly	-10.5604
▁lie	-10.5614
▁lose	-10.5617
▁construct	-10.5618
iff	-10.5619
▁ace	-10.5619
▁peoples	-10.5621
▁copy	-10.563
▁autonomous	-10.563
▁cricket	-10.563
▁spinoza	-10.563
▁bought	-10.563
▁railroad	-10.563
▁warrior	-10.563
▁architectural	-10.563
▁clock	-10.5632
▁advent	-10.5632
▁referring	-10.5633
▁vowels	-10.5637
gha	-10.5643
nate	-10.5648
▁inscriptions	-10.5649
▁hat	-10.5649
there	-10.5654
▁/	-10.5654
▁factory	-10.5664
▁rot	-10.5674
▁34	-10.5676
▁sole	-10.568
▁extinct	-10.5682
▁responsibility	-10.5682
▁illegal	-10.5682
▁ahmad	-10.5682
▁ol	-10.5685
▁items	-10.569
▁specialized	-10.5698
rah	-10.5705
▁purchase	-10.5706
▁broken	-10.5707
▁purchased	-10.5711
▁asteroid	-10.5711
▁deck	-10.5718
▁milk	-10.572
▁apl	-10.5726
▁tim	-10.5727
ref	-10.5727
▁recommended	-10.5733
ttle	-10.5733
▁assassination	-10.5735
▁carolina	-10.5735
▁aberration	-10.5735
▁mit	-10.5735
▁trading	-10.5735
▁marsh	-10.5736
▁ports	-10.5736
▁register	-10.5736
▁sparta	-10.5739
▁chronicle	-10.5748
▁followers	-10.5748
key	-10.575
▁bridges	-10.5755
▁insect	-10.576
▁briefly	-10.5764
▁networks	-10.5768
▁sale	-10.577
cer	-10.5786
▁fresh	-10.5787
▁aphasia	-10.5788
▁denied	-10.5788
▁rabbi	-10.5789
▁knight	-10.5791
▁painter	-10.5792
▁1964	-10.5792
▁lasted	-10.5793
▁revolutionary	-10.5796
under	-10.5796
▁bush	-10.5812
▁participated	-10.5816
▁reality	-10.5817
▁wal	-10.5819
▁catch	-10.5822
▁chan	-10.5827
▁employees	-10.5837
▁neighbour	-10.584
▁supplement	-10.5841
▁brigade	-10.5841
▁entitled	-10.5841
▁advertise	-10.5841
▁demographic	-10.5841
▁racial	-10.5841
▁dependent	-10.5842
▁settlers	-10.5842
▁recommend	-10.5843
▁mars	-10.5846
▁actors	-10.5849
▁colors	-10.5851
▁creed	-10.5852
▁exclusively	-10.5854
▁90	-10.5857
mund	-10.5857
▁mentions	-10.5863
▁participate	-10.5866
imp	-10.5867
▁rulers	-10.5871
▁thing	-10.5877
▁mr	-10.5878
▁kennedy	-10.5894
▁mughal	-10.5894
▁christmas	-10.5895
▁francisco	-10.5898
▁systematic	-10.5898
▁progressive	-10.5901
logical	-10.5919
▁pho	-10.592
▁engineer	-10.5923
mut	-10.593
▁procedure	-10.5931
pose	-10.5935
▁instruction	-10.5935
▁cm	-10.5936
▁responded	-10.5939
▁saxon	-10.5946
▁genera	-10.5948
▁amendment	-10.5948
▁philadelphia	-10.5948
▁exposed	-10.5948
▁theoretical	-10.5948
▁horizontal	-10.5949
▁diameter	-10.5949
▁pagan	-10.5952
▁ash	-10.5955
▁beads	-10.5958
▁lock	-10.5959
▁steps	-10.5963
uous	-10.5966
▁disorders	-10.5971
view	-10.5971
▁prefer	-10.5978
▁establishments	-10.5978
sight	-10.598
▁fail	-10.5985
ington	-10.5992
▁enjoyed	-10.5992
▁fishing	-10.5994
comb	-10.5997
▁yo	-10.6001
chel	-10.6001
▁alan	-10.6002
▁athanasius	-10.6002
▁sweet	-10.6002
▁website	-10.6003
▁describing	-10.6004
wed	-10.6006
▁influences	-10.6007
▁portray	-10.6008
-20	-10.6014
▁municipal	-10.6015
▁accordion	-10.6015
▁votes	-10.6015
▁bowl	-10.6017
▁males	-10.6024
order	-10.6032
third	-10.6035
▁macro	-10.6039
▁consonants	-10.6048
▁filled	-10.6048
▁exports	-10.6052
▁afrikaans	-10.6057
▁mutual	-10.6057
▁aachen	-10.6058
▁regiment	-10.6058
▁manual	-10.6065
▁shop	-10.6066
▁chair	-10.6066
▁owners	-10.6068
gged	-10.6074
▁heir	-10.6078
▁charges	-10.6079
▁colon	-10.6083
▁algorithms	-10.6091
▁hills	-10.6092
▁essentially	-10.6096
3%	-10.6096
▁prussia	-10.6102
▁donat	-10.6106
mia	-10.6106
▁kashmir	-10.6111
▁algae	-10.6111
▁approaches	-10.6112
▁attain	-10.6112
▁aviation	-10.6112
▁stood	-10.6113
▁cabinet	-10.6115
▁adoption	-10.6118
▁flying	-10.6126
▁hind	-10.6127
get	-10.6129
▁coach	-10.6134
▁bakr	-10.6136
▁ions	-10.6137
arab	-10.6145
history	-10.6146
▁invest	-10.6146
▁aero	-10.6147
▁unless	-10.6148
▁hour	-10.6151
▁dense	-10.6154
kon	-10.6162
▁assumption	-10.6166
▁ptolemy	-10.6166
▁valuable	-10.6166
▁adverse	-10.6166
▁variants	-10.6167
▁almond	-10.6171
▁sections	-10.6174
▁resist	-10.6176
titut	-10.6178
▁lyrics	-10.6183
▁assist	-10.6185
▁33	-10.6186
▁ski	-10.6187
)|	-10.6195
▁bath	-10.6195
eptic	-10.6196
▁claiming	-10.6197
▁tip	-10.62
▁fewer	-10.6201
natural	-10.6202
▁squ	-10.6204
▁mir	-10.6205
▁publisher	-10.6221
▁physician	-10.6221
▁receptor	-10.6221
▁biggest	-10.6221
▁tropical	-10.6222
▁geo	-10.6222
▁trojan	-10.6222
▁choose	-10.6222
▁drew	-10.6223
▁driver	-10.6225
▁1942	-10.6226
▁finish	-10.6227
▁cpu	-10.6233
ologists	-10.624
0%	-10.6241
▁longest	-10.6247
▁remove	-10.6249
gol	-10.6249
▁raise	-10.6253
▁monarch	-10.6253
▁gram	-10.6254
abba	-10.6254
▁trained	-10.6271
load	-10.6273
▁teach	-10.6275
▁difficulty	-10.6275
▁predecessor	-10.6277
▁inspiration	-10.6277
▁elsewhere	-10.6277
▁wil	-10.628
▁altitude	-10.6281
▁crash	-10.6283
▁perceived	-10.6285
▁zi	-10.6287
▁parent	-10.6294
▁attitude	-10.6295
▁α	-10.6303
▁corn	-10.631
sexual	-10.6315
▁selling	-10.6315
▁apparently	-10.6317
▁gang	-10.6317
▁bonn	-10.6319
7%	-10.6328
▁directors	-10.633
▁adjacent	-10.6333
▁cavalry	-10.6333
▁skull	-10.6333
▁surrounded	-10.6333
▁thirty	-10.6333
▁quantities	-10.6333
▁violent	-10.6333
▁stroke	-10.6333
▁alexios	-10.6333
▁publicly	-10.6335
▁reveal	-10.6338
▁detail	-10.6342
▁operational	-10.6348
▁1900	-10.6349
▁walter	-10.6349
▁pole	-10.6349
billboard	-10.635
gli	-10.6355
9%	-10.636
bound	-10.6371
ame	-10.6371
▁sul	-10.6374
▁seal	-10.6375
▁democrats	-10.6375
lant	-10.6376
▁indicates	-10.638
▁tourist	-10.6381
▁crops	-10.6383
▁displayed	-10.6386
▁beautiful	-10.6389
▁democracy	-10.6389
▁outcome	-10.639
▁spider	-10.639
▁dramatic	-10.6391
▁happen	-10.6394
▁dio	-10.6395
▁tetra	-10.6399
▁blow	-10.6401
▁qa	-10.642
sub	-10.6422
▁denomination	-10.6425
▁150	-10.6426
▁deposits	-10.6431
▁fan	-10.6433
mont	-10.6433
▁slowly	-10.6439
▁ashes	-10.644
▁monks	-10.6443
▁hay	-10.6445
▁aimed	-10.6445
ht	-10.6445
▁antiquity	-10.6445
▁execution	-10.6445
▁acoustic	-10.6445
▁gross	-10.6447
▁capone	-10.6449
▁driven	-10.6452
▁employment	-10.6453
▁reserves	-10.6454
▁arguments	-10.6455
▁seventh	-10.6462
▁commissioned	-10.6465
dispers	-10.6469
grad	-10.6469
▁diplomatic	-10.6471
▁suffering	-10.6471
▁touch	-10.6476
▁sit	-10.6477
▁pool	-10.6479
▁shares	-10.6482
inch	-10.6483
first	-10.6486
▁deliver	-10.649
▁massachusetts	-10.6502
▁nickname	-10.6502
▁ritual	-10.6502
▁spelling	-10.6502
making	-10.6503
▁oxidation	-10.6503
stall	-10.6504
▁marble	-10.6506
▁1941	-10.6507
oxide	-10.6509
▁(16	-10.651
▁villages	-10.6512
▁select	-10.6513
▁odd	-10.6516
osis	-10.6516
eastern	-10.6516
▁flower	-10.6518
▁statements	-10.6519
▁monarchy	-10.6521
▁marc	-10.6532
ado	-10.6532
▁bind	-10.6534
▁links	-10.6536
kar	-10.6537
baby	-10.6538
▁implement	-10.655
▁def	-10.6554
▁covers	-10.6557
saur	-10.6557
case	-10.6557
▁derivative	-10.6559
▁provincial	-10.6559
▁veteran	-10.6559
▁canterbury	-10.6559
▁anarchism	-10.6559
▁optical	-10.6561
▁adjust	-10.6562
▁passenger	-10.6564
jun	-10.6566
▁meetings	-10.6569
aged	-10.6577
▁eli	-10.6578
▁experiences	-10.6583
▁rio	-10.6585
▁voted	-10.6586
▁wo	-10.6587
▁estimate	-10.6594
osaurus	-10.6606
▁binding	-10.6609
▁lesser	-10.6616
▁contribute	-10.6616
▁switzerland	-10.6617
▁militia	-10.6617
lp	-10.6619
▁scripture	-10.6621
▁jump	-10.6622
▁assistant	-10.6623
▁executed	-10.6625
arc	-10.663
bot	-10.663
tail	-10.6642
▁attribute	-10.6646
▁moreover	-10.6648
▁wet	-10.6652
game	-10.6653
▁dur	-10.6653
▁faster	-10.6654
cell	-10.6671
▁limb	-10.6673
▁unsuccessful	-10.6675
▁archimedes	-10.6675
▁hybrid	-10.6675
▁crowd	-10.6675
▁examine	-10.6679
▁ple	-10.668
%)	-10.6684
▁calling	-10.6685
pound	-10.669
▁delta	-10.669
vic	-10.6694
▁marketing	-10.6695
▁400	-10.6699
mad	-10.6704
▁planets	-10.6707
▁efficient	-10.6707
gene	-10.6709
bru	-10.6718
▁arrested	-10.6723
▁predict	-10.6725
▁computation	-10.6733
▁gregory	-10.6733
▁tribute	-10.6733
▁depth	-10.6733
▁ranging	-10.6735
▁lutheran	-10.6738
▁covering	-10.6741
▁max	-10.6743
▁().	-10.6745
▁throw	-10.6748
gno	-10.675
▁partially	-10.6759
▁boot	-10.676
▁nest	-10.676
▁dimension	-10.6763
bell	-10.6764
▁interests	-10.6768
▁matters	-10.6771
▁benedict	-10.6791
▁circum	-10.6791
▁anarcho	-10.6791
▁cousin	-10.6792
▁antisemitism	-10.6792
▁antigua	-10.6792
▁opponents	-10.6793
▁memoir	-10.6793
▁keyboard	-10.6794
▁gran	-10.6795
▁1963	-10.6795
▁merger	-10.6796
tile	-10.6796
▁confirm	-10.6798
rative	-10.6799
▁save	-10.6799
▁enable	-10.68
▁depends	-10.6805
mol	-10.6808
▁44	-10.6819
cum	-10.6821
▁fragments	-10.6824
flow	-10.6828
▁alien	-10.683
▁1000	-10.6837
▁periodic	-10.6837
teen	-10.6841
▁predicted	-10.6843
▁trials	-10.6845
▁cartridge	-10.685
▁circumstances	-10.685
▁perception	-10.685
▁blind	-10.685
▁framework	-10.6851
▁childhood	-10.6852
▁entertainment	-10.6852
▁38	-10.6853
▁owner	-10.6856
▁besides	-10.6857
▁distinctive	-10.686
▁ark	-10.6865
▁fisher	-10.6867
▁mainland	-10.6875
lc	-10.6875
▁businesses	-10.6876
lang	-10.6881
▁publishing	-10.6882
8%	-10.6884
elle	-10.6895
▁adults	-10.6897
▁resemble	-10.69
▁metro	-10.6906
▁portrayed	-10.6906
wh	-10.6909
▁elaborate	-10.6909
▁holiday	-10.6909
▁manifest	-10.6909
▁shield	-10.6909
▁daniel	-10.6909
▁regulate	-10.691
bc	-10.6913
▁1948	-10.6914
▁1943	-10.6914
▁suitable	-10.6917
▁1914	-10.6917
▁rum	-10.6922
▁explore	-10.6931
def	-10.6931
tum	-10.6935
_5	-10.6935
▁75	-10.6942
present	-10.6947
▁depiction	-10.695
▁initiated	-10.695
▁geographical	-10.6955
▁passengers	-10.6965
▁anniversary	-10.6969
▁supplies	-10.6969
▁complain	-10.6969
phil	-10.6969
▁invited	-10.6969
▁varied	-10.697
▁roof	-10.6974
▁cooperation	-10.6975
▁engines	-10.6977
▁bones	-10.6978
▁farmers	-10.6987
▁fans	-10.6992
▁strait	-10.6997
united	-10.7019
resistant	-10.7028
▁uncertain	-10.7028
▁facility	-10.7029
▁phenomena	-10.7029
▁terminology	-10.7029
▁antimony	-10.7029
▁astatine	-10.7029
plan	-10.7029
▁residence	-10.703
▁treatise	-10.703
▁operates	-10.7032
▁inhibit	-10.7032
▁documentary	-10.7033
▁bel	-10.7033
▁(15	-10.704
▁push	-10.7042
▁wire	-10.7052
▁begins	-10.7062
▁immediate	-10.7066
▁shorter	-10.7071
▁drag	-10.7077
▁pit	-10.7081
▁antipsychotic	-10.7089
▁entrance	-10.7089
▁presidency	-10.7089
▁cabin	-10.7089
horn	-10.7093
▁eggs	-10.7094
▁replacement	-10.7094
▁ready	-10.7099
▁fluid	-10.7107
▁vessels	-10.7108
▁procedures	-10.7108
▁funds	-10.7109
atta	-10.7112
4%	-10.7116
ique	-10.712
▁franchise	-10.7123
▁candidates	-10.714
▁rat	-10.7148
cade	-10.7149
▁archipelago	-10.715
▁autumn	-10.715
▁avicenna	-10.715
▁bahamas	-10.715
▁solzhenitsyn	-10.715
▁telescope	-10.715
▁ordinary	-10.715
▁trouble	-10.715
▁dream	-10.715
▁fraction	-10.715
▁rainfall	-10.715
▁ariane	-10.7151
card	-10.7152
oz	-10.7158
hir	-10.7163
▁37	-10.7166
▁restored	-10.7168
▁poets	-10.7175
="19	-10.7189
fusion	-10.7194
▁dun	-10.7198
rank	-10.7201
science	-10.7203
guard	-10.7209
▁brandenburg	-10.7211
▁antibodies	-10.7211
▁guilty	-10.7211
▁johann	-10.7211
▁teeth	-10.7211
▁ethics	-10.7211
akh	-10.7212
▁dangerous	-10.7213
empt	-10.7216
▁fill	-10.7221
▁loop	-10.7224
▁really	-10.7224
▁medi	-10.7225
▁epic	-10.7226
▁finite	-10.7227
▁scheduled	-10.723
owned	-10.7231
▁mild	-10.7233
▁inc	-10.724
love	-10.724
▁preach	-10.7244
gard	-10.7246
eur	-10.7247
▁capita	-10.7252
–2	-10.726
elect	-10.726
▁collaborat	-10.726
south	-10.7268
▁accord	-10.7269
▁anthony	-10.7272
▁judicial	-10.7272
▁pronunciation	-10.7272
▁reception	-10.7272
▁amphibian	-10.7272
▁voyage	-10.7272
▁lewis	-10.7272
▁whorf	-10.7272
▁grammar	-10.7274
▁elevation	-10.7275
bn	-10.7275
▁bon	-10.7278
▁rhine	-10.7278
▁arrest	-10.7282
▁marry	-10.7298
▁beta	-10.7301
▁specification	-10.7306
▁requirements	-10.7307
▁winner	-10.7308
chlor	-10.732
▁attraction	-10.7321
▁gor	-10.7325
▁bits	-10.7327
▁cape	-10.7329
▁samuel	-10.7334
▁pupil	-10.7334
▁lithium	-10.7334
▁crater	-10.7334
▁fin	-10.7334
▁jazz	-10.7335
▁afterwards	-10.7336
▁downtown	-10.7337
▁1939	-10.7339
▁aaron	-10.7343
▁respond	-10.7344
▁cloth	-10.7347
▁determin	-10.7349
▁potentially	-10.7354
▁oak	-10.7362
maker	-10.7366
itis	-10.7376
▁romantic	-10.7385
nation	-10.739
▁wooden	-10.7391
▁francis	-10.7392
▁configuration	-10.7396
▁congregation	-10.7396
▁portrait	-10.7396
▁advice	-10.7396
▁1956	-10.7401
▁herself	-10.7403
▁bun	-10.7403
▁permit	-10.7405
▁alex	-10.7407
▁fired	-10.7409
qa	-10.7412
▁laden	-10.7416
pod	-10.742
▁ranks	-10.7427
▁anyone	-10.7427
▁looking	-10.743
▁feel	-10.7431
kov	-10.7432
▁karl	-10.7441
▁51	-10.7442
position	-10.7445
▁habitat	-10.7448
▁happened	-10.7453
franc	-10.7454
▁massacre	-10.7458
▁"[	-10.746
hawk	-10.7461
ulf	-10.7462
▁explicitly	-10.7467
▁enjoy	-10.7469
person	-10.7473
kel	-10.7478
▁resid	-10.7479
▁seeking	-10.7482
▁synthetic	-10.7491
▁aspect	-10.7497
-130	-10.7499
▁strict	-10.7499
▁shadow	-10.7509
▁strain	-10.7518
▁phenomenon	-10.7521
▁roussimoff	-10.7521
▁secular	-10.7521
▁alumni	-10.7521
▁gospel	-10.7521
▁investigate	-10.7521
▁threatened	-10.7521
▁permitted	-10.7524
eff	-10.7524
▁damaged	-10.7525
▁instrumental	-10.7528
▁maxim	-10.7529
▁10%	-10.7539
▁deployed	-10.754
hard	-10.7544
▁strengthen	-10.755
▁wealthy	-10.7551
▁tract	-10.7557
▁inscription	-10.7562
▁flor	-10.7564
▁measurements	-10.7565
▁ye	-10.7566
▁invad	-10.7567
▁10,000	-10.7568
mond	-10.7569
abdu	-10.7569
▁coat	-10.7569
▁39	-10.7569
▁thereby	-10.757
▁recovered	-10.7574
▁sphere	-10.7579
▁adapt	-10.758
computer	-10.7581
main	-10.7583
▁frederick	-10.7584
▁guarantee	-10.7584
▁mississippi	-10.7584
▁beauty	-10.7584
▁session	-10.7585
▁plural	-10.7585
▁apostles	-10.7585
omic	-10.7587
▁consent	-10.7587
▁mini	-10.7588
▁scored	-10.7588
idae	-10.7588
▁trail	-10.7597
▁transit	-10.7608
just	-10.7615
tun	-10.7619
hell	-10.7625
▁elite	-10.7629
▁independently	-10.7632
▁reforms	-10.7634
▁battalion	-10.7648
▁corruption	-10.7648
▁matrix	-10.7648
▁americium	-10.7648
▁warfare	-10.7648
▁resigned	-10.7648
▁resort	-10.7648
▁antimicrobial	-10.7649
▁stopped	-10.765
▁likewise	-10.765
▁consideration	-10.7651
▁acceptance	-10.7652
▁manufacturers	-10.7655
▁seeing	-10.7655
▁1918	-10.7656
design	-10.7658
▁retail	-10.766
allosaurus	-10.766
▁restrict	-10.766
▁wound	-10.766
▁pull	-10.7663
▁antigen	-10.7664
▁kb	-10.7668
ogen	-10.7675
▁canton	-10.7681
▁kr	-10.7684
▁divide	-10.7685
omorph	-10.7688
auto	-10.7697
▁invaded	-10.77
▁clay	-10.7703
▁creature	-10.7712
▁judgment	-10.7712
ifying	-10.7712
▁wrong	-10.7712
▁medication	-10.7712
▁wolf	-10.7713
▁lawyer	-10.7714
god	-10.7716
▁persist	-10.7719
▁difficulties	-10.772
▁guest	-10.7721
russian	-10.7723
▁amway	-10.7723
gir	-10.7726
dale	-10.7731
▁var	-10.7731
▁franco	-10.7736
▁fighter	-10.7737
tem	-10.7743
▁cub	-10.7744
ophi	-10.7744
▁1,000	-10.7744
▁politicians	-10.7746
gul	-10.7768
hold	-10.7776
▁bachchan	-10.7777
▁clergy	-10.7777
▁michigan	-10.7777
▁virtue	-10.7777
▁houston	-10.7777
▁jacob	-10.7777
▁geometric	-10.7777
▁everything	-10.7778
about	-10.7785
▁thereafter	-10.7785
pop	-10.779
_6	-10.7794
turn	-10.7795
burn	-10.7797
ben	-10.7804
master	-10.7807
▁combine	-10.7813
▁bern	-10.7819
▁spending	-10.782
▁detect	-10.7823
▁tactic	-10.7823
▁contribution	-10.7831
▁wider	-10.7832
soft	-10.7838
▁substances	-10.7842
▁friedrich	-10.7842
▁hollywood	-10.7842
▁salieri	-10.7842
▁swiss	-10.7842
▁trigger	-10.7842
▁hopkins	-10.7842
▁dozen	-10.7842
▁ridge	-10.7842
▁48	-10.7842
▁capability	-10.7844
▁mainstream	-10.7844
▁adventure	-10.7844
▁punishment	-10.7845
▁painted	-10.7847
ural	-10.7849
look	-10.7851
latin	-10.7853
nan	-10.7856
▁someone	-10.7857
vir	-10.7859
▁commanded	-10.7859
▁defendant	-10.7859
▁habit	-10.7861
building	-10.7863
▁tasks	-10.7866
rick	-10.7866
▁antidepressants	-10.7866
deemed	-10.7873
▁enabled	-10.7874
coming	-10.7875
▁semitic	-10.7878
▁lamb	-10.7882
▁solo	-10.7892
odi	-10.7892
▁losses	-10.7895
active	-10.7895
▁absorption	-10.7907
▁defensive	-10.7907
▁enemies	-10.7907
▁impression	-10.7907
▁mesopotamia	-10.7907
▁tarkovsky	-10.7907
▁nomination	-10.7907
oriented	-10.7907
▁neighborhood	-10.7907
▁evil	-10.7907
jewish	-10.7908
product	-10.7908
▁duties	-10.7909
▁underground	-10.7911
▁banned	-10.7911
▁1919	-10.7913
▁ranking	-10.7915
▁"...	-10.7916
▁toxic	-10.7917
▁newspapers	-10.7921
▁wings	-10.7929
▁panel	-10.7938
▁crossed	-10.7941
▁arabian	-10.7942
rine	-10.7952
▁pont	-10.7953
▁minerals	-10.7954
▁sheet	-10.7954
lov	-10.7955
▁equations	-10.7956
▁oblig	-10.7973
▁calendar	-10.7973
▁capabilities	-10.7973
▁familiar	-10.7973
▁disputed	-10.7973
▁restoration	-10.7973
▁frog	-10.7973
▁distant	-10.7973
▁replica	-10.7973
holder	-10.7973
▁ammoniu	-10.7974
▁correspondence	-10.7975
▁voters	-10.7981
▁devoted	-10.7982
stellar	-10.7982
▁upgrade	-10.7982
chin	-10.7983
▁predominantly	-10.7983
▁bombing	-10.7985
▁virtually	-10.7988
▁nar	-10.7989
▁pronounced	-10.7991
▁ker	-10.7995
north	-10.7997
▁aged	-10.8014
▁chess	-10.8015
mount	-10.8017
▁witness	-10.8023
ographer	-10.8026
mov	-10.8038
▁ancestry	-10.8039
▁consecutive	-10.8039
▁declaration	-10.8039
▁alkanes	-10.8039
▁activist	-10.8039
▁merged	-10.8039
▁ninth	-10.8039
▁membrane	-10.804
▁cow	-10.8042
▁reportedly	-10.8042
▁confusion	-10.8043
▁aruba	-10.8044
▁plateau	-10.8044
▁cheap	-10.8046
▁gender	-10.8047
▁sick	-10.8049
▁hunter	-10.8053
▁1910	-10.8053
▁hole	-10.8062
▁bbs	-10.8074
▁johnston	-10.8074
▁flee	-10.8084
▁decreased	-10.8085
hop	-10.8094
▁ensu	-10.8096
▁dub	-10.8099
▁decimal	-10.8106
▁moscow	-10.8106
▁nervous	-10.8106
▁thirteen	-10.8106
▁mirror	-10.8106
▁insurance	-10.8106
▁syllable	-10.8106
▁remote	-10.8106
▁ahmed	-10.8106
▁airways	-10.8106
▁croatia	-10.8107
▁ownership	-10.8107
▁piano	-10.8108
▁manufacturer	-10.8108
▁wilson	-10.8109
▁literal	-10.8109
saxon	-10.811
▁occurring	-10.811
▁hired	-10.8111
capitalism	-10.8112
▁locally	-10.8113
ania	-10.8114
▁monarchs	-10.8114
citing	-10.8114
▁singing	-10.8114
▁finger	-10.8116
▁tourists	-10.8116
▁slot	-10.8117
▁bread	-10.8118
▁tribe	-10.8119
▁calculated	-10.8122
▁package	-10.8124
▁milan	-10.8126
▁instructions	-10.8128
▁neighboring	-10.813
▁jar	-10.8141
▁logical	-10.8152
4)	-10.8153
▁demo	-10.8154
big	-10.8162
▁namely	-10.8168
box	-10.8171
▁colleague	-10.8173
▁encompass	-10.8173
▁competitive	-10.8173
▁compromise	-10.8173
▁intervention	-10.8173
▁lieutenant	-10.8173
▁tunnel	-10.8173
▁admitted	-10.8174
conf	-10.8175
▁bag	-10.8175
▁pathway	-10.8177
break	-10.8177
▁asu	-10.8179
corp	-10.8185
▁lady	-10.8187
▁flowers	-10.8198
▁educated	-10.82
▁else	-10.82
▁cd	-10.8201
▁backup	-10.8206
▁cam	-10.8209
▁steve	-10.8214
induced	-10.8234
▁termed	-10.8235
▁philippines	-10.8236
▁affair	-10.824
ecclesia	-10.824
▁contradict	-10.824
▁intercept	-10.824
▁necessarily	-10.824
▁physicist	-10.824
▁alchemy	-10.824
▁filter	-10.824
▁heavier	-10.824
▁sculptor	-10.8241
▁disappear	-10.8241
▁antibody	-10.8244
▁radius	-10.8244
▁corner	-10.8245
hot	-10.8245
▁1955	-10.8247
▁spi	-10.8256
▁antarctic	-10.8261
after	-10.8262
▁macedonian	-10.8265
▁(4	-10.8267
▁ankara	-10.8267
▁preserve	-10.828
▁kir	-10.828
two	-10.8281
▁engineers	-10.8282
▁cyclo	-10.8282
wen	-10.8292
▁negotiations	-10.8299
▁norman	-10.8302
▁registered	-10.8307
▁anabaptist	-10.8308
▁argentina	-10.8308
▁circular	-10.8308
▁maintenance	-10.8308
▁navigation	-10.8308
▁orientation	-10.8308
▁spectral	-10.8308
▁numeral	-10.8308
▁suicide	-10.8308
▁governed	-10.8309
▁scope	-10.831
▁friendship	-10.8312
▁arctic	-10.8314
▁regardless	-10.8315
party	-10.8317
ān	-10.832
▁archive	-10.8321
▁collaboration	-10.8321
▁repeated	-10.8323
▁transformation	-10.8323
pad	-10.8328
▁interested	-10.8333
▁praised	-10.8333
hill	-10.8339
▁1880	-10.8347
film	-10.8347
▁steal	-10.8349
▁withdraw	-10.8362
▁bahá	-10.8364
▁bosnian	-10.8368
▁notation	-10.837
▁nato	-10.837
▁equat	-10.8372
communica	-10.8375
▁adhesive	-10.8377
▁exploration	-10.8377
▁lawsuit	-10.8377
▁armstrong	-10.8377
▁injury	-10.8377
▁emit	-10.838
▁banach	-10.8382
▁babylonian	-10.8382
grand	-10.8382
▁boundary	-10.8383
alpha	-10.8384
prim	-10.8389
▁succeed	-10.8394
▁steam	-10.8395
cca	-10.8398
▁documented	-10.8402
▁seemed	-10.8406
▁sig	-10.8407
ulus	-10.841
▁jim	-10.8414
▁stronger	-10.8421
▁whit	-10.8421
▁princess	-10.8421
tory	-10.8423
▁grey	-10.8432
self	-10.8443
▁monk	-10.8446
▁arbitration	-10.8446
▁participation	-10.8446
beowulf	-10.8446
▁danger	-10.8447
▁alaric	-10.8447
methyl	-10.8447
▁honey	-10.8449
▁morning	-10.8449
▁argon	-10.8452
fiction	-10.8454
blue	-10.8456
christian	-10.8457
▁victims	-10.8462
▁withdrawal	-10.8463
held	-10.8467
nau	-10.847
mass	-10.8473
▁correction	-10.8476
▁battery	-10.8477
▁vital	-10.848
▁abuse	-10.848
treaties	-10.8486
▁blu	-10.8494
▁defended	-10.8496
made	-10.85
▁serbia	-10.8502
mara	-10.8512
▁earthquake	-10.8515
▁promotion	-10.8515
▁diversity	-10.8515
▁easier	-10.8515
▁reproduction	-10.8515
▁removal	-10.8515
▁client	-10.8515
▁nuclei	-10.8516
▁defect	-10.8516
▁rifle	-10.8516
▁creative	-10.8517
▁recover	-10.8517
▁1952	-10.8521
▁replac	-10.8521
▁chairman	-10.8521
▁hitler	-10.8523
▁oath	-10.8524
▁molecule	-10.8524
complete	-10.8525
▁1912	-10.8527
▁berg	-10.8533
▁administered	-10.8536
bird	-10.8537
▁crossing	-10.8543
aught	-10.8544
▁eighth	-10.8545
▁cannon	-10.8547
rock	-10.8547
▁crop	-10.8552
▁engage	-10.8553
tv	-10.8558
▁involve	-10.8563
▁passes	-10.857
▁usual	-10.8573
▁connector	-10.8575
▁mod	-10.8579
▁mul	-10.8585
▁challenged	-10.8585
▁obvious	-10.8585
▁acropolis	-10.8585
▁episcopal	-10.8585
▁mammals	-10.8585
▁mexican	-10.8585
▁rhythm	-10.8585
▁sayyaf	-10.8585
▁submitted	-10.8585
▁suffix	-10.8585
▁volunteer	-10.8585
▁funeral	-10.8585
▁guidance	-10.8585
▁servant	-10.8585
▁compact	-10.8586
▁darwin	-10.8586
▁zinc	-10.8586
▁transmit	-10.8586
▁falcons	-10.8588
craft	-10.8592
▁1928	-10.8592
▁inventor	-10.8593
cultural	-10.8595
august	-10.8595
mouth	-10.8596
▁consonant	-10.8597
string	-10.8601
▁burning	-10.8604
nut	-10.8607
▁rice	-10.8612
▁sid	-10.8618
tropic	-10.8622
▁gland	-10.8635
▁transform	-10.8647
▁humanity	-10.865
▁$3	-10.865
oxy	-10.8654
▁keeping	-10.8654
▁behaviour	-10.8656
▁helicopter	-10.8656
▁perspective	-10.8656
▁volcanic	-10.8656
▁smooth	-10.8656
▁barrier	-10.8656
▁prototype	-10.8656
▁frontier	-10.8661
▁loose	-10.8662
▁moses	-10.8664
▁fiber	-10.8666
effect	-10.8668
▁belarusian	-10.8673
▁prohibit	-10.8675
▁1860	-10.8684
▁1890	-10.8685
3,000	-10.8687
enberg	-10.8689
▁addressed	-10.8693
plane	-10.87
▁dollars	-10.8702
governing	-10.8706
iness	-10.8709
▁update	-10.8712
▁jam	-10.8719
("	-10.8726
▁vegetable	-10.8727
▁accrington	-10.8727
▁benjamin	-10.8727
▁confederation	-10.8727
▁crucial	-10.8727
▁emergency	-10.8727
▁fantasy	-10.8727
▁integral	-10.8727
▁precipitation	-10.8727
▁terrain	-10.8727
▁modification	-10.8728
▁jones	-10.8731
▁melting	-10.8733
–17	-10.8734
govern	-10.8739
haus	-10.8742
▁shall	-10.8743
blade	-10.8749
▁informal	-10.8756
▁imposed	-10.8763
▁stayed	-10.8769
▁shooting	-10.877
▁thinking	-10.8777
▁benin	-10.8783
▁autonomy	-10.8798
▁commerce	-10.8798
▁dürer	-10.8798
▁welsh	-10.8798
▁louisiana	-10.8798
▁indonesia	-10.8798
▁livestock	-10.8799
exclud	-10.8799
▁intense	-10.8799
▁citizenship	-10.8799
▁talent	-10.88
▁chapel	-10.88
▁sync	-10.8803
▁simultaneously	-10.8807
6%	-10.8807
▁lauren	-10.8809
▁astronomers	-10.8811
▁lit	-10.8813
▁cia	-10.8826
jack	-10.8832
▁kra	-10.8836
▁reflection	-10.884
▁acknowledged	-10.8842
▁convict	-10.8855
▁corporate	-10.887
▁huxley	-10.887
▁attorney	-10.887
▁patriarch	-10.887
▁requiring	-10.887
▁concrete	-10.887
▁jordan	-10.887
▁entities	-10.887
▁bigfoot	-10.887
▁bulk	-10.8871
▁entity	-10.8871
▁coined	-10.8872
▁andersson	-10.8872
▁latitude	-10.8873
▁venture	-10.8873
▁dioxide	-10.8873
▁tennis	-10.8875
▁1929	-10.8877
▁1949	-10.8877
lex	-10.888
▁highlight	-10.8881
▁convinced	-10.8882
chemical	-10.8883
bahá	-10.8884
develop	-10.8884
▁vest	-10.8887
▁rush	-10.8889
▁citizen	-10.8891
although	-10.8896
▁promised	-10.8897
▁merit	-10.8899
▁measurement	-10.8901
▁encourage	-10.8914
▁hatch	-10.8914
▁scan	-10.8915
▁cher	-10.8918
▁drum	-10.8926
▁arise	-10.8927
▁extensively	-10.8929
▁theologian	-10.8942
▁culminat	-10.8942
▁probability	-10.8942
▁nominated	-10.8942
▁chloride	-10.8942
fluoride	-10.8943
clar	-10.8943
▁restrictions	-10.8944
disc	-10.8944
▁considerably	-10.8945
▁discover	-10.8945
▁taste	-10.8948
▁compatible	-10.8949
▁octa	-10.895
function	-10.8958
▁forcing	-10.8961
specific	-10.8961
▁encounter	-10.8964
polar	-10.8975
▁alcoholic	-10.8977
▁demonstrate	-10.8987
▁ear	-10.8987
fort	-10.8988
▁assume	-10.899
force	-10.8993
▁persia	-10.8994
▁israeli	-10.9001
▁accuracy	-10.9015
▁commodore	-10.9015
▁constituent	-10.9015
▁demonstration	-10.9015
▁ingredient	-10.9015
▁mechanics	-10.9015
▁millennium	-10.9015
▁societies	-10.9015
▁albedo	-10.9015
▁mistake	-10.9017
▁worse	-10.9018
▁proven	-10.9019
▁geological	-10.9019
▁involvement	-10.902
assi	-10.902
▁attempting	-10.9025
▁1958	-10.9026
▁payment	-10.9031
fit	-10.9033
▁beam	-10.9039
▁recognised	-10.9042
lite	-10.905
▁cel	-10.9051
dependent	-10.9056
▁bac	-10.906
▁rav	-10.9065
▁antarctica	-10.9066
meric	-10.9067
zan	-10.9067
ility	-10.9072
▁hypo	-10.9079
▁studying	-10.9083
▁bore	-10.9084
▁dinosaur	-10.9089
▁integration	-10.9089
▁judaism	-10.9089
soluble	-10.9089
▁worn	-10.909
▁unclear	-10.9094
▁1946	-10.9095
▁arose	-10.9095
▁1954	-10.9096
▁alcott	-10.9098
▁1917	-10.9099
front	-10.9106
great	-10.9107
▁terrorist	-10.9108
▁prediction	-10.9113
you	-10.9129
human	-10.9131
▁cash	-10.9133
▁#	-10.9145
▁crewed	-10.9149
▁villa	-10.9149
▁homo	-10.9152
ör	-10.9152
▁analytical	-10.9163
▁andronikos	-10.9163
▁diocese	-10.9163
▁equipped	-10.9163
▁polynomial	-10.9163
▁aquaculture	-10.9163
▁deficit	-10.9163
▁electoral	-10.9163
▁disaster	-10.9163
mul	-10.9163
tone	-10.9163
▁flew	-10.9165
▁caught	-10.9168
▁arabia	-10.9169
▁flame	-10.9171
▁shock	-10.9173
▁dishes	-10.9175
▁lind	-10.9176
▁reject	-10.9177
father	-10.9182
may	-10.9187
▁initiat	-10.9187
when	-10.9193
▁trick	-10.9194
yne	-10.9195
▁fragment	-10.9196
▁astronaut	-10.9196
▁masses	-10.9201
▁noise	-10.9201
▁algerian	-10.9204
iii	-10.9208
dorf	-10.9212
read	-10.9213
▁transformed	-10.9218
▁refuge	-10.9222
▁pad	-10.9222
▁sri	-10.9227
hil	-10.9233
▁currency	-10.9238
▁decisive	-10.9238
▁temporary	-10.9238
▁creek	-10.9239
▁predator	-10.9239
▁speaker	-10.924
onym	-10.9241
▁engagement	-10.9242
▁actress	-10.9242
four	-10.9243
heli	-10.9244
▁subset	-10.9248
▁1925	-10.9248
▁50%	-10.9249
▁camus	-10.9253
generation	-10.9258
▁chile	-10.9261
▁mike	-10.928
bron	-10.9282
▁mut	-10.9283
▁conclude	-10.9284
▁dock	-10.9286
▁window	-10.929
▁polymer	-10.9298
▁murdered	-10.9303
▁relate	-10.9306
astron	-10.9308
▁grass	-10.9312
▁aurochs	-10.9313
▁baptism	-10.9313
▁proclaimed	-10.9313
▁atlantis	-10.9313
▁driving	-10.9313
▁behalf	-10.9313
▁utiliz	-10.9313
capitalist	-10.9319
▁1959	-10.9319
▁morris	-10.9319
▁textile	-10.9319
▁apartment	-10.932
▁iranian	-10.9324
number	-10.9334
▁esp	-10.9335
government	-10.9338
▁populated	-10.9345
▁deaf	-10.9347
quest	-10.9347
text	-10.9357
▁ross	-10.9368
river	-10.937
▁graphic	-10.9372
▁politically	-10.9383
▁fictional	-10.9388
▁abbreviation	-10.9389
▁aberdare	-10.9389
▁dissolved	-10.9389
▁sacrament	-10.9389
▁cluster	-10.9389
▁sudden	-10.9389
▁substitute	-10.9389
▁animated	-10.9389
▁afford	-10.9389
▁berber	-10.9389
▁bubble	-10.9389
▁bromine	-10.939
▁preference	-10.9391
▁evolutionary	-10.9394
electric	-10.9397
▁battlefield	-10.9397
▁korea	-10.94
▁listen	-10.9402
▁volta	-10.9404
▁wore	-10.9409
▁turning	-10.9413
▁conquer	-10.9413
▁demanded	-10.9414
lé	-10.9416
death	-10.9422
▁joe	-10.9422
ika	-10.9423
▁simon	-10.9425
▁modest	-10.9426
▁passion	-10.9432
gil	-10.9433
▁requested	-10.9433
▁memo	-10.9434
▁prey	-10.9448
▁tested	-10.9456
▁freed	-10.9457
▁abundant	-10.9465
▁autobiography	-10.9465
▁chekhov	-10.9465
▁fulfill	-10.9465
▁mercury	-10.9465
▁unemployment	-10.9465
▁lombard	-10.9465
▁psychological	-10.9465
▁rugby	-10.9465
▁synthesize	-10.9465
▁barbuda	-10.9465
▁aerodynamic	-10.9465
▁bardot	-10.9465
▁regain	-10.9465
▁attested	-10.9465
▁meteor	-10.9465
▁cappella	-10.9466
▁biographer	-10.9466
▁eleven	-10.9467
▁completion	-10.9468
▁confront	-10.9469
▁1957	-10.947
▁remainder	-10.9471
▁1926	-10.9472
▁sword	-10.9472
▁uncle	-10.9478
▁imported	-10.9479
▁weigh	-10.9483
lived	-10.949
▁erected	-10.9492
stadt	-10.95
male	-10.9502
▁neu	-10.9509
▁promise	-10.9513
brand	-10.9517
▁bias	-10.9518
▁escaped	-10.9519
▁desired	-10.9522
▁introduce	-10.953
archaeopteryx	-10.9542
▁occupy	-10.9542
▁opportunities	-10.9542
▁agarose	-10.9542
▁quantity	-10.9542
▁harvest	-10.9542
▁austro	-10.9543
▁maritime	-10.9544
▁isaac	-10.9544
▁davis	-10.9547
▁plac	-10.9547
▁scientist	-10.9547
▁1953	-10.9548
▁landmark	-10.955
nell	-10.955
▁1913	-10.9551
opo	-10.9556
▁counterpart	-10.9559
what	-10.9561
▁dick	-10.9563
action	-10.957
▁median	-10.9576
▁saved	-10.958
▁jun	-10.9582
▁mega	-10.959
bow	-10.9591
▁unity	-10.9591
ello	-10.9595
▁guy	-10.96
▁rub	-10.9602
atur	-10.9616
quality	-10.9617
▁agamemnon	-10.9619
▁participant	-10.9619
▁routine	-10.9619
▁overseas	-10.962
▁gordon	-10.962
▁nerve	-10.9621
▁infant	-10.9622
▁plague	-10.9622
▁appointment	-10.9623
▁persecution	-10.9624
▁informed	-10.9624
▁abner	-10.9627
▁metaboli	-10.963
▁hippo	-10.9632
stream	-10.9643
▁gathered	-10.9646
▁thanks	-10.9652
▁wait	-10.9652
lecommunications	-10.9653
▁gay	-10.9655
▁spend	-10.9657
▁warning	-10.9671
▁reverse	-10.9671
▁alive	-10.9675
▁quick	-10.9677
_7	-10.9678
▁shut	-10.9682
▁120	-10.9683
▁dome	-10.9692
▁confederacy	-10.9697
▁durrani	-10.9697
▁illinois	-10.9697
▁multiplication	-10.9697
▁squadron	-10.9697
▁supplied	-10.9697
▁vacuum	-10.9697
▁profile	-10.9698
▁agencies	-10.9698
▁bureau	-10.9698
▁ultra	-10.9698
▁athlon	-10.9699
▁1938	-10.9704
▁personally	-10.9704
▁maintaining	-10.9704
▁hut	-10.9705
▁travelled	-10.9705
▁harsh	-10.9715
▁geographic	-10.9717
feld	-10.9731
ceded	-10.9733
▁entering	-10.9736
allah	-10.9741
▁jr	-10.9749
ghan	-10.975
▁triple	-10.975
▁pipe	-10.9751
▁vessel	-10.9752
▁mcc	-10.9761
▁korean	-10.9764
▁comparative	-10.9776
▁lavoisier	-10.9776
▁symphony	-10.9776
▁coincide	-10.9776
▁burundi	-10.9776
▁fabric	-10.9776
▁acute	-10.978
flu	-10.9781
▁1933	-10.9783
▁metallic	-10.9783
▁dependence	-10.9783
▁1915	-10.9787
▁wag	-10.9787
▁ethical	-10.979
▁lung	-10.9794
▁mystic	-10.9803
season	-10.9805
▁trap	-10.9811
▁$5	-10.9813
▁celebrate	-10.9827
cost	-10.983
▁liver	-10.983
tius	-10.9836
▁broadcasting	-10.9846
▁lib	-10.9852
▁acquisition	-10.9856
▁efficiency	-10.9856
▁explosive	-10.9856
▁hellenistic	-10.9856
▁jaguar	-10.9856
▁negotiate	-10.9856
▁beethoven	-10.9856
▁surprise	-10.9856
▁ongoing	-10.9859
▁mortality	-10.9859
▁filed	-10.986
▁tribal	-10.9861
▁1937	-10.9863
▁deeply	-10.9866
▁reward	-10.9867
▁duty	-10.9868
named	-10.9868
▁2600	-10.9869
▁successive	-10.988
▁manufactured	-10.9881
three	-10.9887
▁sensitive	-10.989
–16	-10.9892
cip	-10.9898
open	-10.9899
mr	-10.9917
▁commissioner	-10.9927
itch	-10.9934
▁athletic	-10.9936
▁furniture	-10.9936
▁carolla	-10.9936
▁motif	-10.9936
▁repair	-10.9936
▁fleming	-10.9936
▁saudi	-10.9936
▁liberation	-10.9936
▁abroad	-10.9937
▁raj	-10.9937
▁fortress	-10.9937
road	-10.9938
▁pasha	-10.9942
▁edict	-10.9943
▁ascend	-10.9946
hispanic	-10.9947
▁yu	-10.9948
▁kal	-10.9952
prop	-10.9953
▁seized	-10.9966
correct	-10.9966
historic	-10.9967
shaped	-10.9968
▁emotion	-10.9977
▁breaking	-10.9979
▁rib	-10.9986
▁macedonia	-10.9997
▁arbitrage	-11.0016
▁bandwidth	-11.0016
▁inherited	-11.0016
▁marlborough	-11.0016
▁relevant	-11.0016
▁skeleton	-11.0016
▁danube	-11.0016
▁enterprise	-11.0016
▁algiers	-11.0016
▁readily	-11.0016
▁golf	-11.0021
▁grade	-11.0024
para	-11.0027
articulat	-11.0032
▁raw	-11.0037
coll	-11.0039
▁laser	-11.0041
▁100,000	-11.0047
▁kent	-11.0048
five	-11.0048
▁belonging	-11.0066
▁manage	-11.0068
established	-11.0069
final	-11.0072
▁encountered	-11.0074
atomic	-11.0081
▁cruise	-11.0095
▁shaped	-11.0096
▁celestial	-11.0098
▁departure	-11.0098
▁economist	-11.0098
▁enormous	-11.0098
apatosaurus	-11.0098
▁prevail	-11.0098
▁russell	-11.0098
▁deliberate	-11.0098
▁avenue	-11.0098
▁arguing	-11.0098
▁analyze	-11.0098
▁emigrat	-11.0098
▁rescue	-11.0098
▁scandal	-11.0098
▁mongol	-11.0099
▁surgery	-11.01
▁enforcement	-11.0101
▁1908	-11.0103
▁1905	-11.0103
▁accent	-11.0104
▁hugh	-11.0108
▁anderson	-11.0108
▁robot	-11.0109
▁extraction	-11.0109
▁minute	-11.0111
atus	-11.0112
▁silk	-11.0114
▁malaysia	-11.0127
byte	-11.0128
▁kant	-11.0133
▁shoot	-11.0133
▁olive	-11.0136
▁gray	-11.0138
▁looked	-11.0148
400	-11.015
▁nur	-11.0152
▁instruct	-11.0165
rash	-11.0165
▁introduc	-11.0166
▁quo	-11.0166
▁respective	-11.0168
▁chemist	-11.0176
universit	-11.0179
▁ethiopia	-11.018
▁fifteen	-11.018
▁garrison	-11.018
▁petroleum	-11.018
▁schweitzer	-11.018
▁survival	-11.018
▁zubaydah	-11.018
▁additive	-11.018
▁hazard	-11.018
correlation	-11.018
▁anatomy	-11.018
▁sulfur	-11.018
▁sentiment	-11.018
▁pillar	-11.018
▁unesco	-11.018
▁emergence	-11.018
▁gap	-11.018
▁boundaries	-11.0181
▁specified	-11.0182
bble	-11.0183
▁trump	-11.0183
▁nominal	-11.0183
▁underlying	-11.0184
▁1923	-11.0186
arily	-11.0187
▁pig	-11.0188
hydro	-11.0193
▁ride	-11.0214
greek	-11.0214
foot	-11.0219
gun	-11.0226
him	-11.0239
▁suggestion	-11.0242
qi	-11.0244
▁flown	-11.026
rou	-11.0261
▁sydney	-11.0262
▁cauchy	-11.0262
▁deputy	-11.0262
▁abalone	-11.0262
▁antonio	-11.0262
▁venice	-11.0266
current	-11.0268
▁1931	-11.0269
▁burial	-11.027
▁1922	-11.027
▁equally	-11.0275
▁boom	-11.0277
▁shu	-11.0278
▁inhabited	-11.0286
▁appoint	-11.0291
▁acknowledg	-11.0294
wind	-11.0295
▁dismissed	-11.0296
weight	-11.0301
▁nationalist	-11.0302
bank	-11.0303
▁properly	-11.0321
▁dealing	-11.0324
▁nile	-11.0332
▁tram	-11.0345
ultimate	-11.0345
▁consensus	-11.0345
▁douglas	-11.0345
▁harbour	-11.0345
▁precision	-11.0345
▁proclamation	-11.0345
▁identification	-11.0345
▁sediment	-11.0345
▁eagle	-11.0346
▁converge	-11.0346
▁evangelical	-11.0346
▁shrine	-11.0347
▁turks	-11.0348
▁dylan	-11.0348
▁boost	-11.0349
calvin	-11.036
▁tag	-11.0362
▁rating	-11.0371
written	-11.0383
▁probe	-11.0385
▁shifted	-11.0394
▁presentation	-11.0396
▁zoo	-11.0405
▁commercially	-11.0406
kara	-11.0407
trust	-11.0407
▁lineage	-11.0408
▁pushed	-11.0418
▁thi	-11.0422
▁excess	-11.0426
▁opponent	-11.0427
▁abolished	-11.043
▁comparable	-11.043
▁examination	-11.043
▁faculty	-11.043
▁octavian	-11.043
▁privilege	-11.043
▁relativity	-11.043
▁abydos	-11.043
▁apoptosis	-11.043
▁adrenal	-11.043
▁injuries	-11.043
▁violation	-11.043
▁synonym	-11.043
austral	-11.0431
▁victories	-11.0432
▁honorary	-11.044
▁stag	-11.0448
▁1861	-11.0452
▁realized	-11.0453
▁overlap	-11.0458
$1	-11.0459
ía	-11.0459
political	-11.047
▁earl	-11.0472
chief	-11.0472
▁gases	-11.0476
▁lamp	-11.048
best	-11.0489
▁troy	-11.049
▁fatal	-11.051
▁enforce	-11.0513
▁punish	-11.0514
associative	-11.0514
▁acapulco	-11.0514
▁accompany	-11.0514
▁allegiance	-11.0514
▁asymptote	-11.0514
▁cognitive	-11.0514
▁grothendieck	-11.0514
▁wheat	-11.0514
▁widow	-11.0514
▁liberty	-11.0514
▁1862	-11.0514
▁anticipat	-11.0515
▁aleut	-11.0516
▁dramatically	-11.0518
▁nitride	-11.0519
▁gone	-11.052
▁1901	-11.0522
▁abdul	-11.0522
zh	-11.0525
▁mood	-11.053
▁joy	-11.054
▁andalusian	-11.0545
jour	-11.0553
divi	-11.0555
culture	-11.0559
▁steven	-11.0563
note	-11.0565
▁premiere	-11.0565
good	-11.0569
▁wage	-11.0572
▁decide	-11.0572
▁facilitate	-11.0572
▁relat	-11.0573
▁settle	-11.0573
wald	-11.0588
▁assembled	-11.06
▁christopher	-11.06
▁enlightenment	-11.06
▁pilgrim	-11.06
▁technological	-11.06
▁expense	-11.06
▁promoting	-11.06
▁disciple	-11.06
▁signature	-11.06
▁gothic	-11.06
▁defining	-11.06
▁cpc	-11.06
▁exhaust	-11.06
peptide	-11.0601
▁clause	-11.0602
▁scholarship	-11.0603
▁voltage	-11.0604
▁attendance	-11.0604
▁modulation	-11.0604
▁getting	-11.061
camp	-11.0612
▁fallen	-11.0613
music	-11.0613
▁bak	-11.0614
took	-11.0616
▁bacterial	-11.0618
▁gaul	-11.0623
▁certainly	-11.0625
genesis	-11.0629
▁socio	-11.0635
▁rally	-11.0638
▁quin	-11.0639
▁descended	-11.064
▁armored	-11.0641
apollo	-11.0642
▁sure	-11.0642
group	-11.0645
ogenic	-11.0646
▁rent	-11.0649
▁ceo	-11.0663
▁enhance	-11.0664
▁terror	-11.0664
▁irre	-11.067
▁comprehensive	-11.0686
▁hemisphere	-11.0686
▁mitchell	-11.0686
▁whilst	-11.0686
▁emerging	-11.0686
▁hawaii	-11.0686
▁ukraine	-11.0686
▁variance	-11.0686
▁inflation	-11.0687
▁stick	-11.0687
▁gallery	-11.0687
▁tongue	-11.0687
asia	-11.0688
▁akkadian	-11.0688
▁symbolic	-11.069
▁accessible	-11.0692
roving	-11.0693
▁serial	-11.0693
assa	-11.0694
▁firing	-11.0695
▁biology	-11.0696
▁bitter	-11.0696
atom	-11.0702
▁dealer	-11.071
▁methodist	-11.0722
▁printing	-11.0726
▁consistently	-11.0726
hungarian	-11.0729
▁cord	-11.073
▁quote	-11.0765
▁otto	-11.077
▁disrupt	-11.0773
▁divorce	-11.0773
▁monastic	-11.0773
▁withdrew	-11.0773
▁munich	-11.0773
▁slope	-11.0773
▁constrain	-11.0773
▁climb	-11.0773
▁automobile	-11.0773
▁facing	-11.0774
▁revised	-11.0775
▁communicate	-11.0775
▁transmitted	-11.0776
▁dragon	-11.0779
▁decree	-11.0783
symmetr	-11.0787
▁chronic	-11.0788
▁relocat	-11.0788
▁prose	-11.0788
▁carries	-11.0789
▁altar	-11.0799
▁bruce	-11.0802
▁sheep	-11.0802
hour	-11.0807
▁1870	-11.081
▁1830	-11.0821
▁hang	-11.0821
grade	-11.0832
▁arrive	-11.0832
▁wounded	-11.0844
▁authentic	-11.0861
▁competing	-11.0861
▁irregular	-11.0861
▁syndrome	-11.0861
▁harbor	-11.0861
▁punjab	-11.0861
▁worst	-11.0861
▁cambridge	-11.0861
▁fern	-11.0862
▁oscar	-11.0865
▁prefix	-11.0866
▁southeastern	-11.0867
▁interval	-11.0869
▁favorite	-11.0875
▁incorporat	-11.088
▁similarities	-11.0881
▁receiver	-11.0883
▁instant	-11.0884
▁repeatedly	-11.089
core	-11.089
lord	-11.0893
▁thy	-11.09
▁emotional	-11.0903
▁closest	-11.0907
fight	-11.0907
▁secured	-11.091
titude	-11.0927
▁victor	-11.094
▁assisted	-11.0944
▁compress	-11.0945
▁battlecruiser	-11.0949
▁hurricane	-11.0949
▁jupiter	-11.0949
▁ulvaeus	-11.0949
▁vivaldi	-11.0949
▁epithet	-11.0949
▁carved	-11.095
▁freshwater	-11.095
▁decoration	-11.0951
▁immigration	-11.0951
▁finland	-11.0953
▁raising	-11.0953
▁1927	-11.0959
▁vega	-11.0965
▁extending	-11.0978
▁enhanced	-11.0979
▁dust	-11.0985
▁fever	-11.0988
▁prepare	-11.0989
stead	-11.0989
▁pine	-11.0997
▁schedule	-11.101
still	-11.1014
▁lane	-11.1027
gam	-11.1029
▁posit	-11.103
▁caliph	-11.1034
▁preservation	-11.1038
▁combining	-11.1038
▁compiler	-11.1038
anthropic	-11.1038
▁mystery	-11.1038
▁caesium	-11.1038
▁ecological	-11.1038
▁pulse	-11.1039
▁catalogue	-11.104
amazing	-11.104
▁airplane	-11.1042
▁brick	-11.1046
▁1936	-11.1047
▁1932	-11.1047
▁permission	-11.1048
▁feud	-11.1048
▁iberia	-11.1052
▁viking	-11.1054
▁maj	-11.1058
▁observe	-11.1063
▁soldier	-11.1065
smith	-11.1067
▁ethno	-11.1068
▁imply	-11.1068
▁quoted	-11.1071
illo	-11.1085
▁manufacture	-11.1086
▁prepar	-11.1095
▁lover	-11.1096
▁praise	-11.1104
court	-11.1104
▁proportional	-11.1108
▁fairly	-11.1116
▁weekly	-11.1123
▁ealdred	-11.1128
▁legitimate	-11.1128
▁libraries	-11.1128
▁margaret	-11.1128
▁precursor	-11.1128
▁psychology	-11.1128
▁antoninus	-11.1129
▁dubbed	-11.1129
▁kelly	-11.1129
▁comfort	-11.113
▁activate	-11.113
▁polarization	-11.1132
▁pump	-11.1132
▁arcade	-11.1132
▁tam	-11.1133
▁effectiveness	-11.1138
▁directory	-11.1139
▁commentary	-11.114
▁deposit	-11.1145
▁definite	-11.1146
▁refugees	-11.1148
color	-11.1148
▁everyone	-11.115
▁barium	-11.1155
mamma	-11.1155
▁resolved	-11.1155
▁accomplish	-11.1168
▁compute	-11.1208
▁cooper	-11.1214
▁fate	-11.1216
▁engrav	-11.1219
▁monasteries	-11.1219
▁playwright	-11.1219
▁abolition	-11.1219
▁pandemic	-11.1219
▁phoenix	-11.1219
▁triangle	-11.1219
▁anguilla	-11.1219
▁convey	-11.122
▁delegate	-11.122
▁installation	-11.122
▁cancel	-11.1221
▁wool	-11.1225
▁colonel	-11.1227
6,000	-11.1227
▁virus	-11.1231
acetylene	-11.1249
borg	-11.1251
▁venus	-11.1252
▁ruth	-11.1256
ullah	-11.1258
▁cardi	-11.1258
▁thermo	-11.1266
populated	-11.1272
writing	-11.1272
economic	-11.1273
▁exclusive	-11.1288
andalus	-11.1289
▁detected	-11.1292
▁deities	-11.1294
▁publish	-11.1302
speed	-11.1304
▁designation	-11.1305
▁ambassador	-11.1311
▁abscess	-11.1311
▁acceleration	-11.1311
▁cemetery	-11.1311
▁hydroxide	-11.1311
▁suspended	-11.1311
▁treasure	-11.1311
▁prospect	-11.1311
▁happy	-11.1311
▁peasant	-11.1311
▁singular	-11.1311
▁vertebrate	-11.1311
▁empty	-11.1312
▁chrom	-11.1313
▁bernard	-11.1313
▁telegraph	-11.1313
▁crude	-11.1315
▁batting	-11.132
▁covid	-11.1324
▁strongest	-11.1328
▁adhere	-11.1334
▁reversed	-11.1345
▁theodor	-11.1346
▁complicated	-11.1348
talk	-11.1361
▁eliminat	-11.1367
▁separately	-11.1369
▁prohibited	-11.1378
–6	-11.1379
▁clothing	-11.1385
▁rough	-11.139
issa	-11.139
▁interact	-11.1394
▁diab	-11.14
super	-11.1402
brook	-11.1402
▁cyprus	-11.1404
▁córdoba	-11.1404
▁nutrient	-11.1404
▁julius	-11.1404
▁numerical	-11.1404
▁applies	-11.1404
▁violin	-11.1404
▁jay	-11.1404
▁wavelength	-11.1404
▁aftermath	-11.1404
▁inherent	-11.1404
▁crack	-11.1404
▁steiner	-11.1404
▁appellat	-11.1406
▁monetar	-11.1407
▁layout	-11.1407
▁henri	-11.1408
▁alpine	-11.1413
▁feast	-11.1414
▁starred	-11.1416
▁buck	-11.1423
biotic	-11.1425
▁enclos	-11.1426
earth	-11.1436
▁eve	-11.1443
▁earning	-11.1447
▁attach	-11.1448
ometer	-11.1457
connect	-11.1463
▁traced	-11.1467
step	-11.1468
selling	-11.1475
▁hetero	-11.1486
▁mali	-11.1489
amide	-11.1493
▁affirm	-11.1497
▁amplifier	-11.1497
▁measuring	-11.1497
▁primitive	-11.1497
▁treasury	-11.1497
▁maneuver	-11.1497
▁powder	-11.1497
▁rhetoric	-11.1497
▁ticket	-11.1497
▁renowned	-11.1497
▁asphalt	-11.1497
▁extant	-11.1497
▁wisdom	-11.1497
▁counsel	-11.1498
▁gamma	-11.1498
▁naming	-11.1498
▁residue	-11.1498
▁retirement	-11.1499
▁solvent	-11.1499
▁collins	-11.15
▁fourteen	-11.1503
▁coverage	-11.1507
▁titan	-11.1508
▁1911	-11.1514
▁latest	-11.1514
▁repeat	-11.1541
▁substantially	-11.1544
piece	-11.1555
semitic	-11.1555
afghan	-11.1556
indian	-11.1559
▁declare	-11.1566
phosphate	-11.1592
▁acrylic	-11.1592
▁appreciat	-11.1592
▁bauhaus	-11.1592
▁nonetheless	-11.1592
▁vancouver	-11.1592
▁pierre	-11.1592
▁flank	-11.1592
▁abelian	-11.1592
▁acidic	-11.1593
▁criticised	-11.1593
▁excessive	-11.1596
hof	-11.1597
urged	-11.1598
▁hook	-11.1598
▁breath	-11.16
▁algol	-11.1601
▁elementary	-11.1608
▁printer	-11.1617
▁kim	-11.1621
▁spear	-11.1633
▁absorbed	-11.1633
▁resource	-11.1639
▁requirement	-11.1647
birth	-11.1651
central	-11.1655
▁alexandr	-11.1662
▁eric	-11.1669
tex	-11.1675
philosoph	-11.168
▁disagree	-11.1683
▁excellent	-11.1687
▁temporarily	-11.1687
▁striking	-11.1687
▁franz	-11.1687
▁bryozoan	-11.1687
▁michel	-11.1689
▁commitment	-11.169
▁flash	-11.1691
▁caliphate	-11.1691
▁$4	-11.1692
▁filmmaker	-11.1692
▁2023	-11.1698
▁leaf	-11.1702
▁conviction	-11.1707
▁harry	-11.171
▁stake	-11.1711
hari	-11.1712
▁tactical	-11.1714
▁reformation	-11.1716
▁priority	-11.1719
▁prompted	-11.1734
▁catholicism	-11.1734
▁prevention	-11.1734
▁bavarian	-11.1735
▁stamp	-11.1738
worth	-11.1739
chem	-11.1742
rach	-11.1746
▁resolve	-11.1754
▁severely	-11.1756
▁angolan	-11.1759
▁feder	-11.1761
▁recalled	-11.1767
▁incorporate	-11.1773
▁friendly	-11.1776
bib	-11.1777
▁atmospheric	-11.1783
▁penicillin	-11.1783
▁scandinavia	-11.1783
▁tiberius	-11.1783
▁sicily	-11.1783
▁hydrocarbon	-11.1783
▁minimal	-11.1784
▁assessment	-11.1787
acacia	-11.1787
▁1903	-11.1789
▁foster	-11.179
▁nm	-11.1792
▁peaceful	-11.1792
chester	-11.1794
▁reliable	-11.1795
▁1921	-11.1795
▁consumed	-11.18
▁amphi	-11.1801
–10	-11.1807
▁database	-11.1816
witch	-11.1818
▁reef	-11.1826
▁1840	-11.1827
▁abandon	-11.1829
▁condemned	-11.1829
▁maha	-11.1835
▁nano	-11.1838
▁accomplished	-11.1838
itu	-11.1851
minute	-11.1851
▁virtual	-11.1857
have	-11.1857
▁restore	-11.1863
▁collective	-11.1867
▁sovereign	-11.1878
▁accommodate	-11.188
▁expelled	-11.188
▁nephew	-11.188
▁ordained	-11.188
▁pollution	-11.188
▁lovelace	-11.188
▁remnant	-11.188
▁overthrow	-11.188
▁ignored	-11.188
▁implies	-11.188
▁aquatic	-11.188
▁interference	-11.188
▁improving	-11.1881
▁decorated	-11.1881
▁blend	-11.1882
▁intent	-11.1883
▁garner	-11.1885
▁antony	-11.1891
▁plum	-11.19
▁revision	-11.19
▁handling	-11.1904
▁cargo	-11.192
▁personality	-11.192
boat	-11.1932
▁eliminate	-11.1936
activity	-11.1947
▁penn	-11.1949
classical	-11.1953
hall	-11.1963
▁complement	-11.1975
▁drain	-11.1977
▁aegina	-11.1978
▁edinburgh	-11.1978
▁kentucky	-11.1978
▁sophisticated	-11.1978
▁vulnerable	-11.1978
lgbt	-11.1978
▁armament	-11.1978
▁awareness	-11.1978
▁duchy	-11.1978
▁floating	-11.1979
▁aeneas	-11.1979
▁geology	-11.1985
limit	-11.1993
lift	-11.1996
▁ceased	-11.1998
▁amines	-11.1999
wide	-11.1999
▁persuaded	-11.1999
▁1867	-11.2003
▁imitat	-11.2005
▁pike	-11.2006
aqueous	-11.2006
▁discontinued	-11.2009
▁suspected	-11.2015
▁induce	-11.2017
▁sung	-11.2027
▁resin	-11.2029
–15	-11.2035
especially	-11.2046
president	-11.2046
april	-11.2046
▁archer	-11.2054
▁serb	-11.2055
▁deny	-11.206
utter	-11.2067
▁oversee	-11.2067
▁unlikely	-11.207
▁aggressive	-11.2077
▁alkaloids	-11.2077
▁antioxidant	-11.2077
▁barcelona	-11.2077
▁berkelium	-11.2077
▁casualties	-11.2077
▁frequencies	-11.2077
▁inclusion	-11.2077
▁satisfy	-11.2077
▁umayyad	-11.2077
▁impressed	-11.2077
▁turkic	-11.2077
▁conversation	-11.2077
▁azores	-11.2077
▁outdoor	-11.2077
▁abacus	-11.2077
▁abbasid	-11.2078
▁rubber	-11.2079
▁bottle	-11.208
▁cellular	-11.2081
▁1800	-11.2082
region	-11.2082
iliad	-11.2086
▁gill	-11.2086
▁delivery	-11.2109
▁patch	-11.211
▁gathering	-11.211
▁manga	-11.2114
cuba	-11.2116
▁solely	-11.2121
360	-11.2127
▁priv	-11.2128
▁gut	-11.2144
▁contribut	-11.2145
assyrian	-11.2147
▁buses	-11.215
philosophers	-11.2154
▁eventual	-11.2158
▁impos	-11.2159
election	-11.2174
▁jane	-11.2174
▁colloquial	-11.2177
▁achaemenid	-11.2177
▁conceived	-11.2177
▁pharmaceutical	-11.2177
▁replied	-11.2177
▁vocabulary	-11.2177
▁aspartame	-11.2177
▁statute	-11.2177
▁petition	-11.2177
▁stanley	-11.2177
▁ohio	-11.2177
▁illustration	-11.2177
▁aragonese	-11.2178
▁decorative	-11.2178
▁smoke	-11.2178
▁allegations	-11.2178
▁grandfather	-11.2178
▁selective	-11.2184
▁swing	-11.2188
▁artwork	-11.2189
tank	-11.2192
▁illustrated	-11.2194
▁elevated	-11.2196
▁chat	-11.2202
▁20%	-11.2203
▁1865	-11.2206
▁1868	-11.2207
▁unified	-11.2219
▁indication	-11.2221
▁marie	-11.2228
▁organize	-11.2258
▁achill	-11.2269
▁ambrosius	-11.2278
▁arriving	-11.2278
▁confused	-11.2278
▁excavation	-11.2278
▁practitioner	-11.2278
▁salamander	-11.2278
▁serotonin	-11.2278
▁contrary	-11.2278
▁fifty	-11.2278
▁arminian	-11.2278
▁corpus	-11.2278
▁prisoner	-11.2283
▁1951	-11.2284
▁1934	-11.2287
▁admit	-11.2288
▁detection	-11.229
▁starring	-11.2291
▁1916	-11.2291
▁wake	-11.2293
▁humid	-11.2295
▁spite	-11.2303
▁indies	-11.2308
▁detector	-11.2311
▁unix	-11.2316
▁flora	-11.2332
▁recall	-11.2332
▁gem	-11.2339
amber	-11.2339
▁tight	-11.2346
linear	-11.2347
▁echo	-11.2348
▁pursue	-11.2352
friend	-11.2352
▁jew	-11.2353
profit	-11.2354
▁legion	-11.2355
▁propose	-11.2358
▁circulat	-11.2373
left	-11.238
▁charlemagne	-11.238
▁drought	-11.238
▁floppy	-11.238
▁imprisoned	-11.238
▁macintosh	-11.238
▁nicholas	-11.238
▁phoenician	-11.238
▁toriyama	-11.238
▁twentieth	-11.238
▁yankees	-11.238
▁charlotte	-11.238
▁guthrie	-11.238
▁occurrence	-11.238
▁revelation	-11.238
▁eternal	-11.238
▁renewed	-11.238
▁uprising	-11.238
▁attila	-11.2381
▁cosmic	-11.2381
chromatic	-11.2382
▁sovereignty	-11.2382
▁chipset	-11.2382
▁julian	-11.2383
▁colonists	-11.2383
▁sudan	-11.2385
etta	-11.2385
▁linguist	-11.2387
▁aalto	-11.2392
▁coastline	-11.2393
▁playoff	-11.2394
▁harmony	-11.2394
▁grandson	-11.2398
▁timur	-11.2402
▁mandate	-11.2408
▁smallest	-11.2424
▁herbert	-11.2425
usually	-11.2435
link	-11.2438
▁patient	-11.2453
▁gear	-11.246
though	-11.2475
▁aeschylus	-11.2483
▁alhazen	-11.2483
▁almoravid	-11.2483
▁closure	-11.2483
▁composite	-11.2483
▁efficacy	-11.2483
▁elephant	-11.2483
▁limestone	-11.2483
▁outstanding	-11.2483
▁peripheral	-11.2483
▁terrestrial	-11.2483
▁calcium	-11.2483
▁empirical	-11.2483
▁hidden	-11.2483
▁declaring	-11.2483
▁snake	-11.2483
▁thrust	-11.2484
▁cernan	-11.2484
▁shopping	-11.2485
▁bitola	-11.2485
▁embrace	-11.2485
▁bromide	-11.2487
▁spark	-11.249
▁seville	-11.2491
▁lovell	-11.2495
▁agp	-11.2496
▁lanka	-11.2498
▁charity	-11.2501
▁clone	-11.2501
▁affiliate	-11.2502
▁youngest	-11.2502
▁wonder	-11.2504
▁bohr	-11.2507
▁alcoholism	-11.2512
▁pursued	-11.2512
▁malay	-11.2514
▁goddesses	-11.2528
▁allegedly	-11.253
▁brooks	-11.2533
military	-11.2552
▁warner	-11.2552
▁1850	-11.2557
▁baker	-11.2561
–7	-11.2561
affiliated	-11.2569
▁admiral	-11.2585
▁basket	-11.2587
▁ambiguity	-11.2587
▁arbitrary	-11.2587
▁compilation	-11.2587
▁olympia	-11.2587
▁pradesh	-11.2587
▁welfare	-11.2587
▁qualities	-11.2587
libertarian	-11.2587
▁intensity	-11.2587
▁diamondbacks	-11.2587
▁removing	-11.2587
▁martyr	-11.2588
▁edited	-11.2588
▁nationwide	-11.2588
wise	-11.2589
▁shipping	-11.2592
▁detective	-11.2593
▁1904	-11.2595
▁1935	-11.2597
▁highlands	-11.2601
▁cubic	-11.2602
pharma	-11.2613
▁juan	-11.2614
▁prompt	-11.2641
taking	-11.2649
▁recogniz	-11.2653
berry	-11.2664
▁originate	-11.2664
quant	-11.2664
▁conception	-11.2667
▁0.0	-11.2671
▁meters	-11.2674
7,000	-11.268
▁andrea	-11.2683
▁euclid	-11.2693
▁voluntary	-11.2693
▁anonymous	-11.2693
▁assembler	-11.2693
▁czech	-11.2693
▁diminish	-11.2693
▁submarine	-11.2693
▁oxidiz	-11.2693
▁actinium	-11.2693
▁sketch	-11.2693
cylinder	-11.2693
propelled	-11.2693
▁thunder	-11.2693
▁coefficient	-11.2695
▁fauna	-11.2695
▁discoveries	-11.2696
▁conceptual	-11.2697
▁disagreement	-11.2697
▁organised	-11.2698
▁40%	-11.2705
▁rivalry	-11.2705
▁salmon	-11.2707
▁assets	-11.2713
▁scattered	-11.2718
▁witnesses	-11.2718
▁1896	-11.2722
▁1898	-11.2722
▁serbian	-11.2725
▁syriac	-11.2727
rud	-11.2743
public	-11.2765
walk	-11.2777
▁astronomer	-11.2779
▁eliminated	-11.2782
▁khal	-11.2793
▁mask	-11.2795
▁pronoun	-11.2799
▁administrator	-11.2799
▁archaeologist	-11.2799
▁discrimination	-11.2799
▁enslaved	-11.2799
▁evident	-11.2799
▁swift	-11.2799
▁testimony	-11.2799
▁wollstonecraft	-11.2799
▁borrowed	-11.2799
▁healthcare	-11.2799
▁pearl	-11.2799
▁corinth	-11.2799
▁donald	-11.2799
▁insisted	-11.2801
▁tasman	-11.2801
▁florence	-11.2802
▁sixteen	-11.2802
▁timber	-11.2802
▁proposition	-11.2803
▁loyalty	-11.2805
▁maryland	-11.2806
▁tonnes	-11.2813
▁counties	-11.2814
▁assess	-11.2815
▁ferry	-11.2818
▁collectively	-11.2824
▁morality	-11.2825
▁abstraction	-11.2828
park	-11.2843
▁monte	-11.2845
▁condemn	-11.2855
hercule	-11.286
▁assyria	-11.2884
ground	-11.29
▁anthropologist	-11.2907
▁encoding	-11.2907
▁criteria	-11.2907
▁immune	-11.2907
▁interchange	-11.2907
▁karpov	-11.2907
▁mycenae	-11.2907
▁vespucci	-11.2907
▁penalty	-11.2907
▁martial	-11.2907
▁globe	-11.2907
▁quran	-11.2907
▁lynch	-11.2907
▁homosexual	-11.2907
▁unstable	-11.2907
▁blockade	-11.2912
▁clark	-11.2915
▁rebuilt	-11.2917
petr	-11.2923
▁strange	-11.2925
▁andaman	-11.2932
▁1863	-11.2935
▁armor	-11.2937
▁1878	-11.2942
▁strictly	-11.2946
▁afterlife	-11.2946
▁halt	-11.2948
recipients	-11.2962
▁jaw	-11.2964
wave	-11.2964
▁joan	-11.2992
▁approximate	-11.2993
bridge	-11.2994
published	-11.2995
▁commit	-11.3014
▁bletchley	-11.3015
▁mouthwash	-11.3015
▁strategies	-11.3015
▁subsidiary	-11.3015
▁dominance	-11.3015
▁salvation	-11.3015
▁ataxia	-11.3015
britney	-11.3015
▁beverage	-11.3015
▁shelter	-11.3016
▁staple	-11.3016
▁absent	-11.3017
▁colorado	-11.3017
▁shin	-11.3018
▁norway	-11.3024
▁airbus	-11.3024
▁outbreak	-11.3025
▁clash	-11.3035
▁nitri	-11.3036
▁healing	-11.3037
▁authorized	-11.3037
▁conform	-11.3039
▁milne	-11.3041
▁sect	-11.3041
▁reactive	-11.3047
▁phoneme	-11.3049
▁guardian	-11.3052
▁cement	-11.3064
▁warned	-11.3067
▁clan	-11.3067
▁spare	-11.3072
worthy	-11.3077
▁20,000	-11.3081
▁stain	-11.3087
atlantic	-11.3105
catholic	-11.3105
treat	-11.3108
toxic	-11.311
afroasiatic	-11.3125
isfahani	-11.3125
▁amplitude	-11.3125
▁availability	-11.3125
▁boolean	-11.3125
▁dialogue	-11.3125
▁distributor	-11.3125
▁ecosystem	-11.3125
▁gaudí	-11.3125
▁habsburg	-11.3125
▁manhattan	-11.3125
▁mobility	-11.3125
▁triumph	-11.3125
▁trinity	-11.3125
▁underwent	-11.3125
▁alboin	-11.3125
▁pleasure	-11.3125
▁mlb	-11.3125
▁cultivated	-11.3125
▁resumed	-11.3125
▁tariff	-11.3126
▁campbell	-11.3127
▁residential	-11.3127
▁screenplay	-11.3127
▁pipeline	-11.3128
▁vogt	-11.3128
▁tendency	-11.3128
▁creator	-11.3128
▁cliff	-11.3129
burials	-11.3131
▁1906	-11.3132
▁assistive	-11.3133
▁1902	-11.3133
▁1924	-11.3136
▁nicol	-11.3137
▁birthday	-11.3138
▁egg	-11.3139
▁revere	-11.3145
▁blame	-11.315
▁30%	-11.3151
▁taxation	-11.3171
▁hiv	-11.3175
▁shak	-11.3179
▁descend	-11.3182
2.5	-11.3182
infect	-11.3191
will	-11.3197
▁milli	-11.3199
▁libya	-11.3199
azz	-11.32
particle	-11.3208
▁versa	-11.3212
structure	-11.3217
physical	-11.3218
living	-11.3219
aircraft	-11.3219
grant	-11.3233
▁arthritis	-11.3236
▁claudius	-11.3236
▁compiled	-11.3236
▁eddington	-11.3236
▁fiorentina	-11.3236
▁mahmud	-11.3236
▁nineteenth	-11.3236
▁pregnancy	-11.3236
▁proximity	-11.3236
▁pursuit	-11.3236
▁vegetation	-11.3236
▁widdecombe	-11.3236
▁drove	-11.3236
▁marple	-11.3236
▁buffer	-11.3236
sculpt	-11.3236
▁vapor	-11.3236
biographical	-11.3236
▁apache	-11.3237
▁fault	-11.3237
▁subordinate	-11.3237
▁copyright	-11.3237
▁isolation	-11.3238
▁turret	-11.3238
▁yemen	-11.324
▁summit	-11.324
▁fraud	-11.324
▁antioch	-11.3244
▁circulation	-11.3244
▁lifestyle	-11.3245
▁90%	-11.3247
▁suffer	-11.3247
▁bullet	-11.3249
▁70%	-11.3251
▁confession	-11.3262
▁dish	-11.3273
▁needles	-11.3284
▁whereby	-11.329
green	-11.3291
▁accession	-11.3292
▁ease	-11.3303
▁earn	-11.3306
▁explorer	-11.3307
900	-11.3309
izz	-11.332
built	-11.332
apple	-11.3345
austroasiatic	-11.3349
▁accelerate	-11.3349
▁aikido	-11.3349
▁consciousness	-11.3349
▁conspiracy	-11.3349
▁pittsburgh	-11.3349
▁sanctuary	-11.3349
▁stimulate	-11.3349
▁tobacco	-11.3349
▁harvard	-11.3349
▁nobility	-11.3349
▁governance	-11.3349
▁istanbul	-11.3349
▁whig	-11.3349
▁eighteen	-11.3349
▁ransom	-11.3349
▁crust	-11.3349
▁emancipation	-11.335
▁radioactive	-11.335
▁versus	-11.3351
▁stolen	-11.3351
▁sitting	-11.3353
▁castile	-11.3354
▁profound	-11.3355
▁fastest	-11.3355
▁bolivian	-11.3356
▁lili	-11.3357
▁cream	-11.3357
▁afro	-11.3357
▁fringe	-11.3367
tended	-11.3368
benz	-11.3371
▁leak	-11.3382
▁developers	-11.3386
▁tire	-11.339
ophon	-11.3392
▁emil	-11.3398
chemistry	-11.3446
▁macedon	-11.3449
covered	-11.3449
▁lithuania	-11.3451
geography	-11.3456
▁reproduce	-11.3459
▁believing	-11.3462
▁caucasus	-11.3462
▁confidence	-11.3462
▁herodotus	-11.3462
▁ludwig	-11.3462
▁referendum	-11.3462
▁wilhelm	-11.3462
▁discharge	-11.3462
▁flemish	-11.3462
▁prevalent	-11.3462
▁cultivation	-11.3462
▁purple	-11.3462
▁socket	-11.3462
▁manuel	-11.3462
▁auction	-11.3462
▁detach	-11.3463
▁announcement	-11.3463
aunt	-11.3463
ahimsa	-11.3464
▁fortune	-11.3465
▁drill	-11.347
▁80%	-11.347
▁fitted	-11.3471
▁analogous	-11.3472
▁topology	-11.3479
▁offence	-11.3485
▁archery	-11.3487
bourg	-11.3502
▁nero	-11.3514
▁slav	-11.3521
–12	-11.3527
▁contend	-11.3529
gotten	-11.3537
spor	-11.3547
alumin	-11.3549
▁translate	-11.3552
course	-11.356
islamic	-11.3562
▁walt	-11.3565
▁beneficial	-11.3577
▁chancellor	-11.3577
▁conjunction	-11.3577
▁decreasing	-11.3577
▁dictionary	-11.3577
▁laboratories	-11.3577
▁motivation	-11.3577
▁obstacle	-11.3577
▁pashtun	-11.3577
▁semiconductor	-11.3577
▁unveiled	-11.3577
▁intrinsic	-11.3577
▁sparrow	-11.3577
▁uranium	-11.3577
▁swimming	-11.3577
▁derleth	-11.3577
▁maternal	-11.3577
▁revived	-11.3577
▁eldest	-11.3577
▁blake	-11.3577
▁departed	-11.3577
▁plasma	-11.3578
▁migrated	-11.3578
▁naked	-11.3578
▁assuming	-11.3579
▁acadia	-11.3579
▁admiralty	-11.3579
historia	-11.358
▁philippine	-11.3584
▁1907	-11.3585
▁isomer	-11.3592
▁basal	-11.3593
▁determination	-11.3593
▁passive	-11.3598
opera	-11.3616
fest	-11.3626
▁bengali	-11.3631
bearing	-11.3637
axis	-11.3663
major	-11.368
defined	-11.368
▁chest	-11.3685
articles	-11.3686
▁slight	-11.3688
▁pharaoh	-11.3693
▁thompson	-11.3693
▁ambush	-11.3693
▁assassinated	-11.3693
▁bosporus	-11.3693
▁competitor	-11.3693
▁liturgical	-11.3693
▁vaccine	-11.3693
▁remarkable	-11.3693
▁junior	-11.3693
▁devised	-11.3694
▁thorough	-11.3694
▁quiet	-11.3694
▁optics	-11.3694
▁bundle	-11.3695
▁appletalk	-11.3696
market	-11.3697
▁breast	-11.3697
▁barrel	-11.3699
lick	-11.3702
▁font	-11.3706
▁1876	-11.3721
▁1895	-11.3732
▁affection	-11.3747
▁cassi	-11.3748
▁yugoslavia	-11.3756
▁absorb	-11.3759
generating	-11.3769
▁profession	-11.3777
continental	-11.3778
realism	-11.378
▁calculate	-11.3782
cephal	-11.3783
pyr	-11.3796
irish	-11.3799
author	-11.3799
analysis	-11.3802
▁babylon	-11.3803
system	-11.3803
week	-11.3808
▁babbage	-11.3811
▁unexpected	-11.3811
▁agesilaus	-11.3811
▁andromeda	-11.3811
▁coffee	-11.3811
▁inferior	-11.3811
▁necessity	-11.3811
▁nutrition	-11.3811
▁offspring	-11.3811
▁perpendicular	-11.3811
▁sakharov	-11.3811
▁tertiary	-11.3811
▁thackeray	-11.3811
▁bloom	-11.3811
▁enabling	-11.3811
▁proponent	-11.3811
▁kansas	-11.3811
▁miracle	-11.3811
▁sensory	-11.3811
▁remarked	-11.3811
▁tolerance	-11.3811
▁murray	-11.3813
▁neural	-11.3814
▁smart	-11.3815
▁celtic	-11.3816
▁limitations	-11.3817
▁minorities	-11.3819
▁luke	-11.3833
▁25%	-11.3848
▁harmonic	-11.3877
▁alleg	-11.3891
▁piet	-11.3901
▁identifie	-11.3902
compatible	-11.3919
soviet	-11.3919
▁luther	-11.3921
electron	-11.3924
vertebra	-11.393
▁adequate	-11.393
▁aristophanes	-11.393
▁conservator	-11.393
▁jefferson	-11.393
▁jeffrey	-11.393
▁kandahar	-11.393
▁posthumous	-11.393
▁sarajevo	-11.393
▁trajectory	-11.393
▁hamilton	-11.393
▁taiwan	-11.393
▁speculation	-11.393
▁taylor	-11.393
▁knock	-11.393
▁alkyl	-11.393
▁sustainable	-11.393
hedral	-11.3931
▁anagram	-11.3931
▁saving	-11.3931
▁pedro	-11.3931
▁cortex	-11.3931
▁transaction	-11.3932
▁discourse	-11.3933
▁cruisers	-11.3934
▁rigid	-11.3934
▁faithful	-11.3938
bodhi	-11.394
▁phonetic	-11.3941
▁mountainous	-11.3942
▁1776	-11.3947
▁favorable	-11.3947
▁machinery	-11.3957
▁crete	-11.396
▁equality	-11.3967
▁subtract	-11.3971
▁pace	-11.3974
▁evaluat	-11.4013
▁dominate	-11.4022
▁gradual	-11.4028
controlled	-11.4042
battle	-11.4048
▁brooklyn	-11.4051
▁combustion	-11.4051
▁corridor	-11.4051
▁equilibrium	-11.4051
▁headquartered	-11.4051
▁populous	-11.4051
▁pregnant	-11.4051
▁theodosius	-11.4051
▁watterson	-11.4051
▁alameda	-11.4051
▁compensate	-11.4051
▁carefully	-11.4051
▁folklore	-11.4051
▁wedding	-11.4051
▁lydian	-11.4051
▁hormone	-11.4051
▁petersburg	-11.4051
▁aromatic	-11.4051
▁uefa	-11.4051
▁paved	-11.4051
▁fiscal	-11.4052
▁negro	-11.4055
beneath	-11.4056
▁pigment	-11.4057
▁awk	-11.4057
▁adaptive	-11.4058
▁tsar	-11.4058
▁factories	-11.406
▁legendary	-11.406
▁generic	-11.406
ische	-11.4063
▁cutting	-11.4064
stabili	-11.4064
▁hull	-11.4065
▁viii	-11.4066
▁runway	-11.4066
▁slam	-11.4067
▁singh	-11.4068
▁deposition	-11.4075
▁kick	-11.4077
▁static	-11.4077
▁1882	-11.4078
cock	-11.408
▁thrown	-11.4082
▁norse	-11.4083
float	-11.4102
▁recipient	-11.411
2000	-11.412
owski	-11.4121
8,000	-11.4133
▁aggr	-11.4136
▁bloc	-11.4162
wheel	-11.4165
eight	-11.4165
▁griffith	-11.4173
▁catalyst	-11.4173
▁fountain	-11.4173
▁kosovo	-11.4173
▁kournikova	-11.4173
▁offshore	-11.4173
▁prosperity	-11.4173
▁denounc	-11.4173
▁grammatical	-11.4173
▁westminster	-11.4173
▁ceramic	-11.4173
▁dopamine	-11.4173
▁implication	-11.4173
▁sequel	-11.4173
▁vibration	-11.4173
▁heracles	-11.4173
▁amalric	-11.4173
▁confined	-11.4173
▁guidelines	-11.4173
▁partition	-11.4173
▁patrick	-11.4173
▁ascetic	-11.4173
▁fertile	-11.4174
intensive	-11.4174
▁shallow	-11.4175
▁mortar	-11.4176
▁steep	-11.4178
▁basil	-11.4178
putting	-11.4178
▁missionaries	-11.4182
▁null	-11.4182
▁hostile	-11.4182
▁tutor	-11.4186
▁silent	-11.4187
▁packet	-11.4189
▁foul	-11.419
▁constantine	-11.4197
value	-11.4205
keeper	-11.4223
▁recreational	-11.4229
▁devil	-11.4231
lich	-11.4233
▁clade	-11.4246
▁parade	-11.4256
▁baku	-11.4258
▁democrat	-11.4261
▁surge	-11.4268
columbia	-11.429
multi	-11.4296
▁aardvark	-11.4296
▁alabaster	-11.4296
▁ambiguous	-11.4296
▁archaeology	-11.4296
▁cretaceous	-11.4296
▁immense	-11.4296
▁morocco	-11.4296
▁nomenclature	-11.4296
▁respiratory	-11.4296
▁singapore	-11.4296
▁therapeutic	-11.4296
▁anemometer	-11.4296
▁bornholm	-11.4296
▁desktop	-11.4296
▁hijacking	-11.4296
▁chassis	-11.4296
▁innocent	-11.4296
▁pledge	-11.4296
▁theropod	-11.4297
▁earthsea	-11.4297
▁stabilize	-11.4297
▁automatic	-11.4297
▁beacon	-11.4298
▁stoker	-11.4298
▁wireless	-11.4299
▁brightness	-11.4302
▁batteries	-11.4303
altaic	-11.4305
▁compression	-11.4306
▁alchemical	-11.4306
▁acceptable	-11.4312
▁marcus	-11.4322
▁howard	-11.4331
▁resident	-11.4336
▁bike	-11.4359
▁dismiss	-11.437
▁planetar	-11.4376
capital	-11.4379
▁emerge	-11.4394
school	-11.4417
animal	-11.4419
▁abundance	-11.4421
▁altruism	-11.4421
▁ambitious	-11.4421
▁contemporaries	-11.4421
▁certified	-11.4421
▁fluctuat	-11.4421
▁thracian	-11.4421
▁imagine	-11.4421
▁chicken	-11.4421
▁feminist	-11.4421
▁autocad	-11.4421
▁flavor	-11.4421
▁agrarian	-11.4421
▁fierce	-11.4421
▁congressional	-11.4421
▁vassal	-11.4421
▁dostum	-11.4421
▁perseus	-11.4422
▁thrace	-11.4422
▁cancelled	-11.4423
▁eugene	-11.4423
▁intercourse	-11.4423
▁ivory	-11.4424
▁mortal	-11.4425
▁aorta	-11.4426
▁levant	-11.4429
▁sermon	-11.4429
▁choir	-11.4429
▁frankish	-11.443
▁borland	-11.4432
▁slavic	-11.4435
rgic	-11.4443
▁atheist	-11.4444
▁differentiate	-11.4454
▁malt	-11.4459
▁specify	-11.4461
▁mutation	-11.4466
little	-11.4466
▁educat	-11.4493
syllab	-11.4546
▁affiliation	-11.4548
▁default	-11.4548
▁economies	-11.4548
▁extraordinary	-11.4548
▁imprisonment	-11.4548
karabakh	-11.4548
▁ayckbourn	-11.4548
▁difranco	-11.4548
▁connecticut	-11.4548
▁liberties	-11.4548
▁militant	-11.4548
▁arnold	-11.4548
▁infrared	-11.4548
▁shuttlecock	-11.4548
▁ideology	-11.4548
screen	-11.4548
▁overcome	-11.4548
▁farther	-11.4548
ovich	-11.4549
▁wesley	-11.4549
▁wildlife	-11.455
▁chorus	-11.455
▁investors	-11.4551
▁sikh	-11.4552
▁exposition	-11.4552
▁exempt	-11.4552
▁plaque	-11.4552
factor	-11.4555
▁1909	-11.4557
▁kong	-11.4574
▁exert	-11.4577
▁dollar	-11.4591
▁relieve	-11.4643
▁refract	-11.467
standard	-11.4674
containing	-11.4674
african	-11.4675
▁approximation	-11.4676
▁embedded	-11.4676
▁genocide	-11.4676
▁herbicide	-11.4676
▁kidnapping	-11.4676
▁neglect	-11.4676
▁prescribed	-11.4676
▁synagogue	-11.4676
▁bohemia	-11.4676
▁vitamin	-11.4676
▁displaced	-11.4676
▁innovative	-11.4676
▁laureate	-11.4676
▁righteous	-11.4676
▁imaging	-11.4676
▁dominion	-11.4676
▁aldrin	-11.4676
▁dancing	-11.4676
▁therapies	-11.4676
▁gemini	-11.4677
▁torture	-11.4678
▁genome	-11.4678
▁iowa	-11.4679
▁deployment	-11.4679
▁drainage	-11.4679
▁textbook	-11.4682
▁patrol	-11.4684
▁anywhere	-11.469
▁novelists	-11.4691
▁duration	-11.4699
▁pride	-11.4701
▁achiev	-11.473
▁mall	-11.4736
▁clair	-11.4752
▁complicat	-11.4754
▁magnet	-11.4757
▁compare	-11.4777
cross	-11.4785
▁releas	-11.4797
songwriter	-11.4806
▁adiabatic	-11.4806
▁ajaccio	-11.4806
▁anointing	-11.4806
▁baldwin	-11.4806
▁bundestag	-11.4806
▁explosion	-11.4806
▁hockey	-11.4806
▁ibrahim	-11.4806
▁judiciary	-11.4806
▁larvae	-11.4806
▁prominence	-11.4806
▁talmud	-11.4806
▁spherical	-11.4806
▁alkenes	-11.4806
▁scotia	-11.4806
▁symmetry	-11.4806
foreign	-11.4806
religious	-11.4806
family	-11.4806
stad	-11.4807
▁delphi	-11.4807
▁ratified	-11.4808
▁cheese	-11.4809
▁complementary	-11.4809
▁shipped	-11.481
▁blackjack	-11.4811
▁whale	-11.4812
▁refraction	-11.4813
▁evans	-11.4813
▁azad	-11.4814
▁ruins	-11.4815
▁darkness	-11.4815
▁diego	-11.4815
▁weakness	-11.4818
▁evaluation	-11.4819
folk	-11.4819
▁ballistic	-11.482
▁whatever	-11.482
▁sarah	-11.4821
▁hitting	-11.4827
▁contributor	-11.4837
▁dvd	-11.4841
▁captur	-11.4847
trem	-11.4854
▁descendant	-11.4863
hyp	-11.4863
-120	-11.4869
▁harmon	-11.488
mythological	-11.4881
princip	-11.4935
▁aragon	-11.4937
▁baghdad	-11.4937
▁definitive	-11.4937
▁edmonton	-11.4937
▁exponent	-11.4937
▁overwhelming	-11.4937
▁thomson	-11.4937
metaphysics	-11.4937
▁abbreviated	-11.4937
▁antwerp	-11.4937
▁categoriz	-11.4937
▁luxury	-11.4937
▁melbourne	-11.4937
▁obscure	-11.4937
▁palestine	-11.4937
▁propaganda	-11.4937
▁myanmar	-11.4937
▁wizard	-11.4937
▁activation	-11.4937
▁puerto	-11.4937
▁emirate	-11.4937
▁morphology	-11.4937
▁assignment	-11.4937
▁orleans	-11.4937
trophic	-11.4937
▁injured	-11.4937
▁robust	-11.4937
▁disabled	-11.4938
operation	-11.4939
▁excret	-11.494
▁trapped	-11.4941
falcon	-11.4941
▁manchester	-11.4941
▁costume	-11.4942
▁workshop	-11.4942
carbon	-11.4942
▁chord	-11.4942
▁vein	-11.4945
▁symmetric	-11.4945
▁profitable	-11.4948
ometry	-11.4948
▁conrad	-11.4949
▁southwestern	-11.4949
▁rejection	-11.4954
▁terminate	-11.4956
reaches	-11.4957
▁ashur	-11.4969
▁modify	-11.497
▁rig	-11.4985
▁announc	-11.5019
▁plug	-11.5028
▁persuade	-11.5042
flat	-11.5043
true	-11.5051
▁entertain	-11.5066
aldehyde	-11.5071
dreadnought	-11.5071
▁ayahuasca	-11.5071
▁berkeley	-11.5071
▁coordination	-11.5071
▁eclipse	-11.5071
▁geoffrey	-11.5071
▁maximilian	-11.5071
▁messenger	-11.5071
▁pyramid	-11.5071
▁reluctant	-11.5071
▁rothbard	-11.5071
▁scenario	-11.5071
▁uzbek	-11.5071
▁matthew	-11.5071
▁spaceflight	-11.5071
▁dwarf	-11.5071
▁iodine	-11.5071
▁prefect	-11.5071
▁semantic	-11.5071
▁alcuin	-11.5071
▁silicon	-11.5071
▁shepard	-11.5071
▁closing	-11.5071
▁alemanni	-11.5071
▁premise	-11.5071
▁regent	-11.5072
▁excluded	-11.5072
▁trauma	-11.5073
albertosaurus	-11.5074
keeping	-11.5074
▁aimery	-11.5076
▁theorists	-11.5078
▁graham	-11.508
dragon	-11.508
▁banner	-11.5082
partisan	-11.5088
▁sauce	-11.5091
▁ballot	-11.5094
ocyt	-11.5103
▁afc	-11.5112
▁politician	-11.5135
▁recreation	-11.5144
▁fungi	-11.518
▁cartoon	-11.5184
▁confess	-11.5194
apocrypha	-11.5206
▁abergavenny	-11.5206
▁ammunition	-11.5206
▁ceremonies	-11.5206
▁descartes	-11.5206
▁diagnosis	-11.5206
▁disabilities	-11.5206
▁propagation	-11.5206
▁rudolf	-11.5206
▁wrestling	-11.5206
▁antimatter	-11.5206
▁productivity	-11.5206
▁discrete	-11.5206
▁kidney	-11.5206
▁undertaken	-11.5206
▁resignation	-11.5206
▁ambition	-11.5206
▁lobby	-11.5206
▁utility	-11.5206
▁theatrical	-11.5206
▁ajanta	-11.5206
▁deposed	-11.5206
▁copied	-11.5206
illustr	-11.5206
▁eurasia	-11.5207
mahā	-11.5207
▁raymond	-11.5207
alexander	-11.5212
▁lucius	-11.5212
▁unrest	-11.5212
▁toxicity	-11.5216
beavis	-11.5226
optimiz	-11.5241
▁originat	-11.5243
ocratic	-11.5246
stock	-11.5251
parasit	-11.5267
▁agnostic	-11.5288
▁suspect	-11.5291
▁neighbor	-11.5292
italian	-11.5318
sensitivity	-11.5343
▁ferdinand	-11.5343
▁lattice	-11.5343
▁masculine	-11.5343
▁propulsion	-11.5343
▁recession	-11.5343
▁shakespeare	-11.5343
▁derivation	-11.5343
▁paternal	-11.5343
▁ronald	-11.5343
▁beastie	-11.5343
▁eucharist	-11.5343
▁relax	-11.5343
▁pirates	-11.5343
▁scoring	-11.5343
▁allophone	-11.5343
▁tokyo	-11.5343
▁metabolism	-11.5343
▁freight	-11.5343
▁plunder	-11.5344
▁halogen	-11.5344
▁drunk	-11.5344
▁oracle	-11.5344
▁guinea	-11.5345
▁jimmy	-11.5345
▁solomon	-11.5346
▁morgan	-11.5347
▁proceedings	-11.5349
determin	-11.535
capacity	-11.535
algebra	-11.5351
▁monster	-11.5353
▁indefinite	-11.5355
▁militar	-11.5357
evich	-11.5365
tracted	-11.5428
uddin	-11.5441
close	-11.5476
disambiguation	-11.5482
▁arcturus	-11.5482
▁badminton	-11.5482
▁ceremonial	-11.5482
▁communism	-11.5482
▁compensation	-11.5482
▁declining	-11.5482
▁electrophoresis	-11.5482
▁literacy	-11.5482
▁participating	-11.5482
▁preliminary	-11.5482
▁steadily	-11.5482
▁tuberculosis	-11.5482
▁immortal	-11.5482
▁lebanon	-11.5482
▁missouri	-11.5482
▁schmitt	-11.5482
▁calgary	-11.5482
▁pocket	-11.5482
▁revenge	-11.5482
▁caution	-11.5482
▁glacier	-11.5482
▁naples	-11.5482
▁leather	-11.5482
▁mhz	-11.5482
▁vizier	-11.5482
▁hittite	-11.5482
▁blank	-11.5482
▁burgess	-11.5482
▁carving	-11.5482
▁automatically	-11.5484
▁remind	-11.5485
▁mtv	-11.5489
synthesis	-11.5491
launch	-11.5491
sometimes	-11.5491
release	-11.5492
while	-11.5493
social	-11.5493
▁60%	-11.5493
prince	-11.5495
▁allele	-11.5506
winning	-11.5515
▁esc	-11.5516
▁0.5	-11.5528
▁recognis	-11.5571
▁predominant	-11.56
escen	-11.5608
▁scrap	-11.5619
▁amethyst	-11.5622
▁electromagnetic	-11.5622
▁khorasan	-11.5622
▁mackenzie	-11.5622
▁pentagon	-11.5622
▁presumably	-11.5622
▁quantitative	-11.5622
▁bagpipe	-11.5622
▁covenant	-11.5622
▁contingent	-11.5622
▁paradox	-11.5622
▁consort	-11.5623
▁transcend	-11.5623
▁lawrence	-11.5623
▁heinrich	-11.5623
▁penetrate	-11.5623
▁drift	-11.5623
▁mound	-11.5623
▁scots	-11.5623
▁josé	-11.5623
▁aspiration	-11.5623
▁diagram	-11.5624
▁civic	-11.5624
salicyl	-11.5625
▁boast	-11.5625
▁synod	-11.5626
▁knee	-11.5628
▁fortified	-11.563
▁stiff	-11.5633
length	-11.5634
civil	-11.5634
sphere	-11.5635
▁hong	-11.5641
▁chris	-11.5658
construct	-11.5659
▁antidepressant	-11.5711
▁advocat	-11.5726
ightened	-11.574
▁nurse	-11.5748
▁affinity	-11.5765
▁certificate	-11.5765
▁palestinian	-11.5765
▁plutarch	-11.5765
▁reconnaissance	-11.5765
▁regulatory	-11.5765
▁robinson	-11.5765
▁rubidium	-11.5765
▁tributaries	-11.5765
▁velvet	-11.5765
▁carboxyl	-11.5765
▁gabriel	-11.5765
▁stomach	-11.5765
▁enrolled	-11.5765
▁ontario	-11.5765
▁leonard	-11.5765
▁detroit	-11.5765
▁ernst	-11.5765
▁abilities	-11.5765
▁offense	-11.5766
▁helmet	-11.5766
▁oregon	-11.5766
▁clips	-11.5766
▁flesh	-11.5766
▁instability	-11.5766
▁hollow	-11.5768
▁worm	-11.5768
▁cycling	-11.577
▁sunlight	-11.5772
▁pardon	-11.5773
▁interactive	-11.5775
buffalo	-11.5779
dharma	-11.5781
▁erect	-11.5794
▁brom	-11.5856
▁cease	-11.5887
▁modulat	-11.5905
location	-11.5905
▁bachelor	-11.591
▁unanimous	-11.591
neurotransmitter	-11.591
▁alignment	-11.591
▁endangered	-11.591
▁hierarchy	-11.591
▁reservoir	-11.591
▁ukrainian	-11.591
▁expenditure	-11.591
▁fracture	-11.591
▁qualification	-11.591
▁cologne	-11.591
▁renewable	-11.591
▁devotion	-11.591
▁pixel	-11.591
▁dallas	-11.591
▁aspirated	-11.591
▁problematic	-11.591
▁refined	-11.5911
▁arianism	-11.5911
▁infinity	-11.5911
▁recipe	-11.5911
▁incarnation	-11.5912
▁mourn	-11.5912
▁sensation	-11.5912
▁samoa	-11.5913
▁harmful	-11.5915
▁greenhouse	-11.5915
▁uncertainty	-11.5915
▁motherboard	-11.5917
through	-11.5926
hungary	-11.5926
distance	-11.5926
meaning	-11.5928
▁cartoonist	-11.5933
▁pathogen	-11.5965
▁statistic	-11.598
▁lyric	-11.6016
watt	-11.6017
▁qualify	-11.602
▁alyattes	-11.6057
▁birmingham	-11.6057
▁convenient	-11.6057
▁occult	-11.6057
▁antibacterial	-11.6057
▁demolished	-11.6057
▁eligible	-11.6057
▁embassy	-11.6057
▁genuine	-11.6057
▁integrity	-11.6057
▁minnesota	-11.6057
▁observing	-11.6057
▁prestigious	-11.6057
▁secession	-11.6057
▁tragedy	-11.6057
▁vicinity	-11.6057
▁substrate	-11.6057
▁temperate	-11.6057
▁prairie	-11.6057
▁flanders	-11.6057
▁cipher	-11.6057
▁vincent	-11.6057
▁catalan	-11.6058
saharan	-11.6058
▁basilica	-11.6058
▁neighbourhood	-11.6059
▁payload	-11.6059
▁aarau	-11.6059
▁boeing	-11.606
▁scroll	-11.606
▁simulate	-11.6061
▁dawn	-11.6062
▁attica	-11.6073
blood	-11.6075
louis	-11.6076
▁gather	-11.6106
equal	-11.6131
▁0.1	-11.6148
stitution	-11.6154
▁embryo	-11.6198
▁altogether	-11.6207
▁calculus	-11.6207
▁columbus	-11.6207
▁critique	-11.6207
▁deceased	-11.6207
▁diaspora	-11.6207
▁energies	-11.6207
▁propellant	-11.6207
▁roosevelt	-11.6207
▁sympathetic	-11.6207
▁capitol	-11.6207
▁cassette	-11.6207
▁displacement	-11.6207
▁arnulf	-11.6207
▁jerome	-11.6207
▁trilogy	-11.6207
▁summary	-11.6207
▁admired	-11.6207
exaggerat	-11.6207
▁obama	-11.6207
▁nicene	-11.6207
▁ernest	-11.6207
▁pepper	-11.6207
▁ralph	-11.6207
▁injection	-11.6207
▁ideological	-11.6207
▁essence	-11.6207
▁weakened	-11.6207
▁minimize	-11.6207
▁resemblance	-11.6208
▁cooperative	-11.6208
▁seventeen	-11.6209
▁mapping	-11.6211
▁brutal	-11.6213
▁riding	-11.6214
▁astoria	-11.6223
lunar	-11.623
▁clinic	-11.6277
▁diplomat	-11.6291
▁victim	-11.6322
▁catalog	-11.6356
aristotelian	-11.6358
▁dissolution	-11.6358
▁gautama	-11.6358
▁hokkaid	-11.6358
▁illegitimate	-11.6358
▁irrigation	-11.6358
▁maghreb	-11.6358
▁neolithic	-11.6358
▁norwegian	-11.6358
▁pausanias	-11.6358
▁screenwriter	-11.6358
▁simplified	-11.6358
▁transcription	-11.6358
▁cleveland	-11.6358
▁controversies	-11.6358
▁humanitarian	-11.6358
▁schirra	-11.6358
▁spectator	-11.6358
▁collision	-11.6358
▁circa	-11.6358
▁automated	-11.6358
▁elastic	-11.6358
▁ghost	-11.6358
▁albeit	-11.6358
▁dixon	-11.6358
▁managing	-11.6358
▁antares	-11.6359
▁concord	-11.6359
▁granada	-11.636
▁eject	-11.636
▁nigeria	-11.636
▁deflect	-11.6361
▁omni	-11.6361
▁madrid	-11.6361
▁marshall	-11.6361
analys	-11.6361
▁subgroup	-11.6362
dividing	-11.6363
▁empress	-11.6363
▁edgar	-11.6366
#	-11.6366
seller	-11.6441
title	-11.6475
▁integrate	-11.6483
▁abort	-11.6503
▁horizon	-11.651
royal	-11.6511
▁alzheimer	-11.6512
▁compatibility	-11.6512
▁copenhagen	-11.6512
▁disadvantage	-11.6512
▁holocaust	-11.6512
▁inscribed	-11.6512
▁mercenaries	-11.6512
▁nuremberg	-11.6512
▁protagonist	-11.6512
▁unpopular	-11.6512
▁venezuela	-11.6512
▁incidence	-11.6512
▁ordinance	-11.6512
▁bradley	-11.6512
▁comparing	-11.6512
▁scythia	-11.6512
▁lexical	-11.6512
▁antoine	-11.6513
▁sofia	-11.6513
▁spiral	-11.6513
▁worshipped	-11.6514
▁substitution	-11.6514
▁hamburg	-11.6515
▁invalid	-11.6516
▁rotating	-11.6516
▁captive	-11.6517
▁nbc	-11.6518
▁aerial	-11.6518
▁delhi	-11.6519
▁mecca	-11.6521
transport	-11.654
produced	-11.6541
▁herald	-11.6547
▁facilitat	-11.6561
▁explicit	-11.6645
finitely	-11.6659
▁nucleo	-11.6667
responsibilities	-11.6668
▁accommodation	-11.6668
▁arcadius	-11.6668
▁aristocracy	-11.6668
▁baltimore	-11.6668
▁flexible	-11.6668
▁homogeneous	-11.6668
▁mahayana	-11.6668
▁manipulate	-11.6668
▁obsolete	-11.6668
▁pamphlet	-11.6668
▁parallax	-11.6668
▁registration	-11.6668
▁resurrection	-11.6668
▁slaughter	-11.6668
▁undergraduate	-11.6668
▁vladimir	-11.6668
▁wozniak	-11.6668
▁caspian	-11.6668
▁maurice	-11.6668
▁reuptake	-11.6668
▁invitation	-11.6668
▁jensen	-11.6668
▁translator	-11.6668
▁bleeding	-11.6668
▁metaphor	-11.6668
▁severity	-11.6668
▁adherents	-11.6668
▁choosing	-11.6668
▁sierra	-11.6668
▁presbyterian	-11.6668
▁chlorine	-11.6668
▁escort	-11.6668
▁summariz	-11.6669
▁animism	-11.6669
▁racism	-11.6669
▁canyon	-11.667
▁toronto	-11.667
▁veto	-11.6671
▁xiii	-11.6672
▁focal	-11.6672
apopto	-11.6677
▁lodge	-11.6678
process	-11.6696
purpose	-11.6697
tempo	-11.6726
waiting	-11.6742
▁consume	-11.6767
gnosticism	-11.6781
▁sancti	-11.6784
▁advancing	-11.6827
▁attribution	-11.6827
▁commutative	-11.6827
▁dispatched	-11.6827
▁gravitational	-11.6827
▁hectares	-11.6827
▁investigating	-11.6827
▁odysseus	-11.6827
▁platinum	-11.6827
▁poseidon	-11.6827
▁unchanged	-11.6827
▁brethren	-11.6827
▁contemplat	-11.6827
▁galaxy	-11.6827
▁feminine	-11.6827
▁amraam	-11.6827
▁cathode	-11.6827
▁watson	-11.6827
▁settling	-11.6827
▁soccer	-11.6827
▁annexed	-11.6827
▁ordination	-11.6827
▁gentle	-11.6827
▁conceal	-11.6827
▁compell	-11.6827
▁intersection	-11.6827
▁endorsed	-11.6827
▁aerospace	-11.6828
▁inquiry	-11.6828
▁victorious	-11.6828
▁stronghold	-11.683
▁intact	-11.6833
spelled	-11.6836
asterix	-11.6847
threatening	-11.685
▁grip	-11.6877
▁gyr	-11.6926
▁practic	-11.6937
▁spontaneous	-11.6988
▁aggregate	-11.6988
▁anaximander	-11.6988
▁ascension	-11.6988
▁consecrated	-11.6988
▁diplomacy	-11.6988
▁encouraging	-11.6988
▁inaugurated	-11.6988
▁nagorno	-11.6988
▁occupies	-11.6988
▁unprecedented	-11.6988
▁vigorous	-11.6988
▁albinism	-11.6988
▁sweep	-11.6988
▁syntax	-11.6988
▁arminius	-11.6988
▁nominee	-11.6988
▁erosion	-11.6988
▁spencer	-11.6988
▁ambrosia	-11.6988
▁salinity	-11.6988
▁antipope	-11.6988
▁linux	-11.6988
▁cairo	-11.6989
▁steady	-11.6989
▁dispens	-11.6989
▁sutta	-11.6989
▁restrain	-11.6989
▁aether	-11.6989
aloe	-11.7013
communist	-11.7021
austrian	-11.7021
producing	-11.7021
organized	-11.7021
shadow	-11.7043
fellows	-11.7072
▁discontinu	-11.71
▁grove	-11.7122
▁gladstone	-11.7152
▁zunbil	-11.7152
mujahideen	-11.7152
synchronous	-11.7152
▁anaximenes	-11.7152
▁auxiliary	-11.7152
▁biodiversity	-11.7152
▁conjugate	-11.7152
▁emigrants	-11.7152
▁glucose	-11.7152
▁happiness	-11.7152
▁hypotheses	-11.7152
▁impressive	-11.7152
▁mohammad	-11.7152
▁pompey	-11.7152
▁torpedo	-11.7152
▁amputation	-11.7152
▁bennett	-11.7152
▁mozart	-11.7152
▁nickel	-11.7152
▁sulfate	-11.7152
▁methane	-11.7152
▁canberra	-11.7152
▁cerebr	-11.7152
▁retaliat	-11.7152
▁dinner	-11.7152
▁lerner	-11.7153
▁archaic	-11.7153
▁expectancy	-11.7153
glacial	-11.7153
▁creole	-11.7154
▁gaming	-11.7155
▁feedback	-11.7155
source	-11.718
concept	-11.7187
borough	-11.7187
church	-11.7188
control	-11.719
protective	-11.7251
brightest	-11.7267
▁suppose	-11.729
enhanc	-11.7308
▁antagonist	-11.7319
▁argentine	-11.7319
▁astrologer	-11.7319
▁cleopatra	-11.7319
▁eisenhower	-11.7319
▁epidemic	-11.7319
▁esoteric	-11.7319
▁fertility	-11.7319
▁google	-11.7319
▁inheritance	-11.7319
▁jonathan	-11.7319
▁prestige	-11.7319
▁prevalence	-11.7319
▁saturday	-11.7319
▁billiard	-11.7319
▁conserve	-11.7319
▁nevada	-11.7319
▁phrygia	-11.7319
▁absurd	-11.7319
▁alternating	-11.7319
▁bhangra	-11.7319
▁mattingly	-11.7319
▁slayton	-11.7319
▁venetian	-11.7319
▁pottery	-11.7319
▁sampras	-11.7319
▁reconstructed	-11.7319
▁housman	-11.7319
▁spatial	-11.7319
▁welcomed	-11.7319
▁repeal	-11.7319
▁arteries	-11.7319
▁casino	-11.7319
▁deacon	-11.732
▁adolf	-11.732
america	-11.7326
children	-11.7357
spirit	-11.7367
▁deploy	-11.7432
▁administer	-11.7437
▁illustrate	-11.746
▁inertia	-11.7469
anthroposophy	-11.7488
▁aboriginal	-11.7488
▁absalom	-11.7488
▁ancestral	-11.7488
▁armadillo	-11.7488
▁devastated	-11.7488
▁giovanni	-11.7488
▁inaugural	-11.7488
▁kerensky	-11.7488
▁mandelbrot	-11.7488
▁papyrus	-11.7488
▁precipitate	-11.7488
▁rutherford	-11.7488
▁spectroscopy	-11.7488
▁survivor	-11.7488
württemberg	-11.7488
▁abugida	-11.7488
▁colombia	-11.7488
▁dominican	-11.7488
▁jewelry	-11.7488
▁stockholm	-11.7488
ovascular	-11.7488
▁surplus	-11.7488
▁addiction	-11.7488
▁hobby	-11.7488
▁morphological	-11.7488
▁felix	-11.7488
▁airborne	-11.7488
▁carriage	-11.7488
▁unicode	-11.7488
▁thermodynamic	-11.7488
▁amorphous	-11.7488
▁abjad	-11.7488
▁maratha	-11.7488
▁notorious	-11.7488
▁shuttle	-11.7489
▁enduring	-11.7489
▁helium	-11.7489
phenyl	-11.749
▁immigrant	-11.749
▁barbara	-11.749
▁trunk	-11.7491
▁hadrian	-11.7491
▁subtle	-11.7492
▁interfere	-11.7493
hydrate	-11.7522
except	-11.7529
dutch	-11.753
▁recurr	-11.7551
small	-11.7554
sound	-11.7565
▁convince	-11.7632
inflammatory	-11.7661
köppen	-11.7661
norepinephrine	-11.7661
▁apprentice	-11.7661
▁asparagales	-11.7661
▁awakening	-11.7661
▁caspase	-11.7661
▁compulsory	-11.7661
▁forbidden	-11.7661
▁giacometti	-11.7661
▁inconsistent	-11.7661
▁kilometers	-11.7661
▁magistrate	-11.7661
▁prosecution	-11.7661
▁reconcile	-11.7661
▁steinsaltz	-11.7661
▁suffrage	-11.7661
▁sworn	-11.7661
▁chromosome	-11.7661
▁hydride	-11.7661
▁inorganic	-11.7661
▁leopold	-11.7661
▁savanna	-11.7661
▁spalding	-11.7661
▁bahamian	-11.7661
▁packaging	-11.7661
▁retriev	-11.7661
▁envoy	-11.7661
▁endemic	-11.7661
▁gustav	-11.7661
▁glory	-11.7661
▁boiling	-11.7661
▁insignia	-11.7661
▁pivot	-11.7662
▁masterpiece	-11.7662
▁meyer	-11.7662
▁rené	-11.7663
clockwise	-11.768
▁dictate	-11.7695
record	-11.7705
ethnic	-11.7705
circu	-11.7716
▁1.0	-11.7775
▁pretend	-11.7806
▁aargau	-11.7836
▁alicante	-11.7836
▁alkynes	-11.7836
▁calculating	-11.7836
▁embarked	-11.7836
▁hypothetical	-11.7836
▁inexpensive	-11.7836
▁potatoes	-11.7836
▁psychiatric	-11.7836
▁vernacular	-11.7836
▁wisconsin	-11.7836
▁yerevan	-11.7836
▁amoxicillin	-11.7836
▁desirable	-11.7836
▁engaging	-11.7836
▁impairment	-11.7836
▁microorganism	-11.7836
▁afyon	-11.7836
▁thailand	-11.7836
dynastic	-11.7836
▁sulfide	-11.7836
▁amstrad	-11.7836
▁quarry	-11.7836
▁prolonged	-11.7836
phosphor	-11.7836
▁graphite	-11.7836
▁coinage	-11.7836
▁pliny	-11.7836
▁ceiling	-11.7836
▁aperture	-11.7836
▁toffler	-11.7836
▁allegory	-11.7837
▁aristocrat	-11.7837
▁breakthrough	-11.7837
▁abnormal	-11.7837
▁gauge	-11.7838
▁residual	-11.7838
▁insult	-11.7843
annales	-11.7847
▁employee	-11.7851
mobile	-11.7883
object	-11.7883
business	-11.7885
▁stilicho	-11.8015
▁apparatus	-11.8015
▁arguably	-11.8015
▁disastrous	-11.8015
▁guerrilla	-11.8015
▁joystick	-11.8015
▁magnesium	-11.8015
▁separating	-11.8015
▁subdivided	-11.8015
▁suspension	-11.8015
▁threshold	-11.8015
▁unnecessary	-11.8015
▁buckingham	-11.8015
▁climatic	-11.8015
▁torvald	-11.8015
▁communal	-11.8015
▁fascinat	-11.8015
▁janeiro	-11.8015
▁discourage	-11.8015
▁miguel	-11.8015
▁sailors	-11.8015
▁monopoly	-11.8015
▁bilateral	-11.8015
▁cognate	-11.8015
▁cruel	-11.8015
▁epistle	-11.8015
▁antenna	-11.8015
▁eager	-11.8015
▁chrys	-11.8017
▁radiat	-11.8027
murder	-11.8065
energy	-11.8066
normal	-11.8066
giving	-11.8067
▁classify	-11.8131
▁inhabit	-11.8145
▁evolve	-11.8168
▁agrippa	-11.8197
▁budapest	-11.8197
▁challenging	-11.8197
▁cockpit	-11.8197
▁illyrian	-11.8197
▁luminosity	-11.8197
▁pesticide	-11.8197
▁prejudice	-11.8197
▁rigorous	-11.8197
▁septuagint	-11.8197
▁tributary	-11.8197
▁worcester	-11.8197
▁adriatic	-11.8197
▁catherine	-11.8197
▁conductivity	-11.8197
▁fredrik	-11.8197
▁nowadays	-11.8197
▁reproductive	-11.8197
▁amaranth	-11.8197
▁ascribed	-11.8197
▁degradation	-11.8197
▁subscribe	-11.8197
▁delegation	-11.8197
▁jamaica	-11.8197
▁nomadic	-11.8197
▁physiology	-11.8197
▁coronation	-11.8197
▁analyses	-11.8197
▁ecology	-11.8197
état	-11.8197
▁pascal	-11.8197
▁parasites	-11.8197
▁foremost	-11.8198
hydroxy	-11.8199
▁sperm	-11.8217
▁haiti	-11.822
bodied	-11.8239
introduc	-11.825
scientific	-11.8251
▁undermine	-11.8312
▁concentrate	-11.8353
▁aldebaran	-11.8382
▁confiscat	-11.8382
▁contamination	-11.8382
▁decomposition	-11.8382
▁financing	-11.8382
▁hexagonal	-11.8382
▁inadequate	-11.8382
▁juvenile	-11.8382
▁observatory	-11.8382
▁ouagadougou	-11.8382
▁penetration	-11.8382
▁prosecutor	-11.8382
▁reptiles	-11.8382
▁seizure	-11.8382
▁dakota	-11.8382
▁quartet	-11.8382
▁subtropical	-11.8382
▁melody	-11.8382
▁moisture	-11.8382
▁mosaic	-11.8382
obacter	-11.8382
▁carthage	-11.8382
▁exotic	-11.8382
▁implied	-11.8382
▁surgical	-11.8382
▁vertebrae	-11.8382
▁bidding	-11.8382
▁thread	-11.8382
▁ajmer	-11.8382
▁disguise	-11.8383
▁traverse	-11.8388
▁animist	-11.8421
character	-11.8439
carrier	-11.8439
academic	-11.8439
canadian	-11.8439
alcohol	-11.8439
derived	-11.844
▁complet	-11.8473
▁retire	-11.8538
▁simultaneous	-11.8548
▁aegisthus	-11.857
▁transparent	-11.857
experiencing	-11.857
▁bankruptcy	-11.857
▁barracks	-11.857
▁dzungar	-11.857
▁incumbent	-11.857
▁milwaukee	-11.857
▁privacy	-11.857
▁rendezvous	-11.857
▁spectrometer	-11.857
▁susceptible	-11.857
▁taxonomy	-11.857
▁cyanide	-11.857
▁stewart	-11.857
▁stuart	-11.857
▁jutland	-11.857
▁nixon	-11.857
▁phosphorus	-11.857
▁horror	-11.8571
▁erotic	-11.8571
▁influx	-11.8571
▁obey	-11.8571
▁trench	-11.8572
▁brahmi	-11.8575
candida	-11.8583
▁subcontinent	-11.8604
▁immuno	-11.8625
interpret	-11.863
bishop	-11.8631
mechanical	-11.8631
asteroids	-11.8632
▁acetyl	-11.87
▁rebuild	-11.8701
structed	-11.8742
disciplinary	-11.8763
odyssey	-11.8763
▁[...]	-11.8763
▁celebrity	-11.8763
▁citadel	-11.8763
▁compliance	-11.8763
▁conjecture	-11.8763
▁consolidated	-11.8763
▁damascus	-11.8763
▁duplicate	-11.8763
▁expatriate	-11.8763
▁imagination	-11.8763
▁manipulation	-11.8763
▁microprocessor	-11.8763
▁phylogenetic	-11.8763
▁aveiro	-11.8763
▁deciding	-11.8763
▁druyan	-11.8763
▁dynasties	-11.8763
▁pacifist	-11.8763
▁existential	-11.8763
▁junction	-11.8763
▁narrator	-11.8763
▁omitted	-11.8763
▁streak	-11.8763
▁slogan	-11.8763
▁physiological	-11.8763
▁sumerian	-11.8763
emphatic	-11.8763
▁pastoral	-11.8763
▁keith	-11.8763
▁entries	-11.8764
▁arslan	-11.8764
dhamma	-11.8765
▁slide	-11.8765
kenneth	-11.8765
▁syllabic	-11.8766
▁emulate	-11.8769
▁usurp	-11.8769
▁justify	-11.8773
▁refut	-11.8775
positive	-11.8828
economy	-11.8828
between	-11.8828
volume	-11.8829
membran	-11.8957
▁compassion	-11.8959
▁acquiring	-11.8959
▁bauxite	-11.8959
▁bilingual	-11.8959
▁biographies	-11.8959
▁examining	-11.8959
▁frankfurt	-11.8959
▁hekmatyar	-11.8959
▁legitimacy	-11.8959
▁liturgy	-11.8959
▁mikhail	-11.8959
▁munitions	-11.8959
▁prolific	-11.8959
▁segregation	-11.8959
▁supremacy	-11.8959
▁worried	-11.8959
▁rectangular	-11.8959
▁shrimp	-11.8959
▁umpire	-11.8959
▁exodus	-11.8959
▁fermentation	-11.8959
▁eisele	-11.8959
▁kernel	-11.8959
▁fatimid	-11.8959
▁parthenon	-11.8959
▁astrobiolog	-11.8959
▁distress	-11.8959
▁aluminum	-11.8959
▁francium	-11.8959
▁wessex	-11.8959
▁commune	-11.8959
▁sanctions	-11.8959
▁pencil	-11.8959
▁gerald	-11.8959
▁reagan	-11.8959
▁inducted	-11.8959
▁terrace	-11.8959
▁analyst	-11.896
▁latvia	-11.896
▁corsica	-11.896
▁agenda	-11.896
▁outrage	-11.8963
▁agitat	-11.8971
asparag	-11.8976
▁resembl	-11.8988
▁distract	-11.8989
appear	-11.9025
particularly	-11.9028
famous	-11.9028
58)	-11.9101
ominal	-11.9106
▁execute	-11.913
▁republi	-11.9143
semitism	-11.9157
scholastic	-11.9159
▁ampicillin	-11.9159
▁concession	-11.9159
▁diacritics	-11.9159
▁expulsion	-11.9159
▁exterior	-11.9159
▁flexibility	-11.9159
▁jurassic	-11.9159
▁licensing	-11.9159
▁peculiar	-11.9159
▁possibilities	-11.9159
▁purchasing	-11.9159
▁seljuk	-11.9159
▁slovak	-11.9159
▁solving	-11.9159
▁srpska	-11.9159
▁superficial	-11.9159
▁baptized	-11.9159
▁recapture	-11.9159
▁prescription	-11.9159
▁delicate	-11.9159
▁apocryphal	-11.9159
▁facial	-11.9159
▁dementia	-11.9159
▁inference	-11.9159
▁ascorb	-11.9159
▁maiden	-11.9159
fascist	-11.9159
▁asylum	-11.916
▁escalat	-11.9167
negative	-11.9187
symbol	-11.9232
similar	-11.9232
▁approve	-11.9334
▁perceive	-11.9334
▁consequent	-11.934
welcome	-11.9363
censorship	-11.9363
skeletal	-11.9363
▁automotive	-11.9363
▁butterfly	-11.9363
▁carolingian	-11.9363
▁curriculum	-11.9363
▁demonstrating	-11.9363
▁deprived	-11.9363
▁exclusion	-11.9363
▁façade	-11.9363
▁ghazni	-11.9363
▁griffin	-11.9363
▁inception	-11.9363
▁proprietary	-11.9363
▁provoked	-11.9363
▁satirical	-11.9363
▁volcanoes	-11.9363
▁yusuf	-11.9363
reflexive	-11.9363
▁encryption	-11.9363
▁virgil	-11.9363
▁annexation	-11.9363
▁antiproton	-11.9363
▁wilderness	-11.9363
▁splash	-11.9363
▁cancellation	-11.9363
▁mandatory	-11.9363
▁impaired	-11.9363
▁courage	-11.9363
▁convex	-11.9363
▁paradigm	-11.9363
▁probable	-11.9363
▁turbine	-11.9363
▁bodily	-11.9363
▁editing	-11.9363
▁manila	-11.9364
▁moravia	-11.9364
establish	-11.9388
companies	-11.944
possibly	-11.944
southern	-11.944
before	-11.944
▁vinyl	-11.9448
christ	-11.9503
▁correlate	-11.9527
▁amicabl	-11.9568
▁adolescent	-11.9571
▁alchemists	-11.9571
▁anthropological	-11.9571
▁binomial	-11.9571
▁cincinnati	-11.9571
▁enlarged	-11.9571
▁guatemala	-11.9571
▁krishna	-11.9571
▁málaga	-11.9571
▁oscillation	-11.9571
▁populace	-11.9571
▁practised	-11.9571
▁solstice	-11.9571
▁stereotyp	-11.9571
▁villeroi	-11.9571
▁volatile	-11.9571
▁absalon	-11.9571
▁tibetan	-11.9571
▁cartesian	-11.9571
▁charitable	-11.9571
▁ethanol	-11.9571
▁gibson	-11.9571
▁disposal	-11.9571
▁actaeon	-11.9571
▁friction	-11.9571
▁sandwich	-11.9571
▁fresco	-11.9571
▁bargain	-11.9571
▁reagent	-11.9571
▁regret	-11.9571
▁mustafa	-11.9571
▁jerry	-11.9571
▁lisbon	-11.9571
▁orthography	-11.9571
▁dwelling	-11.9572
▁stupa	-11.9572
▁lunch	-11.9573
▁swim	-11.9574
curtain	-11.9576
strong	-11.9653
▁scatter	-11.9732
▁devote	-11.9755
▁persecut	-11.9772
▁cushitic	-11.9784
▁devastating	-11.9784
▁diffraction	-11.9784
▁distillation	-11.9784
▁dorothy	-11.9784
▁ensemble	-11.9784
▁equinox	-11.9784
▁glasgow	-11.9784
▁haplogroup	-11.9784
▁innocence	-11.9784
▁oklahoma	-11.9784
▁prophecy	-11.9784
▁ptolemai	-11.9784
▁relativistic	-11.9784
▁distortion	-11.9784
▁finnish	-11.9784
▁hydrolysis	-11.9784
▁observance	-11.9784
▁penalties	-11.9784
▁pseudonym	-11.9784
▁leisure	-11.9784
▁pavement	-11.9784
▁cicero	-11.9784
▁lynx	-11.9784
▁ammonite	-11.9784
▁judah	-11.9784
▁resonance	-11.9784
▁dioxin	-11.9784
▁nelson	-11.9784
▁psalm	-11.9784
▁alexei	-11.9784
▁nicaea	-11.9784
▁ntsc	-11.9784
▁cuyp	-11.9784
▁hydroxyl	-11.9784
▁twist	-11.9784
▁propagate	-11.9784
▁obstruct	-11.9784
▁parthian	-11.9785
schwarz	-11.9786
<	-13.3752
