<unk>	0
<s>	0
</s>	0
▁t	-0
▁a	-1
he	-2
in	-3
▁the	-4
er	-5
▁o	-6
▁s	-7
re	-8
on	-9
▁c	-10
at	-11
ed	-12
en	-13
▁w	-14
an	-15
▁b	-16
is	-17
it	-18
▁in	-19
or	-20
▁an	-21
es	-22
▁of	-23
▁p	-24
▁f	-25
al	-26
ar	-27
▁m	-28
ic	-29
▁and	-30
▁d	-31
ro	-32
as	-33
ing	-34
ion	-35
▁h	-36
▁to	-37
le	-38
us	-39
ent	-40
▁e	-41
▁l	-42
▁n	-43
▁re	-44
un	-45
▁th	-46
ur	-47
om	-48
ly	-49
ct	-50
▁g	-51
il	-52
st	-53
▁be	-54
ut	-55
ol	-56
am	-57
ve	-58
id	-59
▁as	-60
▁"	-61
ul	-62
im	-63
ation	-64
▁is	-65
ch	-66
ce	-67
ad	-68
▁for	-69
▁1	-70
▁al	-71
▁st	-72
▁on	-73
ig	-74
ot	-75
ir	-76
ver	-77
▁was	-78
et	-79
ra	-80
ith	-81
el	-82
▁con	-83
ter	-84
her	-85
ow	-86
▁(	-87
▁with	-88
ist	-89
▁by	-90
▁wh	-91
▁that	-92
ri	-93
▁it	-94
▁de	-95
os	-96
▁he	-97
▁pro	-98
um	-99
▁at	-100
ay	-101
and	-102
▁v	-103
rom	-104
th	-105
em	-106
op	-107
▁com	-108
▁mo	-109
▁or	-110
ers	-111
est	-112
ag	-113
ate	-114
▁su	-115
if	-116
▁un	-117
ies	-118
ac	-119
▁2	-120
▁r	-121
ab	-122
▁ch	-123
▁se	-124
▁are	-125
ain	-126
▁k	-127
▁ex	-128
▁from	-129
pe	-130
oc	-131
▁j	-132
res	-133
ity	-134
▁ar	-135
▁19	-136
ud	-137
ian	-138
▁co	-139
▁his	-140
ug	-141
qu	-142
iv	-143
ia	-144
ich	-145
ant	-146
ort	-147
od	-148
ive	-149
ment	-150
▁#	-151
▁##	-152
ess	-153
▁ne	-154
se	-155
ical	-156
▁us	-157
pp	-158
ated	-159
art	-160
ial	-161
pt	-162
ill	-163
all	-164
▁20	-165
ht	-166
▁am	-167
ere	-168
▁le	-169
▁which	-170
ber	-171
und	-172
ip	-173
ure	-174
▁en	-175
▁were	-176
ction	-177
▁ac	-178
og	-179
ak	-180
ous	-181
ard	-182
▁ha	-183
▁ad	-184
▁ab	-185
der	-186
so	-187
▁so	-188
▁pl	-189
cl	-190
▁not	-191
▁wor	-192
ine	-193
ther	-194
▁comp	-195
▁af	-196
▁this	-197
▁y	-198
ge	-199
▁sh	-200
ary	-201
ast	-202
ish	-203
ame	-204
up	-205
red	-206
ust	-207
▁fo	-208
per	-209
rit	-210
ans	-211
ect	-212
▁cont	-213
du	-214
ition	-215
▁have	-216
ome	-217
ie	-218
iz	-219
▁cl	-220
ong	-221
▁had	-222
ugh	-223
▁whe	-224
ell	-225
▁also	-226
ult	-227
ide	-228
ub	-229
▁sp	-230
ap	-231
ight	-232
▁its	-233
▁int	-234
▁ro	-235
ib	-236
▁tr	-237
ik	-238
▁has	-239
▁form	-240
end	-241
▁other	-242
ations	-243
▁man	-244
ign	-245
",	-246
▁all	-247
ass	-248
▁comm	-249
▁but	-250
ence	-251
),	-252
ry	-253
ph	-254
▁part	-255
av	-256
▁their	-257
age	-258
unt	-259
ally	-260
▁fir	-261
▁im	-262
▁ag	-263
uld	-264
▁res	-265
fer	-266
▁can	-267
ars	-268
pl	-269
ater	-270
ack	-271
▁per	-272
▁dis	-273
ire	-274
ang	-275
▁one	-276
▁first	-277
ld	-278
▁te	-279
vel	-280
ory	-281
clud	-282
▁sc	-283
ates	-284
ree	-285
ue	-286
▁bec	-287
con	-288
act	-289
ord	-290
▁ind	-291
▁sy	-292
ok	-293
▁they	-294
out	-295
ren	-296
▁been	-297
oll	-298
ions	-299
="	-300
▁cent	-301
ance	-302
ace	-303
00	-304
the	-305
ric	-306
".	-307
).	-308
▁tw	-309
hed	-310
▁includ	-311
▁des	-312
▁after	-313
ime	-314
own	-315
▁inter	-316
erm	-317
ff	-318
▁spe	-319
able	-320
▁new	-321
▁mar	-322
▁who	-323
ced	-324
▁ap	-325
▁most	-326
ile	-327
▁po	-328
orm	-329
ore	-330
▁ser	-331
▁some	-332
te	-333
ces	-334
co	-335
▁me	-336
ach	-337
ru	-338
▁bo	-339
ens	-340
uring	-341
▁em	-342
▁ye	-343
▁ph	-344
▁go	-345
▁ev	-346
port	-347
ron	-348
▁such	-349
cess	-350
▁more	-351
▁there	-352
▁no	-353
▁cons	-354
ice	-355
vers	-356
ts	-357
▁ear	-358
eric	-359
▁used	-360
▁app	-361
amp	-362
we	-363
▁two	-364
ved	-365
lic	-366
ose	-367
ors	-368
▁gro	-369
▁18	-370
▁201	-371
▁ele	-372
land	-373
▁pre	-374
ism	-375
ould	-376
▁reg	-377
ress	-378
ite	-379
ks	-380
▁rel	-381
▁ca	-382
ents	-383
ase	-384
ational	-385
ari	-386
ade	-387
▁200	-388
▁over	-389
ury	-390
▁ra	-391
olog	-392
ited	-393
▁ass	-394
ied	-395
ath	-396
▁col	-397
▁into	-398
▁when	-399
▁her	-400
▁gen	-401
▁fe	-402
les	-403
ative	-404
▁bet	-405
▁i	-406
ular	-407
uth	-408
rib	-409
▁produ	-410
▁than	-411
▁att	-412
▁rec	-413
▁may	-414
▁bl	-415
▁pe	-416
reat	-417
urn	-418
▁kn	-419
▁during	-420
▁these	-421
▁pr	-422
ted	-423
▁fl	-424
one	-425
▁many	-426
wn	-427
als	-428
▁3	-429
▁hig	-430
▁out	-431
ics	-432
▁americ	-433
ased	-434
ings	-435
use	-436
▁war	-437
▁lar	-438
▁time	-439
▁sub	-440
iss	-441
▁under	-442
▁would	-443
ft	-444
▁bel	-445
▁do	-446
▁act	-447
▁only	-448
▁ma	-449
▁num	-450
▁ant	-451
ween	-452
oth	-453
▁pres	-454
▁between	-455
ific	-456
▁inf	-457
▁qu	-458
ough	-459
▁we	-460
aw	-461
▁acc	-462
▁car	-463
▁him	-464
▁up	-465
▁jo	-466
▁world	-467
tern	-468
▁how	-469
▁count	-470
▁pop	-471
▁def	-472
stem	-473
gan	-474
ind	-475
▁eng	-476
▁off	-477
ities	-478
ists	-479
▁sch	-480
▁system	-481
ual	-482
▁inc	-483
old	-484
ost	-485
ten	-486
▁arm	-487
▁thro	-488
uc	-489
▁met	-490
ys	-491
vern	-492
▁br	-493
▁trans	-494
▁work	-495
▁spec	-496
ild	-497
▁pol	-498
▁art	-499
▁pub	-500
▁hist	-501
▁inst	-502
ince	-503
▁dif	-504
▁found	-505
ium	-506
▁play	-507
cur	-508
very	-509
▁through	-510
▁them	-511
ike	-512
▁mon	-513
▁char	-514
▁air	-515
▁about	-516
ons	-517
▁rem	-518
▁rep	-519
velop	-520
▁par	-521
▁while	-522
ne	-523
▁use	-524
ished	-525
▁gener	-526
ep	-527
ah	-528
▁call	-529
▁govern	-530
ject	-531
▁supp	-532
▁ob	-533
ople	-534
▁city	-535
int	-536
doc	-537
▁where	-538
▁develop	-539
ollow	-540
▁years	-541
▁states	-542
uro	-543
ward	-544
19	-545
▁pos	-546
wik	-547
▁<	-548
ral	-549
▁follow	-550
ll	-551
▁inv	-552
ating	-553
▁tra	-554
▁known	-555
ient	-556
ower	-557
▁later	-558
▁min	-559
are	-560
hes	-561
ram	-562
▁199	-563
▁prov	-564
ever	-565
ail	-566
▁writ	-567
ident	-568
▁4	-569
▁add	-570
cent	-571
▁high	-572
ake	-573
ious	-574
ict	-575
▁set	-576
▁she	-577
ution	-578
form	-579
ments	-580
ond	-581
▁bro	-582
▁dist	-583
fore	-584
▁bu	-585
▁century	-586
▁mem	-587
▁however	-588
▁loc	-589
▁sm	-590
cept	-591
▁cre	-592
ix	-593
▁state	-594
▁exp	-595
▁both	-596
▁early	-597
ized	-598
ps	-599
▁sur	-600
ures	-601
cted	-602
▁dec	-603
ories	-604
▁med	-605
ays	-606
▁est	-607
▁again	-608
▁vari	-609
▁5	-610
angu	-611
▁sign	-612
▁lo	-613
ines	-614
io	-615
▁group	-616
▁well	-617
ran	-618
▁const	-619
▁made	-620
▁ed	-621
ually	-622
▁z	-623
▁sim	-624
▁pers	-625
▁dep	-626
ife	-627
▁mus	-628
▁eff	-629
ural	-630
ians	-631
ins	-632
▁being	-633
ically	-634
▁nor	-635
0,	-636
▁people	-637
▁imp	-638
ula	-639
▁tit	-640
▁stud	-641
▁fil	-642
hip	-643
▁became	-644
round	-645
lex	-646
▁american	-647
cond	-648
▁differ	-649
▁ext	-650
▁three	-651
."	-652
ible	-653
▁then	-654
arch	-655
gest	-656
▁including	-657
▁number	-658
tle	-659
tain	-660
inal	-661
▁sever	-662
ood	-663
ise	-664
▁united	-665
▁called	-666
its	-667
▁main	-668
hen	-669
ined	-670
▁brit	-671
ctions	-672
ature	-673
▁langu	-674
▁sa	-675
ather	-676
▁end	-677
▁will	-678
ving	-679
▁since	-680
iet	-681
▁ent	-682
our	-683
ily	-684
other	-685
ues	-686
lish	-687
▁rom	-688
000	-689
uss	-690
ider	-691
▁ty	-692
ught	-693
▁second	-694
ier	-695
de	-696
ology	-697
▁orig	-698
ause	-699
▁any	-700
orn	-701
hem	-702
▁ur	-703
ters	-704
ov	-705
ateg	-706
▁king	-707
▁term	-708
lished	-709
▁sl	-710
ty	-711
▁uni	-712
uch	-713
ially	-714
ger	-715
▁maj	-716
▁fam	-717
▁euro	-718
led	-719
ants	-720
man	-721
▁national	-722
ck	-723
▁dire	-724
imes	-725
▁if	-726
▁like	-727
elf	-728
ages	-729
ility	-730
▁government	-731
▁6	-732
▁because	-733
▁u	-734
▁17	-735
iel	-736
▁mil	-737
▁film	-738
▁major	-739
rist	-740
▁large	-741
▁suc	-742
▁south	-743
▁common	-744
1,	-745
ob	-746
bers	-747
raph	-748
▁several	-749
erman	-750
▁contin	-751
▁ret	-752
▁desc	-753
▁long	-754
▁land	-755
ros	-756
▁before	-757
▁accord	-758
▁result	-759
▁str	-760
▁could	-761
▁year	-762
▁lead	-763
▁oper	-764
▁198	-765
ale	-766
az	-767
▁197	-768
▁soc	-769
cy	-770
lu	-771
ful	-772
ulation	-773
▁north	-774
ived	-775
ning	-776
ke	-777
▁europe	-778
▁intern	-779
▁formula	-780
▁gr	-781
▁cor	-782
ision	-783
▁appe	-784
▁title	-785
▁four	-786
ract	-787
ae	-788
▁partic	-789
▁aust	-790
▁bas	-791
til	-792
▁("	-793
illion	-794
▁elect	-795
▁mat	-796
▁name	-797
▁ri	-798
▁cap	-799
org	-800
▁val	-801
ital	-802
▁against	-803
ton	-804
ames	-805
▁book	-806
ick	-807
▁pa	-808
ange	-809
▁same	-810
▁oc	-811
▁often	-812
2,	-813
▁hum	-814
▁chur	-815
▁each	-816
▁rev	-817
ample	-818
omet	-819
▁own	-820
▁support	-821
20	-822
ool	-823
ute	-824
though	-825
▁consider	-826
▁commun	-827
▁pri	-828
osed	-829
ared	-830
rop	-831
▁design	-832
▁german	-833
▁christ	-834
▁ge	-835
ene	-836
iew	-837
▁ang	-838
to	-839
▁7	-840
▁moder	-841
inc	-842
oun	-843
▁small	-844
▁according	-845
▁serv	-846
ina	-847
▁categ	-848
▁incre	-849
xt	-850
▁hy	-851
atic	-852
▁public	-853
ork	-854
▁until	-855
▁trad	-856
▁conf	-857
▁remain	-858
iod	-859
ield	-860
▁ast	-861
▁196	-862
▁leg	-863
▁contro	-864
▁death	-865
els	-866
ax	-867
gy	-868
5,	-869
▁ins	-870
▁british	-871
ius	-872
▁cour	-873
▁gu	-874
vent	-875
▁prog	-876
ional	-877
▁ii	-878
▁dem	-879
▁different	-880
bo	-881
▁la	-882
▁bat	-883
▁ref	-884
▁port	-885
▁although	-886
▁life	-887
conom	-888
▁mod	-889
han	-890
ock	-891
▁great	-892
▁effect	-893
▁8	-894
▁country	-895
▁univers	-896
▁example	-897
ided	-898
▁import	-899
▁among	-900
▁success	-901
▁organ	-902
▁arch	-903
▁power	-904
hern	-905
chn	-906
▁op	-907
aking	-908
▁ter	-909
▁det	-910
ired	-911
ives	-912
rent	-913
min	-914
▁class	-915
▁law	-916
▁school	-917
▁ann	-918
▁sing	-919
ised	-920
▁cult	-921
▁compan	-922
ides	-923
ank	-924
▁modern	-925
be	-926
ird	-927
▁sol	-928
▁bra	-929
▁phil	-930
ued	-931
▁around	-932
▁id	-933
▁av	-934
▁include	-935
6,	-936
▁history	-937
hn	-938
▁lit	-939
▁hous	-940
▁near	-941
▁econom	-942
cer	-943
oy	-944
ting	-945
▁cur	-946
▁back	-947
itions	-948
▁mark	-949
get	-950
▁miss	-951
▁following	-952
▁di	-953
ves	-954
▁period	-955
mber	-956
gen	-957
way	-958
ries	-959
▁div	-960
3,	-961
▁did	-962
▁fin	-963
▁island	-964
▁record	-965
yl	-966
▁polit	-967
▁gl	-968
▁estab	-969
ruct	-970
9,	-971
enn	-972
▁equ	-973
▁categories	-974
edia	-975
ha	-976
▁those	-977
▁colle	-978
4,	-979
▁gree	-980
▁order	-981
imate	-982
ids	-983
▁techn	-984
8,	-985
▁el	-986
7,	-987
▁alex	-988
▁offic	-989
▁refer	-990
▁pat	-991
par	-992
▁ara	-993
▁even	-994
com	-995
ograph	-996
▁direct	-997
▁gre	-998
▁'	-999
▁due	-1000
▁allow	-1001
▁bar	-1002
▁area	-1003
▁milit	-1004
▁charact	-1005
▁church	-1006
▁show	-1007
▁cal	-1008
bert	-1009
▁language	-1010
ner	-1011
ration	-1012
▁histor	-1013
ave	-1014
arm	-1015
oph	-1016
lem	-1017
▁another	-1018
ified	-1019
ley	-1020
")	-1021
//	-1022
▁requ	-1023
▁appro	-1024
▁person	-1025
ged	-1026
▁non	-1027
yn	-1028
ipedia	-1029
▁alb	-1030
ander	-1031
que	-1032
▁water	-1033
wikipedia	-1034
ize	-1035
▁afric	-1036
://	-1037
tps	-1038
▁url	-1039
ony	-1040
wiki	-1041
▁lat	-1042
▁</	-1043
https	-1044
unc	-1045
curid	-1046
▁fun	-1047
▁much	-1048
ugust	-1049
▁general	-1050
▁god	-1051
▁rele	-1052
▁fore	-1053
▁stat	-1054
ason	-1055
▁poss	-1056
ript	-1057
▁right	-1058
li	-1059
▁ber	-1060
▁prob	-1061
▁series	-1062
▁influ	-1063
▁es	-1064
▁exper	-1065
▁pass	-1066
▁john	-1067
aim	-1068
▁adv	-1069
0.	-1070
▁ke	-1071
▁based	-1072
oci	-1073
▁16	-1074
▁bod	-1075
ended	-1076
▁describ	-1077
▁ir	-1078
ollo	-1079
▁15	-1080
air	-1081
▁tem	-1082
ices	-1083
me	-1084
rodu	-1085
▁music	-1086
▁began	-1087
por	-1088
▁stand	-1089
son	-1090
ilar	-1091
▁mid	-1092
raft	-1093
▁repres	-1094
">	-1095
ement	-1096
▁word	-1097
▁within	-1098
▁prop	-1099
▁population	-1100
▁program	-1101
ently	-1102
18	-1103
ences	-1104
▁million	-1105
▁anc	-1106
ization	-1107
ull	-1108
▁plan	-1109
▁auth	-1110
amed	-1111
▁english	-1112
▁west	-1113
▁black	-1114
▁je	-1115
▁belie	-1116
▁giv	-1117
▁august	-1118
▁cr	-1119
▁using	-1120
▁prot	-1121
▁rad	-1122
▁arg	-1123
▁similar	-1124
▁process	-1125
▁er	-1126
▁mag	-1127
pect	-1128
eng	-1129
▁rest	-1130
▁sw	-1131
▁vis	-1132
aced	-1133
▁addition	-1134
▁fre	-1135
▁perform	-1136
▁report	-1137
▁international	-1138
▁typ	-1139
▁roman	-1140
▁associ	-1141
une	-1142
▁ve	-1143
used	-1144
▁comput	-1145
ience	-1146
▁expl	-1147
▁opp	-1148
ured	-1149
ried	-1150
▁emp	-1151
▁military	-1152
▁.	-1153
ets	-1154
ross	-1155
omin	-1156
ases	-1157
▁very	-1158
▁rece	-1159
tal	-1160
ark	-1161
▁sal	-1162
▁aff	-1163
omen	-1164
▁open	-1165
▁still	-1166
day	-1167
rench	-1168
▁,	-1169
▁along	-1170
▁my	-1171
▁popular	-1172
▁arab	-1173
▁comple	-1174
▁tradition	-1175
▁treat	-1176
▁apollo	-1177
▁return	-1178
▁cer	-1179
▁east	-1180
anc	-1181
▁now	-1182
▁development	-1183
▁(19	-1184
▁family	-1185
▁9	-1186
▁human	-1187
▁bre	-1188
▁day	-1189
▁run	-1190
▁10	-1191
▁eas	-1192
pre	-1193
ven	-1194
val	-1195
▁hel	-1196
▁hand	-1197
ball	-1198
▁camp	-1199
▁child	-1200
▁university	-1201
▁–	-1202
▁led	-1203
by	-1204
ister	-1205
▁considered	-1206
▁fr	-1207
▁build	-1208
lin	-1209
▁team	-1210
▁win	-1211
▁important	-1212
ense	-1213
arian	-1214
▁fact	-1215
▁last	-1216
gin	-1217
▁resp	-1218
br	-1219
▁194	-1220
ness	-1221
▁space	-1222
▁various	-1223
▁nat	-1224
▁represent	-1225
▁pur	-1226
▁army	-1227
1.	-1228
bit	-1229
▁place	-1230
▁crit	-1231
▁members	-1232
sc	-1233
ological	-1234
▁old	-1235
▁202	-1236
▁region	-1237
▁fran	-1238
▁line	-1239
erv	-1240
▁test	-1241
estern	-1242
ze	-1243
med	-1244
▁aut	-1245
▁indust	-1246
▁anal	-1247
▁head	-1248
alth	-1249
▁just	-1250
▁start	-1251
▁contain	-1252
▁sea	-1253
▁said	-1254
▁what	-1255
ink	-1256
rote	-1257
▁home	-1258
▁relig	-1259
▁ste	-1260
row	-1261
craft	-1262
▁sout	-1263
▁origin	-1264
▁short	-1265
▁particular	-1266
na	-1267
▁rese	-1268
eder	-1269
ned	-1270
▁less	-1271
▁fur	-1272
▁vers	-1273
▁present	-1274
▁comb	-1275
ots	-1276
istic	-1277
ash	-1278
▁french	-1279
▁president	-1280
▁signific	-1281
▁del	-1282
▁bud	-1283
▁bi	-1284
▁bus	-1285
▁hal	-1286
tic	-1287
ament	-1288
dom	-1289
▁dr	-1290
▁character	-1291
wh	-1292
▁tele	-1293
▁lim	-1294
▁local	-1295
ably	-1296
▁austral	-1297
apt	-1298
▁bor	-1299
▁move	-1300
▁late	-1301
yal	-1302
▁somet	-1303
▁times	-1304
▁court	-1305
▁house	-1306
ember	-1307
epend	-1308
▁anim	-1309
▁claim	-1310
ilt	-1311
oss	-1312
ively	-1313
▁base	-1314
▁every	-1315
▁published	-1316
▁sk	-1317
▁greek	-1318
▁dev	-1319
▁195	-1320
▁sug	-1321
▁political	-1322
▁wrote	-1323
ribut	-1324
▁prof	-1325
wards	-1326
ound	-1327
▁given	-1328
▁men	-1329
▁sym	-1330
▁largest	-1331
▁low	-1332
ality	-1333
▁empire	-1334
2.	-1335
af	-1336
ai	-1337
▁control	-1338
▁sour	-1339
▁author	-1340
▁mean	-1341
▁species	-1342
▁ide	-1343
ator	-1344
▁bur	-1345
▁works	-1346
▁territ	-1347
ites	-1348
▁struct	-1349
century	-1350
ither	-1351
ination	-1352
▁son	-1353
ung	-1354
▁product	-1355
ague	-1356
▁point	-1357
empt	-1358
▁took	-1359
hod	-1360
▁lab	-1361
▁without	-1362
▁included	-1363
▁bc	-1364
▁though	-1365
▁proper	-1366
▁cond	-1367
▁prim	-1368
▁init	-1369
▁mult	-1370
▁field	-1371
▁down	-1372
▁company	-1373
count	-1374
vered	-1375
rian	-1376
ison	-1377
ring	-1378
▁party	-1379
▁union	-1380
▁let	-1381
▁few	-1382
▁earth	-1383
▁developed	-1384
▁li	-1385
bs	-1386
ery	-1387
ham	-1388
▁mass	-1389
▁further	-1390
erc	-1391
▁pract	-1392
▁russ	-1393
▁view	-1394
▁make	-1395
olic	-1396
▁need	-1397
▁become	-1398
▁ep	-1399
▁phys	-1400
ument	-1401
ec	-1402
▁occur	-1403
▁ident	-1404
ata	-1405
▁production	-1406
igh	-1407
▁way	-1408
▁grow	-1409
ival	-1410
ards	-1411
▁event	-1412
▁significant	-1413
ior	-1414
▁12	-1415
▁left	-1416
▁net	-1417
mon	-1418
pec	-1419
▁introdu	-1420
▁exist	-1421
▁western	-1422
▁level	-1423
▁$	-1424
cing	-1425
▁countries	-1426
▁alm	-1427
▁jan	-1428
▁former	-1429
▁single	-1430
less	-1431
gr	-1432
ention	-1433
▁educ	-1434
▁established	-1435
▁obs	-1436
ple	-1437
▁tri	-1438
▁independ	-1439
▁disc	-1440
ril	-1441
▁iss	-1442
aur	-1443
▁light	-1444
▁philos	-1445
▁ju	-1446
▁river	-1447
▁ancient	-1448
▁held	-1449
ex	-1450
▁vi	-1451
▁nort	-1452
▁rul	-1453
▁redu	-1454
▁central	-1455
▁vol	-1456
▁age	-1457
ott	-1458
▁attack	-1459
▁chang	-1460
▁game	-1461
▁read	-1462
▁five	-1463
▁thus	-1464
▁third	-1465
▁oct	-1466
olution	-1467
▁suggest	-1468
▁193	-1469
▁top	-1470
▁tro	-1471
iety	-1472
3.	-1473
▁ox	-1474
▁post	-1475
▁named	-1476
▁usually	-1477
▁decl	-1478
ential	-1479
▁others	-1480
▁strong	-1481
ats	-1482
▁jew	-1483
▁systems	-1484
idence	-1485
lect	-1486
iving	-1487
ops	-1488
▁14	-1489
ou	-1490
▁service	-1491
▁european	-1492
▁repl	-1493
▁separ	-1494
mer	-1495
▁having	-1496
ths	-1497
▁object	-1498
aster	-1499
▁da	-1500
▁town	-1501
▁body	-1502
▁disco	-1503
▁turn	-1504
sh	-1505
▁method	-1506
ones	-1507
ining	-1508
▁ach	-1509
▁sum	-1510
▁civ	-1511
▁activ	-1512
akes	-1513
▁invol	-1514
▁free	-1515
ama	-1516
▁mount	-1517
▁social	-1518
▁produced	-1519
▁dra	-1520
▁mor	-1521
▁der	-1522
▁ce	-1523
ware	-1524
au	-1525
▁attempt	-1526
▁case	-1527
ret	-1528
ploy	-1529
▁six	-1530
▁kingdom	-1531
ency	-1532
▁see	-1533
ances	-1534
ox	-1535
▁mot	-1536
▁11	-1537
▁alexander	-1538
▁christian	-1539
mit	-1540
sequ	-1541
▁cy	-1542
▁gra	-1543
▁research	-1544
▁women	-1545
lear	-1546
▁forces	-1547
▁sent	-1548
hest	-1549
▁budd	-1550
▁mater	-1551
aut	-1552
uary	-1553
▁written	-1554
5.	-1555
ove	-1556
▁sept	-1557
▁real	-1558
▁york	-1559
▁instit	-1560
▁best	-1561
zer	-1562
ches	-1563
read	-1564
▁syn	-1565
▁constit	-1566
▁groups	-1567
yle	-1568
▁father	-1569
face	-1570
▁wide	-1571
▁league	-1572
▁original	-1573
▁theory	-1574
ying	-1575
▁battle	-1576
▁cat	-1577
ivid	-1578
▁prom	-1579
ipp	-1580
▁came	-1581
hol	-1582
ruction	-1583
ana	-1584
▁relations	-1585
▁prev	-1586
▁built	-1587
▁civil	-1588
▁abs	-1589
ission	-1590
acy	-1591
▁pain	-1592
▁current	-1593
dro	-1594
hing	-1595
emb	-1596
oms	-1597
ria	-1598
ublic	-1599
▁tur	-1600
istan	-1601
▁force	-1602
self	-1603
ler	-1604
▁sec	-1605
ule	-1606
▁dece	-1607
▁ban	-1608
▁cir	-1609
rew	-1610
ude	-1611
▁ital	-1612
verse	-1613
ising	-1614
▁inform	-1615
side	-1616
ways	-1617
ability	-1618
atures	-1619
▁natural	-1620
▁march	-1621
hers	-1622
▁languages	-1623
▁southern	-1624
aces	-1625
aken	-1626
ends	-1627
line	-1628
▁occ	-1629
▁care	-1630
itive	-1631
▁individ	-1632
4.	-1633
▁described	-1634
put	-1635
▁red	-1636
iness	-1637
▁function	-1638
▁den	-1639
▁does	-1640
▁sold	-1641
▁problem	-1642
▁electron	-1643
▁admin	-1644
▁areas	-1645
▁released	-1646
bur	-1647
ored	-1648
▁vict	-1649
ling	-1650
▁total	-1651
ye	-1652
▁pal	-1653
▁bir	-1654
7.	-1655
ille	-1656
▁sometimes	-1657
▁youn	-1658
▁help	-1659
▁pot	-1660
▁kill	-1661
▁september	-1662
▁side	-1663
lant	-1664
▁never	-1665
▁special	-1666
ka	-1667
▁eth	-1668
▁either	-1669
cul	-1670
9.	-1671
for	-1672
ctor	-1673
▁account	-1674
pecially	-1675
▁material	-1676
aries	-1677
▁cell	-1678
▁england	-1679
▁project	-1680
▁role	-1681
▁13	-1682
ann	-1683
sp	-1684
ending	-1685
▁bal	-1686
rict	-1687
▁appear	-1688
ane	-1689
▁should	-1690
▁capital	-1691
10	-1692
▁won	-1693
ara	-1694
ergy	-1695
8.	-1696
ades	-1697
▁april	-1698
ered	-1699
▁cop	-1700
▁liter	-1701
work	-1702
osp	-1703
6.	-1704
▁vir	-1705
▁games	-1706
▁take	-1707
"),	-1708
▁meas	-1709
ote	-1710
gypt	-1711
▁x	-1712
ales	-1713
▁mic	-1714
ober	-1715
ected	-1716
▁apple	-1717
ray	-1718
▁anti	-1719
▁chem	-1720
▁white	-1721
▁[	-1722
▁children	-1723
▁july	-1724
▁official	-1725
▁republic	-1726
ification	-1727
ogn	-1728
▁january	-1729
,000	-1730
▁dest	-1731
▁scient	-1732
▁command	-1733
incip	-1734
▁acid	-1735
▁pred	-1736
▁colon	-1737
▁food	-1738
▁northern	-1739
ead	-1740
▁pet	-1741
▁december	-1742
▁half	-1743
▁song	-1744
enced	-1745
ains	-1746
▁counc	-1747
ma	-1748
aged	-1749
▁position	-1750
dle	-1751
▁egypt	-1752
▁close	-1753
▁good	-1754
ges	-1755
▁beh	-1756
▁june	-1757
▁america	-1758
▁october	-1759
17	-1760
lam	-1761
cle	-1762
▁acad	-1763
▁heav	-1764
▁market	-1765
▁economic	-1766
kn	-1767
▁award	-1768
go	-1769
▁range	-1770
▁royal	-1771
▁rather	-1772
▁nav	-1773
▁must	-1774
▁hit	-1775
ached	-1776
hib	-1777
▁sat	-1778
▁died	-1779
▁received	-1780
▁especially	-1781
ese	-1782
iation	-1783
▁nove	-1784
ography	-1785
▁astron	-1786
ada	-1787
▁ver	-1788
▁throughout	-1789
▁hen	-1790
asing	-1791
▁continued	-1792
▁study	-1793
▁princip	-1794
aves	-1795
▁fa	-1796
▁november	-1797
of	-1798
▁created	-1799
▁aud	-1800
▁cath	-1801
▁council	-1802
▁priv	-1803
▁star	-1804
▁upon	-1805
▁wall	-1806
▁concer	-1807
▁eastern	-1808
▁bul	-1809
▁club	-1810
▁hydro	-1811
▁feder	-1812
▁previous	-1813
orts	-1814
▁generally	-1815
osition	-1816
▁african	-1817
▁invest	-1818
here	-1819
▁computer	-1820
fic	-1821
▁recogn	-1822
▁mission	-1823
▁flight	-1824
▁har	-1825
ought	-1826
▁athen	-1827
▁192	-1828
ino	-1829
▁forms	-1830
▁super	-1831
▁next	-1832
vision	-1833
▁standard	-1834
verage	-1835
▁health	-1836
▁tour	-1837
12	-1838
▁interest	-1839
ounced	-1840
▁express	-1841
▁profess	-1842
▁full	-1843
iam	-1844
ster	-1845
▁himself	-1846
▁list	-1847
▁least	-1848
ety	-1849
iate	-1850
15	-1851
▁possible	-1852
ca	-1853
▁coast	-1854
▁ball	-1855
▁jud	-1856
▁instead	-1857
▁schol	-1858
▁dri	-1859
▁conn	-1860
▁begin	-1861
▁atlant	-1862
▁played	-1863
▁administ	-1864
lo	-1865
etic	-1866
▁accept	-1867
▁deb	-1868
▁capt	-1869
▁lower	-1870
▁agre	-1871
ips	-1872
▁tre	-1873
▁impro	-1874
▁season	-1875
▁certain	-1876
▁formed	-1877
▁thought	-1878
▁aircraft	-1879
ta	-1880
▁education	-1881
▁making	-1882
ief	-1883
▁ren	-1884
▁broad	-1885
▁regard	-1886
like	-1887
▁data	-1888
▁far	-1889
▁temper	-1890
ators	-1891
iment	-1892
apan	-1893
▁fund	-1894
▁final	-1895
▁evidence	-1896
bra	-1897
▁mer	-1898
▁type	-1899
▁version	-1900
americ	-1901
▁academ	-1902
▁culture	-1903
▁ill	-1904
itect	-1905
▁press	-1906
ained	-1907
▁desp	-1908
chan	-1909
icle	-1910
ulf	-1911
▁fail	-1912
▁higher	-1913
ront	-1914
▁once	-1915
▁hold	-1916
▁subst	-1917
▁foot	-1918
▁offer	-1919
imately	-1920
jan	-1921
▁center	-1922
▁subject	-1923
▁community	-1924
iction	-1925
uis	-1926
▁middle	-1927
▁above	-1928
▁engine	-1929
▁followed	-1930
▁transport	-1931
let	-1932
anish	-1933
▁avail	-1934
▁parts	-1935
▁society	-1936
uf	-1937
▁consist	-1938
▁soft	-1939
▁almost	-1940
16	-1941
icy	-1942
ghan	-1943
gether	-1944
▁together	-1945
inted	-1946
▁seen	-1947
▁compet	-1948
viet	-1949
▁reported	-1950
ensive	-1951
▁energy	-1952
▁islands	-1953
▁fri	-1954
▁neg	-1955
▁crew	-1956
▁complete	-1957
ples	-1958
oman	-1959
▁tex	-1960
▁rock	-1961
ero	-1962
▁cro	-1963
▁business	-1964
▁africa	-1965
rap	-1966
▁exam	-1967
▁hard	-1968
▁complex	-1969
ceed	-1970
▁indic	-1971
umb	-1972
▁religious	-1973
ym	-1974
bon	-1975
lim	-1976
▁relative	-1977
▁terms	-1978
vir	-1979
▁france	-1980
▁territory	-1981
▁fig	-1982
▁magn	-1983
bor	-1984
ows	-1985
ffic	-1986
▁architect	-1987
▁host	-1988
▁fac	-1989
▁tar	-1990
▁norm	-1991
▁altern	-1992
burg	-1993
▁san	-1994
▁defe	-1995
▁ground	-1996
▁elements	-1997
▁amb	-1998
gress	-1999
▁rights	-2000
ert	-2001
▁alg	-2002
▁located	-2003
▁germany	-2004
ban	-2005
▁multip	-2006
eth	-2007
▁japan	-2008
▁building	-2009
13	-2010
▁adop	-2011
▁surface	-2012
▁movement	-2013
▁ax	-2014
▁alk	-2015
▁frequ	-2016
arily	-2017
▁gold	-2018
▁travel	-2019
▁alph	-2020
▁mother	-2021
▁park	-2022
▁means	-2023
▁style	-2024
▁trade	-2025
ount	-2026
ali	-2027
▁186	-2028
▁che	-2029
▁fall	-2030
▁doub	-2031
itude	-2032
▁days	-2033
▁despite	-2034
▁album	-2035
ads	-2036
▁model	-2037
cript	-2038
▁philosoph	-2039
▁introduced	-2040
▁prote	-2041
▁employ	-2042
▁foreign	-2043
▁novel	-2044
50	-2045
▁ib	-2046
▁rail	-2047
▁today	-2048
ption	-2049
▁information	-2050
▁william	-2051
rated	-2052
▁little	-2053
▁mathem	-2054
▁office	-2055
▁numer	-2056
▁numbers	-2057
ints	-2058
▁sex	-2059
useum	-2060
▁change	-2061
▁brother	-2062
▁pen	-2063
▁stre	-2064
▁domin	-2065
▁industry	-2066
▁latin	-2067
▁across	-2068
▁albert	-2069
▁member	-2070
american	-2071
ms	-2072
uments	-2073
▁&	-2074
zil	-2075
▁books	-2076
▁access	-2077
▁associated	-2078
▁sil	-2079
▁science	-2080
▁successful	-2081
ened	-2082
▁armen	-2083
▁available	-2084
▁fire	-2085
▁born	-2086
▁transl	-2087
▁abb	-2088
▁sam	-2089
▁sound	-2090
pr	-2091
▁lun	-2092
▁tax	-2093
▁concept	-2094
▁influence	-2095
▁sem	-2096
▁soviet	-2097
aign	-2098
▁coll	-2099
").	-2100
▁mach	-2101
▁hom	-2102
idge	-2103
▁dut	-2104
▁hon	-2105
▁average	-2106
het	-2107
ties	-2108
▁entire	-2109
▁taken	-2110
▁campaign	-2111
bru	-2112
icles	-2113
▁lost	-2114
▁determ	-2115
▁structure	-2116
▁imm	-2117
▁except	-2118
▁know	-2119
▁ten	-2120
▁rich	-2121
▁services	-2122
ands	-2123
▁australia	-2124
▁fav	-2125
▁sen	-2126
▁traditional	-2127
▁story	-2128
att	-2129
erved	-2130
▁related	-2131
▁cross	-2132
▁sun	-2133
▁text	-2134
▁museum	-2135
▁itself	-2136
▁meaning	-2137
▁gave	-2138
▁afghan	-2139
aring	-2140
▁economy	-2141
king	-2142
▁dav	-2143
.,	-2144
▁percent	-2145
▁players	-2146
▁respect	-2147
▁catholic	-2148
▁remained	-2149
▁trib	-2150
▁eventually	-2151
la	-2152
isc	-2153
not	-2154
sel	-2155
▁cit	-2156
▁television	-2157
rael	-2158
▁approx	-2159
▁aber	-2160
▁young	-2161
uel	-2162
▁brazil	-2163
▁log	-2164
▁site	-2165
pro	-2166
tained	-2167
ald	-2168
▁oil	-2169
▁inte	-2170
▁displ	-2171
▁estim	-2172
▁ho	-2173
▁india	-2174
▁increased	-2175
iers	-2176
▁value	-2177
▁say	-2178
▁circ	-2179
bruary	-2180
▁names	-2181
viron	-2182
stand	-2183
unic	-2184
▁sit	-2185
unter	-2186
▁veh	-2187
▁effects	-2188
▁commit	-2189
▁referred	-2190
ricult	-2191
▁democ	-2192
▁cities	-2193
ania	-2194
▁lack	-2195
▁surv	-2196
▁wee	-2197
rast	-2198
▁ord	-2199
▁establish	-2200
oted	-2201
ours	-2202
▁announced	-2203
▁forest	-2204
▁earl	-2205
▁instr	-2206
14	-2207
0,000	-2208
▁environ	-2209
ica	-2210
ope	-2211
aria	-2212
▁foc	-2213
▁glob	-2214
▁nature	-2215
▁find	-2216
▁exec	-2217
▁poly	-2218
▁believed	-2219
ii	-2220
ingu	-2221
utes	-2222
▁particularly	-2223
▁emper	-2224
▁february	-2225
▁subsequ	-2226
▁allowed	-2227
▁rea	-2228
istance	-2229
ych	-2230
▁100	-2231
▁atom	-2232
▁meet	-2233
▁feature	-2234
▁agricult	-2235
lement	-2236
▁events	-2237
sen	-2238
▁190	-2239
anted	-2240
▁whose	-2241
▁berlin	-2242
▁critic	-2243
▁depart	-2244
▁served	-2245
▁source	-2246
▁diffic	-2247
▁distin	-2248
ming	-2249
▁designed	-2250
ky	-2251
▁wind	-2252
▁cost	-2253
▁words	-2254
▁symb	-2255
▁dam	-2256
▁growth	-2257
▁features	-2258
▁technology	-2259
ef	-2260
ises	-2261
▁rate	-2262
▁difficult	-2263
▁lunar	-2264
▁achie	-2265
▁champ	-2266
▁commerc	-2267
▁ess	-2268
▁size	-2269
▁private	-2270
▁therefore	-2271
▁dom	-2272
rial	-2273
▁able	-2274
▁vide	-2275
▁doc	-2276
▁moved	-2277
▁applic	-2278
▁rule	-2279
unch	-2280
▁includes	-2281
utions	-2282
clus	-2283
▁nuc	-2284
▁spir	-2285
ulated	-2286
▁islam	-2287
pir	-2288
▁dig	-2289
▁basic	-2290
▁arri	-2291
ilities	-2292
▁cho	-2293
▁might	-2294
uries	-2295
▁writing	-2296
atory	-2297
▁defin	-2298
rel	-2299
▁bos	-2300
▁brought	-2301
0%	-2302
off	-2303
▁key	-2304
▁amount	-2305
▁asia	-2306
▁fest	-2307
▁becom	-2308
▁micro	-2309
▁native	-2310
aps	-2311
▁saw	-2312
▁respons	-2313
▁stri	-2314
▁quest	-2315
▁gas	-2316
▁provided	-2317
berg	-2318
▁went	-2319
▁medic	-2320
▁aim	-2321
▁returned	-2322
▁software	-2323
▁viol	-2324
▁antib	-2325
▁cases	-2326
▁increasing	-2327
▁federal	-2328
▁constitution	-2329
▁assemb	-2330
ols	-2331
ste	-2332
▁bank	-2333
▁cast	-2334
▁founded	-2335
▁farm	-2336
▁grand	-2337
▁specific	-2338
mar	-2339
▁types	-2340
xic	-2341
pan	-2342
iding	-2343
▁parli	-2344
▁arabic	-2345
bl	-2346
▁manag	-2347
ems	-2348
▁cam	-2349
reg	-2350
▁minister	-2351
▁tal	-2352
ondon	-2353
▁bulg	-2354
▁constant	-2355
rest	-2356
▁primary	-2357
▁radio	-2358
▁techni	-2359
▁provide	-2360
▁products	-2361
▁189	-2362
▁started	-2363
▁ol	-2364
ufact	-2365
▁anth	-2366
▁appo	-2367
▁uses	-2368
nel	-2369
▁put	-2370
▁past	-2371
▁mal	-2372
▁convent	-2373
▁commonly	-2374
ributed	-2375
▁living	-2376
▁leading	-2377
fl	-2378
▁fem	-2379
▁self	-2380
je	-2381
istry	-2382
▁election	-2383
hist	-2384
▁don	-2385
based	-2386
▁front	-2387
wor	-2388
vert	-2389
▁alf	-2390
hel	-2391
▁alle	-2392
oses	-2393
▁lay	-2394
▁lib	-2395
▁birth	-2396
ental	-2397
▁remains	-2398
▁individual	-2399
uses	-2400
▁away	-2401
▁london	-2402
▁required	-2403
▁mix	-2404
▁latter	-2405
▁conditions	-2406
▁manufact	-2407
▁personal	-2408
▁iii	-2409
▁historical	-2410
▁mill	-2411
▁larger	-2412
ners	-2413
▁beginning	-2414
▁parliament	-2415
▁moon	-2416
▁prevent	-2417
▁accom	-2418
▁billion	-2419
tt	-2420
hab	-2421
otic	-2422
▁mur	-2423
▁wat	-2424
▁earlier	-2425
elling	-2426
▁division	-2427
▁mechan	-2428
▁compound	-2429
▁widely	-2430
▁leaders	-2431
▁added	-2432
▁wal	-2433
▁dial	-2434
▁increase	-2435
ola	-2436
ify	-2437
osaur	-2438
▁scholars	-2439
▁reb	-2440
▁congress	-2441
uk	-2442
▁live	-2443
▁step	-2444
▁wood	-2445
▁companies	-2446
▁hor	-2447
▁emer	-2448
ibility	-2449
▁russian	-2450
▁typically	-2451
▁mostly	-2452
▁sources	-2453
200	-2454
aff	-2455
▁outside	-2456
▁whether	-2457
▁treatment	-2458
umin	-2459
mediate	-2460
isl	-2461
▁fell	-2462
▁vill	-2463
▁cause	-2464
▁schools	-2465
omy	-2466
▁fort	-2467
▁arc	-2468
▁clear	-2469
▁eight	-2470
bai	-2471
▁187	-2472
▁daugh	-2473
▁construction	-2474
▁interpre	-2475
▁separate	-2476
ole	-2477
known	-2478
▁sain	-2479
aching	-2480
▁regions	-2481
▁towards	-2482
▁majority	-2483
west	-2484
▁dyn	-2485
inary	-2486
▁board	-2487
▁months	-2488
▁labor	-2489
▁limited	-2490
ques	-2491
▁fra	-2492
▁variety	-2493
30	-2494
▁azer	-2495
▁studies	-2496
▁pit	-2497
▁alco	-2498
baijan	-2499
lands	-2500
atives	-2501
▁reason	-2502
▁cultural	-2503
▁condu	-2504
▁caused	-2505
▁concent	-2506
▁relationship	-2507
▁fut	-2508
▁speak	-2509
▁produce	-2510
met	-2511
▁climate	-2512
▁environment	-2513
▁stated	-2514
resp	-2515
▁gun	-2516
▁squ	-2517
anded	-2518
▁unit	-2519
omb	-2520
▁highest	-2521
fe	-2522
oney	-2523
▁portug	-2524
▁emperor	-2525
arc	-2526
war	-2527
▁video	-2528
▁you	-2529
ering	-2530
ishop	-2531
▁likely	-2532
5%	-2533
ked	-2534
▁laws	-2535
▁blood	-2536
▁occup	-2537
▁fer	-2538
▁minor	-2539
ios	-2540
▁mel	-2541
▁college	-2542
▁card	-2543
▁azerbaijan	-2544
hy	-2545
▁ps	-2546
▁independent	-2547
istics	-2548
▁particip	-2549
▁action	-2550
▁commercial	-2551
ape	-2552
▁below	-2553
▁frank	-2554
▁results	-2555
selves	-2556
▁australian	-2557
▁1,	-2558
▁journ	-2559
oid	-2560
▁communic	-2561
▁physical	-2562
▁stra	-2563
▁adapt	-2564
▁liber	-2565
▁indian	-2566
ires	-2567
year	-2568
▁cele	-2569
▁greater	-2570
▁discovered	-2571
▁ris	-2572
ength	-2573
▁peace	-2574
▁prior	-2575
▁reform	-2576
▁mathemat	-2577
▁seven	-2578
▁changes	-2579
▁working	-2580
ysis	-2581
▁fish	-2582
▁recent	-2583
▁media	-2584
▁originally	-2585
uted	-2586
▁soon	-2587
▁color	-2588
▁always	-2589
▁financ	-2590
▁muslim	-2591
▁deg	-2592
▁lif	-2593
▁sett	-2594
▁spanish	-2595
▁1.	-2596
▁ben	-2597
▁dise	-2598
▁lear	-2599
▁era	-2600
▁acqu	-2601
▁revolution	-2602
,"	-2603
ode	-2604
lied	-2605
▁come	-2606
▁drug	-2607
▁arist	-2608
▁films	-2609
▁spect	-2610
▁writers	-2611
80	-2612
▁sn	-2613
▁mas	-2614
▁whom	-2615
▁extre	-2616
▁visit	-2617
ously	-2618
▁hall	-2619
▁fight	-2620
▁lines	-2621
▁killed	-2622
▁review	-2623
▁directly	-2624
uals	-2625
▁rap	-2626
▁paul	-2627
▁necess	-2628
▁mention	-2629
▁province	-2630
▁uk	-2631
▁network	-2632
▁operations	-2633
11	-2634
▁pric	-2635
ney	-2636
▁bron	-2637
▁hill	-2638
▁supported	-2639
uation	-2640
ili	-2641
onso	-2642
▁spok	-2643
▁britain	-2644
▁football	-2645
▁big	-2646
▁chief	-2647
▁element	-2648
▁sac	-2649
respond	-2650
tr	-2651
iter	-2652
▁centre	-2653
▁themselves	-2654
▁thom	-2655
▁numerous	-2656
▁|	-2657
▁letter	-2658
▁target	-2659
rative	-2660
▁regular	-2661
ores	-2662
▁alc	-2663
▁longer	-2664
▁commission	-2665
="">	-2666
▁orbit	-2667
▁defined	-2668
▁appeared	-2669
▁max	-2670
▁nar	-2671
▁chemical	-2672
▁properties	-2673
▁ash	-2674
▁wife	-2675
▁democr	-2676
▁animals	-2677
▁que	-2678
▁spirit	-2679
iles	-2680
▁conqu	-2681
▁quant	-2682
▁centuries	-2683
▁launch	-2684
▁settle	-2685
ume	-2686
umn	-2687
cour	-2688
▁too	-2689
▁van	-2690
▁plant	-2691
▁carbon	-2692
▁alternative	-2693
phas	-2694
▁jack	-2695
▁buddha	-2696
▁future	-2697
▁bene	-2698
▁prime	-2699
▁proposed	-2700
▁americans	-2701
ror	-2702
▁replaced	-2703
▁approximately	-2704
▁q	-2705
part	-2706
▁hol	-2707
▁nob	-2708
▁career	-2709
–19	-2710
anian	-2711
▁conserv	-2712
▁problems	-2713
▁correspond	-2714
den	-2715
str	-2716
▁bit	-2717
rod	-2718
▁deal	-2719
▁bird	-2720
▁david	-2721
ects	-2722
▁legisl	-2723
▁points	-2724
orge	-2725
▁ethn	-2726
▁reached	-2727
▁district	-2728
pped	-2729
▁band	-2730
▁grad	-2731
▁mart	-2732
▁nearly	-2733
▁troops	-2734
mad	-2735
pper	-2736
alled	-2737
▁canada	-2738
▁regional	-2739
▁rank	-2740
▁global	-2741
▁opt	-2742
▁policy	-2743
▁academy	-2744
25	-2745
▁bell	-2746
▁nation	-2747
po	-2748
pected	-2749
ago	-2750
▁emb	-2751
▁metal	-2752
▁destro	-2753
▁script	-2754
▁0.	-2755
▁jews	-2756
▁fle	-2757
▁ec	-2758
asion	-2759
▁purp	-2760
▁units	-2761
▁pay	-2762
igned	-2763
▁legal	-2764
▁secret	-2765
▁paris	-2766
ket	-2767
rang	-2768
▁atari	-2769
nia	-2770
iences	-2771
▁nations	-2772
ests	-2773
anced	-2774
▁alcohol	-2775
▁examples	-2776
▁(18	-2777
▁via	-2778
osing	-2779
40	-2780
▁better	-2781
▁smaller	-2782
▁probably	-2783
▁association	-2784
ee	-2785
▁stage	-2786
▁citiz	-2787
▁estimated	-2788
▁performed	-2789
ux	-2790
▁30	-2791
ready	-2792
▁involved	-2793
sour	-2794
▁oce	-2795
▁active	-2796
▁relatively	-2797
▁organization	-2798
time	-2799
▁disp	-2800
▁contem	-2801
ribution	-2802
▁philosophy	-2803
▁scientific	-2804
▁et	-2805
▁code	-2806
▁baseball	-2807
▁airport	-2808
▁continu	-2809
▁italy	-2810
▁multiple	-2811
▁practice	-2812
onse	-2813
wing	-2814
▁mac	-2815
ivity	-2816
▁literature	-2817
..	-2818
cles	-2819
isms	-2820
▁bond	-2821
▁plat	-2822
▁hop	-2823
▁1990	-2824
▁loss	-2825
▁compared	-2826
▁du	-2827
▁ven	-2828
▁25	-2829
lected	-2830
▁china	-2831
▁player	-2832
cont	-2833
▁classical	-2834
▁mig	-2835
riage	-2836
▁phot	-2837
can	-2838
aded	-2839
ched	-2840
▁inn	-2841
porary	-2842
▁speed	-2843
▁governor	-2844
▁launc	-2845
▁theat	-2846
▁placed	-2847
▁dutch	-2848
▁ly	-2849
aving	-2850
▁road	-2851
gebra	-2852
▁jewish	-2853
▁discuss	-2854
▁prec	-2855
▁henry	-2856
▁highly	-2857
▁already	-2858
ump	-2859
onic	-2860
reen	-2861
izing	-2862
▁largely	-2863
za	-2864
▁aj	-2865
▁adopted	-2866
▁distinct	-2867
▁recorded	-2868
▁experiment	-2869
▁independence	-2870
▁ae	-2871
lled	-2872
▁pra	-2873
lying	-2874
▁ever	-2875
ressed	-2876
▁medical	-2877
▁mole	-2878
▁neigh	-2879
▁charles	-2880
inese	-2881
▁students	-2882
ients	-2883
isions	-2884
▁station	-2885
rary	-2886
ference	-2887
▁daughter	-2888
itor	-2889
▁give	-2890
ression	-2891
▁consum	-2892
▁elected	-2893
ford	-2894
▁bay	-2895
▁require	-2896
▁()	-2897
using	-2898
▁characters	-2899
▁temperature	-2900
iro	-2901
ights	-2902
▁male	-2903
▁james	-2904
▁extreme	-2905
▁records	-2906
▁188	-2907
▁famous	-2908
▁george	-2909
lor	-2910
▁ut	-2911
▁191	-2912
▁diss	-2913
▁ze	-2914
eral	-2915
uls	-2916
▁21	-2917
▁anarch	-2918
▁-	-2919
▁cust	-2920
kh	-2921
▁mu	-2922
▁vot	-2923
▁arsen	-2924
▁flow	-2925
▁fres	-2926
ements	-2927
ss	-2928
▁idea	-2929
▁path	-2930
mitted	-2931
▁russia	-2932
ya	-2933
ush	-2934
▁sens	-2935
ffer	-2936
▁rome	-2937
▁summer	-2938
▁additional	-2939
▁analysis	-2940
▁industrial	-2941
▁get	-2942
▁imper	-2943
isation	-2944
▁worked	-2945
▁alexand	-2946
men	-2947
▁fif	-2948
▁hot	-2949
▁belg	-2950
▁bound	-2951
▁creat	-2952
▁border	-2953
▁divided	-2954
▁letters	-2955
▁married	-2956
▁sus	-2957
▁bapt	-2958
unicip	-2959
▁scott	-2960
▁display	-2961
aled	-2962
=2	-2963
▁asc	-2964
▁pan	-2965
▁deli	-2966
▁leader	-2967
▁tom	-2968
▁training	-2969
▁influenced	-2970
▁bill	-2971
▁secur	-2972
▁length	-2973
▁implement	-2974
▁afghanistan	-2975
▁ta	-2976
cast	-2977
▁abd	-2978
iance	-2979
▁promin	-2980
▁measure	-2981
▁surround	-2982
▁rare	-2983
▁synthe	-2984
▁performance	-2985
▁tor	-2986
▁ammon	-2987
▁conflic	-2988
oln	-2989
back	-2990
▁mis	-2991
▁financial	-2992
writ	-2993
▁arts	-2994
▁religion	-2995
▁alt	-2996
▁compon	-2997
▁strateg	-2998
▁immediate	-2999
▁yet	-3000
▁champions	-3001
▁24	-3002
▁barb	-3003
▁freed	-3004
▁belief	-3005
mod	-3006
ables	-3007
ledge	-3008
▁derived	-3009
oration	-3010
hold	-3011
ston	-3012
▁ens	-3013
▁burn	-3014
▁detail	-3015
▁mainly	-3016
▁athens	-3017
▁conver	-3018
▁response	-3019
▁ult	-3020
▁cells	-3021
▁recon	-3022
▁italian	-3023
▁professional	-3024
va	-3025
▁vo	-3026
▁cut	-3027
▁pow	-3028
▁authority	-3029
="2	-3030
amb	-3031
uit	-3032
▁ga	-3033
ithm	-3034
olved	-3035
▁1980	-3036
▁release	-3037
▁1970	-3038
▁look	-3039
incoln	-3040
▁enter	-3041
▁levels	-3042
▁claimed	-3043
▁initial	-3044
▁methods	-3045
▁louis	-3046
▁chinese	-3047
▁objects	-3048
▁sequ	-3049
▁whole	-3050
▁appears	-3051
▁destroy	-3052
▁suggested	-3053
alo	-3054
ented	-3055
▁churches	-3056
log	-3057
▁mc	-3058
lines	-3059
ferred	-3060
▁annual	-3061
▁artists	-3062
▁electric	-3063
▁cred	-3064
▁municip	-3065
▁contains	-3066
▁potential	-3067
ygen	-3068
▁shah	-3069
utive	-3070
ension	-3071
▁green	-3072
iated	-3073
▁mich	-3074
▁shown	-3075
▁enough	-3076
ging	-3077
iforn	-3078
▁poor	-3079
▁quar	-3080
▁algebra	-3081
ody	-3082
▁demon	-3083
▁lincoln	-3084
▁nit	-3085
ground	-3086
▁extra	-3087
▁noted	-3088
▁table	-3089
▁impact	-3090
▁threat	-3091
▁buildings	-3092
sis	-3093
hood	-3094
arent	-3095
stein	-3096
▁hyp	-3097
astic	-3098
itation	-3099
▁spread	-3100
▁californ	-3101
ares	-3102
▁aar	-3103
iting	-3104
▁assum	-3105
▁ocean	-3106
oper	-3107
▁nas	-3108
acter	-3109
▁dram	-3110
idents	-3111
▁activity	-3112
▁question	-3113
ias	-3114
key	-3115
anda	-3116
orph	-3117
▁true	-3118
▁institute	-3119
car	-3120
ech	-3121
▁celebr	-3122
▁represented	-3123
dam	-3124
▁our	-3125
▁expans	-3126
▁document	-3127
▁link	-3128
▁finally	-3129
▁incor	-3130
▁places	-3131
▁appointed	-3132
36	-3133
ey	-3134
wer	-3135
win	-3136
);	-3137
zo	-3138
▁basis	-3139
▁initially	-3140
...	-3141
igen	-3142
▁mos	-3143
▁1960	-3144
▁security	-3145
ils	-3146
▁ple	-3147
▁opened	-3148
cap	-3149
▁observ	-3150
▁anthrop	-3151
wise	-3152
▁psych	-3153
▁texts	-3154
▁medicine	-3155
nd	-3156
ship	-3157
change	-3158
▁create	-3159
▁completed	-3160
▁dro	-3161
▁status	-3162
▁carried	-3163
oot	-3164
ris	-3165
wide	-3166
▁reign	-3167
▁shows	-3168
▁smith	-3169
mp	-3170
heast	-3171
▁heart	-3172
▁stars	-3173
wana	-3174
▁cover	-3175
▁fourth	-3176
standing	-3177
rane	-3178
▁ded	-3179
▁love	-3180
▁rapid	-3181
▁upper	-3182
dp	-3183
▁cle	-3184
▁quick	-3185
▁cannot	-3186
▁defense	-3187
ela	-3188
▁conv	-3189
▁passed	-3190
board	-3191
▁kind	-3192
icated	-3193
sm	-3194
anch	-3195
▁bed	-3196
▁cand	-3197
▁break	-3198
▁issue	-3199
▁anglic	-3200
▁location	-3201
▁philosop	-3202
▁=	-3203
inton	-3204
▁myth	-3205
▁administration	-3206
▁ott	-3207
adian	-3208
▁thous	-3209
▁machine	-3210
▁contrast	-3211
▁director	-3212
▁investig	-3213
▁experience	-3214
▁rat	-3215
liest	-3216
▁date	-3217
▁orth	-3218
▁rain	-3219
▁formation	-3220
▁primarily	-3221
▁flu	-3222
▁deep	-3223
▁issues	-3224
▁treaty	-3225
▁california	-3226
enes	-3227
▁county	-3228
▁plants	-3229
▁notable	-3230
ga	-3231
▁pair	-3232
▁sports	-3233
▁assembly	-3234
▁confeder	-3235
▁festival	-3236
▁resistance	-3237
asons	-3238
▁prison	-3239
▁marriage	-3240
▁presence	-3241
ibly	-3242
-2	-3243
jo	-3244
ns	-3245
opp	-3246
uge	-3247
▁ark	-3248
▁done	-3249
▁virgin	-3250
▁accepted	-3251
ested	-3252
▁joined	-3253
▁needed	-3254
▁signed	-3255
ba	-3256
olk	-3257
▁chall	-3258
▁forced	-3259
▁robert	-3260
▁changed	-3261
▁connect	-3262
▁victory	-3263
▁reaction	-3264
▁compounds	-3265
▁resulting	-3266
my	-3267
alus	-3268
▁assist	-3269
▁combined	-3270
▁bad	-3271
▁pie	-3272
▁argued	-3273
▁oxygen	-3274
▁mom	-3275
▁harm	-3276
people	-3277
mark	-3278
zant	-3279
▁property	-3280
▁night	-3281
▁failed	-3282
▁launched	-3283
▁operation	-3284
icted	-3285
orial	-3286
▁keep	-3287
▁scul	-3288
▁washing	-3289
▁maintain	-3290
▁functions	-3291
arus	-3292
▁tas	-3293
amine	-3294
▁risk	-3295
▁conne	-3296
new	-3297
▁blue	-3298
▁graph	-3299
▁hours	-3300
▁makes	-3301
app	-3302
▁improve	-3303
hus	-3304
see	-3305
uda	-3306
▁mess	-3307
▁carry	-3308
▁deaths	-3309
▁hydrogen	-3310
▁japanese	-3311
ilies	-3312
▁lord	-3313
▁sense	-3314
▁israel	-3315
▁prem	-3316
▁maxim	-3317
▁spain	-3318
▁ability	-3319
▁citizens	-3320
▁earliest	-3321
ams	-3322
▁mob	-3323
▁composed	-3324
head	-3325
▁rules	-3326
▁knowledge	-3327
▁crow	-3328
▁reco	-3329
▁taking	-3330
▁valley	-3331
▁decided	-3332
sec	-3333
▁rise	-3334
▁materials	-3335
rad	-3336
▁2.	-3337
aches	-3338
elled	-3339
field	-3340
dule	-3341
osis	-3342
rone	-3343
▁iron	-3344
▁contract	-3345
▁mont	-3346
▁saint	-3347
▁supre	-3348
▁memory	-3349
▁pressure	-3350
ern	-3351
itic	-3352
tical	-3353
▁happ	-3354
▁suffer	-3355
▁monarch	-3356
▁protect	-3357
▁internal	-3358
▁identified	-3359
▁thomas	-3360
▁counter	-3361
▁observed	-3362
▁collection	-3363
▁cas	-3364
▁tim	-3365
erson	-3366
▁cart	-3367
▁scot	-3368
ply	-3369
▁184	-3370
▁pun	-3371
▁swit	-3372
▁behind	-3373
▁committe	-3374
▁distance	-3375
32	-3376
yr	-3377
▁26	-3378
▁bab	-3379
▁block	-3380
▁sculpt	-3381
izations	-3382
view	-3383
▁subs	-3384
▁weap	-3385
lection	-3386
▁reduced	-3387
ont	-3388
reng	-3389
▁gar	-3390
▁sexual	-3391
▁intended	-3392
▁previously	-3393
ij	-3394
▁alas	-3395
undred	-3396
▁decre	-3397
▁exhib	-3398
osaurus	-3399
▁here	-3400
▁urban	-3401
▁musical	-3402
▁becoming	-3403
▁defeated	-3404
▁ak	-3405
▁lived	-3406
▁compos	-3407
fficient	-3408
▁astronaut	-3409
▁department	-3410
no	-3411
▁amaz	-3412
▁hosp	-3413
▁richard	-3414
▁washington	-3415
onia	-3416
▁ibn	-3417
▁teams	-3418
▁armenia	-3419
▁agreement	-3420
book	-3421
▁cod	-3422
mir	-3423
uese	-3424
▁chap	-3425
▁diam	-3426
▁hung	-3427
▁navy	-3428
▁arrang	-3429
▁compar	-3430
▁consequ	-3431
do	-3432
which	-3433
▁behav	-3434
▁varian	-3435
ael	-3436
▁aqu	-3437
▁cry	-3438
▁magaz	-3439
cks	-3440
▁poet	-3441
▁calcul	-3442
▁matter	-3443
▁values	-3444
▁pattern	-3445
▁expansion	-3446
37	-3447
▁flo	-3448
▁rob	-3449
▁peter	-3450
ulations	-3451
▁johnson	-3452
▁imperial	-3453
▁pil	-3454
aging	-3455
▁share	-3456
▁corpor	-3457
▁definition	-3458
lit	-3459
▁ham	-3460
▁week	-3461
vey	-3462
▁..	-3463
▁archae	-3464
▁ethnic	-3465
▁friends	-3466
che	-3467
ona	-3468
▁beg	-3469
ellig	-3470
▁brain	-3471
▁faith	-3472
▁resour	-3473
▁hundred	-3474
▁techniques	-3475
▁az	-3476
▁ion	-3477
ensus	-3478
▁acids	-3479
▁winter	-3480
dra	-3481
▁bol	-3482
▁dan	-3483
▁algor	-3484
▁money	-3485
▁bosnia	-3486
bi	-3487
▁ah	-3488
▁soldiers	-3489
bed	-3490
band	-3491
imin	-3492
ceeded	-3493
▁arbit	-3494
▁advert	-3495
▁kh	-3496
ault	-3497
dess	-3498
▁coup	-3499
▁inhab	-3500
▁architecture	-3501
▁contemporary	-3502
";	-3503
▁2000	-3504
▁vary	-3505
▁corre	-3506
▁ideas	-3507
▁turned	-3508
▁mountain	-3509
erve	-3510
▁cup	-3511
▁double	-3512
▁individuals	-3513
wood	-3514
▁carri	-3515
▁degree	-3516
▁streng	-3517
▁conclud	-3518
▁offered	-3519
▁activities	-3520
ift	-3521
rine	-3522
▁bah	-3523
▁byzant	-3524
▁applied	-3525
▁possess	-3526
▁atlantic	-3527
▁bulgaria	-3528
39	-3529
da	-3530
enc	-3531
▁friend	-3532
▁sector	-3533
▁responsible	-3534
▁iv	-3535
with	-3536
▁cab	-3537
▁remo	-3538
▁bishop	-3539
▁phen	-3540
▁autom	-3541
▁older	-3542
▁unlike	-3543
▁address	-3544
▁decision	-3545
▁programs	-3546
agn	-3547
ida	-3548
alle	-3549
▁screen	-3550
▁paper	-3551
otswana	-3552
▁speech	-3553
▁section	-3554
▁effective	-3555
eles	-3556
rents	-3557
▁dead	-3558
▁slow	-3559
▁brand	-3560
▁ended	-3561
▁franc	-3562
▁spent	-3563
▁dynast	-3564
▁apparent	-3565
▁colonies	-3566
▁respectively	-3567
igu	-3568
och	-3569
ieval	-3570
▁nine	-3571
▁heavy	-3572
▁instrument	-3573
gn	-3574
ext	-3575
▁anat	-3576
▁woman	-3577
▁humans	-3578
▁consists	-3579
▁provides	-3580
▁bak	-3581
▁uns	-3582
tered	-3583
▁bri	-3584
▁rot	-3585
▁pack	-3586
▁weight	-3587
▁atlanta	-3588
▁declared	-3589
comm	-3590
▁185	-3591
▁vow	-3592
where	-3593
▁animal	-3594
▁charge	-3595
most	-3596
▁armed	-3597
▁sites	-3598
▁depend	-3599
▁disease	-3600
▁direction	-3601
iga	-3602
olf	-3603
▁cru	-3604
acity	-3605
▁weak	-3606
▁theore	-3607
▁ful	-3608
▁hunt	-3609
iments	-3610
▁catal	-3611
▁staff	-3612
sterdam	-3613
▁symbol	-3614
▁landing	-3615
eter	-3616
▁react	-3617
▁figures	-3618
over	-3619
▁atoms	-3620
▁theatre	-3621
90	-3622
▁face	-3623
▁families	-3624
▁controvers	-3625
▁communities	-3626
▁ali	-3627
▁shar	-3628
▁wars	-3629
▁stone	-3630
▁goddess	-3631
▁advanced	-3632
▁astronom	-3633
▁incorpor	-3634
▁remaining	-3635
▁alexandria	-3636
70	-3637
▁bey	-3638
▁fel	-3639
▁benef	-3640
▁currently	-3641
▁historian	-3642
▁favor	-3643
▁vehicle	-3644
dr	-3645
▁40	-3646
cons	-3647
▁alpha	-3648
▁aristot	-3649
▁botswana	-3650
▁portuguese	-3651
▁applications	-3652
60	-3653
▁hab	-3654
▁fair	-3655
▁ship	-3656
akh	-3657
▁songs	-3658
▁bridge	-3659
▁resulted	-3660
▁wil	-3661
light	-3662
▁claims	-3663
▁models	-3664
▁prince	-3665
▁abu	-3666
▁mir	-3667
rical	-3668
ructed	-3669
▁protest	-3670
▁prominent	-3671
▁fal	-3672
omm	-3673
odox	-3674
▁reve	-3675
▁queen	-3676
▁mountains	-3677
▁foundation	-3678
]]	-3679
enna	-3680
imal	-3681
▁allowing	-3682
35	-3683
▁turk	-3684
▁apost	-3685
▁temple	-3686
▁belarus	-3687
▁condition	-3688
aph	-3689
▁50	-3690
enth	-3691
▁ram	-3692
imens	-3693
▁neut	-3694
▁crown	-3695
▁mexic	-3696
▁plays	-3697
▁alaska	-3698
▁islamic	-3699
era	-3700
ipl	-3701
ansas	-3702
▁mars	-3703
▁supreme	-3704
▁broadcast	-3705
▁subsequently	-3706
eda	-3707
orders	-3708
▁female	-3709
▁formal	-3710
▁street	-3711
▁descript	-3712
▁amsterdam	-3713
▁agriculture	-3714
3"	-3715
ls	-3716
▁rand	-3717
▁honor	-3718
▁negative	-3719
▁mentioned	-3720
vi	-3721
his	-3722
▁alab	-3723
▁reject	-3724
▁signal	-3725
▁entered	-3726
▁occurred	-3727
▁wild	-3728
▁bring	-3729
▁round	-3730
▁candid	-3731
▁exchange	-3732
more	-3733
▁pac	-3734
▁match	-3735
▁simple	-3736
▁extended	-3737
▁existence	-3738
pa	-3739
din	-3740
nes	-3741
cell	-3742
olit	-3743
ooth	-3744
ouse	-3745
amaic	-3746
▁assy	-3747
▁approach	-3748
▁territories	-3749
-19	-3750
asc	-3751
ble	-3752
▁belong	-3753
estic	-3754
ville	-3755
▁doct	-3756
▁confir	-3757
▁emphas	-3758
▁greece	-3759
▁clinton	-3760
rog	-3761
spe	-3762
mission	-3763
▁whereas	-3764
tery	-3765
▁alumin	-3766
▁beyond	-3767
▁augustine	-3768
▁contribut	-3769
▁administrative	-3770
rd	-3771
▁...	-3772
▁birds	-3773
▁analog	-3774
▁collect	-3775
▁appearance	-3776
▁contact	-3777
▁journal	-3778
▁interpret	-3779
edy	-3780
oria	-3781
▁aer	-3782
▁cra	-3783
▁cave	-3784
▁austin	-3785
▁intellig	-3786
abor	-3787
iled	-3788
▁image	-3789
▁affair	-3790
▁egyptian	-3791
bc	-3792
sa	-3793
▁jose	-3794
▁equal	-3795
▁murder	-3796
▁positive	-3797
▁progress	-3798
1"	-3799
▁aclu	-3800
▁achieve	-3801
▁ottoman	-3802
▁anglican	-3803
▁opposition	-3804
col	-3805
outh	-3806
▁177	-3807
▁jer	-3808
▁intel	-3809
▁think	-3810
▁alberta	-3811
▁comment	-3812
▁medieval	-3813
▁transform	-3814
abul	-3815
▁atm	-3816
▁pict	-3817
▁rang	-3818
▁stock	-3819
▁giving	-3820
▁spears	-3821
▁ari	-3822
▁pap	-3823
▁efforts	-3824
▁reflect	-3825
▁starting	-3826
▁structures	-3827
34	-3828
iff	-3829
▁enc	-3830
▁kar	-3831
▁lake	-3832
▁prep	-3833
▁motor	-3834
▁committee	-3835
▁2,	-3836
▁bow	-3837
▁virt	-3838
▁antibi	-3839
▁refers	-3840
▁simply	-3841
▁spoken	-3842
▁attacks	-3843
▁quickly	-3844
▁championship	-3845
comp	-3846
▁alphab	-3847
38	-3848
icit	-3849
▁nucle	-3850
▁alfred	-3851
▁allows	-3852
▁export	-3853
▁powers	-3854
▁greatest	-3855
▁necessary	-3856
ita	-3857
anth	-3858
life	-3859
▁fix	-3860
▁mah	-3861
▁analy	-3862
▁equip	-3863
▁month	-3864
▁square	-3865
▁operating	-3866
▁ire	-3867
ensity	-3868
▁geomet	-3869
▁orthodox	-3870
▁regarded	-3871
emis	-3872
▁purch	-3873
▁agreed	-3874
▁library	-3875
▁elections	-3876
▁containing	-3877
▁settlement	-3878
▁amp	-3879
▁exc	-3880
itable	-3881
▁abort	-3882
▁marked	-3883
▁equival	-3884
▁opposed	-3885
▁computers	-3886
▁gal	-3887
▁police	-3888
▁overall	-3889
▁refused	-3890
▁presented	-3891
▁custom	-3892
▁moment	-3893
▁specif	-3894
▁parties	-3895
▁democratic	-3896
▁protection	-3897
▁immediately	-3898
ds	-3899
▁22	-3900
▁wit	-3901
▁told	-3902
▁asked	-3903
ception	-3904
▁dynasty	-3905
anks	-3906
▁sla	-3907
illed	-3908
▁clos	-3909
▁aspect	-3910
▁freedom	-3911
▁management	-3912
gt	-3913
iph	-3914
rich	-3915
▁acts	-3916
▁brief	-3917
▁oldest	-3918
brew	-3919
quar	-3920
inity	-3921
▁repe	-3922
rose	-3923
▁oly	-3924
otics	-3925
▁folk	-3926
▁gram	-3927
▁immig	-3928
▁figure	-3929
▁module	-3930
▁jackson	-3931
▁versions	-3932
▁frequently	-3933
▁bce	-3934
inces	-3935
ternal	-3936
▁aspir	-3937
▁sport	-3938
▁devices	-3939
▁ordered	-3940
▁serious	-3941
▁distingu	-3942
sk	-3943
ogen	-3944
usion	-3945
▁2020	-3946
▁hero	-3947
▁ancest	-3948
▁awards	-3949
▁palace	-3950
▁officially	-3951
.)	-3952
ugg	-3953
▁fat	-3954
▁inj	-3955
▁voc	-3956
pired	-3957
▁swed	-3958
▁integr	-3959
▁leaving	-3960
▁ages	-3961
▁tend	-3962
▁authors	-3963
▁vehicles	-3964
isf	-3965
▁3.	-3966
adesh	-3967
▁antim	-3968
▁patri	-3969
▁atomic	-3970
▁decades	-3971
▁actually	-3972
▁exact	-3973
raction	-3974
▁columb	-3975
▁slight	-3976
▁spacecraft	-3977
▁subsequent	-3978
9"	-3979
gon	-3980
olute	-3981
▁choice	-3982
▁convention	-3983
oh	-3984
▁ic	-3985
olis	-3986
▁ans	-3987
▁chann	-3988
▁fully	-3989
▁wealth	-3990
▁equipment	-3991
2"	-3992
▁[[	-3993
▁2010	-3994
ussels	-3995
▁astro	-3996
▁blues	-3997
▁olymp	-3998
▁twent	-3999
▁bacter	-4000
▁showed	-4001
ini	-4002
non	-4003
▁178	-4004
▁1950	-4005
▁poll	-4006
▁takes	-4007
▁reference	-4008
mat	-4009
ream	-4010
onian	-4011
▁pron	-4012
▁growing	-4013
▁continue	-4014
▁critical	-4015
▁commander	-4016
▁expressed	-4017
ān	-4018
▁anx	-4019
▁aph	-4020
▁nasa	-4021
▁chron	-4022
▁reven	-4023
▁scientists	-4024
▁institutions	-4025
▁course	-4026
▁digital	-4027
▁nuclear	-4028
▁distribution	-4029
uck	-4030
▁vel	-4031
ivers	-4032
othes	-4033
water	-4034
▁holy	-4035
▁helped	-4036
ding	-4037
▁mut	-4038
force	-4039
▁apart	-4040
▁glass	-4041
▁inside	-4042
▁unique	-4043
ographic	-4044
▁purpose	-4045
▁creation	-4046
▁importance	-4047
▁28	-4048
▁sand	-4049
▁things	-4050
▁aristotle	-4051
gu	-4052
itz	-4053
▁aw	-4054
haps	-4055
izes	-4056
▁dark	-4057
▁mind	-4058
▁pope	-4059
▁encour	-4060
▁master	-4061
▁instruments	-4062
lt	-4063
▁lands	-4064
▁occurs	-4065
▁magazine	-4066
ila	-4067
▁nic	-4068
ortun	-4069
antage	-4070
▁bible	-4071
▁meant	-4072
▁motion	-4073
▁artemis	-4074
▁agricultural	-4075
ken	-4076
▁sets	-4077
▁ways	-4078
▁effic	-4079
▁paint	-4080
▁plate	-4081
▁metals	-4082
▁expected	-4083
▁jur	-4084
iform	-4085
▁device	-4086
▁michael	-4087
▁scotland	-4088
eds	-4089
well	-4090
order	-4091
▁enem	-4092
▁aramaic	-4093
▁airlines	-4094
▁brussels	-4095
▁spiritual	-4096
▁differences	-4097
▁significantly	-4098
oe	-4099
gal	-4100
inus	-4101
▁kings	-4102
▁branch	-4103
▁magnitude	-4104
agon	-4105
▁meeting	-4106
▁accompan	-4107
oured	-4108
▁stay	-4109
alities	-4110
▁arrived	-4111
▁politics	-4112
▁connected	-4113
▁resources	-4114
▁combination	-4115
oral	-4116
ately	-4117
▁follows	-4118
▁recognized	-4119
di	-4120
▁nin	-4121
▁wave	-4122
▁income	-4123
▁conflict	-4124
▁bang	-4125
▁newsp	-4126
uscript	-4127
▁article	-4128
▁planned	-4129
mal	-4130
such	-4131
▁mary	-4132
▁ships	-4133
▁closed	-4134
▁directed	-4135
▁hospital	-4136
▁principle	-4137
inu	-4138
oka	-4139
▁adj	-4140
▁stad	-4141
▁aberde	-4142
▁playing	-4143
▁writings	-4144
▁grew	-4145
▁heat	-4146
entially	-4147
▁closely	-4148
▁unknown	-4149
▁expanded	-4150
▁wa	-4151
rate	-4152
▁lad	-4153
ching	-4154
▁evolution	-4155
▁0	-4156
▁mand	-4157
▁news	-4158
▁adult	-4159
▁georg	-4160
▁prize	-4161
▁rough	-4162
▁solar	-4163
akistan	-4164
▁railway	-4165
3%	-4166
4"	-4167
bu	-4168
what	-4169
▁comes	-4170
▁believe	-4171
▁village	-4172
▁completely	-4173
7%	-4174
ees	-4175
nam	-4176
▁os	-4177
chest	-4178
▁frag	-4179
▁moving	-4180
▁content	-4181
▁factors	-4182
▁removed	-4183
▁powerful	-4184
bre	-4185
▁(),	-4186
rants	-4187
▁seat	-4188
▁vote	-4189
▁joint	-4190
▁price	-4191
▁andrew	-4192
▁toward	-4193
▁awarded	-4194
▁instance	-4195
▁recently	-4196
▁solution	-4197
▁attempted	-4198
▁bon	-4199
▁lic	-4200
▁sav	-4201
▁tun	-4202
▁bomb	-4203
▁seem	-4204
▁gives	-4205
▁weeks	-4206
▁severe	-4207
▁quality	-4208
▁armenian	-4209
▁aluminium	-4210
▁manuscript	-4211
yll	-4212
▁182	-4213
▁dur	-4214
▁says	-4215
rodite	-4216
▁workers	-4217
6"	-4218
▁ice	-4219
claim	-4220
▁reach	-4221
▁track	-4222
▁gained	-4223
▁sought	-4224
▁determined	-4225
alt	-4226
bar	-4227
neg	-4228
uer	-4229
▁rac	-4230
ulate	-4231
▁abst	-4232
▁caes	-4233
▁steel	-4234
▁standards	-4235
▁axi	-4236
▁mov	-4237
rison	-4238
illery	-4239
▁write	-4240
▁joseph	-4241
▁recomm	-4242
▁wanted	-4243
▁winning	-4244
lar	-4245
set	-4246
|19	-4247
▁lm	-4248
encies	-4249
▁alger	-4250
▁notes	-4251
▁astero	-4252
▁stories	-4253
▁featured	-4254
▁difference	-4255
gov	-4256
▁capp	-4257
▁impl	-4258
▁+	-4259
thing	-4260
▁minutes	-4261
▁attention	-4262
▁astronauts	-4263
ti	-4264
ras	-4265
ordin	-4266
uated	-4267
▁ireland	-4268
▁byzantine	-4269
▁traditions	-4270
1%	-4271
oty	-4272
oned	-4273
road	-4274
usal	-4275
ician	-4276
▁coal	-4277
▁accur	-4278
rations	-4279
▁inspired	-4280
▁executive	-4281
9%	-4282
_2	-4283
▁anne	-4284
▁cars	-4285
▁ring	-4286
8"	-4287
anes	-4288
▁jes	-4289
ograp	-4290
▁cycl	-4291
▁race	-4292
▁tried	-4293
cluding	-4294
▁absolute	-4295
▁captured	-4296
▁suggests	-4297
acc	-4298
awa	-4299
ipped	-4300
▁exped	-4301
▁writer	-4302
unct	-4303
ani	-4304
urs	-4305
▁hus	-4306
▁sir	-4307
▁revol	-4308
▁studied	-4309
▁positions	-4310
65	-4311
▁ace	-4312
▁dog	-4313
▁sar	-4314
▁anch	-4315
▁drive	-4316
▁causes	-4317
▁tribes	-4318
▁convers	-4319
▁persian	-4320
▁researc	-4321
▁gard	-4322
▁ther	-4323
▁drink	-4324
▁focus	-4325
▁sales	-4326
▁martin	-4327
▁notably	-4328
cop	-4329
indu	-4330
▁lin	-4331
▁wid	-4332
▁kept	-4333
▁pure	-4334
▁atmosp	-4335
▁dedicated	-4336
▁depending	-4337
bury	-4338
▁bronx	-4339
▁hebrew	-4340
▁paralle	-4341
▁succession	-4342
uns	-4343
fect	-4344
▁cos	-4345
▁mad	-4346
▁saf	-4347
raeli	-4348
▁ones	-4349
▁peak	-4350
▁tank	-4351
hammad	-4352
▁defence	-4353
▁fighting	-4354
7"	-4355
ella	-4356
▁berm	-4357
▁mort	-4358
elaide	-4359
▁nomin	-4360
▁views	-4361
igenous	-4362
▁census	-4363
▁reduce	-4364
▁saying	-4365
▁proport	-4366
▁opportun	-4367
▁worldwide	-4368
tes	-4369
amin	-4370
cock	-4371
ctic	-4372
zegov	-4373
▁draw	-4374
▁gall	-4375
▁frame	-4376
▁lingu	-4377
▁defend	-4378
▁fields	-4379
▁normal	-4380
▁spring	-4381
▁perhaps	-4382
▁typical	-4383
▁possibly	-4384
▁(2	-4385
▁mes	-4386
▁dipl	-4387
▁gain	-4388
▁sons	-4389
▁hands	-4390
▁maced	-4391
instein	-4392
▁domestic	-4393
▁specifically	-4394
ube	-4395
greg	-4396
onym	-4397
teen	-4398
▁cold	-4399
▁rein	-4400
▁tree	-4401
▁scale	-4402
mas	-4403
▁oxid	-4404
▁tenn	-4405
▁proced	-4406
▁raised	-4407
▁influential	-4408
▁ale	-4409
▁swe	-4410
pping	-4411
▁corn	-4412
▁amiga	-4413
▁proved	-4414
zegovina	-4415
▁running	-4416
▁colonial	-4417
▁describe	-4418
▁pakistan	-4419
▁sciences	-4420
1)	-4421
4%	-4422
miss	-4423
anger	-4424
▁grant	-4425
▁ruled	-4426
▁texas	-4427
▁ammonia	-4428
▁od	-4429
iders	-4430
▁serve	-4431
▁shell	-4432
▁alabama	-4433
▁receive	-4434
▁secondary	-4435
▁traditionally	-4436
2%	-4437
aq	-4438
ora	-4439
pres	-4440
▁avoid	-4441
▁integ	-4442
▁phase	-4443
▁artist	-4444
▁bodies	-4445
omp	-4446
lers	-4447
▁183	-4448
uther	-4449
▁aband	-4450
▁inhib	-4451
▁athena	-4452
▁cp	-4453
▁arth	-4454
ranean	-4455
▁chain	-4456
6%	-4457
hr	-4458
▁bes	-4459
▁mit	-4460
▁sant	-4461
▁thir	-4462
▁2009,	-4463
▁defeat	-4464
▁inhabit	-4465
▁arkansas	-4466
▁capacity	-4467
▁historically	-4468
yah	-4469
hman	-4470
rupt	-4471
▁audi	-4472
▁hell	-4473
▁mouth	-4474
▁adelaide	-4475
▁literary	-4476
▁leadership	-4477
▁increasingly	-4478
ancy	-4479
▁ath	-4480
▁jul	-4481
stone	-4482
▁agent	-4483
▁issued	-4484
▁rivers	-4485
▁covered	-4486
▁student	-4487
inian	-4488
▁liqu	-4489
▁births	-4490
▁colony	-4491
▁sister	-4492
▁supply	-4493
▁throne	-4494
▁advance	-4495
▁shortly	-4496
▁destroyed	-4497
▁indigenous	-4498
gom	-4499
fall	-4500
isters	-4501
racted	-4502
▁brown	-4503
▁slaves	-4504
▁belgium	-4505
▁aphrodite	-4506
▁extensive	-4507
las	-4508
▁27	-4509
▁gdp	-4510
cules	-4511
right	-4512
▁2011,	-4513
▁golden	-4514
▁volume	-4515
▁visited	-4516
▁herzegovina	-4517
▁ba	-4518
▁sel	-4519
▁2017,	-4520
▁alleg	-4521
▁compr	-4522
▁print	-4523
▁experi	-4524
▁challen	-4525
▁albanian	-4526
▁relation	-4527
▁interview	-4528
▁temperatures	-4529
uet	-4530
▁tv	-4531
▁fit	-4532
orter	-4533
▁indu	-4534
▁note	-4535
▁combat	-4536
▁planet	-4537
▁conducted	-4538
▁christianity	-4539
▁orb	-4540
▁isol	-4541
▁room	-4542
▁2019,	-4543
▁absor	-4544
▁mixed	-4545
▁towns	-4546
▁assass	-4547
▁effort	-4548
▁perman	-4549
▁missile	-4550
▁settled	-4551
▁alphabet	-4552
▁franklin	-4553
▁headquar	-4554
▁obtained	-4555
ker	-4556
char	-4557
▁180	-4558
▁runs	-4559
▁2018,	-4560
▁infant	-4561
▁electrons	-4562
agan	-4563
▁alone	-4564
▁respond	-4565
iterranean	-4566
▁historians	-4567
▁popularity	-4568
▁mathematical	-4569
su	-4570
cher	-4571
▁fuel	-4572
▁khan	-4573
▁semi	-4574
▁tell	-4575
▁silver	-4576
▁anxiety	-4577
▁reports	-4578
▁inscript	-4579
▁similarly	-4580
▁developing	-4581
▁etc	-4582
organ	-4583
▁fast	-4584
▁loyal	-4585
▁shape	-4586
▁ashoka	-4587
▁orders	-4588
▁output	-4589
▁actions	-4590
▁discovery	-4591
▁mathematics	-4592
▁dry	-4593
itors	-4594
▁duke	-4595
▁advoc	-4596
▁fifth	-4597
▁solid	-4598
▁exclus	-4599
▁nether	-4600
▁senate	-4601
▁shared	-4602
▁justice	-4603
▁aberdeen	-4604
▁projects	-4605
ki	-4606
▁km	-4607
rence	-4608
▁boron	-4609
▁cerem	-4610
▁quarter	-4611
▁artillery	-4612
▁environmental	-4613
rie	-4614
from	-4615
tion	-4616
▁achill	-4617
▁useful	-4618
▁slavery	-4619
▁regarding	-4620
▁something	-4621
▁succeeded	-4622
▁aal	-4623
▁ign	-4624
▁lie	-4625
▁1930	-4626
▁brune	-4627
▁plans	-4628
▁advent	-4629
▁assault	-4630
▁surrounding	-4631
("	-4632
▁)	-4633
joy	-4634
▁nap	-4635
▁feed	-4636
▁yield	-4637
▁stable	-4638
▁therap	-4639
▁situation	-4640
cts	-4641
ffalo	-4642
▁chic	-4643
▁epis	-4644
▁merc	-4645
▁pray	-4646
▁auton	-4647
▁chart	-4648
▁cooper	-4649
▁descent	-4650
▁southeast	-4651
▁christians	-4652
vo	-4653
yes	-4654
aeus	-4655
▁amph	-4656
icians	-4657
▁prepar	-4658
▁austria	-4659
▁context	-4660
cs	-4661
gg	-4662
ja	-4663
aling	-4664
▁route	-4665
▁amazon	-4666
▁opening	-4667
▁entirely	-4668
▁substant	-4669
▁transfer	-4670
▁composition	-4671
▁netherlands	-4672
▁organizations	-4673
▁understanding	-4674
▁23	-4675
▁cham	-4676
▁felt	-4677
▁sult	-4678
▁daily	-4679
▁promot	-4680
▁fiction	-4681
▁alliance	-4682
▁background	-4683
▁components	-4684
-1	-4685
ür	-4686
now	-4687
▁(20	-4688
▁ajax	-4689
▁2020,	-4690
▁beaut	-4691
▁limit	-4692
▁molec	-4693
▁users	-4694
▁diplom	-4695
▁labour	-4696
▁survey	-4697
▁einstein	-4698
▁slightly	-4699
▁converted	-4700
rec	-4701
osen	-4702
▁easily	-4703
▁taught	-4704
▁disraeli	-4705
▁competition	-4706
8%	-4707
▁naz	-4708
▁sty	-4709
ladesh	-4710
▁trees	-4711
▁nearby	-4712
▁replace	-4713
▁mediterranean	-4714
iant	-4715
▁bib	-4716
▁luc	-4717
▁paid	-4718
▁negot	-4719
▁detect	-4720
▁owners	-4721
▁advantage	-4722
hi	-4723
illa	-4724
oles	-4725
▁1920	-4726
▁foss	-4727
▁poem	-4728
ection	-4729
▁2012,	-4730
▁split	-4731
entions	-4732
▁arrest	-4733
▁houses	-4734
▁canadian	-4735
▁phenomen	-4736
▁universe	-4737
▁describes	-4738
▁providing	-4739
500	-4740
oon	-4741
lies	-4742
▁teac	-4743
action	-4744
gomery	-4745
▁mobile	-4746
▁causing	-4747
▁attempts	-4748
▁rub	-4749
▁innov	-4750
▁rates	-4751
▁tourism	-4752
▁buddhist	-4753
▁ministry	-4754
racy	-4755
▁gir	-4756
acing	-4757
▁cuis	-4758
▁buddh	-4759
▁herit	-4760
▁leave	-4761
▁newly	-4762
▁cancer	-4763
▁andalus	-4764
▁creating	-4765
▁neighbor	-4766
▁practices	-4767
▁producing	-4768
▁description	-4769
don	-4770
brit	-4771
ione	-4772
▁got	-4773
phone	-4774
▁else	-4775
▁peop	-4776
▁jesus	-4777
▁becomes	-4778
▁critics	-4779
▁granted	-4780
▁reasons	-4781
▁hypothes	-4782
▁aid	-4783
▁(200	-4784
▁2007	-4785
▁bind	-4786
▁2010,	-4787
▁2021,	-4788
▁fixed	-4789
▁rival	-4790
▁linear	-4791
▁achieved	-4792
▁sequence	-4793
▁controlled	-4794
▁generation	-4795
zy	-4796
ilit	-4797
orage	-4798
ictions	-4799
▁conson	-4800
▁albania	-4801
▁failure	-4802
▁equivalent	-4803
▁continental	-4804
▁rh	-4805
umen	-4806
works	-4807
▁courts	-4808
▁turkey	-4809
▁acquired	-4810
▁columbia	-4811
▁partners	-4812
rum	-4813
▁bag	-4814
▁skin	-4815
▁asian	-4816
▁branc	-4817
▁dance	-4818
▁drugs	-4819
▁polar	-4820
▁illust	-4821
▁termin	-4822
▁heritage	-4823
▁rejected	-4824
▁montgomery	-4825
▁ultimately	-4826
qa	-4827
asi	-4828
iox	-4829
born	-4830
seud	-4831
soft	-4832
inite	-4833
pread	-4834
▁user	-4835
ifying	-4836
▁arian	-4837
▁simpl	-4838
▁legacy	-4839
▁visual	-4840
▁stadium	-4841
▁dialects	-4842
▁provinces	-4843
▁bangladesh	-4844
▁conference	-4845
▁statistics	-4846
▁application	-4847
aper	-4848
trans	-4849
▁core	-4850
▁penn	-4851
ologies	-4852
▁discip	-4853
▁edition	-4854
▁peoples	-4855
▁reconst	-4856
▁contained	-4857
▁inhabitants	-4858
',	-4859
bro	-4860
lav	-4861
yan	-4862
▁sod	-4863
inter	-4864
▁zone	-4865
▁seems	-4866
istered	-4867
▁concluded	-4868
sch	-4869
ills	-4870
▁aol	-4871
▁gods	-4872
▁amino	-4873
▁cryst	-4874
▁usage	-4875
▁occasion	-4876
▁fundament	-4877
▁statement	-4878
75	-4879
|20	-4880
iber	-4881
warz	-4882
▁amd	-4883
ening	-4884
▁2011	-4885
▁ainu	-4886
▁moral	-4887
▁weapons	-4888
▁particles	-4889
▁sufficient	-4890
▁publication	-4891
rid	-4892
yst	-4893
iring	-4894
▁bott	-4895
▁plus	-4896
▁fleet	-4897
▁guard	-4898
▁heavily	-4899
▁hardware	-4900
▁platform	-4901
▁technique	-4902
▁engineering	-4903
iced	-4904
▁arms	-4905
▁cris	-4906
▁feel	-4907
▁goal	-4908
▁2008,	-4909
▁2014,	-4910
▁naval	-4911
▁slave	-4912
▁brunei	-4913
▁demand	-4914
▁uniform	-4915
▁universal	-4916
ois	-4917
▁gh	-4918
heim	-4919
eness	-4920
▁2016,	-4921
▁enjoy	-4922
▁wides	-4923
▁listed	-4924
▁reprodu	-4925
▁astrolog	-4926
▁employed	-4927
▁chemistry	-4928
▁experiments	-4929
▁ori	-4930
▁sle	-4931
▁2009	-4932
▁fine	-4933
utation	-4934
▁damage	-4935
▁mexico	-4936
▁propos	-4937
▁pacific	-4938
▁austrian	-4939
▁essential	-4940
uz	-4941
ala	-4942
▁cel	-4943
▁cool	-4944
▁chosen	-4945
▁existing	-4946
▁internet	-4947
▁strength	-4948
▁teaching	-4949
▁intellect	-4950
▁organized	-4951
▁principal	-4952
▁connection	-4953
▁widespread	-4954
ny	-4955
equ	-4956
leg	-4957
▁py	-4958
amic	-4959
odes	-4960
udes	-4961
▁sed	-4962
▁obser	-4963
▁external	-4964
▁thousands	-4965
▁constructed	-4966
ado	-4967
press	-4968
▁stop	-4969
▁veget	-4970
▁voice	-4971
▁liberal	-4972
▁personnel	-4973
▁facilities	-4974
▁transportation	-4975
85	-4976
▁brom	-4977
▁conc	-4978
▁sultan	-4979
▁electro	-4980
▁augustus	-4981
▁residents	-4982
▁technical	-4983
oring	-4984
▁attend	-4985
▁medium	-4986
▁ranked	-4987
▁500	-4988
▁beng	-4989
▁cook	-4990
▁lith	-4991
▁snow	-4992
▁vast	-4993
▁anton	-4994
▁cabin	-4995
▁neuro	-4996
▁trial	-4997
ologists	-4998
▁correct	-4999
▁historic	-5000
▁improved	-5001
▁invasion	-5002
▁intelligence	-5003
gro	-5004
▁seats	-5005
▁bright	-5006
▁bermuda	-5007
▁affected	-5008
▁behavior	-5009
▁muhammad	-5010
▁advertising	-5011
47	-5012
ture	-5013
state	-5014
▁guit	-5015
▁descend	-5016
ati	-5017
eed	-5018
know	-5019
house	-5020
▁zero	-5021
ceived	-5022
▁2006,	-5023
▁edward	-5024
▁portion	-5025
▁reading	-5026
▁schwarz	-5027
▁scottish	-5028
▁extremely	-5029
rac	-5030
▁4.	-5031
stood	-5032
▁2008	-5033
ructure	-5034
▁string	-5035
▁warhol	-5036
▁dialect	-5037
▁setting	-5038
▁controll	-5039
▁monaster	-5040
▁transition	-5041
▁ped	-5042
rogen	-5043
▁2006	-5044
▁pros	-5045
▁carib	-5046
▁demonst	-5047
▁francis	-5048
▁missions	-5049
▁processes	-5050
▁attributed	-5051
▁programming	-5052
▁concentration	-5053
▁bav	-5054
aland	-5055
▁safe	-5056
▁shot	-5057
called	-5058
mology	-5059
▁2007,	-5060
▁minim	-5061
▁quite	-5062
▁arsenic	-5063
▁accounts	-5064
bb	-5065
▁flat	-5066
▁phon	-5067
▁chair	-5068
▁schem	-5069
▁affairs	-5070
▁successor	-5071
▁consisting	-5072
▁manufactur	-5073
▁abc	-5074
▁box	-5075
▁los	-5076
isted	-5077
▁canon	-5078
▁ideal	-5079
▁conduct	-5080
▁diamond	-5081
▁speakers	-5082
▁algebraic	-5083
▁algorithm	-5084
▁additionally	-5085
oly	-5086
▁pas	-5087
▁walls	-5088
▁twenty	-5089
▁alleged	-5090
▁explain	-5091
▁exception	-5092
▁;	-5093
ett	-5094
elve	-5095
play	-5096
ropri	-5097
▁2014	-5098
▁burk	-5099
▁horse	-5100
theless	-5101
▁alkali	-5102
▁disput	-5103
▁online	-5104
▁stress	-5105
inations	-5106
▁parents	-5107
▁articles	-5108
▁selected	-5109
▁stations	-5110
▁experienced	-5111
▁introduction	-5112
▁philosophers	-5113
bean	-5114
gger	-5115
▁die	-5116
raham	-5117
▁mode	-5118
▁viet	-5119
contin	-5120
vation	-5121
▁bluet	-5122
▁sympt	-5123
▁teach	-5124
▁boston	-5125
▁factor	-5126
▁search	-5127
atically	-5128
▁identity	-5129
▁nevertheless	-5130
95	-5131
ni	-5132
emen	-5133
mers	-5134
▁2012	-5135
▁circum	-5136
▁republican	-5137
▁researchers	-5138
ials	-5139
▁clo	-5140
▁und	-5141
▁beer	-5142
ishops	-5143
▁angle	-5144
▁wales	-5145
igation	-5146
▁learning	-5147
▁frequency	-5148
▁chlor	-5149
▁dates	-5150
▁roughly	-5151
▁assyrian	-5152
▁separated	-5153
64	-5154
rey	-5155
emic	-5156
vant	-5157
▁2016	-5158
▁going	-5159
▁lives	-5160
▁sides	-5161
▁debate	-5162
▁crowley	-5163
▁maximum	-5164
▁younger	-5165
▁occupied	-5166
21	-5167
bel	-5168
ova	-5169
roll	-5170
▁flag	-5171
▁suff	-5172
▁cycle	-5173
▁irish	-5174
▁polic	-5175
▁angeles	-5176
▁husband	-5177
▁parallel	-5178
▁criticism	-5179
▁maintained	-5180
3)	-5181
tra	-5182
▁phr	-5183
5,000	-5184
▁gates	-5185
▁valid	-5186
▁extent	-5187
▁liquid	-5188
▁marine	-5189
▁cuisine	-5190
▁secretary	-5191
▁designated	-5192
86	-5193
amm	-5194
lis	-5195
▁ety	-5196
ānanda	-5197
▁agass	-5198
issance	-5199
▁braille	-5200
▁traffic	-5201
rif	-5202
▁""	-5203
▁cla	-5204
▁cub	-5205
iling	-5206
▁calls	-5207
▁theories	-5208
▁authorities	-5209
langu	-5210
urally	-5211
western	-5212
▁coming	-5213
▁rebell	-5214
▁spaces	-5215
▁alfonso	-5216
▁treated	-5217
including	-5218
▁officials	-5219
▁translation	-5220
gar	-5221
opes	-5222
▁sail	-5223
▁resemb	-5224
▁sevent	-5225
▁studio	-5226
▁scholar	-5227
▁suffered	-5228
▁contributed	-5229
open	-5230
ripp	-5231
▁din	-5232
▁crus	-5233
▁isot	-5234
▁depos	-5235
related	-5236
▁alchem	-5237
▁greatly	-5238
▁argument	-5239
▁officers	-5240
▁requires	-5241
▁investment	-5242
▁supporting	-5243
▁communication	-5244
mic	-5245
adel	-5246
under	-5247
▁antar	-5248
▁antis	-5249
▁hindu	-5250
▁hitch	-5251
▁agency	-5252
▁managed	-5253
▁physics	-5254
▁violence	-5255
▁fru	-5256
hetic	-5257
▁owned	-5258
▁strugg	-5259
▁ānanda	-5260
▁chicago	-5261
▁origins	-5262
▁abortion	-5263
▁revealed	-5264
▁reactions	-5265
▁expedition	-5266
▁considerable	-5267
irs	-5268
▁60	-5269
also	-5270
▁boy	-5271
▁2001	-5272
▁clin	-5273
▁gulf	-5274
ishing	-5275
▁copper	-5276
▁nothing	-5277
▁strongly	-5278
▁classification	-5279
ón	-5280
hum	-5281
term	-5282
▁nut	-5283
upunct	-5284
▁2015,	-5285
▁plane	-5286
▁youth	-5287
▁deploy	-5288
▁images	-5289
▁charged	-5290
▁forming	-5291
▁interior	-5292
▁operated	-5293
▁confirmed	-5294
2)	-5295
mus	-5296
town	-5297
▁sax	-5298
▁shap	-5299
▁clubs	-5300
▁acting	-5301
hetamine	-5302
▁carrier	-5303
▁density	-5304
▁emerged	-5305
▁holding	-5306
▁brothers	-5307
▁founding	-5308
▁household	-5309
▁northwest	-5310
▁represents	-5311
45	-5312
300	-5313
ato	-5314
▁(1	-5315
down	-5316
▁ago	-5317
▁sin	-5318
▁marg	-5319
▁soil	-5320
▁opera	-5321
▁crisis	-5322
▁format	-5323
▁legend	-5324
▁dominant	-5325
▁prepared	-5326
▁variable	-5327
▁alongside	-5328
▁protestant	-5329
▁na	-5330
after	-5331
eties	-5332
qaeda	-5333
▁opin	-5334
iminal	-5335
▁philip	-5336
▁portra	-5337
▁capable	-5338
▁wallace	-5339
▁bluetooth	-5340
bal	-5341
vin	-5342
–18	-5343
uros	-5344
▁bear	-5345
▁qual	-5346
olitan	-5347
▁fresh	-5348
▁appeal	-5349
▁belize	-5350
▁fought	-5351
▁select	-5352
▁styles	-5353
▁withdra	-5354
▁academic	-5355
▁christie	-5356
▁portugal	-5357
▁strategy	-5358
▁otherwise	-5359
▁universities	-5360
ci	-5361
alf	-5362
kes	-5363
wan	-5364
ocks	-5365
▁cav	-5366
▁ske	-5367
negie	-5368
▁2019	-5369
astern	-5370
▁juris	-5371
▁kabul	-5372
▁basket	-5373
▁binary	-5374
▁novels	-5375
▁obtain	-5376
▁bulgarian	-5377
▁presidential	-5378
aso	-5379
ipel	-5380
▁cin	-5381
▁2005	-5382
▁abbe	-5383
▁nick	-5384
▁vess	-5385
▁amber	-5386
▁carol	-5387
▁hence	-5388
▁input	-5389
▁leaves	-5390
▁adapted	-5391
▁branches	-5392
▁professor	-5393
▁3,	-5394
▁80	-5395
iana	-5396
pers	-5397
▁hem	-5398
▁onto	-5399
▁oppon	-5400
▁pseud	-5401
enegger	-5402
ologist	-5403
▁hunting	-5404
▁neither	-5405
▁increases	-5406
obe	-5407
pop	-5408
▁mere	-5409
▁sust	-5410
hedral	-5411
▁exerc	-5412
certain	-5413
eration	-5414
▁column	-5415
▁exists	-5416
▁lowest	-5417
▁polish	-5418
▁waters	-5419
▁buffalo	-5420
▁muslims	-5421
naissance	-5422
▁caribbean	-5423
▁institution	-5424
fin	-5425
▁tact	-5426
active	-5427
▁decor	-5428
▁aspects	-5429
▁classes	-5430
▁hitchcock	-5431
▁synthesis	-5432
_3	-5433
lan	-5434
yer	-5435
kins	-5436
rics	-5437
▁von	-5438
ading	-5439
gence	-5440
ribed	-5441
▁feat	-5442
▁firm	-5443
▁twelve	-5444
▁acupunct	-5445
▁approved	-5446
▁understood	-5447
▁schwarzenegger	-5448
▁aur	-5449
while	-5450
▁sulf	-5451
▁tiss	-5452
▁archb	-5453
▁philipp	-5454
▁testing	-5455
▁worship	-5456
▁somewhat	-5457
▁characteristics	-5458
bes	-5459
osph	-5460
class	-5461
erves	-5462
usalem	-5463
▁goods	-5464
▁actual	-5465
▁decade	-5466
▁coastal	-5467
▁infrast	-5468
▁carnegie	-5469
▁modified	-5470
▁normally	-5471
▁paintings	-5472
▁varieties	-5473
▁classified	-5474
▁principles	-5475
bus	-5476
▁32	-5477
aker	-5478
fully	-5479
▁iran	-5480
▁soul	-5481
orters	-5482
▁anthe	-5483
▁crime	-5484
▁divers	-5485
▁narrow	-5486
▁safety	-5487
▁unable	-5488
▁abraham	-5489
▁forward	-5490
▁turkish	-5491
▁molecules	-5492
ih	-5493
ko	-5494
agu	-5495
ogue	-5496
antly	-5497
▁2018	-5498
▁lies	-5499
▁2005,	-5500
▁index	-5501
▁copies	-5502
orf	-5503
aust	-5504
▁ada	-5505
▁jobs	-5506
▁kenn	-5507
▁kore	-5508
▁serb	-5509
▁basin	-5510
unction	-5511
▁chance	-5512
▁penins	-5513
▁radical	-5514
▁produces	-5515
▁conservative	-5516
–2	-5517
aka	-5518
▁lam	-5519
aming	-5520
ricts	-5521
▁2017	-5522
▁bass	-5523
▁bases	-5524
▁affect	-5525
▁angola	-5526
▁evolved	-5527
▁attacked	-5528
▁geometry	-5529
▁symptoms	-5530
▁translated	-5531
▁philosophical	-5532
arn	-5533
iner	-5534
agues	-5535
osite	-5536
▁abol	-5537
▁brig	-5538
▁plot	-5539
▁multi	-5540
▁bronze	-5541
▁titles	-5542
▁volunt	-5543
▁decline	-5544
▁diverse	-5545
▁involve	-5546
▁rapidly	-5547
▁category	-5548
ographical	-5549
▁expression	-5550
▁manufacturing	-5551
":	-5552
▁4,	-5553
osure	-5554
verty	-5555
▁flor	-5556
▁susp	-5557
▁broke	-5558
▁holds	-5559
speaking	-5560
▁channel	-5561
▁fresnel	-5562
▁indicate	-5563
▁celebrated	-5564
ws	-5565
▁5.	-5566
that	-5567
capital	-5568
▁anatol	-5569
▁greeks	-5570
▁capture	-5571
▁centaur	-5572
▁graphics	-5573
▁measured	-5574
▁predomin	-5575
▁headquarters	-5576
ozo	-5577
▁31	-5578
▁eu	-5579
rick	-5580
▁hat	-5581
▁calc	-5582
▁sell	-5583
▁2001,	-5584
▁ratio	-5585
▁allied	-5586
▁batter	-5587
▁danger	-5588
▁favour	-5589
▁finished	-5590
▁memorial	-5591
▁communications	-5592
orus	-5593
▁dub	-5594
▁ran	-5595
▁sie	-5596
ctors	-5597
enger	-5598
world	-5599
▁cros	-5600
▁enco	-5601
▁2022,	-5602
▁newton	-5603
▁movements	-5604
▁corporation	-5605
▁corresponding	-5606
ek	-5607
gl	-5608
celer	-5609
▁ille	-5610
▁audio	-5611
▁boliv	-5612
▁inner	-5613
▁score	-5614
▁baptist	-5615
▁designs	-5616
▁determine	-5617
▁atmosphere	-5618
tw	-5619
add	-5620
iac	-5621
▁29	-5622
▁dna	-5623
▁lyn	-5624
produ	-5625
▁shut	-5626
itudes	-5627
omorph	-5628
▁needs	-5629
▁scene	-5630
▁acknow	-5631
▁armies	-5632
▁turing	-5633
▁aspirin	-5634
▁focused	-5635
abilities	-5636
▁abandoned	-5637
▁component	-5638
▁recording	-5639
▁variations	-5640
ano	-5641
pha	-5642
rete	-5643
lical	-5644
▁faso	-5645
hisatt	-5646
▁compl	-5647
▁roads	-5648
▁allies	-5649
▁assumed	-5650
▁burkina	-5651
▁classic	-5652
▁poverty	-5653
▁audience	-5654
▁repeated	-5655
▁permanent	-5656
fa	-5657
law	-5658
wal	-5659
reek	-5660
▁why	-5661
gment	-5662
ormon	-5663
▁doll	-5664
ighter	-5665
▁nobel	-5666
▁expect	-5667
▁jurisd	-5668
▁luther	-5669
▁conquest	-5670
▁interpretation	-5671
iny	-5672
oen	-5673
▁ru	-5674
iary	-5675
▁aus	-5676
▁gri	-5677
▁2015	-5678
▁fried	-5679
▁tests	-5680
▁veloc	-5681
▁agassi	-5682
▁buried	-5683
▁restaur	-5684
▁substit	-5685
▁patients	-5686
▁superior	-5687
▁fundamental	-5688
▁incorporated	-5689
oke	-5690
▁ul	-5691
ette	-5692
▁pel	-5693
▁actor	-5694
jection	-5695
▁pieces	-5696
▁gradually	-5697
▁infrastructure	-5698
gh	-5699
yd	-5700
▁aa	-5701
arab	-5702
eless	-5703
▁bicy	-5704
▁clim	-5705
▁guid	-5706
▁purs	-5707
▁maria	-5708
▁argues	-5709
▁divine	-5710
▁orange	-5711
▁organic	-5712
▁purposes	-5713
▁practical	-5714
▁35	-5715
iger	-5716
▁gene	-5717
▁rural	-5718
▁truth	-5719
▁budget	-5720
▁guitar	-5721
▁orchest	-5722
▁storage	-5723
▁infantry	-5724
▁producer	-5725
▁restrict	-5726
▁dominated	-5727
▁etymology	-5728
▁involving	-5729
▁processing	-5730
▁constitutional	-5731
▁°	-5732
kan	-5733
urb	-5734
▁eye	-5735
▁lee	-5736
▁greg	-5737
yllium	-5738
▁banks	-5739
▁enemy	-5740
▁signs	-5741
▁adding	-5742
▁agripp	-5743
▁dating	-5744
▁publish	-5745
▁attended	-5746
▁criminal	-5747
▁radiation	-5748
▁recognition	-5749
opt	-5750
▁ky	-5751
oque	-5752
oric	-5753
▁vac	-5754
antic	-5755
▁mist	-5756
▁zeus	-5757
▁plain	-5758
▁manager	-5759
▁prisoners	-5760
▁successfully	-5761
_4	-5762
mn	-5763
sky	-5764
phil	-5765
▁egg	-5766
▁fly	-5767
erted	-5768
▁ampl	-5769
▁batt	-5770
▁cards	-5771
▁deriv	-5772
▁wound	-5773
istical	-5774
urosawa	-5775
▁metrop	-5776
▁viewed	-5777
▁georgia	-5778
▁achilles	-5779
▁missiles	-5780
▁philosopher	-5781
pat	-5782
free	-5783
uate	-5784
icill	-5785
▁(199	-5786
▁ants	-5787
▁eyes	-5788
▁none	-5789
▁roll	-5790
stream	-5791
▁laure	-5792
ropical	-5793
▁preced	-5794
▁acceler	-5795
▁protein	-5796
▁visible	-5797
▁doctrine	-5798
▁formally	-5799
▁invented	-5800
▁measures	-5801
▁acupuncture	-5802
rav	-5803
izon	-5804
vere	-5805
hered	-5806
idges	-5807
tolem	-5808
▁insur	-5809
▁theme	-5810
▁consec	-5811
▁fellow	-5812
▁poetry	-5813
▁prohib	-5814
▁borders	-5815
▁opposite	-5816
ifications	-5817
▁peninsula	-5818
▁selection	-5819
iy	-5820
bour	-5821
otes	-5822
▁pent	-5823
▁twice	-5824
▁explan	-5825
▁linked	-5826
▁patron	-5827
▁sample	-5828
▁terror	-5829
▁forests	-5830
▁officer	-5831
▁witness	-5832
▁approval	-5833
▁identify	-5834
▁kurosawa	-5835
▁continues	-5836
obi	-5837
▁bid	-5838
odies	-5839
▁bern	-5840
▁jean	-5841
▁tall	-5842
▁judic	-5843
▁shoot	-5844
▁poland	-5845
▁satisf	-5846
▁declined	-5847
▁demonstr	-5848
▁electronic	-5849
▁establishment	-5850
4)	-5851
ena	-5852
▁haw	-5853
▁jac	-5854
▁beat	-5855
▁arrow	-5856
▁mormon	-5857
▁therapy	-5858
▁weather	-5859
▁painting	-5860
▁policies	-5861
▁brazilian	-5862
▁locations	-5863
▁reduction	-5864
▁references	-5865
▁antibiotics	-5866
▁populations	-5867
des	-5868
cape	-5869
hens	-5870
irot	-5871
pass	-5872
rant	-5873
rees	-5874
▁179	-5875
▁bin	-5876
▁hur	-5877
dered	-5878
▁bede	-5879
▁emot	-5880
▁rose	-5881
▁sole	-5882
▁partly	-5883
▁symbols	-5884
▁reducing	-5885
▁candidate	-5886
▁documents	-5887
▁electrical	-5888
iful	-5889
abled	-5890
itism	-5891
▁2013,	-5892
▁ascii	-5893
clusion	-5894
▁aarhus	-5895
▁senior	-5896
▁serving	-5897
▁zealand	-5898
▁appropri	-5899
▁bacteria	-5900
▁proteins	-5901
▁mathematic	-5902
cal	-5903
rim	-5904
rob	-5905
aric	-5906
uing	-5907
▁fox	-5908
▁ing	-5909
▁pul	-5910
▁sud	-5911
▁2013	-5912
▁aest	-5913
▁amate	-5914
▁movie	-5915
▁ruler	-5916
▁theorem	-5917
▁nitrogen	-5918
▁districts	-5919
▁interface	-5920
▁assistance	-5921
▁characterized	-5922
cel	-5923
ylv	-5924
▁(,	-5925
▁dar	-5926
▁desert	-5927
▁manner	-5928
▁remark	-5929
▁showing	-5930
▁reaching	-5931
▁uncertain	-5932
▁conventional	-5933
but	-5934
mes	-5935
foot	-5936
uble	-5937
▁diet	-5938
▁imag	-5939
▁iraq	-5940
▁myst	-5941
illing	-5942
▁antip	-5943
▁bonds	-5944
▁check	-5945
▁initi	-5946
▁pione	-5947
▁poirot	-5948
▁consisted	-5949
▁reputation	-5950
)"	-5951
ira	-5952
vis	-5953
icks	-5954
oids	-5955
▁wis	-5956
place	-5957
rayed	-5958
▁germ	-5959
▁sund	-5960
▁thin	-5961
▁runner	-5962
▁writes	-5963
▁accused	-5964
▁effectively	-5965
wa	-5966
ados	-5967
mann	-5968
▁ray	-5969
▁sky	-5970
▁dual	-5971
▁2002,	-5972
▁axiom	-5973
claimed	-5974
▁protoc	-5975
▁surren	-5976
▁matches	-5977
▁involves	-5978
▁straight	-5979
▁jerusalem	-5980
top	-5981
ura	-5982
▁sab	-5983
angel	-5984
ellow	-5985
▁lect	-5986
▁abbre	-5987
▁merch	-5988
▁tools	-5989
▁prices	-5990
▁ptolem	-5991
▁circuit	-5992
▁periods	-5993
▁picture	-5994
▁biblical	-5995
▁virginia	-5996
▁beryllium	-5997
▁originated	-5998
100	-5999
bell	-6000
fort	-6001
▁cot	-6002
▁ell	-6003
▁nom	-6004
▁tail	-6005
ulture	-6006
▁roots	-6007
▁bottom	-6008
▁elimin	-6009
▁expand	-6010
▁satell	-6011
▁algeria	-6012
▁amounts	-6013
▁quantum	-6014
▁windows	-6015
▁artistic	-6016
▁assigned	-6017
▁attached	-6018
▁cultures	-6019
▁representation	-6020
div	-6021
soud	-6022
▁kid	-6023
▁syll	-6024
▁param	-6025
▁romans	-6026
▁proceed	-6027
▁winners	-6028
▁concepts	-6029
▁continent	-6030
ims	-6031
pet	-6032
▁().	-6033
▁300	-6034
ighth	-6035
owned	-6036
▁stan	-6037
▁tren	-6038
ribute	-6039
▁admir	-6040
▁racing	-6041
▁strict	-6042
▁hungary	-6043
▁diseases	-6044
▁thousand	-6045
▁bodhisatt	-6046
▁generated	-6047
▁preferred	-6048
▁accompanied	-6049
▁consumption	-6050
▁/	-6051
pes	-6052
come	-6053
gers	-6054
rome	-6055
▁liv	-6056
▁agar	-6057
▁tens	-6058
▁vowel	-6059
ylvania	-6060
▁rarely	-6061
▁victor	-6062
▁antisem	-6063
▁massoud	-6064
▁depicted	-6065
▁biological	-6066
▁transferred	-6067
akers	-6068
enburg	-6069
▁breed	-6070
▁piece	-6071
communic	-6072
▁coordin	-6073
▁markets	-6074
▁signals	-6075
▁credited	-6076
▁newspaper	-6077
▁protected	-6078
▁conversion	-6079
▁observations	-6080
68	-6081
▁elder	-6082
▁error	-6083
▁pilot	-6084
▁campus	-6085
▁height	-6086
▁priest	-6087
▁benefit	-6088
▁bishops	-6089
▁details	-6090
▁genetic	-6091
▁partner	-6092
▁renamed	-6093
▁request	-6094
▁survived	-6095
▁microsoft	-6096
atus	-6097
rain	-6098
uled	-6099
▁map	-6100
▁2004	-6101
▁gran	-6102
▁babyl	-6103
▁logic	-6104
▁train	-6105
▁worth	-6106
▁airline	-6107
▁highway	-6108
▁killing	-6109
▁orbital	-6110
▁passage	-6111
▁centauri	-6112
▁disorder	-6113
▁geography	-6114
▁surviving	-6115
▁telephone	-6116
▁opportunity	-6117
78	-6118
euro	-6119
▁(17	-6120
▁hub	-6121
▁neo	-6122
▁disk	-6123
▁fled	-6124
▁pick	-6125
▁task	-6126
▁unus	-6127
▁arabs	-6128
▁flood	-6129
▁leads	-6130
uration	-6131
▁continuous	-6132
ev	-6133
ew	-6134
mo	-6135
any	-6136
▁bm	-6137
rage	-6138
▁ere	-6139
iency	-6140
▁carl	-6141
▁cogn	-6142
german	-6143
▁theod	-6144
icillin	-6145
▁sodium	-6146
▁absence	-6147
▁existed	-6148
▁founder	-6149
▁massive	-6150
▁revenue	-6151
▁archbishop	-6152
dis	-6153
icon	-6154
▁ibm	-6155
▁web	-6156
amics	-6157
point	-6158
▁join	-6159
▁scand	-6160
▁storm	-6161
▁tourn	-6162
▁attract	-6163
▁rational	-6164
▁divisions	-6165
▁criticized	-6166
▁resolution	-6167
'.	-6168
ache	-6169
▁aege	-6170
▁cant	-6171
▁guns	-6172
▁vent	-6173
father	-6174
▁habit	-6175
▁recept	-6176
▁beliefs	-6177
▁message	-6178
▁persons	-6179
▁premier	-6180
▁explained	-6181
▁substance	-6182
▁industries	-6183
▁confederate	-6184
bah	-6185
itt	-6186
nal	-6187
oys	-6188
edes	-6189
▁150	-6190
▁osc	-6191
▁anime	-6192
▁decay	-6193
▁tanks	-6194
▁aurang	-6195
▁colour	-6196
▁retain	-6197
idepress	-6198
▁vietnam	-6199
▁educational	-6200
66	-6201
uba	-6202
unk	-6203
▁lu	-6204
long	-6205
▁axis	-6206
▁andor	-6207
▁trust	-6208
▁saints	-6209
▁dropped	-6210
▁operate	-6211
▁patterns	-6212
▁velocity	-6213
▁entertain	-6214
▁featuring	-6215
▁solutions	-6216
uff	-6217
anal	-6218
rust	-6219
▁alp	-6220
▁las	-6221
omous	-6222
▁salt	-6223
▁stro	-6224
adelph	-6225
▁toxic	-6226
▁afonso	-6227
▁cultiv	-6228
▁landsc	-6229
▁refuge	-6230
▁volcan	-6231
▁samples	-6232
▁membership	-6233
▁supporters	-6234
illy	-6235
umber	-6236
▁abba	-6237
▁jeff	-6238
▁kent	-6239
ashion	-6240
▁proof	-6241
▁resid	-6242
▁antiqu	-6243
▁crosby	-6244
▁ending	-6245
▁titled	-6246
ructions	-6247
▁baroque	-6248
▁learned	-6249
▁collected	-6250
▁variation	-6251
▁antidepress	-6252
án	-6253
zeb	-6254
adic	-6255
oked	-6256
aceae	-6257
elian	-6258
power	-6259
▁fame	-6260
▁neur	-6261
▁shif	-6262
▁baham	-6263
▁consc	-6264
▁desire	-6265
▁mineral	-6266
▁subjects	-6267
imensional	-6268
▁acknowled	-6269
▁computing	-6270
▁federation	-6271
▁immigrants	-6272
▁experimental	-6273
▁contributions	-6274
▁representatives	-6275
ses	-6276
rika	-6277
▁181	-6278
▁inse	-6279
▁shel	-6280
▁stim	-6281
▁delay	-6282
▁explo	-6283
▁genus	-6284
▁heard	-6285
▁judge	-6286
▁layer	-6287
▁arthur	-6288
▁escape	-6289
▁excess	-6290
▁extens	-6291
▁varies	-6292
▁consult	-6293
▁concerns	-6294
▁conquered	-6295
▁preserved	-6296
▁constantin	-6297
▁governments	-6298
▁astronomical	-6299
▁conservation	-6300
_1	-6301
who	-6302
▁(;	-6303
ager	-6304
base	-6305
ruck	-6306
▁ker	-6307
▁pir	-6308
▁diff	-6309
▁gins	-6310
aliyah	-6311
ussian	-6312
english	-6313
▁argent	-6314
▁routes	-6315
▁statue	-6316
▁neutral	-6317
▁tenness	-6318
▁explicit	-6319
▁machines	-6320
▁furthermore	-6321
pol	-6322
▁wr	-6323
abil	-6324
icts	-6325
enses	-6326
▁boys	-6327
▁cass	-6328
▁hair	-6329
▁horn	-6330
▁want	-6331
▁drawn	-6332
▁treas	-6333
▁serves	-6334
ithmetic	-6335
▁artific	-6336
▁denmark	-6337
▁accident	-6338
▁promoted	-6339
▁concerned	-6340
▁hypothesis	-6341
▁amphetamine	-6342
▁demonstrated	-6343
▁metropolitan	-6344
chw	-6345
gas	-6346
–20	-6347
▁bh	-6348
▁ko	-6349
▁unc	-6350
▁costs	-6351
▁prefer	-6352
national	-6353
sylvania	-6354
▁accompl	-6355
▁mixture	-6356
▁formerly	-6357
▁momentum	-6358
▁animation	-6359
▁encounter	-6360
▁representing	-6361
▁characteristic	-6362
iano	-6363
word	-6364
▁aeg	-6365
▁bbc	-6366
▁hij	-6367
▁eliz	-6368
▁huge	-6369
▁adobe	-6370
▁anglo	-6371
▁cinem	-6372
▁doing	-6373
▁inher	-6374
▁talib	-6375
▁limits	-6376
▁phrase	-6377
▁vision	-6378
▁passing	-6379
▁restric	-6380
▁buddhism	-6381
▁communist	-6382
▁possibility	-6383
▁−	-6384
asy	-6385
lat	-6386
net	-6387
uchy	-6388
umes	-6389
▁lav	-6390
level	-6391
▁fear	-6392
▁corps	-6393
ishment	-6394
▁mining	-6395
▁saturn	-6396
▁ambrose	-6397
▁captain	-6398
▁chamber	-6399
▁perfect	-6400
▁ginsberg	-6401
▁hundreds	-6402
▁expensive	-6403
▁rit	-6404
achus	-6405
going	-6406
▁hind	-6407
▁dated	-6408
▁phill	-6409
▁losing	-6410
▁stages	-6411
▁constitu	-6412
▁tennessee	-6413
oven	-6414
phal	-6415
▁12,	-6416
▁dim	-6417
▁mun	-6418
▁tea	-6419
found	-6420
itled	-6421
▁1940	-6422
ancing	-6423
▁aalen	-6424
▁abbey	-6425
▁medal	-6426
▁shall	-6427
▁speer	-6428
▁danish	-6429
▁resist	-6430
▁promote	-6431
▁mechanism	-6432
▁receiving	-6433
▁testament	-6434
▁depression	-6435
▁influences	-6436
▁connections	-6437
▁constantinople	-6438
-13	-6439
cus	-6440
▁70	-6441
▁rig	-6442
▁flem	-6443
▁thor	-6444
▁grown	-6445
▁renew	-6446
▁waste	-6447
▁baltic	-6448
▁offers	-6449
▁propag	-6450
▁degrees	-6451
▁dispute	-6452
▁supposed	-6453
▁aurangzeb	-6454
▁legislative	-6455
aya	-6456
osh	-6457
bill	-6458
▁jim	-6459
▁your	-6460
atible	-6461
inated	-6462
▁athan	-6463
▁lakes	-6464
▁phoen	-6465
▁waves	-6466
vereign	-6467
▁agents	-6468
▁vienna	-6469
▁bavaria	-6470
▁episode	-6471
▁abstract	-6472
▁extension	-6473
▁questions	-6474
▁laboratory	-6475
rix	-6476
▁um	-6477
grad	-6478
rons	-6479
▁11,	-6480
avian	-6481
burgh	-6482
▁1998	-6483
▁bach	-6484
▁feet	-6485
▁meat	-6486
▁tomb	-6487
wealth	-6488
▁cable	-6489
▁ports	-6490
▁braves	-6491
▁indeed	-6492
▁relief	-6493
▁arrival	-6494
▁funding	-6495
▁exposure	-6496
▁retained	-6497
▁pennsylvania	-6498
_5	-6499
box	-6500
bul	-6501
erg	-6502
ikh	-6503
iop	-6504
nat	-6505
type	-6506
▁les	-6507
hauer	-6508
▁1999	-6509
▁2003	-6510
▁2021	-6511
icular	-6512
▁brook	-6513
▁store	-6514
▁caliph	-6515
▁colors	-6516
▁precip	-6517
▁revers	-6518
▁sharon	-6519
▁appoint	-6520
▁visitors	-6521
▁communion	-6522
▁encouraged	-6523
▁performing	-6524
▁philadelph	-6525
▁understand	-6526
▁archaeological	-6527
▁representative	-6528
"-	-6529
62	-6530
fir	-6531
iii	-6532
lon	-6533
appe	-6534
apse	-6535
cers	-6536
hire	-6537
▁tet	-6538
▁bund	-6539
▁harv	-6540
▁memo	-6541
engers	-6542
▁array	-6543
▁cited	-6544
▁grace	-6545
▁verte	-6546
▁garden	-6547
▁hosted	-6548
▁arsenal	-6549
▁bitumen	-6550
▁illness	-6551
▁constell	-6552
)|	-6553
▁—	-6554
▁64	-6555
▁kil	-6556
etime	-6557
▁edge	-6558
▁ions	-6559
ruption	-6560
▁anthem	-6561
▁commod	-6562
▁domain	-6563
▁swedish	-6564
openhauer	-6565
▁champion	-6566
▁discover	-6567
▁comparison	-6568
▁mechanical	-6569
▁partnership	-6570
azz	-6571
▁mm	-6572
real	-6573
▁afl	-6574
▁gate	-6575
▁jers	-6576
▁soph	-6577
arians	-6578
▁abund	-6579
▁caves	-6580
▁johan	-6581
▁stopp	-6582
▁comedy	-6583
▁random	-6584
▁ruling	-6585
▁belgian	-6586
▁denomin	-6587
▁horizon	-6588
▁printed	-6589
▁annually	-6590
▁barbados	-6591
▁carrying	-6592
▁changing	-6593
▁networks	-6594
▁astrology	-6595
▁basketball	-6596
▁proportion	-6597
▁distinction	-6598
▁legislation	-6599
▁substantial	-6600
vid	-6601
▁bry	-6602
▁obl	-6603
asius	-6604
iscop	-6605
range	-6606
▁root	-6607
▁vice	-6608
▁chrom	-6609
▁males	-6610
▁mayor	-6611
▁morph	-6612
british	-6613
largest	-6614
▁archim	-6615
▁cattle	-6616
▁poison	-6617
▁publis	-6618
▁vector	-6619
language	-6620
▁chapter	-6621
▁taliban	-6622
▁infinite	-6623
▁returning	-6624
▁stability	-6625
▁concentrated	-6626
72	-6627
▁6,	-6628
inct	-6629
inoza	-6630
scale	-6631
▁trig	-6632
assium	-6633
chwitz	-6634
▁chose	-6635
▁marsh	-6636
▁sleep	-6637
▁veter	-6638
▁fashion	-6639
▁housing	-6640
▁incident	-6641
▁isolated	-6642
▁rebellion	-6643
▁southwest	-6644
▁establishing	-6645
▁schopenhauer	-6646
ota	-6647
▁haz	-6648
▁job	-6649
▁pig	-6650
faces	-6651
ipher	-6652
▁wing	-6653
▁brass	-6654
▁cloud	-6655
▁pregn	-6656
▁amphib	-6657
▁earned	-6658
▁editor	-6659
▁amateur	-6660
▁bridges	-6661
▁offices	-6662
▁estimates	-6663
▁functional	-6664
▁municipality	-6665
▁distinguished	-6666
42	-6667
def	-6668
▁6.	-6669
aman	-6670
pean	-6671
▁170	-6672
▁apl	-6673
▁(198	-6674
govern	-6675
▁faced	-6676
▁lovel	-6677
▁taxes	-6678
▁hijack	-6679
▁inspir	-6680
▁napole	-6681
▁angular	-6682
▁borough	-6683
▁variant	-6684
▁drinking	-6685
▁standing	-6686
▁andalusia	-6687
▁astronomy	-6688
▁sovereign	-6689
▁percentage	-6690
▁electricity	-6691
▁consequently	-6692
▁intellectual	-6693
alty	-6694
ules	-6695
▁csm	-6696
▁ger	-6697
▁pus	-6698
▁send	-6699
▁sixth	-6700
▁assess	-6701
▁commem	-6702
▁sacred	-6703
▁strike	-6704
▁stating	-6705
▁victoria	-6706
▁delivered	-6707
▁indicated	-6708
▁consistent	-6709
▁separation	-6710
▁anthropology	-6711
9)	-6712
har	-6713
rep	-6714
van	-6715
▁5,	-6716
room	-6717
stad	-6718
▁bot	-6719
▁kyi	-6720
worth	-6721
▁asym	-6722
▁deco	-6723
▁file	-6724
▁hors	-6725
▁laid	-6726
▁2004,	-6727
▁begun	-6728
▁clean	-6729
▁siege	-6730
▁tower	-6731
▁vocal	-6732
▁caesar	-6733
▁codice	-6734
▁imposs	-6735
▁mental	-6736
▁prayer	-6737
▁concert	-6738
▁anything	-6739
▁germanic	-6740
▁apostolic	-6741
▁musicians	-6742
▁organisms	-6743
▁arithmetic	-6744
▁renaissance	-6745
▁occasionally	-6746
▁revolutionary	-6747
__	-6748
"("	-6749
zen	-6750
▁7.	-6751
fare	-6752
igan	-6753
zona	-6754
▁charl	-6755
▁cloth	-6756
▁pitch	-6757
▁rodin	-6758
▁sched	-6759
▁thick	-6760
▁doctor	-6761
▁fuller	-6762
▁engaged	-6763
▁farming	-6764
▁precise	-6765
▁asteroids	-6766
▁naturally	-6767
48	-6768
▁ss	-6769
▁ric	-6770
atine	-6771
icide	-6772
astron	-6773
▁spart	-6774
▁miller	-6775
▁revolt	-6776
▁sweden	-6777
ographer	-6778
▁aaliyah	-6779
▁arizona	-6780
▁speaking	-6781
▁vertical	-6782
▁committed	-6783
▁meanwhile	-6784
▁descendants	-6785
▁implemented	-6786
▁philadelphia	-6787
▁investigation	-6788
?"	-6789
–1	-6790
▁gel	-6791
▁vic	-6792
ithms	-6793
▁actin	-6794
▁amend	-6795
▁disag	-6796
▁label	-6797
▁remov	-6798
▁votes	-6799
▁config	-6800
▁ensure	-6801
▁estate	-6802
▁lasted	-6803
▁stored	-6804
▁nucleus	-6805
▁anatolia	-6806
▁sections	-6807
▁theology	-6808
▁biography	-6809
▁directors	-6810
▁hungarian	-6811
▁migration	-6812
▁accounting	-6813
▁controversial	-6814
67	-6815
kin	-6816
sole	-6817
▁cul	-6818
▁suu	-6819
achen	-6820
black	-6821
chron	-6822
▁agree	-6823
▁metab	-6824
▁persu	-6825
▁recru	-6826
▁sight	-6827
▁autobi	-6828
▁condem	-6829
▁festiv	-6830
▁mentions	-6831
▁auschwitz	-6832
▁monastery	-6833
▁continuing	-6834
▁destruction	-6835
rat	-6836
rors	-6837
uver	-6838
▁cha	-6839
▁nfl	-6840
abeth	-6841
elect	-6842
▁bure	-6843
▁hera	-6844
▁indo	-6845
▁prin	-6846
rahman	-6847
roscop	-6848
▁2000,	-6849
▁accum	-6850
▁arbor	-6851
▁false	-6852
▁steps	-6853
actions	-6854
iveness	-6855
▁anders	-6856
▁dismiss	-6857
▁retired	-6858
▁agrippina	-6859
▁interests	-6860
▁molecular	-6861
▁northeast	-6862
▁technologies	-6863
aj	-6864
▁zo	-6865
hand	-6866
leys	-6867
iable	-6868
anians	-6869
iations	-6870
▁struck	-6871
▁vowels	-6872
▁exports	-6873
▁florida	-6874
▁opinion	-6875
▁teacher	-6876
▁circumst	-6877
▁spectrum	-6878
▁potassium	-6879
▁structural	-6880
▁statistical	-6881
▁significance	-6882
▁parliamentary	-6883
gb	-6884
tv	-6885
1),	-6886
urg	-6887
ahar	-6888
▁try	-6889
osoph	-6890
▁cert	-6891
▁conj	-6892
▁knew	-6893
▁nazi	-6894
albert	-6895
▁aphas	-6896
▁entry	-6897
▁hills	-6898
▁hyper	-6899
asiatic	-6900
▁actors	-6901
▁cotton	-6902
▁yellow	-6903
▁charges	-6904
▁seasons	-6905
▁varying	-6906
▁ceremony	-6907
▁cathedral	-6908
▁purchased	-6909
▁concerning	-6910
▁interpreted	-6911
▁commonwealth	-6912
phe	-6913
enny	-6914
ptic	-6915
abapt	-6916
orous	-6917
rance	-6918
▁mugh	-6919
▁roma	-6920
▁warm	-6921
▁2003,	-6922
▁shift	-6923
▁circle	-6924
▁trying	-6925
▁exactly	-6926
▁minimum	-6927
▁armoured	-6928
▁arranged	-6929
▁offering	-6930
▁particle	-6931
▁integrated	-6932
▁restricted	-6933
tz	-6934
iast	-6935
lets	-6936
▁rug	-6937
estab	-6938
irect	-6939
▁cruc	-6940
▁debt	-6941
▁grav	-6942
▁oral	-6943
▁webs	-6944
▁recre	-6945
▁ambigu	-6946
▁explos	-6947
▁weapon	-6948
▁concern	-6949
▁mounted	-6950
▁clinical	-6951
▁recovery	-6952
▁challenge	-6953
▁disorders	-6954
▁reflected	-6955
▁complexity	-6956
▁participated	-6957
cor	-6958
esp	-6959
nost	-6960
▁bmw	-6961
▁fib	-6962
▁hip	-6963
acent	-6964
▁bakr	-6965
▁ches	-6966
▁goes	-6967
▁rear	-6968
▁subt	-6969
lywood	-6970
ultane	-6971
▁genes	-6972
▁stret	-6973
▁prompt	-6974
▁themes	-6975
▁grounds	-6976
▁partial	-6977
▁theater	-6978
▁carriers	-6979
▁regularly	-6980
▁controversy	-6981
▁distributed	-6982
▁municipalities	-6983
00,	-6984
run	-6985
wis	-6986
▁39	-6987
etts	-6988
ricket	-6989
uccess	-6990
▁1999,	-6991
▁balls	-6992
▁clock	-6993
▁legit	-6994
▁noble	-6995
▁proto	-6996
▁warri	-6997
ulating	-6998
▁bought	-6999
▁compil	-7000
▁orient	-7001
▁phosph	-7002
▁rising	-7003
▁shares	-7004
heastern	-7005
▁clearly	-7006
▁drawing	-7007
▁factory	-7008
▁fishing	-7009
▁spinoza	-7010
▁trading	-7011
▁planning	-7012
▁campaigns	-7013
▁identical	-7014
▁indicates	-7015
▁narrative	-7016
▁referring	-7017
▁responded	-7018
▁simultane	-7019
▁describing	-7020
▁territorial	-7021
▁reconstruction	-7022
55	-7023
adi	-7024
▁eat	-7025
eland	-7026
▁easy	-7027
▁furn	-7028
cribed	-7029
strong	-7030
▁roles	-7031
▁closer	-7032
▁sacrif	-7033
▁survive	-7034
▁sustain	-7035
▁detailed	-7036
▁settlers	-7037
▁terminal	-7038
▁villages	-7039
▁discussed	-7040
▁mythology	-7041
▁specialized	-7042
▁inscriptions	-7043
▁establishments	-7044
33	-7045
aug	-7046
iat	-7047
ods	-7048
▁ai	-7049
hell	-7050
ieri	-7051
▁fis	-7052
rates	-7053
▁cort	-7054
▁diox	-7055
▁emig	-7056
▁goth	-7057
▁sher	-7058
▁items	-7059
▁petro	-7060
▁spoke	-7061
▁covers	-7062
▁oxford	-7063
▁depends	-7064
▁finding	-7065
▁equation	-7066
▁lifetime	-7067
▁magnetic	-7068
▁situated	-7069
▁installed	-7070
▁antibiotic	-7071
▁experiences	-7072
vol	-7073
adow	-7074
agen	-7075
uten	-7076
▁10,	-7077
▁vul	-7078
erals	-7079
▁aung	-7080
▁epit	-7081
▁pale	-7082
ession	-7083
▁autoc	-7084
▁floor	-7085
▁stack	-7086
▁albums	-7087
▁basque	-7088
▁singer	-7089
▁feather	-7090
dimensional	-7091
▁α	-7092
fit	-7093
arth	-7094
iture	-7095
uable	-7096
▁burg	-7097
▁hier	-7098
▁aster	-7099
▁strip	-7100
▁aegean	-7101
▁credit	-7102
▁complic	-7103
▁episcop	-7104
▁singles	-7105
▁stephen	-7106
▁meetings	-7107
▁minority	-7108
▁coalition	-7109
▁intention	-7110
▁transmission	-7111
▁mr	-7112
▁ts	-7113
hung	-7114
iest	-7115
ique	-7116
▁lot	-7117
▁ton	-7118
etary	-7119
rator	-7120
▁spot	-7121
▁wire	-7122
▁ahmad	-7123
▁comic	-7124
▁links	-7125
▁manif	-7126
▁relat	-7127
ancient	-7128
history	-7129
itarian	-7130
rikaans	-7131
uations	-7132
▁briefly	-7133
▁cricket	-7134
▁construct	-7135
▁dependent	-7136
▁employees	-7137
▁followers	-7138
▁francisco	-7139
▁sculpture	-7140
▁algorithms	-7141
▁artificial	-7142
▁impossible	-7143
▁azerbaijani	-7144
▁architectural	-7145
▁responsibility	-7146
sea	-7147
▁ot	-7148
ante	-7149
umni	-7150
▁pin	-7151
rency	-7152
▁alan	-7153
▁eval	-7154
modern	-7155
▁chips	-7156
▁escap	-7157
▁bengal	-7158
▁broken	-7159
▁metall	-7160
▁rocket	-7161
▁secure	-7162
▁anabapt	-7163
▁flights	-7164
▁entitled	-7165
▁proposal	-7166
▁variants	-7167
▁christmas	-7168
▁multiplic	-7169
▁recommended	-7170
▁8,	-7171
agram	-7172
chang	-7173
iliar	-7174
▁pier	-7175
▁argue	-7176
▁occas	-7177
▁radar	-7178
▁denied	-7179
▁flying	-7180
▁hydrox	-7181
▁overse	-7182
european	-7183
▁install	-7184
▁reserves	-7185
▁arguments	-7186
▁religions	-7187
▁relationships	-7188
▁implementation	-7189
27	-7190
-20	-7191
aga	-7192
ete	-7193
lock	-7194
path	-7195
▁sho	-7196
▁wel	-7197
gency	-7198
ovsky	-7199
▁1996	-7200
▁1997	-7201
▁drop	-7202
christ	-7203
▁outer	-7204
▁castle	-7205
▁freder	-7206
▁lyrics	-7207
▁regime	-7208
▁contest	-7209
▁kennedy	-7210
▁reality	-7211
▁claiming	-7212
▁collabor	-7213
▁monument	-7214
▁municipal	-7215
69	-7216
uy	-7217
mud	-7218
▁9,	-7219
iday	-7220
▁buy	-7221
▁pup	-7222
rough	-7223
▁2002	-7224
▁anax	-7225
▁fans	-7226
▁guar	-7227
▁kash	-7228
▁ukra	-7229
▁wear	-7230
second	-7231
▁crops	-7232
▁essay	-7233
▁miles	-7234
▁resol	-7235
▁mosque	-7236
▁notion	-7237
▁balance	-7238
▁enforce	-7239
▁enjoyed	-7240
▁democrats	-7241
▁perceived	-7242
▁strategic	-7243
▁athanasius	-7244
▁autonomous	-7245
▁statements	-7246
▁surrounded	-7247
ua	-7248
fts	-7249
ido	-7250
▁38	-7251
assy	-7252
haus	-7253
▁175	-7254
▁fab	-7255
otype	-7256
▁adam	-7257
bridge	-7258
french	-7259
▁bened	-7260
▁excav	-7261
▁aachen	-7262
▁austro	-7263
▁adverse	-7264
▁ptolemy	-7265
▁antiquity	-7266
▁displayed	-7267
▁ministers	-7268
▁difficulty	-7269
▁organisation	-7270
24	-7271
ika	-7272
zed	-7273
▁45	-7274
inth	-7275
▁gam	-7276
white	-7277
▁clar	-7278
iously	-7279
▁alter	-7280
▁syria	-7281
▁thing	-7282
pective	-7283
▁almond	-7284
▁filled	-7285
▁finite	-7286
▁hellen	-7287
▁unless	-7288
▁exposed	-7289
▁revival	-7290
▁challeng	-7291
▁deposits	-7292
▁imprison	-7293
▁socialist	-7294
▁consonants	-7295
▁exclusively	-7296
ée	-7297
isp	-7298
▁pc	-7299
otam	-7300
▁16,	-7301
▁400	-7302
third	-7303
▁2022	-7304
▁amal	-7305
▁guil	-7306
▁spin	-7307
incial	-7308
▁1998,	-7309
▁algae	-7310
▁ashes	-7311
▁canal	-7312
▁adults	-7313
▁declar	-7314
▁subsid	-7315
▁trained	-7316
▁aviation	-7317
▁afrikaans	-7318
▁14,	-7319
ecess	-7320
itals	-7321
oking	-7322
▁tons	-7323
▁anchor	-7324
▁depict	-7325
▁bolivia	-7326
▁journey	-7327
▁planets	-7328
▁seconds	-7329
▁thermal	-7330
▁unusual	-7331
achusetts	-7332
▁beautiful	-7333
▁procedure	-7334
▁employment	-7335
▁arbitration	-7336
bat	-7337
osa	-7338
▁tu	-7339
acts	-7340
spec	-7341
▁120	-7342
▁13,	-7343
▁aes	-7344
▁bau	-7345
▁mol	-7346
▁rud	-7347
▁hipp	-7348
▁wine	-7349
▁diagn	-7350
▁fewer	-7351
▁monks	-7352
▁invent	-7353
▁thirty	-7354
▁biggest	-7355
▁selling	-7356
▁adoption	-7357
▁asteroid	-7358
▁elsewhere	-7359
▁oxidation	-7360
▁predecess	-7361
▁adaptation	-7362
▁quantities	-7363
▁essentially	-7364
!"	-7365
99	-7366
fam	-7367
low	-7368
una	-7369
ethe	-7370
zhen	-7371
arium	-7372
backs	-7373
uting	-7374
▁drew	-7375
▁fant	-7376
▁logo	-7377
▁andre	-7378
▁bones	-7379
▁voted	-7380
terbury	-7381
▁armour	-7382
▁driven	-7383
▁merely	-7384
▁alexios	-7385
▁aphasia	-7386
▁battles	-7387
▁kashmir	-7388
▁longest	-7389
▁reviews	-7390
▁democracy	-7391
▁elizabeth	-7392
▁marketing	-7393
▁approaches	-7394
▁complement	-7395
▁explanation	-7396
▁commissioned	-7397
fil	-7398
acus	-7399
bach	-7400
nest	-7401
stit	-7402
vals	-7403
▁pav	-7404
phony	-7405
▁acous	-7406
▁aimed	-7407
▁funds	-7408
▁parad	-7409
▁plato	-7410
▁stood	-7411
▁begins	-7412
▁slowly	-7413
▁trials	-7414
▁voting	-7415
▁hearing	-7416
▁matters	-7417
▁seventh	-7418
▁diameter	-7419
▁attracted	-7420
▁fragments	-7421
77	-7422
nom	-7423
star	-7424
▁asu	-7425
▁bob	-7426
ifies	-7427
▁cere	-7428
▁pill	-7429
encing	-7430
▁pharm	-7431
▁wheel	-7432
rington	-7433
writers	-7434
▁define	-7435
▁elabor	-7436
▁fossil	-7437
▁persec	-7438
▁presid	-7439
▁rulers	-7440
▁monitor	-7441
▁adjacent	-7442
▁carolina	-7443
▁emphasis	-7444
▁frequent	-7445
▁generate	-7446
▁suitable	-7447
▁tropical	-7448
▁anarchism	-7449
▁canterbury	-7450
▁passengers	-7451
22	-7452
98	-7453
▁"-	-7454
▁cm	-7455
this	-7456
▁kel	-7457
▁ares	-7458
member	-7459
▁aberd	-7460
▁apply	-7461
▁diver	-7462
▁motiv	-7463
▁parks	-7464
▁poets	-7465
itative	-7466
▁capone	-7467
ictional	-7468
▁calling	-7469
▁engines	-7470
▁prosper	-7471
▁monarchy	-7472
▁moreover	-7473
▁operates	-7474
▁performances	-7475
▁massachusetts	-7476
acle	-7477
race	-7478
▁arn	-7479
▁lik	-7480
▁page	-7481
former	-7482
rehens	-7483
▁lists	-7484
▁skull	-7485
cession	-7486
▁faster	-7487
unciation	-7488
▁publicly	-7489
▁valuable	-7490
▁efficient	-7491
▁candidates	-7492
▁appearances	-7493
▁instruction	-7494
ez	-7495
gi	-7496
ikos	-7497
ippi	-7498
▁hour	-7499
▁hybr	-7500
▁intr	-7501
▁neck	-7502
▁suit	-7503
ipsych	-7504
▁advis	-7505
▁femin	-7506
▁teles	-7507
onymous	-7508
▁adjust	-7509
▁borrow	-7510
▁lesser	-7511
▁scheme	-7512
▁farmers	-7513
▁gregory	-7514
▁millenn	-7515
▁ranging	-7516
▁commemor	-7517
▁executed	-7518
▁monarchs	-7519
▁remember	-7520
▁festivals	-7521
kel	-7522
▁34	-7523
aked	-7524
aths	-7525
cope	-7526
rier	-7527
umed	-7528
▁dat	-7529
▁tel	-7530
bourn	-7531
idden	-7532
olith	-7533
roman	-7534
▁phyl	-7535
▁beads	-7536
▁caval	-7537
▁metaph	-7538
▁papers	-7539
▁ranges	-7540
▁anarcho	-7541
▁accommod	-7542
▁approxim	-7543
▁arrested	-7544
▁purchase	-7545
▁williams	-7546
▁decisions	-7547
▁offensive	-7548
▁apparently	-7549
▁archimedes	-7550
▁linguistic	-7551
▁publishing	-7552
▁distinguish	-7553
▁entertainment	-7554
3),	-7555
enz	-7556
urd	-7557
aste	-7558
hyth	-7559
olas	-7560
▁bom	-7561
▁vii	-7562
▁voy	-7563
eters	-7564
first	-7565
rians	-7566
▁axon	-7567
▁creed	-7568
zerland	-7569
▁sounds	-7570
▁walter	-7571
iversary	-7572
▁cabinet	-7573
▁portrayed	-7574
▁predicted	-7575
▁teachings	-7576
▁diplomatic	-7577
▁procedures	-7578
):	-7579
–0	-7580
ded	-7581
ean	-7582
kee	-7583
sub	-7584
▁7,	-7585
fish	-7586
olid	-7587
▁(16	-7588
apers	-7589
ystem	-7590
▁gang	-7591
opotam	-7592
▁blind	-7593
▁deleg	-7594
▁nickn	-7595
▁santa	-7596
▁toler	-7597
▁antigu	-7598
▁flower	-7599
▁andorra	-7600
▁binding	-7601
▁facilit	-7602
▁leagues	-7603
▁reforms	-7604
▁initiated	-7605
▁landscape	-7606
▁partially	-7607
▁provincial	-7608
▁documentary	-7609
▁antisemitism	-7610
ré	-7611
aic	-7612
jew	-7613
ref	-7614
vas	-7615
▁65	-7616
="19	-7617
xual	-7618
▁ank	-7619
▁gly	-7620
itsyn	-7621
▁1994	-7622
▁avic	-7623
▁elev	-7624
▁synd	-7625
▁debut	-7626
▁draft	-7627
▁inaug	-7628
▁dispers	-7629
▁tourist	-7630
▁downtown	-7631
▁dramatic	-7632
▁facility	-7633
▁childhood	-7634
▁opponents	-7635
▁recognize	-7636
▁businesses	-7637
▁appropriate	-7638
▁cooperation	-7639
▁legislature	-7640
bab	-7641
cow	-7642
edo	-7643
sor	-7644
wed	-7645
emed	-7646
orth	-7647
rous	-7648
▁han	-7649
▁isa	-7650
▁kal	-7651
▁sic	-7652
ether	-7653
▁bits	-7654
▁corp	-7655
▁cous	-7656
▁trip	-7657
▁walk	-7658
herent	-7659
▁recip	-7660
issippi	-7661
▁franch	-7662
▁gather	-7663
▁varied	-7664
▁germans	-7665
▁semitic	-7666
▁antimony	-7667
▁antipsych	-7668
▁passenger	-7669
▁antibodies	-7670
▁presidency	-7671
▁settlements	-7672
▁switzerland	-7673
fc	-7674
oa	-7675
▁é	-7676
fix	-7677
▁90	-7678
roph	-7679
▁hay	-7680
olics	-7681
▁eggs	-7682
▁adhes	-7683
▁drama	-7684
▁homes	-7685
▁hosts	-7686
▁marry	-7687
▁rocks	-7688
▁rouss	-7689
▁honour	-7690
▁stabil	-7691
▁anthony	-7692
▁chronic	-7693
▁congreg	-7694
▁invited	-7695
▁reserve	-7696
▁americas	-7697
▁astatine	-7698
▁resident	-7699
▁satellite	-7700
▁unsuccess	-7701
▁arrangement	-7702
▁terminology	-7703
▁intermediate	-7704
▁circumstances	-7705
79	-7706
fs	-7707
ima	-7708
ovo	-7709
|18	-7710
ador	-7711
▁kin	-7712
▁qur	-7713
imoff	-7714
itzer	-7715
there	-7716
▁seek	-7717
▁util	-7718
comput	-7719
▁dress	-7720
▁giant	-7721
▁learn	-7722
▁owner	-7723
▁pleas	-7724
ipelago	-7725
▁ambros	-7726
▁heaven	-7727
▁jersey	-7728
▁really	-7729
▁shield	-7730
▁societ	-7731
▁centers	-7732
▁evangel	-7733
▁guarant	-7734
▁olympic	-7735
▁covering	-7736
▁kingdoms	-7737
▁protocol	-7738
▁restored	-7739
▁rotation	-7740
▁tournament	-7741
▁anniversary	-7742
▁measurements	-7743
76	-7744
alk	-7745
enh	-7746
how	-7747
irk	-7748
rol	-7749
itis	-7750
▁sut	-7751
▁tut	-7752
inger	-7753
▁ends	-7754
▁herb	-7755
▁hope	-7756
▁nerv	-7757
making	-7758
▁gross	-7759
▁pairs	-7760
▁massac	-7761
▁parent	-7762
▁stands	-7763
▁stream	-7764
▁bahamas	-7765
▁besides	-7766
▁seeking	-7767
zhenitsyn	-7768
▁composer	-7769
▁decrease	-7770
▁occupation	-7771
▁operational	-7772
▁requirements	-7773
ups	-7774
chem	-7775
eded	-7776
nian	-7777
▁vit	-7778
ensed	-7779
hydro	-7780
ratic	-7781
▁1000	-7782
▁alps	-7783
▁bard	-7784
rolled	-7785
▁croat	-7786
▁autumn	-7787
▁patent	-7788
▁scenes	-7789
▁server	-7790
▁sunday	-7791
▁shorter	-7792
▁valleys	-7793
▁avicenna	-7794
▁benedict	-7795
▁estimate	-7796
▁minerals	-7797
▁supplies	-7798
▁photograph	-7799
▁solzhenitsyn	-7800
49	-7801
88	-7802
800	-7803
aea	-7804
cho	-7805
chs	-7806
mem	-7807
sey	-7808
udi	-7809
▁17,	-7810
ilian	-7811
▁bonn	-7812
▁dioc	-7813
▁sort	-7814
▁tark	-7815
united	-7816
▁abbas	-7817
▁delta	-7818
▁deput	-7819
▁lewis	-7820
▁pagan	-7821
▁ranks	-7822
▁ready	-7823
▁subur	-7824
▁theor	-7825
agement	-7826
▁daniel	-7827
▁ethics	-7828
▁racial	-7829
▁accurate	-7830
▁judicial	-7831
▁framework	-7832
▁mesopotam	-7833
▁programme	-7834
▁suffering	-7835
▁roussimoff	-7836
▁brandenburg	-7837
▁inspiration	-7838
aus	-7839
inf	-7840
uct	-7841
ums	-7842
yth	-7843
aret	-7844
idal	-7845
▁gem	-7846
style	-7847
ussia	-7848
▁aged	-7849
▁bull	-7850
▁copy	-7851
▁rays	-7852
▁slav	-7853
ammals	-7854
lation	-7855
▁banjo	-7856
▁grain	-7857
▁oxide	-7858
▁realm	-7859
▁sanct	-7860
▁tasks	-7861
compass	-7862
ignment	-7863
issions	-7864
▁capita	-7865
▁horses	-7866
▁wooden	-7867
▁museums	-7868
▁optical	-7869
▁tribute	-7870
▁mainland	-7871
▁ordinary	-7872
▁newspapers	-7873
tan	-7874
udd	-7875
▁ay	-7876
aint	-7877
iece	-7878
imen	-7879
▁akk	-7880
▁aven	-7881
▁bioc	-7882
▁lose	-7883
▁rebu	-7884
▁sale	-7885
aments	-7886
econom	-7887
▁marks	-7888
ections	-7889
general	-7890
▁aggress	-7891
▁looking	-7892
▁vessels	-7893
▁equations	-7894
▁profession	-7895
▁theological	-7896
▁assassination	-7897
▁manufacturers	-7898
uv	-7899
city	-7900
oker	-7901
▁rif	-7902
▁tan	-7903
icrob	-7904
ocene	-7905
▁1995	-7906
▁gosp	-7907
▁jazz	-7908
▁resc	-7909
▁tort	-7910
employ	-7911
ipping	-7912
ulsion	-7913
▁goals	-7914
▁helic	-7915
▁incom	-7916
▁schwe	-7917
▁teeth	-7918
▁whorf	-7919
▁andron	-7920
▁scored	-7921
▁compens	-7922
▁lithium	-7923
▁	-7924
e	-7925
a	-7926
t	-7927
i	-7928
n	-7929
o	-7930
s	-7931
r	-7932
h	-7933
l	-7934
d	-7935
c	-7936
u	-7937
m	-7938
f	-7939
p	-7940
g	-7941
b	-7942
y	-7943
w	-7944
,	-7945
.	-7946
v	-7947
"	-7948
k	-7949
1	-7950
0	-7951
x	-7952
-	-7953
2	-7954
9	-7955
j	-7956
#	-7957
)	-7958
(	-7959
'	-7960
z	-7961
8	-7962
3	-7963
5	-7964
7	-7965
q	-7966
6	-7967
4	-7968
|	-7969
:	-7970
;	-7971
/	-7972
=	-7973
–	-7974
%	-7975
<	-7976
>	-7977
_	-7978
?	-7979
—	-7980
é	-7981
[	-7982
]	-7983
$	-7984
&	-7985
ā	-7986
á	-7987
ü	-7988
+	-7989
ö	-7990
í	-7991
ó	-7992
°	-7993
!	-7994
α	-7995
−	-7996
