<unk>	0
<s>	0
</s>	0
.	-3.18162
,	-3.31943
▁je	-3.70633
a	-3.96992
▁v	-4.05944
▁in	-4.09993
i	-4.29204
e	-4.54854
▁na	-4.70096
o	-4.71658
"	-4.72801
▁so	-4.77558
▁se	-4.85427
▁	-4.88556
="	-4.91235
▁ki	-5.06201
h	-5.07913
▁za	-5.10266
m	-5.23575
▁(	-5.23765
d	-5.28481
u	-5.2868
▁s	-5.30987
▁z	-5.32116
doc	-5.32355
>	-5.32757
▁po	-5.38194
▁"	-5.53156
▁-	-5.566
▁pa	-5.57175
▁leta	-5.62028
▁da	-5.65394
▁kot	-5.67545
)	-5.76379
#	-5.78966
▁–	-5.79596
▁#	-5.80468
▁iz	-5.80499
ih	-5.80578
▁tudi	-5.80879
na	-5.82042
▁od	-5.82316
/	-5.84412
sl	-5.90995
ov	-5.91201
org	-5.99075
▁id	-5.99133
-	-5.99242
?	-5.99786
wiki	-6.01158
curi	-6.01593
://	-6.0166
▁<	-6.01785
wikipedia	-6.01848
https	-6.0191
▁url	-6.01959
▁categories	-6.02071
▁title	-6.02071
▁</	-6.02361
no	-6.02409
▁pri	-6.04899
ne	-6.04935
▁do	-6.06133
jo	-6.10187
:	-6.13771
ni	-6.1423
▁med	-6.14294
▁bil	-6.16447
ga	-6.23466
om	-6.25399
mi	-6.29635
ja	-6.30248
s	-6.34008
▁ne	-6.35056
▁o	-6.35871
ti	-6.35884
▁ko	-6.36709
▁ali	-6.38299
l	-6.40254
▁ga	-6.44985
v	-6.45317
▁n	-6.46367
n	-6.46473
▁pr	-6.53781
▁bi	-6.54146
▁bila	-6.54699
li	-6.55554
je	-6.58368
▁še	-6.63722
k	-6.6374
▁ni	-6.6436
▁lahko	-6.65089
ega	-6.65308
▁to	-6.66127
la	-6.6752
▁št	-6.68394
c	-6.70158
▁tako	-6.70711
▁ob	-6.71786
),	-6.72856
▁sta	-6.74003
).	-6.74097
ta	-6.74233
t	-6.77024
▁bilo	-6.808
▁več	-6.82693
em	-6.84479
▁ter	-6.85444
j	-6.87492
ka	-6.88115
z	-6.88993
▁tem	-6.92847
nih	-6.93026
▁zaradi	-6.93883
;	-6.96382
▁le	-7.01389
mo	-7.03572
▁kar	-7.03666
p	-7.05066
b	-7.07113
▁jih	-7.07461
▁»	-7.09299
▁jo	-7.09311
▁pod	-7.1036
▁ta	-7.12122
▁a	-7.12564
le	-7.13303
▁pred	-7.14147
lo	-7.14434
▁del	-7.15939
ci	-7.16452
r	-7.17279
y	-7.17295
g	-7.17934
sko	-7.18471
ju	-7.1926
š	-7.21245
▁k	-7.21569
nega	-7.22524
f	-7.22992
▁m	-7.23755
▁kjer	-7.2601
ski	-7.26782
▁ima	-7.26821
ž	-7.27055
en	-7.29421
ska	-7.29547
2	-7.29791
=3	-7.30468
▁že	-7.31964
▁de	-7.35489
ca	-7.36059
▁pre	-7.37909
te	-7.38375
nje	-7.39446
▁bo	-7.40102
▁vendar	-7.40886
▁vse	-7.43346
x	-7.44109
=1	-7.44886
č	-7.47366
ma	-7.47398
▁bili	-7.47406
▁("	-7.47776
",	-7.49074
in	-7.49119
▁proti	-7.49416
ke	-7.49898
▁let	-7.51916
=	-7.5211
ce	-7.52155
="3	-7.52362
▁mesto	-7.5288
ki	-7.529
▁zelo	-7.53121
ske	-7.53177
▁mu	-7.53354
▁če	-7.54315
re	-7.55185
▁te	-7.55353
va	-7.56146
to	-7.56603
▁naj	-7.56614
▁si	-7.58912
▁leto	-7.59101
▁saj	-7.59106
▁prvi	-7.59384
w	-7.5996
st	-7.60015
ji	-7.60074
▁veliko	-7.61254
ko	-7.6192
▁tega	-7.62319
im	-7.6316
▁divizija	-7.63805
▁ime	-7.64125
▁stoletja	-7.6451
nja	-7.6512
▁zato	-7.66089
al	-7.66168
▁ker	-7.66732
")	-7.68146
vi	-7.68594
«	-7.69089
▁primer	-7.70851
ra	-7.71212
▁c	-7.72215
po	-7.72551
jem	-7.74169
il	-7.74397
za	-7.75496
▁i	-7.76364
▁2	-7.7676
▁17	-7.77543
▁1	-7.78413
▁okoli	-7.79108
▁nekaj	-7.79918
▁najbolj	-7.80406
skih	-7.80599
▁število	-7.80739
▁postal	-7.80744
▁samo	-7.81094
de	-7.812
skega	-7.82481
▁|	-7.82978
▁bolj	-7.83051
▁drugi	-7.83334
1	-7.83472
▁e	-7.84127
▁3	-7.8423
▁vojne	-7.84426
▁svoje	-7.84763
sti	-7.84986
ve	-7.85352
ro	-7.85814
▁raz	-7.86079
nem	-7.86495
3	-7.8701
▁u	-7.87272
▁letih	-7.87698
▁času	-7.8853
▁zda	-7.89462
▁al	-7.90924
▁4	-7.91133
▁niso	-7.91385
▁tri	-7.91696
▁uss	-7.9206
an	-7.92284
se	-7.92412
ba	-7.93637
▁seznam	-7.93967
▁njegov	-7.93974
▁g	-7.94571
imi	-7.94982
ijo	-7.95245
▁približno	-7.95315
▁nad	-7.95617
▁la	-7.9571
▁koledarju	-7.96064
do	-7.96847
ec	-7.96872
▁b	-7.9745
▁danes	-7.97505
5	-7.97646
jev	-7.98006
da	-7.9877
▁države	-7.99128
ev	-7.99226
▁delo	-7.99546
▁prav	-8.0022
ija	-8.00414
▁začel	-8.00908
▁%	-8.01219
▁stoletju	-8.01408
▁kasneje	-8.01645
▁x	-8.01729
▁p	-8.01804
▁predvsem	-8.01978
kov	-8.02389
zi	-8.02392
▁formula	-8.02656
▁nato	-8.02762
▁16	-8.03137
▁re	-8.0322
▁h	-8.03286
ami	-8.0333
di	-8.04176
er	-8.04176
▁d	-8.04407
▁t	-8.05239
cev	-8.05293
▁1.	-8.05431
▁f	-8.05871
▁15	-8.06414
mu	-8.06561
4	-8.06603
▁vedno	-8.06703
▁km	-8.0674
vo	-8.07305
▁ma	-8.07933
▁dela	-8.08014
▁mesta	-8.08297
▁brez	-8.08398
▁bile	-8.08477
▁čeprav	-8.08846
ter	-8.1004
▁začelo	-8.10907
bo	-8.1114
▁10	-8.11176
nik	-8.11341
sa	-8.1156
▁druge	-8.11857
us	-8.11988
'	-8.1216
če	-8.12543
▁svetu	-8.13332
▁imajo	-8.13675
▁poleg	-8.14267
▁strani	-8.14674
me	-8.15274
si	-8.15565
ku	-8.16316
el	-8.16476
▁drugih	-8.17635
on	-8.1784
▁pogosto	-8.17874
▁sistem	-8.1839
▁uporablja	-8.19721
q	-8.21002
be	-8.2101
▁hms	-8.21027
▁dve	-8.21037
▁*	-8.21038
▁svojo	-8.21867
▁r	-8.2225
ri	-8.22293
go	-8.23758
▁skupaj	-8.23841
▁velja	-8.23857
ar	-8.24339
bi	-8.24394
nju	-8.25747
ije	-8.26222
▁eno	-8.26654
▁njegovo	-8.26853
pa	-8.2715
▁š	-8.27309
▁vseh	-8.27339
▁12	-8.27565
ge	-8.28564
▁5	-8.28656
▁ti	-8.29244
co	-8.29465
▁vojni	-8.29609
▁tu	-8.29624
▁navadno	-8.29958
▁polk	-8.30254
▁teh	-8.30443
it	-8.30897
▁vojno	-8.32003
▁14	-8.32561
▁dan	-8.33773
nost	-8.33824
0	-8.33843
ova	-8.34208
či	-8.34244
▁pol	-8.34816
ur	-8.34828
▁†	-8.34898
▁pomeni	-8.35077
6	-8.35385
8	-8.3541
▁julijanskem	-8.35841
▁glede	-8.3609
▁imel	-8.36347
sta	-8.36417
▁celo	-8.36477
ča	-8.36688
▁ena	-8.36856
iji	-8.37863
▁skoraj	-8.38271
nim	-8.38427
▁življenje	-8.38483
▁[[	-8.38813
▁katerih	-8.38855
▁njegova	-8.38954
|	-8.39271
tu	-8.39826
▁letu	-8.41064
nica	-8.4137
iz	-8.42139
▁kr	-8.42175
▁oz	-8.42634
ali	-8.43006
▁svet	-8.4302
▁l	-8.43027
lu	-8.435
▁delu	-8.43565
▁večina	-8.439
▁j	-8.44541
mer	-8.44782
▁njegovi	-8.45165
▁di	-8.45408
ost	-8.45615
pi	-8.45683
▁dva	-8.45751
ati	-8.4591
▁sicer	-8.46062
▁držav	-8.46109
▁medtem	-8.46608
▁w	-8.46958
é	-8.47051
▁vojske	-8.47147
▁2.	-8.47489
▁ž	-8.47569
▁različnih	-8.47743
▁6	-8.48069
▁novo	-8.48072
man	-8.49148
▁8	-8.4938
ton	-8.49825
"),	-8.50108
▁takrat	-8.50725
is	-8.50939
▁njihov	-8.51059
▁glavni	-8.51069
7	-8.51097
del	-8.51269
▁sin	-8.51681
▁skozi	-8.51879
▁država	-8.51955
▁ljudi	-8.52054
]]	-8.52099
▁(19	-8.52314
su	-8.52407
30	-8.52413
▁katerem	-8.52581
▁dni	-8.52703
ver	-8.52912
▁zakon	-8.52948
at	-8.52966
iti	-8.53193
▁jezik	-8.53292
▁čas	-8.53421
▁oziroma	-8.53628
ovo	-8.54014
val	-8.5421
ek	-8.54451
▁kateri	-8.54482
▁nekateri	-8.54659
▁sloveniji	-8.54742
od	-8.5509
os	-8.55312
▁prva	-8.5541
▁en	-8.55417
▁vode	-8.55451
ili	-8.55495
▁kljub	-8.55538
▁11	-8.55737
▁način	-8.55745
▁19.	-8.55792
▁prebivalcev	-8.55792
▁13	-8.55801
ch	-8.56144
▁smrti	-8.56978
▁števil	-8.57241
▁20.	-8.57397
▁mestu	-8.57492
▁=	-8.57528
▁časa	-8.57558
«.	-8.58935
▁imenuje	-8.59092
nimi	-8.59364
]	-8.59463
pe	-8.59544
(	-8.60022
▁zgodovina	-8.60109
▁razvoj	-8.60247
▁7	-8.60293
▁manj	-8.60428
stvo	-8.6072
gi	-8.60871
▁prvo	-8.60876
ša	-8.60943
▁znan	-8.6119
▁9	-8.61234
nosti	-8.61753
den	-8.61906
tev	-8.62025
es	-8.62143
▁drugo	-8.62311
▁slovenske	-8.63374
ze	-8.63492
red	-8.63548
▁sam	-8.63797
▁slovenije	-8.63921
▁ii	-8.64227
skem	-8.64709
▁[	-8.64952
▁izraz	-8.65258
▁slovenski	-8.65813
ck	-8.66088
ber	-8.66123
▁eden	-8.66134
pre	-8.66459
▁svojega	-8.66497
▁pro	-8.66732
▁lu	-8.66762
▁ju	-8.67321
▁'	-8.67374
▁močno	-8.67526
ži	-8.67709
▁pet	-8.67803
▁stoletje	-8.67892
▁njegove	-8.67905
27	-8.67971
▁ha	-8.68054
▁li	-8.68372
▁ba	-8.68429
▁dveh	-8.68561
▁prostor	-8.68604
ten	-8.68703
▁kon	-8.69245
▁območje	-8.69296
▁svojih	-8.69415
▁evropi	-8.69578
▁gre	-8.69621
▁veliki	-8.69692
nu	-8.69833
▁y	-8.69943
▁ponovno	-8.7014
▁druga	-8.70295
▁č	-8.70297
▁20	-8.70432
izem	-8.7044
kar	-8.70454
▁običajno	-8.70845
99	-8.70901
▁preko	-8.71083
39	-8.7111
–	-8.71229
▁he	-8.71482
ica	-8.71484
▁moč	-8.71707
▁ro	-8.71907
▁občina	-8.71949
20	-8.71981
▁velike	-8.72104
cu	-8.72312
▁svoj	-8.7232
9	-8.72331
or	-8.72608
▁sil	-8.73073
▁postala	-8.73254
▁lo	-8.73371
▁velika	-8.73638
ška	-8.73703
▁obdobju	-8.7395
▁koncu	-8.74262
son	-8.74354
▁katerega	-8.74411
▁začetku	-8.74538
um	-8.7458
▁predstavlja	-8.7461
▁pot	-8.7466
94	-8.74711
▁nekaterih	-8.74857
▁enot	-8.74888
▁števila	-8.75234
▁3.	-8.75245
ove	-8.75363
▁ar	-8.75425
").	-8.75495
pri	-8.75518
men	-8.75614
▁program	-8.75723
osti	-8.75918
ovi	-8.76024
▁pe	-8.76055
▁sveta	-8.76273
▁njem	-8.76697
ob	-8.76727
▁imena	-8.77087
▁skupine	-8.77528
▁oblast	-8.77638
▁republike	-8.77772
zo	-8.7779
ng	-8.77934
ški	-8.77985
▁kmalu	-8.78371
▁+	-8.78476
▁potem	-8.78486
ss	-8.7881
▁jim	-8.78827
et	-8.7883
kom	-8.78895
▁uporabljajo	-8.7916
ul	-8.7917
▁imela	-8.79198
▁tam	-8.80031
▁obliki	-8.80115
▁ja	-8.80356
▁of	-8.80407
▁vrst	-8.80484
▁obstaja	-8.80594
▁ho	-8.80671
▁sile	-8.80904
ing	-8.81443
▁velik	-8.81597
▁temu	-8.81673
▁4.	-8.81721
tve	-8.81932
▁ra	-8.82077
▁malo	-8.82262
▁občine	-8.82454
▁občin	-8.82485
▁večinoma	-8.83149
as	-8.8325
▁an	-8.83419
▁verjetno	-8.83603
stva	-8.83756
▁predsednik	-8.83793
tvi	-8.839
▁različne	-8.83962
ško	-8.84324
▁nekatere	-8.84368
per	-8.84951
▁mi	-8.85219
▁začela	-8.85388
▁vojna	-8.85578
so	-8.85608
▁zapis	-8.85665
▁dobro	-8.85742
▁snovi	-8.85942
▁per	-8.85953
▁svetovne	-8.85981
krat	-8.86073
«,	-8.86138
▁kralj	-8.86303
▁bar	-8.86637
10	-8.86702
▁prve	-8.8691
▁letoma	-8.86913
▁štiri	-8.8716
▁red	-8.87222
ij	-8.87249
sto	-8.8739
á	-8.87675
.000	-8.87749
▁maja	-8.87979
98	-8.88293
▁co	-8.88319
60	-8.88376
▁vodil	-8.88612
▁john	-8.88649
28	-8.88842
▁katero	-8.88866
▁vsi	-8.88894
▁pozneje	-8.89131
▁dr	-8.89262
▁nove	-8.89346
nski	-8.89474
var	-8.89624
lja	-8.89928
▁enote	-8.90019
▁sv	-8.90124
í	-8.90198
▁zlasti	-8.90459
ven	-8.90466
▁skupina	-8.90511
▁član	-8.90641
▁prebivalstva	-8.90664
▁katere	-8.90911
▁prvič	-8.90985
86	-8.91149
▁posebej	-8.9127
mar	-8.91277
▁junija	-8.91288
50	-8.91414
_	-8.91582
▁(18	-8.91609
▁vrste	-8.91696
▁gu	-8.91905
nice	-8.9194
70	-8.92025
čen	-8.92334
▁vsebuje	-8.92449
pol	-8.92575
▁šele	-8.92681
▁poti	-8.92767
▁umrl	-8.9292
še	-8.92932
▁republika	-8.93044
▁vsak	-8.932
že	-8.93271
▁5.	-8.93275
▁vlada	-8.93461
▁njimi	-8.93613
▁fa	-8.93641
▁ljubljani	-8.9374
▁izmed	-8.93755
▁°	-8.93937
▁q	-8.93985
▁energije	-8.94188
)"	-8.94227
tro	-8.94272
tov	-8.9429
▁življenja	-8.94477
fa	-8.94506
76	-8.94899
ši	-8.94907
▁leži	-8.95016
▁pi	-8.95037
▁okrog	-8.95043
▁ka	-8.9508
▁napisal	-8.95235
sen	-8.95389
oma	-8.95628
▁roman	-8.95686
40	-8.9595
▁julija	-8.96142
25	-8.96219
gu	-8.9628
ila	-8.96297
▁pomembno	-8.96365
▁par	-8.96418
82	-8.96445
▁podobno	-8.96512
ina	-8.96702
97	-8.96815
63	-8.96887
▁številne	-8.97232
▁decembra	-8.97286
▁obdobje	-8.97472
▁am	-8.97486
▁sistema	-8.97573
ry	-8.97634
▁njih	-8.97708
▁zvezd	-8.98027
▁6.	-8.98438
let	-8.98446
▁državi	-8.98495
▁vrednost	-8.98598
▁včasih	-8.98628
tra	-8.98687
izma	-8.98909
▁mogoče	-8.99003
▁mo	-8.99006
▁op	-8.99101
▁the	-8.9915
▁me	-8.99188
▁dobil	-8.99262
ant	-8.99335
ic	-8.9936
▁car	-8.99366
59	-8.99378
▁katerim	-8.99382
▁vpliv	-8.99677
▁mora	-8.99937
uje	-9.00028
ine	-9.00116
▁januarja	-9.00294
▁otok	-9.00511
▁oktobra	-9.00579
▁področju	-9.00579
2.	-9.00644
▁svetovni	-9.00694
▁pomočjo	-9.00797
96	-9.00949
ru	-9.00963
▁18.	-9.01126
80	-9.01227
▁proces	-9.01251
ran	-9.01385
▁živi	-9.01595
▁reke	-9.01618
fer	-9.0177
▁ste	-9.01896
tudi	-9.02005
▁severni	-9.02075
▁mir	-9.02094
▁največji	-9.02116
▁svetovno	-9.02148
ren	-9.02173
▁mar	-9.02273
▁svoji	-9.02291
▁or	-9.02331
▁mnogo	-9.02398
niki	-9.02731
▁torej	-9.02768
du	-9.02839
▁be	-9.02986
▁os	-9.03048
der	-9.03133
pro	-9.03455
▁marca	-9.03546
tri	-9.04119
▁večji	-9.04145
sel	-9.04244
90	-9.0426
▁30	-9.04261
▁dolgo	-9.0435
▁drugim	-9.04449
ff	-9.04621
▁npr	-9.04708
vr	-9.04759
ll	-9.04795
ent	-9.048
čev	-9.04914
▁prek	-9.0499
▁lastnosti	-9.05081
čni	-9.05168
pis	-9.05238
▁du	-9.05477
▁ri	-9.0549
▁novembra	-9.05583
▁precej	-9.05663
▁pesmi	-9.05869
▁septembra	-9.05882
37	-9.06047
th	-9.06182
▁najprej	-9.06193
35	-9.0649
▁vrh	-9.06493
▁območju	-9.06692
▁oblasti	-9.06789
nico	-9.07018
cem	-9.0715
br	-9.0717
nov	-9.07212
land	-9.07344
&	-9.07365
▁večino	-9.0763
▁znana	-9.07686
▁središče	-9.07943
▁ver	-9.07992
▁hitro	-9.08107
▁sto	-9.08257
▁aprila	-9.08469
▁16.	-9.08573
33	-9.08593
▁general	-9.08681
▁grad	-9.08686
lt	-9.08896
49	-9.08904
ice	-9.08929
▁mest	-9.09125
46	-9.09417
▁vključno	-9.09542
▁su	-9.09826
njem	-9.09906
▁avgusta	-9.09974
ovega	-9.10041
89	-9.10066
▁ji	-9.10179
ščina	-9.10342
▁naprej	-9.10351
91	-9.10475
67	-9.1053
jeva	-9.10653
▁imeli	-9.10736
▁moral	-9.10907
78	-9.1108
rod	-9.11118
▁šest	-9.11145
stan	-9.11183
▁združeni	-9.11269
▁njen	-9.11587
▁enega	-9.118
▁pravi	-9.11867
▁meri	-9.11898
26	-9.1202
lje	-9.12057
▁vojska	-9.12232
šč	-9.12237
▁polja	-9.12309
34	-9.12456
▁18	-9.12616
▁jugu	-9.12647
▁simbol	-9.12689
▁enota	-9.12743
čno	-9.12872
ö	-9.1298
▁model	-9.12993
▁svojem	-9.13045
ške	-9.13118
▁prejel	-9.13123
▁hkrati	-9.13313
▁str	-9.13345
▁7.	-9.13348
▁vlogo	-9.13434
▁enako	-9.13453
▁ravni	-9.13472
▁nahaja	-9.136
▁17.	-9.13714
▁9.	-9.13767
▁von	-9.13906
▁novi	-9.14035
▁njegovega	-9.1417
▁ku	-9.14193
▁pomen	-9.14199
ala	-9.14212
▁ozemlje	-9.14305
▁vodo	-9.1431
▁konec	-9.14315
len	-9.14388
43	-9.14527
▁uporabo	-9.14852
raz	-9.14894
▁15.	-9.14907
emu	-9.15119
▁vzhodu	-9.15209
▁treh	-9.15322
▁50	-9.15367
van	-9.15443
▁smrt	-9.15457
▁glavno	-9.1551
▁zveze	-9.15518
▁severu	-9.15576
kon	-9.15664
▁pojav	-9.15711
▁gibanje	-9.15909
▁cesar	-9.16053
anje	-9.1608
▁največje	-9.16105
▁vodi	-9.16164
▁južni	-9.16224
▁nova	-9.16371
▁tej	-9.16409
▁ci	-9.16564
▁deli	-9.16607
▁tedaj	-9.16652
ut	-9.16796
▁oče	-9.1686
84	-9.16879
▁zemlje	-9.16885
▁voda	-9.16939
▁cerkev	-9.17076
▁8.	-9.17219
17	-9.17372
95	-9.17393
▁cesarstva	-9.17429
▁25	-9.17518
44	-9.17579
▁vojaški	-9.17584
▁ustanovil	-9.17613
seznam	-9.17794
▁nadzor	-9.1784
gt	-9.17879
▁bor	-9.1797
nsko	-9.18014
▁san	-9.18023
čne	-9.18119
čna	-9.18311
▁vir	-9.1837
res	-9.18398
▁telesa	-9.18451
tor	-9.1855
▁splošno	-9.18553
75	-9.18647
ot	-9.18774
▁vsako	-9.18854
87	-9.19024
19	-9.19184
▁go	-9.1921
▁severno	-9.19419
▁man	-9.19434
žen	-9.19503
▁oblike	-9.19538
lin	-9.19566
nikov	-9.1959
▁plovil	-9.19642
▁pu	-9.19814
▁čemer	-9.19818
▁kralja	-9.20033
▁sedež	-9.20208
▁prišlo	-9.20403
81	-9.20492
fe	-9.20555
nes	-9.20741
acija	-9.20789
▁40	-9.20988
▁načrt	-9.20989
▁vrnil	-9.21014
ion	-9.21018
▁besede	-9.21019
nd	-9.21072
▁ampak	-9.21106
▁ozemlja	-9.21128
un	-9.2116
▁oseb	-9.21181
ron	-9.21262
58	-9.21279
▁upor	-9.2148
▁prej	-9.21636
▁10.	-9.21683
11	-9.21733
acije	-9.21816
36	-9.21844
ster	-9.21963
▁bodo	-9.2217
▁ab	-9.22244
jan	-9.22269
▁dal	-9.22334
▁and	-9.22337
▁izrek	-9.22573
▁mit	-9.22719
▁her	-9.22787
18	-9.22826
▁milijonov	-9.22841
tr	-9.22983
▁gregorijanskem	-9.23121
rt	-9.23174
▁naslov	-9.23267
grad	-9.23277
▁cesarstvo	-9.2338
▁izhaja	-9.23384
▁objavil	-9.23438
▁ivan	-9.23485
▁tr	-9.23604
bel	-9.2366
▁100	-9.23782
93	-9.24071
▁območja	-9.24205
▁kako	-9.24294
▁stroj	-9.24375
uss	-9.24389
ks	-9.24429
▁vas	-9.24572
38	-9.2458
▁naselje	-9.24626
▁deset	-9.24739
▁leti	-9.24889
▁tok	-9.25106
▁februarja	-9.25172
▁12.	-9.25177
nika	-9.25212
▁vrednosti	-9.25295
▁prehod	-9.25412
▁vojsko	-9.25427
▁popolnoma	-9.25694
▁velikih	-9.25768
="15	-9.25772
prav	-9.25923
▁zahodu	-9.25948
▁uporabljali	-9.25994
▁film	-9.26011
▁vlade	-9.26023
fi	-9.26052
▁odkril	-9.26056
▁čez	-9.26081
▁ur	-9.26123
tar	-9.26131
ler	-9.26137
61	-9.26175
tek	-9.26376
03	-9.26385
▁deluje	-9.26497
ak	-9.26517
▁ljudje	-9.26534
▁skupnosti	-9.26595
▁igral	-9.26846
▁projekt	-9.269
▁spor	-9.26924
vez	-9.26962
▁zadnji	-9.27032
▁11.	-9.27076
29	-9.27284
▁hitrost	-9.27375
▁cerkve	-9.27395
mes	-9.27473
istega	-9.27522
▁2000	-9.27574
▁telo	-9.27651
▁položaj	-9.27811
▁standard	-9.27827
ira	-9.27838
▁60	-9.27843
▁poveljnik	-9.27902
▁dvo	-9.28096
▁imenom	-9.28174
jih	-9.28416
▁oblika	-9.28463
56	-9.28536
▁bog	-9.28538
▁el	-9.28625
ič	-9.28705
▁0	-9.28759
▁znak	-9.28879
▁14.	-9.28945
▁otrok	-9.29153
▁nemški	-9.29354
▁državni	-9.29365
▁1991	-9.29371
nska	-9.29457
▁živali	-9.29541
▁smeri	-9.29554
▁park	-9.29607
▁anti	-9.29724
ist	-9.29733
lik	-9.29794
▁pomemben	-9.2981
▁morje	-9.29854
pu	-9.29945
čas	-9.30033
ris	-9.30046
88	-9.30048
▁visoko	-9.30179
24	-9.30181
83	-9.30198
▁značilnosti	-9.30235
▁nikoli	-9.30318
▁bur	-9.30475
54	-9.30578
ologija	-9.30605
▁zemlji	-9.30804
▁njim	-9.30829
65	-9.30854
▁univerzi	-9.31031
stra	-9.31302
15	-9.31392
▁biti	-9.31399
▁poteka	-9.315
▁ca	-9.3163
gor	-9.31666
▁znano	-9.3169
tur	-9.31713
▁toda	-9.31849
▁večje	-9.31863
▁funkcija	-9.32044
21	-9.32048
%	-9.32105
▁znanosti	-9.32181
3"	-9.32182
▁obliko	-9.32226
▁13.	-9.32267
ste	-9.32275
▁imenovan	-9.32293
les	-9.32353
▁namenjen	-9.32383
vati	-9.32393
rija	-9.32514
išče	-9.32523
št	-9.32566
▁dobi	-9.32586
▁znani	-9.32616
▁rib	-9.32622
ljen	-9.32683
the	-9.32867
▁okraj	-9.33008
▁ameriški	-9.33065
▁blizu	-9.33199
▁ge	-9.33299
85	-9.33307
▁zveza	-9.33345
▁hu	-9.33385
▁new	-9.33456
▁lov	-9.33525
met	-9.33613
har	-9.33652
▁nagrado	-9.33703
▁treba	-9.33967
ard	-9.34051
▁izvor	-9.34054
▁stran	-9.34075
itev	-9.34134
72	-9.34239
▁zahodni	-9.34252
▁znotraj	-9.34398
="13	-9.34557
▁obeh	-9.34741
▁bal	-9.34744
▁pride	-9.3479
51	-9.34901
▁element	-9.3493
▁tip	-9.34998
▁opis	-9.35167
▁res	-9.35192
▁evropske	-9.35215
pla	-9.35253
▁južno	-9.35329
▁teles	-9.35423
▁kor	-9.35465
ol	-9.35485
31	-9.35498
npr	-9.3559
▁drugimi	-9.35662
alni	-9.35717
▁namesto	-9.35754
66	-9.35904
▁nov	-9.36084
00	-9.36123
45	-9.36217
▁2004	-9.36225
ovih	-9.36298
gen	-9.36311
▁morja	-9.36321
9"	-9.36324
▁primeru	-9.36346
bil	-9.36364
48	-9.36484
▁ostal	-9.3661
▁mornarice	-9.36707
▁cilj	-9.36749
▁slovenskih	-9.36752
ik	-9.36764
68	-9.3678
▁tur	-9.36785
nt	-9.36986
▁navadi	-9.37124
▁zdaj	-9.37192
▁william	-9.3733
▁hi	-9.37364
▁pomembni	-9.37394
▁prebivalci	-9.37412
ved	-9.3742
dd	-9.37496
▁nič	-9.37538
jši	-9.37709
▁družbe	-9.37746
jše	-9.37814
▁svojim	-9.37816
▁mož	-9.37828
47	-9.38285
anja	-9.38347
▁evrope	-9.38369
▁uporabi	-9.38439
▁gi	-9.38538
+	-9.3876
sp	-9.38768
▁posledica	-9.38822
_1	-9.38825
lov	-9.38849
svet	-9.38865
12	-9.38901
bra	-9.38961
sk	-9.39023
▁sprv	-9.3912
bu	-9.39454
ana	-9.39502
pan	-9.39637
▁umetnosti	-9.39648
rij	-9.39713
▁maj	-9.39738
▁največ	-9.39798
acijo	-9.39848
▁uradno	-9.39939
▁24	-9.4017
▁bu	-9.4023
▁številnih	-9.40238
med	-9.4028
▁muzej	-9.40414
▁ljubljana	-9.4052
nske	-9.40824
▁meji	-9.40863
▁morda	-9.40943
▁gibanja	-9.4096
▁fi	-9.40988
▁promet	-9.41002
▁kraljestvo	-9.41054
▁prvih	-9.41178
69	-9.41237
▁&	-9.41254
▁nastala	-9.41271
▁vsem	-9.41287
▁odločil	-9.41361
▁teorija	-9.41363
▁reka	-9.41451
ser	-9.41472
▁jezikov	-9.4158
▁jezika	-9.41601
nji	-9.41632
▁har	-9.41652
▁mm	-9.41702
22	-9.41752
ej	-9.41826
▁vojaške	-9.41864
ment	-9.41887
▁ad	-9.4194
▁sporazum	-9.4195
gon	-9.42103
="11	-9.42104
rov	-9.42211
op	-9.42274
▁robert	-9.42368
ger	-9.42551
▁tir	-9.42591
▁kompleks	-9.42646
ner	-9.42653
bar	-9.4266
57	-9.42685
▁delež	-9.42705
sch	-9.42861
alno	-9.42894
▁konca	-9.43012
▁sila	-9.43052
▁plin	-9.43089
▁razen	-9.43144
55	-9.43198
▁podnebje	-9.43228
ici	-9.43252
▁razred	-9.43293
▁prevzel	-9.43346
▁častnik	-9.43413
▁vsaj	-9.43544
▁ru	-9.43792
16	-9.43899
▁skladatelj	-9.43961
="16	-9.44027
tel	-9.44047
23	-9.44048
▁boga	-9.44225
skim	-9.44246
▁gori	-9.44283
14	-9.4429
▁avgust	-9.44331
šča	-9.44366
▁vol	-9.44532
rit	-9.44581
▁državo	-9.44687
ujejo	-9.44757
▁astronom	-9.44772
▁obdobja	-9.44853
▁metrov	-9.44857
▁bitka	-9.45005
▁planet	-9.45013
▁francoski	-9.45017
▁temelji	-9.45051
ab	-9.45139
▁sistemu	-9.4515
▁zgodovini	-9.45151
▁glasbo	-9.45173
▁končal	-9.45203
▁iii	-9.45329
▁namen	-9.4544
▁sredi	-9.45445
▁julij	-9.4546
▁vzhodno	-9.45485
ita	-9.45515
fo	-9.45614
▁ton	-9.45663
▁izvira	-9.45708
▁sledi	-9.45716
73	-9.45866
▁top	-9.45869
stvu	-9.45909
▁moči	-9.46031
kler	-9.46065
šo	-9.46105
▁peter	-9.46176
▁pomembna	-9.46202
64	-9.46204
▁največja	-9.46249
▁con	-9.46417
ü	-9.46441
▁meja	-9.46534
▁papež	-9.46635
▁obsega	-9.46651
▁70	-9.46659
kot	-9.4669
▁letal	-9.46719
▁dostop	-9.46764
▁dvor	-9.46793
▁bolezni	-9.46807
74	-9.46858
▁ocean	-9.47
▁imenoval	-9.47053
▁sir	-9.47058
▁napad	-9.4707
nos	-9.47083
▁skupin	-9.47125
▁poveča	-9.47182
▁anton	-9.47216
▁člen	-9.47258
▁delovanje	-9.47504
kr	-9.47547
▁sonca	-9.47698
▁mag	-9.47806
▁njihove	-9.48088
tan	-9.48189
▁meje	-9.48279
▁gra	-9.48318
iziran	-9.48338
ley	-9.48471
▁njej	-9.48541
▁podlagi	-9.48647
ó	-9.48715
lom	-9.48715
up	-9.48773
▁dovolj	-9.48816
▁njeno	-9.48892
mb	-9.49012
▁ostaja	-9.49043
▁profesor	-9.49081
▁naziv	-9.4915
slav	-9.49154
▁srednji	-9.49211
▁mas	-9.49271
▁prišel	-9.49326
▁gora	-9.49356
▁staro	-9.49378
77	-9.49554
ida	-9.49735
▁podatkov	-9.49735
▁omogoča	-9.49883
zij	-9.4996
71	-9.5004
bri	-9.50076
ok	-9.50092
pred	-9.50109
bit	-9.50201
▁gospodarstvo	-9.50213
min	-9.50215
zija	-9.5023
▁šport	-9.50257
kt	-9.50321
▁krog	-9.50363
▁teorije	-9.50425
▁polje	-9.50443
▁naslednje	-9.5053
▁obstajajo	-9.50658
dr	-9.50764
▁er	-9.50844
▁hr	-9.50941
▁more	-9.51003
zna	-9.51061
▁sovjetske	-9.51094
09	-9.51143
▁enaka	-9.51286
ben	-9.51297
▁obali	-9.51326
▁1945	-9.51476
▁slovenija	-9.51484
▁problem	-9.51726
▁jan	-9.51796
ang	-9.51924
▁študij	-9.51942
▁severne	-9.51958
▁najdemo	-9.51981
▁njegovem	-9.52022
7"	-9.52028
tt	-9.52033
mor	-9.52072
ika	-9.52149
▁filozof	-9.52187
▁enačba	-9.52332
▁govori	-9.52406
▁ladje	-9.52454
▁sodeloval	-9.52548
itve	-9.52603
▁james	-9.52615
ično	-9.52757
▁občini	-9.52767
▁vojaško	-9.52913
▁mer	-9.52917
▁igra	-9.52922
▁slovensko	-9.52925
▁manjši	-9.53004
▁pisal	-9.53005
▁stanje	-9.53025
ly	-9.53035
="14	-9.53043
bor	-9.53047
▁amerike	-9.53074
▁vrt	-9.53083
▁velikega	-9.53143
▁ok	-9.53161
pot	-9.53178
▁1,	-9.53205
▁glasbe	-9.53307
▁prebivalstvo	-9.53354
vin	-9.53528
▁svetlobe	-9.53731
▁21	-9.53791
ico	-9.53825
vanja	-9.53825
nci	-9.53827
kor	-9.53863
62	-9.53927
▁obe	-9.53965
▁nadaljeval	-9.53983
▁80	-9.54054
▁vzhodni	-9.54065
ža	-9.54087
▁energija	-9.54212
▁janez	-9.54213
▁kaže	-9.54344
▁vrsta	-9.5436
▁mol	-9.54409
▁produkt	-9.54412
▁material	-9.54471
▁posebno	-9.54522
ščine	-9.54533
79	-9.54585
▁pogled	-9.54615
▁poskušal	-9.54706
▁bataljon	-9.54786
▁kan	-9.54807
▁we	-9.54858
▁uporaba	-9.54882
ić	-9.54993
▁česar	-9.55067
▁večkrat	-9.55085
lec	-9.5523
▁kal	-9.5525
▁zvezde	-9.55257
▁rodil	-9.55306
▁stra	-9.55338
ilo	-9.55445
▁razvil	-9.55488
▁slav	-9.55496
▁velikosti	-9.55653
vil	-9.55705
slov	-9.5576
▁deloval	-9.55777
▁politične	-9.55833
▁mnogih	-9.55973
▁zapustil	-9.56
▁ustanovljena	-9.56047
▁srednje	-9.56047
▁tvori	-9.56069
▁ber	-9.56079
▁boj	-9.5608
alna	-9.56112
▁ruski	-9.56193
▁kakor	-9.56236
▁uspeh	-9.56436
▁beseda	-9.56485
▁brigada	-9.56595
ir	-9.56654
8"	-9.56714
▁rim	-9.56764
cen	-9.56778
vod	-9.56811
▁manjše	-9.56928
▁razliko	-9.5697
▁neposredno	-9.57032
▁glavna	-9.57034
4"	-9.57105
▁pohod	-9.57215
▁jezero	-9.57219
nj	-9.57233
="12	-9.57243
▁besed	-9.57277
01	-9.573
vanju	-9.57308
▁državah	-9.57339
41	-9.57368
▁kri	-9.57465
▁številni	-9.57694
▁slovenska	-9.57735
▁družine	-9.57824
ú	-9.57876
škega	-9.57969
▁gor	-9.58007
▁namreč	-9.58046
olog	-9.58136
▁stari	-9.5815
skimi	-9.58221
tika	-9.58232
dru	-9.58373
05	-9.58699
▁vsa	-9.58818
▁egipt	-9.58866
▁bre	-9.58953
▁novih	-9.59123
▁škof	-9.59141
▁točka	-9.59213
▁povsem	-9.59244
▁označuje	-9.59361
rk	-9.59381
13	-9.5939
and	-9.59513
▁razmer	-9.59607
▁franc	-9.59656
▁22	-9.59672
▁et	-9.5973
iranje	-9.59756
▁spet	-9.59782
▁rimski	-9.59856
ovanje	-9.59862
tre	-9.59933
▁status	-9.59999
▁para	-9.60047
ker	-9.60051
▁most	-9.60079
▁ev	-9.60084
vid	-9.60159
ite	-9.6018
▁vojaških	-9.60194
▁fu	-9.60206
▁stolp	-9.60227
▁val	-9.6029
▁otoku	-9.6034
▁grški	-9.60364
▁pojavil	-9.60373
tis	-9.60378
0.000	-9.60431
▁kraj	-9.60438
▁nazaj	-9.6046
▁poskus	-9.6047
nekoliko	-9.60473
▁šole	-9.60489
▁oksid	-9.60505
▁seboj	-9.60523
6"	-9.60577
ični	-9.60669
2)	-9.60748
lar	-9.60787
cl	-9.60807
tion	-9.60888
zu	-9.60895
▁prestopno	-9.60925
▁pomoč	-9.61197
ps	-9.61232
▁temperatura	-9.61245
▁milijona	-9.61267
rja	-9.61292
ščen	-9.61436
▁takoj	-9.61636
▁23	-9.61657
sil	-9.6184
▁angleški	-9.61856
▁nemško	-9.61879
par	-9.61899
▁rod	-9.6192
▁politični	-9.61944
dar	-9.61954
);	-9.62023
gar	-9.62035
▁prenos	-9.62134
▁(17	-9.6219
gr	-9.62209
▁21.	-9.62351
▁log	-9.62422
▁koncert	-9.62426
▁orožje	-9.62563
▁bitki	-9.62567
08	-9.62638
▁paul	-9.62709
▁var	-9.62711
▁pomembne	-9.62729
▁raziskoval	-9.62735
dra	-9.62805
▁fe	-9.62826
2"	-9.62865
▁hor	-9.62971
▁zahodno	-9.63
nici	-9.63002
glas	-9.63047
jša	-9.63061
▁2005	-9.63148
ščini	-9.63217
▁začne	-9.6332
▁spopad	-9.6337
▁snov	-9.63496
32	-9.63534
3.	-9.63543
telj	-9.63606
gn	-9.63617
▁poslan	-9.63623
▁zlato	-9.63762
°	-9.6378
▁kraljestva	-9.63817
▁bližini	-9.63972
ovem	-9.63976
▁elementov	-9.64
vali	-9.64006
▁st	-9.64016
pt	-9.64035
▁glasbeni	-9.64138
▁rimskega	-9.64141
teg	-9.64169
=21	-9.6418
jski	-9.64226
▁skupino	-9.64341
▁januar	-9.64536
čil	-9.64538
▁narodov	-9.6455
▁teorijo	-9.64573
▁bra	-9.64575
▁pas	-9.64584
▁2007	-9.64602
▁mati	-9.64728
▁njena	-9.64732
▁br	-9.64754
▁niti	-9.64811
▁drugega	-9.64816
bert	-9.64827
ator	-9.64856
▁iv	-9.64941
lon	-9.64946
▁zbor	-9.64965
="17	-9.6503
▁tal	-9.65071
fu	-9.65202
log	-9.65214
mir	-9.65242
bl	-9.65324
▁težav	-9.6539
▁tisoč	-9.65432
mp	-9.65482
▁križ	-9.65523
▁0,	-9.6555
▁ostali	-9.65595
▁kaj	-9.65624
▁italiji	-9.65634
tni	-9.6564
▁ženske	-9.65786
▁cvet	-9.65851
▁rastlin	-9.65853
▁družina	-9.65927
▁mnogi	-9.6597
▁itd	-9.66018
▁primerjav	-9.66048
▁prvega	-9.66078
▁des	-9.66117
▁vasi	-9.66268
▁edini	-9.66382
▁temperature	-9.6655
▁temveč	-9.66636
▁teče	-9.66717
uk	-9.66755
▁(20	-9.66823
oj	-9.66834
▁zunanje	-9.66913
▁avstro	-9.6693
▁predstavljajo	-9.66967
▁nastane	-9.66969
▁25.	-9.67019
ktor	-9.67289
▁dosegel	-9.67527
▁dobila	-9.67674
nom	-9.67682
▁funkcije	-9.67731
▁uporabil	-9.67732
▁samostan	-9.67751
▁njihovi	-9.67802
▁vpliva	-9.67832
▁otoka	-9.67881
ari	-9.67974
-1	-9.67999
и	-9.68001
▁politično	-9.6805
▁sedem	-9.68052
▁sedaj	-9.68185
mat	-9.68222
▁energijo	-9.68234
▁narodni	-9.68298
▁1990	-9.68433
▁obravnava	-9.68438
▁devet	-9.68477
▁ča	-9.68558
▁zadnjih	-9.68613
we	-9.68633
=23	-9.68647
▁preživel	-9.68664
▁kilometrov	-9.688
▁izvoljen	-9.688
▁hotel	-9.68811
▁knez	-9.68835
metri	-9.68858
▁26	-9.68926
▁charles	-9.6894
▁is	-9.68945
▁mil	-9.68948
▁avtor	-9.68965
vanje	-9.69013
tin	-9.69055
▁igre	-9.69061
▁vrsto	-9.69085
▁mednarodni	-9.69124
▁rad	-9.69128
pelj	-9.69159
▁izdelal	-9.69192
▁zgodovino	-9.69369
gin	-9.69384
nic	-9.69388
▁eni	-9.69415
▁šola	-9.69423
▁človek	-9.69448
▁predlagal	-9.69451
▁2006	-9.69468
▁sveti	-9.69718
ft	-9.69764
▁ke	-9.69799
lit	-9.6983
▁pokazal	-9.69857
que	-9.69863
▁matematik	-9.6988
▁vsaka	-9.69926
koli	-9.69944
▁pojavlja	-9.70036
▁kanal	-9.70088
▁smer	-9.70118
▁rast	-9.70158
pra	-9.70354
▁gozd	-9.70368
▁imenujejo	-9.70439
ček	-9.70474
▁nima	-9.70516
don	-9.70542
rin	-9.70548
▁izdal	-9.7055
▁količine	-9.70567
cija	-9.706
▁dvema	-9.70622
▁udar	-9.70624
dob	-9.70692
▁kraljev	-9.70764
zor	-9.70828
pod	-9.70854
isti	-9.7087
▁večja	-9.70925
▁35	-9.70936
ide	-9.71017
▁urban	-9.71078
▁nu	-9.712
▁umetnost	-9.7135
▁%)	-9.71391
▁enak	-9.71446
▁kovin	-9.71458
▁dom	-9.71565
alne	-9.71583
kul	-9.71587
▁spreminja	-9.71608
▁ag	-9.71641
▁obstoj	-9.71653
pen	-9.7166
izmu	-9.71723
ple	-9.71769
šek	-9.71856
▁cest	-9.71869
jen	-9.71873
▁stalin	-9.71997
▁preselil	-9.72008
▁italija	-9.72042
vor	-9.72054
▁asteroid	-9.72069
▁področja	-9.72069
▁konstanta	-9.7208
ščino	-9.72145
▁organizacije	-9.72243
▁februar	-9.72276
▁postalo	-9.7229
▁trenutno	-9.72293
tež	-9.72318
▁opazoval	-9.72425
▁uspešno	-9.72463
net	-9.72485
▁90	-9.72502
ier	-9.7251
▁spomin	-9.72542
▁količina	-9.72581
nskega	-9.72596
▁organizacija	-9.72728
amp	-9.72741
▁2003	-9.72905
▁2010	-9.72917
kri	-9.72944
▁kulture	-9.7297
ini	-9.73005
▁reki	-9.73036
▁najvišji	-9.73051
rat	-9.73058
▁stoji	-9.7316
▁trans	-9.73183
9.	-9.73242
iko	-9.73275
pl	-9.73281
▁njun	-9.73288
▁njene	-9.733
▁jezera	-9.734
▁slovenskem	-9.7342
▁izrael	-9.73421
▁priljubljen	-9.73493
▁ukvarja	-9.73604
▁zapisal	-9.7367
▁naslednjih	-9.73672
▁tlak	-9.73758
▁postavil	-9.73848
▁tank	-9.73914
ada	-9.73933
▁ši	-9.73959
▁sprejet	-9.74002
▁naslednji	-9.74018
▁vključuje	-9.74018
vel	-9.74042
▁brat	-9.74053
▁spremembe	-9.74093
▁as	-9.74118
▁ogljikov	-9.74225
▁rep	-9.74253
▁povezave	-9.74253
▁računalnik	-9.74353
▁1941	-9.74448
▁200	-9.74491
▁fer	-9.74497
▁sp	-9.74497
▁ustvaril	-9.74504
▁znanih	-9.74578
▁45	-9.74587
vec	-9.74651
▁ak	-9.74665
▁gr	-9.74788
▁vodstvom	-9.74804
▁njeni	-9.74804
▁afriki	-9.74844
▁1944	-9.74852
▁reform	-9.74887
="4	-9.74965
▁področje	-9.75046
▁površine	-9.75055
che	-9.75134
▁on	-9.75146
▁vojakov	-9.75161
▁ostala	-9.75204
▁sestavljajo	-9.75219
07	-9.7525
lič	-9.75389
▁27	-9.75428
▁učitelj	-9.75449
ču	-9.75464
▁morju	-9.75537
▁mor	-9.75538
rab	-9.7558
▁april	-9.75591
lj	-9.75614
▁skupno	-9.75645
ph	-9.75781
uš	-9.75859
▁oblikoval	-9.75874
▁organ	-9.75883
▁elektro	-9.75887
▁številko	-9.76019
án	-9.76076
▁pravo	-9.76085
nova	-9.76099
▁francija	-9.76307
▁barve	-9.76332
▁mladi	-9.76445
04	-9.76571
▁kvadrat	-9.76591
▁bogov	-9.7664
▁obred	-9.76661
▁ana	-9.76934
nil	-9.77018
▁slovenskega	-9.77103
▁čimer	-9.77112
▁življenjepis	-9.77127
▁pravice	-9.77136
▁no	-9.77144
▁(1	-9.77178
▁zahteva	-9.77189
iv	-9.77205
wa	-9.77296
▁tro	-9.773
▁predsednika	-9.7736
▁glavnem	-9.77486
▁štirih	-9.77589
="5	-9.77631
▁novega	-9.77668
kle	-9.77706
▁tak	-9.77818
▁dne	-9.77884
▁ustanovljen	-9.77894
▁nemčiji	-9.77906
▁širok	-9.77909
▁ed	-9.77918
šen	-9.77968
▁šolo	-9.78001
▁van	-9.78022
lju	-9.7803
▁prevod	-9.78082
▁študiral	-9.78113
chi	-9.78128
▁zaprt	-9.78139
▁dokaz	-9.78157
sh	-9.78171
▁celoti	-9.78212
ike	-9.7824
▁njihova	-9.78258
▁različica	-9.78339
▁glavne	-9.78352
▁slika	-9.78364
▁svetega	-9.78487
rn	-9.78525
▁junij	-9.78527
▁duhov	-9.78571
dol	-9.78573
▁rev	-9.78594
▁pl	-9.78597
▁vez	-9.78629
▁kre	-9.7871
[	-9.78789
▁tretji	-9.78815
▁george	-9.78866
▁imenovali	-9.78941
▁potencial	-9.78943
▁postopek	-9.78948
▁določil	-9.78951
han	-9.78979
▁rezultat	-9.79188
▁glas	-9.79278
▁letala	-9.79285
▁dž	-9.79313
▁32	-9.7932
dan	-9.79339
▁at	-9.79354
čo	-9.79362
7.	-9.794
tes	-9.79415
▁uporabe	-9.79433
gra	-9.79443
tični	-9.79449
ani	-9.79476
▁viri	-9.79497
▁opravil	-9.79511
▁hitrosti	-9.7952
▁osnovni	-9.79587
lan	-9.79602
▁dejavnosti	-9.79655
▁av	-9.79672
▁...	-9.79697
▁spada	-9.79728
02	-9.7979
▁naselja	-9.79793
▁ust	-9.79838
="18	-9.79878
tom	-9.7989
▁osnovi	-9.80009
▁celotne	-9.8005
▁razvoja	-9.80117
▁zatem	-9.80145
sov	-9.80159
▁opisuje	-9.80219
▁nosil	-9.80266
▁srednjem	-9.80322
▁šol	-9.80341
▁kap	-9.80465
▁ameriške	-9.8048
▁naravno	-9.80564
glav	-9.80592
kal	-9.80597
lat	-9.80624
▁zunanji	-9.80637
▁album	-9.80653
▁jeziku	-9.80746
▁ves	-9.80786
42	-9.80843
▁živel	-9.80868
▁2001	-9.80927
▁gol	-9.80946
▁uspelo	-9.81018
▁izredno	-9.81066
▁kadar	-9.81096
dom	-9.81154
▁ples	-9.8117
ty	-9.81192
tna	-9.81205
▁delih	-9.81319
▁dokument	-9.81388
▁dalje	-9.81487
▁večjih	-9.81539
▁judov	-9.81596
nemu	-9.8172
_2	-9.81933
▁nemčija	-9.82003
–1	-9.82035
!	-9.82072
▁znane	-9.82119
▁oddaljen	-9.82123
▁inženir	-9.82142
▁rek	-9.82143
az	-9.82167
▁33	-9.82192
▁ravno	-9.82194
▁ap	-9.82292
▁poročil	-9.8233
▁2002	-9.82333
▁/	-9.82334
▁28	-9.82345
▁sprejel	-9.82349
pet	-9.82401
▁2011	-9.82404
▁ukvarjal	-9.82427
▁grof	-9.82436
▁varnost	-9.82452
▁kraljeve	-9.8248
▁pravil	-9.82505
dor	-9.82519
▁pariz	-9.82582
▁mestih	-9.82648
▁sonce	-9.82692
▁združene	-9.82713
▁električni	-9.82714
▁uporabljal	-9.82716
▁inter	-9.82746
▁23.	-9.828
vni	-9.82869
cij	-9.82931
▁letalski	-9.82998
star	-9.83
▁1943	-9.83016
▁časov	-9.83136
tno	-9.83166
▁pesnik	-9.83215
▁razlikuje	-9.83224
▁obiskal	-9.83237
▁našim	-9.83254
▁stvar	-9.83264
jevo	-9.83268
▁delal	-9.83296
▁osem	-9.83308
▁imenujemo	-9.83329
▁denar	-9.83371
▁univerze	-9.83401
▁ben	-9.8345
tz	-9.83492
▁kažejo	-9.83527
▁pojavi	-9.83537
▁mestne	-9.83564
▁preden	-9.8359
=24	-9.83659
▁poslal	-9.83667
▁celotno	-9.8369
▁vojaška	-9.83731
▁odkrit	-9.83763
▁trg	-9.83864
ških	-9.83869
▁južne	-9.83878
▁prijatelj	-9.83883
▁ozemlju	-9.83884
pel	-9.83908
▁naboj	-9.83958
strel	-9.83987
▁sina	-9.84014
her	-9.84016
▁eks	-9.84066
▁kamen	-9.84099
▁višji	-9.84102
▁težko	-9.84105
▁zunaj	-9.84108
▁star	-9.84151
▁zvezda	-9.84286
▁pla	-9.84335
▁podobne	-9.84583
▁vsebujejo	-9.84669
▁razmerje	-9.84746
▁center	-9.84806
san	-9.8482
▁njega	-9.8491
06	-9.84976
▁današnje	-9.85019
▁bud	-9.8502
▁frank	-9.85174
▁ce	-9.85198
▁želel	-9.85207
pr	-9.85231
ts	-9.85323
▁isti	-9.85393
▁postavljen	-9.85505
▁mod	-9.8552
▁les	-9.8554
njo	-9.85541
ras	-9.85587
▁30.	-9.85601
ez	-9.85656
▁maso	-9.85718
▁čin	-9.85721
▁1000	-9.85765
▁vezi	-9.85797
▁plan	-9.85846
▁mlajši	-9.85885
▁28.	-9.85938
▁marec	-9.85969
▁italijanski	-9.85994
▁cesarja	-9.86032
anju	-9.86081
več	-9.8613
▁franciji	-9.86142
oli	-9.86174
▁pridružil	-9.86404
▁doseže	-9.86484
▁šoli	-9.86527
▁us	-9.86569
▁obisk	-9.86598
▁prostoru	-9.86633
▁zapor	-9.86763
cha	-9.86773
štev	-9.86776
eri	-9.86778
▁zvezo	-9.86795
▁vlak	-9.86858
ena	-9.86869
▁nemške	-9.86929
▁babilon	-9.86968
▁klub	-9.87043
nskih	-9.87079
▁beli	-9.87154
str	-9.87156
▁mohamed	-9.8724
▁štetjem	-9.8729
▁300	-9.87305
▁naravni	-9.87307
fr	-9.87328
nk	-9.87334
▁trije	-9.87399
▁čast	-9.87443
▁mal	-9.87462
▁plina	-9.87467
▁divizij	-9.87474
▁min	-9.87478
▁pregled	-9.87481
čka	-9.87535
jske	-9.87596
▁mase	-9.87697
▁pis	-9.87758
▁določa	-9.8776
bur	-9.8779
▁listi	-9.87824
▁bol	-9.87865
ile	-9.8787
▁služil	-9.87898
daj	-9.87918
▁evropski	-9.87937
deset	-9.88064
▁večini	-9.8814
▁vzrok	-9.88156
▁ene	-9.88167
▁majhne	-9.88211
▁govor	-9.88218
▁mali	-9.88232
▁500	-9.8824
-2	-9.88361
▁človeka	-9.88367
▁orožja	-9.88385
▁visoke	-9.88399
.«	-9.88403
hor	-9.88406
▁motor	-9.88465
▁stranke	-9.88473
▁up	-9.88501
▁masa	-9.88525
▁oči	-9.88534
▁teoriji	-9.88568
▁spojine	-9.8858
▁delno	-9.88634
▁predmet	-9.88657
▁opisal	-9.8866
▁sme	-9.88739
▁šah	-9.88842
▁december	-9.88846
▁oktober	-9.88846
▁ladja	-9.88853
šče	-9.88859
▁th	-9.8886
▁okviru	-9.88875
▁prvem	-9.88916
▁elementi	-9.88924
▁objekt	-9.88931
▁poli	-9.89004
▁knjige	-9.8902
ig	-9.89027
▁1918	-9.89085
▁super	-9.89129
▁črni	-9.89169
und	-9.89172
▁strel	-9.8923
▁izbran	-9.89329
61"	-9.89336
▁31	-9.89343
▁bel	-9.89357
▁skupnost	-9.89378
▁nor	-9.89396
▁sodobni	-9.89441
▁nanaša	-9.89485
45"	-9.89744
▁doba	-9.89761
▁zvezi	-9.89789
▁ostale	-9.89833
▁zraka	-9.89868
▁men	-9.89898
nc	-9.89912
▁eu	-9.8992
▁skladu	-9.89929
rez	-9.89954
stri	-9.8998
govor	-9.90066
о	-9.90106
bre	-9.90201
▁duhovnik	-9.90222
▁razvoju	-9.90224
="21	-9.90266
10"	-9.9029
vit	-9.90301
▁27.	-9.90471
ä	-9.90477
▁obrambo	-9.90479
dž	-9.90494
▁kos	-9.90538
▁raziskave	-9.90714
а	-9.90764
ale	-9.9087
▁praznik	-9.9091
▁york	-9.90913
▁izvaja	-9.90923
dela	-9.9094
▁velikost	-9.90941
▁1942	-9.90953
▁real	-9.91012
čnih	-9.91125
▁četrti	-9.91176
▁1998	-9.91196
▁stol	-9.91199
▁zdravnik	-9.91269
▁sestavljen	-9.91311
▁poveljstvo	-9.9135
▁sprožil	-9.91411
▁vektor	-9.91422
rb	-9.91452
▁postane	-9.91457
▁cen	-9.91516
▁dežele	-9.91522
▁rdeče	-9.91532
▁otoki	-9.91576
▁spoznal	-9.91663
▁pilot	-9.91681
cc	-9.91707
▁končno	-9.91771
gre	-9.91794
arja	-9.91827
▁bas	-9.919
▁trdi	-9.9191
▁2008	-9.9196
▁spol	-9.92027
▁22.	-9.92028
▁ideal	-9.92089
▁grob	-9.92096
▁razširjen	-9.92117
▁zemljo	-9.92136
niški	-9.9215
▁državne	-9.92155
▁atomsk	-9.92262
▁29	-9.92305
kla	-9.92454
ers	-9.9246
▁njo	-9.92541
▁mesec	-9.92613
▁vrat	-9.92694
▁dejansko	-9.92716
▁pričel	-9.92722
▁odšel	-9.92729
▁pomagal	-9.92739
alo	-9.92747
mann	-9.92829
▁uspel	-9.92874
tal	-9.92876
▁tra	-9.92902
▁izdelan	-9.92918
rska	-9.92925
▁37	-9.92978
▁različnim	-9.93081
3)	-9.93085
▁sestavljena	-9.93099
▁nek	-9.93122
ovanja	-9.93158
▁pisatelj	-9.93179
▁petek	-9.93202
▁enem	-9.93249
spe	-9.93257
▁kle	-9.93262
▁evropo	-9.93302
avi	-9.93312
▁bodisi	-9.93339
▁možnost	-9.93358
▁sami	-9.93418
▁kulturne	-9.93471
▁fizik	-9.93554
rs	-9.9359
pp	-9.9368
▁britanski	-9.93684
▁dobe	-9.93718
▁zaporedno	-9.93758
▁jean	-9.93871
▁38	-9.93874
▁republiki	-9.93947
▁povezana	-9.93947
▁neodvisnost	-9.9395
▁nastanek	-9.93995
47"	-9.94006
▁gore	-9.94083
▁dolini	-9.94126
▁kultura	-9.94126
ama	-9.94178
▁cm	-9.94209
▁slog	-9.94227
53"	-9.9423
▁priznanja	-9.94244
pon	-9.94274
▁uradni	-9.94279
41"	-9.94284
število	-9.94292
▁prvotno	-9.94297
▁našli	-9.9433
kop	-9.94346
ade	-9.94367
▁prostora	-9.94389
▁pove	-9.94478
vne	-9.94485
▁kranj	-9.9449
▁funkcij	-9.94499
▁družba	-9.94511
16"	-9.94522
tične	-9.94547
="9	-9.94553
▁festival	-9.94555
▁smislu	-9.94555
▁nedeljo	-9.94556
▁november	-9.94571
▁delov	-9.94595
▁david	-9.94603
▁povzroči	-9.94634
▁34	-9.9468
51"	-9.94695
11"	-9.9473
lis	-9.94775
▁začetka	-9.948
▁cor	-9.94811
18"	-9.9484
▁življenju	-9.9488
jenje	-9.94929
▁tisti	-9.95051
▁zgled	-9.95088
▁odbor	-9.95098
▁2009	-9.95119
-19	-9.95121
▁mon	-9.95159
▁transport	-9.95186
▁enoto	-9.95249
▁knjigi	-9.95253
▁lit	-9.95296
▁1994	-9.95306
▁narave	-9.95313
▁koz	-9.95357
▁osi	-9.9539
="6	-9.95423
▁predlog	-9.95424
▁zmanjša	-9.95446
▁oboroženih	-9.95567
▁vodja	-9.95679
▁površino	-9.95721
cijo	-9.9591
▁padavin	-9.95972
▁točke	-9.95994
▁september	-9.96034
84"	-9.96039
▁povezuje	-9.96056
▁podporo	-9.96076
▁traja	-9.96158
ham	-9.96178
▁meša	-9.96196
▁24.	-9.96253
▁svojimi	-9.9637
ljiv	-9.96522
▁31.	-9.96527
▁maribor	-9.9653
▁kazal	-9.96547
52"	-9.96568
▁karl	-9.96609
▁:	-9.96618
rju	-9.96634
60"	-9.96659
▁zgradil	-9.96669
ino	-9.96727
▁potrebno	-9.96744
▁polet	-9.96813
31"	-9.96818
nar	-9.96819
▁enačbe	-9.96849
▁svetovna	-9.96867
▁mednarodne	-9.96899
▁delovanja	-9.96927
▁levi	-9.96934
▁ek	-9.96971
▁spomenik	-9.96987
▁morali	-9.97038
="19	-9.97073
92"	-9.97094
▁joseph	-9.97105
rd	-9.97106
▁natančno	-9.97116
▁26.	-9.97116
▁glasov	-9.97178
77"	-9.97227
▁cha	-9.97249
▁odnos	-9.97249
vka	-9.97261
▁italijo	-9.97285
▁au	-9.97289
▁rešitev	-9.97289
▁medaljo	-9.9729
nda	-9.9733
kra	-9.97391
▁29.	-9.97431
▁mark	-9.97442
ična	-9.97498
▁obiskoval	-9.97507
40"	-9.97521
▁soboto	-9.97542
▁edina	-9.97593
54"	-9.97641
▁drugem	-9.97684
87"	-9.97754
▁razreda	-9.97766
▁arhitekt	-9.97774
▁reda	-9.97783
▁75	-9.97798
kan	-9.97804
▁kat	-9.97805
▁dolžine	-9.97865
е	-9.97885
▁imperij	-9.97935
▁pes	-9.97947
▁dejavnost	-9.97959
56"	-9.97961
▁kitajske	-9.98013
80"	-9.98032
kro	-9.98033
▁komet	-9.98058
▁instrument	-9.98072
vz	-9.98118
ble	-9.9813
▁živijo	-9.9816
▁univerza	-9.98221
▁nastal	-9.98271
tična	-9.98289
tem	-9.98293
90"	-9.98326
▁člani	-9.98341
▁notranje	-9.98358
▁ac	-9.98389
▁razvila	-9.984
▁meril	-9.98408
▁pesem	-9.98411
0"	-9.98447
▁fo	-9.98473
▁cel	-9.98494
jska	-9.98537
▁odvisna	-9.98551
bol	-9.98554
▁odkrili	-9.98568
▁sredo	-9.98569
64"	-9.98606
▁aleksander	-9.98613
tik	-9.98624
72"	-9.98632
▁manjših	-9.98775
čar	-9.98799
▁ponedeljek	-9.98805
ston	-9.98812
▁1999	-9.98825
▁sovjetski	-9.98847
73"	-9.98902
79"	-9.98932
ban	-9.98943
▁gro	-9.98953
95"	-9.98961
▁mat	-9.98973
38"	-9.98974
▁stare	-9.98974
▁srednjega	-9.98981
bal	-9.99053
▁ukaz	-9.99055
▁poznamo	-9.99152
15"	-9.99156
ništvo	-9.99192
▁množica	-9.99198
91"	-9.99212
est	-9.99227
▁der	-9.9926
81"	-9.99261
▁krater	-9.99296
▁slovenijo	-9.99341
▁prestopni	-9.99359
og	-9.99364
▁zrak	-9.99367
rc	-9.99383
▁strukture	-9.99387
44"	-9.9945
▁lok	-9.99476
nor	-9.99483
▁korpus	-9.99488
75"	-9.99539
▁rob	-9.99551
22"	-9.99568
▁naravi	-9.9958
▁jedro	-9.99623
▁posebne	-9.99633
▁parizu	-9.99661
▁troj	-9.99685
▁ras	-9.99798
▁um	-9.99815
adi	-9.99839
29"	-9.99875
35"	-9.99975
▁določene	-9.99975
68"	-10.0004
▁grške	-10.0004
▁atom	-10.0011
17"	-10.0031
▁thomas	-10.0035
▁daleč	-10.0035
19"	-10.0036
▁številu	-10.0039
▁prepozna	-10.004
rski	-10.004
▁hitler	-10.0046
▁rimsko	-10.0047
85"	-10.0054
96"	-10.0061
▁začetek	-10.0061
▁seveda	-10.0064
por	-10.0065
pad	-10.0065
▁sama	-10.0074
▁jam	-10.0074
▁luni	-10.0077
▁islam	-10.0086
ā	-10.0087
▁polovici	-10.0087
▁lip	-10.0089
▁nemci	-10.009
▁četrtek	-10.0092
▁podoben	-10.0094
ya	-10.0095
▁36	-10.0098
ori	-10.0098
▁sestavlja	-10.0099
alnih	-10.0101
▁skupini	-10.0104
12"	-10.0105
sin	-10.0108
▁pozna	-10.011
▁težave	-10.0116
▁parlament	-10.0119
«)	-10.0119
▁ul	-10.0126
▁piše	-10.0129
49"	-10.0135
iral	-10.0135
▁hal	-10.0137
▁matematiki	-10.0137
ius	-10.014
▁razstav	-10.0143
pos	-10.0146
62"	-10.0146
▁zlata	-10.0149
zer	-10.0153
02"	-10.0154
▁osrednji	-10.0159
▁doživel	-10.016
01"	-10.0161
▁najmanj	-10.0162
55"	-10.0167
▁odpor	-10.0168
▁list	-10.0171
05"	-10.0178
▁matematike	-10.018
▁divizije	-10.0182
▁delom	-10.0184
▁lastni	-10.0184
65"	-10.0185
▁vsej	-10.0186
▁misli	-10.0189
god	-10.0192
42"	-10.0199
▁smo	-10.02
74"	-10.0201
▁dolg	-10.0208
▁art	-10.0212
▁relativno	-10.0214
mon	-10.0217
▁raziskav	-10.0218
▁poplav	-10.0221
▁besedila	-10.0222
wi	-10.0225
▁tipa	-10.0235
▁43	-10.0236
48"	-10.0238
▁noč	-10.0242
vir	-10.0245
lji	-10.025
▁primerih	-10.0251
▁iran	-10.0253
▁molekul	-10.0253
▁tvorijo	-10.0254
▁ibn	-10.0256
▁urejen	-10.0257
▁torek	-10.0258
dal	-10.0259
23"	-10.0265
rne	-10.0267
▁župan	-10.0271
pal	-10.0274
▁bla	-10.028
▁prevoz	-10.0281
▁rok	-10.0281
▁srednj	-10.0283
▁65	-10.0284
arji	-10.0286
▁jugoslavije	-10.0298
▁razlog	-10.0303
▁spremeni	-10.0308
idi	-10.0312
▁kur	-10.0314
32"	-10.0316
ret	-10.0317
sar	-10.0318
21"	-10.0318
14"	-10.0322
▁viljem	-10.0325
oče	-10.0326
▁koledar	-10.0326
98"	-10.0328
▁delcev	-10.0333
▁potekal	-10.0333
pisan	-10.0335
▁morajo	-10.0335
▁območjih	-10.0337
▁potrdil	-10.0338
pov	-10.0342
▁zamenjal	-10.0343
išča	-10.0346
ijski	-10.0352
▁možnosti	-10.0353
eg	-10.0362
▁razširil	-10.0363
▁milijard	-10.0366
▁pan	-10.0373
▁dinastije	-10.0373
▁regije	-10.0373
▁moški	-10.0375
▁italije	-10.0378
13"	-10.0378
▁podatkih	-10.0379
▁pres	-10.038
kin	-10.0382
▁izvir	-10.0387
▁tar	-10.0389
24"	-10.0392
57"	-10.0394
66"	-10.0396
▁cu	-10.0397
83"	-10.0399
▁preteklosti	-10.0403
▁proizvodnjo	-10.0405
▁aziji	-10.0413
36"	-10.0415
▁odgovor	-10.0415
88"	-10.0419
kih	-10.042
ovič	-10.0422
▁rom	-10.0426
ključ	-10.0427
ljub	-10.043
▁zdravil	-10.0431
▁sploh	-10.0432
▁preb	-10.0433
▁isto	-10.0436
angleško	-10.0437
▁42	-10.044
97"	-10.0441
20"	-10.0444
▁debel	-10.0447
▁stranka	-10.0451
▁imelo	-10.0461
▁gospodarsko	-10.0464
α	-10.0464
▁propad	-10.0469
▁poimenovan	-10.0476
▁postaja	-10.0478
07"	-10.0479
rjev	-10.0481
000	-10.0481
";	-10.0484
zijo	-10.0492
▁klavir	-10.0493
93"	-10.05
int	-10.0502
43"	-10.0504
25"	-10.0506
▁mineral	-10.0507
razločitev	-10.0513
▁mednarodno	-10.0513
▁1992	-10.0514
▁1960	-10.0514
vesti	-10.0515
▁politiko	-10.0516
jal	-10.0516
▁osnova	-10.0517
▁regiji	-10.0522
▁jasno	-10.0522
50"	-10.0526
▁zaliv	-10.0528
▁ključ	-10.0529
▁večjo	-10.0535
▁poznan	-10.054
▁zavrnil	-10.054
▁zračna	-10.0541
89"	-10.0542
ram	-10.0542
▁izjemno	-10.0544
46"	-10.0549
▁opravljal	-10.0553
rije	-10.0554
mej	-10.0556
71"	-10.0557
09"	-10.0558
▁ostalih	-10.0559
▁imen	-10.056
bud	-10.057
▁tečaj	-10.0571
ksi	-10.058
▁arab	-10.0582
šev	-10.0584
▁dolžina	-10.0586
▁novem	-10.0593
▁richard	-10.0595
nis	-10.0606
din	-10.0607
elj	-10.0608
▁javno	-10.0614
58"	-10.0622
с	-10.0622
▁zgodovine	-10.0623
maj	-10.0623
▁mnoge	-10.0625
69"	-10.0625
▁ir	-10.0631
▁zajema	-10.0633
▁dia	-10.0635
04"	-10.0635
art	-10.0637
70"	-10.0638
▁fil	-10.0641
ral	-10.0649
ros	-10.0655
▁dvoj	-10.0655
▁nastop	-10.0661
▁letalo	-10.0663
▁jeziki	-10.0665
▁vladar	-10.0665
▁vrsti	-10.067
▁naravnih	-10.0671
▁kraji	-10.0675
σ	-10.0678
▁splošni	-10.0678
▁drug	-10.0681
▁stopnje	-10.0681
▁sal	-10.0684
▁louis	-10.0684
▁dvakrat	-10.0685
▁postali	-10.0687
▁manjša	-10.0688
▁noben	-10.0701
▁martin	-10.0701
▁400	-10.0709
200	-10.0711
▁2012	-10.0712
26"	-10.0713
mil	-10.0721
2,	-10.0724
▁višje	-10.073
of	-10.0733
▁ple	-10.0734
▁for	-10.0735
="8	-10.0736
▁nagrade	-10.0737
lak	-10.0741
▁račun	-10.0744
▁slabo	-10.0751
▁tor	-10.076
ičnih	-10.076
▁posebni	-10.0761
▁spodnji	-10.0761
▁potres	-10.0767
▁zdrav	-10.0767
▁predstav	-10.0771
▁kg	-10.0771
irajo	-10.0779
▁izvoz	-10.0779
▁odstrani	-10.0794
▁omenja	-10.0795
▁zračne	-10.0796
06"	-10.0796
ct	-10.0796
▁pravico	-10.0799
▁največjih	-10.0803
▁osvojil	-10.0805
▁47	-10.0811
gle	-10.0812
zar	-10.0815
▁rimljani	-10.0817
▁rojen	-10.0817
▁napis	-10.0821
▁razdeljena	-10.0821
▁dogovor	-10.0833
▁gri	-10.0836
▁zemlja	-10.0841
sal	-10.0845
▁glasba	-10.085
▁zahodne	-10.0854
▁skal	-10.0855
▁premagal	-10.0856
▁živ	-10.0857
▁veku	-10.0859
▁knjig	-10.0867
▁prišla	-10.0874
▁gradnjo	-10.0875
▁protestant	-10.0877
▁(2	-10.0878
tok	-10.0881
▁osnovne	-10.0882
▁električne	-10.0883
ag	-10.0885
con	-10.0886
▁lev	-10.0889
ograf	-10.0892
ls	-10.0895
▁prestol	-10.0899
▁vojvod	-10.0902
▁posvečen	-10.0902
▁kam	-10.0904
▁grb	-10.0905
▁ch	-10.0907
▁ustanovili	-10.0908
▁vzhodne	-10.0913
▁cr	-10.0917
▁39	-10.092
▁vojski	-10.0921
▁tre	-10.0923
▁plasti	-10.0924
▁predstavnik	-10.0925
arna	-10.0927
▁posameznih	-10.093
▁1920	-10.0932
nec	-10.0934
▁magnet	-10.0934
▁stik	-10.0937
▁ustreza	-10.0938
ns	-10.0938
▁korak	-10.0939
▁mesecev	-10.094
▁44	-10.095
▁bri	-10.095
gg	-10.0955
▁meh	-10.0955
vet	-10.0956
už	-10.0958
▁prišli	-10.0959
▁počasi	-10.096
▁vso	-10.0963
▁načelo	-10.0964
eva	-10.0966
rad	-10.0967
▁pomena	-10.097
▁reko	-10.0971
="7	-10.0973
▁knjiga	-10.0977
▁redko	-10.0977
rož	-10.0978
▁foto	-10.0981
08"	-10.0984
nija	-10.0994
▁kolo	-10.1
è	-10.101
▁neznan	-10.1011
line	-10.1015
▁1997	-10.1017
▁sovjetska	-10.1018
▁domov	-10.1021
▁sodobne	-10.1021
▁pridobil	-10.1023
▁podal	-10.1027
bro	-10.1029
sr	-10.1033
▁pristop	-10.1036
iš	-10.1037
▁hčer	-10.1039
▁objavljen	-10.1044
▁postopoma	-10.1044
▁povzroča	-10.1051
tvijo	-10.1056
▁naslednik	-10.1056
▁mono	-10.1057
▁mars	-10.1059
škem	-10.1068
▁lep	-10.107
nejši	-10.1073
▁oznaka	-10.1076
▁vlado	-10.1082
ovim	-10.109
▁virov	-10.109
dža	-10.1098
▁(3	-10.1099
▁prihod	-10.1101
▁zgornji	-10.1102
▁odpravil	-10.1103
▁različni	-10.1109
▁dolina	-10.1109
▁gostota	-10.111
▁zgradili	-10.1115
▁predel	-10.1115
▁daje	-10.1116
rna	-10.112
▁doma	-10.1126
▁period	-10.1127
▁sčasoma	-10.113
odice	-10.1131
▁ohranja	-10.1138
▁gal	-10.1149
▁ladij	-10.115
▁evropskih	-10.115
ović	-10.1158
leg	-10.1159
arni	-10.1161
▁1995	-10.1161
ele	-10.1164
glej	-10.1166
▁stalno	-10.1167
▁drugače	-10.1172
▁nadomestil	-10.1174
▁jedrski	-10.1177
▁wi	-10.1182
▁nasprotju	-10.1189
▁diplomiral	-10.119
▁zapleten	-10.119
▁povezan	-10.119
▁slov	-10.1191
▁njegovim	-10.1194
gal	-10.1195
▁poklic	-10.12
▁opisan	-10.1206
▁andrej	-10.1211
▁odvisno	-10.1218
▁col	-10.1221
ung	-10.1225
▁nastaja	-10.1234
rot	-10.1237
tet	-10.1238
▁osnovnih	-10.1246
▁podjetje	-10.1247
▁dolžino	-10.125
▁glasbene	-10.1254
dil	-10.1256
com	-10.1256
▁vsega	-10.1261
▁stara	-10.1263
▁stre	-10.1269
▁vladavine	-10.1276
▁boril	-10.1278
lah	-10.1278
mal	-10.1282
ny	-10.1283
▁cl	-10.1285
▁odsek	-10.129
▁19	-10.1292
nike	-10.1295
▁ljudske	-10.1306
aciji	-10.1307
ljive	-10.1308
▁raket	-10.1309
▁zadnjem	-10.1314
▁interes	-10.1314
▁koli	-10.1318
▁informacij	-10.1319
▁karel	-10.1321
▁kristal	-10.1326
▁dokazal	-10.1331
▁cezar	-10.1332
▁narod	-10.1332
▁brigad	-10.1334
т	-10.1335
▁vplivom	-10.1338
sek	-10.1338
▁vladal	-10.1345
▁met	-10.1352
▁zračno	-10.1355
▁regionaln	-10.1365
▁dokončno	-10.1365
▁obale	-10.1365
▁nadmorsk	-10.1365
▁kitajski	-10.1366
▁možno	-10.1379
▁gregor	-10.1383
▁obaln	-10.1383
▁carl	-10.1383
▁potez	-10.1384
▁družin	-10.1394
1"	-10.1394
▁zgodovinsko	-10.1394
▁1993	-10.1395
▁1940	-10.1396
▁milan	-10.1396
▁določena	-10.1404
▁46	-10.1415
▁desetletja	-10.1424
▁videl	-10.1425
▁eksploziv	-10.1428
rek	-10.1429
▁2013	-10.143
500	-10.143
▁es	-10.143
▁cerkvi	-10.1431
▁mala	-10.1432
▁rusija	-10.1436
▁kulturno	-10.1438
▁pojem	-10.1443
▁oblik	-10.1445
▁legend	-10.1445
▁zgrajena	-10.145
▁usmerjen	-10.1454
▁dar	-10.1456
▁sončev	-10.1465
▁točk	-10.1465
▁barv	-10.147
▁polju	-10.1478
ične	-10.1478
▁sodelovanje	-10.1484
▁sultan	-10.1484
▁stvari	-10.1486
▁albert	-10.149
▁uničen	-10.1493
▁skupni	-10.1497
▁stanja	-10.1499
▁poleti	-10.15
▁razlike	-10.15
▁god	-10.1506
▁vede	-10.151
▁toka	-10.1511
▁organiziran	-10.1511
▁sodišče	-10.1514
▁označen	-10.1514
▁posvetil	-10.1514
▁zanj	-10.1521
vladal	-10.1525
▁fl	-10.1528
▁rabi	-10.1532
▁wa	-10.1534
jeve	-10.1535
▁delitev	-10.1537
▁metal	-10.1539
▁bl	-10.1541
ár	-10.1543
▁henry	-10.1544
▁železa	-10.1545
lé	-10.1548
▁lenin	-10.1552
▁silo	-10.1557
naj	-10.1558
▁legi	-10.1559
▁dosegla	-10.1571
▁zakona	-10.1575
▁1989	-10.1575
▁italijanske	-10.1577
▁južnem	-10.1578
tično	-10.1578
▁koloni	-10.1584
▁tiste	-10.1589
▁puščav	-10.1594
▁določeno	-10.1598
▁asi	-10.1599
▁nekdanje	-10.1599
nce	-10.1601
▁razdeljen	-10.1604
▁lik	-10.1605
▁različna	-10.1605
▁stratešk	-10.1605
▁končala	-10.1605
▁rock	-10.1605
gla	-10.1609
▁doline	-10.161
▁režim	-10.1617
▁georg	-10.1619
▁političnih	-10.1621
▁ostalo	-10.1621
plo	-10.1627
▁osebno	-10.1628
iki	-10.1628
▁niz	-10.1628
▁loči	-10.163
▁podatki	-10.1634
▁koncept	-10.1635
▁orkester	-10.1635
▁nobelov	-10.1635
▁okolje	-10.1636
▁spadajo	-10.1637
▁članov	-10.1639
▁52	-10.1645
▁vplival	-10.1646
jsko	-10.165
izacija	-10.165
▁mejo	-10.1654
▁han	-10.1662
▁izgubil	-10.1664
▁kratica	-10.1665
▁daljnogled	-10.1666
▁razvili	-10.1673
▁namene	-10.1674
▁rud	-10.1675
port	-10.168
▁napetost	-10.1684
▁naslovom	-10.1686
▁mur	-10.1687
▁koren	-10.1694
▁podjetja	-10.1696
▁zrcal	-10.1697
▁1939	-10.1698
▁naredil	-10.1701
▁dolga	-10.1702
▁zevs	-10.1703
stal	-10.1703
▁glasbenik	-10.1707
▁stanju	-10.1708
▁sklad	-10.1712
▁az	-10.1715
pat	-10.1722
▁vzdolž	-10.1727
▁očeta	-10.1729
▁nekoč	-10.1731
▁zadnja	-10.1732
▁minut	-10.1732
▁zgodovinar	-10.1733
rsko	-10.1734
eči	-10.1742
▁zakoni	-10.1743
▁nesreč	-10.1744
idov	-10.1749
▁gospodarske	-10.1751
▁najpomembnejši	-10.1757
▁desetletje	-10.1758
▁signal	-10.1758
▁41	-10.1759
zen	-10.1759
▁izbruh	-10.1762
▁liberal	-10.1765
kraj	-10.1776
arno	-10.1777
▁utr	-10.1784
stru	-10.1784
▁povzročil	-10.1785
▁industrija	-10.1788
▁ohranjen	-10.179
▁članica	-10.179
poli	-10.1792
dne	-10.1797
meri	-10.18
▁sprememba	-10.1803
▁francoske	-10.1804
▁voljo	-10.1805
▁rastline	-10.1813
▁lepo	-10.1813
▁male	-10.1816
▁island	-10.1821
▁slab	-10.1822
▁kip	-10.1822
▁64	-10.1822
▁tistem	-10.1824
▁besedilo	-10.1825
lci	-10.1829
rus	-10.1829
▁kisik	-10.1835
▁sledil	-10.1842
▁dežel	-10.1842
▁razlika	-10.1845
▁višine	-10.185
▁ran	-10.1852
▁ugotovil	-10.1856
▁alkohol	-10.1858
▁vojaki	-10.186
bru	-10.1864
▁pravic	-10.1867
▁kislina	-10.1868
▁55	-10.1869
▁naloge	-10.1869
▁polmer	-10.187
▁navaja	-10.187
▁pisateljev	-10.1876
▁besedil	-10.1877
▁mnenju	-10.1882
▁dvanajst	-10.1882
▁prihaja	-10.1882
ther	-10.1883
],	-10.1885
▁dobili	-10.189
▁plat	-10.1891
▁ep	-10.1892
▁ang	-10.1893
▁rimu	-10.1896
▁trst	-10.1898
ljivost	-10.1903
▁površina	-10.1905
nič	-10.191
▁močne	-10.1911
▁bat	-10.1913
biti	-10.1914
▁il	-10.1915
des	-10.1916
▁kriv	-10.1916
▁posamezne	-10.193
polni	-10.1933
▁domneva	-10.1937
▁križarsk	-10.1938
▁narodne	-10.1945
▁1970	-10.1946
▁bele	-10.1949
znan	-10.1951
▁sektor	-10.1952
ičen	-10.1953
▁kisline	-10.1955
▁znaša	-10.1961
▁hrib	-10.1964
▁form	-10.1965
▁dunaj	-10.1966
▁ukrep	-10.1976
▁predstavil	-10.1976
lica	-10.1976
▁1980	-10.1977
▁lokalni	-10.1978
▁stopnja	-10.1978
▁kla	-10.1987
žev	-10.1994
▁prispeval	-10.2001
▁ču	-10.2005
▁žar	-10.2006
▁mitologiji	-10.2007
▁počasnejšem	-10.2007
▁metoda	-10.2007
▁48	-10.201
▁značilnost	-10.2012
▁fizike	-10.2019
▁številom	-10.2023
▁mont	-10.2029
drž	-10.2031
▁uporabnik	-10.2035
slovan	-10.2036
šič	-10.2042
gan	-10.2043
▁celice	-10.2045
nskem	-10.2049
▁zagotavlja	-10.205
▁podpisal	-10.2053
▁mis	-10.2054
▁preprost	-10.2055
nko	-10.2057
nca	-10.2058
istične	-10.2066
▁nemčije	-10.2071
▁ameriki	-10.2071
▁posnet	-10.2071
▁uvedel	-10.2072
dro	-10.2074
▁francije	-10.2076
ljivo	-10.2079
▁lokalne	-10.2083
▁led	-10.209
▁narašča	-10.2092
▁poraz	-10.2097
▁temperaturo	-10.2097
▁(16	-10.2098
▁plast	-10.2101
▁hrane	-10.2104
▁belo	-10.2107
▁sur	-10.2114
▁imperija	-10.2116
vrst	-10.2117
▁grki	-10.2119
▁starosti	-10.2119
▁kras	-10.2122
dc	-10.2123
gel	-10.2124
▁egiptu	-10.2133
▁mel	-10.2137
▁dele	-10.2139
ria	-10.2142
hard	-10.2144
pin	-10.215
izmom	-10.2152
*	-10.2155
ation	-10.2155
▁ug	-10.2157
▁splošne	-10.2161
▁rusko	-10.2165
ling	-10.2166
tski	-10.2167
▁polkov	-10.2168
▁razmere	-10.2171
▁omenjen	-10.2171
▁desni	-10.2171
▁zadnje	-10.2176
▁mikro	-10.218
bin	-10.2183
istov	-10.2183
▁vodni	-10.2185
▁funkcijo	-10.2188
čič	-10.2191
well	-10.2193
▁poseben	-10.2199
▁španski	-10.22
00"	-10.2202
mc	-10.2203
▁proizvodnja	-10.2203
ologije	-10.2203
▁jeseni	-10.2204
rg	-10.2212
▁črne	-10.2213
▁stavb	-10.2214
▁razdelil	-10.2215
▁berlin	-10.2222
▁ure	-10.2223
▁arheološk	-10.2231
▁barva	-10.2232
vol	-10.2235
▁trdil	-10.2235
▁2014	-10.2237
▁johann	-10.2243
▁fiziki	-10.2244
▁struktur	-10.2245
▁zlati	-10.2248
▁površini	-10.2252
morf	-10.2258
▁gen	-10.2262
▁friedrich	-10.2263
▁tradicionalno	-10.2263
▁kopenske	-10.2265
▁rusiji	-10.2268
▁knjigo	-10.2268
inski	-10.2269
▁življenjsk	-10.227
▁oba	-10.2274
▁cev	-10.2281
▁študent	-10.2283
▁proizvod	-10.2283
cher	-10.2284
som	-10.2286
čeva	-10.2288
▁zahtev	-10.2292
▁mrk	-10.2294
▁časopis	-10.2296
▁višini	-10.2296
▁premik	-10.2304
▁sr	-10.2304
▁notranji	-10.2305
▁sprememb	-10.2306
▁naravne	-10.2308
▁nastali	-10.2314
▁visokih	-10.2315
berg	-10.2316
bon	-10.2319
ys	-10.232
▁toliko	-10.2329
▁narejen	-10.2329
▁1996	-10.233
▁london	-10.233
▁1950	-10.233
trop	-10.2333
▁omejen	-10.2336
▁moj	-10.2339
rac	-10.2344
▁evropsk	-10.2347
▁miru	-10.2347
▁politika	-10.2348
▁priznan	-10.2349
▁"(	-10.235
▁ženska	-10.2355
▁značiln	-10.2356
▁geografija	-10.2364
▁avto	-10.2367
ens	-10.2367
ela	-10.2376
▁pasu	-10.2377
▁avtocest	-10.2394
▁rodu	-10.2397
▁potrebe	-10.24
▁klasični	-10.2408
lek	-10.241
▁vrhu	-10.2417
▁odkritje	-10.2418
▁razglasil	-10.2421
▁zmago	-10.2426
▁akademiji	-10.2427
▁razlikujejo	-10.2428
novi	-10.2429
▁azije	-10.2431
▁zgodnjih	-10.2438
▁hidro	-10.2439
▁zahteval	-10.2439
▁voz	-10.2443
▁rez	-10.2449
▁našel	-10.2451
▁koordinat	-10.2452
▁pripadniki	-10.2454
▁severna	-10.2458
▁nemčijo	-10.246
▁podatke	-10.246
▁središča	-10.246
▁obseg	-10.2461
▁vietnam	-10.2462
▁sever	-10.2462
▁imenovane	-10.2463
▁britanske	-10.2473
enje	-10.2474
▁značilno	-10.2475
▁izven	-10.2479
▁latinske	-10.2481
▁250	-10.2485
▁društva	-10.2493
▁najstarejši	-10.2497
▁turizem	-10.2497
▁obrat	-10.2498
5"	-10.2501
▁rog	-10.2501
jevanje	-10.2505
▁kult	-10.2506
▁ceste	-10.2508
ep	-10.251
▁rus	-10.2515
▁uvršča	-10.2517
for	-10.2519
boj	-10.2521
ovec	-10.2525
ν	-10.2526
▁ljudstva	-10.2526
▁srebra	-10.2526
▁rdeči	-10.2526
▁vesolja	-10.2526
zel	-10.2529
в	-10.2529
▁potok	-10.253
▁enkrat	-10.2534
▁ubil	-10.2535
▁can	-10.2537
qui	-10.2537
mba	-10.2539
▁lune	-10.2543
▁dunaju	-10.2546
▁sveto	-10.2548
▁boju	-10.2548
▁namenom	-10.2551
▁mr	-10.2552
▁angleško	-10.2553
▁razlaga	-10.2554
▁nemških	-10.2556
▁mestni	-10.2559
280	-10.256
▁1948	-10.256
▁pojavljajo	-10.2563
danes	-10.2565
▁pripeljal	-10.257
▁plinov	-10.2574
istično	-10.2577
▁londonu	-10.2578
eli	-10.2584
▁lokacij	-10.2585
▁otokov	-10.2589
tih	-10.2591
▁nacionalni	-10.2592
▁akademije	-10.2593
▁medsebojn	-10.2593
▁bolezen	-10.2593
▁društvo	-10.2593
▁kitajsko	-10.2593
▁galaksij	-10.2593
▁vzpon	-10.2593
▁trikotnik	-10.2594
▁bronast	-10.2594
▁plod	-10.2595
▁2,	-10.2601
▁nosi	-10.2606
tus	-10.2614
▁ameriških	-10.2617
jak	-10.2617
▁izvajal	-10.2624
cy	-10.2626
▁izdelavo	-10.2626
▁oblak	-10.2627
▁jožef	-10.2629
▁posledično	-10.2633
jevega	-10.2636
▁kratko	-10.264
▁starega	-10.264
▁alban	-10.2641
▁vprašanje	-10.2643
izacije	-10.2644
▁mot	-10.2648
▁62	-10.2649
▁jug	-10.265
▁imenovano	-10.2655
▁nekatera	-10.266
▁osnovno	-10.266
▁osnovna	-10.266
▁49	-10.266
▁priznal	-10.2663
▁zračni	-10.2665
▁temelj	-10.2665
▁nosilcev	-10.2665
lni	-10.2666
▁finančn	-10.2672
▁nas	-10.2674
▁metod	-10.2678
anski	-10.2679
▁vstopil	-10.268
kategorija	-10.2683
▁severnem	-10.2684
▁operacija	-10.2685
ncev	-10.2686
▁vsaki	-10.269
▁ded	-10.2693
▁dediščine	-10.2694
▁operacije	-10.2694
▁egipta	-10.2695
▁1946	-10.2695
▁tukaj	-10.2695
▁jurij	-10.2697
erjev	-10.2699
sod	-10.2704
jskega	-10.2705
▁bomb	-10.2708
,6	-10.2708
sled	-10.2712
duš	-10.2712
▁jezer	-10.2718
▁širi	-10.272
gl	-10.2724
100	-10.2724
glo	-10.2731
stop	-10.2732
▁got	-10.2743
▁semen	-10.275
▁premer	-10.2755
nejše	-10.276
▁podobna	-10.2762
_3	-10.2762
▁1919	-10.2763
ologijo	-10.2766
▁vele	-10.2767
haj	-10.2767
zov	-10.277
▁sol	-10.2771
gh	-10.2775
▁reakcija	-10.2776
▁skrb	-10.2777
▁grško	-10.2778
▁jedra	-10.2782
▁žensk	-10.2791
▁povprečna	-10.2796
▁ostanki	-10.2796
▁ustvarjal	-10.2796
▁partizan	-10.2797
rje	-10.2798
▁pretežn	-10.2799
▁kulturo	-10.2801
▁(»	-10.2801
▁starejši	-10.2803
▁pit	-10.2804
▁čim	-10.2806
▁podpiral	-10.2808
▁kovine	-10.2812
▁klasične	-10.2815
▁irak	-10.2818
rich	-10.2819
▁slikar	-10.2819
taj	-10.282
▁morske	-10.2821
bili	-10.2821
▁okolici	-10.2823
▁vhod	-10.2824
ρ	-10.283
▁aj	-10.2833
niku	-10.2836
▁pritok	-10.2839
▁sinov	-10.284
illa	-10.2841
tne	-10.2846
▁naveden	-10.2847
▁uporabljen	-10.2847
▁hans	-10.2854
▁zgodnji	-10.2855
▁56	-10.2857
▁kritik	-10.2858
dy	-10.2862
▁republiko	-10.2864
▁afrike	-10.2864
▁avstrijski	-10.2864
čan	-10.2865
▁zadeve	-10.2867
▁železo	-10.2875
▁obroč	-10.2876
▁dolge	-10.2877
▁zapisan	-10.2879
▁datum	-10.2879
▁sestavi	-10.288
▁dalj	-10.2886
lus	-10.2893
▁150	-10.2893
▁zanimiv	-10.2897
▁volitvah	-10.2899
▁1930	-10.2901
▁cesarstvu	-10.2901
ljan	-10.2909
ón	-10.2912
▁skrbi	-10.2919
▁zvok	-10.2928
▁časom	-10.2928
car	-10.2929
▁cesta	-10.293
▁gledal	-10.2939
▁imenu	-10.2939
tura	-10.2939
▁kraju	-10.294
stro	-10.2942
▁54	-10.2946
▁visoki	-10.2947
▁strun	-10.2949
tak	-10.2949
▁njenega	-10.295
▁nacional	-10.2951
dži	-10.2952
reza	-10.2952
▁ban	-10.2952
▁neke	-10.2965
ré	-10.2967
▁ljubezen	-10.2968
▁nasledil	-10.2968
inja	-10.2971
▁observatorij	-10.2972
▁port	-10.2973
▁temperaturi	-10.2977
▁štab	-10.299
▁veka	-10.2991
▁oseba	-10.2992
]],	-10.2992
▁poimenovanja	-10.2992
▁zamisli	-10.3
▁bistveno	-10.3001
▁praktično	-10.3003
▁vladimir	-10.3004
▁žena	-10.3006
čnega	-10.3006
▁ša	-10.3008
▁menil	-10.3008
▁plač	-10.3012
skrb	-10.3013
▁vsemi	-10.3014
▁delujejo	-10.3015
▁merjenje	-10.3017
sion	-10.3019
ima	-10.3023
top	-10.3024
▁ut	-10.3025
▁konča	-10.3035
oč	-10.3035
istični	-10.304
▁bojni	-10.3041
▁kisika	-10.3042
▁vključujejo	-10.3043
▁praviloma	-10.3044
▁meta	-10.3045
▁osebnosti	-10.3046
▁imenovana	-10.3052
▁pripadnik	-10.3052
▁znanost	-10.3053
rom	-10.3053
▁prepričan	-10.3054
▁bru	-10.3055
▁celic	-10.3058
lf	-10.3065
letni	-10.3066
▁kole	-10.3069
dej	-10.3073
▁višino	-10.3073
▁uvedb	-10.3073
▁robu	-10.3075
▁wales	-10.3077
ula	-10.3077
▁metode	-10.3078
▁splošnem	-10.3079
▁tovor	-10.3098
stavljen	-10.3106
▁jože	-10.3106
▁družini	-10.3107
▁krščanski	-10.3108
▁mili	-10.3109
▁prosto	-10.3113
',	-10.3122
▁ruske	-10.3123
▁dobo	-10.3125
▁okus	-10.3127
▁indija	-10.3127
nka	-10.3128
▁francosko	-10.3129
▁ram	-10.3129
▁določen	-10.3132
atom	-10.3135
▁neodvisno	-10.3137
▁vulkan	-10.3139
▁zgolj	-10.3144
▁samoglasnik	-10.3144
▁edward	-10.3144
▁ustanovitelj	-10.3144
▁josip	-10.3144
▁nemška	-10.3144
▁široko	-10.3145
▁graf	-10.3146
▁državna	-10.3156
▁južna	-10.3157
▁službo	-10.3158
▁ugled	-10.3161
▁vezan	-10.3162
▁gli	-10.3162
▁razteza	-10.3162
▁točno	-10.3165
▁letno	-10.3168
tru	-10.317
▁predstavljal	-10.3172
▁dis	-10.3174
zelen	-10.3176
uri	-10.3176
▁majhna	-10.318
▁global	-10.318
▁nastopil	-10.318
▁linij	-10.3181
▁mandat	-10.3181
▁toplote	-10.3181
▁razpad	-10.3183
▁starih	-10.3184
čnik	-10.3196
ces	-10.3198
▁znova	-10.3199
▁nastale	-10.3201
bija	-10.3202
jena	-10.3204
▁ig	-10.3207
lnik	-10.3207
cin	-10.3209
▁količino	-10.3212
▁črno	-10.3214
▁molekule	-10.3214
▁napisan	-10.3217
janje	-10.3217
hel	-10.3219
▁oklep	-10.3222
▁politik	-10.3222
▁umetni	-10.3225
▁domače	-10.3226
eder	-10.3231
▁nastalo	-10.3235
▁61	-10.3237
▁planetov	-10.324
▁sprejema	-10.3243
štvo	-10.3244
ež	-10.3246
▁tj	-10.3246
▁lastno	-10.3246
▁mednarodna	-10.325
▁upravno	-10.3251
zda	-10.3261
▁rimske	-10.3261
▁šteje	-10.3262
▁wil	-10.3265
▁kv	-10.3265
▁prava	-10.3266
burg	-10.327
▁petih	-10.3271
ona	-10.3271
▁72	-10.328
▁sar	-10.3282
▁komunikacij	-10.3286
▁priložnost	-10.3286
▁spremenljivk	-10.3286
▁verske	-10.3287
▁radi	-10.329
▁radio	-10.329
▁današnji	-10.3306
▁omogočil	-10.3309
jenja	-10.3312
kat	-10.3314
stran	-10.3317
▁konflikt	-10.3322
▁koeficient	-10.3322
▁tiska	-10.3323
▁uporabljati	-10.3326
stein	-10.3328
▁dirk	-10.3329
▁francijo	-10.3331
▁zgodovinski	-10.3332
▁mednarodnih	-10.3333
ves	-10.3335
▁kali	-10.3336
▁zgodnje	-10.3338
lina	-10.3339
▁ustanovitvi	-10.3341
▁osebe	-10.3342
-3	-10.3346
▁ustava	-10.3358
▁ustanov	-10.3367
▁šp	-10.3368
▁pripravljen	-10.3372
čki	-10.3373
▁upravlja	-10.3374
▁duh	-10.3378
▁kav	-10.3378
▁ger	-10.3381
▁neu	-10.3382
▁zbir	-10.3385
eta	-10.3387
novo	-10.339
▁avtomobil	-10.339
▁izdaja	-10.3391
▁uničil	-10.3391
д	-10.3394
▁kitajska	-10.3395
▁anglija	-10.3395
▁kmetijstvo	-10.3396
▁unije	-10.341
▁sistemov	-10.3411
▁takšne	-10.3411
▁predor	-10.3413
▁peru	-10.3414
▁kongres	-10.3416
pust	-10.342
▁pomaga	-10.3421
▁zazna	-10.3427
▁odstotkov	-10.3431
šu	-10.3434
▁javne	-10.3435
▁preveč	-10.3441
▁načrtovan	-10.3451
hal	-10.3456
▁filip	-10.3457
▁želi	-10.346
▁jar	-10.3464
▁tuje	-10.3466
▁dirigent	-10.3467
▁zaporedje	-10.3467
▁optičn	-10.3468
▁upravni	-10.3469
▁latin	-10.3469
▁gozdovi	-10.3471
jk	-10.3474
ds	-10.3476
▁ex	-10.3479
▁podobni	-10.3482
▁not	-10.3486
fl	-10.3488
▁aten	-10.3489
▁sub	-10.3492
arjev	-10.3492
čr	-10.35
▁kandidat	-10.3504
▁žrtev	-10.3504
▁1917	-10.3506
▁lis	-10.351
▁zbral	-10.3511
▁središču	-10.3516
▁plošča	-10.3519
▁hiše	-10.3519
▁neza	-10.352
▁pristanišče	-10.3524
▁ptic	-10.3531
jeno	-10.3537
▁organizacij	-10.3539
▁posnel	-10.3541
▁1921	-10.3542
▁glavo	-10.3545
▁2015	-10.3549
▁velikem	-10.3553
kli	-10.3554
oz	-10.3556
mak	-10.3557
rojen	-10.3558
▁izraža	-10.3559
irati	-10.3561
▁ved	-10.3563
▁madžarske	-10.3565
▁cas	-10.3568
▁požar	-10.3572
▁začele	-10.3576
▁izobraževanje	-10.3578
▁nazadnje	-10.3578
▁območij	-10.3578
▁okolja	-10.3579
▁najpomembnejših	-10.3579
▁1955	-10.3579
▁kopensk	-10.3579
▁postavili	-10.3582
▁izvedel	-10.3585
▁povezane	-10.3585
▁pokrajina	-10.3586
nikom	-10.3591
▁geo	-10.3593
▁povezani	-10.3597
▁dovoljen	-10.3608
▁dreves	-10.3611
▁kombinacij	-10.3612
▁vseboval	-10.3615
okoli	-10.3622
▁vod	-10.3625
▁·	-10.363
▁sredini	-10.3631
dina	-10.3637
▁živeli	-10.3641
▁savi	-10.3642
▁ion	-10.3644
fil	-10.3645
▁hiša	-10.365
▁trak	-10.365
▁občasno	-10.3652
▁1952	-10.3652
leta	-10.3667
teh	-10.3668
▁znanstvene	-10.3669
▁spojin	-10.367
las	-10.367
▁organiziral	-10.3674
▁kra	-10.3676
▁plemen	-10.3677
▁dobimo	-10.3678
▁domači	-10.3679
▁elektronov	-10.3679
ford	-10.368
▁znanje	-10.3683
▁četrt	-10.3689
▁ptolemaj	-10.3689
▁soglasnik	-10.3691
▁nista	-10.3693
▁javnosti	-10.3693
▁gorenj	-10.3697
iranja	-10.3698
▁edino	-10.3699
▁pretok	-10.3703
ravna	-10.3704
▁vsakem	-10.3705
▁kup	-10.3705
▁gospod	-10.3705
iški	-10.3709
kre	-10.3711
▁demo	-10.3711
▁satelit	-10.3712
▁učinkovit	-10.3713
▁črk	-10.3715
▁tretje	-10.3717
▁upad	-10.3721
▁razvijal	-10.3725
▁tuji	-10.3726
▁usod	-10.3726
▁glo	-10.3726
▁leon	-10.3727
ljivi	-10.3735
▁spominja	-10.3735
iško	-10.3736
▁pravila	-10.374
▁57	-10.3744
▁majhnih	-10.3744
▁preprosto	-10.3746
ijev	-10.3746
▁doda	-10.3753
▁dinastija	-10.3755
▁uran	-10.3758
mel	-10.3759
▁službe	-10.3761
▁nadaljuje	-10.3764
▁bdp	-10.3765
ller	-10.3766
▁deloma	-10.3774
▁spremenil	-10.3775
▁wh	-10.3775
▁državno	-10.3777
▁združil	-10.3777
▁zgodil	-10.378
▁opravi	-10.3782
▁velikokrat	-10.3787
▁opera	-10.3792
▁državami	-10.3799
▁trž	-10.3801
▁razprav	-10.3801
▁zaščito	-10.3802
▁sredstvo	-10.3802
▁kemijski	-10.3803
▁japonski	-10.3803
▁ustanovitev	-10.3804
▁zmagal	-10.3804
▁družino	-10.3808
▁pijač	-10.3812
▁vrhov	-10.3813
▁stalni	-10.3813
▁umaknil	-10.3816
▁pokopan	-10.3816
vanjem	-10.3818
▁ps	-10.3818
centr	-10.3818
▁zgradba	-10.3819
▁znanstveniki	-10.3819
rik	-10.3819
ljiva	-10.382
rji	-10.3829
erja	-10.3829
▁nanj	-10.3834
▁tehničn	-10.3835
▁valovn	-10.3836
▁proton	-10.3838
▁pik	-10.3838
ljeni	-10.3838
▁ferdinand	-10.384
▁notranjosti	-10.3847
▁področjih	-10.3852
):	-10.3853
▁faraon	-10.3853
▁posest	-10.3853
▁gib	-10.3855
▁državljansk	-10.3856
▁august	-10.3861
▁ah	-10.3864
rl	-10.3876
▁srebro	-10.3878
▁mogel	-10.388
▁wilhelm	-10.3885
▁nekdanji	-10.3885
▁fiziko	-10.3887
▁generala	-10.3887
▁imele	-10.3891
▁majhno	-10.3895
▁nahajajo	-10.3896
▁petra	-10.3896
▁znanstveno	-10.3896
▁središč	-10.3897
skemu	-10.3904
▁sloj	-10.3905
▁pokrajine	-10.3913
▁58	-10.3914
▁najvišja	-10.3916
▁opremljen	-10.3916
▁integral	-10.3916
▁najnižj	-10.3916
▁ureditev	-10.3917
▁znaka	-10.3917
▁atomov	-10.3919
▁66	-10.392
▁gozdov	-10.3921
irali	-10.3921
▁svoja	-10.3925
▁občino	-10.3926
▁evropsko	-10.3926
▁gospodarski	-10.3932
▁tempelj	-10.3936
bat	-10.394
▁lastne	-10.394
▁slike	-10.3941
▁vozil	-10.3948
▁definira	-10.3949
▁mestna	-10.3949
▁najpomembnejše	-10.3954
▁upodobljen	-10.3954
▁obrambe	-10.3954
▁kuhinj	-10.3955
▁imenovani	-10.3958
▁nimajo	-10.3962
▁maš	-10.3964
stre	-10.3965
▁spi	-10.3965
▁alp	-10.397
▁globok	-10.3974
tol	-10.3976
ong	-10.3981
ern	-10.3982
▁najti	-10.3988
▁ogrožen	-10.3993
▁nadškof	-10.3993
▁naročil	-10.3993
▁gospodarstva	-10.3994
▁1914	-10.3994
▁vstop	-10.4001
▁uni	-10.4003
▁napoved	-10.4005
▁kategorij	-10.4006
▁mestno	-10.4006
▁vero	-10.4006
▁pogon	-10.401
▁53	-10.4013
▁čaj	-10.4013
rak	-10.4015
▁izkazal	-10.4019
▁uveljavil	-10.4022
reš	-10.4025
▁peš	-10.4029
enci	-10.403
▁hladne	-10.4032
▁1938	-10.4033
fin	-10.4034
▁prestolnica	-10.4035
▁zagotovil	-10.4037
ub	-10.4038
▁tabel	-10.4038
▁madžarska	-10.4038
krit	-10.404
▁različice	-10.4041
▁pesnikov	-10.4044
▁pritisk	-10.4048
▁kulturni	-10.4049
▁globoko	-10.405
▁rimskem	-10.4053
▁aleksandr	-10.4057
cke	-10.4062
hen	-10.4065
▁najpogosteje	-10.407
▁pogodbo	-10.4072
▁popolno	-10.4072
▁besedo	-10.4077
▁zid	-10.4081
▁rešil	-10.4082
▁rusije	-10.4082
▁voditelj	-10.4084
▁zdi	-10.4085
▁zavzel	-10.4089
▁dolgi	-10.4092
▁fran	-10.4101
▁zgrajen	-10.4102
▁tistega	-10.4106
▁visok	-10.4107
ε	-10.4109
▁izračun	-10.4115
▁imata	-10.4115
▁krst	-10.4115
▁morala	-10.4119
▁živo	-10.4128
mag	-10.4128
▁upošteva	-10.413
ogen	-10.4132
▁arabske	-10.4137
izacijo	-10.4141
▁dodatno	-10.4143
▁kratic	-10.4143
▁enačbo	-10.4145
ence	-10.4148
▁dejstvo	-10.4148
▁kraljevi	-10.4149
by	-10.4149
▁gru	-10.4154
pir	-10.4154
▁polj	-10.4155
ian	-10.416
▁toku	-10.4162
▁dokaj	-10.4163
▁črna	-10.4174
▁urad	-10.4175
▁naprav	-10.4177
▁ledeni	-10.418
zdrav	-10.4182
▁skladb	-10.4184
▁vodikov	-10.4185
▁potreb	-10.4188
▁1949	-10.4189
kova	-10.4191
▁vozila	-10.4192
▁vzhod	-10.4193
▁63	-10.4194
▁nasprotnik	-10.4195
4)	-10.4197
iran	-10.4197
▁sliko	-10.4198
▁konj	-10.42
▁vprašanja	-10.4205
▁mes	-10.4211
ovci	-10.4217
▁76	-10.4221
▁trgu	-10.4221
▁sledila	-10.4225
▁jeruzalem	-10.4227
▁ljudski	-10.4227
irana	-10.4229
rok	-10.4229
zni	-10.4229
▁izračuna	-10.4234
cor	-10.4237
▁regija	-10.4239
▁mirovn	-10.4239
▁tla	-10.424
▁tik	-10.4243
▁pripada	-10.4246
jš	-10.4248
▁post	-10.4251
▁vodik	-10.4251
▁69	-10.4252
▁napetosti	-10.4253
▁električnega	-10.4255
tha	-10.4256
▁gledališče	-10.4256
▁1967	-10.4268
▁madžar	-10.4276
▁zbirka	-10.4278
▁nje	-10.4279
tvah	-10.4285
▁glej	-10.4291
▁zgodovinske	-10.4292
▁ph	-10.4295
▁mestnih	-10.4299
▁enake	-10.4301
raj	-10.4303
▁konstant	-10.4305
▁epi	-10.4305
kcija	-10.4305
▁ljudstvo	-10.4306
▁preimenoval	-10.4306
bla	-10.4307
▁provinc	-10.4311
▁rudnik	-10.4317
▁iskal	-10.4324
▁struktura	-10.4327
form	-10.4327
▁prinesl	-10.4329
▁him	-10.433
▁državljan	-10.4331
▁etničn	-10.4333
▁uporabljala	-10.4334
▁zase	-10.4335
▁74	-10.4335
▁poznem	-10.4338
▁jama	-10.4341
▁protest	-10.4342
▁eksplozij	-10.4346
▁obdržal	-10.4346
▁okrožje	-10.4346
▁1963	-10.4348
▁resnici	-10.4348
▁potoval	-10.4351
▁oži	-10.4352
▁nacističn	-10.4354
▁gosto	-10.4355
▁mari	-10.4355
▁misel	-10.4357
▁pel	-10.4358
▁fr	-10.4365
sse	-10.437
▁italijansko	-10.4373
ture	-10.4376
▁test	-10.4378
▁kakšn	-10.4378
sav	-10.4383
▁rokopis	-10.4387
▁žival	-10.4387
▁izvora	-10.4393
▁celotni	-10.4393
▁spodnje	-10.4403
▁zakonom	-10.4403
▁matematiko	-10.4404
kel	-10.4406
▁jordan	-10.4407
▁milijoni	-10.441
irani	-10.4411
cht	-10.4417
zem	-10.4424
▁najvišje	-10.4426
▁korist	-10.4426
▁zahod	-10.4427
▁slednji	-10.4429
▁filozofije	-10.4433
▁znakov	-10.4434
▁rasti	-10.4438
▁boris	-10.4438
▁istem	-10.4444
▁im	-10.4446
▁ideje	-10.4448
▁nauk	-10.445
▁pojavila	-10.445
ure	-10.4459
dis	-10.4462
▁veter	-10.4462
▁posebna	-10.4466
▁kraljestvu	-10.4466
▁značaj	-10.4466
▁blok	-10.4467
▁svetlobo	-10.4468
▁dol	-10.447
dno	-10.4471
▁raven	-10.4474
▁mesecih	-10.4478
ovski	-10.4483
▁samega	-10.4483
▁flo	-10.4483
▁jla	-10.4484
▁atomi	-10.449
▁prelom	-10.449
▁armade	-10.449
▁arm	-10.4493
▁pomenu	-10.4493
jet	-10.4498
▁prednost	-10.4498
▁prevzela	-10.4502
▁politike	-10.4505
▁obraz	-10.4505
▁zraku	-10.4506
▁moderne	-10.4508
')	-10.4511
▁elektrarn	-10.4511
▁2016	-10.4511
▁nav	-10.4512
▁encim	-10.4513
▁očetov	-10.4514
▁lege	-10.4522
▁elektron	-10.4525
▁las	-10.453
▁ujet	-10.453
▁množice	-10.4533
tj	-10.4535
▁social	-10.4542
mas	-10.4543
▁potovanje	-10.4544
▁prikazan	-10.4545
▁električno	-10.4548
▁vzpostavi	-10.4553
▁napoleon	-10.4554
▁slovencev	-10.4556
▁pogovor	-10.4559
▁bela	-10.4559
orja	-10.4564
▁verz	-10.4574
▁poimenovali	-10.4575
lij	-10.4575
▁pravilno	-10.4579
▁kamnin	-10.4587
▁zvon	-10.4588
▁okrožja	-10.4588
▁industrije	-10.4588
▁meščan	-10.4589
▁1979	-10.4589
▁1922	-10.4589
▁pomočnik	-10.4592
▁sovjetsko	-10.4592
▁stekla	-10.4593
▁gla	-10.4596
klo	-10.4596
anjem	-10.4599
▁otroke	-10.4601
lav	-10.4606
▁pridobiva	-10.4608
▁prvak	-10.461
ola	-10.4614
▁armad	-10.4616
lice	-10.4622
▁heroj	-10.4623
ništva	-10.4626
▁srebrn	-10.4627
▁(15	-10.4628
▁sodi	-10.4629
▁sovražnik	-10.4629
ô	-10.4629
▁ustavo	-10.4629
▁stopnjo	-10.463
gram	-10.463
▁privedl	-10.4635
iii	-10.4637
▁henrik	-10.4642
▁dežela	-10.4646
▁milijon	-10.4651
▁običaj	-10.4653
▁pierre	-10.4654
▁naloga	-10.4655
▁javni	-10.4657
čje	-10.4658
▁tv	-10.4662
▁tujih	-10.4665
▁nemškega	-10.4666
▁marin	-10.4667
▁dvajset	-10.4668
▁premeščen	-10.467
▁sklenil	-10.467
▁sredstva	-10.467
▁pisava	-10.4671
▁1929	-10.4672
▁1961	-10.4672
▁različno	-10.4672
cije	-10.4677
▁pir	-10.4677
▁vojn	-10.4681
glavnega	-10.4683
cijski	-10.4692
▁komunist	-10.4696
▁razširi	-10.4699
▁izročil	-10.4712
▁dolarjev	-10.4712
▁tomaž	-10.4713
▁spe	-10.4713
▁potekala	-10.4716
▁kipar	-10.4716
▁dviga	-10.4717
niti	-10.4717
▁prenaša	-10.4717
▁napovedal	-10.4721
▁križa	-10.4728
▁51	-10.4729
hr	-10.4738
▁baza	-10.4742
л	-10.4742
▁roko	-10.4745
evanje	-10.4748
▁napada	-10.4749
▁friderik	-10.4753
▁revolucije	-10.4753
▁lennon	-10.4753
▁naselij	-10.4754
▁redno	-10.4755
▁statistične	-10.4756
cho	-10.4756
▁pravni	-10.4757
▁največkrat	-10.4757
jna	-10.476
▁točko	-10.476
▁2017	-10.4761
▁reakcije	-10.4761
nin	-10.4764
reg	-10.4764
▁washington	-10.4767
▁sloven	-10.4768
▁elektronski	-10.4768
▁astronomije	-10.4771
▁opravlja	-10.4773
▁gradnja	-10.4773
▁vpad	-10.478
▁gleda	-10.478
▁nizko	-10.4783
▁vid	-10.4788
▁far	-10.4789
kur	-10.4791
▁končni	-10.4793
▁ameriška	-10.4795
▁udeležil	-10.4795
▁angliji	-10.4795
▁redu	-10.4796
▁kovina	-10.4797
▁mak	-10.4798
▁sprejeli	-10.4808
("	-10.4811
▁un	-10.4814
▁odprti	-10.4818
▁tistih	-10.4818
ril	-10.4833
niške	-10.4834
▁dioniz	-10.4835
▁služi	-10.4837
▁sigismund	-10.4837
▁opreme	-10.4837
▁ponuja	-10.4838
▁politična	-10.4838
▁1958	-10.4839
▁prispel	-10.4839
▁uporabljamo	-10.4844
▁govoril	-10.4844
▁filmu	-10.4847
▁partizansk	-10.4848
▁poljska	-10.4848
▁polotok	-10.4849
▁plemena	-10.4852
niško	-10.4853
▁moških	-10.4853
▁prikazuje	-10.4857
▁cevi	-10.4868
ccc	-10.4869
▁gv	-10.4875
▁vere	-10.4875
▁cerkva	-10.4879
▁rudolf	-10.4879
ust	-10.488
▁1968	-10.488
▁1975	-10.488
▁1900	-10.4881
▁2018	-10.4885
▁breg	-10.4887
▁kitajskem	-10.4891
▁lažje	-10.4893
▁vojaškega	-10.4895
▁rs	-10.4897
blo	-10.4901
▁77	-10.4903
▁mogoč	-10.4905
▁segajo	-10.4919
б	-10.4921
ι	-10.4921
▁nameščen	-10.4921
▁višina	-10.4921
▁vesolje	-10.4921
▁videti	-10.4922
▁1933	-10.4923
▁poveljnika	-10.4923
▁zemljevid	-10.4924
▁skušal	-10.4928
▁gost	-10.4929
▁močan	-10.4945
▁koliko	-10.4947
300	-10.495
▁german	-10.4952
▁hitrostjo	-10.4955
▁hitre	-10.4956
žno	-10.4957
▁visoka	-10.4957
▁ara	-10.4958
▁geograf	-10.4958
▁poljski	-10.4958
▁arhitekture	-10.4964
▁volitve	-10.4966
▁internet	-10.4966
▁nafte	-10.4967
▁ščit	-10.4967
ante	-10.4967
▁imp	-10.4975
▁poljsko	-10.4975
ville	-10.4977
▁ptič	-10.4981
▁povezava	-10.4983
▁delavsk	-10.4987
▁glasbi	-10.4989
▁srečanj	-10.499
olo	-10.4991
▁temeljil	-10.4991
▁modro	-10.4998
▁istočasno	-10.5006
▁glagol	-10.5006
▁katalog	-10.5007
▁1969	-10.5007
▁chi	-10.5014
▁junak	-10.5014
zira	-10.5014
naša	-10.5022
sloven	-10.5026
▁meč	-10.5027
▁vodne	-10.5029
▁68	-10.503
ise	-10.5031
▁kas	-10.5032
primer	-10.5034
▁osebni	-10.5035
čenje	-10.5036
▁vladi	-10.504
▁kad	-10.5046
▁120	-10.5048
▁abraham	-10.5049
▁disciplin	-10.5049
▁starost	-10.5049
▁1953	-10.5049
▁zrn	-10.5051
▁mere	-10.5052
▁japonska	-10.5052
-18	-10.5054
▁kovinski	-10.5054
▁gostoto	-10.5054
itvijo	-10.5062
▁rdeča	-10.5063
▁družbo	-10.5071
ografija	-10.5072
▁glasbil	-10.5075
▁province	-10.5077
▁majhni	-10.5078
▁tang	-10.5084
▁izum	-10.5085
-6	-10.5086
col	-10.5091
▁hrvaški	-10.5092
▁otroci	-10.5092
="22	-10.5093
▁gospodar	-10.5095
▁koncil	-10.5095
▁viktor	-10.5096
▁kamor	-10.5098
▁medij	-10.5099
▁izotop	-10.5099
mus	-10.5099
▁oddaja	-10.5099
▁67	-10.5103
▁omogočajo	-10.511
▁gradu	-10.511
irano	-10.5111
pravi	-10.5114
cker	-10.5119
▁krajev	-10.5122
▁naravo	-10.5125
▁ženo	-10.5126
▁dosegli	-10.513
▁infrastruktur	-10.5135
▁krščanstvo	-10.5135
▁avstriji	-10.5135
ting	-10.5135
▁af	-10.5136
▁1974	-10.5136
▁nujno	-10.5136
▁spremlja	-10.5137
sv	-10.5138
▁čisto	-10.5138
▁oskrbo	-10.5139
▁mongoli	-10.5142
▁sekund	-10.5142
▁brata	-10.5143
▁konstrukcij	-10.5147
▁zvezne	-10.5147
▁latinski	-10.5149
▁največjo	-10.516
▁59	-10.5166
logi	-10.5169
ć	-10.517
▁blago	-10.5178
ciji	-10.5178
="31	-10.5182
▁povzročilo	-10.5188
▁arabski	-10.5193
▁800	-10.5195
▁rodila	-10.5201
▁marko	-10.5203
▁zgodba	-10.5205
alnega	-10.5209
čke	-10.521
▁pripadnikov	-10.5212
▁oblikovan	-10.5213
▁motiv	-10.5217
▁ludvik	-10.5221
▁uvrščen	-10.5221
▁najdaljš	-10.5221
slika	-10.5223
▁stil	-10.5228
čin	-10.5228
▁proizvodnje	-10.523
▁vrata	-10.523
▁sloves	-10.5232
▁označil	-10.5232
▁rjav	-10.5233
▁premika	-10.5237
joče	-10.5242
▁papeža	-10.5242
▁družbi	-10.5243
▁pada	-10.5245
▁pogoje	-10.5247
▁grških	-10.5248
▁redov	-10.5249
▁zgornje	-10.525
▁obema	-10.5252
▁odred	-10.5258
▁ostro	-10.5259
▁rož	-10.5261
mati	-10.5262
▁1947	-10.5266
▁sankt	-10.5268
▁slogu	-10.5269
▁zgradb	-10.527
angl	-10.5275
vci	-10.5277
▁fizikaln	-10.5278
▁prenese	-10.528
▁zgradbe	-10.5283
▁diplom	-10.5286
▁che	-10.5289
ld	-10.5291
rske	-10.5291
▁mejn	-10.5291
113	-10.5295
lija	-10.5298
jenju	-10.5298
▁či	-10.53
fizi	-10.5303
▁2020	-10.5304
▁vesoljsk	-10.5305
▁alfred	-10.5309
▁1964	-10.531
▁izveden	-10.531
▁hrano	-10.5311
▁straž	-10.5311
▁pen	-10.5311
▁pomoči	-10.5312
ković	-10.5319
rag	-10.5326
226	-10.5329
zakon	-10.5334
gur	-10.5337
ap	-10.5341
▁zgodbe	-10.5342
▁raziskovanje	-10.5344
▁kmet	-10.5344
▁ustavi	-10.5344
▁zaseda	-10.535
▁določenih	-10.5352
▁bližnji	-10.5353
▁pogreb	-10.5353
▁73	-10.5361
▁bazi	-10.5361
▁vera	-10.5363
▁obenem	-10.5366
▁pogodbe	-10.5369
▁est	-10.537
▁dejal	-10.5373
meter	-10.5374
ight	-10.5377
▁letališče	-10.5378
šnja	-10.5378
sc	-10.5381
▁zavezniki	-10.5381
iziral	-10.5392
▁deželo	-10.5393
▁bro	-10.5393
▁takšno	-10.5397
▁plemič	-10.54
list	-10.54
▁vzpostavil	-10.5401
▁osrednje	-10.5401
▁vzhoda	-10.5405
▁svetlobn	-10.5408
ium	-10.5415
▁hol	-10.5415
ál	-10.5418
▁pripoved	-10.5419
▁wal	-10.5423
▁delci	-10.5425
▁dolenj	-10.5427
▁črko	-10.5428
▁henri	-10.5433
▁sistemi	-10.5433
▁povečal	-10.5434
▁libanon	-10.5436
ans	-10.5438
▁pomenilo	-10.5438
▁ogljika	-10.5439
▁disk	-10.5439
▁srečal	-10.5439
▁abeceda	-10.544
klic	-10.5441
▁splošna	-10.5442
▁ekvator	-10.5442
▁takšna	-10.5442
▁govoreč	-10.5454
▁oklepno	-10.5457
ujoč	-10.5458
▁javnih	-10.5465
▁kub	-10.5465
▁študija	-10.5472
▁zgodovinskih	-10.5474
▁letom	-10.5475
▁učen	-10.5476
dovolj	-10.5478
▁polovico	-10.5486
▁vladavino	-10.5486
▁kardinal	-10.5487
▁podprl	-10.5487
zin	-10.5489
cus	-10.5495
▁nastanejo	-10.5496
▁časih	-10.5496
▁imeni	-10.5498
▁moderni	-10.55
▁veja	-10.55
▁mc	-10.5505
zan	-10.5507
▁fin	-10.5509
usa	-10.5511
▁zakonu	-10.5512
bs	-10.5516
▁vodika	-10.552
hot	-10.5525
▁okvir	-10.5527
▁dogodkov	-10.5531
▁poučeval	-10.5531
▁izključno	-10.5531
▁ladjo	-10.5533
vica	-10.5534
rva	-10.5537
▁2019	-10.5538
▁relativnosti	-10.5538
▁noči	-10.5541
vede	-10.5543
▁prevzeli	-10.5545
▁71	-10.5545
bas	-10.5555
▁človeške	-10.5556
▁nizki	-10.5557
dav	-10.5557
▁priključil	-10.5559
▁gibanju	-10.556
▁gradbeni	-10.5563
▁zapiše	-10.5566
sol	-10.5571
dija	-10.5574
▁začetni	-10.5577
▁jakob	-10.5579
▁180	-10.5579
▁temperaturn	-10.5582
rast	-10.5589
▁ledenik	-10.5589
▁lunin	-10.5591
▁dogaja	-10.5591
zne	-10.5592
zvezd	-10.5592
▁palača	-10.5595
▁apolon	-10.56
▁lib	-10.5601
ons	-10.5601
njak	-10.5615
▁črke	-10.5618
▁šahovski	-10.562
▁vodnik	-10.5621
▁nasprotno	-10.5621
▁programa	-10.5621
▁zločin	-10.5621
jpg	-10.5622
vest	-10.5622
▁nastanka	-10.5622
▁poseljen	-10.5622
▁razlogov	-10.5622
▁povezal	-10.5623
▁are	-10.5623
▁morski	-10.5624
▁stopinj	-10.5626
ult	-10.5636
▁oborožene	-10.5636
▁igralec	-10.5637
▁čete	-10.5638
▁rimska	-10.564
ring	-10.5644
▁vladanja	-10.5647
onov	-10.5647
▁ljubljanski	-10.5648
▁standardni	-10.565
my	-10.5662
▁današnjega	-10.5662
▁nasprotoval	-10.5667
▁sezoni	-10.5669
▁svetloba	-10.5669
▁princip	-10.5672
р	-10.5673
▁verski	-10.5674
▁novinar	-10.5678
▁fal	-10.5681
▁korpusa	-10.5683
▁reg	-10.5685
▁vzel	-10.5686
irane	-10.5692
▁izboljšal	-10.5695
▁marc	-10.5697
bog	-10.5698
nostjo	-10.5702
▁poročila	-10.5703
▁padalsk	-10.5704
▁krvi	-10.5708
▁mesti	-10.5711
last	-10.5712
▁jugoslaviji	-10.5713
fik	-10.5714
▁majhen	-10.5714
▁položaju	-10.5714
▁položaja	-10.5715
▁zgodnjem	-10.5718
▁zaključil	-10.5719
▁levo	-10.5719
▁prerok	-10.5724
▁bregu	-10.5726
▁indiji	-10.5726
▁hiš	-10.5727
▁azerbajdžan	-10.5729
led	-10.5735
-4	-10.5741
▁temelje	-10.5742
▁povzročila	-10.5742
▁parišk	-10.5742
▁piramid	-10.5744
▁tipičn	-10.5744
▁odziv	-10.5746
▁glava	-10.5747
▁sosed	-10.5747
ziji	-10.5749
▁tekočin	-10.5752
▁olimpij	-10.5753
▁600	-10.5754
ostjo	-10.5755
▁komponent	-10.5758
▁ljubezni	-10.5758
nz	-10.5758
▁zasedli	-10.5758
▁portugalske	-10.5761
▁njenem	-10.5761
▁roke	-10.5763
▁površinsk	-10.5765
▁natrijev	-10.5765
▁pokriva	-10.5766
čnost	-10.5766
▁postavlja	-10.5768
šin	-10.5772
▁uporabili	-10.5774
age	-10.5774
▁lega	-10.5777
▁zgodilo	-10.5781
▁rezervat	-10.5782
sor	-10.5786
ney	-10.5793
▁mac	-10.5794
▁ipd	-10.5795
▁verskih	-10.5795
▁cal	-10.5796
▁posledice	-10.5798
▁gos	-10.5798
▁jakost	-10.5799
▁pustil	-10.58
▁artilerijsk	-10.5804
▁krščanske	-10.5805
▁1972	-10.5806
▁sestava	-10.5806
▁1986	-10.5807
▁nižje	-10.5807
▁og	-10.5807
bes	-10.5811
▁najboljši	-10.5813
▁vesel	-10.5815
▁air	-10.5815
▁drži	-10.5822
▁centra	-10.5823
▁ele	-10.5825
▁potrebuje	-10.583
▁simon	-10.5831
anu	-10.5837
▁dobre	-10.5839
ccx	-10.584
kl	-10.584
▁bistven	-10.5841
zid	-10.5841
mol	-10.5842
▁hun	-10.5845
▁planeta	-10.5846
▁nalogo	-10.5846
▁ken	-10.5849
▁obalo	-10.585
▁priimek	-10.5851
▁pretvori	-10.5852
▁1936	-10.5852
▁takt	-10.5853
▁premier	-10.5853
▁"»	-10.5857
▁drag	-10.5857
▁skupn	-10.5862
rio	-10.5868
▁vietnamsk	-10.5869
▁trdo	-10.587
▁vsota	-10.5872
▁najde	-10.5877
▁france	-10.5878
▁prinaša	-10.5879
ín	-10.588
jših	-10.588
▁državnih	-10.5882
▁ukazal	-10.5885
▁polo	-10.5886
▁ol	-10.5888
▁primeri	-10.5888
▁zamenja	-10.5889
▁inštitut	-10.589
▁elemente	-10.5891
▁nobene	-10.5893
▁helikopter	-10.5894
▁nog	-10.5894
▁arhitektura	-10.5898
▁liber	-10.5902
inska	-10.5904
▁načela	-10.5915
▁enačb	-10.5916
got	-10.5916
ugh	-10.5918
▁sebi	-10.5922
dij	-10.5923
▁uvrstil	-10.5925
sten	-10.5929
▁polno	-10.5932
▁rak	-10.5932
▁šolanje	-10.5935
▁reaktor	-10.5938
▁nabor	-10.5939
▁predhodnik	-10.594
▁točki	-10.5941
tivni	-10.5941
▁pehote	-10.5944
▁perzijski	-10.5944
▁praksi	-10.5945
▁količin	-10.5945
ille	-10.5945
▁1965	-10.5945
▁1988	-10.5946
▁1956	-10.5946
▁rekord	-10.5946
▁bolgari	-10.5947
▁ohranil	-10.595
▁odprl	-10.595
▁slad	-10.595
▁helij	-10.5951
▁združeno	-10.5952
▁samomor	-10.5958
▁poljske	-10.5962
▁kraljeva	-10.5963
▁pridobi	-10.5963
nder	-10.5965
▁sprejeta	-10.5967
▁uč	-10.5967
▁japonske	-10.5967
eks	-10.5967
jočih	-10.5973
dre	-10.5975
▁bak	-10.5978
▁neskončno	-10.5979
▁problema	-10.5982
▁ozn	-10.5983
▁rimskih	-10.5985
bus	-10.5988
ijska	-10.5989
▁španiji	-10.5991
▁tretja	-10.5991
▁1962	-10.5992
▁1934	-10.5993
▁priznava	-10.5993
▁katera	-10.5995
▁definiran	-10.5998
▁izjav	-10.5999
▁bab	-10.5999
▁književnost	-10.6001
▁ponudil	-10.6005
▁grobnic	-10.6015
▁neko	-10.6016
▁delijo	-10.6019
▁preliv	-10.602
▁marx	-10.602
▁same	-10.6023
▁sodobnih	-10.6024
▁razvojem	-10.6027
▁premog	-10.6027
▁železnišk	-10.603
▁generalov	-10.6034
▁madžarski	-10.6035
▁soli	-10.6038
▁hrvaško	-10.6038
▁neposredni	-10.6038
▁pravzaprav	-10.6038
▁upravo	-10.6038
▁uprave	-10.6038
▁izšla	-10.6039
▁1973	-10.604
▁straneh	-10.6041
▁walter	-10.6041
▁videz	-10.6043
ljivih	-10.6045
▁javnost	-10.605
▁trajala	-10.6051
▁izkorišča	-10.6055
▁lastnik	-10.6055
▁com	-10.6061
rp	-10.6063
▁brigade	-10.6066
▁izrazito	-10.6072
cit	-10.6073
▁arhiv	-10.6074
rica	-10.6076
prem	-10.608
▁nobenega	-10.6081
▁izraza	-10.6081
▁kaz	-10.6082
▁praštevilo	-10.6082
▁dušik	-10.6083
ura	-10.6084
▁lasti	-10.6084
▁bolnišnic	-10.6086
▁spremenjen	-10.6086
▁udeležen	-10.6086
▁drago	-10.6086
▁saint	-10.6087
▁1935	-10.6087
vija	-10.6088
▁ciril	-10.6088
stev	-10.609
▁kraja	-10.6095
▁sestavljeno	-10.6098
▁petr	-10.61
▁cer	-10.61
▁izdan	-10.6107
▁glasbeno	-10.6109
▁giblje	-10.6112
franc	-10.6113
▁umor	-10.6115
avlja	-10.6115
▁samostojno	-10.6116
▁svetovnih	-10.6116
▁zemljišč	-10.6118
▁termo	-10.6119
▁črte	-10.612
▁sprejela	-10.612
obi	-10.6125
yer	-10.6133
▁hrvaška	-10.6133
▁povprečno	-10.6133
▁relief	-10.6133
▁avstrija	-10.6133
▁sad	-10.6134
▁znamk	-10.6134
▁dokazov	-10.6137
▁voliln	-10.6137
▁zanesljiv	-10.6138
▁prepovedan	-10.6138
▁sestavni	-10.6139
ér	-10.6142
▁bojne	-10.6146
▁nikolaj	-10.6147
ning	-10.6149
▁ogr	-10.615
▁mimo	-10.6152
π	-10.6153
▁polotoka	-10.6157
▁opus	-10.6158
▁večine	-10.6159
▁govorijo	-10.616
gue	-10.6161
onom	-10.6164
▁ross	-10.6167
▁naprave	-10.617
▁figur	-10.6173
▁tradicionalne	-10.6181
▁vrnitvi	-10.6181
▁vsebnost	-10.6182
▁1983	-10.6183
▁bral	-10.6184
▁nenehn	-10.6184
▁predstavniki	-10.6185
▁tovrstn	-10.6186
▁znamenitosti	-10.6187
▁beg	-10.619
▁poznali	-10.619
▁krono	-10.6197
▁olimpijski	-10.6198
čani	-10.6198
rid	-10.6201
▁dejavnik	-10.6202
▁ogljik	-10.6202
▁komunistične	-10.6202
jevi	-10.6204
▁prizadevanj	-10.6206
šnik	-10.6206
▁načelnik	-10.6207
▁hrvaške	-10.6208
isa	-10.6211
▁žive	-10.6212
file	-10.6212
kh	-10.6213
▁trup	-10.6216
ansko	-10.6218
▁mini	-10.6223
▁znanja	-10.6226
▁zgoraj	-10.6229
▁arthur	-10.6229
▁beljakovin	-10.6229
▁vojak	-10.6232
▁storil	-10.6233
н	-10.6233
,9	-10.6233
▁najverjetneje	-10.6234
▁idej	-10.624
▁zgodovinarji	-10.6241
▁prejšnjega	-10.6242
nejša	-10.6244
▁magnetno	-10.6255
▁ib	-10.6255
▁virus	-10.6258
_4	-10.626
arhi	-10.6261
igra	-10.6261
▁tehnike	-10.6268
▁odprt	-10.6268
▁povezavo	-10.6272
ach	-10.6273
▁trgov	-10.6274
tle	-10.6274
ruš	-10.6275
▁vključil	-10.6276
▁dogodek	-10.6277
▁naslednja	-10.6277
▁polovica	-10.6278
▁1928	-10.628
▁titan	-10.628
▁olj	-10.6281
▁fosil	-10.6283
▁jezus	-10.6283
▁klas	-10.6283
živi	-10.6285
▁vreme	-10.6286
▁mrež	-10.6288
▁luna	-10.6288
▁sestav	-10.6291
▁loka	-10.6291
▁stavbe	-10.6292
▁ostane	-10.6292
gro	-10.6294
▁izvajanje	-10.6296
bran	-10.6299
▁spremenila	-10.6302
▁razdalje	-10.6302
▁razum	-10.6304
▁tan	-10.631
▁fevdal	-10.6316
istična	-10.6317
▁spa	-10.632
fal	-10.6322
▁zavzema	-10.6322
▁nagrada	-10.6323
▁letališč	-10.6323
▁vzhodnem	-10.6323
▁pogoj	-10.6324
▁povprečju	-10.6326
▁človeško	-10.6326
▁žuželk	-10.6326
▁revolucijo	-10.6326
konjeniška	-10.6326
▁jugoslovanske	-10.6327
▁minister	-10.6327
▁pobegnil	-10.6328
▁vroči	-10.6328
▁civilizacij	-10.6332
▁opazil	-10.6335
▁bob	-10.6339
čko	-10.634
pog	-10.634
▁obsežne	-10.6341
▁ant	-10.6345
▁rusijo	-10.6348
▁adam	-10.6349
▁nacionalne	-10.635
▁sevanje	-10.635
▁podelil	-10.6356
▁marija	-10.6357
vre	-10.6359
▁hermann	-10.6363
▁vsakega	-10.6364
▁taborišč	-10.6366
▁celičn	-10.6367
rum	-10.637
gy	-10.6373
▁površje	-10.6375
▁prevladujoč	-10.6375
▁britanska	-10.6375
▁zgodaj	-10.6375
▁urednik	-10.6375
▁izgnan	-10.6375
▁zamisel	-10.6375
▁potreboval	-10.6375
▁trav	-10.6376
▁španske	-10.6378
▁podpis	-10.6381
▁pogoste	-10.6386
▁abu	-10.639
▁newton	-10.6396
▁jezikih	-10.6398
▁ustvarja	-10.6408
▁domini	-10.6411
к	-10.6415
▁žene	-10.6416
▁enaki	-10.6416
cs	-10.6422
uma	-10.6423
▁faza	-10.6424
▁angleščini	-10.6424
▁najpomembnejša	-10.6424
pozdravljen	-10.6424
▁mikroskop	-10.6424
▁vesolju	-10.6424
▁1957	-10.6425
▁pozimi	-10.6426
▁prosti	-10.6427
▁slovenci	-10.6434
▁članek	-10.6436
▁žveplov	-10.6439
▁dež	-10.6444
arski	-10.6445
▁predstavljen	-10.6446
občina	-10.6447
▁presega	-10.645
▁častni	-10.6453
▁pripravil	-10.6453
▁jurišn	-10.6455
▁end	-10.6468
sad	-10.6469
▁nevtr	-10.647
▁napade	-10.6472
▁zagreb	-10.6472
▁matematične	-10.6473
▁definicija	-10.6473
▁univerzitetn	-10.6473
▁kratek	-10.6476
▁tesno	-10.6477
cah	-10.6477
▁premo	-10.6483
▁rtv	-10.6483
kakor	-10.6486
▁metodo	-10.6494
▁povezano	-10.6495
magnet	-10.65
▁kart	-10.65
▁splet	-10.6501
▁znašal	-10.6505
▁spremljal	-10.6505
▁neodvisnosti	-10.6509
▁čisti	-10.651
▁potrebna	-10.651
▁valov	-10.6513
▁kmetij	-10.6514
ms	-10.6514
▁euler	-10.6514
▁generacij	-10.6516
▁armada	-10.6516
cv	-10.6517
▁opremo	-10.6523
▁protein	-10.6523
▁socialistične	-10.6523
▁1915	-10.6525
▁1981	-10.6525
mos	-10.6526
čkov	-10.6528
mr	-10.6528
far	-10.6528
▁karla	-10.6533
▁dioksid	-10.6534
▁egipčan	-10.6539
▁zahteve	-10.654
▁princ	-10.654
▁industrijski	-10.6544
▁oceana	-10.6544
▁baj	-10.6546
▁blo	-10.6552
▁ognje	-10.6556
▁pret	-10.6559
▁tlaka	-10.6562
▁pastir	-10.6562
▁−	-10.6563
račun	-10.6566
▁zahodnem	-10.6571
▁napredoval	-10.6572
▁upravne	-10.6573
▁partner	-10.6574
▁1923	-10.6574
▁1984	-10.6574
▁izgubljen	-10.6577
▁poskusi	-10.6577
▁vozilo	-10.6584
bir	-10.6587
bul	-10.6588
stati	-10.6589
▁menih	-10.6593
cci	-10.6594
ljene	-10.6595
▁slednje	-10.6597
▁indijski	-10.6597
▁povečalo	-10.6599
▁tekočine	-10.66
▁sledijo	-10.6601
▁max	-10.6604
▁plen	-10.6605
▁tremi	-10.6609
▁civil	-10.6609
▁(5	-10.661
▁vrhovni	-10.6615
▁duše	-10.6615
▁koder	-10.6617
▁mestom	-10.6618
▁pavel	-10.6621
▁umetniški	-10.6622
▁nastanku	-10.6622
▁uprava	-10.6623
▁portret	-10.6623
▁1916	-10.6624
▁boginja	-10.6624
▁1954	-10.6625
▁upora	-10.6627
▁letalstva	-10.6627
way	-10.6628
▁lesa	-10.6632
jevih	-10.6635
▁opazovanj	-10.6638
vič	-10.6639
▁kdaj	-10.6639
▁razširila	-10.6641
▁živelo	-10.6641
▁kristus	-10.6653
dia	-10.6654
▁veda	-10.6656
▁časti	-10.6657
▁nemir	-10.6661
▁opazovanja	-10.6665
▁»"	-10.6666
▁škr	-10.6666
▁indijske	-10.6667
▁delimo	-10.667
▁povišan	-10.6673
▁britansko	-10.6673
▁prisiljen	-10.6673
▁1971	-10.6674
▁hesse	-10.6676
▁vodila	-10.6679
▁zavod	-10.6679
▁igor	-10.6683
▁igri	-10.6685
▁reforme	-10.6686
▁celje	-10.669
▁umrla	-10.669
▁francis	-10.6691
pil	-10.6694
▁našega	-10.6695
▁svetovnega	-10.6697
▁vidi	-10.6698
▁železnice	-10.6699
▁pravica	-10.6699
▁hus	-10.6702
ogrske	-10.6705
▁jedrske	-10.6709
▁tradicionalni	-10.6711
▁zaposlen	-10.6711
▁strukturo	-10.6712
▁celica	-10.6715
▁skladišč	-10.6716
▁nastopa	-10.6718
▁značilne	-10.6718
▁preprečil	-10.6723
▁fakulteti	-10.6723
▁nizozemske	-10.6723
▁pušk	-10.6724
▁ustavil	-10.6726
▁raj	-10.6727
▁vidik	-10.6728
▁komun	-10.6729
▁nedavn	-10.6729
▁krožni	-10.6731
▁galen	-10.6735
▁peč	-10.6736
▁nepre	-10.6741
▁zgornjem	-10.6741
▁vključen	-10.6745
▁izšel	-10.6747
▁zajel	-10.675
▁materiala	-10.6752
-5	-10.6753
▁ledu	-10.676
▁fizikalne	-10.6769
▁ameriško	-10.6774
▁samostojni	-10.6775
sur	-10.6775
▁1910	-10.6777
▁skupne	-10.6779
▁trop	-10.678
▁hiper	-10.6785
anti	-10.6786
▁dosegl	-10.6788
▁poimenoval	-10.679
znanstveno	-10.68
▁take	-10.6808
▁prekop	-10.6809
ara	-10.6812
rstvo	-10.6813
▁ruskega	-10.6817
▁aleksandra	-10.6818
▁zvezni	-10.6821
▁nastajajo	-10.6822
▁najstarejše	-10.6825
▁dodeljen	-10.6825
▁namestnik	-10.6826
▁evropa	-10.6826
▁1966	-10.6826
▁atoma	-10.6826
▁zmaga	-10.6829
▁dneh	-10.6829
▁prenehal	-10.6829
▁ljub	-10.6831
ferenc	-10.6831
ključen	-10.6831
▁doživela	-10.6835
▁sklep	-10.6838
meta	-10.6838
▁elit	-10.684
▁fluor	-10.6841
▁šo	-10.6847
▁atp	-10.6848
▁delovala	-10.6852
▁senat	-10.6853
teče	-10.686
▁taborišča	-10.687
▁umetnik	-10.687
м	-10.6871
▁uveljavlja	-10.6876
▁predstojnik	-10.6876
▁štirje	-10.6876
▁ustave	-10.6877
▁sodobna	-10.6877
▁možgansk	-10.6877
▁formalno	-10.6878
▁1976	-10.6878
▁zmagoval	-10.688
▁1848	-10.6881
meš	-10.6882
▁ženski	-10.6883
▁dolino	-10.6884
▁ogled	-10.6885
▁prispeva	-10.6887
▁izbruhnil	-10.6887
▁ureja	-10.689
▁plaz	-10.6897
▁boljše	-10.6902
▁it	-10.6904
ičnega	-10.6909
sku	-10.6913
▁spominski	-10.6915
▁površin	-10.6917
▁elementa	-10.692
▁predela	-10.6923
▁vedel	-10.6926
▁podrejen	-10.6928
▁mariboru	-10.6929
▁1959	-10.693
rež	-10.6931
▁veljajo	-10.6931
▁tobak	-10.6934
▁west	-10.6937
inske	-10.6938
jati	-10.6941
▁prepoved	-10.6942
▁religij	-10.6942
▁tradicijo	-10.695
dl	-10.6956
▁poznal	-10.6959
▁guverner	-10.6961
!"	-10.6961
arje	-10.6962
latinsko	-10.6962
inu	-10.6964
marie	-10.6967
–18	-10.6968
▁oblek	-10.697
tte	-10.6972
yn	-10.6973
nus	-10.6974
▁nagrad	-10.6974
▁skup	-10.6976
▁tru	-10.6976
▁mostu	-10.6977
▁hudi	-10.6978
▁svojemu	-10.6978
▁ljudska	-10.6979
▁referendum	-10.6979
▁obnovljen	-10.6979
▁kemijske	-10.698
▁tkiv	-10.6981
▁policija	-10.6981
▁čoln	-10.6982
▁znamenit	-10.6982
▁posesti	-10.6983
▁zavarovan	-10.6984
▁topov	-10.6989
▁knjižnica	-10.6989
▁odboj	-10.699
▁velikim	-10.6992
▁dio	-10.6993
▁poveljstvom	-10.6996
▁prisotnost	-10.6999
▁fra	-10.7004
vajo	-10.7004
yl	-10.7004
▁izid	-10.7005
vita	-10.7012
▁papir	-10.7013
▁jekla	-10.7014
▁plošče	-10.7018
▁85	-10.7021
▁stalne	-10.7022
▁njemu	-10.7026
▁proizvajal	-10.7027
▁notranjost	-10.7028
▁trdijo	-10.7029
mur	-10.703
▁družbene	-10.703
tos	-10.7034
▁1937	-10.7034
▁polinom	-10.7037
▁delavcev	-10.7037
▁zob	-10.7042
▁priča	-10.7042
▁razpada	-10.7044
▁podpira	-10.7047
▁operacij	-10.7048
▁aero	-10.7051
▁številnim	-10.7052
té	-10.7053
lova	-10.7053
▁oblikovanje	-10.7053
▁bogovi	-10.7058
▁množi	-10.7061
bb	-10.7064
▁fre	-10.7065
cer	-10.7065
▁mik	-10.7068
mobil	-10.707
▁cap	-10.7071
-9	-10.7073
▁ugotovi	-10.7074
▁urada	-10.7076
▁izumil	-10.7077
lip	-10.7079
▁grafit	-10.708
▁kneževin	-10.7084
▁ljudsko	-10.7084
▁najzgodnejš	-10.7084
▁tehnološk	-10.7084
▁vene	-10.7085
▁prestolnico	-10.7086
▁kasnejše	-10.7087
▁pristal	-10.7088
▁kroni	-10.7089
▁odloči	-10.709
▁umrlo	-10.7091
▁vseeno	-10.7092
▁uradnik	-10.7094
▁člana	-10.7099
ire	-10.7101
field	-10.7104
irala	-10.7105
▁naravna	-10.7108
▁tujini	-10.7114
▁kak	-10.7115
▁direktor	-10.7118
▁sredine	-10.712
▁10.000	-10.712
▁diplomat	-10.7124
▁indije	-10.7129
▁norm	-10.7133
▁pomanjkanja	-10.7136
▁srednjeveški	-10.7137
▁komisar	-10.7137
▁doseči	-10.7137
▁olimp	-10.7139
▁nos	-10.7139
pes	-10.714
▁ohranila	-10.7146
ê	-10.7147
▁350	-10.7148
▁politiki	-10.7149
▁odpravi	-10.715
▁žensko	-10.7154
▁zemeljski	-10.7155
▁ločil	-10.7156
▁jur	-10.7159
▁pridobivanje	-10.7164
▁univerzo	-10.7164
▁razlag	-10.7164
▁napadel	-10.7165
evo	-10.7169
▁obstajala	-10.717
▁ljubi	-10.7173
tska	-10.7174
▁tankov	-10.7177
▁krep	-10.718
▁železnica	-10.7181
▁gram	-10.7183
▁žal	-10.7186
▁bibli	-10.7187
▁edinstven	-10.7189
▁industriji	-10.7189
▁ponavlja	-10.719
▁zvezna	-10.719
▁švica	-10.7191
▁lokalno	-10.7191
▁obnovi	-10.7194
▁učil	-10.7198
itz	-10.7201
▁zanimivo	-10.7202
lski	-10.7203
▁special	-10.7205
▁značilni	-10.7205
mé	-10.7207
▁akcij	-10.721
▁prihajal	-10.7216
▁poseg	-10.7217
▁izliva	-10.7217
▁hrani	-10.7221
▁omogočal	-10.7222
▁religija	-10.7225
▁naboja	-10.7226
ijsko	-10.7227
▁simboli	-10.7229
▁sevanja	-10.7235
▁postaje	-10.7236
▁sum	-10.7236
vala	-10.7239
▁večer	-10.724
▁šestih	-10.7241
▁(10	-10.7242
▁neptun	-10.7243
▁gustav	-10.7243
▁slovenščini	-10.7243
▁celi	-10.7244
▁izmenja	-10.7244
▁tleh	-10.7244
▁maršal	-10.7244
▁očitno	-10.7244
▁odprave	-10.7244
▁gradil	-10.7244
▁1951	-10.7244
žan	-10.7244
▁1987	-10.7245
vlada	-10.7248
▁organizira	-10.7249
▁prečka	-10.7251
▁matrik	-10.7251
▁objektov	-10.7252
▁dosega	-10.7252
▁odlikovan	-10.7255
▁poslali	-10.7256
én	-10.7256
▁poimenovanje	-10.726
▁tabor	-10.7263
▁proizvaja	-10.7265
▁pismo	-10.7266
▁organizacijo	-10.7267
▁verjel	-10.7267
vzhod	-10.7274
▁magnetn	-10.7274
tiral	-10.7279
▁nadaljnje	-10.7286
tho	-10.7287
▁neki	-10.7288
▁izgube	-10.729
▁emil	-10.7291
ijci	-10.7294
▁izvoli	-10.7294
▁dosežke	-10.7296
▁grčiji	-10.7296
▁kazahstan	-10.7296
▁učinek	-10.7296
▁svinec	-10.7296
▁nadomestn	-10.7296
▁navadni	-10.7297
▁nevtron	-10.7297
▁cikel	-10.7298
▁kač	-10.7298
▁sodnik	-10.7298
▁rima	-10.7299
▁podobo	-10.7299
grško	-10.7301
▁napadal	-10.7302
▁takšnih	-10.7304
▁popis	-10.7307
▁odstop	-10.7307
▁priznanje	-10.7309
▁1500	-10.7309
klop	-10.7315
non	-10.7319
vrže	-10.7319
▁pozornost	-10.732
▁kakovost	-10.7321
približ	-10.7323
▁izbral	-10.7324
▁vilin	-10.7325
▁prevladuje	-10.7327
▁hči	-10.7337
-7	-10.7345
zy	-10.7345
atlantsk	-10.7349
fra	-10.7349
▁afganistan	-10.735
▁situacij	-10.735
▁prehaja	-10.7351
▁kemik	-10.7351
▁populacij	-10.7352
▁1985	-10.7353
▁1927	-10.7353
▁spektraln	-10.7355
▁vloge	-10.7357
▁lan	-10.7357
▁cele	-10.7357
▁dnk	-10.7359
lp	-10.7362
▁vplivajo	-10.7363
▁sposobnosti	-10.7365
▁nadalje	-10.7367
▁izrazi	-10.7368
▁izstreli	-10.7368
▁fort	-10.7372
▁milijarde	-10.7374
▁pljuč	-10.7382
▁številka	-10.7383
▁izjemo	-10.7385
▁japonskem	-10.7385
brat	-10.7386
mont	-10.739
▁sedmih	-10.739
▁pisanje	-10.7394
▁prstan	-10.7395
▁takšni	-10.7396
▁sladkor	-10.7398
▁številke	-10.7399
gul	-10.74
▁železov	-10.74
dos	-10.7403
▁arnold	-10.7404
▁opredeljen	-10.7404
▁hiparh	-10.7404
▁orient	-10.7404
▁revolucija	-10.7404
▁smrtjo	-10.7406
▁podmornic	-10.7406
▁strank	-10.7408
▁indeks	-10.7409
▁moment	-10.7409
▁tolkien	-10.7412
lum	-10.7413
▁spozna	-10.7414
nad	-10.7415
▁osebnih	-10.7421
čiti	-10.7421
▁ideja	-10.7421
▁celoten	-10.7422
graf	-10.7425
▁franz	-10.7431
tske	-10.7432
▁povojn	-10.7433
▁naroda	-10.7434
▁klin	-10.7435
iste	-10.7435
hy	-10.7436
▁tetra	-10.7443
▁nadzorom	-10.7444
▁takratni	-10.7444
ranje	-10.7444
▁telesu	-10.7446
oza	-10.7448
▁obrt	-10.7448
▁oklepn	-10.7449
▁dogodki	-10.745
▁denarja	-10.745
▁osebnost	-10.7451
▁tehnologije	-10.7452
▁navdih	-10.7452
▁začasno	-10.7459
▁diagram	-10.7459
▁upravna	-10.7459
▁michel	-10.746
▁slabe	-10.7462
▁sebe	-10.7465
▁določi	-10.7466
▁dre	-10.7466
▁imeti	-10.7468
kril	-10.7468
rš	-10.7471
▁priljubljena	-10.7473
low	-10.7474
▁(14	-10.7476
dat	-10.7478
▁izgubila	-10.7479
▁kvadratnih	-10.7482
▁medved	-10.7484
meh	-10.7485
▁štaba	-10.7487
▁100.000	-10.7488
▁okras	-10.7496
▁los	-10.7497
▁verjetnost	-10.7498
▁naselili	-10.7502
▁mater	-10.7502
snov	-10.7502
▁zdravje	-10.7505
▁otroka	-10.7505
joči	-10.7505
manj	-10.7509
▁3,	-10.751
▁kvalitet	-10.7513
▁diferencialn	-10.7513
▁ponekod	-10.7513
▁sredstev	-10.7513
▁wagner	-10.7513
▁storitve	-10.7513
▁podnebn	-10.7513
▁računalniški	-10.7513
▁hišo	-10.7514
▁enajst	-10.7516
▁celotna	-10.7519
▁norman	-10.7521
▁gostil	-10.7527
▁%.	-10.7528
▁ofenziv	-10.7533
lka	-10.7534
▁eli	-10.7534
▁pogodba	-10.7536
▁turk	-10.7539
▁pomenov	-10.7541
▁vprašanj	-10.7541
ett	-10.7541
▁war	-10.7543
▁zakonov	-10.7546
▁tekoče	-10.7547
▁pokrajin	-10.7558
▁dober	-10.7559
▁helen	-10.756
▁95	-10.7567
▁najstarejša	-10.7568
▁jugovzhodu	-10.7568
▁postopki	-10.7568
▁preskus	-10.7568
▁železniški	-10.7569
▁gorica	-10.7569
▁1912	-10.757
▁proračun	-10.757
melj	-10.757
▁italijanska	-10.757
▁opere	-10.7571
laj	-10.7579
▁rolkar	-10.7583
▁zaplet	-10.7584
▁veljal	-10.7586
gos	-10.7591
▁sončni	-10.7591
▁kel	-10.7591
▁obsegu	-10.7597
▁ravna	-10.7599
▁vključeval	-10.7599
▁bran	-10.7607
▁obratno	-10.7609
▁razširjena	-10.7612
▁platon	-10.7613
▁pretekl	-10.7614
▁aktivno	-10.7615
▁navdušen	-10.7623
▁gnezd	-10.7623
▁enostavno	-10.7623
▁etimologija	-10.7624
▁konstantin	-10.7624
▁opustil	-10.7624
▁vplivala	-10.7626
▁tehnika	-10.7632
▁polotoku	-10.7635
▁steklo	-10.7636
▁zasnoval	-10.7637
▁iste	-10.7637
▁ub	-10.7642
tke	-10.7645
▁primerov	-10.7646
▁razpadu	-10.7647
▁zavzet	-10.7648
▁raje	-10.7649
tivno	-10.7651
▁madžarsko	-10.7651
▁bataljona	-10.7651
▁boji	-10.7652
▁filma	-10.7654
▁praštevil	-10.7654
voz	-10.7656
▁gradnje	-10.7657
▁črka	-10.7658
tvami	-10.7662
mond	-10.7662
inov	-10.7662
▁kralji	-10.7666
▁stopil	-10.7669
ogrska	-10.7672
▁izpostavljen	-10.7676
▁pakt	-10.7677
ø	-10.7679
▁michael	-10.7679
▁navzdol	-10.7679
▁avstrijo	-10.7679
▁edvard	-10.7679
▁anglijo	-10.7679
▁znanstvenih	-10.7679
▁okolju	-10.7679
▁policije	-10.768
▁postavi	-10.768
▁trgovine	-10.7681
▁pozno	-10.7684
▁grup	-10.7686
▁dejanj	-10.7688
▁hel	-10.7689
▁cene	-10.7698
▁množico	-10.7698
▁napadu	-10.7698
gol	-10.7699
▁zadeva	-10.77
▁gorska	-10.7704
▁iger	-10.7704
▁šu	-10.7705
▁amon	-10.7707
▁skrivnost	-10.7707
▁odnosi	-10.771
▁jak	-10.771
pas	-10.7711
▁milj	-10.7712
magnetnega	-10.7713
▁svete	-10.7714
▁konstante	-10.7717
▁problemov	-10.7718
▁parti	-10.7719
čila	-10.772
▁sodobno	-10.7721
▁spoznanj	-10.7725
ο	-10.7734
▁moramo	-10.7734
▁vzdrževanje	-10.7734
▁razcvet	-10.7735
▁osvajanj	-10.7735
▁ostanke	-10.7735
▁hidroksid	-10.7735
oksid	-10.7737
▁1925	-10.7737
▁simfonij	-10.7737
▁imamo	-10.7739
▁izrazit	-10.774
cel	-10.7742
▁abeced	-10.7743
▁prog	-10.7744
▁marinsk	-10.7744
▁porabi	-10.7744
čnosti	-10.7747
▁procesu	-10.7748
▁goro	-10.7751
▁ren	-10.7752
cm	-10.7756
▁vloga	-10.7759
▁marie	-10.7759
haus	-10.7761
▁rodov	-10.7762
▁gosti	-10.7769
vnost	-10.7769
▁morjem	-10.7769
▁hil	-10.7776
▁pogojih	-10.7776
▁sodelovala	-10.7777
eni	-10.7778
▁dejanje	-10.7778
▁bogato	-10.7783
▁severovzhodu	-10.7783
▁napadli	-10.7788
▁intelektual	-10.7791
▁doktoriral	-10.7791
▁kavkaz	-10.7791
▁sestavil	-10.7791
▁mnenja	-10.7791
▁bitko	-10.7791
kralj	-10.7792
▁galerij	-10.7795
▁faktor	-10.7795
▁rezerv	-10.7795
▁položaje	-10.7797
1,	-10.7799
▁načel	-10.781
▁barvi	-10.7814
▁bogati	-10.7814
žal	-10.782
▁sedanje	-10.7827
▁fon	-10.7828
▁radijski	-10.7828
▁riž	-10.7831
▁3000	-10.7832
▁virih	-10.7832
▁teb	-10.7838
jevanja	-10.7839
▁monarh	-10.7841
▁desetletjih	-10.7847
▁obrambni	-10.7847
▁rojstva	-10.7847
▁postopku	-10.7847
▁zdravljenje	-10.7848
▁rommel	-10.7848
▁portugalski	-10.7848
▁trgovino	-10.7848
▁1931	-10.7849
▁protokol	-10.7849
▁vpisal	-10.7849
▁odločitev	-10.7849
▁ločeni	-10.7852
▁materi	-10.7854
▁450	-10.7856
▁sorodnik	-10.7857
▁sredozemsk	-10.7857
▁prevladoval	-10.7858
▁molekula	-10.7861
kristjan	-10.7861
▁svež	-10.7865
▁prez	-10.7865
pisati	-10.7868
▁omogočila	-10.7868
▁organi	-10.7869
▁sara	-10.7878
thumb	-10.7879
▁balet	-10.7879
▁določeni	-10.7886
▁obljub	-10.7886
▁pogoji	-10.7887
▁odkritja	-10.7895
▁prebivalce	-10.7896
▁(4	-10.7899
▁zgodnj	-10.7899
nove	-10.7899
400	-10.7901
▁poštn	-10.7902
▁kamni	-10.7903
▁nizozemski	-10.7904
▁porazdelitev	-10.7904
▁združuje	-10.7904
▁samostojne	-10.7904
▁avtohton	-10.7904
▁datotek	-10.7904
▁laž	-10.7906
▁knjižni	-10.7907
▁1913	-10.7907
▁sled	-10.7908
▁sho	-10.7908
▁vek	-10.7908
džu	-10.7909
▁povečala	-10.791
▁francozi	-10.791
▁posebnost	-10.791
▁gospodarska	-10.7913
▁mez	-10.7914
▁zaščiten	-10.7914
▁socialni	-10.7914
▁razdalja	-10.792
▁oceanu	-10.7923
▁barvo	-10.7926
▁izhajal	-10.7929
▁zasluge	-10.793
ista	-10.793
▁predavanj	-10.7936
▁ustvarjanje	-10.794
all	-10.794
qu	-10.7941
▁kratki	-10.7941
▁skrbel	-10.7944
▁mladost	-10.7946
▁moške	-10.7946
▁turki	-10.7948
▁popoln	-10.7949
▁violin	-10.7949
nell	-10.7957
love	-10.7958
▁razglašen	-10.7961
grenadirsk	-10.7961
▁svinca	-10.7961
▁denimo	-10.7963
▁nekdanj	-10.7963
▁odhod	-10.7965
▁draž	-10.7966
▁toplota	-10.7968
▁hudo	-10.7971
▁vidimo	-10.7972
▁krajevni	-10.7979
▁predal	-10.798
▁zmanjšal	-10.798
▁samostojnost	-10.7982
▁analiza	-10.7984
mišl	-10.7984
▁dosti	-10.7984
xx	-10.7986
▁fri	-10.7989
▁dolžnost	-10.7989
▁nivo	-10.7995
▁izpod	-10.7998
▁podaja	-10.7999
▁kraljevine	-10.8001
▁prinesla	-10.8004
▁uro	-10.8006
▁železni	-10.8009
▁naše	-10.8011
▁pravimo	-10.8014
▁blaž	-10.8014
▁najboljše	-10.8015
▁pade	-10.8015
▁ozemelj	-10.8016
▁domač	-10.8016
▁poskuša	-10.8018
▁mussolini	-10.8019
▁svobode	-10.8019
▁okrepil	-10.8019
▁prevzem	-10.8019
▁pisave	-10.8019
▁valovanje	-10.8019
▁povečuje	-10.802
▁1932	-10.802
ital	-10.802
▁sedanji	-10.8021
▁centralne	-10.8022
▁1911	-10.8022
▁atentat	-10.8028
▁hipo	-10.8028
▁branil	-10.8029
▁vrne	-10.8031
zon	-10.8034
▁kosov	-10.8035
▁revolucionar	-10.8037
▁klo	-10.8039
▁parni	-10.8039
▁spodbuja	-10.8042
▁atene	-10.8046
▁narodi	-10.8048
▁predlaga	-10.805
div	-10.805
▁prod	-10.8051
▁spodnjem	-10.8052
▁baltsk	-10.8052
▁bližnjem	-10.8053
vse	-10.8058
▁merkur	-10.8059
▁pokop	-10.806
▁pojasnil	-10.8061
▁šahovsk	-10.8062
▁himna	-10.8063
▁sladkorn	-10.8064
▁italijanskih	-10.8065
heim	-10.8071
sy	-10.8071
▁padel	-10.8071
▁črnega	-10.8073
▁bistvu	-10.8074
▁moskovsk	-10.8077
▁zanimanje	-10.8077
▁začimb	-10.8077
▁pianist	-10.8078
▁aktivni	-10.8078
▁narodna	-10.8078
▁trgovina	-10.8079
▁dodatk	-10.8083
▁pehotne	-10.8085
▁galaksije	-10.8086
▁fant	-10.809
▁socialne	-10.8093
anda	-10.8094
▁ustvari	-10.8095
▁ustanovljeno	-10.8096
▁angel	-10.81
▁stavba	-10.8101
▁vokal	-10.8104
cr	-10.8104
afrišk	-10.8105
▁spodbudil	-10.8106
▁združi	-10.8107
▁egipčani	-10.8107
▁jezeru	-10.8108
▁formacij	-10.8111
▁sinus	-10.8111
▁moremo	-10.8111
▁hiši	-10.8113
▁pogostost	-10.8114
▁mino	-10.8118
▁kulturnih	-10.812
▁zvest	-10.8121
▁harmon	-10.8121
▁kril	-10.8122
izirana	-10.8123
▁računa	-10.8124
▁obala	-10.8126
▁filozofski	-10.8132
poslan	-10.8134
▁pare	-10.8134
▁absorbira	-10.8135
▁podjetij	-10.8135
▁spomladi	-10.8135
▁preučuje	-10.8135
▁portugalska	-10.8135
▁prvenstvo	-10.8135
▁lokalnih	-10.8135
▁francoska	-10.8135
▁uri	-10.8137
▁700	-10.8139
▁sklepa	-10.8139
▁dandanes	-10.8139
▁sprosti	-10.8142
▁delovne	-10.8142
▁land	-10.8142
▁rastlina	-10.8146
iranju	-10.815
▁obveščevaln	-10.8152
▁ločimo	-10.8152
▁fašističn	-10.8153
ür	-10.8156
▁strah	-10.8159
lacija	-10.8163
▁fronta	-10.8165
▁berlinu	-10.8168
ijskih	-10.8169
▁tim	-10.8169
ance	-10.8176
zahod	-10.8177
▁narodno	-10.8178
▁dodan	-10.8181
ert	-10.8181
▁desno	-10.8187
ljenje	-10.8188
▁vzor	-10.819
▁redkih	-10.8193
▁ekvador	-10.8193
▁funkcional	-10.8193
▁matematično	-10.8193
▁neodvisna	-10.8193
▁pedagog	-10.8193
▁poveljeval	-10.8193
▁ogromno	-10.8193
▁oznako	-10.8193
vice	-10.8193
▁lang	-10.8193
▁špansko	-10.8193
▁prizadel	-10.8194
▁vrhunec	-10.8194
▁severovzhod	-10.8194
▁zasede	-10.8197
▁zagovarjal	-10.82
▁gostote	-10.8202
▁življenjski	-10.8204
▁občinski	-10.821
▁pisma	-10.821
▁pop	-10.8212
▁inštrument	-10.8224
▁lovsko	-10.8227
rstva	-10.8227
▁čet	-10.8229
▁irske	-10.8229
▁naredi	-10.823
▁uradne	-10.823
▁pont	-10.8232
▁dolžini	-10.8232
joseph	-10.8235
▁sposobnost	-10.8236
▁kulturi	-10.8239
zz	-10.8239
▁univerz	-10.8241
▁vodilni	-10.8243
▁sun	-10.8244
▁obstoja	-10.8245
▁(12	-10.8245
▁main	-10.8247
chen	-10.8247
▁step	-10.8247
▁prikaz	-10.8249
▁alfa	-10.8251
▁sodelovanju	-10.8252
▁naselbin	-10.8252
▁švedske	-10.8252
▁prisilil	-10.8254
▁modul	-10.8254
▁1982	-10.8255
▁jajc	-10.8255
▁širjenje	-10.8256
▁pomorski	-10.8256
▁bizantinski	-10.8257
kcije	-10.8261
sedaj	-10.8261
tch	-10.8262
▁severozahodu	-10.8265
▁astronomske	-10.8266
▁pristanišč	-10.8266
▁kapi	-10.8266
▁ud	-10.827
▁najboljših	-10.8273
ky	-10.8274
xxx	-10.8279
▁azijo	-10.8281
tum	-10.8283
▁strupen	-10.8283
▁trdne	-10.8291
▁povečanje	-10.8292
▁plošči	-10.8294
row	-10.8294
▁kant	-10.8297
▁takih	-10.8297
▁smučar	-10.8298
▁naprava	-10.8299
pus	-10.83
čijo	-10.8303
nke	-10.8304
▁števili	-10.8304
▁književnosti	-10.8307
▁administrativn	-10.8311
▁španija	-10.8311
▁britanci	-10.8311
▁madrid	-10.8311
▁odloča	-10.8311
▁uveden	-10.8312
▁pobudo	-10.8312
▁zopet	-10.8312
▁krajih	-10.8314
▁uh	-10.8315
win	-10.8316
▁bes	-10.8317
▁2021	-10.8319
rusko	-10.832
šan	-10.8321
▁frankfurt	-10.8321
▁igro	-10.8324
▁plov	-10.8327
sz	-10.8327
▁interval	-10.833
latin	-10.8332
▁višj	-10.8334
žene	-10.8336
▁tradicije	-10.8341
▁dnu	-10.8343
gs	-10.8344
▁janeza	-10.8346
́	-10.8354
▁vlad	-10.8358
▁α	-10.8359
▁grškega	-10.8359
▁matematični	-10.8368
ł	-10.837
▁zavezniški	-10.8371
▁obzidje	-10.8371
▁odraža	-10.8371
▁zastava	-10.8372
▁kapitan	-10.8372
▁smith	-10.8375
▁pridruži	-10.8375
▁cesti	-10.8376
▁drevo	-10.8376
▁krajevn	-10.8382
▁akad	-10.8382
▁francoskih	-10.8382
▁političnega	-10.8382
▁vodenje	-10.8386
▁provinca	-10.8389
▁gon	-10.8391
▁sodišča	-10.8394
▁modre	-10.8394
▁čut	-10.8396
indi	-10.8397
išču	-10.84
energ	-10.8402
▁stop	-10.8405
ish	-10.8408
nila	-10.8408
▁obnovil	-10.8409
▁baz	-10.8413
▁vladarja	-10.8416
▁računal	-10.8416
vat	-10.842
dek	-10.8423
▁prizor	-10.8427
▁literarni	-10.843
▁obsežni	-10.843
▁spodaj	-10.843
▁telefon	-10.8431
▁ocenjen	-10.8431
▁tvorb	-10.8431
▁povabil	-10.8431
▁odcepi	-10.8431
▁simetrij	-10.8433
▁zaliva	-10.8434
▁1907	-10.8434
▁prizadeval	-10.8434
▁odprava	-10.8435
inter	-10.8435
▁kroga	-10.8435
▁zanimal	-10.8436
▁japonsko	-10.8437
nščina	-10.8438
tega	-10.844
▁slovani	-10.8448
▁obdan	-10.8452
▁otočje	-10.8453
▁grofij	-10.8453
kos	-10.8455
▁sreča	-10.8457
▁regij	-10.8458
▁razvija	-10.8463
▁dolžnosti	-10.8464
▁mostov	-10.847
▁znal	-10.8472
▁zahoda	-10.8474
deč	-10.8475
nas	-10.8476
▁hidr	-10.8479
vrat	-10.848
▁stez	-10.8481
▁samem	-10.8482
▁pričela	-10.8484
▁andre	-10.8484
▁360	-10.8487
▁anatol	-10.849
▁jugoslavijo	-10.8491
▁samostojna	-10.8491
▁atlantik	-10.8491
▁pehotna	-10.8491
▁stefan	-10.8491
▁izumrl	-10.8492
▁tja	-10.8492
▁mornariške	-10.8492
ravno	-10.8493
▁izstopa	-10.8494
▁1905	-10.8495
▁nadaljnji	-10.8497
▁predhodni	-10.8498
▁zbirko	-10.8499
▁zgodb	-10.85
▁urana	-10.8501
▁civilizacije	-10.8502
▁vsebin	-10.8502
ulo	-10.8502
▁enim	-10.8505
▁filozofijo	-10.8505
▁tekmovanj	-10.8506
▁gorivo	-10.8508
▁zlitin	-10.851
▁lir	-10.8513
nskim	-10.8518
varja	-10.8518
▁kapital	-10.8521
▁nogomet	-10.8524
▁veščin	-10.8525
▁slavo	-10.8531
▁sestavo	-10.8532
▁tovarn	-10.8532
▁črn	-10.8535
▁spremembo	-10.8537
iju	-10.8538
▁mlin	-10.8538
▁trga	-10.8546
▁človeški	-10.8549
▁algoritem	-10.8551
▁avstrijsko	-10.8551
▁pomanjkanje	-10.8551
▁katoliške	-10.8551
▁tisočletja	-10.8551
▁diamant	-10.8552
▁iskanje	-10.8553
▁vidne	-10.8553
▁1924	-10.8553
▁1926	-10.8554
▁božič	-10.8555
jevem	-10.8558
▁vodilo	-10.8564
▁očetu	-10.8564
▁odnose	-10.8567
right	-10.857
▁prešl	-10.8571
lut	-10.8575
▁trenutku	-10.8578
chel	-10.858
▁dokazi	-10.8581
▁prejela	-10.8582
▁potek	-10.8588
▁zmaj	-10.8591
▁pogost	-10.8592
▁dodatni	-10.8592
yr	-10.8593
ido	-10.8593
▁koncentracijsk	-10.8596
▁dvig	-10.86
▁družbeni	-10.86
▁king	-10.86
metra	-10.8601
feld	-10.8603
▁živega	-10.8605
▁razume	-10.8611
▁habsburžan	-10.8612
▁kapljevin	-10.8612
▁neodvisni	-10.8612
▁odpotoval	-10.8612
▁avstrije	-10.8612
▁heraklej	-10.8612
▁reagira	-10.8612
▁fronte	-10.8613
▁oprema	-10.8613
▁jugoslovanski	-10.8613
▁toploto	-10.8615
▁qu	-10.8618
▁predstavi	-10.862
▁greben	-10.8621
=4	-10.8622
▁ranjen	-10.8623
▁zaprl	-10.8624
▁polni	-10.8624
▁tokov	-10.8626
▁števk	-10.8627
ole	-10.8629
sco	-10.8629
▁partije	-10.8629
▁astronomi	-10.863
▁sovražnikov	-10.8632
▁geografske	-10.8634
▁goriva	-10.8635
▁lin	-10.8638
▁admiral	-10.8639
▁raziskovalci	-10.864
▁irska	-10.8641
▁starem	-10.8644
▁uspešni	-10.8653
▁teže	-10.8657
▁bogu	-10.8658
▁strog	-10.8659
louis	-10.866
▁—	-10.866
▁ulic	-10.8665
▁aktivnosti	-10.8667
vljen	-10.8668
▁protiletalsk	-10.8674
▁razporejen	-10.8674
▁španije	-10.8674
▁neviht	-10.8674
▁proto	-10.8675
▁1977	-10.8675
▁načrtoval	-10.8676
▁1978	-10.8676
▁1908	-10.8676
lub	-10.8682
▁utrdb	-10.8683
▁psiholog	-10.8685
▁znanstvenik	-10.8685
▁nizke	-10.869
▁znaki	-10.869
▁širil	-10.8695
▁230	-10.8697
▁sklada	-10.8697
▁sledili	-10.8698
štva	-10.8699
▁izjavil	-10.8699
nger	-10.8702
▁ležijo	-10.8704
▁potuje	-10.8705
▁stabilnost	-10.8706
▁dihal	-10.8707
▁zgrajene	-10.8707
tivna	-10.8707
▁porazu	-10.8711
▁oskar	-10.8715
▁popisu	-10.8718
▁magnetni	-10.8719
▁ili	-10.872
▁italijani	-10.8721
▁ruska	-10.8723
296	-10.8724
▁maria	-10.8726
▁kraljevina	-10.8727
▁vatikan	-10.8727
▁win	-10.8729
▁črta	-10.873
▁sekretar	-10.8735
▁jugoslavija	-10.8735
▁osončja	-10.8735
▁katoliški	-10.8735
▁predsednišk	-10.8735
▁patriarh	-10.8735
▁industrijo	-10.8735
▁templja	-10.8735
▁akademsk	-10.8737
onu	-10.8737
▁osnovo	-10.8738
▁wilson	-10.8738
▁camp	-10.8739
▁astronomski	-10.8739
▁manjšo	-10.8744
▁dodaja	-10.8746
▁mešani	-10.8747
▁izkoristil	-10.8747
asa	-10.8748
▁modri	-10.875
-20	-10.875
▁kampanj	-10.8752
▁last	-10.8753
▁pokrit	-10.8756
▁tehnik	-10.8756
...)	-10.8761
▁prepovedal	-10.8763
▁zeleni	-10.8765
▁bell	-10.8765
▁nebo	-10.8767
▁družbeno	-10.8768
tnik	-10.8769
▁omogočilo	-10.8771
▁komisija	-10.8771
▁uredil	-10.8778
▁78	-10.8779
▁sprejem	-10.878
vis	-10.8781
nacional	-10.8783
▁kamniti	-10.8787
▁tanki	-10.8788
▁dovolil	-10.8788
▁znanstveni	-10.8788
musliman	-10.8789
▁specializira	-10.8794
▁ljudmi	-10.8797
▁površja	-10.8797
▁mehanike	-10.8797
▁povezoval	-10.8797
▁organizmi	-10.8797
▁začetko	-10.8798
▁obrnjen	-10.8798
▁ernst	-10.8798
▁izražen	-10.8798
▁rešitve	-10.8798
▁zmagi	-10.8799
▁aristotel	-10.88
▁podeželsk	-10.8801
▁zbran	-10.8802
▁drama	-10.8803
▁lastnost	-10.8805
▁sledeč	-10.8805
▁zniža	-10.881
▁jadransk	-10.8813
▁baker	-10.8817
▁prem	-10.8823
▁had	-10.8824
▁učinkovito	-10.8827
▁zlom	-10.8828
▁pripadal	-10.883
▁tretjega	-10.8831
▁prvotni	-10.8835
▁britanskega	-10.8835
▁tlaku	-10.8837
▁sodeluje	-10.8837
▁državljanske	-10.8838
die	-10.8841
▁vdor	-10.8842
▁stric	-10.8843
μ	-10.8847
▁grupa	-10.8847
▁napadi	-10.8852
▁drugod	-10.8853
town	-10.8853
▁provinci	-10.8854
▁kazen	-10.8856
145	-10.8858
▁parlamenta	-10.8859
▁pomembnejši	-10.886
192	-10.886
▁heinrich	-10.886
▁domnevno	-10.886
▁srednjeveške	-10.886
▁oznake	-10.886
▁običajni	-10.8861
▁ernest	-10.8861
▁surovin	-10.8861
▁mnenje	-10.8862
▁zgradbo	-10.8863
▁uk	-10.8863
▁nil	-10.8864
žar	-10.8867
▁premic	-10.8873
▁johannes	-10.8874
▁svetovnem	-10.8879
▁poznejši	-10.8881
▁kraljem	-10.8883
▁kode	-10.8885
ken	-10.8887
▁oko	-10.8888
▁likov	-10.8889
▁mok	-10.8889
▁podeli	-10.889
▁priključen	-10.889
tova	-10.8891
▁večjega	-10.8895
▁komaj	-10.89
onij	-10.8901
ander	-10.8901
▁laboratorij	-10.8906
▁povzročajo	-10.8909
▁karlov	-10.8911
▁zavest	-10.8912
▁pesnišk	-10.8912
▁zalivu	-10.8914
▁zahodnih	-10.8918
▁kate	-10.892
▁trideset	-10.8922
▁šibke	-10.8923
▁jugovzhodni	-10.8923
▁trgovski	-10.8924
rava	-10.8924
▁mišljen	-10.8925
▁kemične	-10.8926
▁povedal	-10.8926
odnih	-10.8927
▁koles	-10.8928
▁predstavljala	-10.8929
▁želeli	-10.8932
▁vlogi	-10.8936
▁hum	-10.894
▁turški	-10.8943
▁vladarji	-10.8944
▁idr	-10.8948
▁ari	-10.8948
▁prebival	-10.8949
▁sekundarn	-10.895
▁mrtvih	-10.895
▁mladosti	-10.8951
▁observatoriju	-10.8952
▁bakra	-10.8953
▁mach	-10.8959
355	-10.896
▁pač	-10.8963
čevanje	-10.8963
▁poročal	-10.8964
5.000	-10.8965
▁ugotovili	-10.8965
▁rež	-10.8968
▁sodijo	-10.8971
stil	-10.8973
▁ty	-10.8973
▁dejansk	-10.8978
▁pokazala	-10.8979
▁umik	-10.898
▁ugotavlja	-10.8986
▁uveljavljen	-10.8986
▁režiser	-10.8986
▁teoretično	-10.8986
▁muslimani	-10.8987
▁ustanovitve	-10.8988
▁osvojili	-10.8989
▁nasprotni	-10.899
▁hitri	-10.8993
▁meso	-10.8997
piše	-10.8997
▁pristanišča	-10.8999
_5	-10.9
▁njihovem	-10.9002
▁wo	-10.9002
tta	-10.9005
▁masiv	-10.9012
hol	-10.9016
▁uvedli	-10.9016
▁analize	-10.9018
▁judovski	-10.9021
▁palače	-10.9021
▁izjema	-10.9022
▁učenjak	-10.9024
mož	-10.9024
▁taka	-10.9027
nut	-10.9029
▁volk	-10.903
▁fizika	-10.9035
▁razglasila	-10.904
▁koncentracija	-10.9041
▁meseca	-10.9042
kala	-10.9043
▁vtis	-10.9047
▁grupe	-10.9047
▁zaznamoval	-10.905
▁enakomerno	-10.905
▁spodnja	-10.905
▁potrjen	-10.9051
▁zakaj	-10.9051
▁kemični	-10.9051
▁odigral	-10.9052
▁peti	-10.9052
jskem	-10.9053
▁vpeljal	-10.9053
▁bay	-10.9054
▁razvit	-10.9056
▁liv	-10.9056
bod	-10.906
▁elektroni	-10.9066
▁povezavi	-10.9073
ogrski	-10.9078
▁(6	-10.9079
▁mladih	-10.9081
▁akt	-10.9083
kva	-10.9083
gorje	-10.9083
tsch	-10.9088
▁kraljevo	-10.9094
▁podobnih	-10.9095
▁prodaja	-10.9103
▁svetoval	-10.9103
sky	-10.9105
▁češki	-10.9106
▁svobodo	-10.9114
▁jugozahodu	-10.9114
▁župnij	-10.9114
▁obsežno	-10.9114
▁švedska	-10.9114
▁izvidnišk	-10.9114
▁jacob	-10.9114
drom	-10.9114
▁bojev	-10.9115
▁izvedl	-10.9116
▁takšen	-10.9116
▁alžir	-10.9117
▁tekmoval	-10.9117
▁daniel	-10.9117
▁radikal	-10.9117
▁evklid	-10.9118
war	-10.9118
▁razmerja	-10.9119
▁prešernov	-10.912
▁prinesel	-10.912
▁posameznik	-10.9121
▁alpin	-10.9122
▁revije	-10.9123
▁zapišemo	-10.9127
▁boja	-10.9128
▁gotovo	-10.9129
▁časovni	-10.914
▁izvirajo	-10.914
▁zbiral	-10.9144
šel	-10.9147
▁tistim	-10.9148
▁vesoljski	-10.9149
▁sončne	-10.9152
▁gorski	-10.9152
▁prostovolj	-10.9154
▁študije	-10.9157
▁indij	-10.9157
▁posamez	-10.9159
▁plošč	-10.9165
▁služba	-10.9167
▁pin	-10.9168
▁pravilo	-10.9171
▁zmanjšalo	-10.9171
▁odlok	-10.9172
▁spadal	-10.9173
▁dobra	-10.9174
▁spojina	-10.9174
▁nevarnosti	-10.9177
▁ljubljane	-10.9178
▁najpogostejši	-10.9178
▁britanija	-10.9178
▁ukinjen	-10.9178
▁pridobljen	-10.9178
▁porekla	-10.9179
▁oddelka	-10.9179
▁morebitn	-10.9179
▁oto	-10.918
icami	-10.9181
▁jezuit	-10.9182
▁medalja	-10.9183
▁polka	-10.9183
▁mediji	-10.9184
▁starodavni	-10.9185
▁dvojni	-10.9185
▁postajal	-10.9186
▁vrtiln	-10.9188
▁tople	-10.9189
vzdrž	-10.919
▁elektromagnet	-10.9192
▁močna	-10.9197
▁varnosti	-10.9197
▁strokovnjaki	-10.9202
▁krivulja	-10.9204
▁dejanja	-10.9204
▁izhajajo	-10.9205
▁mejni	-10.9206
▁zvoka	-10.9209
lovska	-10.921
▁ruš	-10.9213
▁regijo	-10.9216
▁ribe	-10.9217
▁mogli	-10.9218
▁divji	-10.9221
iranih	-10.9222
tina	-10.9224
▁klic	-10.9226
▁zahodna	-10.9227
nejših	-10.9229
▁madžarskem	-10.9231
▁nepal	-10.9232
▁specialni	-10.9238
▁veje	-10.924
▁bolje	-10.9242
▁izgub	-10.9242
▁sorazmerno	-10.9242
▁argument	-10.9243
▁zmogljiv	-10.9243
▁električna	-10.9244
▁razdeli	-10.9244
▁čelu	-10.9245
▁kroži	-10.9246
old	-10.9247
▁maha	-10.9248
▁leve	-10.9248
▁korejsk	-10.925
▁(13	-10.9252
▁izsev	-10.9254
▁celotnem	-10.9258
▁bogate	-10.9262
▁bank	-10.9262
▁širše	-10.9263
▁membran	-10.9268
▁rusi	-10.9268
▁zbora	-10.9273
enberg	-10.9273
inus	-10.9276
▁veteran	-10.9283
▁francoskega	-10.9285
▁...)	-10.9286
▁klor	-10.9289
▁obravnaval	-10.9291
▁navajajo	-10.9291
▁dobri	-10.9292
more	-10.9293
▁bojan	-10.9295
sibirsk	-10.9296
▁dodal	-10.9297
▁starejših	-10.9298
▁menja	-10.9302
▁revoluciji	-10.9309
▁potovanja	-10.931
▁gorovje	-10.931
▁skladateljev	-10.9311
▁padcu	-10.9311
▁kolobar	-10.9311
▁obdaja	-10.9311
▁roka	-10.9312
▁trajno	-10.9314
▁pomorske	-10.9318
▁črt	-10.9321
lly	-10.9321
udi	-10.9322
▁vino	-10.9323
▁μ	-10.9323
▁organski	-10.9325
▁kolonij	-10.9326
rodni	-10.9328
thi	-10.9329
▁baze	-10.9333
▁pojavijo	-10.9333
▁blaga	-10.9334
zit	-10.9334
▁žalost	-10.9335
▁pokrajini	-10.934
▁mladinsk	-10.9341
▁130	-10.9347
▁deželi	-10.9348
▁kvadratni	-10.935
▁materialov	-10.9352
▁prevaja	-10.9353
▁otto	-10.9355
▁strogo	-10.9356
▁newtonov	-10.9357
▁vzhodna	-10.9359
▁pisar	-10.9362
▁sedežem	-10.9372
▁nizozemska	-10.9375
▁orkestra	-10.9375
▁sprejme	-10.9375
▁odplul	-10.9375
▁zasedla	-10.9375
▁težke	-10.9375
▁jazz	-10.9375
▁operator	-10.9377
▁religije	-10.9378
▁arheologi	-10.9378
▁češke	-10.9379
▁nevarnost	-10.938
▁grška	-10.938
▁gene	-10.938
▁svetlo	-10.9383
▁bern	-10.9387
▁silicij	-10.9394
▁sha	-10.9396
smrt	-10.9398
▁ham	-10.9403
▁osvobodil	-10.9403
▁raste	-10.9405
chu	-10.9405
▁rajh	-10.9407
▁marinske	-10.9408
800	-10.9408
600	-10.9409
kali	-10.9411
ins	-10.9417
▁lego	-10.9421
loški	-10.9423
▁é	-10.9423
▁nosijo	-10.9424
▁jadran	-10.9426
▁izvirni	-10.9428
▁gradov	-10.9432
▁obnaša	-10.9434
▁piha	-10.9434
▁igrah	-10.9434
▁osrednja	-10.9434
▁izhod	-10.9435
▁potekajo	-10.9436
▁genov	-10.9436
▁skandinav	-10.9441
▁tranzistor	-10.9441
▁alternativ	-10.9441
▁poškodovan	-10.9441
▁preoblikovan	-10.9441
▁razpolovn	-10.9441
▁doktrin	-10.9441
▁vpleten	-10.9441
▁potomci	-10.9441
▁medicine	-10.9441
▁bizantinsko	-10.9441
▁rahlo	-10.9441
▁1906	-10.9443
škodljiv	-10.9444
▁srbski	-10.9444
▁razumevanje	-10.9444
▁ip	-10.9446
▁kasnejši	-10.9446
▁pomlad	-10.9447
rig	-10.9447
▁prebivalca	-10.9448
▁harry	-10.9448
rog	-10.945
▁bron	-10.9451
▁gran	-10.9452
▁franca	-10.9452
▁82	-10.9455
▁stanovanj	-10.9458
▁bitke	-10.9459
▁cesarski	-10.9461
▁naraščajoč	-10.9463
▁niko	-10.9465
dvo	-10.9466
▁kralju	-10.9466
▁kompozicij	-10.9468
▁interakcij	-10.9468
▁zasnovan	-10.947
▁prince	-10.947
▁zgodbo	-10.9473
▁88	-10.9481
pija	-10.9482
▁kristjani	-10.9491
kakšen	-10.9491
▁odpira	-10.9491
▁slovar	-10.9492
▁valovi	-10.9494
▁hrast	-10.9495
▁starodavn	-10.9498
▁najstarejših	-10.95
▁južnega	-10.9501
▁gibaln	-10.9501
air	-10.9505
▁namib	-10.9507
▁britanije	-10.9507
▁deklaracij	-10.9507
▁obrambne	-10.9507
▁izumitelj	-10.9507
▁obsojen	-10.9507
▁pozitivno	-10.9508
▁norveške	-10.9508
▁strinjal	-10.9508
▁štetja	-10.9508
▁izloča	-10.9508
▁obrnil	-10.9508
▁anglež	-10.9508
▁odpravo	-10.9509
▁utrdil	-10.9509
zur	-10.9511
▁znanega	-10.9511
▁preostali	-10.9512
▁nižji	-10.9512
▁razp	-10.9513
▁hranil	-10.9514
▁oddaj	-10.9515
▁precejšnj	-10.9516
340	-10.9518
▁trgovci	-10.9519
▁tradicionalnih	-10.9523
▁afriški	-10.9527
▁gm	-10.9528
299	-10.9534
▁izobraževal	-10.9534
▁človeškega	-10.9537
▁taborišče	-10.9538
▁osman	-10.9541
▁celine	-10.9543
▁upravljanje	-10.9544
▁britanskih	-10.9546
250	-10.9548
▁varstvo	-10.9548
enja	-10.9551
▁prosil	-10.9551
aud	-10.9551
▁oborožen	-10.9557
▁redki	-10.9563
tli	-10.9563
▁velikimi	-10.9566
▁vidni	-10.9566
▁vsake	-10.9566
▁komisije	-10.9566
▁zastopa	-10.9568
▁krščanstva	-10.9575
▁ljubljano	-10.9575
▁omrežje	-10.9575
▁rojstvu	-10.9575
▁tisočletje	-10.9575
▁by	-10.9577
▁filmski	-10.9581
prevod	-10.9581
▁milano	-10.9582
▁oblačil	-10.9587
▁cesarjev	-10.9589
▁pravijo	-10.9589
▁unesco	-10.959
▁vodstvo	-10.9592
▁slik	-10.9595
▁izkazalo	-10.9597
▁prof	-10.9597
kaj	-10.9597
▁heli	-10.9598
dig	-10.9598
metro	-10.9601
▁dipol	-10.9603
▁dy	-10.9605
▁proizvede	-10.9606
▁rodbin	-10.9607
▁gozda	-10.9613
▁stene	-10.9616
▁izgubili	-10.9622
▁tabele	-10.9623
▁den	-10.9624
▁uradna	-10.9626
▁geografski	-10.963
▁ujetnik	-10.9633
▁izgled	-10.9633
▁češka	-10.9634
bach	-10.9635
▁izobražen	-10.9642
▁obkroža	-10.9642
▁kontekst	-10.9642
▁judje	-10.9643
▁razcep	-10.9643
▁nekdaj	-10.9644
▁karavan	-10.9644
▁jedrsko	-10.9646
kanje	-10.9647
▁gradnji	-10.9648
▁podelila	-10.9648
▁proga	-10.9648
▁1895	-10.965
▁trgovske	-10.965
▁opisujejo	-10.965
▁ravne	-10.9654
▁čr	-10.9655
▁eulerjev	-10.9657
▁padla	-10.9658
los	-10.9659
▁verig	-10.966
▁operacijski	-10.9666
nemško	-10.9667
▁meg	-10.9669
▁diana	-10.9669
▁izraelsk	-10.9671
▁morsko	-10.9671
▁imenovala	-10.9671
▁sabo	-10.9672
▁institucij	-10.9672
▁temperaturah	-10.9681
▁tokrat	-10.9684
▁trajalo	-10.9685
▁egipčanski	-10.969
▁starejše	-10.9692
▁einstein	-10.9698
▁brad	-10.9701
▁razdeljeno	-10.9702
oznaka	-10.9703
▁zapornik	-10.9704
▁teden	-10.9705
▁izvajajo	-10.9707
▁termodinamsk	-10.971
▁znanstvena	-10.971
▁značilen	-10.971
▁geometrije	-10.971
▁konstantinopel	-10.971
▁moskvi	-10.971
▁aleksej	-10.971
▁konfucij	-10.971
▁ustrezni	-10.971
▁razvije	-10.971
▁obsodil	-10.9711
▁mednarodnem	-10.9711
▁omejuje	-10.9711
▁razdelitev	-10.9712
bij	-10.9713
▁preimenovan	-10.9716
▁nebesn	-10.9716
▁bolnik	-10.9717
▁vrnila	-10.9719
▁šlo	-10.9725
▁občutljiv	-10.9725
▁bogata	-10.9726
stor	-10.9728
▁televizijsk	-10.973
▁prvimi	-10.9731
para	-10.9734
ničar	-10.9738
▁nacionalno	-10.9738
▁ubit	-10.9739
▁seznamu	-10.974
jočega	-10.974
ističnih	-10.9741
▁novim	-10.9742
▁arabskih	-10.975
▁skalar	-10.9751
▁nadaljevala	-10.9752
▁strokovnjak	-10.9753
▁don	-10.9755
▁dokončan	-10.9757
▁fen	-10.9761
▁umetniki	-10.9764
▁letalske	-10.9767
-8	-10.9768
▁trajal	-10.9774
▁matere	-10.9775
▁vidika	-10.9777
▁ehnaton	-10.9779
▁podčastnik	-10.9779
▁označeval	-10.9779
▁odgovarja	-10.9779
▁sodelovanja	-10.9779
▁začetne	-10.9779
▁brown	-10.9779
▁fronti	-10.978
▁poveljstva	-10.978
▁bernard	-10.978
reja	-10.9781
▁bitja	-10.9782
▁različico	-10.9783
sis	-10.9784
pul	-10.9788
▁mw	-10.979
▁hčerko	-10.9791
▁vitez	-10.9791
▁otoke	-10.9791
▁predmetov	-10.9791
▁delovni	-10.9793
▁vetra	-10.9793
▁kilogram	-10.9794
▁krogu	-10.9794
pravlja	-10.9796
▁cirk	-10.9796
▁svetnik	-10.9801
▁opozoril	-10.9805
▁industrijske	-10.9808
▁observatorija	-10.9809
▁vladarjev	-10.9811
▁štejemo	-10.9815
šar	-10.9816
▁pritiska	-10.9817
ljal	-10.9821
▁znatno	-10.9822
▁radij	-10.9826
idae	-10.9828
▁valižan	-10.9829
▁grič	-10.983
▁razpon	-10.9833
prej	-10.9836
'.	-10.9842
▁nalog	-10.9844
▁oblastjo	-10.9845
▁odprta	-10.9845
▁arabsko	-10.9846
▁imenovanih	-10.9847
▁afriko	-10.9848
▁neodvisne	-10.9848
▁ustvarjen	-10.9848
▁zaposlil	-10.9848
▁okrašen	-10.9848
▁preučevanje	-10.9848
▁ekstrem	-10.9848
▁izdelkov	-10.9848
▁zgornja	-10.9848
▁švedski	-10.9848
qua	-10.9848
▁petnajst	-10.9848
▁plečnik	-10.9849
▁prekinil	-10.9849
▁alojz	-10.9849
▁množic	-10.9849
▁ocene	-10.985
▁pripadajo	-10.985
▁okr	-10.9851
▁ohranili	-10.9853
▁članic	-10.9854
▁usposabljanje	-10.9854
▁zvrsti	-10.9856
▁fotografij	-10.9856
▁splav	-10.9858
▁interpretacij	-10.986
▁krila	-10.9865
▁razlik	-10.9866
▁doseg	-10.9867
anci	-10.9868
▁krajevne	-10.987
▁človekove	-10.9874
▁prevladujejo	-10.9877
▁lau	-10.9879
▁primerjal	-10.988
▁metri	-10.9881
▁sodelovali	-10.9882
▁kakovosti	-10.9885
▁razviti	-10.9886
▁vojnah	-10.9891
▁zapisano	-10.9892
▁meni	-10.9895
▁državljanov	-10.9895
▁euro	-10.9898
▁rado	-10.9899
▁pripravlja	-10.9905
▁ledene	-10.9905
▁programski	-10.9909
rí	-10.9911
▁trdnost	-10.9912
▁cerkvene	-10.9914
▁vzporedno	-10.9915
▁besedilih	-10.9917
▁dokončal	-10.9917
▁začetki	-10.9917
▁nakazuje	-10.9917
▁alexander	-10.9917
▁vgrajen	-10.9917
▁rokah	-10.9918
▁sarajevo	-10.9918
▁izginil	-10.9918
▁puška	-10.9918
▁spominsk	-10.9919
▁podrobnosti	-10.992
shire	-10.9921
▁lim	-10.9921
▁luc	-10.9922
▁uvoz	-10.9923
misli	-10.9926
▁trdno	-10.9926
▁psi	-10.9927
▁oddaljenost	-10.993
▁hy	-10.993
▁otošk	-10.9931
▁natančneje	-10.9931
▁taki	-10.9937
▁množično	-10.9937
▁victor	-10.9937
▁rolk	-10.9939
▁cip	-10.9939
▁long	-10.9947
▁kolumb	-10.9953
▁trdnjav	-10.9961
▁razmišljanj	-10.9964
▁cink	-10.9967
put	-10.9967
▁mlad	-10.9968
▁nevro	-10.997
▁monte	-10.997
▁grm	-10.9971
lev	-10.9972
▁državljani	-10.9972
▁popolni	-10.9974
črt	-10.9976
▁redni	-10.9976
▁razne	-10.9977
▁kolonija	-10.9979
fen	-10.998
▁potop	-10.9982
▁99	-10.9983
▁dajal	-10.9983
razen	-10.9984
▁aminokislin	-10.9987
▁britaniji	-10.9987
▁katastrof	-10.9987
▁štefan	-10.9987
▁zaveznik	-10.9987
▁zasebne	-10.9989
nčič	-10.9989
▁delavnic	-10.999
▁adolf	-10.9993
out	-10.9995
▁josé	-10.9995
▁ovira	-10.9997
▁risb	-10.9997
▁višja	-11.0001
▁bankovc	-11.0001
▁temeljni	-11.0001
▁izbira	-11.0011
▁litij	-11.0015
▁načine	-11.0015
▁razdaljo	-11.0017
▁sledilo	-11.0018
▁bakterij	-11.0022
samo	-11.0024
peti	-11.0028
lije	-11.0033
▁širine	-11.0037
pedi	-11.0037
▁zimski	-11.0038
▁analiz	-11.0038
▁operacijo	-11.0038
▁cere	-11.0043
ule	-11.0044
▁komunistični	-11.0046
▁nacionalna	-11.0047
▁natančne	-11.0048
▁foton	-11.0048
▁gama	-11.0048
▁raba	-11.0049
▁prilagodi	-11.005
▁vzhodnega	-11.005
orum	-11.0052
▁vina	-11.0052
▁sistemom	-11.0057
▁ludwig	-11.0057
▁preizkus	-11.0057
▁zabeležen	-11.0057
▁izgovarja	-11.0057
▁ramzes	-11.0057
▁opravljen	-11.0057
▁odvisen	-11.0058
▁kariero	-11.0058
▁erevan	-11.0058
▁policijske	-11.0058
niška	-11.006
▁1904	-11.0061
▁lom	-11.0061
▁izdeloval	-11.0062
znega	-11.0063
▁dvignil	-11.0063
▁1890	-11.0065
▁sklop	-11.0072
▁močni	-11.0074
arstvo	-11.0084
ifici	-11.0092
▁zaslon	-11.0092
hat	-11.01
▁izotopov	-11.0102
▁intenzivn	-11.0106
▁olimpijske	-11.0109
enot	-11.0109
sir	-11.0114
▁valovanja	-11.0115
▁glasbena	-11.0117
▁izdala	-11.012
▁polkovnik	-11.012
▁zalog	-11.0122
prost	-11.0125
▁ministrstva	-11.0128
▁onesnažen	-11.0128
▁žrtve	-11.0128
▁prisotni	-11.0128
▁svinčev	-11.0128
▁oddelek	-11.0128
▁valentin	-11.0129
▁bombaž	-11.013
▁spretn	-11.0132
▁rezultate	-11.0132
▁izmeril	-11.0133
▁zunanjega	-11.0133
▁poglavar	-11.0134
▁1903	-11.0136
part	-11.0142
_6	-11.0142
imenovan	-11.0146
▁uvod	-11.0147
▁́	-11.0148
▁balkansk	-11.0149
▁prebivalstvom	-11.015
▁pul	-11.0152
▁dlje	-11.0153
ardi	-11.0153
▁praznovanj	-11.0154
▁človekovih	-11.0156
▁krajši	-11.0157
▁božje	-11.016
▁trikrat	-11.016
▁jah	-11.0162
▁gorske	-11.0165
▁delec	-11.0166
▁herman	-11.0168
▁koroškem	-11.0169
ičnim	-11.0171
▁220	-11.0174
▁unescov	-11.0183
njih	-11.0185
▁črpa	-11.0187
▁kh	-11.0188
▁versko	-11.0189
▁opek	-11.019
▁vzporedni	-11.019
▁umetno	-11.0191
▁ptice	-11.0192
▁energijsk	-11.0192
▁okolico	-11.0194
▁original	-11.02
rodnoosvobodiln	-11.02
▁okrožij	-11.02
▁raznolikost	-11.02
▁zaporedja	-11.02
▁šel	-11.0201
▁oman	-11.0202
▁čutil	-11.0202
▁izračunal	-11.0202
▁pozitivni	-11.0202
kuš	-11.0205
▁cy	-11.0205
▁ostri	-11.0206
▁srbije	-11.0206
▁drevesa	-11.0208
▁sestave	-11.0208
▁enakost	-11.0211
▁živela	-11.0211
▁industrijsko	-11.0212
▁nemškim	-11.0217
▁lav	-11.022
▁odkrila	-11.0225
▁preide	-11.0226
▁mad	-11.0226
▁uživa	-11.0228
▁ognjenik	-11.0231
▁hrvaškem	-11.0232
▁menijo	-11.0236
ejšo	-11.0236
ometer	-11.0238
▁redke	-11.024
▁morskih	-11.0242
▁termin	-11.0242
▁naslednika	-11.0242
▁odgovornost	-11.0244
▁plašč	-11.0244
▁informacije	-11.0244
rá	-11.0245
sova	-11.0253
▁tehta	-11.0255
▁geometrijsk	-11.0256
▁pozne	-11.0259
▁posamezni	-11.0263
▁ustanove	-11.0266
▁krši	-11.0267
▁začetnik	-11.027
▁prevodnost	-11.0271
▁hongkong	-11.0272
▁mitraljez	-11.0272
▁maščob	-11.0272
▁reševanje	-11.0272
▁dejstva	-11.0272
▁plemišk	-11.0273
▁podeljuje	-11.0273
▁prometa	-11.0277
▁zlate	-11.0278
▁1850	-11.0281
▁topnišk	-11.0284
▁geografsko	-11.0285
255	-11.0285
▁stoletjem	-11.0287
▁sodobnem	-11.0293
▁grobnice	-11.0294
▁podpisan	-11.0296
▁pomenila	-11.0296
▁leonardo	-11.0297
▁idejo	-11.0301
▁fazi	-11.0301
▁prisiln	-11.0301
▁tradicija	-11.0301
▁mačk	-11.0305
▁pasov	-11.0306
jevič	-11.0311
▁pluton	-11.0311
▁spadala	-11.0311
▁bogo	-11.0312
▁zadnjega	-11.0317
roy	-11.0318
▁prične	-11.0318
▁povezanih	-11.0326
▁delil	-11.0329
▁skladbe	-11.0329
▁svetlobni	-11.033
▁umetniške	-11.0332
▁domu	-11.0335
▁teolog	-11.0335
▁zahodnega	-11.0336
▁cestni	-11.0337
▁pomenil	-11.0342
hof	-11.0343
▁prepričanje	-11.0344
▁klinopis	-11.0344
▁tektonsk	-11.0344
▁afrika	-11.0344
▁gaulle	-11.0344
▁izdelki	-11.0345
▁odrasli	-11.0345
▁zadnjo	-11.0345
▁naletel	-11.0346
bot	-11.0346
▁georges	-11.0349
▁1870	-11.0353
ssel	-11.0355
▁patent	-11.0355
▁ujema	-11.0356
▁desant	-11.0356
▁skladno	-11.0357
sili	-11.0358
sha	-11.0359
▁zaporednih	-11.0365
▁krona	-11.0365
▁vladali	-11.0367
▁zasedel	-11.0369
▁poroča	-11.037
▁besedami	-11.0371
▁tigr	-11.0371
▁din	-11.0372
▁uveljavilo	-11.0373
▁spin	-11.0378
▁ustanova	-11.0381
▁kosti	-11.0382
▁presek	-11.0382
▁zaslug	-11.0386
▁obsegala	-11.0387
▁premaga	-11.0391
▁86	-11.0395
letno	-11.0395
▁1800	-11.0396
▁sklopu	-11.0397
▁dim	-11.04
▁svetle	-11.04
▁odda	-11.0402
▁islamske	-11.0404
▁tedanje	-11.0406
▁postanejo	-11.0414
▁načelnika	-11.0414
▁boljši	-11.0415
wood	-11.0415
▁razpored	-11.0416
▁ljudem	-11.0417
▁zmanjšuje	-11.0417
▁navzgor	-11.0417
▁prilagojen	-11.0417
▁dogodke	-11.0417
▁napredek	-11.0417
▁poročen	-11.0417
▁kariera	-11.0418
▁orodje	-11.0419
▁mornarica	-11.042
▁monarhije	-11.0421
▁pragi	-11.0421
▁koda	-11.0421
▁razlikoval	-11.0421
hip	-11.0422
▁watt	-11.0422
▁najdišč	-11.0422
rib	-11.0424
▁krajše	-11.0427
▁izvedli	-11.0427
▁bližin	-11.0427
tica	-11.0428
106	-11.0429
▁središčem	-11.043
▁določenem	-11.043
▁antične	-11.043
▁tekstil	-11.0431
▁geolog	-11.0432
▁revija	-11.0436
▁suverenost	-11.0438
▁alt	-11.044
▁alpe	-11.044
▁iso	-11.0441
▁trgovinsk	-11.0441
▁terorističn	-11.0441
lce	-11.0446
▁tovarna	-11.0446
▁zahtevala	-11.0447
▁tehnologija	-11.0451
▁namaka	-11.0453
rman	-11.0454
▁nevtronov	-11.0455
▁nasprotnikov	-11.0455
▁dobesedno	-11.046
▁spodbujal	-11.0461
▁dodatne	-11.0462
▁ključni	-11.0462
▁prisotnosti	-11.0463
▁hribov	-11.0464
▁helena	-11.0464
▁vladajoč	-11.0467
▁sodobnega	-11.0468
▁treb	-11.047
▁odbora	-11.0471
▁razprave	-11.0472
moč	-11.0472
ništvu	-11.0473
▁topli	-11.0482
leti	-11.0485
predvsem	-11.0489
▁akademija	-11.0491
▁osamosvojitvi	-11.0491
▁stoletij	-11.0491
▁sprošča	-11.0491
▁mozart	-11.0491
▁ogroža	-11.0491
▁odpeljal	-11.0492
▁klasično	-11.0492
▁metropolitansk	-11.0492
▁turistov	-11.0493
▁potencialn	-11.0493
▁pehotni	-11.0494
▁nadzoroval	-11.0494
▁1901	-11.0496
▁inštitutu	-11.0497
▁pismu	-11.0502
▁srbske	-11.0502
večer	-11.0506
▁odgovorn	-11.0506
▁dneva	-11.0511
▁dnevi	-11.0515
▁učinkovitost	-11.0517
▁železnic	-11.0519
▁kazni	-11.0523
▁rabo	-11.0525
▁mg	-11.0527
▁20.000	-11.0529
▁cerkveni	-11.0531
▁naravnega	-11.0536
▁stanov	-11.0538
▁stanj	-11.054
▁vključena	-11.055
▁eric	-11.0553
▁književn	-11.0555
▁skriv	-11.0555
▁vojvoda	-11.0556
▁porazil	-11.0556
▁grofija	-11.0557
▁matematika	-11.0557
▁povezujejo	-11.0558
▁slep	-11.0559
▁severa	-11.0563
▁okupator	-11.0565
▁benjamin	-11.0565
▁suženj	-11.0565
▁niha	-11.0565
▁atlantski	-11.0569
▁jedrska	-11.0569
mehanizirana	-11.0571
▁peri	-11.0573
▁zgrajeni	-11.0576
▁die	-11.0576
▁zbirke	-11.0576
▁profesorja	-11.0579
kratica	-11.058
▁kontra	-11.0582
▁meritev	-11.0582
▁(11	-11.0585
čica	-11.0588
ische	-11.0588
▁žil	-11.059
▁konvencija	-11.0593
▁nebu	-11.0594
▁astronomska	-11.0599
rian	-11.0601
▁bojih	-11.0603
▁problemi	-11.0603
▁stalinov	-11.0604
▁trdni	-11.0607
▁kovač	-11.0607
sopran	-11.0608
▁pridružila	-11.061
pha	-11.0611
▁šahovske	-11.0612
ding	-11.0615
▁češko	-11.0619
▁japon	-11.0622
▁temno	-11.0627
▁molekularn	-11.0633
▁doživlja	-11.0639
▁letalonosilk	-11.0639
▁literature	-11.0639
▁nekakšn	-11.0639
▁obzidja	-11.0639
▁istoimensk	-11.064
▁povsod	-11.064
▁nagrajen	-11.064
▁uspešen	-11.064
▁izčrpa	-11.064
▁saturn	-11.064
οσ	-11.064
▁trinajst	-11.0641
▁vroče	-11.0641
▁združitev	-11.0642
▁muslimanski	-11.0642
▁upravičen	-11.0644
▁beat	-11.0644
▁učenec	-11.0645
▁predelih	-11.0646
▁kolonije	-11.0646
▁1849	-11.0647
▁primarni	-11.065
▁srce	-11.0651
▁zgodi	-11.0653
▁sestra	-11.0655
▁kvantni	-11.0656
▁tedanji	-11.0656
▁kupil	-11.0658
▁marjan	-11.0658
▁devi	-11.0661
▁bojevanje	-11.0661
dur	-11.0662
▁tisto	-11.0665
▁krat	-11.0668
▁nosilci	-11.0669
▁potenc	-11.067
▁plemeni	-11.067
ington	-11.0673
ward	-11.0675
▁my	-11.0679
▁tankovsk	-11.068
_10	-11.0687
▁may	-11.0687
reče	-11.0689
▁človeku	-11.0689
▁koledarja	-11.0692
rina	-11.0695
▁pripravi	-11.0696
▁prihodu	-11.0696
▁vrstic	-11.0699
▁znameniti	-11.0702
137	-11.0703
▁izgradnj	-11.0705
▁poudarja	-11.0706
▁odvod	-11.0707
▁gledališča	-11.0708
▁vladala	-11.0709
▁današnjem	-11.0713
▁organizmov	-11.0715
▁zunanjo	-11.0715
▁leopold	-11.0715
▁negativni	-11.0715
▁kopnem	-11.0715
▁nila	-11.0716
▁socialno	-11.0716
▁zmage	-11.0717
237	-11.0717
▁raztopi	-11.0717
▁multi	-11.0717
▁državljanski	-11.0717
▁1909	-11.0718
▁prevedel	-11.0719
▁turnir	-11.0719
▁prekriva	-11.0721
▁1880	-11.0723
▁papežev	-11.0727
«).	-11.0727
▁vojake	-11.073
sija	-11.073
trans	-11.073
▁graditi	-11.0731
▁sliki	-11.0732
▁gaussov	-11.0733
▁izreka	-11.0735
▁delovati	-11.0736
▁napadom	-11.0738
alizem	-11.0741
▁celih	-11.0745
▁razloži	-11.0748
▁bojno	-11.075
▁krvav	-11.0751
ró	-11.0752
▁učenje	-11.0752
▁pogosti	-11.0754
▁pravno	-11.0758
lago	-11.0761
▁kave	-11.0762
▁njima	-11.0762
▁latinsko	-11.0764
▁rečn	-11.0768
▁škofij	-11.077
▁današnjih	-11.0771
▁prejšnje	-11.0771
▁major	-11.0772
ical	-11.0773
▁teorij	-11.0777
▁she	-11.0778
▁tex	-11.078
▁kopernik	-11.0782
▁otokih	-11.0782
▁green	-11.0786
▁češ	-11.0787
▁absorpcij	-11.079
▁zdravstvene	-11.079
▁osemdesetih	-11.079
▁dimenzij	-11.079
▁notranja	-11.0791
▁pristojnosti	-11.0791
▁podeljen	-11.0794
clav	-11.0799
▁spremenili	-11.0803
motor	-11.0807
▁bazen	-11.0808
▁naselil	-11.081
▁padavine	-11.0811
▁mislil	-11.0814
▁kraljica	-11.0816
▁izvirno	-11.0818
stvi	-11.0819
▁trk	-11.0819
vnik	-11.082
▁razvile	-11.0821
▁mreže	-11.0822
▁aluminij	-11.0822
▁mandel	-11.0824
▁apo	-11.0826
▁mirovni	-11.0829
▁konji	-11.083
▁končan	-11.0831
▁deželah	-11.0833
clx	-11.0834
oslovje	-11.0834
▁antični	-11.0835
▁južnih	-11.0836
▁ms	-11.084
▁izloči	-11.0843
▁jezike	-11.0852
▁dalí	-11.0853
▁liga	-11.0853
sé	-11.0853
jevim	-11.0853
polis	-11.0854
▁bogat	-11.0855
▁sodobnik	-11.0856
▁rude	-11.0856
▁centri	-11.0857
▁industrijsk	-11.0865
▁prijatelji	-11.0866
▁pritlikavk	-11.0867
▁vzdevek	-11.0867
▁fosfor	-11.0867
▁oziris	-11.0867
▁podpore	-11.0867
▁ločeno	-11.0867
▁omemb	-11.0867
republika	-11.0868
▁obarvan	-11.0868
▁ponoči	-11.0868
▁proizvodnji	-11.0869
set	-11.087
▁ekipa	-11.0871
▁nadaljnj	-11.0873
▁nekdanjih	-11.0881
▁160	-11.0886
▁tele	-11.0888
▁skrajnem	-11.0889
▁razvijati	-11.0889
▁piramide	-11.089
325	-11.0891
▁državnem	-11.0894
▁člankov	-11.0896
▁verjetnosti	-11.0897
▁razvilo	-11.09
krožn	-11.09
-15	-11.0901
▁sestavljeni	-11.0902
▁silami	-11.0903
▁lotil	-11.0905
▁aluminija	-11.0905
glu	-11.0908
▁muzeju	-11.091
▁nekem	-11.0911
▁etnične	-11.0911
▁beogradu	-11.0911
▁kompozicije	-11.0912
▁operaciji	-11.0913
▁ulica	-11.0914
▁pokrajino	-11.0915
▁naši	-11.0915
▁koncentracije	-11.0922
▁ivana	-11.0932
▁primerno	-11.0933
▁vsebina	-11.0934
▁rojstn	-11.094
▁kultur	-11.0942
▁giovanni	-11.0944
▁ministrstvo	-11.0944
▁ustrezno	-11.0944
▁kriminal	-11.0944
▁napačno	-11.0944
▁generalštab	-11.0944
▁poražen	-11.0944
▁arhitekturni	-11.0944
dežel	-11.0944
▁krogla	-11.0946
▁brati	-11.0946
▁ploskev	-11.0946
="1.	-11.0947
▁zemljepisn	-11.0948
▁hoteli	-11.0948
▁naučil	-11.0949
▁kmetov	-11.0951
gant	-11.0951
▁vest	-11.0956
▁spek	-11.0956
▁stališče	-11.0956
▁izotopi	-11.0959
▁spiral	-11.096
▁koper	-11.0962
▁cesarske	-11.0966
▁praštevila	-11.0976
▁drugje	-11.0983
▁nemškem	-11.0983
▁izbrali	-11.0986
urs	-11.0987
▁π	-11.0989
▁françois	-11.099
▁butan	-11.0991
▁haiti	-11.0992
ičnem	-11.0995
rgel	-11.0996
▁spremenilo	-11.0997
▁piva	-11.0999
▁mlade	-11.1002
▁anu	-11.1002
▁predvideva	-11.1006
hindu	-11.1006
▁vstopi	-11.101
▁matrika	-11.1013
▁lož	-11.1013
▁79	-11.1015
▁potreba	-11.1017
▁matej	-11.1019
▁slap	-11.1019
▁ravnini	-11.102
▁razmnož	-11.1021
▁gravitacijske	-11.1021
▁osvajal	-11.1021
▁pospešek	-11.1021
▁svobodne	-11.1021
▁razširja	-11.1021
▁kriterij	-11.1021
▁nasproti	-11.1022
▁zajet	-11.1024
▁qui	-11.1026
▁pavla	-11.1026
▁razmerah	-11.1026
▁budizem	-11.1027
▁trditev	-11.1027
▁stabilni	-11.1027
▁ploščic	-11.1028
▁vztraj	-11.1028
▁osmansko	-11.103
▁zameno	-11.103
▁timur	-11.1031
▁daljši	-11.1032
ridge	-11.1033
▁podoba	-11.1035
▁prazni	-11.1036
▁financira	-11.1037
sburg	-11.104
▁izboljšav	-11.104
▁obdobjih	-11.1042
▁koreja	-11.1043
roz	-11.1044
▁antarktičn	-11.1045
avto	-11.105
▁tisk	-11.1057
▁prihajajo	-11.106
▁vplivi	-11.1063
▁grafičn	-11.1064
−	-11.1065
▁hoče	-11.1065
rši	-11.1066
▁milijone	-11.1066
▁astronomijo	-11.107
rice	-11.107
zek	-11.1071
▁posameznikov	-11.1072
▁dnevnik	-11.1073
229	-11.1074
▁fosfat	-11.1075
▁visokim	-11.1076
▁perzijske	-11.1079
▁ya	-11.1085
▁nob	-11.1086
▁trgovsko	-11.109
oseb	-11.1092
▁turistični	-11.1092
▁klemen	-11.1093
▁astrofizik	-11.1099
▁britanijo	-11.1099
▁pigment	-11.1099
▁pooblastil	-11.1099
▁svobodno	-11.1099
▁college	-11.1099
▁pionir	-11.1099
▁sfrj	-11.1099
▁scott	-11.1099
▁škodo	-11.11
▁pripadnost	-11.11
▁napake	-11.11
▁aritmetičn	-11.11
▁zssr	-11.11
▁švicarski	-11.11
▁uprl	-11.1103
▁sovjet	-11.1103
▁zoper	-11.1104
▁oltar	-11.1104
▁1868	-11.1105
▁odnosov	-11.1106
▁novejše	-11.1107
▁krizo	-11.1108
▁letalstvo	-11.1109
▁dragocen	-11.111
▁znamenj	-11.1113
▁izboljša	-11.1114
▁irašk	-11.1117
▁stoletjih	-11.1117
▁planetarn	-11.1117
▁raziskovalec	-11.1118
▁tesla	-11.1119
▁izgubi	-11.1125
▁zaveza	-11.113
▁helenističn	-11.1131
▁celini	-11.1134
▁razširili	-11.1135
▁strojev	-11.1142
▁neba	-11.1143
▁frekvenca	-11.1144
▁pogajanj	-11.1148
mund	-11.1151
▁sprejeti	-11.1156
▁gospodarskih	-11.1157
▁napadla	-11.1166
▁trdnjava	-11.1166
▁poslušal	-11.1169
▁oceni	-11.1173
lá	-11.1175
▁sneg	-11.1175
▁resno	-11.1176
▁potnišk	-11.1177
▁razvrsti	-11.1178
▁hidroelektrarn	-11.1178
▁ljudstev	-11.1178
▁preostanek	-11.1178
▁perzijci	-11.1178
▁arhitekturo	-11.1178
▁101	-11.1178
▁sediment	-11.1178
▁ločena	-11.1178
▁spreminjal	-11.1179
▁dopolnil	-11.118
▁mitologije	-11.118
formula	-11.1182
▁900	-11.1183
▁omejeno	-11.1185
▁spomeniki	-11.1186
▁stebri	-11.1187
▁jolie	-11.1187
▁potnikov	-11.119
▁optik	-11.119
▁akcije	-11.1192
▁365	-11.1199
▁plezal	-11.1199
▁analizo	-11.12
▁bloka	-11.1202
▁char	-11.1203
▁zmerno	-11.1208
▁fizikalnih	-11.1209
▁kraje	-11.1209
▁popolne	-11.1212
▁hag	-11.1214
▁razredu	-11.1215
▁pokopališču	-11.1221
▁kanon	-11.1222
▁verjeli	-11.1223
sodi	-11.1223
▁ioni	-11.1223
▁vidno	-11.1223
▁programov	-11.1227
▁benetke	-11.1228
▁trstu	-11.1228
▁raziskovanja	-11.1229
▁tretjem	-11.1236
▁londona	-11.1244
▁nobena	-11.1245
▁notranjo	-11.1249
▁110	-11.1251
produkcij	-11.1255
▁prispevek	-11.1257
▁zgodovinska	-11.1257
▁akademijo	-11.1257
▁argentinsk	-11.1257
▁odsotnost	-11.1257
▁ukinil	-11.1258
▁christian	-11.1258
▁formule	-11.1258
▁uspešne	-11.1258
▁klasična	-11.1258
▁kamnine	-11.1258
▁hude	-11.1259
▁božanstvo	-11.1259
▁četa	-11.1259
reka	-11.1263
▁izdeluje	-11.1265
▁venera	-11.1265
▁kranjske	-11.1266
▁tipov	-11.1267
šal	-11.1269
▁američani	-11.1271
▁save	-11.1271
▁meritve	-11.1272
▁figure	-11.1274
▁bazo	-11.1275
▁ovir	-11.1275
▁zasebni	-11.1275
▁spletni	-11.1277
▁arabci	-11.1281
▁tekočina	-11.1283
▁propada	-11.1284
▁gradec	-11.1285
tron	-11.1287
▁dvoru	-11.1293
▁rezultati	-11.1298
▁zavzeli	-11.1299
▁170	-11.13
erjeva	-11.1303
▁ef	-11.1303
▁suhi	-11.1304
▁480	-11.1309
▁jaz	-11.1312
▁comp	-11.1315
▁mesa	-11.1315
▁medijev	-11.1317
▁kaš	-11.1319
lyn	-11.1319
▁materni	-11.1324
▁ano	-11.1325
▁arg	-11.1325
▁združili	-11.1328
formacij	-11.1328
▁pridobila	-11.1328
▁metropol	-11.133
▁mig	-11.1332
▁buda	-11.1332
▁avtorji	-11.1334
trg	-11.1335
▁serije	-11.1335
klasifikacij	-11.1336
▁spletn	-11.1336
▁diktatur	-11.1337
▁upodablja	-11.1337
▁grčije	-11.1337
▁pištol	-11.1337
▁kemično	-11.1337
▁usmerja	-11.1337
▁maxwell	-11.1338
▁šestnajst	-11.1338
▁zasebno	-11.1338
▁jugovzhodne	-11.1339
radi	-11.1339
▁centralni	-11.134
▁prevajal	-11.134
roman	-11.134
xxii	-11.1345
▁prehodu	-11.1349
▁koncem	-11.1352
▁izgradnjo	-11.1353
čnica	-11.1356
▁zemeljskega	-11.1362
▁wolf	-11.1363
▁ostalimi	-11.1364
lici	-11.1368
▁sodišč	-11.1371
wan	-11.1373
▁načinov	-11.1375
▁odmev	-11.1376
▁nadomesti	-11.1378
▁!	-11.1379
▁poročnik	-11.1382
▁odstopil	-11.1383
sper	-11.1386
▁četrto	-11.1388
▁finančno	-11.1389
▁kraljevino	-11.1391
▁christ	-11.1391
▁zlitine	-11.1398
▁zahtevo	-11.1399
▁predstavljali	-11.1403
▁5000	-11.1404
čišče	-11.1404
▁flam	-11.1413
portugal	-11.1413
▁poziv	-11.1417
▁izoblikoval	-11.1418
▁komandant	-11.1418
▁postojank	-11.1418
▁mehaniki	-11.1418
▁izogib	-11.1418
▁olajša	-11.1418
▁ureditve	-11.1419
▁nastanjen	-11.1419
▁zračnoprevozn	-11.1422
iformes	-11.1423
▁priprava	-11.1424
det	-11.1425
▁1889	-11.1427
▁bogastvo	-11.1428
rup	-11.143
▁angleškega	-11.1434
▁julijsk	-11.1436
▁filmov	-11.1436
▁filozofija	-11.1436
▁pomagala	-11.1437
▁strup	-11.1442
▁označujejo	-11.1443
▁raztopine	-11.1443
▁razpade	-11.1447
▁dedič	-11.1448
▁nameraval	-11.145
▁palačo	-11.1455
▁obletnic	-11.1461
▁kislin	-11.1464
▁gibanj	-11.147
▁jedru	-11.147
▁izziv	-11.1478
▁tone	-11.1479
▁ekip	-11.1481
▁indijo	-11.1483
▁viden	-11.1484
▁zaščite	-11.1485
▁članice	-11.1491
sanskrt	-11.1491
▁hip	-11.1491
▁širina	-11.1493
▁kanton	-11.1493
-17	-11.1493
▁preprečuje	-11.1499
▁devetdesetih	-11.1499
▁ameriko	-11.1499
▁subjekt	-11.1499
▁avtoritet	-11.15
▁zanjo	-11.1501
▁policist	-11.1501
loška	-11.1501
▁strokovni	-11.1501
▁preveden	-11.1502
▁človeških	-11.1502
▁nagnjen	-11.1502
▁navodil	-11.1503
▁držal	-11.1503
▁rojstni	-11.1503
▁herbert	-11.1504
▁ruskih	-11.1504
▁hermes	-11.1506
▁najmanjši	-11.1506
▁1898	-11.151
▁užival	-11.1511
▁godal	-11.1511
▁ocenil	-11.1512
▁posodo	-11.1512
▁1830	-11.1514
▁listov	-11.1515
kraljev	-11.1523
▁hill	-11.1524
▁načinu	-11.1526
▁hitreje	-11.1526
sam	-11.1529
▁turške	-11.1529
▁adams	-11.1533
▁spušča	-11.1538
▁edine	-11.1538
▁melodij	-11.1539
▁uporabljena	-11.1541
približno	-11.1542
▁čebel	-11.1543
▁titanic	-11.1544
▁veji	-11.1544
▁čiste	-11.1544
▁egipčanske	-11.1545
▁valja	-11.1547
▁videli	-11.155
▁voditelji	-11.1551
▁probleme	-11.1552
▁dinastijo	-11.1555
▁potrebni	-11.1557
▁preživeli	-11.1558
▁zaklad	-11.1559
▁družbenih	-11.156
▁postavila	-11.156
▁simbolizira	-11.1563
▁telesne	-11.1568
▁pisatelja	-11.1569
▁mrežo	-11.157
▁dolžin	-11.157
▁homo	-11.1571
▁bakr	-11.1574
▁force	-11.1574
▁parlamentu	-11.1576
vleče	-11.1577
▁esej	-11.158
▁zemljine	-11.158
▁oblikah	-11.1581
▁dosežejo	-11.1581
ç	-11.1581
▁gimnaziji	-11.1581
▁ščiti	-11.1581
▁sklenjen	-11.1581
▁preostale	-11.1581
▁pakistan	-11.1581
▁srbov	-11.1582
▁orodja	-11.1582
▁dz	-11.1583
▁korenine	-11.1584
▁razvita	-11.1585
▁cam	-11.1586
▁predaval	-11.1586
▁oton	-11.1587
izvirno	-11.1588
▁krone	-11.1589
▁zemljepisne	-11.1596
▁(8	-11.1596
▁katar	-11.1601
sovraž	-11.1601
▁glave	-11.1607
▁odkritju	-11.161
▁prebiva	-11.1611
▁cambridge	-11.1613
čji	-11.1614
▁izboljšan	-11.1622
▁marij	-11.1625
▁metra	-11.1626
dorf	-11.1627
brez	-11.1628
mednarodnega	-11.163
▁pivo	-11.1632
sever	-11.1642
▁izvede	-11.1643
▁vnuk	-11.1643
▁mostovi	-11.1644
▁oblačila	-11.1648
▁uradnih	-11.1649
▁šum	-11.1654
▁//	-11.1655
▁hrvatov	-11.1664
▁tkanin	-11.1664
▁templji	-11.1664
▁osemnajst	-11.1664
▁težka	-11.1664
▁štirinajst	-11.1665
ст	-11.1665
▁tablic	-11.1665
▁ljubitelj	-11.1665
▁alex	-11.1666
▁zagrebu	-11.1666
▁izmeničn	-11.1667
sus	-11.1667
▁matematičnih	-11.1668
▁medalje	-11.1668
▁kombinacija	-11.1669
delovati	-11.1673
▁pravokotni	-11.1673
▁1896	-11.1673
▁urah	-11.1674
▁mnogokrat	-11.1676
▁faze	-11.1682
▁verovanj	-11.1683
▁naslednjega	-11.1686
▁uvrščamo	-11.1687
▁razsežnosti	-11.1688
▁štirimi	-11.169
▁klorid	-11.1691
▁kratke	-11.1691
▁združenem	-11.1693
▁kontinent	-11.1695
▁polarni	-11.1697
▁evr	-11.1698
▁stroji	-11.17
▁udarni	-11.1704
▁programske	-11.1706
stat	-11.171
▁londonsk	-11.171
▁umika	-11.1713
▁cambridgeu	-11.1715
▁poznih	-11.1717
▁beton	-11.1721
▁omejena	-11.1721
▁protonov	-11.1726
▁lastnih	-11.1726
kovič	-11.1727
▁postajo	-11.1727
rico	-11.1728
▁osrednjem	-11.173
▁teža	-11.173
▁dioksida	-11.1732
▁kvantne	-11.1739
▁specialne	-11.1741
▁izbor	-11.1745
▁posploši	-11.1747
▁pripomogl	-11.1747
▁enostavne	-11.1747
▁engels	-11.1747
▁izmišljen	-11.1747
▁lewis	-11.1748
▁oporišč	-11.1748
▁gradivo	-11.1748
▁oksidacijsk	-11.1748
▁ciklu	-11.1748
▁ločuje	-11.1749
▁željo	-11.175
▁svetišč	-11.1751
▁delavci	-11.1754
▁romanu	-11.1754
▁najmanjše	-11.1754
▁zavzemal	-11.1754
▁brit	-11.1758
▁srbija	-11.1758
▁kum	-11.1759
▁vrti	-11.1761
▁vazal	-11.1761
▁sestavljal	-11.1765
▁luč	-11.1765
▁mešanica	-11.1765
▁širjenj	-11.1769
▁lor	-11.177
▁nebes	-11.1772
▁jacques	-11.1772
▁mihail	-11.1772
-16	-11.1777
357	-11.178
▁mošej	-11.178
▁primož	-11.1781
▁def	-11.1786
scen	-11.1786
▁trenutn	-11.1792
▁gradben	-11.1796
▁služila	-11.1796
▁govorimo	-11.1796
▁puščava	-11.18
▁organske	-11.1809
▁poletja	-11.181
ord	-11.1811
vrt	-11.1814
▁skupnega	-11.1816
jščina	-11.1819
upor	-11.1819
▁opredeli	-11.1821
▁osvojila	-11.1824
▁vetrovi	-11.1825
▁upravljal	-11.1826
▁populacije	-11.1829
▁izkopavanj	-11.1831
▁turčije	-11.1831
▁teritorialne	-11.1831
▁aksiom	-11.1831
▁kriza	-11.1831
▁planote	-11.1832
▁international	-11.1832
▁boginje	-11.1832
▁določitev	-11.1834
▁if	-11.1834
▁spekter	-11.1835
▁silam	-11.1835
▁sedmi	-11.1838
▁aluminijev	-11.1838
▁nazor	-11.1838
▁pripoveduje	-11.1839
▁sudan	-11.1841
▁šent	-11.1847
▁združitvi	-11.1849
kvadr	-11.1854
slovensko	-11.1855
▁kripto	-11.1857
▁proge	-11.1864
▁pojavov	-11.1869
▁lord	-11.1876
▁zaloge	-11.1877
bula	-11.1879
▁vrnili	-11.1887
▁paket	-11.1887
▁bin	-11.1887
▁močnim	-11.1888
▁izvajali	-11.1889
iranjem	-11.189
▁stranski	-11.1894
▁prednosti	-11.1895
▁ravnina	-11.1896
▁prsti	-11.1896
▁predmeti	-11.1896
▁različic	-11.1897
▁zgodnjega	-11.1898
▁množični	-11.19
▁galaksija	-11.1901
▁potrebne	-11.1902
▁različici	-11.1902
▁sand	-11.1902
▁dokazuje	-11.1902
▁zimske	-11.1908
rick	-11.191
▁kajti	-11.1913
▁nadaljevanje	-11.1915
▁vlaga	-11.1916
▁mehanizem	-11.1916
▁radioaktivni	-11.1916
▁tbilisi	-11.1916
▁španijo	-11.1916
▁prizadet	-11.1916
▁obramba	-11.1916
▁turčija	-11.1916
▁windows	-11.1916
▁posadke	-11.1916
▁pritegnil	-11.1916
▁ponudb	-11.1916
▁zaprosil	-11.1916
▁reakcijo	-11.1917
▁slovanov	-11.1917
▁uporabljalo	-11.1917
▁ladji	-11.1917
▁stekleni	-11.1917
▁išče	-11.1917
▁omejitev	-11.1918
▁lahka	-11.1918
▁dušan	-11.1918
▁armenski	-11.1919
▁umetniško	-11.1919
▁jame	-11.1921
▁enlil	-11.1922
▁vetrov	-11.1923
▁kamna	-11.1923
▁1881	-11.1924
▁gorah	-11.1924
▁mavri	-11.1925
zgodovina	-11.1925
▁2022	-11.1926
▁češkem	-11.1929
▁nizozemsko	-11.1929
▁ročno	-11.1929
avstr	-11.193
▁mihael	-11.193
▁vključeni	-11.1931
▁visokega	-11.1933
▁kraljice	-11.1937
▁bled	-11.194
tako	-11.1947
▁kulturna	-11.1949
izaciji	-11.1949
▁einsteinov	-11.1953
▁preboj	-11.1953
▁pisati	-11.1955
▁teži	-11.1955
proti	-11.1961
▁kdo	-11.1964
▁zvezdni	-11.1965
▁suhe	-11.1966
kljub	-11.1967
▁jernej	-11.1968
▁potrdi	-11.1968
▁računanje	-11.1968
▁slavni	-11.197
▁osvoji	-11.1971
▁štela	-11.1977
▁83	-11.1978
▁toplotne	-11.1979
▁alb	-11.1981
▁210	-11.1982
▁pobeg	-11.1984
cro	-11.1985
▁dolin	-11.1987
▁jure	-11.1989
▁železniške	-11.1989
▁miha	-11.199
▁toplotni	-11.1992
▁abecede	-11.1992
▁nogometn	-11.1993
áj	-11.1994
▁cerkveno	-11.1996
▁mornar	-11.1997
▁kritiki	-11.1998
▁vrstah	-11.1999
▁peči	-11.2001
▁praznuje	-11.2001
▁habitat	-11.2001
▁posadko	-11.2001
▁konferenci	-11.2001
▁moskva	-11.2002
▁kemije	-11.2002
▁triglav	-11.2002
▁polovice	-11.2002
▁harold	-11.2003
▁enotnost	-11.2003
▁orožjem	-11.2003
▁opazovanje	-11.2003
▁prihodnosti	-11.2004
▁pisanja	-11.2005
▁vzorec	-11.2007
▁inštituta	-11.2007
▁opredelil	-11.2009
▁knjižnice	-11.2011
▁akro	-11.2013
ogla	-11.2014
▁dobilo	-11.2015
▁akcija	-11.2016
▁pripisujejo	-11.2017
▁1899	-11.2018
▁vakuum	-11.2019
▁luka	-11.2022
▁močnejši	-11.2025
▁antropo	-11.2026
▁afriške	-11.2026
cijske	-11.2028
▁določiti	-11.2029
elli	-11.2031
▁polimer	-11.2033
▁oxford	-11.2037
▁prst	-11.2037
wen	-11.2038
▁žarki	-11.2039
▁objektiv	-11.2041
▁mega	-11.2042
▁narava	-11.2043
čanov	-11.2044
▁prednik	-11.2046
▁večjem	-11.2051
▁koncentracijo	-11.2054
700	-11.2056
▁civilne	-11.2057
▁vrstami	-11.2057
▁prostem	-11.2057
▁stopenj	-11.2058
▁organizaciji	-11.2064
▁prodal	-11.2065
owski	-11.2068
▁ogrske	-11.2068
▁časovno	-11.2068
▁xii	-11.2071
▁besedah	-11.2071
▁sporočil	-11.2075
▁njihovim	-11.2075
▁agencija	-11.2079
▁stališča	-11.2083
elektri	-11.2083
▁pripovedi	-11.2084
▁(7	-11.2084
▁und	-11.2086
▁pokrovitelj	-11.2086
eau	-11.2087
▁oklepni	-11.2087
▁energetsk	-11.2088
▁herodot	-11.2088
▁podnebja	-11.2088
▁prepričal	-11.2088
▁simptom	-11.2088
▁school	-11.2088
▁grčija	-11.2088
▁kakršne	-11.2088
▁prisoten	-11.2088
▁predviden	-11.2088
▁definiciji	-11.2088
▁anglije	-11.2088
▁verižn	-11.2089
▁južnoafrišk	-11.2089
▁mount	-11.2089
▁baterij	-11.209
▁bosne	-11.209
▁varoval	-11.2091
get	-11.2091
▁slovaške	-11.2092
▁puščic	-11.2094
▁1873	-11.2094
▁nekako	-11.2096
γ	-11.2098
▁tekmovanja	-11.2099
▁elektrona	-11.2101
▁pogodb	-11.2106
▁irski	-11.2107
▁ohrani	-11.2109
šak	-11.2117
▁human	-11.2118
▁življenjske	-11.2119
="10.	-11.212
▁segreva	-11.212
▁santa	-11.2122
ges	-11.2128
▁gibljejo	-11.2129
▁vsebino	-11.213
▁znanstvenikov	-11.2133
▁varnostni	-11.2137
▁prahu	-11.2137
▁zvezno	-11.2138
▁potreben	-11.2144
188	-11.2146
▁številski	-11.215
▁zaznava	-11.2153
▁šal	-11.2153
▁opern	-11.2154
▁simfoničn	-11.2158
▁zboru	-11.2158
bec	-11.2158
▁zidov	-11.2162
▁ujel	-11.2164
▁γ	-11.2164
▁vemo	-11.2164
▁električnih	-11.2165
▁končne	-11.2165
▁kasnejših	-11.217
▁sporočilo	-11.2171
▁dobrih	-11.2172
▁tekst	-11.2173
▁cornwall	-11.2175
▁federativn	-11.2175
▁gimnazijo	-11.2175
▁nenavadno	-11.2175
▁področij	-11.2175
▁lestvici	-11.2175
▁posredno	-11.2175
▁mlajše	-11.2175
▁zadolžen	-11.2175
▁francoz	-11.2175
▁ogenj	-11.2175
▁težje	-11.2176
▁plemensk	-11.2176
▁vsakdanje	-11.2177
▁mrtve	-11.2179
▁nihče	-11.2179
▁1871	-11.2181
▁obmorsk	-11.2181
▁pevec	-11.2182
▁indijsk	-11.2184
▁ognja	-11.2185
▁močjo	-11.2187
▁šestdesetih	-11.2189
▁nosilec	-11.2191
ella	-11.2192
▁naselju	-11.2194
▁slovanske	-11.2202
▁radar	-11.2203
▁žita	-11.2204
▁manjšina	-11.2204
pomen	-11.2204
▁želja	-11.2204
▁šolah	-11.2206
▁beograd	-11.2212
▁drog	-11.2215
▁potrebujejo	-11.2219
▁celem	-11.2221
▁gold	-11.2221
▁nihanj	-11.2221
▁desetih	-11.2224
▁zamenjav	-11.2225
▁sredozemsko	-11.2226
▁tista	-11.2229
onija	-11.223
▁tisoče	-11.2232
▁eg	-11.2234
▁rt	-11.2234
▁mreža	-11.2238
▁dobijo	-11.2239
▁ohranjanje	-11.2241
▁sloga	-11.2245
▁osvojitvi	-11.2245
▁budističn	-11.2252
▁uničili	-11.2253
zemelj	-11.2258
mongol	-11.2259
fried	-11.226
▁uporabljeni	-11.2261
▁marije	-11.2261
▁profesional	-11.2262
▁saksofon	-11.2262
▁haydn	-11.2262
▁rojstvo	-11.2262
▁zavezništvo	-11.2262
▁ekonomske	-11.2262
▁ostankov	-11.2262
▁kapljic	-11.2262
▁pričakoval	-11.2262
▁zbolel	-11.2262
▁ustrezne	-11.2263
▁churchill	-11.2263
ravni	-11.2263
▁božji	-11.2264
▁skupščina	-11.2264
▁vozi	-11.2264
soci	-11.2264
▁odločitve	-11.2265
▁umetne	-11.2265
▁velesil	-11.2267
▁armenske	-11.2268
▁odprte	-11.2269
ključitev	-11.2269
▁mos	-11.2269
▁zapusti	-11.2272
▁preselili	-11.2273
▁nahajališča	-11.2276
▁krem	-11.2278
▁sestavljali	-11.228
▁simfonični	-11.228
▁domačih	-11.2281
-14	-11.2282
▁astronomiji	-11.2284
▁lesen	-11.2286
▁začnejo	-11.2286
▁zakonik	-11.2289
new	-11.229
▁dun	-11.2291
▁veljala	-11.2293
▁odpoved	-11.2295
▁delce	-11.2296
▁kongresu	-11.2297
▁divja	-11.23
▁palm	-11.23
▁petrov	-11.2305
▁hladiln	-11.2305
kelj	-11.2305
▁svetišče	-11.2307
▁astronomsko	-11.2308
▁prejšnjih	-11.2311
▁razumel	-11.2313
▁prijatelja	-11.2314
▁jude	-11.2316
▁predmete	-11.2316
▁dušikov	-11.2316
▁konvencij	-11.2317
▁odprto	-11.2319
▁osmih	-11.2321
▁prevelik	-11.2322
▁000	-11.2324
▁unija	-11.2326
▁vsebine	-11.233
▁uničenje	-11.233
▁zlog	-11.2332
▁veže	-11.2332
mesto	-11.2334
195	-11.2337
▁bizantinske	-11.2337
▁spektra	-11.2343
▁abd	-11.2344
▁obrob	-11.2347
konservativn	-11.2351
▁kondenzator	-11.2351
▁navidezno	-11.2351
▁renesanse	-11.2351
▁salzburg	-11.2351
▁schrödinger	-11.2351
▁specifični	-11.2351
▁upokojil	-11.2351
▁pospešen	-11.2351
▁usposobljen	-11.2351
vretenčar	-11.2351
▁kemijsko	-11.2351
▁lendava	-11.2351
▁svobodni	-11.2351
▁ekonomski	-11.2351
▁dotedanj	-11.2351
▁švici	-11.2351
▁pokaže	-11.2351
▁sončeve	-11.2352
▁stopnji	-11.2352
angel	-11.2352
erji	-11.2353
▁homogen	-11.2353
▁otoč	-11.2354
▁sezone	-11.2354
zemlja	-11.2356
▁kvark	-11.2356
▁preproste	-11.2357
▁rose	-11.2357
▁1888	-11.2358
▁niger	-11.2358
▁vzhodnih	-11.2359
▁pogosta	-11.236
▁1859	-11.2361
▁140	-11.2361
▁kislino	-11.2361
▁dramatik	-11.2362
▁1894	-11.2364
▁bližnjega	-11.2366
▁gornji	-11.2366
ljev	-11.2368
▁bitje	-11.2371
▁bad	-11.2372
▁čop	-11.2373
▁igralcev	-11.2374
▁balkan	-11.2374
▁konstanto	-11.2374
▁razglasili	-11.2375
▁vrnitev	-11.2376
▁ciklo	-11.2378
▁(9	-11.238
▁nudi	-11.2384
▁igrajo	-11.2387
rič	-11.239
▁razdelitvi	-11.239
▁volt	-11.2392
▁pogojev	-11.2393
▁puščave	-11.2395
kotnik	-11.2397
▁hall	-11.2397
▁stranic	-11.2399
▁jeklo	-11.24
▁reakcij	-11.2401
▁verige	-11.2402
▁grobnica	-11.2403
yan	-11.2416
▁načrtovanje	-11.2421
▁kw	-11.2424
▁stiku	-11.2425
▁cela	-11.2425
▁študentov	-11.2426
pf	-11.2426
▁ionov	-11.2429
num	-11.2431
▁zapoved	-11.2433
▁bismarck	-11.244
▁džingiskan	-11.244
▁literarne	-11.244
▁nietzsche	-11.244
▁ekspedicij	-11.244
▁najmočnejši	-11.244
▁tutmoz	-11.244
▁diktator	-11.244
▁tenzor	-11.244
▁hladno	-11.2441
▁javna	-11.2441
▁volilni	-11.2441
▁hawk	-11.2441
▁statistični	-11.2441
▁normalno	-11.2442
▁knjižnico	-11.2445
lerjev	-11.2445
▁najmanjša	-11.2447
▁1878	-11.2449
klad	-11.2449
▁gauss	-11.245
▁razdelimo	-11.2453
▁franklin	-11.2455
▁meter	-11.2457
kjer	-11.2458
▁bozon	-11.2459
jean	-11.246
▁ozemeljsk	-11.2462
▁vrednot	-11.2467
▁prejme	-11.2471
▁častili	-11.2475
▁motivi	-11.2477
▁sak	-11.2477
▁usd	-11.2478
▁štel	-11.2479
verzi	-11.2479
bombnišk	-11.2482
▁pritiskom	-11.2486
▁pokazale	-11.2489
slovenski	-11.2493
▁vladanje	-11.2494
▁sosednje	-11.2496
−1	-11.2496
▁igranje	-11.2496
▁črto	-11.2499
▁smel	-11.2499
▁osebo	-11.25
▁označi	-11.2501
kir	-11.2507
▁navedel	-11.2509
▁hav	-11.2509
pur	-11.251
▁janko	-11.251
mali	-11.2511
▁verska	-11.2512
▁oblikuje	-11.2512
▁kp	-11.2512
▁ark	-11.2512
▁podobe	-11.2513
bet	-11.2514
▁poškodb	-11.2514
▁napako	-11.2517
▁astro	-11.2519
▁kopij	-11.252
▁prah	-11.2525
▁manjšin	-11.2527
▁kast	-11.2529
ljanje	-11.253
▁transcendent	-11.253
▁enciklopedij	-11.253
▁literaturi	-11.253
▁razvršča	-11.253
▁lestvica	-11.253
▁maurice	-11.253
▁pravoslavne	-11.253
▁matjaž	-11.253
▁zagotovo	-11.2531
▁kemijo	-11.2531
▁josef	-11.2531
▁avstraliji	-11.2532
▁izgnal	-11.2532
▁razreši	-11.2532
▁oporo	-11.2533
▁cement	-11.2534
▁nebesni	-11.2535
▁raketn	-11.2536
▁grand	-11.2536
▁tropski	-11.2536
▁opero	-11.2537
▁pridobili	-11.2538
▁posameznika	-11.254
risto	-11.2541
▁republik	-11.2543
▁generacije	-11.2543
rko	-11.2543
▁yorku	-11.2544
▁verjamejo	-11.2548
▁spremembi	-11.2549
peter	-11.255
íl	-11.255
▁kakšno	-11.2551
▁razlago	-11.2551
▁ohranjeni	-11.2553
▁vanjo	-11.2556
▁ekipe	-11.2558
▁parku	-11.2558
▁zbiranje	-11.2559
▁sladkorja	-11.2562
▁slovanski	-11.2562
▁pridobiti	-11.2564
▁kuba	-11.2566
▁ploščo	-11.2566
▁izvršil	-11.2567
▁fotograf	-11.2575
▁institucije	-11.2581
▁ast	-11.2582
▁video	-11.2586
▁preganja	-11.2587
▁človekov	-11.2588
linear	-11.2593
▁gospodarskega	-11.2597
▁satelitov	-11.26
▁prevlado	-11.2604
▁zmanjšala	-11.2605
▁dogajanje	-11.2606
▁astronomov	-11.2606
▁1.000	-11.2608
▁francoskem	-11.2609
▁civilni	-11.2614
▁odprli	-11.2614
▁prebil	-11.2616
▁poročilo	-11.2617
▁tito	-11.262
▁eksponent	-11.2621
▁povprečne	-11.2621
▁specifična	-11.2621
▁aplikacij	-11.2621
▁emisij	-11.2621
▁gradient	-11.2621
▁boljševik	-11.2622
▁rezervn	-11.2622
▁orbital	-11.2622
▁odvisni	-11.2623
▁hin	-11.2623
▁pek	-11.2623
▁sistematično	-11.2625
▁starodavne	-11.2626
▁1893	-11.2629
▁zeleno	-11.263
▁obiskovalcev	-11.2633
▁andrew	-11.2633
▁mnogim	-11.2636
ás	-11.2641
▁delovanju	-11.2642
▁srca	-11.2645
jočim	-11.2647
147	-11.2648
▁razkol	-11.2648
▁šolski	-11.2651
_7	-11.2652
▁odvisnost	-11.2652
avtomat	-11.2653
▁kuhan	-11.2655
▁konstrukcije	-11.2656
▁prizadeva	-11.2659
▁vključevala	-11.266
▁aton	-11.266
▁civilno	-11.2665
▁rub	-11.2666
▁priljubljenost	-11.2667
▁potovanju	-11.2669
▁levem	-11.267
▁obstajata	-11.267
▁borov	-11.2673
sey	-11.2674
▁kartograf	-11.2675
ejci	-11.268
▁odločili	-11.2683
▁beta	-11.2688
▁finske	-11.2692
teološk	-11.2696
▁ponovne	-11.2699
▁vdrl	-11.2699
▁prikazal	-11.27
▁širšem	-11.2702
manov	-11.2703
grup	-11.2706
andra	-11.2708
▁divizijo	-11.2708
▁avtorjev	-11.2708
▁burma	-11.2711
▁enotah	-11.2711
eugène	-11.2713
▁tutankamon	-11.2713
▁sedemdesetih	-11.2713
▁tradicionalna	-11.2713
▁prisotna	-11.2713
▁učinki	-11.2713
▁možganov	-11.2713
▁globina	-11.2713
▁izdelave	-11.2713
▁rdečo	-11.2713
▁absolutna	-11.2713
▁okoljsk	-11.2713
▁doslej	-11.2713
▁podaljšan	-11.2713
▁božanstva	-11.2713
▁poljubno	-11.2714
▁sestavljene	-11.2714
▁policijski	-11.2714
▁ministra	-11.2715
▁atenah	-11.2716
▁filozofske	-11.2718
▁bival	-11.2718
▁podporn	-11.2719
▁širitev	-11.2719
▁ustvarili	-11.272
▁razkril	-11.2721
▁prenesl	-11.2721
▁1891	-11.2722
▁dna	-11.2723
▁marmor	-11.2724
▁vodijo	-11.2726
▁pošilja	-11.2726
▁raf	-11.2728
▁jeklen	-11.2728
▁količinah	-11.2732
▁forum	-11.2734
▁1200	-11.2737
▁litovsk	-11.2741
obraz	-11.2746
▁transformacij	-11.2747
▁sarat	-11.2747
▁šir	-11.2749
▁92	-11.275
▁dvigne	-11.275
▁razmerju	-11.2754
poznavanje	-11.2754
▁pokrivajo	-11.2758
ević	-11.276
▁fresk	-11.276
▁pričakovan	-11.2762
▁zaščiti	-11.2762
rome	-11.2763
▁davčn	-11.2763
▁alan	-11.2764
▁vesoljske	-11.2769
▁delitve	-11.2771
▁klan	-11.2773
▁homer	-11.2774
▁dovoljenje	-11.2776
▁qua	-11.2782
▁največjega	-11.2786
▁napadov	-11.2787
▁rdečega	-11.2791
▁povod	-11.2796
▁sestavina	-11.2796
▁pokal	-11.2796
dale	-11.2796
▁pokopali	-11.2801
▁mogla	-11.2804
▁tekmovanje	-11.2805
▁predstavnikov	-11.2805
▁armenije	-11.2805
▁jupitrov	-11.2805
▁konservatorij	-11.2805
▁najvišjo	-11.2805
▁razpolago	-11.2805
▁štajerske	-11.2805
▁rezidenc	-11.2805
▁kancler	-11.2805
▁kolektiv	-11.2806
▁komunicira	-11.2806
▁hladni	-11.2806
▁ribolov	-11.2806
▁izoliran	-11.2806
▁prostornino	-11.2806
▁dimitrij	-11.2806
▁ohranilo	-11.2807
▁slovenščino	-11.2807
▁količnik	-11.2807
▁strok	-11.2808
▁ugank	-11.2809
▁pij	-11.2809
▁težji	-11.281
▁makav	-11.2811
▁venere	-11.2815
▁čaka	-11.2816
▁umetnikov	-11.2818
▁daljše	-11.2818
▁pompej	-11.2819
▁kozmolog	-11.2821
▁damask	-11.2823
enstein	-11.2824
▁kraški	-11.2824
▁knjigah	-11.2828
▁odgovoren	-11.283
▁uporabiti	-11.283
▁reši	-11.2833
▁kmetje	-11.2835
delež	-11.2842
▁kje	-11.2844
▁aktivne	-11.2844
▁roger	-11.2844
▁meteor	-11.2855
▁usmeri	-11.2858
▁naselji	-11.2858
▁đ	-11.2859
▁national	-11.2861
▁počasne	-11.2867
cijsko	-11.2867
▁spreminjajo	-11.2867
plin	-11.2868
▁zavedal	-11.2871
▁dolgoletn	-11.2878
165	-11.2878
klin	-11.288
130	-11.2885
▁pokopališč	-11.2885
▁skuša	-11.2885
▁svetov	-11.2888
ogrsko	-11.2891
▁padal	-11.2891
▁sig	-11.2894
▁načelom	-11.2896
▁juan	-11.2898
▁starogrški	-11.2899
▁system	-11.2899
▁ozemlji	-11.2899
▁čaščenje	-11.2899
▁domnevo	-11.2899
▁prototip	-11.2899
▁pisavo	-11.2899
▁vrniti	-11.2899
▁prodrl	-11.2901
▁kozmičn	-11.2902
▁grščine	-11.2902
▁primorske	-11.2903
▁linearni	-11.2904
▁budizma	-11.2904
▁angeles	-11.2905
▁težo	-11.2905
▁1867	-11.2909
▁opat	-11.2911
▁ibersk	-11.2912
▁nabojev	-11.2915
▁1902	-11.2915
▁učenci	-11.2917
risal	-11.2922
▁končalo	-11.2923
▁razvidno	-11.2927
▁zmožnost	-11.2927
italija	-11.2928
▁atomske	-11.2931
▁dokazati	-11.2933
▁kritiziral	-11.2934
▁moškega	-11.2939
▁pretiran	-11.2941
▁realni	-11.2942
▁lige	-11.2943
▁omenjeni	-11.2943
▁kmetijskih	-11.2947
▁spopadov	-11.2948
fran	-11.2951
▁živih	-11.2951
▁dunajski	-11.2952
▁rodbine	-11.2953
▁lar	-11.2953
▁zmanjšanje	-11.2956
kazati	-11.2957
▁vihar	-11.2958
▁goste	-11.2964
▁sociolog	-11.2968
šir	-11.2971
▁vključi	-11.2973
ssn	-11.2975
▁procesov	-11.2976
▁figura	-11.2977
11)	-11.2979
▁izpust	-11.2982
▁rastlinski	-11.2983
▁zapisov	-11.2984
▁nikola	-11.2986
▁vektorski	-11.2991
nny	-11.2991
▁trud	-11.2991
▁dostojevski	-11.2993
▁pomnilnik	-11.2993
▁raziskuje	-11.2993
▁tragedij	-11.2993
▁človeštva	-11.2993
▁študirat	-11.2993
▁upošteval	-11.2993
▁jadraln	-11.2993
▁sprednji	-11.2993
▁tretjo	-11.2993
▁hipotez	-11.2993
▁strežnik	-11.2993
▁premirje	-11.2994
▁mitološk	-11.2994
▁bolečin	-11.2994
▁vrzel	-11.2994
▁zastavo	-11.2994
▁vodnjak	-11.2995
▁aparat	-11.2995
jevati	-11.2995
▁ptuj	-11.2998
-10	-11.2998
▁uspeva	-11.2999
▁praštevilsk	-11.3004
▁obvezno	-11.3004
▁zagotavljal	-11.3005
▁krize	-11.3006
▁malih	-11.3008
▁puške	-11.3012
▁arktičn	-11.3015
▁fizikalni	-11.3016
▁kopic	-11.3016
▁okrožn	-11.3017
▁run	-11.3017
▁sirijo	-11.3018
jujejo	-11.3018
▁prekrit	-11.3021
▁wy	-11.303
▁rečni	-11.3033
▁zvrst	-11.3034
▁zelene	-11.3035
▁obširn	-11.3038
▁krivulj	-11.304
▁2,5	-11.3044
▁prepustil	-11.3044
enburg	-11.3048
▁avtobus	-11.3052
▁avstrijske	-11.3054
▁manjšine	-11.3055
▁zaščitni	-11.3056
▁igralci	-11.3056
▁vrača	-11.3058
▁delujoč	-11.3059
▁dvojno	-11.3059
▁naredili	-11.3061
▁odlično	-11.3063
▁obljubil	-11.3067
▁znamenje	-11.3072
▁gojen	-11.3081
▁okolice	-11.3085
novič	-11.3086
▁islamsk	-11.3086
▁varovan	-11.3088
▁hamilton	-11.3088
▁schumacher	-11.3088
▁geometrija	-11.3088
▁obrambi	-11.3088
▁taylor	-11.3089
▁furlan	-11.3089
▁zunanja	-11.3089
▁theodor	-11.3089
▁ferrari	-11.3089
▁dnevno	-11.3089
html	-11.3089
▁negativno	-11.3089
▁generator	-11.3089
▁royal	-11.3089
▁formulo	-11.3089
▁poplave	-11.309
▁trubar	-11.309
aritmeti	-11.3092
▁osnove	-11.3093
▁prestolnice	-11.3093
▁bivše	-11.3094
▁nož	-11.3094
▁lahki	-11.3096
wald	-11.3096
▁1866	-11.3096
="359	-11.3096
▁oboroženi	-11.3097
▁dvorana	-11.3098
▁nečak	-11.3098
▁običajne	-11.3099
▁reviji	-11.31
▁paleo	-11.31
▁1860	-11.3101
▁grafik	-11.3101
▁pisec	-11.3104
▁sporočila	-11.3107
▁matematična	-11.3107
▁vrhovnega	-11.3107
▁nemce	-11.3108
▁gorskih	-11.3109
▁baron	-11.311
ujoče	-11.311
▁oblikovanju	-11.311
čuje	-11.3113
▁ostanek	-11.3114
▁vztrajnost	-11.3115
wal	-11.3115
▁bukov	-11.3118
▁napisana	-11.3119
▁popolna	-11.3122
▁hat	-11.3124
▁raztopina	-11.3126
▁pogajanja	-11.3127
▁sekundo	-11.3129
▁omeji	-11.3129
▁upoštevati	-11.3131
▁sosednjih	-11.3135
▁cat	-11.3136
▁peterburg	-11.3136
▁merjen	-11.3139
▁evropskem	-11.3141
▁hitlerjev	-11.3143
▁zaposlenih	-11.3148
▁transformacija	-11.315
▁div	-11.315
▁razvito	-11.3151
▁povratn	-11.3152
▁uporabimo	-11.3152
▁poganja	-11.3153
▁pripeljalo	-11.3155
▁tehnologijo	-11.3161
▁cerkvijo	-11.3161
▁trojan	-11.3161
326	-11.3164
▁dolgih	-11.3164
▁aš	-11.3166
▁travnik	-11.3169
▁določanje	-11.3169
▁prevajanje	-11.317
▁pokojni	-11.3173
▁1,5	-11.3179
▁enotno	-11.3181
▁karol	-11.3182
▁bogom	-11.3183
▁kuvajt	-11.3185
▁sposobni	-11.3185
▁uprizori	-11.3185
▁algebra	-11.3185
▁ekosistem	-11.3185
▁krompir	-11.3185
▁leipzig	-11.3185
▁neposredne	-11.3185
▁poslabšal	-11.3185
▁turčiji	-11.3185
▁negativne	-11.3185
▁prvenstvu	-11.3185
▁omeniti	-11.3185
▁spontan	-11.3185
▁zakonodaja	-11.3185
▁iskanju	-11.3185
▁zlahka	-11.3185
▁konzul	-11.3185
▁prenašal	-11.3186
▁kmetijstva	-11.3187
▁lokalna	-11.3188
▁podpredsednik	-11.3188
▁banovin	-11.3188
▁izdajo	-11.3188
▁komentar	-11.3189
▁vrtenje	-11.319
▁city	-11.319
▁priprave	-11.3191
▁ležeč	-11.3197
▁množici	-11.3197
▁cent	-11.3198
▁unix	-11.32
▁armado	-11.3204
▁biološki	-11.3204
—	-11.3206
▁kalifornija	-11.3208
▁samci	-11.3214
▁organov	-11.3218
▁moško	-11.3218
▁divje	-11.3224
▁fermatov	-11.3225
▁izboljšanje	-11.3228
▁uporabni	-11.3231
john	-11.3231
▁dokazan	-11.3239
▁regijah	-11.3243
▁obleganje	-11.3244
▁štejejo	-11.3246
▁apostol	-11.3246
▁tehniko	-11.3248
▁prihodom	-11.3251
ра	-11.3252
▁460.	-11.3252
▁kolonialne	-11.3253
▁potovanj	-11.3259
▁kratkem	-11.326
▁vodno	-11.3261
▁filmske	-11.3265
▁strahu	-11.3271
▁bul	-11.3275
▁krajine	-11.3275
▁odvisnosti	-11.3279
inger	-11.3279
▁ljubljansk	-11.3281
▁odgovoril	-11.3281
▁ekvivalent	-11.3282
▁federacije	-11.3282
▁nadomešča	-11.3282
▁osončju	-11.3282
▁preoblikoval	-11.3282
▁publikacij	-11.3282
▁izkušnje	-11.3282
▁dediščino	-11.3282
▁depresij	-11.3282
▁gruzije	-11.3282
▁zmeraj	-11.3282
▁učbenik	-11.3282
▁paralaks	-11.3282
▁shranjen	-11.3282
▁samostalnik	-11.3282
▁hetitsk	-11.3282
▁definicije	-11.3282
▁pomorska	-11.3282
▁potrjuje	-11.3283
▁posebnim	-11.3283
▁pripravo	-11.3283
320	-11.3286
muz	-11.3287
▁pokrov	-11.3287
▁kruh	-11.3288
▁muslimanske	-11.329
ruski	-11.3292
▁severovzhodni	-11.3293
▁1882	-11.3293
▁kapitala	-11.3294
2000	-11.3296
▁cre	-11.3296
"("	-11.3299
▁kalif	-11.3299
«".	-11.33
▁vsoto	-11.3301
▁irskem	-11.3301
▁razsvetljen	-11.3308
▁okrajev	-11.3308
▁aleksandrov	-11.3317
rry	-11.3323
▁poletje	-11.3324
▁skupinami	-11.3328
▁kolesa	-11.3328
▁upornost	-11.3332
▁krogle	-11.3332
▁nanašajo	-11.3332
▁končnic	-11.3333
▁služijo	-11.3334
▁rang	-11.3334
▁pisni	-11.3336
▁vstopa	-11.3336
▁končani	-11.3336
grafije	-11.3338
stol	-11.3338
▁membrane	-11.3343
▁italijanskega	-11.3349
▁bivši	-11.3351
])	-11.3351
▁suho	-11.3352
▁stanovanjsk	-11.3354
▁omenjajo	-11.3361
▁suše	-11.3364
▁osmi	-11.3367
▁okoliški	-11.3369
▁kun	-11.3371
▁zahtevali	-11.3373
▁riemannov	-11.3375
136	-11.3377
▁sodb	-11.338
▁ekonomsko	-11.338
▁krščansko	-11.338
▁ozračju	-11.338
▁paragvaj	-11.338
▁demokratični	-11.338
▁plemstvo	-11.338
▁dediščina	-11.338
▁izdelke	-11.338
▁planota	-11.3381
▁kofein	-11.3381
▁zastave	-11.3381
▁smisel	-11.3381
▁enki	-11.3381
▁razprava	-11.3381
▁arhitekturi	-11.3381
▁vrtenja	-11.3381
▁stadion	-11.3381
▁minimaln	-11.3381
▁latinščini	-11.3382
▁pridevnik	-11.3382
▁andré	-11.3383
▁ljubljanske	-11.3383
▁poslikav	-11.3384
▁štirideset	-11.3386
▁pozitivne	-11.3386
▁black	-11.3387
▁spomenikov	-11.3388
▁vodna	-11.3391
▁valovne	-11.3393
gent	-11.3393
peljati	-11.3395
▁mirno	-11.3397
▁ravnine	-11.3397
134	-11.3397
▁rešiti	-11.3398
▁fazo	-11.3399
menski	-11.3402
special	-11.3403
▁golob	-11.3406
▁padec	-11.3409
▁lind	-11.3409
▁dobrodeln	-11.3409
▁dur	-11.3413
▁zadev	-11.3413
▁elektromagnetno	-11.3416
▁preganjanj	-11.3418
▁plamen	-11.3418
▁nesreči	-11.3424
▁rudar	-11.3425
▁učenjaki	-11.3426
ós	-11.3428
opera	-11.3431
▁krvn	-11.3435
▁dejavnikov	-11.3436
tribut	-11.3438
▁brani	-11.3439
▁ionsk	-11.344
▁mesece	-11.3442
▁točkast	-11.3442
▁fok	-11.3444
▁izrazil	-11.3448
▁pleme	-11.3449
▁pusti	-11.3449
▁fine	-11.345
▁reakciji	-11.3452
▁mošeja	-11.3454
žani	-11.3454
dejan	-11.3455
▁uporabljale	-11.3457
▁odlikovanje	-11.3458
▁širši	-11.346
▁vodje	-11.3461
▁napoleonov	-11.3464
▁podan	-11.3465
▁band	-11.3467
▁osrednj	-11.3473
▁pitagor	-11.3478
▁bagdad	-11.3479
▁omrežja	-11.3479
▁paradoks	-11.3479
▁predpostavk	-11.3479
▁polprevodnik	-11.3479
▁izognil	-11.3479
▁opazuje	-11.3479
▁bistrica	-11.3479
▁demografija	-11.3479
▁izdelavi	-11.3479
▁prusija	-11.3479
▁linearna	-11.3479
▁clark	-11.3479
▁kemikalij	-11.348
▁hodil	-11.348
▁prvotne	-11.348
▁fizične	-11.348
▁uporabne	-11.348
▁podlaga	-11.3481
▁klasifikacija	-11.3481
▁hlap	-11.3483
▁žanr	-11.3483
▁kolumbija	-11.3484
▁dvoboj	-11.3484
▁monarhija	-11.3485
▁noge	-11.3486
▁pripadl	-11.3486
pter	-11.3487
▁judovske	-11.3487
▁hitra	-11.3489
▁trend	-11.3489
▁kamp	-11.349
▁banka	-11.3496
cijska	-11.3496
▁nastopal	-11.3499
▁bohinjsk	-11.35
▁granat	-11.3501
▁bizantinskega	-11.3501
▁mineralov	-11.3503
▁osmanskega	-11.3503
▁izredni	-11.3506
▁tekoči	-11.3506
▁celju	-11.3512
▁tekoč	-11.3517
▁30.000	-11.3518
▁kristusom	-11.3518
▁pečat	-11.3518
▁dno	-11.352
▁samice	-11.3521
prvi	-11.3523
▁vplivalo	-11.3524
▁zemeljske	-11.3526
▁približal	-11.3527
▁osvobodiln	-11.3532
▁liste	-11.3533
▁pozornosti	-11.3534
▁športni	-11.3541
▁ofenzivo	-11.3543
▁veriga	-11.3546
▁natančnost	-11.3546
▁fermi	-11.355
▁širino	-11.3551
▁podzemn	-11.3552
zvočn	-11.3552
▁sodni	-11.3552
▁avtomobilov	-11.3554
▁prestop	-11.3558
▁angleške	-11.3559
▁zagotavljanje	-11.3561
▁matematikov	-11.3561
▁stike	-11.3565
▁vanj	-11.3566
▁banke	-11.3568
▁oksidira	-11.3569
▁razvite	-11.357
praviti	-11.3573
▁mišic	-11.3575
stadt	-11.3576
▁hieroglif	-11.3579
wehrmacht	-11.3579
▁šibko	-11.3579
▁dotlej	-11.3579
▁postopkov	-11.3579
▁kmečki	-11.3579
▁planckov	-11.3579
▁muslimanov	-11.3579
▁kemija	-11.3579
▁mursk	-11.3579
▁posnema	-11.3579
▁izmerjen	-11.358
▁ušes	-11.358
▁ustavno	-11.358
▁nižja	-11.358
▁utrpel	-11.3581
▁domovino	-11.3582
▁pozval	-11.3582
▁delovno	-11.3583
▁vrtovi	-11.3584
▁bospor	-11.3584
▁elektrolit	-11.3584
▁črpalk	-11.3585
▁1877	-11.3586
▁novimi	-11.3587
▁1884	-11.3589
▁rastlinstvo	-11.3589
▁narodnost	-11.3589
▁žarkov	-11.3589
▁premoč	-11.3594
▁broz	-11.3594
▁podzemne	-11.3598
▁trpel	-11.3599
▁nasprotniki	-11.36
▁prodajal	-11.3602
▁povezav	-11.3604
▁četrte	-11.3605
▁napor	-11.3608
▁spoj	-11.3613
▁tehnično	-11.3614
▁pokrival	-11.3616
▁veljalo	-11.3622
fort	-11.3624
▁antiki	-11.3624
▁grobov	-11.3624
▁prevodu	-11.3625
▁ustvarjajo	-11.3625
▁fred	-11.3629
▁koroške	-11.363
▁prevzame	-11.3631
▁pripravljal	-11.3632
▁bombnik	-11.3632
▁babilonski	-11.3635
▁umaknili	-11.3641
fir	-11.3642
▁sestavine	-11.3644
▁preživljal	-11.3644
številčenje	-11.3644
▁gel	-11.3644
▁tradiciji	-11.3644
▁uvedla	-11.3645
▁sončevega	-11.3646
▁premerom	-11.3646
▁napaka	-11.3647
▁leonard	-11.3648
▁vulkansk	-11.3649
chester	-11.3652
▁tekom	-11.3652
▁posebnega	-11.3657
▁rum	-11.3663
▁toplo	-11.3666
▁pouk	-11.3668
▁skril	-11.3669
▁palači	-11.367
▁podrobno	-11.3676
▁dnevni	-11.368
▁angleščina	-11.368
▁dosežki	-11.368
▁kromosom	-11.368
▁lokomotiv	-11.368
▁gverilsk	-11.368
▁wolfgang	-11.368
▁obdobij	-11.368
▁približek	-11.368
▁lojze	-11.368
▁konferenca	-11.368
▁kaspijsk	-11.368
▁luknje	-11.368
▁srečo	-11.368
▁pošlje	-11.368
▁douglas	-11.368
▁železne	-11.3681
▁vzdržuje	-11.3681
▁pascal	-11.3681
▁davkov	-11.3681
▁likvor	-11.3683
99)	-11.3684
▁razširitev	-11.3684
▁pretres	-11.3686
▁1862	-11.3687
▁prefektur	-11.3687
▁1885	-11.3688
▁turizma	-11.3689
▁zahtevajo	-11.3691
14)	-11.3692
▁nivoju	-11.3694
▁dialog	-11.3695
izkušen	-11.3699
▁valj	-11.37
homo	-11.3703
▁zrasl	-11.3704
▁današnja	-11.3704
▁jezusov	-11.3704
▁izvolili	-11.3707
▁4000	-11.371
▁jack	-11.3711
mark	-11.3715
▁evro	-11.3716
▁sokol	-11.3718
▁zaveznikov	-11.3719
▁shem	-11.372
▁pic	-11.3725
▁ocena	-11.3727
▁resnično	-11.3729
▁fotografije	-11.3738
▁lot	-11.3739
▁agencije	-11.3744
▁naklonjen	-11.3744
▁plačan	-11.3744
▁založ	-11.3748
▁berg	-11.375
▁ohranjenih	-11.3751
▁vrednote	-11.3751
▁najmlajši	-11.3753
-12	-11.3756
▁vrtov	-11.3756
ette	-11.3758
íja	-11.3758
▁deželno	-11.376
▁zasebnih	-11.376
на	-11.3761
▁zemljepisni	-11.3761
▁zrel	-11.3764
▁piran	-11.3765
▁vladni	-11.3766
▁odvija	-11.3766
▁rov	-11.3769
▁ulice	-11.377
dir	-11.377
="342	-11.3772
▁olje	-11.3773
▁drugačne	-11.3774
▁rekel	-11.3774
▁bombe	-11.3776
▁žiraf	-11.3779
uniform	-11.3781
▁gravitacijski	-11.3782
▁gutenberg	-11.3782
▁neprekinjen	-11.3782
▁oborožitev	-11.3782
▁osredotoča	-11.3782
▁raznovrstnost	-11.3782
▁singularnost	-11.3782
▁tamkajšnji	-11.3782
▁ustanavlja	-11.3782
▁premaknil	-11.3782
▁priporočil	-11.3782
▁mehanika	-11.3782
▁storitev	-11.3782
▁mozaik	-11.3782
▁belorusi	-11.3782
▁sesalci	-11.3782
▁poznejše	-11.3783
sint	-11.3783
▁zagovornik	-11.3784
house	-11.3784
▁mladenič	-11.3784
▁zelišč	-11.3784
▁1892	-11.3785
▁linije	-11.3786
▁državljanstvo	-11.3787
▁ivanovič	-11.3787
▁sproži	-11.3787
▁cikla	-11.3787
▁stranko	-11.3788
▁1879	-11.3789
▁1869	-11.379
▁stolnica	-11.3792
▁navdihnil	-11.3793
▁1876	-11.3794
▁cepiv	-11.38
▁you	-11.3801
▁fiziolog	-11.3801
prva	-11.3803
▁priredi	-11.3803
▁katedr	-11.3803
biološk	-11.3807
▁postavitev	-11.3807
▁arabska	-11.3808
▁starši	-11.3808
▁aktivnost	-11.3809
blanc	-11.3809
najbolj	-11.381
▁ureditvi	-11.381
▁bez	-11.381
▁združenje	-11.3811
▁sreče	-11.3811
▁najden	-11.3811
▁intenzivno	-11.3813
▁motorji	-11.3815
▁kvadratov	-11.3816
▁opira	-11.3816
ses	-11.3822
▁nastajal	-11.3823
▁bed	-11.3827
▁koran	-11.3827
▁1600	-11.3828
▁skrit	-11.3829
▁ladijski	-11.383
▁realna	-11.383
▁usmeril	-11.3831
▁106	-11.3834
▁bojeval	-11.3834
▁mariner	-11.3834
▁dodali	-11.3835
▁vietnamu	-11.3837
▁meglic	-11.3841
▁obratov	-11.3845
▁opazili	-11.3866
▁arhimed	-11.3866
▁njenim	-11.3868
▁kratkim	-11.3869
▁dub	-11.3872
bis	-11.3874
▁odbija	-11.3877
▁rokav	-11.3879
▁lovec	-11.3881
15)	-11.3882
▁afro	-11.3882
▁klarinet	-11.3885
▁ljudeh	-11.3885
▁ozračje	-11.3885
▁povprečni	-11.3885
▁rentgensk	-11.3885
▁specifično	-11.3885
▁vzdrževal	-11.3885
▁vzpostavljen	-11.3885
▁uspešna	-11.3885
▁razprostira	-11.3885
▁opuščen	-11.3885
▁izvedbo	-11.3885
▁okužb	-11.3885
▁poldnevnik	-11.3885
▁definicijo	-11.3885
▁ozadje	-11.3885
▁zdravstveni	-11.3885
▁novoustanovljen	-11.3885
▁privržence	-11.3885
▁imperiju	-11.3886
▁freud	-11.3886
▁razvrstitev	-11.3887
▁atlas	-11.3887
▁enačbi	-11.3887
▁kritike	-11.3888
▁angelina	-11.3888
▁romunsk	-11.3889
▁soncu	-11.3889
▁pomembnejše	-11.389
▁prišteva	-11.3891
▁tibet	-11.3891
▁variacij	-11.3891
▁1887	-11.3895
▁prelaz	-11.3895
gener	-11.3896
▁leseni	-11.3896
▁1863	-11.3897
▁bojevanja	-11.3898
189	-11.3898
sberg	-11.39
▁panoga	-11.3902
▁gradcu	-11.3902
▁vstaje	-11.3902
▁grajsk	-11.3904
▁karate	-11.3905
▁tw	-11.3907
▁narodnosti	-11.391
silikat	-11.391
▁obstajati	-11.391
▁izračunamo	-11.391
charles	-11.3913
▁desne	-11.3914
▁drugačni	-11.3917
▁kazensk	-11.3917
▁nasip	-11.3921
▁175	-11.3924
▁ikon	-11.3925
▁maksim	-11.3926
▁umre	-11.3928
▁posamezniki	-11.3928
aux	-11.3928
▁podpirajo	-11.393
▁budistični	-11.3931
▁cho	-11.3931
rme	-11.3935
▁živalskih	-11.3935
▁uz	-11.3937
▁pil	-11.3938
▁odpovedal	-11.3942
▁toplotn	-11.3944
▁celina	-11.3954
▁naslednjem	-11.3955
▁gledano	-11.3957
▁televizijski	-11.3958
105	-11.3962
▁oskrbe	-11.3974
▁ključno	-11.3977
▁preneha	-11.3982
▁brskalnik	-11.3989
▁frederick	-11.3989
▁svoboda	-11.3989
▁uzbekistan	-11.3989
▁geometriji	-11.3989
▁romunija	-11.3989
▁pesnitev	-11.3989
▁scenarij	-11.3989
▁naložb	-11.3989
▁portugalsko	-11.3989
▁harvard	-11.3989
▁prakse	-11.3989
▁poezije	-11.3989
▁postopka	-11.3989
▁gorovja	-11.3989
▁kristjanov	-11.3989
▁pregnal	-11.399
▁magnezij	-11.399
▁155	-11.399
▁kolegij	-11.3991
▁prvotn	-11.3991
▁smatra	-11.3992
▁toplotno	-11.3993
▁kitarist	-11.3993
▁pridobitev	-11.3993
ivno	-11.3994
▁projektu	-11.3995
10)	-11.3996
▁1854	-11.3998
▁žir	-11.3998
▁1883	-11.3998
▁rečemo	-11.3998
▁avtomatsk	-11.3999
▁kožo	-11.3999
▁hrana	-11.4
▁vedenje	-11.4002
▁podzemni	-11.4003
▁prosi	-11.4006
▁siriji	-11.4006
="347	-11.4007
▁poškodbe	-11.4008
▁alpski	-11.4009
▁pogum	-11.4009
▁bruno	-11.401
▁ponovni	-11.4012
▁rabe	-11.4014
360	-11.4015
▁predniki	-11.4019
▁trenutni	-11.4023
▁obnovo	-11.4027
▁sodelujejo	-11.4027
dona	-11.4031
144	-11.4032
▁meglica	-11.4033
▁upal	-11.4035
razred	-11.4036
▁datiran	-11.4037
=342	-11.4037
▁gob	-11.4038
▁part	-11.4039
12)	-11.4039
▁oblikovanja	-11.4042
▁bakterije	-11.4042
▁inovacij	-11.4043
▁datira	-11.4044
▁glavi	-11.4045
henri	-11.4046
▁računalnikov	-11.4049
▁kristaln	-11.4049
▁osebne	-11.405
▁gorici	-11.4051
▁ocenah	-11.4054
▁flori	-11.4059
▁prepis	-11.4059
▁elementarn	-11.406
▁demon	-11.406
▁bratom	-11.406
▁primeren	-11.4061
▁razsežnost	-11.4064
▁izliv	-11.4067
arch	-11.4068
▁etničnih	-11.4071
▁gy	-11.4074
▁bach	-11.4081
▁komite	-11.4081
popoln	-11.4082
▁sap	-11.4087
▁nižjih	-11.4088
▁pozni	-11.4089
▁ustanovi	-11.409
▁kronan	-11.4092
▁enakih	-11.4092
▁demokratična	-11.4094
▁descartes	-11.4094
▁izpopolnjeval	-11.4094
▁jugozahodni	-11.4094
▁republišk	-11.4094
▁razočaran	-11.4094
▁preusmeri	-11.4094
▁obremeni	-11.4094
▁prevzet	-11.4094
▁izdelava	-11.4094
▁napolnjen	-11.4094
▁teritorij	-11.4095
▁zaigrala	-11.4095
▁carigrad	-11.4095
▁razgled	-11.4095
▁komando	-11.4095
▁levstik	-11.4095
▁aretacij	-11.4095
▁stephen	-11.4095
▁računalniške	-11.4095
▁omejitve	-11.4096
▁gospodarstvu	-11.4097
▁zraste	-11.4097
▁slovenščina	-11.4097
ameriški	-11.4099
▁mleko	-11.4099
▁egiptovski	-11.41
▁zmesi	-11.4101
▁izbere	-11.4101
▁slapov	-11.4102
20)	-11.4102
▁močnejše	-11.4103
▁popravil	-11.4104
▁wood	-11.4106
▁pc	-11.4107
▁prečkal	-11.4109
▁humanist	-11.4113
▁arzen	-11.4116
▁podvrst	-11.4124
pak	-11.4124
▁delovna	-11.4125
harmoni	-11.4126
ló	-11.4128
▁članku	-11.413
▁pomladi	-11.4131
▁sestro	-11.4132
▁izgublja	-11.4133
148	-11.4134
▁družinski	-11.4137
▁možna	-11.4139
▁proizvajajo	-11.4139
▁sirije	-11.414
▁čile	-11.414
▁(0,	-11.4147
kolo	-11.415
▁kovinske	-11.415
▁filmih	-11.4151
▁učinkov	-11.4152
▁približa	-11.4158
="353	-11.4158
ór	-11.4171
▁posledico	-11.4171
olucij	-11.4174
člen	-11.4174
▁vplivov	-11.4188
▁izdelovali	-11.4194
▁hop	-11.4196
▁širš	-11.4199
▁litva	-11.4201
▁amsterdam	-11.4201
▁avstrijska	-11.4201
▁demokratično	-11.4201
▁literatura	-11.4201
▁ptolemej	-11.4201
▁sulfid	-11.4201
▁epizod	-11.4201
▁nosečnost	-11.4201
▁maistra	-11.4201
▁skakač	-11.4201
▁tolmin	-11.4201
▁arhej	-11.4202
▁omenil	-11.4202
▁prišle	-11.4202
www	-11.4203
▁staršev	-11.4203
▁dihanje	-11.4203
▁pojma	-11.4204
▁pisanju	-11.4204
▁oceno	-11.4204
▁kanadi	-11.4204
▁navadne	-11.4205
▁plakat	-11.4206
▁sobota	-11.4206
▁eugen	-11.4207
▁sezona	-11.4209
▁slednja	-11.421
▁fidži	-11.4212
▁fazni	-11.4213
▁north	-11.4214
▁nafto	-11.4215
socialist	-11.4216
▁govorcev	-11.4216
nović	-11.4217
▁holand	-11.4219
▁študiju	-11.422
▁možnih	-11.4221
▁nemcev	-11.4223
▁darej	-11.4225
▁zveznih	-11.4225
▁prodira	-11.4226
▁karbonat	-11.4226
▁judo	-11.4228
gorju	-11.4231
▁letalom	-11.4232
▁socialistični	-11.4232
ežejo	-11.424
▁razpadla	-11.424
▁sadje	-11.424
▁emb	-11.4241
▁izgubo	-11.4242
▁koristi	-11.4244
▁410.	-11.4245
▁mitologija	-11.4249
▁možne	-11.4251
▁napak	-11.4254
▁trp	-11.4256
▁astronomija	-11.4259
▁obtok	-11.4267
▁vlažnost	-11.4267
▁tiskar	-11.4267
▁vzorce	-11.427
▁elektronske	-11.427
mlad	-11.4274
▁temperatur	-11.4275
▁kvant	-11.4275
▁pur	-11.4287
_8	-11.4288
▁severozahodni	-11.4291
▁440.	-11.4295
▁osmanske	-11.4299
▁robov	-11.43
▁povzročijo	-11.43
▁plosk	-11.4301
▁akti	-11.4304
▁podmornice	-11.4304
▁konzerv	-11.4308
▁epidemij	-11.4308
▁izobraževanja	-11.4308
▁komercialni	-11.4308
▁sorazmerna	-11.4308
▁ukrivljen	-11.4308
▁opredeljuje	-11.4308
▁napredovanje	-11.4308
▁zgraditi	-11.4308
bolj	-11.4308
▁digitalni	-11.4308
▁odstranjevanj	-11.4308
▁kemiji	-11.4309
▁navzoč	-11.4309
▁licenc	-11.4309
▁bavarske	-11.431
▁zime	-11.431
▁prejemnik	-11.4311
▁mojster	-11.4312
▁turistične	-11.4312
▁sezono	-11.4312
▁mišice	-11.4314
▁vrtin	-11.4315
▁krvni	-11.4315
arstvu	-11.4315
▁statut	-11.4318
▁avstrijskem	-11.4325
▁nihanje	-11.4329
.000.000	-11.433
▁korenin	-11.433
▁poletne	-11.4335
▁rotacij	-11.4337
▁ix	-11.4339
sklad	-11.434
▁ničel	-11.434
▁320.	-11.4341
dvajset	-11.4341
arabsko	-11.4342
▁zgrajeno	-11.4342
▁40.000	-11.4344
paul	-11.4349
▁tokovi	-11.4353
▁eksperiment	-11.4353
▁vmesni	-11.4354
▁alkal	-11.4354
▁hranijo	-11.4354
▁ruskem	-11.4354
▁izhodišče	-11.4356
▁mladega	-11.4357
▁shs	-11.4359
▁reče	-11.4359
▁plenil	-11.4361
▁preprečevanje	-11.4363
▁kremen	-11.437
▁but	-11.4371
polar	-11.4372
▁registr	-11.4375
▁world	-11.4375
▁zavrača	-11.4378
camp	-11.4385
▁cepi	-11.4389
▁190	-11.439
▁format	-11.4391
▁bratov	-11.4397
elek	-11.44
▁utrdbe	-11.4403
pec	-11.4405
▁razpravljal	-11.4408
▁novejši	-11.4411
liza	-11.4412
▁http	-11.4414
="390	-11.4414
▁argentina	-11.4417
▁nasprotuje	-11.4417
▁oglaševanje	-11.4417
▁površju	-11.4417
▁desetletju	-11.4417
▁predhodno	-11.4417
▁etiopsk	-11.4417
▁gladino	-11.4417
▁najnovejš	-11.4417
▁uporabna	-11.4417
▁pacifik	-11.4417
▁luknja	-11.4417
▁tednov	-11.4417
▁reducira	-11.4417
▁samuel	-11.4417
▁kariere	-11.4418
▁stavek	-11.4418
▁ugrabi	-11.4418
▁skupščine	-11.4418
▁vzmet	-11.4419
▁križarji	-11.442
▁tretjini	-11.4421
▁uvaja	-11.4421
▁rezervoar	-11.4422
▁teoretični	-11.4423
▁turbin	-11.4425
▁sazu	-11.4425
▁rolkanje	-11.4426
▁1897	-11.443
=353	-11.443
▁celinsko	-11.443
▁bush	-11.4431
▁tržaške	-11.4433
▁deklet	-11.4434
▁zapustiti	-11.4439
▁opiše	-11.4439
▁dokumentiran	-11.4441
▁izpit	-11.4441
▁pihal	-11.4443
▁cikli	-11.4444
▁odvaja	-11.4446
▁razširjenost	-11.4447
▁podpornik	-11.4449
▁fide	-11.4452
▁kvantno	-11.4453
▁škofovsk	-11.4453
tó	-11.4456
▁nizka	-11.4457
▁pogan	-11.4458
2003	-11.4459
fosfat	-11.4461
▁težkih	-11.4462
▁kolidžu	-11.4462
▁moš	-11.4467
▁200.000	-11.4468
idni	-11.4469
▁celino	-11.4471
▁resničnost	-11.4473
▁opravljajo	-11.4476
▁mlado	-11.4477
▁prikazujejo	-11.4477
▁poletel	-11.4478
▁oxfordu	-11.4482
▁omenjenih	-11.4486
▁razdalji	-11.4488
▁rop	-11.4489
▁mcc	-11.4489
▁free	-11.4498
▁omenjeno	-11.45
▁izhodišč	-11.45
▁tvoril	-11.45
▁125	-11.45
head	-11.45
▁zaustavi	-11.45
▁420.	-11.45
▁uporaben	-11.4501
unt	-11.4503
▁ivanov	-11.4506
▁branje	-11.4509
▁prepreči	-11.451
lxxxi	-11.4512
▁preostalih	-11.452
▁vaje	-11.4525
▁dobrin	-11.4525
▁suha	-11.4526
▁zaporedn	-11.4526
▁marsu	-11.4527
▁braunschweig	-11.4527
▁gravitacije	-11.4527
▁habsburški	-11.4527
▁plebiscit	-11.4527
▁priseljenci	-11.4527
▁termodinamike	-11.4527
▁zjutraj	-11.4527
▁jupiter	-11.4527
▁naslednjo	-11.4527
▁neprestano	-11.4527
▁sužnji	-11.4527
▁španska	-11.4527
▁nezakonit	-11.4527
▁kositra	-11.4527
▁pritrjen	-11.4527
▁estonija	-11.4527
▁vladavina	-11.4527
▁tednu	-11.4527
▁egipčanskih	-11.4527
▁škotske	-11.4528
▁lobanj	-11.4529
▁podelitve	-11.453
▁hart	-11.453
▁izdaje	-11.453
▁pripor	-11.4531
▁obveznosti	-11.4532
sing	-11.4534
▁dolnj	-11.4534
▁učencev	-11.4535
▁celinsk	-11.4535
▁1865	-11.4536
▁možgani	-11.4536
▁starša	-11.4537
▁podlago	-11.454
▁zgledu	-11.454
▁judi	-11.4543
▁filozofiji	-11.4543
▁privede	-11.4545
▁tajnik	-11.4552
▁galij	-11.4554
▁posodobljeno	-11.4558
verjetno	-11.4562
▁hrastnik	-11.4562
▁skok	-11.4564
▁marcel	-11.4564
astronom	-11.4564
▁tankovsko	-11.4565
▁rastejo	-11.4566
rimski	-11.4571
▁zidu	-11.4571
▁dobrega	-11.4575
▁skrajno	-11.4577
▁žag	-11.4583
▁poljskem	-11.4583
▁gozdna	-11.4591
▁kompo	-11.4592
▁zborov	-11.4593
▁interakcije	-11.4593
ativne	-11.4593
▁dodatn	-11.4594
▁vztrajal	-11.4597
▁kamnite	-11.4598
▁vrhovno	-11.4599
▁veroizpovedi	-11.4602
▁pošte	-11.4604
▁desnem	-11.4609
javnega	-11.461
▁tovarne	-11.4611
▁združenja	-11.4619
▁modra	-11.462
%)	-11.4621
▁celinske	-11.4621
▁pogansk	-11.4624
tekel	-11.4626
strup	-11.4627
▁knjižn	-11.4629
beck	-11.4631
▁spoštovanje	-11.4635
auto	-11.4636
▁spusti	-11.4636
▁grosuplje	-11.4638
▁massachusetts	-11.4638
▁norveška	-11.4638
▁obdelovaln	-11.4638
▁opozarja	-11.4638
▁razpršen	-11.4638
▁stroškov	-11.4638
▁vznožju	-11.4638
▁moskvo	-11.4638
▁obtožb	-11.4638
▁rimljanov	-11.4638
▁norveški	-11.4638
▁izvedba	-11.4638
▁amerika	-11.4638
▁doktorat	-11.4638
▁oddelku	-11.4638
script	-11.4638
▁pomorsko	-11.4638
▁pretvarja	-11.4638
▁oficir	-11.4639
▁liszt	-11.4639
▁darwin	-11.4639
▁poenoten	-11.4639
▁grčijo	-11.4639
▁razporeditev	-11.4639
▁prireditev	-11.464
▁donave	-11.4641
▁botanik	-11.4641
▁policijo	-11.4641
▁srbiji	-11.4642
▁žirafe	-11.4642
▁srebrni	-11.4643
▁centru	-11.4643
notranj	-11.4644
▁takega	-11.4644
▁kurt	-11.4647
▁turško	-11.465
▁radijske	-11.465
="218	-11.4651
kript	-11.4653
▁končna	-11.4655
▁mary	-11.4657
▁pospešil	-11.4657
▁nakup	-11.4658
▁arhimedov	-11.4658
▁drugačen	-11.4659
▁harmoničn	-11.466
▁dopušča	-11.4662
zdaj	-11.4664
▁pridiga	-11.4669
▁zastavi	-11.4675
wick	-11.4678
▁zasnova	-11.4679
▁deževn	-11.4679
▁urejanje	-11.4682
▁nakit	-11.4683
▁obsegal	-11.4683
▁obnašanje	-11.4683
163	-11.4684
šteti	-11.4688
▁antike	-11.4689
▁temeljito	-11.4698
▁vidijo	-11.4701
▁škofije	-11.4701
▁žig	-11.4702
▁steno	-11.4706
▁najdbe	-11.4708
▁prejema	-11.471
▁izbruhu	-11.4711
▁zagotavljajo	-11.4718
▁vege	-11.4723
▁klavirsk	-11.4725
▁občutljivost	-11.4725
▁spolni	-11.4727
▁prizorišče	-11.473
▁mnog	-11.473
▁poznajo	-11.4735
▁križan	-11.4738
▁davis	-11.474
stveni	-11.474
▁vzoru	-11.4741
▁osmanski	-11.4742
makedonsk	-11.4742
▁drugič	-11.4746
▁pomorščak	-11.475
▁kombinira	-11.475
▁reprezentanc	-11.475
▁občutek	-11.475
▁sodelavci	-11.475
▁sponzor	-11.475
▁ohladi	-11.475
▁zavezniške	-11.475
▁globino	-11.475
▁armenija	-11.475
▁kemijska	-11.475
▁lombard	-11.475
▁svečenik	-11.475
▁plezanje	-11.475
▁absolutno	-11.475
▁podjetji	-11.4751
▁zlorab	-11.4751
▁škotski	-11.4751
▁sedemnajst	-11.4751
▁pobraten	-11.4751
▁variant	-11.4752
▁kvantn	-11.4752
▁presegl	-11.4752
▁katarina	-11.4753
▁vremenski	-11.4754
▁alpah	-11.4754
▁mehanske	-11.4757
▁volitev	-11.4758
▁sužnjev	-11.4758
▁mongolske	-11.4759
▁mornariški	-11.4761
▁pomeša	-11.4762
▁talent	-11.4762
▁energijski	-11.4762
▁obalah	-11.4763
▁nacisti	-11.4763
oskop	-11.4763
▁krivulje	-11.4763
▁postaji	-11.4764
▁rot	-11.4764
▁zbirki	-11.4768
▁tretjino	-11.4769
▁matija	-11.4771
▁vzame	-11.4776
▁dimnik	-11.4778
▁neskončnost	-11.478
▁nihalo	-11.4781
▁truplo	-11.4782
▁bruselj	-11.4783
▁bosta	-11.4784
▁ustvariti	-11.4785
ка	-11.4786
="345	-11.4791
▁prejšnji	-11.4801
▁115	-11.4801
▁daljn	-11.4805
▁kronos	-11.4806
▁frekvenco	-11.4811
▁fizikov	-11.4812
▁cenjen	-11.4814
▁pristojn	-11.4823
tenor	-11.4828
▁našem	-11.4829
▁brun	-11.4831
▁slovi	-11.4834
▁obstoječ	-11.4835
át	-11.4836
▁vidna	-11.4836
▁ocenjuje	-11.4841
▁namig	-11.4842
liber	-11.4842
▁105	-11.4845
▁philip	-11.4847
ко	-11.4848
▁asov	-11.4851
▁poletni	-11.4853
▁bojna	-11.486
▁kompleksni	-11.4862
▁demokracije	-11.4864
▁dostojevskega	-11.4864
▁nasprotje	-11.4864
▁neuspešno	-11.4864
▁okrožju	-11.4864
▁ukrajina	-11.4864
▁dvoživk	-11.4864
▁obtožil	-11.4864
▁razpuščen	-11.4864
▁učinke	-11.4864
▁sovpada	-11.4864
▁recimo	-11.4864
▁skorje	-11.4865
▁izpeljal	-11.4865
▁gradiva	-11.4865
▁prostornina	-11.4865
▁bizanc	-11.4865
▁turistična	-11.4866
▁peking	-11.4866
▁290.	-11.4866
▁egejsk	-11.4867
▁dosledno	-11.4868
▁queen	-11.4868
▁meglice	-11.4868
▁karieri	-11.4869
▁neskončne	-11.4869
▁okrepi	-11.487
▁izjemne	-11.487
▁žarek	-11.4872
▁instrumentov	-11.4873
▁logaritemsk	-11.4875
▁prilagodil	-11.4877
▁1840	-11.4877
▁stiska	-11.4878
▁vzlet	-11.4879
lagrangeev	-11.4879
▁dogodkih	-11.4881
▁tokio	-11.4882
▁preveri	-11.4882
▁prodor	-11.4882
▁brezposelnost	-11.4882
▁zadovolji	-11.4883
▁uniji	-11.4886
▁nevarne	-11.4887
▁hp	-11.4888
▁avstrijskega	-11.4888
▁petdesetih	-11.4889
▁antonio	-11.489
▁gabriel	-11.4895
▁poslovni	-11.4896
▁atensk	-11.4898
▁svetem	-11.4899
▁arkad	-11.4902
but	-11.4903
kasneje	-11.4903
▁pire	-11.4903
▁dolž	-11.4903
element	-11.4908
komunist	-11.4908
▁nabira	-11.4911
▁omogoči	-11.4913
▁vzet	-11.4915
▁bivališč	-11.4922
ensis	-11.4922
▁študijem	-11.4925
▁trenutk	-11.4928
▁balkanu	-11.4929
▁benz	-11.493
▁deželni	-11.4942
ön	-11.4946
▁deževni	-11.495
▁barvni	-11.4951
▁zapira	-11.4954
▁108	-11.4955
▁pravilni	-11.4957
▁zaveda	-11.4958
▁sestavin	-11.496
=345	-11.497
=390	-11.4972
▁brod	-11.4976
▁mezopotamiji	-11.4979
▁odstotka	-11.4979
▁razvrščen	-11.4979
▁zakonodaje	-11.4979
▁čudovit	-11.4979
▁školjk	-11.4979
▁departma	-11.4979
▁generalmajor	-11.4979
▁premoženje	-11.4979
▁podrobne	-11.4979
▁konjeniški	-11.4979
▁goethe	-11.4979
▁polobli	-11.4979
▁obtožen	-11.4979
▁narečje	-11.4979
▁kopališč	-11.4979
▁preiskova	-11.498
▁stritar	-11.498
▁znašl	-11.498
▁absolutni	-11.498
▁vergil	-11.498
▁zaznamuje	-11.4981
▁mongolski	-11.4981
▁310.	-11.4982
▁komunizma	-11.4982
▁domovini	-11.4983
▁šar	-11.4983
▁strokovne	-11.4984
▁folk	-11.4984
▁ašur	-11.4985
▁oglas	-11.4986
▁evrov	-11.4987
▁biološke	-11.4987
▁psiho	-11.4987
▁tihi	-11.4988
▁službi	-11.4988
▁rap	-11.499
▁predstavitev	-11.499
▁mesečn	-11.4991
▁razpok	-11.4992
▁antičnih	-11.4992
▁templjev	-11.4992
▁1886	-11.4993
▁tekmec	-11.4994
▁zagotoviti	-11.4994
▁1821	-11.4995
▁phil	-11.4995
▁navedb	-11.4995
▁nut	-11.4995
▁zvočni	-11.4997
▁1815	-11.4998
▁enotami	-11.5012
▁trdnjavo	-11.5012
▁pija	-11.5013
▁rezultatov	-11.5014
▁razmišljal	-11.5017
▁gö	-11.502
▁standardna	-11.5022
▁proste	-11.5023
▁osam	-11.5024
▁prazne	-11.5026
▁pričajo	-11.503
▁uvrsti	-11.5031
▁ostajajo	-11.5032
▁blagovn	-11.5036
▁raztez	-11.5039
▁garde	-11.5043
▁ahil	-11.5044
▁nemogoče	-11.5045
trd	-11.5046
▁razpravlja	-11.5049
13)	-11.5049
▁christu	-11.5053
▁cerkvenih	-11.5053
▁faraonov	-11.5057
▁slovanskih	-11.5059
▁žveplo	-11.5059
gran	-11.506
▁bruto	-11.5064
▁plinski	-11.5064
95)	-11.5065
▁109	-11.5066
▁dvajsetih	-11.5067
▁sestre	-11.5067
▁američan	-11.5075
▁financ	-11.5076
▁boltzmann	-11.508
▁reševal	-11.5086
125	-11.5086
▁evklidov	-11.5088
▁točnost	-11.509
▁jaroslav	-11.5095
▁gibraltar	-11.5095
▁luksemburg	-11.5095
▁brzostrelk	-11.5095
▁današnjo	-11.5095
▁fakultete	-11.5095
▁nepričakovan	-11.5095
▁preučeval	-11.5095
▁privrženci	-11.5095
▁umakniti	-11.5095
▁visokošolsk	-11.5095
▁zdravljenja	-11.5095
▁zdravstveno	-11.5095
▁poveljnišk	-11.5095
▁fizično	-11.5095
▁sintetizira	-11.5095
▁obnavlja	-11.5095
▁julius	-11.5095
▁promovira	-11.5095
▁ataše	-11.5095
▁postopno	-11.5096
▁invazijo	-11.5096
▁aachen	-11.5096
▁vohun	-11.5096
▁luteran	-11.5096
▁natanko	-11.5096
▁pravljic	-11.5096
elektrotehnik	-11.5096
▁uporabno	-11.5097
▁gledališki	-11.5098
▁pisavi	-11.5098
▁arterij	-11.5098
▁urjenje	-11.51
▁hetero	-11.5101
▁emirat	-11.5102
▁objavlja	-11.5104
▁1861	-11.5105
▁bogastva	-11.5107
▁prijav	-11.5109
▁alam	-11.5109
▁častnikov	-11.5113
▁podvodn	-11.5114
▁krilo	-11.5118
migrant	-11.5118
▁osebam	-11.5121
▁domneval	-11.5122
_9	-11.5122
▁gledališču	-11.5124
▁dokumentov	-11.5127
▁finska	-11.513
▁antoine	-11.5132
rumen	-11.5135
▁135	-11.5136
▁ognjenišk	-11.5142
držati	-11.5143
=316	-11.5143
rimske	-11.5145
▁tretjina	-11.5146
strankarsk	-11.5146
visok	-11.5151
▁temeljne	-11.5152
▁ranjenih	-11.5155
anton	-11.5158
="101	-11.5159
▁preseže	-11.516
▁prestopil	-11.5161
▁talin	-11.5161
▁osrednjega	-11.5164
štvu	-11.5165
▁poklicni	-11.5168
▁čakal	-11.5168
▁frekvence	-11.5169
▁relacij	-11.5174
▁pokol	-11.5175
▁spreminjanje	-11.5176
▁118	-11.5181
histo	-11.5185
▁islamski	-11.5188
▁določenim	-11.5189
▁verjame	-11.5191
▁natrij	-11.5206
▁poletnih	-11.5208
▁kemičnih	-11.5211
nukleotid	-11.5213
▁pomanjkljivost	-11.5213
▁razpoložljiv	-11.5213
▁vzgoji	-11.5213
▁moskve	-11.5213
▁konstantinopla	-11.5213
▁obdelavo	-11.5213
▁zapuščina	-11.5213
▁čudež	-11.5213
▁nikolajevič	-11.5213
▁kositer	-11.5213
▁porušen	-11.5213
▁bolgarsk	-11.5213
▁izrecn	-11.5214
▁globus	-11.5214
▁prostornine	-11.5214
▁komunistična	-11.5215
▁poroko	-11.5215
▁390.	-11.5215
▁bosni	-11.5215
▁dodatek	-11.5216
▁dramsk	-11.5216
▁blag	-11.5216
▁podprt	-11.5217
rijan	-11.5217
▁teleskop	-11.5218
▁delegacij	-11.5218
▁upravi	-11.5218
▁vsakodnevn	-11.5218
▁kraške	-11.522
▁lesene	-11.5222
▁nasilje	-11.5223
▁pepel	-11.5223
▁nadzira	-11.5225
▁1846	-11.5225
▁porast	-11.5225
▁dobiti	-11.5227
▁frankovske	-11.5227
–15	-11.5228
▁nekovin	-11.5229
ijcev	-11.5229
▁številkah	-11.5233
▁1810	-11.5233
▁obravnavajo	-11.5236
stó	-11.5237
▁belega	-11.5239
veliki	-11.5244
▁nastopajo	-11.5248
▁šahist	-11.5252
▁pisci	-11.5256
▁označevanje	-11.5258
▁dežja	-11.5259
▁allen	-11.526
▁padli	-11.5261
castel	-11.5265
▁črkami	-11.5266
mensko	-11.5266
▁sooča	-11.5266
▁ubitih	-11.5267
metil	-11.5268
▁peres	-11.5272
▁raziskovalni	-11.5274
▁hugo	-11.5276
▁poskusov	-11.528
sušen	-11.5291
▁prekat	-11.5294
▁knjižne	-11.5295
▁triton	-11.5301
ни	-11.5302
="208	-11.5303
▁final	-11.5307
▁jones	-11.5307
▁živčni	-11.5312
▁kres	-11.5314
=147	-11.5315
▁benedikt	-11.5316
egipčansk	-11.5317
▁tehnologij	-11.532
križ	-11.5321
▁oaz	-11.5322
▁določajo	-11.533
▁eskadron	-11.5332
▁katastrsk	-11.5332
▁množenje	-11.5332
▁nasprotne	-11.5332
▁osvobojen	-11.5332
▁privilegij	-11.5332
▁tričrkovn	-11.5332
▁zasedbo	-11.5332
▁sodelavce	-11.5332
▁jugovzhodno	-11.5332
▁ruševin	-11.5332
▁anorgansk	-11.5332
▁pravoslavni	-11.5332
▁poskrbel	-11.5332
▁potaplj	-11.5332
▁porušil	-11.5333
▁fronto	-11.5334
▁fritz	-11.5334
▁idealni	-11.5334
▁kelvin	-11.5334
vesolj	-11.5335
▁odšla	-11.5335
▁tekmi	-11.5335
▁trgovini	-11.5336
▁plovbo	-11.5338
▁opremi	-11.5338
▁lomni	-11.5339
▁beguncev	-11.5341
▁1872	-11.5342
▁skrajni	-11.5342
▁federaln	-11.5344
▁kartic	-11.5347
▁analizira	-11.5349
▁padlo	-11.5349
atlant	-11.5349
▁uničiti	-11.535
▁grkov	-11.5352
▁vzorci	-11.5353
▁poceni	-11.5354
▁bull	-11.5355
▁slapovi	-11.536
▁bližnje	-11.5361
▁športnih	-11.5363
▁oliv	-11.5364
▁ciljev	-11.5365
▁jezikovne	-11.5367
▁periodne	-11.537
▁cook	-11.5371
▁posredovanje	-11.5372
▁preseli	-11.5373
▁križišč	-11.5377
▁načelu	-11.5378
italijansko	-11.5378
▁jedrskega	-11.538
▁ovc	-11.5383
▁germanski	-11.5386
▁vulkanski	-11.5387
▁prireja	-11.5387
žica	-11.5388
▁kometov	-11.5389
ques	-11.5389
ower	-11.539
▁prometno	-11.539
="378	-11.5395
▁aleš	-11.5395
▁igralca	-11.5396
▁komisij	-11.5398
="104	-11.5399
="361	-11.5401
▁chan	-11.5402
▁obrtni	-11.5403
▁dodelil	-11.5409
▁sive	-11.5411
gir	-11.5414
rant	-11.5415
▁orbi	-11.5415
▁prijateljev	-11.5417
▁novak	-11.5421
▁avstral	-11.5421
▁odpadn	-11.5422
▁celinski	-11.5425
▁pripisuje	-11.543
▁motorja	-11.543
▁2500	-11.5431
▁temeljna	-11.5438
▁recept	-11.5439
rodnega	-11.5441
▁objavljal	-11.5443
▁bojevnik	-11.5445
▁zemeljsk	-11.5446
▁angleškem	-11.5452
▁atmosfere	-11.5452
▁empiričn	-11.5452
▁jugozahodne	-11.5452
▁katoliška	-11.5452
▁presenetljiv	-11.5452
▁priseljencev	-11.5452
▁protektorat	-11.5452
▁skulptur	-11.5452
▁sredozemlju	-11.5452
▁angleška	-11.5452
▁genocid	-11.5452
▁izobrazbe	-11.5452
▁povzpel	-11.5452
▁okriljem	-11.5452
▁energiji	-11.5452
▁paleolitik	-11.5452
▁stebrov	-11.5452
▁nevtralnost	-11.5452
▁šibki	-11.5453
▁migracij	-11.5453
▁hindujsk	-11.5453
▁vitamin	-11.5453
▁estetsk	-11.5453
▁poenostavi	-11.5454
▁mnogokotnik	-11.5454
▁podatek	-11.5454
▁župančič	-11.5455
▁žlez	-11.5455
▁kritično	-11.5456
=221	-11.5457
▁odzval	-11.5457
▁opisoval	-11.5458
="316	-11.546
▁1874	-11.5461
▁340.	-11.5461
▁bartol	-11.5461
▁vodovod	-11.5461
biral	-11.5462
▁1831	-11.5462
celj	-11.5462
▁1844	-11.5464
▁francisco	-11.5466
▁poslovne	-11.5467
▁duši	-11.5468
▁razumljiv	-11.5476
▁1813	-11.5477
▁makro	-11.5484
▁kepler	-11.5486
▁raztopini	-11.5487
▁kobil	-11.5487
▁pogosteje	-11.5487
▁sezonsk	-11.5488
▁ural	-11.5488
321	-11.5489
vključno	-11.5498
jordan	-11.5499
▁videm	-11.55
post	-11.5501
▁krav	-11.5503
▁cimet	-11.5503
▁dinar	-11.5505
▁risan	-11.5508
▁koral	-11.5508
▁gnu	-11.5509
▁dante	-11.5509
▁hen	-11.551
▁gorsko	-11.5512
datum	-11.5513
▁prepričanja	-11.5517
▁razpadom	-11.552
▁plul	-11.5521
=319	-11.5522
▁kubični	-11.5522
predel	-11.5533
ross	-11.5535
▁cvetovi	-11.5544
▁notranjega	-11.5548
▁umiku	-11.555
bizantinsk	-11.5555
▁pojmovan	-11.5555
▁oklepaj	-11.5562
▁uniči	-11.5565
▁črti	-11.5573
▁antarktiki	-11.5574
▁atmosfero	-11.5574
▁demokratične	-11.5574
▁demonstracij	-11.5574
▁katoličan	-11.5574
▁ozračja	-11.5574
▁poškodoval	-11.5574
▁veličastn	-11.5574
▁gaudí	-11.5574
▁podjetju	-11.5574
▁sredstvi	-11.5574
▁švedsko	-11.5574
▁ulomek	-11.5574
▁zasedba	-11.5574
▁ideološk	-11.5574
▁diagonal	-11.5574
▁šempeter	-11.5574
▁geološki	-11.5575
▁izpustil	-11.5575
▁uravnava	-11.5575
▁podvržen	-11.5578
▁popotnik	-11.5578
▁princeton	-11.5578
▁kalibra	-11.5578
▁tedanj	-11.5579
▁mehanski	-11.558
▁delitelj	-11.558
zlasti	-11.558
▁celjski	-11.5581
▁četver	-11.5581
▁kvart	-11.5582
▁direktn	-11.5584
▁mislec	-11.5585
▁konstruktor	-11.5585
▁igrati	-11.5586
▁srbijo	-11.5592
▁egiptovske	-11.5593
▁preprečiti	-11.5594
▁roll	-11.56
▁izkrca	-11.56
▁oblikujejo	-11.5608
vedel	-11.5608
▁spremljajo	-11.5609
▁uveljavi	-11.5611
▁volje	-11.5613
▁1400	-11.5613
spor	-11.5618
assa	-11.563
▁irsko	-11.5631
odstotn	-11.5636
▁postaj	-11.5639
▁specialna	-11.5644
xix	-11.5647
▁pripravljenost	-11.565
▁preplet	-11.565
segel	-11.5652
▁zgrajenih	-11.5654
dolf	-11.5655
▁predstavnišk	-11.566
▁ostre	-11.5662
burn	-11.5672
▁osebnega	-11.5675
="212	-11.5678
▁vrhunsk	-11.5687
="330	-11.5689
▁krak	-11.5691
lug	-11.5697
▁amazonk	-11.5698
▁angleščine	-11.5698
▁feynman	-11.5698
▁identificira	-11.5698
▁microsoft	-11.5698
▁navdušil	-11.5698
▁obvladoval	-11.5698
▁odškodnin	-11.5698
▁pobočja	-11.5698
▁proučeval	-11.5698
▁roosevelt	-11.5698
▁svoboščin	-11.5698
▁telekomunikacij	-11.5698
▁žrtvovan	-11.5698
▁kromatograf	-11.5698
▁belgijski	-11.5698
▁sesalcev	-11.5698
▁stabilen	-11.5698
▁uničeval	-11.5698
▁akustičn	-11.5698
▁jersey	-11.5698
▁zraven	-11.5698
▁medicini	-11.5698
▁mrzli	-11.5698
▁vostok	-11.5699
▁koreji	-11.5699
▁piščal	-11.5699
▁aktivna	-11.5699
▁metan	-11.5699
▁primarno	-11.5699
▁trgovsk	-11.5699
▁bojišču	-11.5699
▁segrevanje	-11.57
▁premalo	-11.57
▁ploskve	-11.5702
▁rené	-11.5703
▁kanada	-11.5703
▁postelj	-11.5703
▁ogromne	-11.5703
▁shranjevanje	-11.5704
▁astrolog	-11.5706
▁zoran	-11.5707
cell	-11.5707
ро	-11.571
▁primitiv	-11.5713
▁witt	-11.5714
▁dolgoročn	-11.5716
▁posledic	-11.5719
▁savan	-11.572
▁steber	-11.5721
agog	-11.5721
▁trenja	-11.5722
▁zois	-11.5723
▁elektronska	-11.5724
▁evropskim	-11.5725
▁primerljiv	-11.5732
▁jovan	-11.5734
▁starejšega	-11.5734
▁lastnostmi	-11.5736
▁kristalni	-11.5738
▁direktorja	-11.5742
▁objavi	-11.5744
▁prostovoljno	-11.5745
world	-11.5746
184	-11.5746
jurišn	-11.5748
▁sadja	-11.5751
▁drak	-11.5753
▁obrne	-11.5761
▁kubičn	-11.5762
▁peterburgu	-11.5764
▁delitvi	-11.5764
▁povezanost	-11.5765
▁azijski	-11.5773
▁lokalnega	-11.5777
čeprav	-11.5778
▁zasedal	-11.5783
▁slam	-11.5784
▁vodjo	-11.5784
▁osnovnega	-11.5786
="221	-11.5787
torij	-11.5789
▁kalijev	-11.579
▁osredotočil	-11.5792
torej	-11.5793
▁množične	-11.5798
▁laboratoriju	-11.5799
▁bitij	-11.58
▁vojnama	-11.5801
▁bakrov	-11.5804
▁odpornost	-11.5806
▁škrat	-11.5808
▁ukvarjati	-11.5808
▁zagovarja	-11.5809
▁cankar	-11.5814
▁literaturo	-11.5823
▁navidezni	-11.5823
▁preživetje	-11.5823
▁izobrazbo	-11.5823
▁sulfat	-11.5823
▁priročnik	-11.5823
▁russell	-11.5823
▁oktavijan	-11.5823
▁oblečen	-11.5823
▁teritorialni	-11.5823
▁viking	-11.5823
▁avtorja	-11.5823
▁izurjen	-11.5824
▁podpora	-11.5824
fašizem	-11.5824
▁ladjevje	-11.5824
▁trdna	-11.5825
▁kmetijstvu	-11.5825
▁protioklepn	-11.5825
▁latinščine	-11.5825
vier	-11.5825
▁grozd	-11.5825
▁garda	-11.5826
▁podaril	-11.5827
▁trance	-11.5827
▁apnenca	-11.5829
▁sosednjim	-11.5829
ан	-11.5829
▁izpostavljenost	-11.5829
▁kolidž	-11.583
▁pipin	-11.5831
="319	-11.5833
▁prijateljstvo	-11.5833
▁opišemo	-11.5834
▁ustvarjanja	-11.5835
▁wor	-11.5835
▁avari	-11.5835
▁velikonočn	-11.5836
▁papirus	-11.5837
▁kosovel	-11.5839
▁oddajnik	-11.5839
▁cankarjev	-11.5839
▁spustil	-11.5839
▁pojmov	-11.5843
–14	-11.5846
▁krakov	-11.5846
▁zavračal	-11.5847
tung	-11.5848
▁buen	-11.5853
181	-11.5857
92)	-11.5857
▁glasil	-11.5859
="348	-11.5864
▁misijonar	-11.5867
▁garni	-11.587
▁privatn	-11.5871
françois	-11.5873
gospodar	-11.5873
▁granit	-11.5874
▁uroš	-11.5875
▁marijan	-11.5877
▁slabost	-11.5882
cock	-11.5882
planet	-11.5895
▁prepir	-11.5903
▁plesal	-11.5904
▁dodeli	-11.5906
▁individu	-11.5907
▁dopust	-11.5909
▁služb	-11.5913
▁prago	-11.5915
▁skrival	-11.5916
▁vinci	-11.5921
▁katal	-11.5932
▁izbris	-11.5939
absolut	-11.5939
▁gornje	-11.5944
celičn	-11.5946
▁antarktike	-11.5949
▁avguštin	-11.5949
▁kapacitet	-11.5949
▁mavzolej	-11.5949
▁nečistoč	-11.5949
▁obrambno	-11.5949
▁poudarek	-11.5949
▁thompson	-11.5949
▁viadukt	-11.5949
baptiste	-11.5949
podpolkovnik	-11.5949
▁nedoločen	-11.5949
▁ravnovesje	-11.5949
▁specifične	-11.5949
▁neuspeh	-11.5949
▁thomson	-11.5949
▁cantorjev	-11.5949
▁ničesar	-11.5949
▁odobril	-11.5949
▁amonijak	-11.595
▁sredozemlja	-11.595
▁prevaža	-11.595
▁elektr	-11.5951
▁prireditve	-11.5951
▁lahke	-11.5951
▁opredelitev	-11.5952
▁spoštovan	-11.5952
▁starejša	-11.5953
▁dublin	-11.5953
▁svetovalec	-11.5957
▁orto	-11.5958
▁1864	-11.5959
▁služboval	-11.5959
▁1875	-11.5961
▁rut	-11.5962
▁boks	-11.5966
sfera	-11.5966
▁izbrisani	-11.5967
▁kanaan	-11.5968
▁motorjev	-11.5969
–17	-11.5969
▁izjemni	-11.5969
▁določimo	-11.5971
▁ocenjujejo	-11.5975
▁ležal	-11.5979
▁johan	-11.5985
▁svinj	-11.599
▁čiga	-11.5995
▁partija	-11.5997
side	-11.5999
▁morska	-11.6001
▁odkrivanj	-11.6002
▁slovence	-11.6005
▁obstoječe	-11.6008
▁ostanejo	-11.6009
▁antičn	-11.6012
▁območji	-11.6015
▁plaž	-11.6022
▁ball	-11.6027
▁kisikom	-11.6031
▁cesarsko	-11.6037
motorizirana	-11.6038
kirch	-11.6047
▁skrajšan	-11.6049
▁operacijsk	-11.605
▁3,5	-11.6054
▁notranjim	-11.6056
▁priključitv	-11.6059
▁družbenega	-11.6066
velika	-11.6067
▁zavira	-11.6069
▁mart	-11.6071
▁domačini	-11.6071
▁bivanje	-11.6074
="333	-11.6076
▁artefakt	-11.6078
relativističn	-11.6078
▁angleščino	-11.6078
▁božanstev	-11.6078
▁makedonija	-11.6078
▁nestabilnost	-11.6078
▁trbovlje	-11.6078
▁ultravijoličn	-11.6078
▁združena	-11.6078
▁človeška	-11.6078
▁narečja	-11.6078
▁ravnotežje	-11.6078
▁tisočletju	-11.6078
▁tramvaj	-11.6078
▁claude	-11.6078
▁zasedbe	-11.6078
▁vertikaln	-11.6078
▁vložil	-11.6078
▁slišal	-11.6078
▁ustavne	-11.6078
▁jabolk	-11.6078
ščica	-11.6078
▁horjul	-11.6078
▁benetkah	-11.6078
▁monsun	-11.6079
▁okoliščin	-11.6079
▁strokovno	-11.6079
▁oslabi	-11.608
▁asirski	-11.6081
▁krovu	-11.6081
▁osvojen	-11.6081
▁materin	-11.6082
▁gostitelj	-11.6083
▁umetniška	-11.6083
▁vidmar	-11.6084
▁ljubljanskem	-11.6084
▁linearne	-11.6085
▁jagod	-11.6087
▁ozki	-11.6087
▁young	-11.6088
▁mehur	-11.6092
▁višek	-11.6094
▁krovn	-11.6094
▁300.000	-11.6095
▁deklic	-11.6099
▁opazovalec	-11.6101
▁pest	-11.6102
▁spolne	-11.6102
▁vzorcev	-11.6104
=334	-11.6104
▁gliv	-11.6104
▁merjenja	-11.6105
▁sredozemskega	-11.6108
dnevni	-11.6108
▁koordinatni	-11.6108
▁ray	-11.611
▁rudarsk	-11.6111
▁želv	-11.6112
êr	-11.6113
▁1820	-11.6116
▁konjenik	-11.6118
▁istri	-11.612
▁nacionalisti	-11.6122
▁vreč	-11.6124
izseljen	-11.6125
▁živec	-11.6128
national	-11.6131
▁vrteč	-11.6132
kliče	-11.6135
▁inštrumentov	-11.6138
▁meteorit	-11.6138
▁sosednji	-11.614
▁dosežen	-11.6145
▁uranov	-11.6153
▁pomagajo	-11.6158
▁drugačno	-11.6159
=200	-11.616
▁lažji	-11.6161
imperial	-11.6163
▁zagotovi	-11.617
stičnega	-11.6171
▁razglasi	-11.6173
ла	-11.6174
stroj	-11.6177
▁williams	-11.6181
▁športnik	-11.6191
▁pošiljal	-11.6191
=348	-11.6196
▁desetin	-11.6198
▁izraelski	-11.6199
▁težnost	-11.6206
▁povprečje	-11.6207
▁združeval	-11.6207
sław	-11.6207
▁amenhotep	-11.6207
▁fakulteta	-11.6207
▁hercegovine	-11.6207
▁najbogatejš	-11.6207
▁najpogostejše	-11.6207
▁prafaktor	-11.6207
▁restavracij	-11.6207
▁statistika	-11.6207
▁enostavni	-11.6207
▁winslet	-11.6207
worth	-11.6207
▁jugoslovansko	-11.6207
▁prisotne	-11.6207
▁kmečke	-11.6208
▁cassini	-11.6208
▁mojzes	-11.6208
▁trigonometričn	-11.6208
▁medicino	-11.6208
▁chopin	-11.6208
▁medicinski	-11.6208
▁aktivist	-11.6208
▁sestoji	-11.6208
▁sumerski	-11.6209
▁viteški	-11.621
▁stoječ	-11.621
▁kairo	-11.621
=223	-11.621
▁bosna	-11.6211
▁kovalentn	-11.6211
▁group	-11.6212
▁ugodno	-11.6213
▁zaupal	-11.6214
letnega	-11.6215
▁music	-11.6215
united	-11.6217
▁bogdan	-11.6218
▁dodajanje	-11.6218
▁obrobju	-11.6219
▁resnice	-11.6221
▁sadež	-11.6224
▁medzvezdn	-11.6224
07)	-11.6226
▁pristaš	-11.6229
▁raziskovanju	-11.623
▁zahodnoevropsk	-11.6231
▁lazar	-11.6231
▁nevarni	-11.6233
▁predvideval	-11.6234
ère	-11.6234
▁atlet	-11.6236
▁bren	-11.6246
▁razumeti	-11.6246
▁narediti	-11.6247
▁zastopan	-11.6251
="223	-11.6252
▁učenja	-11.6256
count	-11.6258
▁kanat	-11.6258
▁prosta	-11.6262
đ	-11.6263
francosko	-11.6263
▁manifest	-11.6266
▁alkalijsk	-11.6267
▁plinska	-11.6271
▁zgodovinskega	-11.6273
▁znanstvenega	-11.6278
▁polarne	-11.628
▁lastn	-11.6282
▁vmesnik	-11.6282
▁postaviti	-11.6286
▁omejil	-11.6288
▁nacionalnega	-11.6289
▁zdravja	-11.6295
▁najboljša	-11.6297
▁unijo	-11.6297
▁izpoved	-11.6303
▁dinastij	-11.6307
čić	-11.6312
▁metričn	-11.6321
▁gotov	-11.6322
▁tvegan	-11.6323
▁možni	-11.6325
▁občan	-11.633
▁ket	-11.6332
phys	-11.6337
▁algebrski	-11.6339
▁opustošil	-11.6339
▁sposoben	-11.6339
▁stacionarn	-11.6339
▁urugvaj	-11.6339
▁višavje	-11.6339
▁boštjan	-11.6339
▁raztopljen	-11.6339
▁kvalifikacij	-11.6339
▁spodnjo	-11.6339
▁eduard	-11.6339
▁zasedbi	-11.6339
▁volfram	-11.6339
▁odstavil	-11.6339
▁neomejen	-11.6339
▁nomadsk	-11.6339
▁ustavni	-11.6339
▁isaac	-11.6339
▁endemičn	-11.6339
▁namestil	-11.6339
▁kovanci	-11.6339
▁aktivira	-11.634
▁policijska	-11.634
▁oblegal	-11.634
▁nemščini	-11.634
▁trajekt	-11.634
▁odrasle	-11.634
▁tolstoj	-11.6341
▁posode	-11.6341
▁zaklep	-11.6342
▁neumann	-11.6342
▁fužin	-11.6342
▁snemanje	-11.6343
▁parlamentarni	-11.6344
mouth	-11.6344
▁osamljen	-11.6345
▁kodiran	-11.6345
▁foster	-11.6345
▁istrsk	-11.6345
▁trajni	-11.6346
06)	-11.6346
=92	-11.6347
▁1857	-11.6349
▁spiraln	-11.6349
▁nitrat	-11.635
▁nadzoruje	-11.635
▁strast	-11.635
▁bencin	-11.635
▁dovoljuje	-11.6352
▁odkup	-11.6355
▁pridobivanja	-11.6357
▁abel	-11.6357
▁fund	-11.6359
▁hello	-11.636
▁funtov	-11.636
▁namenil	-11.636
▁vijak	-11.6361
▁ohraniti	-11.6366
▁gardn	-11.6368
xxxvii	-11.6369
pristajaln	-11.6373
▁nagib	-11.6375
▁pohval	-11.6375
▁varovanje	-11.6378
▁primarne	-11.6379
▁merkurja	-11.6382
▁prijet	-11.6384
▁apostolsk	-11.6388
uradno	-11.6399
vladi	-11.64
sistem	-11.6404
▁mehke	-11.6405
▁takšnega	-11.6412
▁premikajo	-11.6415
▁kraljevini	-11.642
▁kent	-11.6422
▁križarje	-11.6424
▁sklepal	-11.6432
▁tesne	-11.6435
▁običajna	-11.6436
▁lastnega	-11.6438
=333	-11.6447
atorjev	-11.6459
▁šolal	-11.646
▁arheolog	-11.6465
▁aristotelov	-11.6467
▁priredil	-11.6469
▁hubblov	-11.6472
frekvenčn	-11.6472
▁avstrijci	-11.6472
▁avtonomijo	-11.6472
▁fragment	-11.6472
▁gravitacijska	-11.6472
▁kroženje	-11.6472
▁literarno	-11.6472
▁najlepši	-11.6472
▁obsežna	-11.6472
▁okupacijsk	-11.6472
▁osredotočen	-11.6472
▁posplošen	-11.6472
▁samouprave	-11.6472
▁stockholm	-11.6472
▁taksonomij	-11.6472
▁hladna	-11.6472
▁prošnjo	-11.6472
▁relativna	-11.6472
▁nasploh	-11.6472
▁geometrijo	-11.6472
▁sodelavec	-11.6472
▁university	-11.6472
▁belgija	-11.6472
▁ronald	-11.6472
▁preslika	-11.6472
▁avtonomni	-11.6472
▁praksa	-11.6473
▁gojijo	-11.6473
▁katolik	-11.6473
▁najkrajš	-11.6473
▁sergej	-11.6473
▁računalniško	-11.6473
▁tekma	-11.6473
▁epikur	-11.6474
▁prikazoval	-11.6474
▁inzulin	-11.6474
▁domorodn	-11.6474
▁kopnega	-11.6474
▁odvisne	-11.6474
▁sotočj	-11.6474
▁prodajo	-11.6474
▁manevr	-11.6474
▁ararat	-11.6475
▁gruzija	-11.6475
▁posamič	-11.6475
▁tednih	-11.6475
▁rakov	-11.6476
[...]
