<unk>	0
<s>	0
</s>	0
▁p	-0
je	-1
▁s	-2
na	-3
▁v	-4
ra	-5
ni	-6
▁i	-7
▁k	-8
st	-9
▁z	-10
ov	-11
li	-12
ne	-13
▁d	-14
re	-15
▁je	-16
▁o	-17
ri	-18
ja	-19
la	-20
▁t	-21
no	-22
le	-23
▁po	-24
▁na	-25
▁m	-26
sk	-27
▁in	-28
▁b	-29
ro	-30
an	-31
▁za	-32
lo	-33
te	-34
me	-35
ga	-36
ti	-37
ta	-38
di	-39
ko	-40
ve	-41
▁se	-42
▁a	-43
jo	-44
ji	-45
▁so	-46
vi	-47
▁ko	-48
ar	-49
to	-50
▁u	-51
ka	-52
▁1	-53
em	-54
▁pre	-55
ci	-56
va	-57
ju	-58
▁g	-59
▁bi	-60
vo	-61
▁le	-62
▁iz	-63
en	-64
po	-65
▁pri	-66
er	-67
▁š	-68
▁ki	-69
se	-70
da	-71
▁(	-72
▁do	-73
▁ob	-74
ma	-75
mi	-76
či	-77
▁ra	-78
▁me	-79
ru	-80
▁e	-81
nje	-82
el	-83
ki	-84
ski	-85
sta	-86
ce	-87
če	-88
sti	-89
▁ne	-90
▁ve	-91
▁od	-92
go	-93
▁pa	-94
zi	-95
▁h	-96
mo	-97
▁f	-98
de	-99
nih	-100
▁da	-101
ke	-102
▁-	-103
ča	-104
ske	-105
▁ka	-106
▁vo	-107
lje	-108
▁raz	-109
▁mo	-110
ovi	-111
do	-112
bi	-113
pi	-114
▁"	-115
▁tu	-116
▁leta	-117
▁n	-118
▁te	-119
ži	-120
▁de	-121
gi	-122
al	-123
si	-124
▁re	-125
lja	-126
sto	-127
ove	-128
▁kot	-129
bo	-130
ku	-131
tu	-132
▁19	-133
▁ta	-134
▁ma	-135
▁2	-136
▁bo	-137
▁pro	-138
sa	-139
▁#	-140
▁##	-141
▁pr	-142
▁tudi	-143
pa	-144
ca	-145
že	-146
so	-147
za	-148
sko	-149
pe	-150
▁si	-151
▁la	-152
00	-153
men	-154
be	-155
▁naj	-156
▁to	-157
▁ni	-158
jih	-159
nega	-160
▁med	-161
lju	-162
ska	-163
ho	-164
▁c	-165
lj	-166
ova	-167
▁pred	-168
ši	-169
▁dru	-170
ran	-171
ža	-172
▁sa	-173
▁sta	-174
lu	-175
▁nje	-176
or	-177
▁st	-178
anje	-179
kov	-180
pre	-181
▁vi	-182
▁bil	-183
▁pod	-184
▁ga	-185
▁mi	-186
gra	-187
rav	-188
ba	-189
lov	-190
ški	-191
▁ju	-192
skih	-193
nem	-194
▁ce	-195
▁di	-196
▁ali	-197
▁svo	-198
▁voj	-199
dno	-200
▁upo	-201
čno	-202
du	-203
ha	-204
▁sve	-205
▁kon	-206
ovo	-207
▁zna	-208
),	-209
).	-210
dni	-211
▁sto	-212
▁ro	-213
dar	-214
▁več	-215
uje	-216
▁tem	-217
ge	-218
▁veli	-219
▁še	-220
zna	-221
nja	-222
let	-223
▁č	-224
▁del	-225
▁njeg	-226
mu	-227
▁ja	-228
▁pe	-229
▁bila	-230
tov	-231
▁kra	-232
rža	-233
▁ime	-234
co	-235
▁če	-236
nosti	-237
še	-238
skega	-239
▁upora	-240
čni	-241
▁go	-242
radi	-243
▁lah	-244
kra	-245
▁jo	-246
mer	-247
▁ži	-248
nost	-249
▁drža	-250
▁št	-251
▁tako	-252
▁lahko	-253
▁gla	-254
▁pi	-255
▁kate	-256
▁vse	-257
▁3	-258
▁ča	-259
▁spo	-260
lji	-261
ša	-262
lni	-263
nu	-264
nov	-265
▁šte	-266
hi	-267
gu	-268
pu	-269
▁ti	-270
▁vr	-271
tni	-272
fi	-273
▁an	-274
▁pra	-275
god	-276
mb	-277
▁li	-278
ste	-279
▁sku	-280
blja	-281
ze	-282
anja	-283
▁18	-284
▁no	-285
zo	-286
čne	-287
0.	-288
▁že	-289
▁posta	-290
nji	-291
▁be	-292
▁sre	-293
▁pov	-294
su	-295
vil	-296
val	-297
tro	-298
ške	-299
▁ter	-300
▁hi	-301
▁vz	-302
man	-303
del	-304
▁fi	-305
▁ba	-306
stvo	-307
dob	-308
jem	-309
▁ima	-310
▁os	-311
šči	-312
▁neka	-313
stan	-314
stav	-315
▁kar	-316
ver	-317
▁lju	-318
▁us	-319
▁zaradi	-320
▁lo	-321
▁4	-322
bli	-323
cija	-324
tev	-325
nik	-326
ško	-327
▁stolet	-328
skem	-329
▁ar	-330
▁razli	-331
▁slov	-332
bra	-333
ch	-334
▁ri	-335
lek	-336
love	-337
cije	-338
ter	-339
▁pos	-340
▁mu	-341
▁w	-342
jev	-343
▁av	-344
▁»	-345
▁bilo	-346
▁drugi	-347
▁nas	-348
tra	-349
",	-350
▁spre	-351
▁zgod	-352
▁jih	-353
pis	-354
cev	-355
▁tr	-356
▁ok	-357
tno	-358
zem	-359
▁pome	-360
ul	-361
stva	-362
▁sloven	-363
prav	-364
jši	-365
tor	-366
▁vla	-367
▁ze	-368
arja	-369
▁ge	-370
pra	-371
tri	-372
▁fran	-373
bu	-374
tih	-375
▁al	-376
šč	-377
šče	-378
▁kri	-379
vni	-380
lan	-381
▁sk	-382
▁zače	-383
ral	-384
koli	-385
▁imen	-386
▁ru	-387
jer	-388
meri	-389
nes	-390
▁pove	-391
▁eno	-392
gle	-393
čnih	-394
tr	-395
▁prvi	-396
rani	-397
▁uporablja	-398
▁or	-399
jan	-400
▁mor	-401
vlje	-402
▁ev	-403
den	-404
plo	-405
pr	-406
▁200	-407
▁kjer	-408
▁samo	-409
teri	-410
dnje	-411
▁ž	-412
nom	-413
mr	-414
pro	-415
šča	-416
rni	-417
cij	-418
▁5	-419
zni	-420
sem	-421
▁nad	-422
▁zve	-423
oval	-424
▁ven	-425
▁ena	-426
he	-427
ng	-428
stem	-429
▁veliko	-430
▁zd	-431
▁poli	-432
▁tre	-433
▁proti	-434
▁(1	-435
ona	-436
▁obli	-437
čna	-438
▁man	-439
▁nem	-440
lno	-441
moč	-442
žno	-443
ška	-444
una	-445
▁vendar	-446
▁bili	-447
".	-448
gla	-449
▁voja	-450
več	-451
▁su	-452
cijo	-453
sne	-454
in	-455
▁pla	-456
on	-457
tan	-458
gov	-459
seb	-460
krat	-461
dov	-462
bolj	-463
klju	-464
sni	-465
▁zgodovi	-466
▁tri	-467
▁svoje	-468
▁evro	-469
▁ci	-470
▁he	-471
sar	-472
ber	-473
▁števi	-474
▁("	-475
▁vsa	-476
kri	-477
▁pogo	-478
▁mar	-479
tek	-480
▁glas	-481
▁njih	-482
tem	-483
vno	-484
▁gra	-485
zu	-486
▁veči	-487
▁ver	-488
hod	-489
▁kateri	-490
elja	-491
čil	-492
tali	-493
dil	-494
kti	-495
nski	-496
nija	-497
▁mesto	-498
▁20	-499
▁življe	-500
▁6	-501
▁zelo	-502
kih	-503
anju	-504
logi	-505
▁dol	-506
vlja	-507
tve	-508
pri	-509
tre	-510
kom	-511
vanje	-512
▁skupi	-513
un	-514
fe	-515
▁va	-516
vizi	-517
ur	-518
▁sko	-519
▁ha	-520
▁saj	-521
▁oto	-522
▁uni	-523
▁primer	-524
▁sistem	-525
ških	-526
▁zato	-527
stri	-528
▁svetov	-529
000	-530
▁bri	-531
čen	-532
us	-533
emi	-534
pera	-535
▁mno	-536
spo	-537
▁slove	-538
lin	-539
▁dve	-540
ner	-541
bil	-542
▁najbolj	-543
▁katere	-544
▁izra	-545
▁elek	-546
▁jezi	-547
▁prebi	-548
sla	-549
▁r	-550
▁17	-551
▁tega	-552
ten	-553
▁lu	-554
iz	-555
▁par	-556
▁bre	-557
▁zda	-558
▁okoli	-559
▁199	-560
▁nasta	-561
jski	-562
▁celo	-563
▁dela	-564
▁pomemb	-565
žni	-566
▁7	-567
št	-568
▁teh	-569
▁bolj	-570
▁194	-571
▁stoletja	-572
▁sever	-573
pli	-574
▁ho	-575
▁največ	-576
▁|	-577
▁ker	-578
▁let	-579
▁osta	-580
gani	-581
▁gi	-582
▁for	-583
▁sla	-584
ovih	-585
stavlja	-586
▁15	-587
▁bese	-588
cu	-589
▁8	-590
▁politi	-591
▁obi	-592
tvi	-593
▁ustan	-594
ren	-595
vu	-596
meni	-597
▁uss	-598
▁ši	-599
▁mest	-600
ali	-601
▁divizi	-602
▁kr	-603
▁pravi	-604
dal	-605
")	-606
▁pol	-607
nim	-608
ljen	-609
▁–	-610
tom	-611
▁števil	-612
ujejo	-613
čin	-614
▁kralje	-615
jše	-616
redno	-617
sli	-618
▁gle	-619
stro	-620
1.	-621
▁prebival	-622
haja	-623
▁itali	-624
vali	-625
▁gr	-626
vaja	-627
▁du	-628
jet	-629
▁dolo	-630
▁poja	-631
nar	-632
▁ameri	-633
ciona	-634
▁nekaj	-635
▁rim	-636
▁og	-637
▁fa	-638
dne	-639
dnji	-640
nimi	-641
vr	-642
▁območ	-643
ven	-644
▁čr	-645
▁šo	-646
▁napa	-647
▁fe	-648
▁kasne	-649
2.	-650
elj	-651
for	-652
ms	-653
▁cesar	-654
dela	-655
▁ple	-656
tna	-657
jno	-658
▁vojne	-659
cem	-660
▁name	-661
kem	-662
▁16	-663
▁kro	-664
tin	-665
▁delo	-666
▁nasle	-667
▁cer	-668
▁postal	-669
▁sloveni	-670
▁leto	-671
▁pribli	-672
ton	-673
jša	-674
var	-675
▁9	-676
jim	-677
fa	-678
▁en	-679
stve	-680
▁obdob	-681
▁niso	-682
▁svet	-683
▁zdru	-684
▁zem	-685
▁naro	-686
ovega	-687
▁knji	-688
▁ku	-689
▁pole	-690
dn	-691
sno	-692
▁prav	-693
▁organi	-694
▁njegov	-695
▁času	-696
ljub	-697
▁co	-698
mor	-699
▁nekateri	-700
▁ume	-701
▁[	-702
tar	-703
▁sezna	-704
ledi	-705
kon	-706
ciji	-707
vsem	-708
dr	-709
▁dose	-710
..	-711
th	-712
škega	-713
čnega	-714
publi	-715
mp	-716
der	-717
len	-718
▁žele	-719
▁druge	-720
▁zgra	-721
tudi	-722
▁nato	-723
▁201	-724
lijo	-725
mati	-726
nil	-727
nika	-728
ler	-729
vna	-730
emo	-731
▁republi	-732
▁kul	-733
▁zra	-734
stre	-735
daj	-736
▁dvo	-737
▁danes	-738
▁predvsem	-739
ovanje	-740
▁vklju	-741
ranje	-742
▁letih	-743
novi	-744
▁poz	-745
▁znan	-746
▁obla	-747
jen	-748
vne	-749
▁smr	-750
▁1.	-751
dje	-752
▁zla	-753
▁sredi	-754
▁vpli	-755
tne	-756
od	-757
▁število	-758
▁hms	-759
3.	-760
ljena	-761
ovali	-762
▁last	-763
▁bar	-764
▁dva	-765
▁ca	-766
▁vodi	-767
ksi	-768
▁viso	-769
▁spe	-770
▁bile	-771
▁kasneje	-772
▁14	-773
rija	-774
▁približno	-775
▁pu	-776
jske	-777
▁brez	-778
cen	-779
roči	-780
kaz	-781
▁podob	-782
deli	-783
▁divizija	-784
▁polo	-785
▁člove	-786
cer	-787
▁pogosto	-788
jš	-789
stop	-790
lija	-791
▁poveza	-792
▁ek	-793
▁gro	-794
▁fo	-795
žen	-796
pove	-797
▁ljublja	-798
hov	-799
gre	-800
▁%	-801
▁teo	-802
lne	-803
▁strani	-804
gen	-805
▁prosto	-806
▁prev	-807
hodu	-808
▁skup	-809
▁tele	-810
sov	-811
van	-812
raj	-813
▁velja	-814
▁sov	-815
nec	-816
▁vedno	-817
▁skla	-818
kar	-819
zira	-820
▁seznam	-821
▁potre	-822
▁izo	-823
▁gene	-824
▁uspe	-825
▁razvo	-826
gan	-827
▁gospo	-828
▁čeprav	-829
lih	-830
▁kultu	-831
▁ozna	-832
čel	-833
▁podro	-834
niki	-835
▁mla	-836
▁mesta	-837
ck	-838
▁bli	-839
▁stro	-840
▁bra	-841
▁poda	-842
▁mora	-843
▁bu	-844
pisa	-845
telj	-846
staja	-847
▁igra	-848
stavi	-849
red	-850
jsko	-851
▁države	-852
▁nov	-853
▁ura	-854
▁zgo	-855
▁stoletju	-856
▁imajo	-857
mbo	-858
dan	-859
ved	-860
▁poleg	-861
▁pomeni	-862
▁dobi	-863
▁zvez	-864
▁mari	-865
▁razvi	-866
▁oz	-867
▁obra	-868
▁prvo	-869
dnik	-870
▁196	-871
▁odkri	-872
▁priš	-873
▁življenje	-874
▁kla	-875
▁slu	-876
bru	-877
stra	-878
il	-879
▁glasbe	-880
▁drugih	-881
▁razi	-882
tal	-883
▁franco	-884
▁svetu	-885
▁191	-886
▁či	-887
▁pose	-888
▁splo	-889
▁predstavlja	-890
njem	-891
hu	-892
rov	-893
▁oh	-894
▁ste	-895
žje	-896
▁svojo	-897
paj	-898
▁šti	-899
stvu	-900
set	-901
▁sli	-902
dra	-903
rje	-904
lemen	-905
▁10	-906
▁ii	-907
▁formu	-908
▁tra	-909
▁povelj	-910
ril	-911
rom	-912
▁hu	-913
▁gre	-914
▁hitro	-915
▁*	-916
▁km	-917
rt	-918
hodni	-919
▁koli	-920
roma	-921
čuna	-922
▁povr	-923
▁zapo	-924
5.	-925
dnja	-926
fo	-927
dna	-928
▁oseb	-929
▁druž	-930
lec	-931
▁dan	-932
rja	-933
▁bit	-934
▁pote	-935
▁njegovo	-936
▁per	-937
▁druži	-938
dina	-939
▁skupaj	-940
▁proiz	-941
▁začet	-942
▁naspro	-943
stru	-944
▁poseb	-945
▁država	-946
hodno	-947
cial	-948
▁198	-949
▁povz	-950
▁ustanovi	-951
▁197	-952
▁195	-953
varja	-954
per	-955
▁vojno	-956
▁prve	-957
▁izvo	-958
skim	-959
▁geo	-960
▁son	-961
gal	-962
gip	-963
▁področ	-964
jejo	-965
▁progra	-966
tori	-967
▁večino	-968
ktor	-969
▁193	-970
▁vlada	-971
▁obstaja	-972
▁ener	-973
slov	-974
jših	-975
▁zave	-976
son	-977
▁cerk	-978
lom	-979
▁192	-980
0,	-981
▁maj	-982
▁vseb	-983
san	-984
nsko	-985
mov	-986
▁elektro	-987
mogo	-988
fri	-989
▁posa	-990
▁vseh	-991
dri	-992
kovi	-993
▁dob	-994
▁druga	-995
pisal	-996
prej	-997
▁gib	-998
▁univer	-999
▁gospodar	-1000
vnih	-1001
šno	-1002
▁pisa	-1003
▁predse	-1004
pan	-1005
raz	-1006
jska	-1007
▁sin	-1008
spe	-1009
▁evrop	-1010
▁egip	-1011
imen	-1012
lina	-1013
pla	-1014
sil	-1015
sku	-1016
net	-1017
sih	-1018
▁ome	-1019
dalje	-1020
▁stru	-1021
▁odlo	-1022
redi	-1023
▁fil	-1024
▁njegova	-1025
dom	-1026
gli	-1027
-1	-1028
naro	-1029
dro	-1030
zan	-1031
ster	-1032
▁zah	-1033
▁var	-1034
▁nava	-1035
▁mož	-1036
▁štiri	-1037
pravlja	-1038
nske	-1039
▁običa	-1040
vanja	-1041
peratu	-1042
lar	-1043
▁regi	-1044
▁energi	-1045
▁12	-1046
▁formula	-1047
▁ara	-1048
▁sodel	-1049
kan	-1050
log	-1051
škem	-1052
▁kita	-1053
▁mate	-1054
▁ozem	-1055
lovi	-1056
▁velike	-1057
▁stran	-1058
▁temperatu	-1059
▁nase	-1060
pravi	-1061
ktu	-1062
jskih	-1063
▁novo	-1064
▁stra	-1065
▁dra	-1066
▁srednje	-1067
▁imel	-1068
mar	-1069
jena	-1070
▁opa	-1071
qu	-1072
▁red	-1073
▁glede	-1074
▁prva	-1075
▁mednaro	-1076
▁elemen	-1077
is	-1078
▁vojni	-1079
4.	-1080
som	-1081
▁opera	-1082
▁2.	-1083
ščina	-1084
kor	-1085
▁delu	-1086
▁katerih	-1087
▁oro	-1088
▁milijo	-1089
▁jugo	-1090
▁skoraj	-1091
▁zako	-1092
▁ljud	-1093
▁cen	-1094
▁združe	-1095
har	-1096
žar	-1097
▁okro	-1098
rb	-1099
▁deja	-1100
▁plo	-1101
▁vojske	-1102
▁fun	-1103
lna	-1104
jimi	-1105
▁val	-1106
pada	-1107
▁oče	-1108
▁otro	-1109
nica	-1110
▁(19	-1111
▁ško	-1112
ovala	-1113
rijo	-1114
▁deli	-1115
▁zuna	-1116
▁†	-1117
▁tur	-1118
▁držav	-1119
"),	-1120
▁angle	-1121
▁vredno	-1122
▁avto	-1123
nari	-1124
nd	-1125
pusti	-1126
▁obe	-1127
▁medtem	-1128
▁popo	-1129
▁omogo	-1130
vis	-1131
gel	-1132
zer	-1133
«.	-1134
▁nara	-1135
▁gu	-1136
▁oce	-1137
▁razši	-1138
6.	-1139
▁nor	-1140
ovan	-1141
▁večina	-1142
▁stan	-1143
kro	-1144
dnih	-1145
▁imenuje	-1146
▁doda	-1147
▁obse	-1148
zen	-1149
▁ozi	-1150
▁seve	-1151
▁staro	-1152
▁študi	-1153
▁njegovi	-1154
▁rast	-1155
čuje	-1156
▁britan	-1157
čan	-1158
▁fizi	-1159
med	-1160
▁pis	-1161
naš	-1162
▁teme	-1163
7.	-1164
tje	-1165
▁različnih	-1166
ss	-1167
▁površi	-1168
▁narav	-1169
▁sicer	-1170
trov	-1171
▁zav	-1172
vih	-1173
stih	-1174
▁sodob	-1175
▁20.	-1176
▁čla	-1177
nije	-1178
zma	-1179
▁boga	-1180
▁izvi	-1181
nah	-1182
]]	-1183
nju	-1184
▁obo	-1185
▁ana	-1186
novno	-1187
▁indi	-1188
▁veliki	-1189
▁novem	-1190
▁medi	-1191
▁toč	-1192
▁astro	-1193
▁skozi	-1194
▁letu	-1195
dobi	-1196
nska	-1197
▁rea	-1198
8.	-1199
▁najpo	-1200
tere	-1201
▁prese	-1202
kt	-1203
▁tan	-1204
▁zase	-1205
ovanja	-1206
ču	-1207
▁kemi	-1208
▁preko	-1209
▁joh	-1210
▁kljub	-1211
▁ljudi	-1212
▁am	-1213
▁zas	-1214
▁konča	-1215
▁[[	-1216
▁tak	-1217
▁opre	-1218
neje	-1219
▁takrat	-1220
▁tradi	-1221
▁potreb	-1222
▁avgu	-1223
▁majh	-1224
ljivo	-1225
tera	-1226
rej	-1227
tovi	-1228
kla	-1229
▁celi	-1230
▁določe	-1231
▁zma	-1232
▁smrti	-1233
ple	-1234
▁indu	-1235
▁pomoč	-1236
▁žen	-1237
nikov	-1238
▁organiza	-1239
šte	-1240
▁začel	-1241
▁podat	-1242
▁pozna	-1243
kr	-1244
▁italijan	-1245
anjem	-1246
ble	-1247
▁tro	-1248
▁osvo	-1249
vala	-1250
▁umr	-1251
▁stare	-1252
▁arhi	-1253
9.	-1254
▁elektri	-1255
▁matemati	-1256
kaza	-1257
▁mestu	-1258
dnjo	-1259
▁verje	-1260
▁zdrav	-1261
▁komu	-1262
▁kam	-1263
grafi	-1264
▁tran	-1265
dja	-1266
▁janu	-1267
dol	-1268
▁funk	-1269
▁tek	-1270
▁računa	-1271
pen	-1272
▁l	-1273
").	-1274
žil	-1275
▁kom	-1276
▁manj	-1277
▁letal	-1278
▁položa	-1279
▁posame	-1280
▁žive	-1281
▁oziroma	-1282
žive	-1283
▁govo	-1284
kli	-1285
▁okto	-1286
▁nav	-1287
▁sovjet	-1288
čr	-1289
▁of	-1290
▁19.	-1291
krati	-1292
pte	-1293
sel	-1294
nemu	-1295
bor	-1296
dali	-1297
ljeno	-1298
stvom	-1299
skimi	-1300
▁dom	-1301
▁kole	-1302
▁nemči	-1303
▁anti	-1304
▁slovenske	-1305
▁pes	-1306
▁zahte	-1307
▁poteka	-1308
▁katerem	-1309
bur	-1310
ščine	-1311
▁nepo	-1312
▁glo	-1313
zor	-1314
▁inter	-1315
▁ab	-1316
stega	-1317
vati	-1318
▁izgu	-1319
ščan	-1320
▁ide	-1321
▁vlo	-1322
▁izdela	-1323
▁decem	-1324
2,	-1325
▁gor	-1326
šen	-1327
▁znanstve	-1328
▁čast	-1329
stoj	-1330
▁afri	-1331
vajo	-1332
▁zgodovina	-1333
▁zi	-1334
▁svojega	-1335
▁x	-1336
▁sestav	-1337
tnih	-1338
▁spreje	-1339
dila	-1340
▁časa	-1341
▁mornari	-1342
njo	-1343
ron	-1344
▁im	-1345
por	-1346
▁ša	-1347
▁njegove	-1348
▁y	-1349
lnih	-1350
▁poro	-1351
um	-1352
vnosti	-1353
▁slovenski	-1354
čine	-1355
naj	-1356
meti	-1357
1,	-1358
rie	-1359
ser	-1360
▁ust	-1361
▁razisk	-1362
nice	-1363
štvo	-1364
▁nagra	-1365
▁sledi	-1366
▁ber	-1367
▁mon	-1368
vin	-1369
▁eden	-1370
▁značil	-1371
▁mag	-1372
▁industri	-1373
menja	-1374
ptemb	-1375
▁svetlo	-1376
▁uporab	-1377
▁sam	-1378
▁loka	-1379
▁drugo	-1380
lep	-1381
▁imenova	-1382
▁3.	-1383
line	-1384
oni	-1385
ob	-1386
▁prizna	-1387
rek	-1388
▁avstri	-1389
▁imena	-1390
les	-1391
▁filo	-1392
▁septemb	-1393
tran	-1394
.,	-1395
▁svojih	-1396
▁običajno	-1397
par	-1398
▁13	-1399
▁dne	-1400
▁posledi	-1401
▁sloveniji	-1402
▁obja	-1403
▁ponovno	-1404
▁radi	-1405
▁kovi	-1406
bili	-1407
▁tam	-1408
▁sed	-1409
▁spreme	-1410
«,	-1411
▁=	-1412
rno	-1413
kraji	-1414
stopi	-1415
▁skupine	-1416
▁her	-1417
ščini	-1418
▁sle	-1419
▁'	-1420
▁ure	-1421
nan	-1422
žan	-1423
▁dveh	-1424
▁novi	-1425
▁razvoj	-1426
▁wa	-1427
▁močno	-1428
▁dovo	-1429
▁živi	-1430
logija	-1431
dru	-1432
▁sti	-1433
▁apri	-1434
20	-1435
▁deže	-1436
▁kolo	-1437
▁mese	-1438
▁koncu	-1439
pol	-1440
▁wil	-1441
▁at	-1442
▁4.	-1443
▁juž	-1444
nskih	-1445
▁nekaterih	-1446
▁bla	-1447
boj	-1448
▁san	-1449
volu	-1450
▁pape	-1451
▁zago	-1452
pel	-1453
govi	-1454
vnost	-1455
▁stre	-1456
vili	-1457
žja	-1458
rali	-1459
risti	-1460
▁uporabljajo	-1461
▁družbe	-1462
▁evropi	-1463
nova	-1464
▁nove	-1465
rije	-1466
▁vzpo	-1467
▁uk	-1468
▁uve	-1469
▁vode	-1470
▁poimen	-1471
malu	-1472
▁kmalu	-1473
zije	-1474
▁edi	-1475
dnjih	-1476
▁neod	-1477
pelja	-1478
▁začetku	-1479
▁tvo	-1480
▁način	-1481
▁stoletje	-1482
▁oba	-1483
▁nahaja	-1484
▁sveta	-1485
▁katerega	-1486
▁temu	-1487
▁cerkve	-1488
▁proizvo	-1489
rne	-1490
▁glavni	-1491
▁poti	-1492
▁posku	-1493
▁slovenije	-1494
3,	-1495
▁zemlje	-1496
dbe	-1497
▁nek	-1498
▁potem	-1499
▁proce	-1500
▁tež	-1501
▁vojna	-1502
▁odpr	-1503
▁premi	-1504
▁materi	-1505
vet	-1506
lini	-1507
▁pari	-1508
čnem	-1509
▁190	-1510
tega	-1511
kad	-1512
▁umetni	-1513
▁območje	-1514
▁osnov	-1515
▁deset	-1516
▁začela	-1517
▁filozo	-1518
ger	-1519
vah	-1520
▁svoj	-1521
▁obdobju	-1522
▁postala	-1523
ljeni	-1524
▁febru	-1525
▁ustanov	-1526
rati	-1527
▁alek	-1528
▁umet	-1529
--	-1530
▁sr	-1531
▁zbi	-1532
ard	-1533
▁bole	-1534
▁dolgo	-1535
▁11	-1536
▁skupina	-1537
▁por	-1538
▁rde	-1539
▁obliki	-1540
stu	-1541
▁oblast	-1542
daja	-1543
tt	-1544
sle	-1545
sor	-1546
▁mogo	-1547
▁opis	-1548
čo	-1549
lia	-1550
▁viši	-1551
▁čas	-1552
▁verjetno	-1553
▁zman	-1554
bert	-1555
jskega	-1556
▁mnogi	-1557
▁vsi	-1558
▁moč	-1559
▁republike	-1560
▁maja	-1561
▁izraz	-1562
stov	-1563
▁doma	-1564
▁nadalje	-1565
▁današ	-1566
tja	-1567
šču	-1568
50	-1569
kova	-1570
▁izvaja	-1571
nisti	-1572
▁akad	-1573
▁pora	-1574
▁jezik	-1575
▁ke	-1576
vega	-1577
▁viš	-1578
▁pomen	-1579
klo	-1580
graf	-1581
▁(18	-1582
▁imela	-1583
▁prime	-1584
ry	-1585
▁malo	-1586
▁boj	-1587
▁arab	-1588
▁rusi	-1589
▁nastane	-1590
▁nekatere	-1591
▁različne	-1592
pad	-1593
zija	-1594
▁j	-1595
▁jim	-1596
▁različi	-1597
...	-1598
tel	-1599
niji	-1600
▁večinoma	-1601
naša	-1602
▁simbo	-1603
met	-1604
▁pridobi	-1605
čila	-1606
viš	-1607
▁preje	-1608
rože	-1609
▁državlja	-1610
▁arhitek	-1611
▁5.	-1612
nijo	-1613
ranja	-1614
pti	-1615
5,	-1616
▁dobro	-1617
mes	-1618
▁množi	-1619
šo	-1620
mom	-1621
dili	-1622
bej	-1623
▁nu	-1624
telje	-1625
gr	-1626
4,	-1627
▁goz	-1628
▁junija	-1629
bri	-1630
▁njem	-1631
▁razpo	-1632
metri	-1633
▁pravo	-1634
▁meri	-1635
▁konstan	-1636
sen	-1637
▁prece	-1638
kle	-1639
▁kan	-1640
▁dolži	-1641
▁katero	-1642
▁hr	-1643
rala	-1644
toli	-1645
vnega	-1646
▁polj	-1647
rajo	-1648
▁mini	-1649
▁briga	-1650
▁zahod	-1651
▁bio	-1652
govor	-1653
▁ljubljani	-1654
▁oko	-1655
šni	-1656
pov	-1657
▁sil	-1658
▁poko	-1659
▁stop	-1660
rij	-1661
čev	-1662
▁klasi	-1663
▁povzroči	-1664
▁program	-1665
▁računalni	-1666
▁član	-1667
▁kre	-1668
▁opaz	-1669
mba	-1670
▁spomi	-1671
▁poveča	-1672
rana	-1673
▁prevo	-1674
▁ji	-1675
▁prvič	-1676
nez	-1677
šal	-1678
mbne	-1679
▁car	-1680
▁velik	-1681
čnimi	-1682
–1	-1683
dež	-1684
ld	-1685
lit	-1686
▁189	-1687
▁izpo	-1688
dor	-1689
▁pot	-1690
▁akti	-1691
▁zavezni	-1692
ciali	-1693
▁vrste	-1694
▁dina	-1695
jeno	-1696
▁kralj	-1697
▁pesmi	-1698
▁železni	-1699
▁naciona	-1700
▁decembra	-1701
▁sistema	-1702
lim	-1703
▁sestavlja	-1704
▁življenja	-1705
čnim	-1706
ščen	-1707
▁julija	-1708
▁posebej	-1709
liti	-1710
▁velika	-1711
▁the	-1712
▁leži	-1713
▁sile	-1714
▁zašči	-1715
njeni	-1716
▁dele	-1717
▁osre	-1718
▁struktu	-1719
▁pou	-1720
▁šele	-1721
▁mnogo	-1722
mre	-1723
▁vod	-1724
▁japo	-1725
časih	-1726
▁revolu	-1727
▁vzhod	-1728
▁januarja	-1729
▁slo	-1730
forma	-1731
dih	-1732
mbe	-1733
▁6.	-1734
▁proble	-1735
kah	-1736
▁izhaja	-1737
zel	-1738
▁and	-1739
▁har	-1740
dijo	-1741
nomi	-1742
▁snovi	-1743
▁notran	-1744
▁pojavi	-1745
▁njimi	-1746
▁pozneje	-1747
nila	-1748
▁preo	-1749
7,	-1750
9,	-1751
jskem	-1752
▁najviš	-1753
▁vrst	-1754
▁krščan	-1755
šel	-1756
▁začeli	-1757
▁prija	-1758
▁svetovne	-1759
rna	-1760
▁prista	-1761
ravna	-1762
▁spremeni	-1763
▁izmed	-1764
▁predstav	-1765
▁dia	-1766
▁general	-1767
nos	-1768
▁vsebuje	-1769
traj	-1770
▁kana	-1771
▁parti	-1772
▁posla	-1773
gled	-1774
▁10.	-1775
lova	-1776
▁demo	-1777
▁vsak	-1778
▁zemlji	-1779
▁omogoča	-1780
ment	-1781
dd	-1782
gna	-1783
▁kore	-1784
▁prebivalcev	-1785
▁enako	-1786
▁°	-1787
chi	-1788
nike	-1789
▁številne	-1790
▁presto	-1791
ziji	-1792
▁sklada	-1793
▁teža	-1794
▁včasih	-1795
6,	-1796
ljene	-1797
▁oktobra	-1798
▁zlasti	-1799
gh	-1800
lij	-1801
čili	-1802
nskega	-1803
▁septembra	-1804
▁pomočjo	-1805
ben	-1806
▁marca	-1807
zijo	-1808
▁pripa	-1809
njen	-1810
▁16.	-1811
▁+	-1812
▁bog	-1813
▁svoji	-1814
▁popolno	-1815
pred	-1816
▁tla	-1817
mon	-1818
▁ch	-1819
dnika	-1820
▁pet	-1821
▁trenu	-1822
▁aleksan	-1823
▁standar	-1824
8,	-1825
njih	-1826
čina	-1827
ndo	-1828
▁15.	-1829
▁najpome	-1830
jeni	-1831
▁oku	-1832
gor	-1833
▁enote	-1834
vla	-1835
tski	-1836
▁john	-1837
▁oglji	-1838
njega	-1839
▁krat	-1840
▁ravni	-1841
▁toplo	-1842
ker	-1843
▁zvo	-1844
▁uporabi	-1845
čar	-1846
▁dni	-1847
▁vsem	-1848
wi	-1849
▁17.	-1850
▁ugo	-1851
nili	-1852
00.	-1853
che	-1854
ščino	-1855
▁najpomembne	-1856
mak	-1857
▁dok	-1858
▁špan	-1859
▁obisk	-1860
štva	-1861
▁kaže	-1862
▁naslov	-1863
▁gori	-1864
▁učin	-1865
▁avgusta	-1866
liko	-1867
▁18.	-1868
▁vodo	-1869
▁delov	-1870
▁svetovno	-1871
▁otok	-1872
čih	-1873
▁novembra	-1874
str	-1875
mini	-1876
dnega	-1877
▁188	-1878
jajo	-1879
▁mogoče	-1880
▁tradiciona	-1881
▁ur	-1882
▁spro	-1883
▁25	-1884
▁posve	-1885
tvijo	-1886
ph	-1887
▁dal	-1888
▁jeze	-1889
▁imeli	-1890
▁ustvarja	-1891
rih	-1892
nci	-1893
vede	-1894
▁ban	-1895
▁naza	-1896
kta	-1897
land	-1898
▁letoma	-1899
▁najprej	-1900
ovati	-1901
▁reši	-1902
▁meto	-1903
▁gradi	-1904
▁kriti	-1905
wa	-1906
lati	-1907
lt	-1908
▁opo	-1909
▁duhov	-1910
▁torej	-1911
▁npr	-1912
▁umrl	-1913
jene	-1914
▁nepos	-1915
▁stav	-1916
bni	-1917
šne	-1918
manj	-1919
▁lastnosti	-1920
▁podne	-1921
▁ustre	-1922
▁aprila	-1923
riji	-1924
▁kapi	-1925
▁bal	-1926
stare	-1927
▁visoko	-1928
cah	-1929
lah	-1930
til	-1931
melj	-1932
tnega	-1933
▁gru	-1934
lil	-1935
▁hla	-1936
▁veso	-1937
▁dobil	-1938
▁tiso	-1939
kev	-1940
▁vre	-1941
▁načr	-1942
▁svobo	-1943
rili	-1944
▁proje	-1945
▁državi	-1946
▁vojska	-1947
laga	-1948
▁hen	-1949
▁mer	-1950
▁izko	-1951
▁napad	-1952
▁posto	-1953
jal	-1954
▁impe	-1955
▁roman	-1956
ulta	-1957
▁ose	-1958
▁reke	-1959
rane	-1960
▁napisal	-1961
▁plovi	-1962
▁eks	-1963
▁ču	-1964
vine	-1965
kega	-1966
kul	-1967
▁187	-1968
njena	-1969
▁natan	-1970
▁predsednik	-1971
ris	-1972
▁osvoji	-1973
▁rez	-1974
▁pokraji	-1975
▁severno	-1976
▁kisli	-1977
maga	-1978
▁nare	-1979
▁trgov	-1980
▁svetovni	-1981
▁zo	-1982
▁obdobje	-1983
▁ukvarja	-1984
▁(2	-1985
▁new	-1986
▁reak	-1987
bar	-1988
stjo	-1989
▁ivan	-1990
▁služ	-1991
▁južno	-1992
▁razre	-1993
▁enač	-1994
fini	-1995
▁vra	-1996
▁enota	-1997
▁geor	-1998
▁vodil	-1999
dovi	-2000
▁vojaški	-2001
nen	-2002
▁nemški	-2003
setih	-2004
logije	-2005
▁drugim	-2006
▁cerkev	-2007
slavi	-2008
▁spoji	-2009
▁vključno	-2010
govo	-2011
11	-2012
šna	-2013
▁more	-2014
▁področju	-2015
ol	-2016
zal	-2017
▁bur	-2018
rec	-2019
▁razme	-2020
▁kva	-2021
▁akademi	-2022
▁njegovega	-2023
ly	-2024
▁8.	-2025
▁uvr	-2026
▁energije	-2027
▁mr	-2028
▁film	-2029
▁enega	-2030
▁sv	-2031
▁oksi	-2032
▁treh	-2033
▁vsako	-2034
▁vladar	-2035
▁prebivalstva	-2036
the	-2037
rami	-2038
▁znana	-2039
jni	-2040
zar	-2041
▁bodo	-2042
▁nalo	-2043
▁podobno	-2044
pak	-2045
▁četr	-2046
▁konec	-2047
▁vlogo	-2048
▁povpre	-2049
lon	-2050
▁precej	-2051
▁večje	-2052
▁njegovih	-2053
▁pomembno	-2054
▁pozi	-2055
ff	-2056
▁kor	-2057
rano	-2058
▁hkrati	-2059
▁naprej	-2060
▁prispe	-2061
bina	-2062
dilo	-2063
▁kralja	-2064
▁podneb	-2065
▁7.	-2066
▁9.	-2067
rila	-2068
taljo	-2069
▁oborože	-2070
▁tej	-2071
▁tret	-2072
▁razgla	-2073
▁oblasti	-2074
rit	-2075
žne	-2076
▁žu	-2077
▁bro	-2078
▁izobra	-2079
stopa	-2080
vom	-2081
▁prevla	-2082
▁dre	-2083
▁kamni	-2084
▁zapis	-2085
▁ir	-2086
▁hrva	-2087
▁reli	-2088
▁bataljo	-2089
▁čez	-2090
▁ohrani	-2091
▁peho	-2092
▁praz	-2093
▁okrog	-2094
lika	-2095
▁foto	-2096
▁leti	-2097
▁fer	-2098
▁zakon	-2099
▁svojem	-2100
▁pojavlja	-2101
rin	-2102
▁polovi	-2103
cha	-2104
▁južni	-2105
▁pesni	-2106
▁temelji	-2107
▁uporabo	-2108
10	-2109
om	-2110
dome	-2111
topi	-2112
▁bru	-2113
▁nadzor	-2114
▁12.	-2115
dele	-2116
▁podpo	-2117
▁mito	-2118
▁zveze	-2119
▁drug	-2120
▁zgor	-2121
▁ustva	-2122
▁arma	-2123
▁postop	-2124
▁vrh	-2125
▁območju	-2126
▁pala	-2127
▁litera	-2128
▁manjši	-2129
gar	-2130
jema	-2131
nove	-2132
kazal	-2133
▁mati	-2134
▁največji	-2135
▁naslednje	-2136
▁30	-2137
▁spr	-2138
▁čemer	-2139
▁beseda	-2140
▁uvelja	-2141
▁središče	-2142
▁bel	-2143
▁biti	-2144
▁peter	-2145
▁prostor	-2146
▁eko	-2147
▁priso	-2148
▁profe	-2149
▁februarja	-2150
jci	-2151
▁niz	-2152
▁utr	-2153
▁mad	-2154
▁usta	-2155
▁popolnoma	-2156
mih	-2157
▁186	-2158
▁muze	-2159
▁prote	-2160
▁jugoslavi	-2161
▁uporabljali	-2162
ljo	-2163
▁vrnil	-2164
▁mornarice	-2165
jeva	-2166
▁vozi	-2167
▁dinasti	-2168
prave	-2169
telji	-2170
▁živali	-2171
▁prej	-2172
▁zapi	-2173
▁raziska	-2174
▁glavno	-2175
čka	-2176
časno	-2177
▁dalj	-2178
▁besede	-2179
▁ak	-2180
tnik	-2181
▁spada	-2182
▁temp	-2183
br	-2184
▁11.	-2185
▁posamez	-2186
que	-2187
0.000	-2188
nj	-2189
▁razmer	-2190
▁ed	-2191
▁enot	-2192
▁izdel	-2193
▁vrsta	-2194
▁gledali	-2195
▁komp	-2196
▁mole	-2197
pravil	-2198
▁roj	-2199
▁komi	-2200
▁ad	-2201
čena	-2202
▁para	-2203
▁ampak	-2204
▁koledar	-2205
▁severni	-2206
▁splošno	-2207
▁arhitektu	-2208
▁cesarstva	-2209
tok	-2210
▁ska	-2211
▁latin	-2212
▁184	-2213
▁nobe	-2214
▁koncen	-2215
▁nadome	-2216
▁zapusti	-2217
▁jugu	-2218
▁največje	-2219
▁teko	-2220
▁prežive	-2221
ks	-2222
▁nev	-2223
▁večji	-2224
▁oblike	-2225
▁duna	-2226
▁prek	-2227
čiti	-2228
▁nova	-2229
▁14.	-2230
ljiv	-2231
▁gosto	-2232
▁igral	-2233
▁londo	-2234
▁vzhodno	-2235
demo	-2236
fika	-2237
jevi	-2238
▁priza	-2239
▁vzhodu	-2240
▁vpra	-2241
▁istega	-2242
ziv	-2243
▁vir	-2244
menta	-2245
▁širi	-2246
▁dokon	-2247
▁au	-2248
▁zadnji	-2249
▁najstare	-2250
žu	-2251
▁diplo	-2252
janje	-2253
▁univerzi	-2254
kovo	-2255
▁polja	-2256
ts	-2257
▁lov	-2258
telja	-2259
▁šest	-2260
▁imenom	-2261
▁števila	-2262
lome	-2263
▁kako	-2264
anj	-2265
▁dogod	-2266
▁produ	-2267
30	-2268
▁nosi	-2269
▁tisoč	-2270
▁neodvis	-2271
▁astronom	-2272
nskem	-2273
▁budi	-2274
▁podjet	-2275
▁milijonov	-2276
mos	-2277
nij	-2278
▁morje	-2279
vanju	-2280
▁ljudje	-2281
bel	-2282
▁sred	-2283
▁spozna	-2284
▁številni	-2285
▁kali	-2286
▁kata	-2287
▁bizan	-2288
ya	-2289
roča	-2290
▁kmeti	-2291
▁evrope	-2292
▁13.	-2293
▁orke	-2294
▁rezulta	-2295
▁velikih	-2296
▁vrednost	-2297
ria	-2298
bora	-2299
▁tru	-2300
▁severu	-2301
▁tov	-2302
▁avtor	-2303
▁oblika	-2304
▁smrt	-2305
▁zased	-2306
gt	-2307
čani	-2308
▁jedr	-2309
▁polet	-2310
▁pomembne	-2311
vir	-2312
▁defini	-2313
olo	-2314
▁dr	-2315
▁opravlja	-2316
▁republika	-2317
stni	-2318
▁resni	-2319
▁prepri	-2320
▁zadnje	-2321
lino	-2322
▁nes	-2323
▁nima	-2324
▁širo	-2325
▁povez	-2326
▁tedaj	-2327
▁obravna	-2328
glo	-2329
▁we	-2330
mena	-2331
niti	-2332
▁dvi	-2333
▁potr	-2334
▁učen	-2335
tju	-2336
razu	-2337
▁šta	-2338
kre	-2339
hoda	-2340
feren	-2341
▁sodi	-2342
stične	-2343
sna	-2344
lili	-2345
▁nada	-2346
kaj	-2347
lnega	-2348
▁slad	-2349
mla	-2350
čnik	-2351
▁sprva	-2352
▁desetlet	-2353
mbi	-2354
▁prepre	-2355
▁priljub	-2356
ženi	-2357
▁obve	-2358
cih	-2359
mna	-2360
minja	-2361
▁območja	-2362
▁nikoli	-2363
-2	-2364
▁blizu	-2365
▁perzi	-2366
▁zlo	-2367
▁njim	-2368
tavlja	-2369
▁prišlo	-2370
čevanje	-2371
▁pad	-2372
▁zno	-2373
▁klju	-2374
▁moder	-2375
▁navadi	-2376
▁ozemlje	-2377
žna	-2378
▁star	-2379
▁prejel	-2380
▁voda	-2381
▁zali	-2382
▁pripo	-2383
▁govori	-2384
▁drugimi	-2385
nek	-2386
čitev	-2387
▁sovra	-2388
▁primeru	-2389
dniki	-2390
slovan	-2391
▁vlade	-2392
▁razliku	-2393
▁von	-2394
▁toda	-2395
▁ladje	-2396
▁človek	-2397
▁šola	-2398
▁pride	-2399
grafija	-2400
han	-2401
lago	-2402
▁100	-2403
▁atom	-2404
▁stol	-2405
▁potov	-2406
▁sprem	-2407
bre	-2408
zno	-2409
▁lede	-2410
▁odli	-2411
▁glasbo	-2412
jevo	-2413
▁obje	-2414
▁dejan	-2415
▁treba	-2416
▁deluje	-2417
▁,	-2418
▁sch	-2419
ii	-2420
čju	-2421
▁asi	-2422
▁pada	-2423
▁sposo	-2424
▁arhe	-2425
▁genera	-2426
▁njihovo	-2427
npr	-2428
čega	-2429
▁izda	-2430
▁smeri	-2431
▁ameriški	-2432
▁zbir	-2433
▁pogod	-2434
▁pridru	-2435
▁pomemben	-2436
▁izu	-2437
▁plovil	-2438
▁spreminja	-2439
▁.	-2440
stev	-2441
▁iii	-2442
tsko	-2443
stveno	-2444
▁vojsko	-2445
▁neu	-2446
▁pomo	-2447
▁vpliv	-2448
sh	-2449
ana	-2450
pali	-2451
▁skle	-2452
▁sedež	-2453
mani	-2454
▁špa	-2455
▁mladi	-2456
▁odvis	-2457
▁willia	-2458
▁umetnosti	-2459
▁številnih	-2460
cijski	-2461
▁sesta	-2462
▁eti	-2463
▁moral	-2464
▁znano	-2465
▁namesto	-2466
▁znotraj	-2467
ir	-2468
▁fre	-2469
▁koncentra	-2470
os	-2471
bori	-2472
vnem	-2473
▁plane	-2474
▁sveti	-2475
▁komplek	-2476
▁el	-2477
▁rol	-2478
▁morja	-2479
▁izbolj	-2480
▁značilnosti	-2481
▁madžar	-2482
▁amerike	-2483
▁cesarstvo	-2484
šek	-2485
▁nizo	-2486
▁obeh	-2487
▁oble	-2488
slu	-2489
čal	-2490
▁1,	-2491
▁domne	-2492
▁sedem	-2493
▁ozemlja	-2494
nami	-2495
▁prepro	-2496
▁zahodni	-2497
tus	-2498
▁provi	-2499
▁smi	-2500
▁bliži	-2501
▁pomor	-2502
3)	-2503
čje	-2504
▁zdaj	-2505
▁vpraš	-2506
▁popu	-2507
▁vidi	-2508
▁nagrado	-2509
ban	-2510
bilo	-2511
menti	-2512
▁vide	-2513
teljev	-2514
▁položaj	-2515
▁raziskoval	-2516
fici	-2517
▁bliž	-2518
▁prvih	-2519
▁združenih	-2520
▁mne	-2521
▁začne	-2522
▁metrov	-2523
▁zmanjša	-2524
60	-2525
fra	-2526
nin	-2527
▁nena	-2528
▁hidro	-2529
▁njen	-2530
▁morda	-2531
▁bolezni	-2532
▁poveljnik	-2533
▁zgodovini	-2534
rd	-2535
tino	-2536
tion	-2537
tske	-2538
▁podpi	-2539
gne	-2540
▁stek	-2541
žnost	-2542
▁judov	-2543
▁državni	-2544
▁primerja	-2545
skemu	-2546
▁zahodu	-2547
▁24	-2548
▁obliko	-2549
▁sme	-2550
logiji	-2551
▁eksplo	-2552
▁svojim	-2553
▁telesa	-2554
▁&	-2555
pek	-2556
čeni	-2557
▁men	-2558
▁pušča	-2559
liza	-2560
▁katoli	-2561
▁eu	-2562
vilo	-2563
prava	-2564
▁osem	-2565
▁bitka	-2566
▁razen	-2567
▁trgovi	-2568
▁posledica	-2569
danje	-2570
▁isla	-2571
▁telo	-2572
▁stri	-2573
▁časov	-2574
čem	-2575
pravo	-2576
▁oklep	-2577
▁njihov	-2578
novo	-2579
▁sila	-2580
▁konca	-2581
▁zveza	-2582
▁vrednosti	-2583
dij	-2584
▁mm	-2585
▁libe	-2586
▁traja	-2587
▁centra	-2588
▁kompo	-2589
▁relati	-2590
▁združi	-2591
rak	-2592
▁olim	-2593
alni	-2594
▁tehno	-2595
žel	-2596
dek	-2597
desetih	-2598
▁pristani	-2599
rah	-2600
dija	-2601
▁koro	-2602
99	-2603
▁40	-2604
ljem	-2605
▁185	-2606
njeno	-2607
▁fron	-2608
▁nosil	-2609
▁zazna	-2610
▁cel	-2611
▁sezo	-2612
▁uradno	-2613
▁nizozem	-2614
▁/	-2615
▁oči	-2616
▁izrazi	-2617
▁slovenskih	-2618
gri	-2619
▁delav	-2620
▁ugotovi	-2621
jšo	-2622
▁naš	-2623
▁razu	-2624
▁spod	-2625
▁rezer	-2626
2)	-2627
▁sporazu	-2628
▁same	-2629
▁sp	-2630
▁finan	-2631
▁ostal	-2632
▁premo	-2633
▁priti	-2634
vide	-2635
▁pokri	-2636
▁koncer	-2637
▁sestavi	-2638
juje	-2639
lagi	-2640
▁obsega	-2641
▁prikaz	-2642
▁okra	-2643
80	-2644
mno	-2645
▁tol	-2646
▁obču	-2647
▁obdobja	-2648
jeve	-2649
▁doku	-2650
▁isto	-2651
▁zamenja	-2652
dba	-2653
▁van	-2654
▁napo	-2655
▁izved	-2656
▁er	-2657
glas	-2658
tona	-2659
▁prišel	-2660
▁jezikov	-2661
▁it	-2662
▁neo	-2663
čanje	-2664
▁most	-2665
▁zade	-2666
ljenih	-2667
▁filozof	-2668
miš	-2669
reti	-2670
tina	-2671
stično	-2672
id	-2673
▁moči	-2674
▁zaklju	-2675
▁primeri	-2676
▁delovanje	-2677
▁skupnosti	-2678
kami	-2679
▁str	-2680
▁odvi	-2681
▁musli	-2682
▁nastala	-2683
vec	-2684
▁char	-2685
▁odno	-2686
▁izbru	-2687
▁parla	-2688
▁priča	-2689
▁prihaja	-2690
ll	-2691
▁osk	-2692
▁pomaga	-2693
▁tretji	-2694
rat	-2695
▁22	-2696
▁em	-2697
nici	-2698
▁sim	-2699
▁tho	-2700
▁zapr	-2701
▁vsaj	-2702
▁udele	-2703
▁vojaško	-2704
▁ponu	-2705
▁najdemo	-2706
5)	-2707
▁nape	-2708
▁obre	-2709
▁razdeli	-2710
▁uporaba	-2711
fu	-2712
cifi	-2713
▁jezika	-2714
alne	-2715
▁inte	-2716
žnosti	-2717
govarja	-2718
▁razdel	-2719
ssi	-2720
▁obali	-2721
▁organ	-2722
žo	-2723
▁cor	-2724
▁prepo	-2725
▁uprav	-2726
▁prevze	-2727
▁vene	-2728
▁janez	-2729
▁namen	-2730
▁ocean	-2731
▁navadno	-2732
cep	-2733
▁prepove	-2734
▁23	-2735
▁50	-2736
kali	-2737
▁forma	-2738
▁kakor	-2739
▁hitrost	-2740
▁ža	-2741
▁skri	-2742
▁norve	-2743
▁izvira	-2744
ley	-2745
▁0,	-2746
▁magne	-2747
▁česar	-2748
▁social	-2749
▁psi	-2750
▁meha	-2751
▁oblikov	-2752
▁posamezni	-2753
car	-2754
tosti	-2755
▁motor	-2756
▁otrok	-2757
▁znači	-2758
▁konstru	-2759
▁strokov	-2760
čeno	-2761
▁poe	-2762
▁dedi	-2763
▁mosk	-2764
▁otoku	-2765
▁šahov	-2766
▁imenovan	-2767
4)	-2768
bele	-2769
▁ope	-2770
▁krista	-2771
▁križar	-2772
▁prizade	-2773
▁pli	-2774
jenih	-2775
ček	-2776
▁sh	-2777
čujejo	-2778
▁odkril	-2779
▁sistemu	-2780
tru	-2781
škim	-2782
▁poča	-2783
▁preda	-2784
▁njegovem	-2785
▁abe	-2786
goste	-2787
▁voli	-2788
nostjo	-2789
▁znani	-2790
bano	-2791
▁zele	-2792
▁nazaj	-2793
▁doseže	-2794
▁prevzel	-2795
▁35	-2796
▁gala	-2797
▁vasi	-2798
▁george	-2799
▁tabori	-2800
▁vpliva	-2801
stil	-2802
▁spi	-2803
▁sami	-2804
▁preme	-2805
▁sredo	-2806
▁sociali	-2807
▁vojaške	-2808
▁brita	-2809
▁dovolj	-2810
▁religi	-2811
▁0	-2812
teti	-2813
▁...	-2814
▁njej	-2815
▁papež	-2816
vila	-2817
▁ostan	-2818
▁ostali	-2819
▁vzhodni	-2820
▁šol	-2821
▁preu	-2822
▁izbra	-2823
▁izjem	-2824
▁kopen	-2825
▁orožje	-2826
▁velikega	-2827
▁ljubljana	-2828
40	-2829
ih	-2830
gom	-2831
▁juli	-2832
▁mikro	-2833
▁dožive	-2834
▁začelo	-2835
▁podatkov	-2836
▁samostoj	-2837
▁obstajajo	-2838
ty	-2839
sch	-2840
▁apo	-2841
▁služi	-2842
▁ustanovil	-2843
nce	-2844
bila	-2845
▁reži	-2846
▁olimpi	-2847
mil	-2848
▁ben	-2849
dnikov	-2850
▁proizvaja	-2851
rn	-2852
duje	-2853
tler	-2854
▁pan	-2855
▁zaslu	-2856
▁kilome	-2857
kal	-2858
zmu	-2859
mina	-2860
▁slovenija	-2861
sci	-2862
šti	-2863
čijo	-2864
▁nevar	-2865
▁medici	-2866
čja	-2867
▁pti	-2868
▁življen	-2869
we	-2870
▁wi	-2871
▁pripove	-2872
vek	-2873
▁dar	-2874
▁poten	-2875
▁rastlin	-2876
▁učinkovi	-2877
cal	-2878
▁gibanja	-2879
▁zahodno	-2880
▁upravlja	-2881
ljenje	-2882
▁razlo	-2883
▁kvadra	-2884
21	-2885
zil	-2886
vami	-2887
▁han	-2888
▁2000	-2889
▁grob	-2890
▁odra	-2891
▁končal	-2892
▁pomembna	-2893
tika	-2894
čilo	-2895
▁klo	-2896
▁meša	-2897
▁italija	-2898
▁prestolni	-2899
shi	-2900
▁con	-2901
▁armen	-2902
▁božan	-2903
▁knjižni	-2904
sija	-2905
ranju	-2906
čeval	-2907
▁bitki	-2908
▁krati	-2909
▁državah	-2910
▁komunisti	-2911
▁emi	-2912
▁tok	-2913
stno	-2914
▁bor	-2915
▁nau	-2916
▁ton	-2917
▁meja	-2918
▁ljube	-2919
▁tehni	-2920
▁slovensko	-2921
mski	-2922
▁jan	-2923
▁kaj	-2924
▁njeno	-2925
▁velikosti	-2926
sse	-2927
▁top	-2928
▁neza	-2929
ovanju	-2930
stični	-2931
▁podeli	-2932
au	-2933
tvo	-2934
govz	-2935
▁kme	-2936
▁meje	-2937
▁naši	-2938
▁odst	-2939
▁sose	-2940
▁vele	-2941
▁glavna	-2942
▁skupino	-2943
▁podnebje	-2944
sal	-2945
▁is	-2946
koliko	-2947
▁pretek	-2948
▁revi	-2949
▁takoj	-2950
▁br	-2951
cijah	-2952
▁dobe	-2953
neh	-2954
▁ale	-2955
▁pas	-2956
▁dokler	-2957
▁največja	-2958
);	-2959
▁kop	-2960
▁albu	-2961
▁jože	-2962
▁sina	-2963
▁dostop	-2964
▁izobraže	-2965
▁kraljestvo	-2966
▁niti	-2967
▁ravno	-2968
▁povsem	-2969
▁posebno	-2970
▁odpo	-2971
▁zapisa	-2972
▁družine	-2973
▁zagotavlja	-2974
tij	-2975
▁mre	-2976
▁dokaz	-2977
▁tvori	-2978
▁nekoliko	-2979
▁najpogoste	-2980
rob	-2981
▁25.	-2982
▁seboj	-2983
▁vladi	-2984
▁21	-2985
gati	-2986
nico	-2987
▁jugovz	-2988
▁mnogih	-2989
▁bližini	-2990
▁katerim	-2991
at	-2992
ev	-2993
nt	-2994
▁sega	-2995
▁otoka	-2996
▁moleku	-2997
▁gibanje	-2998
tjem	-2999
vari	-3000
jenje	-3001
.«	-3002
70	-3003
joči	-3004
rnih	-3005
▁epi	-3006
▁183	-3007
▁stati	-3008
▁nemško	-3009
bija	-3010
▁spet	-3011
▁tisti	-3012
▁državo	-3013
▁francoski	-3014
zne	-3015
▁180	-3016
▁hor	-3017
▁2004	-3018
▁mongo	-3019
▁stari	-3020
▁preosta	-3021
▁ate	-3022
▁sub	-3023
▁umi	-3024
▁pale	-3025
▁denar	-3026
▁podlagi	-3027
▁william	-3028
▁slovenska	-3029
▁neposredno	-3030
lega	-3031
▁vie	-3032
▁vzdr	-3033
▁polje	-3034
▁bizantin	-3035
min	-3036
alno	-3037
diti	-3038
▁znak	-3039
cijsko	-3040
vanjem	-3041
▁znanosti	-3042
▁zgodovinar	-3043
▁portu	-3044
▁notranjo	-3045
rel	-3046
poli	-3047
▁vul	-3048
▁yor	-3049
glasni	-3050
čič	-3051
▁zdra	-3052
▁špor	-3053
▁strate	-3054
▁znameni	-3055
▁sredozem	-3056
dre	-3057
▁grad	-3058
cijske	-3059
▁globo	-3060
▁spodbu	-3061
▁egipčan	-3062
cami	-3063
▁nič	-3064
▁turi	-3065
▁veri	-3066
▁26	-3067
lnim	-3068
nejo	-3069
▁gri	-3070
ljive	-3071
▁proto	-3072
fer	-3073
riti	-3074
▁meji	-3075
▁načel	-3076
▁hitler	-3077
▁večkrat	-3078
bro	-3079
mreč	-3080
▁moj	-3081
stili	-3082
▁slikar	-3083
manjk	-3084
▁jezu	-3085
▁mine	-3086
logijo	-3087
▁osvobo	-3088
▁profesor	-3089
ham	-3090
pus	-3091
▁podo	-3092
▁nepre	-3093
▁prejš	-3094
▁žival	-3095
▁namreč	-3096
25	-3097
jna	-3098
deset	-3099
▁osman	-3100
▁sposob	-3101
▁stalin	-3102
rist	-3103
▁šole	-3104
▁barve	-3105
▁njihove	-3106
▁filozofi	-3107
▁nasprotni	-3108
tis	-3109
žji	-3110
▁21.	-3111
▁nače	-3112
▁poso	-3113
▁srednji	-3114
▁vojakov	-3115
▁sodeloval	-3116
_1	-3117
cho	-3118
▁nabo	-3119
▁sara	-3120
▁soro	-3121
▁novih	-3122
▁pokli	-3123
bah	-3124
jemo	-3125
▁isk	-3126
▁umak	-3127
zacije	-3128
▁priklju	-3129
tovo	-3130
▁spek	-3131
▁italiji	-3132
▁razširje	-3133
▁ato	-3134
▁abece	-3135
▁vojaških	-3136
▁kraljestva	-3137
.)	-3138
ud	-3139
▁uči	-3140
njene	-3141
▁predme	-3142
▁prvega	-3143
▁rimsko	-3144
8)	-3145
vid	-3146
vov	-3147
čenje	-3148
▁nasi	-3149
▁edini	-3150
▁poško	-3151
▁dosegel	-3152
▁geograf	-3153
▁spremlja	-3154
▁prebivalci	-3155
▁dio	-3156
▁izvr	-3157
▁povzroča	-3158
▁itd	-3159
▁mir	-3160
▁meta	-3161
▁niko	-3162
▁rodil	-3163
▁dobila	-3164
▁ohranje	-3165
▁označuje	-3166
as	-3167
▁manjše	-3168
▁portugal	-3169
nk	-3170
maj	-3171
▁flo	-3172
▁prome	-3173
▁letala	-3174
▁element	-3175
▁blo	-3176
▁uli	-3177
▁šir	-3178
▁objavil	-3179
pom	-3180
▁temveč	-3181
90	-3182
narhi	-3183
stitu	-3184
▁zvezd	-3185
nic	-3186
res	-3187
vaj	-3188
▁eni	-3189
▁reka	-3190
▁trdi	-3191
▁drugega	-3192
▁njihova	-3193
nati	-3194
▁instru	-3195
."	-3196
▁1991	-3197
▁grški	-3198
▁odgovor	-3199
▁postalo	-3200
nor	-3201
▁bogi	-3202
▁avstro	-3203
▁zvezde	-3204
▁ženske	-3205
▁štu	-3206
čnost	-3207
▁letalo	-3208
▁katerimi	-3209
bs	-3210
šnih	-3211
dnost	-3212
▁naslednji	-3213
6)	-3214
ent	-3215
tost	-3216
ganja	-3217
▁robert	-3218
▁prebivalstvo	-3219
im	-3220
rde	-3221
▁skr	-3222
▁neko	-3223
▁pomanjk	-3224
▁varnost	-3225
▁27	-3226
mann	-3227
▁dir	-3228
▁vojvo	-3229
▁kralji	-3230
jne	-3231
črt	-3232
▁45	-3233
▁luk	-3234
▁osa	-3235
▁svin	-3236
▁popla	-3237
▁stoji	-3238
▁vrsti	-3239
▁vrsto	-3240
▁razume	-3241
▁skupin	-3242
▁njihovi	-3243
▁politično	-3244
▁naf	-3245
▁astronomi	-3246
mir	-3247
teli	-3248
▁sonca	-3249
▁ap	-3250
valo	-3251
▁lad	-3252
lišče	-3253
▁fizika	-3254
ogr	-3255
voji	-3256
zori	-3257
▁smo	-3258
▁wal	-3259
▁karie	-3260
▁prisi	-3261
▁razvil	-3262
▁rimskega	-3263
▁sovjetske	-3264
7)	-3265
pal	-3266
stvi	-3267
▁srb	-3268
nejši	-3269
▁njena	-3270
▁podzem	-3271
▁naslednjih	-3272
▁cve	-3273
▁ger	-3274
▁uved	-3275
▁libano	-3276
▁kilometrov	-3277
kel	-3278
zov	-3279
čer	-3280
denti	-3281
sarja	-3282
▁vrhov	-3283
▁napove	-3284
▁pokaza	-3285
▁jugoslovan	-3286
gro	-3287
▁36	-3288
sijo	-3289
▁(17	-3290
▁gore	-3291
▁obsto	-3292
▁ruski	-3293
čini	-3294
čino	-3295
▁uje	-3296
merno	-3297
▁kisi	-3298
▁morju	-3299
▁življenjepis	-3300
ad	-3301
es	-3302
rio	-3303
▁zmo	-3304
kcije	-3305
serva	-3306
▁okvi	-3307
ero	-3308
▁zbo	-3309
▁skra	-3310
▁zalo	-3311
čnosti	-3312
▁zaseb	-3313
▁evropske	-3314
▁trenutno	-3315
▁skladatelj	-3316
rda	-3317
▁zau	-3318
▁bojev	-3319
▁60	-3320
▁vol	-3321
stopil	-3322
▁odsto	-3323
▁nanaša	-3324
▁imenoval	-3325
zd	-3326
▁181	-3327
▁reki	-3328
▁smer	-3329
▁uredi	-3330
▁afriki	-3331
▁častnik	-3332
▁organizira	-3333
▁načrt	-3334
▁vsaka	-3335
▁zaple	-3336
▁pravil	-3337
▁zgodovino	-3338
▁ene	-3339
▁močne	-3340
▁knjiže	-3341
▁vojaška	-3342
▁zadnjih	-3343
22	-3344
▁zanimi	-3345
▁imenujejo	-3346
▁predstavljajo	-3347
▁:	-3348
zom	-3349
▁fu	-3350
▁vso	-3351
▁večja	-3352
▁svetlobe	-3353
1)	-3354
šali	-3355
▁kal	-3356
lnimi	-3357
▁poto	-3358
tarkti	-3359
▁izvor	-3360
▁zlato	-3361
▁nemčiji	-3362
▁opravi	-3363
▁temperature	-3364
tes	-3365
----	-3366
ljiva	-3367
ljivi	-3368
▁vključuje	-3369
rop	-3370
vka	-3371
loma	-3372
▁nju	-3373
ovalo	-3374
▁sedaj	-3375
▁bataljon	-3376
tz	-3377
leč	-3378
▁33	-3379
▁jose	-3380
▁napisa	-3381
▁poroči	-3382
▁uspelo	-3383
▁uporabe	-3384
9)	-3385
ema	-3386
jali	-3387
losti	-3388
▁teče	-3389
deri	-3390
▁moha	-3391
▁postopek	-3392
▁ustanovljena	-3393
▁28	-3394
▁bomb	-3395
▁igre	-3396
▁dvema	-3397
▁slova	-3398
▁novega	-3399
▁poslan	-3400
▁slovan	-3401
▁družina	-3402
▁politične	-3403
timi	-3404
jšega	-3405
lišča	-3406
▁mono	-3407
▁napre	-3408
▁naziv	-3409
▁posne	-3410
▁simfo	-3411
▁stanje	-3412
▁informa	-3413
▁prevaja	-3414
dža	-3415
dnem	-3416
▁alu	-3417
▁klu	-3418
▁opi	-3419
▁pilo	-3420
▁ladja	-3421
▁brigada	-3422
▁transpo	-3423
plu	-3424
▁ori	-3425
▁oblik	-3426
▁civili	-3427
▁koloni	-3428
▁povezave	-3429
rok	-3430
drža	-3431
danji	-3432
stičnih	-3433
▁zunanje	-3434
bin	-3435
jstvo	-3436
nesan	-3437
▁škof	-3438
stavil	-3439
▁atlan	-3440
▁narodov	-3441
▁predsednika	-3442
▁sem	-3443
▁radio	-3444
▁nadalj	-3445
▁vodstvom	-3446
▁organizacija	-3447
▁hele	-3448
▁milijona	-3449
-3	-3450
▁hero	-3451
▁vrhu	-3452
▁usmer	-3453
▁celoti	-3454
▁raztopi	-3455
▁postavlje	-3456
ft	-3457
rju	-3458
žal	-3459
▁kap	-3460
▁levi	-3461
▁soli	-3462
▁znanih	-3463
lila	-3464
alnih	-3465
stero	-3466
stična	-3467
▁organizacije	-3468
šla	-3469
▁kak	-3470
▁grafi	-3471
▁milija	-3472
▁svetega	-3473
▁kraljevi	-3474
▁področja	-3475
lem	-3476
▁on	-3477
▁enaka	-3478
▁mlado	-3479
▁umetnost	-3480
▁slovenskega	-3481
ell	-3482
alna	-3483
bine	-3484
roza	-3485
tami	-3486
▁roko	-3487
▁viri	-3488
00.000	-3489
zacija	-3490
▁njene	-3491
▁pravice	-3492
▁priprav	-3493
sin	-3494
▁30.	-3495
▁kne	-3496
▁točka	-3497
▁uspešno	-3498
▁imenovali	-3499
dovo	-3500
tska	-3501
▁švi	-3502
▁kara	-3503
▁anali	-3504
▁delih	-3505
▁preden	-3506
▁vsebujejo	-3507
▁krist	-3508
▁ostala	-3509
▁rimlja	-3510
▁študij	-3511
▁special	-3512
▁slovenskem	-3513
▁ov	-3514
vita	-3515
▁meh	-3516
▁cilj	-3517
▁opti	-3518
▁zatem	-3519
▁prakti	-3520
▁rimski	-3521
▁poveljstvo	-3522
kim	-3523
lip	-3524
sso	-3525
▁2,	-3526
▁38	-3527
slav	-3528
ture	-3529
danes	-3530
▁fara	-3531
▁orožja	-3532
▁samostan	-3533
čun	-3534
▁32	-3535
▁johan	-3536
▁prise	-3537
▁naredi	-3538
snih	-3539
▁odse	-3540
▁vektor	-3541
▁zemelj	-3542
▁lou	-3543
janju	-3544
tskih	-3545
vedel	-3546
▁moti	-3547
dnosti	-3548
▁henri	-3549
▁čimer	-3550
▁simbol	-3551
mas	-3552
rid	-3553
▁iv	-3554
▁jean	-3555
▁vezi	-3556
▁super	-3557
▁težko	-3558
tur	-3559
tine	-3560
▁23.	-3561
▁hri	-3562
miral	-3563
▁zbra	-3564
▁refor	-3565
▁zakono	-3566
▁galaksi	-3567
▁razliko	-3568
jala	-3569
▁ang	-3570
▁pobe	-3571
▁štirih	-3572
▁zahteva	-3573
bije	-3574
gori	-3575
▁žve	-3576
gleda	-3577
▁figu	-3578
▁rake	-3579
▁prene	-3580
▁vietna	-3581
▁izredno	-3582
▁dejavnosti	-3583
dbo	-3584
joče	-3585
▁kli	-3586
▁ute	-3587
▁obso	-3588
▁šolo	-3589
ljivost	-3590
▁klavir	-3591
▁srednjem	-3592
▁sul	-3593
▁tip	-3594
▁belo	-3595
▁pobo	-3596
▁posk	-3597
▁notra	-3598
▁priče	-3599
▁cerkvi	-3600
▁kulture	-3601
▁spojine	-3602
▁mednarodni	-3603
▁žr	-3604
sije	-3605
tnem	-3606
čene	-3607
▁ari	-3608
angle	-3609
▁temelj	-3610
";	-3611
▁diri	-3612
▁zbor	-3613
▁šoli	-3614
▁njega	-3615
▁večjih	-3616
magal	-3617
▁upor	-3618
cijska	-3619
▁model	-3620
▁zavze	-3621
▁inženi	-3622
▁renesan	-3623
jah	-3624
▁misli	-3625
▁januar	-3626
▁obrambo	-3627
▁njo	-3628
▁pru	-3629
▁preh	-3630
▁udar	-3631
▁vzor	-3632
▁trans	-3633
▁stranke	-3634
▁srednjeve	-3635
▁sestavljajo	-3636
ena	-3637
solu	-3638
▁plu	-3639
ženje	-3640
▁luni	-3641
▁navaja	-3642
▁podporo	-3643
▁kle	-3644
redni	-3645
▁34	-3646
ktov	-3647
▁anto	-3648
▁gora	-3649
▁bolni	-3650
▁človeka	-3651
ović	-3652
port	-3653
▁bak	-3654
▁bol	-3655
▁duši	-3656
▁reše	-3657
zacijo	-3658
▁hrani	-3659
▁pesem	-3660
▁razreda	-3661
▁politični	-3662
mal	-3663
▁franc	-3664
▁temperatura	-3665
ala	-3666
hom	-3667
elek	-3668
stne	-3669
zgod	-3670
▁sir	-3671
▁naci	-3672
▁izklju	-3673
▁razred	-3674
▁zračno	-3675
▁spomeni	-3676
▁televizi	-3677
▁obiskoval	-3678
95	-3679
emu	-3680
ide	-3681
tka	-3682
▁rod	-3683
▁kopi	-3684
▁miha	-3685
▁šved	-3686
▁kadar	-3687
▁izstre	-3688
▁nastan	-3689
▁antarkti	-3690
fon	-3691
▁poj	-3692
▁okre	-3693
▁jezero	-3694
▁jeziku	-3695
▁angleški	-3696
rji	-3697
▁27.	-3698
▁odi	-3699
▁etni	-3700
▁delno	-3701
▁frank	-3702
▁kažejo	-3703
▁knjiga	-3704
▁glavnem	-3705
▁gospodarstvo	-3706
▁nesre	-3707
▁slabo	-3708
▁zvezo	-3709
▁jezera	-3710
▁vesolj	-3711
▁naravno	-3712
▁severne	-3713
▁material	-3714
▁univerze	-3715
fran	-3716
▁navz	-3717
▁razvoja	-3718
▁področje	-3719
▁zagotovi	-3720
ok	-3721
▁bodi	-3722
▁spopa	-3723
▁neodvi	-3724
▁skupno	-3725
▁charles	-3726
▁nemčija	-3727
▁francija	-3728
tha	-3729
▁rich	-3730
▁zami	-3731
▁evropo	-3732
▁morali	-3733
▁pripada	-3734
▁divizije	-3735
▁spremembe	-3736
db	-3737
non	-3738
▁37	-3739
▁80	-3740
▁nih	-3741
morni	-3742
▁boji	-3743
▁odda	-3744
▁dalje	-3745
▁kraji	-3746
▁občin	-3747
▁komuni	-3748
▁prvotno	-3749
▁imenujemo	-3750
lije	-3751
žili	-3752
▁sne	-3753
ščena	-3754
▁cesarja	-3755
▁narodni	-3756
▁načrtov	-3757
▁količine	-3758
ani	-3759
štev	-3760
žuje	-3761
▁win	-3762
▁jako	-3763
▁stopi	-3764
▁omenja	-3765
▁zvezda	-3766
▁opisuje	-3767
▁pripelja	-3768
▁elementov	-3769
burg	-3770
štvu	-3771
cijskih	-3772
▁nemške	-3773
▁poloto	-3774
▁staroda	-3775
vana	-3776
▁james	-3777
▁listi	-3778
▁trije	-3779
▁določa	-3780
▁geometri	-3781
▁oboroženih	-3782
don	-3783
▁cm	-3784
soma	-3785
tkov	-3786
▁len	-3787
▁žar	-3788
▁obto	-3789
▁fakul	-3790
▁izrael	-3791
▁krajev	-3792
▁osnovi	-3793
▁popula	-3794
▁teorije	-3795
kcija	-3796
prevo	-3797
▁dreve	-3798
▁odšel	-3799
▁razpa	-3800
▁prehod	-3801
▁proces	-3802
24	-3803
▁snov	-3804
▁hitre	-3805
▁zunaj	-3806
▁babilo	-3807
▁franciji	-3808
tum	-3809
teza	-3810
▁enci	-3811
ovalec	-3812
▁živel	-3813
▁avtomo	-3814
▁31	-3815
enzi	-3816
▁jad	-3817
▁lan	-3818
ngton	-3819
▁odre	-3820
stičnega	-3821
▁celotno	-3822
šta	-3823
▁29	-3824
gaja	-3825
▁cha	-3826
▁plin	-3827
▁prven	-3828
▁odloči	-3829
▁uporabljal	-3830
dži	-3831
dije	-3832
▁28.	-3833
▁can	-3834
▁seku	-3835
▁pospe	-3836
▁postane	-3837
▁teorija	-3838
▁različica	-3839
ovz	-3840
stna	-3841
▁2007	-3842
▁avgust	-3843
ssa	-3844
štitu	-3845
▁ogla	-3846
▁otoki	-3847
▁znane	-3848
▁ogljik	-3849
▁musliman	-3850
bal	-3851
mni	-3852
▁43	-3853
▁af	-3854
▁trg	-3855
daljo	-3856
▁našim	-3857
▁zraka	-3858
▁ostale	-3859
▁kombina	-3860
▁oddalje	-3861
▁1945	-3862
▁koor	-3863
▁pona	-3864
▁nadzo	-3865
▁odločil	-3866
▁potrebno	-3867
▁31.	-3868
▁razvr	-3869
▁ministr	-3870
▁postali	-3871
▁besedila	-3872
▁energijo	-3873
▁delovanja	-3874
dice	-3875
tete	-3876
žena	-3877
▁koz	-3878
▁rom	-3879
▁vas	-3880
▁bene	-3881
▁legi	-3882
▁tero	-3883
▁površ	-3884
▁jugoza	-3885
▁mehani	-3886
▁upošte	-3887
▁večini	-3888
▁osrednje	-3889
▁partizan	-3890
▁severoza	-3891
▁ul	-3892
▁fri	-3893
▁dolg	-3894
▁angli	-3895
▁postavi	-3896
▁eki	-3897
▁ira	-3898
▁južne	-3899
▁vodja	-3900
▁oksida	-3901
▁skupini	-3902
▁študiral	-3903
▁nadaljeval	-3904
lle	-3905
▁ovi	-3906
▁našli	-3907
▁poraz	-3908
▁kongre	-3909
▁problem	-3910
▁primerih	-3911
ang	-3912
nis	-3913
▁24.	-3914
pušča	-3915
▁grči	-3916
▁mehi	-3917
▁astero	-3918
▁skladu	-3919
▁zemljo	-3920
▁študen	-3921
▁februar	-3922
▁srednjega	-3923
kin	-3924
▁zr	-3925
škimi	-3926
▁doba	-3927
▁mestih	-3928
▁inštitu	-3929
▁odkrili	-3930
▁svojimi	-3931
teh	-3932
lnik	-3933
čimo	-3934
šala	-3935
žila	-3936
ziral	-3937
▁2005	-3938
tskega	-3939
▁islam	-3940
▁pojav	-3941
▁knjige	-3942
▁dejansko	-3943
▁funkcije	-3944
▁46	-3945
dala	-3946
▁vio	-3947
▁tipi	-3948
▁vrni	-3949
▁festi	-3950
▁okviru	-3951
▁prekri	-3952
▁štetjem	-3953
▁postavil	-3954
▁potni	-3955
▁center	-3956
▁prines	-3957
▁naselje	-3958
stila	-3959
▁ekva	-3960
▁faši	-3961
▁pisal	-3962
▁prvem	-3963
▁psiho	-3964
▁valov	-3965
▁člani	-3966
▁tankov	-3967
▁zavrni	-3968
▁nastanek	-3969
▁njihovih	-3970
▁najboljši	-3971
▁vzpostavi	-3972
▁sar	-3973
▁dolgi	-3974
▁morajo	-3975
▁ukraji	-3976
▁simboli	-3977
▁specifi	-3978
▁hitrosti	-3979
▁površine	-3980
▁severovz	-3981
▁ib	-3982
▁22.	-3983
▁div	-3984
▁sur	-3985
najst	-3986
▁redu	-3987
sloven	-3988
▁dežel	-3989
▁zmanjš	-3990
▁razglasi	-3991
bov	-3992
ljev	-3993
▁des	-3994
▁2006	-3995
▁nemci	-3996
▁preimen	-3997
▁površino	-3998
▁aleksander	-3999
98	-4000
nc	-4001
šan	-4002
nine	-4003
▁26.	-4004
▁zev	-4005
▁make	-4006
▁neus	-4007
▁teča	-4008
▁uspo	-4009
▁izdal	-4010
▁muzej	-4011
▁opisa	-4012
▁stvar	-4013
▁parizu	-4014
▁začetka	-4015
koho	-4016
▁mav	-4017
▁ves	-4018
nskim	-4019
▁enostav	-4020
▁demokrati	-4021
▁življenju	-4022
▁uži	-4023
▁zme	-4024
danja	-4025
nikom	-4026
▁zaje	-4027
▁zvezi	-4028
▁podoben	-4029
▁povezana	-4030
▁razlikuje	-4031
ny	-4032
▁hin	-4033
evrop	-4034
▁aten	-4035
jevega	-4036
▁anton	-4037
▁splet	-4038
▁trdnja	-4039
lie	-4040
mana	-4041
▁naravo	-4042
▁plasti	-4043
▁tretje	-4044
▁živijo	-4045
▁poznamo	-4046
▁strukture	-4047
96	-4048
lci	-4049
▁dese	-4050
▁papi	-4051
▁pola	-4052
▁vero	-4053
▁zagre	-4054
▁vzdrže	-4055
▁količina	-4056
▁prepozna	-4057
▁prijatelj	-4058
nia	-4059
▁osi	-4060
▁izku	-4061
▁kraj	-4062
▁ocen	-4063
▁julij	-4064
▁omeji	-4065
▁teorijo	-4066
▁prostora	-4067
▁44	-4068
bran	-4069
elje	-4070
nger	-4071
rski	-4072
▁lud	-4073
▁enem	-4074
▁obzi	-4075
rekven	-4076
▁legen	-4077
▁razno	-4078
▁regiji	-4079
▁funkcija	-4080
▁svetovna	-4081
▁potencial	-4082
▁sestavljena	-4083
ps	-4084
bijo	-4085
▁večjo	-4086
▁poziti	-4087
angleško	-4088
▁uporabil	-4089
▁raziskave	-4090
stein	-4091
▁gimna	-4092
▁sploh	-4093
▁vojski	-4094
▁odstrani	-4095
▁razmerje	-4096
▁29.	-4097
▁sama	-4098
▁besedi	-4099
▁bodisi	-4100
▁mlajši	-4101
▁pretvo	-4102
▁gradnjo	-4103
▁možnost	-4104
▁prilago	-4105
▁2003	-4106
▁mali	-4107
▁zapustil	-4108
▁47	-4109
▁ser	-4110
▁isti	-4111
▁termo	-4112
▁razvoju	-4113
spi	-4114
▁70	-4115
sten	-4116
žnih	-4117
tnost	-4118
mentov	-4119
njenih	-4120
zirana	-4121
▁hotel	-4122
▁imelo	-4123
▁zasta	-4124
▁težave	-4125
▁izjemno	-4126
▁zapisal	-4127
▁orkester	-4128
▁predstavi	-4129
▁slovenijo	-4130
▁primerjavi	-4131
▁živ	-4132
▁dolini	-4133
▁identi	-4134
▁končno	-4135
▁deloval	-4136
▁razvila	-4137
▁evropski	-4138
▁sovražni	-4139
▁tisočlet	-4140
▁qu	-4141
tnim	-4142
▁podobne	-4143
35	-4144
baj	-4145
rska	-4146
▁178	-4147
▁gov	-4148
▁hčer	-4149
▁logi	-4150
▁kandi	-4151
▁mnoge	-4152
▁plemi	-4153
▁tovar	-4154
▁kraljev	-4155
▁ohranja	-4156
▁italijanski	-4157
12	-4158
vel	-4159
stom	-4160
▁črni	-4161
▁obramb	-4162
▁smislu	-4163
▁mitologiji	-4164
hel	-4165
iti	-4166
▁park	-4167
▁tuji	-4168
▁edina	-4169
▁okupa	-4170
▁dežele	-4171
▁izračuna	-4172
94	-4173
lagal	-4174
▁dosež	-4175
▁narave	-4176
▁obnovi	-4177
▁seveda	-4178
▁uradni	-4179
▁odpravi	-4180
▁povezuje	-4181
15	-4182
it	-4183
lej	-4184
berg	-4185
rina	-4186
šnem	-4187
▁ada	-4188
▁2010	-4189
▁vsej	-4190
▁zlata	-4191
▁elementi	-4192
leta	-4193
▁1941	-4194
▁izja	-4195
▁paul	-4196
▁delom	-4197
▁osebno	-4198
▁uvršča	-4199
▁italije	-4200
▁odvisna	-4201
▁turisti	-4202
▁natančno	-4203
con	-4204
nus	-4205
ovec	-4206
šega	-4207
▁enak	-4208
▁izlo	-4209
▁kompozi	-4210
▁monarhi	-4211
▁proizvodnjo	-4212
-4	-4213
zij	-4214
kimi	-4215
▁oži	-4216
▁1990	-4217
▁daleč	-4218
ljivosti	-4219
▁koordina	-4220
▁fla	-4221
▁1000	-4222
▁domo	-4223
▁indo	-4224
▁tipa	-4225
▁energija	-4226
▁možnosti	-4227
šič	-4228
tura	-4229
▁182	-4230
ovana	-4231
▁dvig	-4232
▁reda	-4233
ljenja	-4234
tnosti	-4235
▁aziji	-4236
▁devet	-4237
▁nepri	-4238
▁izkori	-4239
▁knjigi	-4240
▁pirami	-4241
▁glavnih	-4242
▁posameznih	-4243
liji	-4244
lski	-4245
znan	-4246
ameri	-4247
torja	-4248
▁york	-4249
▁desni	-4250
▁plina	-4251
▁najvišji	-4252
▁britanski	-4253
97	-4254
hin	-4255
žju	-4256
biti	-4257
glav	-4258
▁cla	-4259
▁bele	-4260
▁gosti	-4261
▁točke	-4262
▁nastal	-4263
▁status	-4264
▁observa	-4265
▁začetek	-4266
▁sestavljen	-4267
tole	-4268
ward	-4269
▁pija	-4270
▁cezar	-4271
▁posre	-4272
▁poslal	-4273
▁kisline	-4274
▁kratica	-4275
▁pravico	-4276
▁preteklosti	-4277
vem	-4278
wer	-4279
▁48	-4280
ščem	-4281
▁pen	-4282
▁šib	-4283
dobil	-4284
▁ogro	-4285
▁ekspe	-4286
▁javno	-4287
▁visoke	-4288
▁spodnje	-4289
▁vladavi	-4290
▁glasbeni	-4291
▁podatkih	-4292
▁polovici	-4293
▁jugoslavije	-4294
štru	-4295
▁nam	-4296
▁agen	-4297
▁kosi	-4298
▁lati	-4299
▁mila	-4300
▁mirov	-4301
▁preki	-4302
▁rastline	-4303
▁rezultat	-4304
▁zgradili	-4305
▁konstantino	-4306
▁preš	-4307
▁posad	-4308
▁redko	-4309
▁prišli	-4310
▁ozemlju	-4311
▁rešitev	-4312
slo	-4313
tak	-4314
izku	-4315
▁com	-4316
▁eli	-4317
▁bazi	-4318
▁mili	-4319
▁nami	-4320
▁belgi	-4321
▁alkoho	-4322
▁organiz	-4323
▁izboljša	-4324
▁pokopali	-4325
dia	-4326
jati	-4327
mber	-4328
ranih	-4329
▁veku	-4330
časoma	-4331
▁drago	-4332
▁obale	-4333
▁prete	-4334
▁celice	-4335
▁možgan	-4336
▁frekven	-4337
▁mesecev	-4338
▁opazoval	-4339
92	-4340
mel	-4341
tim	-4342
▁500	-4343
▁alp	-4344
▁egipt	-4345
▁nikola	-4346
▁današnje	-4347
dž	-4348
▁as	-4349
▁der	-4350
▁karl	-4351
▁kran	-4352
▁delal	-4353
▁gradbe	-4354
▁negati	-4355
▁primar	-4356
one	-4357
čki	-4358
▁90	-4359
grad	-4360
▁čle	-4361
▁line	-4362
▁nogo	-4363
▁najde	-4364
▁razširi	-4365
▁sčasoma	-4366
int	-4367
tile	-4368
▁reko	-4369
▁bogov	-4370
▁civil	-4371
▁arheolo	-4372
▁poročil	-4373
▁univerza	-4374
▁relativno	-4375
xi	-4376
gis	-4377
šil	-4378
▁mc	-4379
0000	-4380
nilo	-4381
ovič	-4382
▁mal	-4383
loško	-4384
ovale	-4385
▁2011	-4386
▁tekm	-4387
▁andre	-4388
▁oddel	-4389
▁signa	-4390
▁oznaka	-4391
▁vulkan	-4392
▁italijo	-4393
▁manjših	-4394
▁postaja	-4395
▁sladkor	-4396
▁dejavnost	-4397
▁dinastije	-4398
lis	-4399
▁hal	-4400
▁1942	-4401
▁josi	-4402
▁plano	-4403
▁višje	-4404
▁tvorijo	-4405
▁ustreza	-4406
▁podmorni	-4407
nat	-4408
seni	-4409
žijo	-4410
▁(200	-4411
▁ogrom	-4412
▁oseba	-4413
▁virov	-4414
▁dioksi	-4415
▁počasi	-4416
▁nasprotju	-4417
],	-4418
nejše	-4419
tnika	-4420
▁deve	-4421
▁lepo	-4422
▁mezo	-4423
zemelj	-4424
▁jasno	-4425
▁karel	-4426
▁natri	-4427
▁dobili	-4428
▁intere	-4429
▁izdaja	-4430
▁neuspe	-4431
▁obstoj	-4432
▁sprejel	-4433
▁prostoru	-4434
▁različnimi	-4435
din	-4436
vez	-4437
mino	-4438
pter	-4439
šnega	-4440
▁gale	-4441
▁kvali	-4442
▁sveto	-4443
▁codice	-4444
▁notranje	-4445
▁ustvaril	-4446
▁desetletja	-4447
▁svi	-4448
ljuje	-4449
▁minu	-4450
▁pozor	-4451
▁končala	-4452
▁predsedni	-4453
-6	-4454
14	-4455
vke	-4456
▁čo	-4457
mund	-4458
▁1943	-4459
▁ange	-4460
▁gozd	-4461
▁križ	-4462
▁miru	-4463
▁nebe	-4464
▁rimu	-4465
▁govor	-4466
▁obdela	-4467
▁podrob	-4468
▁stvari	-4469
▁ostalih	-4470
▁zahodne	-4471
16	-4472
fan	-4473
▁kg	-4474
valni	-4475
▁dioni	-4476
▁aristo	-4477
▁avstra	-4478
▁osnovni	-4479
▁konferen	-4480
▁zgodovine	-4481
poma	-4482
zame	-4483
ščih	-4484
▁kome	-4485
▁miši	-4486
▁napi	-4487
▁omre	-4488
▁delež	-4489
▁možno	-4490
▁domovi	-4491
▁inštru	-4492
▁odgovo	-4493
▁odlikov	-4494
▁predlagal	-4495
▁protestan	-4496
▁ustanovili	-4497
ela	-4498
kte	-4499
▁3,	-4500
dati	-4501
niku	-4502
▁toma	-4503
▁črno	-4504
▁patri	-4505
▁dvakrat	-4506
akti	-4507
jnih	-4508
▁eri	-4509
▁fos	-4510
▁mem	-4511
▁korpu	-4512
▁franci	-4513
▁jeziki	-4514
▁namene	-4515
▁prišla	-4516
▁oktober	-4517
-7	-4518
18	-4519
fli	-4520
doma	-4521
▁obr	-4522
▁tal	-4523
▁mala	-4524
▁unes	-4525
▁očeta	-4526
▁vojaki	-4527
▁zadnja	-4528
▁razvili	-4529
▁teoreti	-4530
▁objavlje	-4531
▁zgrajena	-4532
▁akademiji	-4533
eld	-4534
ght	-4535
teo	-4536
ting	-4537
▁jaj	-4538
▁uki	-4539
▁povi	-4540
ljivih	-4541
▁brona	-4542
▁dosto	-4543
▁glavne	-4544
▁številko	-4545
▁sovjetska	-4546
',	-4547
▁rib	-4548
loške	-4549
zdrav	-4550
▁vzdol	-4551
▁želel	-4552
▁absolu	-4553
▁glasba	-4554
▁konven	-4555
▁naravni	-4556
▁projekt	-4557
gene	-4558
▁hera	-4559
▁časo	-4560
▁makedo	-4561
▁naravi	-4562
▁bolezen	-4563
šu	-4564
dera	-4565
tenzi	-4566
▁beli	-4567
▁rodu	-4568
mentar	-4569
▁infra	-4570
▁osamos	-4571
▁dokončno	-4572
▁naslovom	-4573
▁obravnava	-4574
▁mednarodno	-4575
ye	-4576
pati	-4577
▁fan	-4578
▁lik	-4579
kanje	-4580
▁2002	-4581
▁boju	-4582
▁pore	-4583
▁poudar	-4584
▁vplivom	-4585
▁vzhodne	-4586
meno	-4587
svet	-4588
vnik	-4589
organi	-4590
▁belja	-4591
▁knjig	-4592
▁pariz	-4593
▁vsega	-4594
▁drugem	-4595
▁napred	-4596
▁kitajske	-4597
mek	-4598
skov	-4599
tela	-4600
hodom	-4601
▁juna	-4602
▁rdeče	-4603
▁sonce	-4604
▁regije	-4605
▁zgodovinsko	-4606
hr	-4607
bla	-4608
▁cu	-4609
ther	-4610
▁dih	-4611
▁piše	-4612
▁atmos	-4613
▁nadmor	-4614
▁članov	-4615
▁institu	-4616
▁osvojil	-4617
▁skupnost	-4618
▁april	-4619
▁prava	-4620
▁stalno	-4621
▁sodobni	-4622
▁december	-4623
cio	-4624
lus	-4625
žev	-4626
cher	-4627
skla	-4628
▁gen	-4629
▁habs	-4630
▁urba	-4631
▁enoto	-4632
▁hrane	-4633
▁prilo	-4634
▁prito	-4635
▁boljše	-4636
▁najman	-4637
▁stabil	-4638
▁ustavi	-4639
▁kislina	-4640
eno	-4641
čke	-4642
ford	-4643
liva	-4644
vale	-4645
čenja	-4646
▁dvaj	-4647
▁kakr	-4648
▁pano	-4649
▁jezer	-4650
likopter	-4651
▁dolžine	-4652
▁gravita	-4653
▁odvisno	-4654
▁različni	-4655
▁neodvisnost	-4656
cia	-4657
kajo	-4658
▁ama	-4659
▁zim	-4660
▁azer	-4661
▁takti	-4662
▁kakovo	-4663
▁rusija	-4664
▁višine	-4665
▁nekdanje	-4666
▁velikost	-4667
▁priznanja	-4668
▁električni	-4669
ine	-4670
top	-4671
čenih	-4672
▁izre	-4673
▁ladij	-4674
▁navdu	-4675
▁tiste	-4676
▁družba	-4677
▁južnem	-4678
▁služil	-4679
▁narodno	-4680
▁spadajo	-4681
▁zunanji	-4682
▁besedilo	-4683
▁glavnega	-4684
▁alo	-4685
▁sol	-4686
▁nedo	-4687
▁žena	-4688
▁živo	-4689
▁njeni	-4690
▁ekonom	-4691
▁mnenju	-4692
▁tistem	-4693
▁ženska	-4694
▁najmanj	-4695
▁nemških	-4696
▁koledarju	-4697
▁političnih	-4698
36	-4699
ina	-4700
bino	-4701
gali	-4702
znih	-4703
▁gal	-4704
▁lev	-4705
ročil	-4706
▁brat	-4707
▁sreb	-4708
▁matri	-4709
▁preno	-4710
▁ravna	-4711
▁vlado	-4712
ovanjem	-4713
▁izkaza	-4714
▁posebne	-4715
▁predlaga	-4716
88	-4717
zbo	-4718
mili	-4719
▁ken	-4720
▁1944	-4721
▁frie	-4722
▁skrb	-4723
▁grofi	-4724
▁imenu	-4725
▁pogle	-4726
▁komunika	-4727
▁pomembni	-4728
▁evropskih	-4729
av	-4730
▁ukre	-4731
▁marec	-4732
▁voljo	-4733
▁šport	-4734
▁majhne	-4735
▁poklic	-4736
▁inženir	-4737
▁nastopa	-4738
▁padavin	-4739
▁zadnjem	-4740
▁značilno	-4741
▁matematik	-4742
▁največjih	-4743
▁operacije	-4744
▁zemljepis	-4745
-5	-4746
17	-4747
amp	-4748
kate	-4749
▁hra	-4750
jskim	-4751
zarja	-4752
▁vgra	-4753
▁glavo	-4754
▁pobeg	-4755
▁zaliv	-4756
▁poleti	-4757
▁dosegla	-4758
▁prevladu	-4759
▁pridružil	-4760
.).	-4761
gon	-4762
▁gar	-4763
loški	-4764
mladi	-4765
stnik	-4766
▁nači	-4767
▁tema	-4768
▁odpor	-4769
▁oprem	-4770
▁rusko	-4771
število	-4772
▁avtoce	-4773
▁krater	-4774
▁rusiji	-4775
▁zajema	-4776
▁dirigen	-4777
▁starosti	-4778
**	-4779
wal	-4780
kemi	-4781
turi	-4782
▁sen	-4783
denje	-4784
ganje	-4785
žnega	-4786
▁abra	-4787
scipli	-4788
▁kratko	-4789
▁ostalo	-4790
▁poslov	-4791
▁thomas	-4792
▁ljubezen	-4793
▁pridobil	-4794
▁postopoma	-4795
kot	-4796
▁"(	-4797
▁oli	-4798
▁zrak	-4799
▁imperi	-4800
▁pomena	-4801
cijskega	-4802
▁azerbaj	-4803
▁potrebe	-4804
▁francije	-4805
▁francoske	-4806
▁helikopter	-4807
▁osamosvoji	-4808
▁strokovnja	-4809
45	-4810
ou	-4811
zmom	-4812
▁300	-4813
▁chi	-4814
▁sha	-4815
▁vrt	-4816
litev	-4817
▁mejo	-4818
▁podpr	-4819
▁turči	-4820
▁napole	-4821
▁medaljo	-4822
▁spremen	-4823
▁podjetje	-4824
tv	-4825
▁42	-4826
demi	-4827
▁debe	-4828
jujejo	-4829
▁manda	-4830
▁metro	-4831
▁nekoč	-4832
▁vsemi	-4833
▁dunaju	-4834
▁kristja	-4835
▁nemčije	-4836
▁razmere	-4837
▁sprejem	-4838
▁zgodnjih	-4839
▁vladavine	-4840
▁proizvodnja	-4841
nal	-4842
tho	-4843
kala	-4844
vere	-4845
žnik	-4846
▁kel	-4847
teran	-4848
▁2001	-4849
▁alge	-4850
▁hipo	-4851
▁jane	-4852
mišlja	-4853
▁henry	-4854
▁potom	-4855
▁afrike	-4856
▁manjša	-4857
▁okolje	-4858
▁plemen	-4859
▁bakteri	-4860
▁politiko	-4861
jst	-4862
diji	-4863
žene	-4864
▁tar	-4865
toval	-4866
▁trop	-4867
▁tekmov	-4868
▁stranka	-4869
▁zgodnje	-4870
▁najpomembnejši	-4871
ksa	-4872
doto	-4873
▁povo	-4874
▁veza	-4875
▁brani	-4876
▁izven	-4877
▁občut	-4878
▁labora	-4879
▁srebra	-4880
▁razlike	-4881
▁spoznal	-4882
▁izvoljen	-4883
▁september	-4884
mpe	-4885
rum	-4886
šem	-4887
▁beo	-4888
▁izse	-4889
▁masa	-4890
▁veka	-4891
▁poslu	-4892
▁prost	-4893
▁magnet	-4894
▁poskus	-4895
▁učenja	-4896
▁zemlja	-4897
▁sporoči	-4898
▁november	-4899
▁severnem	-4900
▁gospodarsko	-4901
▁revoluciona	-4902
elu	-4903
jcev	-4904
▁ere	-4905
polni	-4906
▁peda	-4907
▁izbruh	-4908
▁sprejet	-4909
▁območjih	-4910
▁razlikujejo	-4911
cy	-4912
chu	-4913
cin	-4914
hen	-4915
ida	-4916
čij	-4917
bita	-4918
▁150	-4919
doval	-4920
življa	-4921
▁dokaza	-4922
▁zahtev	-4923
▁drugače	-4924
▁izdelal	-4925
▁podatke	-4926
▁stopnje	-4927
▁določeno	-4928
▁kopenske	-4929
▁kraljeve	-4930
▁različna	-4931
▁posledično	-4932
tte	-4933
hodi	-4934
ruza	-4935
▁odv	-4936
▁ceste	-4937
▁grške	-4938
▁pogre	-4939
▁kultura	-4940
▁povezan	-4941
▁številu	-4942
▁določene	-4943
▁nekatera	-4944
)"	-4945
dajo	-4946
erre	-4947
▁ran	-4948
kcijo	-4949
tniki	-4950
▁zavo	-4951
▁balkan	-4952
▁ameriki	-4953
▁podatki	-4954
▁zaplete	-4955
▁rimljani	-4956
▁speciali	-4957
▁pojavljajo	-4958
▁tradicionalno	-4959
ed	-4960
her	-4961
niški	-4962
tično	-4963
▁sklo	-4964
▁zanj	-4965
▁metoda	-4966
▁vladal	-4967
▁sodobne	-4968
▁visokih	-4969
sek	-4970
ling	-4971
▁zan	-4972
ranjem	-4973
▁osebe	-4974
▁volit	-4975
▁ofenzi	-4976
▁londonu	-4977
▁regiona	-4978
▁zgodnji	-4979
▁imperija	-4980
▁opredeli	-4981
▁pomembnih	-4982
▁diplomiral	-4983
▁aku	-4984
▁mle	-4985
▁phi	-4986
torji	-4987
▁2008	-4988
▁iran	-4989
▁mase	-4990
▁vzgo	-4991
▁dobre	-4992
▁junij	-4993
▁moški	-4994
▁norma	-4995
▁soraz	-4996
▁zavar	-4997
grafije	-4998
▁doline	-4999
▁egipta	-5000
▁visoki	-5001
▁eksplozi	-5002
▁generala	-5003
▁podjetja	-5004
▁praviloma	-5005
▁pripadniki	-5006
3),	-5007
▁ac	-5008
deni	-5009
▁2009	-5010
▁pade	-5011
toriju	-5012
▁upoko	-5013
▁žrtev	-5014
▁opisal	-5015
▁narašča	-5016
▁oblikova	-5017
▁osrednji	-5018
▁razmeroma	-5019
win	-5020
chen	-5021
▁vez	-5022
▁čim	-5023
dalja	-5024
tnimi	-5025
▁zmag	-5026
gorija	-5027
▁jedro	-5028
▁leona	-5029
▁ptole	-5030
dovanje	-5031
▁egiptu	-5032
▁navide	-5033
▁pedago	-5034
▁predmet	-5035
▁njegovim	-5036
37	-5037
las	-5038
rjev	-5039
▁zaro	-5040
▁daljno	-5041
▁konfli	-5042
▁otokov	-5043
▁družini	-5044
▁severna	-5045
▁bistveno	-5046
▁nazadnje	-5047
▁preselil	-5048
64	-5049
tana	-5050
▁kir	-5051
stnih	-5052
▁pali	-5053
▁uran	-5054
▁krono	-5055
▁sonče	-5056
▁tolki	-5057
▁prihod	-5058
▁vstopi	-5059
▁maribor	-5060
▁zapored	-5061
▁poskušal	-5062
▁preživel	-5063
phi	-5064
što	-5065
dano	-5066
lnem	-5067
žjem	-5068
▁uso	-5069
▁pobu	-5070
▁toka	-5071
▁segre	-5072
▁stolp	-5073
▁joseph	-5074
▁okrepi	-5075
▁konjeni	-5076
▁nastali	-5077
▁razlika	-5078
▁pravosla	-5079
▁znanstveno	-5080
_2	-5081
▁dona	-5082
▁kaza	-5083
loških	-5084
▁absor	-5085
▁david	-5086
▁gorov	-5087
▁slike	-5088
▁pesnik	-5089
▁prenos	-5090
▁dolžino	-5091
▁podpisa	-5092
▁spodnji	-5093
▁starega	-5094
▁angleško	-5095
▁kulturno	-5096
▁sy	-5097
rine	-5098
vija	-5099
▁mil	-5100
▁sce	-5101
jstva	-5102
čanja	-5103
▁baro	-5104
▁dire	-5105
▁vite	-5106
▁zani	-5107
▁azije	-5108
▁cesta	-5109
▁dolga	-5110
▁ustav	-5111
▁znova	-5112
▁linear	-5113
▁nemška	-5114
▁zavzem	-5115
▁zaznam	-5116
▁začele	-5117
▁priredi	-5118
▁pisatelj	-5119
▁predvide	-5120
dalj	-5121
rice	-5122
tuje	-5123
▁ibn	-5124
torij	-5125
▁doka	-5126
▁izkr	-5127
▁obro	-5128
▁oson	-5129
▁guver	-5130
▁koman	-5131
▁publi	-5132
▁sigis	-5133
▁naloge	-5134
▁predpo	-5135
▁promet	-5136
▁višini	-5137
▁izpelja	-5138
▁podobna	-5139
▁prostorni	-5140
38	-5141
tero	-5142
▁ala	-5143
▁žel	-5144
letni	-5145
▁kova	-5146
▁peru	-5147
▁skli	-5148
▁tere	-5149
rjenje	-5150
▁petra	-5151
▁stara	-5152
▁toliko	-5153
▁viljem	-5154
▁družino	-5155
▁kulturne	-5156
▁spominja	-5157
dolf	-5158
jame	-5159
▁točk	-5160
▁znaša	-5161
▁enačba	-5162
▁plošča	-5163
▁primor	-5164
▁vzdolž	-5165
▁izdelavo	-5166
▁javnosti	-5167
wn	-5168
]],	-5169
moni	-5170
▁kip	-5171
▁kru	-5172
▁zaba	-5173
verjet	-5174
▁končni	-5175
▁kovine	-5176
▁namenom	-5177
▁imenovano	-5178
ken	-5179
pet	-5180
rus	-5181
vci	-5182
ovim	-5183
▁čin	-5184
stran	-5185
ščeni	-5186
katoli	-5187
▁zmago	-5188
▁zakoni	-5189
▁četrti	-5190
▁mohamed	-5191
▁spektra	-5192
▁dediščine	-5193
▁predhodni	-5194
▁poveljnika	-5195
▁vključujejo	-5196
tah	-5197
igra	-5198
tani	-5199
▁177	-5200
▁toba	-5201
▁nezna	-5202
▁preveč	-5203
▁upodob	-5204
▁višino	-5205
▁zadeve	-5206
▁zakona	-5207
▁delitev	-5208
▁richard	-5209
▁teoriji	-5210
▁politika	-5211
▁ameriških	-5212
65	-5213
onal	-5214
čali	-5215
▁rek	-5216
▁izbi	-5217
▁kape	-5218
▁magi	-5219
▁slab	-5220
▁ljubi	-5221
▁megli	-5222
▁petih	-5223
▁propa	-5224
▁dolina	-5225
▁državno	-5226
▁nemčijo	-5227
▁glasbene	-5228
▁različice	-5229
▁najstarejši	-5230
pp	-5231
rbo	-5232
▁ol	-5233
rica	-5234
skon	-5235
▁daje	-5236
▁hiše	-5237
ščanje	-5238
▁opazi	-5239
▁svoja	-5240
▁armeni	-5241
▁nadško	-5242
▁železa	-5243
▁friedri	-5244
▁nagrade	-5245
▁tempelj	-5246
▁zaščito	-5247
▁zgradil	-5248
▁starejši	-5249
▁postavili	-5250
▁sprememba	-5251
▁uporabljati	-5252
68	-5253
cke	-5254
fur	-5255
▁(»	-5256
onov	-5257
plja	-5258
▁kur	-5259
▁smu	-5260
▁ohla	-5261
▁imele	-5262
▁južna	-5263
▁podel	-5264
▁slika	-5265
▁zmaga	-5266
▁škofi	-5267
▁ljudstva	-5268
▁temperaturo	-5269
up	-5270
jšem	-5271
mala	-5272
▁fev	-5273
▁peri	-5274
▁silo	-5275
▁tisk	-5276
▁dolge	-5277
▁polju	-5278
▁morala	-5279
▁široko	-5280
▁društva	-5281
▁pogoste	-5282
▁sredini	-5283
▁stopnja	-5284
▁velikem	-5285
▁središča	-5286
▁francosko	-5287
▁osebnosti	-5288
▁pristanišče	-5289
vz	-5290
žbe	-5291
biji	-5292
▁fal	-5293
magne	-5294
menje	-5295
▁hiša	-5296
▁argen	-5297
▁komer	-5298
▁louis	-5299
▁planet	-5300
▁pravic	-5301
▁nastopi	-5302
▁zgradba	-5303
▁določena	-5304
▁francijo	-5305
▁mednarodne	-5306
wo	-5307
án	-5308
can	-5309
mur	-5310
boru	-5311
sili	-5312
▁opu	-5313
▁kora	-5314
▁sili	-5315
ktorja	-5316
pustil	-5317
▁celin	-5318
▁enkrat	-5319
▁podalj	-5320
▁razkri	-5321
▁poseben	-5322
▁premaga	-5323
▁sodišče	-5324
▁izpostav	-5325
▁temperaturi	-5326
▁uporabljala	-5327
48	-5328
91	-5329
imek	-5330
ljih	-5331
ston	-5332
tili	-5333
ženja	-5334
▁grki	-5335
▁plju	-5336
▁želi	-5337
ščeval	-5338
▁medse	-5339
▁padal	-5340
▁intenzi	-5341
▁opravil	-5342
▁samosta	-5343
▁sodelovanje	-5344
kso	-5345
teto	-5346
▁ten	-5347
▁tor	-5348
▁cevi	-5349
▁kolu	-5350
▁pone	-5351
jskimi	-5352
sablja	-5353
▁besed	-5354
struktu	-5355
▁lastno	-5356
▁nogome	-5357
▁norman	-5358
▁oglaše	-5359
▁rolkar	-5360
▁sodela	-5361
▁letalski	-5362
▁naravnih	-5363
▁transpor	-5364
▁ukvarjal	-5365
▁nacionali	-5366
▁razmišlja	-5367
47	-5368
vski	-5369
▁lin	-5370
▁sal	-5371
▁ubi	-5372
ditev	-5373
ovolj	-5374
▁maso	-5375
▁dolar	-5376
▁filmu	-5377
▁konci	-5378
▁mogel	-5379
▁oboro	-5380
▁pojem	-5381
▁državne	-5382
▁okolici	-5383
▁tistega	-5384
▁praktično	-5385
vijo	-5386
šnja	-5387
▁hel	-5388
hodne	-5389
▁alex	-5390
▁cest	-5391
▁robu	-5392
▁zado	-5393
▁brata	-5394
▁armade	-5395
▁napada	-5396
▁papeža	-5397
▁stanju	-5398
▁diploma	-5399
▁nastalo	-5400
▁opredel	-5401
▁praznik	-5402
▁vietnam	-5403
▁pripravi	-5404
▁sistemov	-5405
▁sporazum	-5406
cka	-5407
cla	-5408
▁uvo	-5409
pisov	-5410
▁zgolj	-5411
▁njenih	-5412
▁obiska	-5413
▁starih	-5414
▁državna	-5415
▁ostanki	-5416
▁prodaja	-5417
▁zaščite	-5418
▁delujejo	-5419
0-	-5420
com	-5421
dana	-5422
▁gan	-5423
▁wol	-5424
▁1918	-5425
▁izgi	-5426
▁kupi	-5427
▁neda	-5428
▁slog	-5429
▁triko	-5430
▁železo	-5431
▁ferdina	-5432
▁gostota	-5433
tik	-5434
čati	-5435
▁gli	-5436
▁album	-5437
▁izgra	-5438
▁podre	-5439
▁višji	-5440
▁giblje	-5441
▁vsakem	-5442
▁kulturo	-5443
▁pokazal	-5444
▁središču	-5445
▁usposablja	-5446
▁najpogosteje	-5447
des	-5448
zda	-5449
noma	-5450
▁ram	-5451
▁spa	-5452
▁tik	-5453
▁vin	-5454
▁1998	-5455
▁male	-5456
▁zapu	-5457
▁konje	-5458
▁kraju	-5459
▁mater	-5460
▁milan	-5461
▁oblju	-5462
▁obnov	-5463
▁plošč	-5464
▁ponov	-5465
▁stroj	-5466
▁gregor	-5467
▁majhna	-5468
▁občine	-5469
▁spomin	-5470
▁imperij	-5471
▁prenaša	-5472
▁simfoni	-5473
▁guverner	-5474
▁imenovana	-5475
▁razglasil	-5476
▁vprašanje	-5477
▁najpomembnejših	-5478
pd	-5479
▁ex	-5480
jenju	-5481
▁dobo	-5482
▁levo	-5483
▁sibi	-5484
▁ženo	-5485
ništvo	-5486
čevali	-5487
▁letno	-5488
▁zraku	-5489
▁izvora	-5490
▁upravi	-5491
▁demokra	-5492
▁društvo	-5493
▁osnovno	-5494
▁zgornji	-5495
cor	-5496
fre	-5497
use	-5498
šena	-5499
▁biv	-5500
▁jaz	-5501
jočih	-5502
tenja	-5503
▁vali	-5504
nskimi	-5505
števil	-5506
▁našel	-5507
▁stori	-5508
▁teles	-5509
▁andrej	-5510
▁stanja	-5511
▁njenega	-5512
▁zgrajen	-5513
▁odstotkov	-5514
am	-5515
pisu	-5516
šemo	-5517
ženo	-5518
grško	-5519
▁1999	-5520
▁drob	-5521
▁kvan	-5522
▁pasu	-5523
▁toku	-5524
tnikov	-5525
▁kazen	-5526
▁paleo	-5527
▁washi	-5528
▁zliti	-5529
▁deloma	-5530
▁knjigo	-5531
▁opreme	-5532
▁vozila	-5533
▁globoko	-5534
▁mesecih	-5535
▁osnovne	-5536
▁posvetil	-5537
▁značilnost	-5538
85	-5539
ns	-5540
▁»"	-5541
dski	-5542
gija	-5543
linu	-5544
žele	-5545
▁2012	-5546
▁begu	-5547
▁karo	-5548
▁ones	-5549
▁razo	-5550
stitev	-5551
torjev	-5552
▁grško	-5553
▁nista	-5554
▁raste	-5555
▁ruske	-5556
▁besedo	-5557
▁pomenu	-5558
▁obiskal	-5559
▁volitvah	-5560
▁notranjosti	-5561
93	-5562
fal	-5563
▁41	-5564
gran	-5565
kuje	-5566
kula	-5567
nina	-5568
teta	-5569
▁flu	-5570
▁zvr	-5571
jenja	-5572
čanju	-5573
▁digi	-5574
▁nakar	-5575
▁obkro	-5576
▁france	-5577
▁izroči	-5578
▁mestno	-5579
▁uvedel	-5580
▁dodatno	-5581
▁površini	-5582
▁sredstvo	-5583
▁cesarstvu	-5584
▁preprosto	-5585
▁pripravlja	-5586
vnim	-5587
▁dro	-5588
▁rja	-5589
dnimi	-5590
▁obmo	-5591
▁rock	-5592
tacije	-5593
▁prikaza	-5594
▁prednost	-5595
▁opravljal	-5596
▁sovjetski	-5597
▁znanstveniki	-5598
dah	-5599
rbe	-5600
afri	-5601
mula	-5602
▁ble	-5603
▁nji	-5604
▁zdi	-5605
koval	-5606
lovec	-5607
▁ladi	-5608
▁plov	-5609
▁sede	-5610
▁sici	-5611
▁skan	-5612
▁teri	-5613
▁znaka	-5614
▁lestvi	-5615
▁neskon	-5616
▁nimajo	-5617
▁razpad	-5618
▁rodila	-5619
▁verjet	-5620
▁živeli	-5621
▁atmosfe	-5622
▁korpusa	-5623
▁predela	-5624
▁svetlob	-5625
▁najvišja	-5626
▁pretežno	-5627
▁programa	-5628
▁električne	-5629
▁samoglasni	-5630
27	-5631
sé	-5632
gram	-5633
pija	-5634
▁are	-5635
▁tlak	-5636
cijami	-5637
tinsko	-5638
▁ostro	-5639
▁sekun	-5640
▁artile	-5641
▁otroke	-5642
▁prečka	-5643
▁službe	-5644
▁stolni	-5645
ministra	-5646
▁liberal	-5647
▁razlaga	-5648
▁samosto	-5649
▁današnji	-5650
▁kitajsko	-5651
▁mednarodna	-5652
▁največkrat	-5653
▁mednarodnih	-5654
):	-5655
55	-5656
sve	-5657
▁up	-5658
▁fra	-5659
▁jed	-5660
▁uro	-5661
ščeno	-5662
▁bela	-5663
▁lune	-5664
▁črna	-5665
ljenega	-5666
▁oddaja	-5667
▁dolžina	-5668
▁francis	-5669
▁gradnja	-5670
▁akademije	-5671
▁dinastija	-5672
▁geografija	-5673
▁()	-5674
fizi	-5675
tila	-5676
veli	-5677
▁(20	-5678
▁šri	-5679
▁kipar	-5680
▁mrtvi	-5681
▁enačbe	-5682
▁izvede	-5683
▁osnova	-5684
▁osvaja	-5685
▁zabele	-5686
▁znakov	-5687
▁operati	-5688
▁pravila	-5689
▁elektronov	-5690
eu	-5691
tati	-5692
▁hrb	-5693
▁raj	-5694
presi	-5695
▁fili	-5696
▁lese	-5697
▁polk	-5698
▁ribi	-5699
▁trža	-5700
▁zadr	-5701
▁dikta	-5702
▁izgub	-5703
▁ludvi	-5704
▁videl	-5705
▁koncep	-5706
▁marija	-5707
▁nastaja	-5708
▁nastale	-5709
▁politik	-5710
▁priimek	-5711
▁pripomo	-5712
▁sledila	-5713
▁nosilcev	-5714
▁poimenovali	-5715
kav	-5716
kol	-5717
ardi	-5718
bami	-5719
▁noči	-5720
▁trgu	-5721
▁kamen	-5722
▁kovin	-5723
▁rasti	-5724
▁valen	-5725
▁kontra	-5726
▁frideri	-5727
▁pomagal	-5728
▁ameriška	-5729
▁nahajajo	-5730
▁gledališče	-5731
▁matematike	-5732
▁razdeljena	-5733
28	-5734
hal	-5735
tku	-5736
▁juri	-5737
▁žene	-5738
▁nobel	-5739
▁pogla	-5740
▁vrata	-5741
▁pripis	-5742
▁toplote	-5743
▁osredoto	-5744
▁programi	-5745
▁zanimivo	-5746
▁prikazuje	-5747
▁velikokrat	-5748
23	-5749
bio	-5750
leh	-5751
lla	-5752
joča	-5753
turo	-5754
▁dži	-5755
▁jam	-5756
▁zao	-5757
▁šči	-5758
rnega	-5759
▁krvi	-5760
▁marx	-5761
▁tuni	-5762
▁črne	-5763
▁etimo	-5764
▁vsaki	-5765
▁jeruza	-5766
▁sezoni	-5767
▁elektra	-5768
▁občasno	-5769
▁splošnem	-5770
▁zagovarja	-5771
▁kraljestvu	-5772
ds	-5773
my	-5774
jak	-5775
uma	-5776
dnim	-5777
dova	-5778
glej	-5779
lona	-5780
čajo	-5781
žnje	-5782
ridge	-5783
▁homo	-5784
▁inva	-5785
▁usmr	-5786
▁hindu	-5787
▁ideje	-5788
▁rdeči	-5789
▁točno	-5790
▁šteje	-5791
▁domači	-5792
▁minera	-5793
▁naloga	-5794
▁navdih	-5795
▁okolja	-5796
▁poznem	-5797
▁razsta	-5798
▁zračna	-5799
▁brigade	-5800
▁majhnih	-5801
▁pogodbo	-5802
▁preizku	-5803
▁evropska	-5804
▁položaja	-5805
▁številom	-5806
▁republiko	-5807
▁vojaškega	-5808
▁zaporedno	-5809
▁zavezniki	-5810
pin	-5811
▁mit	-5812
▁iska	-5813
▁poru	-5814
▁dokaj	-5815
▁edino	-5816
▁imata	-5817
▁redno	-5818
▁grobni	-5819
▁odigra	-5820
▁palača	-5821
▁plinov	-5822
▁molekul	-5823
▁ozemelj	-5824
▁količino	-5825
▁pojavila	-5826
▁povezane	-5827
▁soglasni	-5828
▁napetosti	-5829
▁administra	-5830
▁italijanske	-5831
▁italijansko	-5832
ale	-5833
kur	-5834
mah	-5835
čko	-5836
gona	-5837
rsko	-5838
▁1997	-5839
▁mara	-5840
▁post	-5841
▁lažje	-5842
▁polno	-5843
▁znača	-5844
▁občina	-5845
▁samega	-5846
▁videti	-5847
▁preobli	-5848
▁kapitali	-5849
▁ljubezni	-5850
▁politike	-5851
66	-5852
dy	-5853
ara	-5854
ngi	-5855
qui	-5856
džan	-5857
lost	-5858
skom	-5859
▁die	-5860
nejša	-5861
▁ioni	-5862
▁kvar	-5863
▁ozra	-5864
▁poho	-5865
▁romu	-5866
▁hrano	-5867
▁ladjo	-5868
▁najni	-5869
▁pasti	-5870
▁sumer	-5871
▁zanes	-5872
▁dobimo	-5873
▁intera	-5874
▁rimske	-5875
▁angliji	-5876
▁potekala	-5877
▁sredstva	-5878
▁komercial	-5879
▁posamezne	-5880
▁uporabljamo	-5881
▁ustanovljen	-5882
▁)	-5883
blo	-5884
ros	-5885
bini	-5886
okoli	-5887
▁arno	-5888
▁bran	-5889
▁etio	-5890
▁jame	-5891
▁nale	-5892
▁zavr	-5893
▁žvep	-5894
▁kambo	-5895
▁najti	-5896
▁nevtro	-5897
▁prešer	-5898
▁zgodbe	-5899
▁frankov	-5900
▁kardina	-5901
▁obrambe	-5902
▁pravoko	-5903
▁funkcijo	-5904
▁pisateljev	-5905
cl	-5906
gs	-5907
rim	-5908
rske	-5909
tonu	-5910
▁che	-5911
menik	-5912
▁1992	-5913
▁dati	-5914
▁gali	-5915
▁glob	-5916
▁heti	-5917
▁moše	-5918
polnje	-5919
▁mehan	-5920
▁tirni	-5921
▁dinami	-5922
▁regija	-5923
▁dosegli	-5924
▁dostojev	-5925
▁nemškega	-5926
▁povezani	-5927
▁prevzela	-5928
▁neodvisno	-5929
▁omogočajo	-5930
▁povzročilo	-5931
▁q	-5932
ich	-5933
▁kos	-5934
▁reci	-5935
▁vsta	-5936
tacijo	-5937
zijski	-5938
▁podež	-5939
▁poeno	-5940
▁prite	-5941
▁tukaj	-5942
▁zanim	-5943
▁izraza	-5944
▁navede	-5945
▁odpove	-5946
▁dramati	-5947
▁ogljika	-5948
▁zahteval	-5949
▁pokrajine	-5950
dt	-5951
«),	-5952
kati	-5953
▁amo	-5954
▁vme	-5955
jevih	-5956
litve	-5957
vnimi	-5958
▁camb	-5959
▁dogo	-5960
▁rabi	-5961
▁sate	-5962
▁tuje	-5963
▁kamor	-5964
▁račun	-5965
▁visok	-5966
▁jeseni	-5967
▁majhno	-5968
▁nevtra	-5969
▁prazni	-5970
▁rusije	-5971
▁sledil	-5972
▁obstoje	-5973
▁turizem	-5974
▁upokoji	-5975
▁zamisli	-5976
▁zaporni	-5977
▁reakcije	-5978
▁uporabili	-5979
▁matematiki	-5980
,5	-5981
joč	-5982
lcev	-5983
▁cev	-5984
▁dža	-5985
▁kav	-5986
▁pav	-5987
▁ris	-5988
▁voz	-5989
razlo	-5990
šanje	-5991
▁boja	-5992
▁kubi	-5993
janski	-5994
▁gradu	-5995
▁naboj	-5996
▁obvla	-5997
▁rdeča	-5998
▁vzrok	-5999
▁mestni	-6000
▁suvere	-6001
▁abeceda	-6002
▁razteza	-6003
▁natančne	-6004
▁položaju	-6005
▁revolucije	-6006
era	-6007
tta	-6008
▁(3	-6009
▁75	-6010
mato	-6011
čala	-6012
▁rtv	-6013
burgu	-6014
▁1995	-6015
▁2013	-6016
▁edin	-6017
▁grof	-6018
▁kari	-6019
▁knez	-6020
▁rezi	-6021
▁dodel	-6022
▁izumr	-6023
▁slogu	-6024
▁žužel	-6025
▁nenava	-6026
▁novinar	-6027
▁sistemi	-6028
▁vladanja	-6029
▁zdravnik	-6030
▁značilna	-6031
42	-6032
ys	-6033
jor	-6034
dona	-6035
žjih	-6036
gradu	-6037
▁jupi	-6038
▁nanj	-6039
▁nivo	-6040
▁semi	-6041
▁slik	-6042
▁sobo	-6043
zirani	-6044
▁alumi	-6045
▁menih	-6046
▁jadran	-6047
▁ostaja	-6048
▁naredil	-6049
▁glasbeno	-6050
▁beljakovi	-6051
▁imenovane	-6052
▁istočasno	-6053
▁nastanejo	-6054
67	-6055
▁wo	-6056
pala	-6057
toma	-6058
well	-6059
▁glu	-6060
čnika	-6061
▁domi	-6062
▁mesec	-6063
▁vojsk	-6064
▁london	-6065
▁metode	-6066
▁službo	-6067
▁boginja	-6068
▁kalifor	-6069
▁plemena	-6070
▁namenjena	-6071
▁sovjetsko	-6072
▁zdravstve	-6073
mpi	-6074
yer	-6075
▁il	-6076
kaže	-6077
mpan	-6078
▁rob	-6079
▁taj	-6080
▁1940	-6081
▁aero	-6082
▁glej	-6083
▁neke	-6084
▁vere	-6085
▁razse	-6086
▁skrbi	-6087
▁mestna	-6088
▁shranje	-6089
▁strinja	-6090
▁članica	-6091
▁površina	-6092
▁proizvodnje	-6093
spa	-6094
zon	-6095
▁ox	-6096
bere	-6097
▁ace	-6098
▁1920	-6099
▁nebo	-6100
▁vede	-6101
danjih	-6102
čevala	-6103
▁bibli	-6104
▁istem	-6105
▁privr	-6106
▁težav	-6107
▁glasbi	-6108
▁ogrože	-6109
▁provin	-6110
▁segajo	-6111
▁eksperi	-6112
▁igralec	-6113
▁izvedel	-6114
▁resnici	-6115
▁ameriške	-6116
▁kitajska	-6117
▁razlogov	-6118
▁spomenik	-6119
▁britanske	-6120
dio	-6121
žij	-6122
ange	-6123
gina	-6124
vobo	-6125
žajo	-6126
▁atp	-6127
ković	-6128
stanje	-6129
▁bolga	-6130
▁imeni	-6131
▁pohod	-6132
▁tujih	-6133
▁dežela	-6134
▁lastne	-6135
▁pridel	-6136
▁tranzi	-6137
▁visoka	-6138
▁vzhoda	-6139
▁posebna	-6140
▁evropsko	-6141
▁osnovnih	-6142
▁svetlobo	-6143
▁izključno	-6144
▁najverjet	-6145
▁področjih	-6146
▁prestolnica	-6147
▁pripadnikov	-6148
62	-6149
lio	-6150
ptu	-6151
▁rok	-6152
▁1996	-6153
▁prou	-6154
▁ukaz	-6155
▁člen	-6156
jenega	-6157
zaprav	-6158
▁barva	-6159
▁močan	-6160
▁osebni	-6161
▁pomoči	-6162
▁spojin	-6163
▁izgubil	-6164
▁rimskem	-6165
▁nasledil	-6166
▁materiala	-6167
▁politična	-6168
▁vprašanja	-6169
hla	-6170
▁"»	-6171
stim	-6172
▁air	-6173
▁far	-6174
▁res	-6175
danjo	-6176
ujemo	-6177
▁viru	-6178
▁zvok	-6179
nejših	-6180
▁izrek	-6181
▁modro	-6182
▁veter	-6183
▁zgled	-6184
▁vodila	-6185
▁tehnike	-6186
▁zaposli	-6187
▁nekdanji	-6188
▁bataljona	-6189
▁kitajskem	-6190
▁industrija	-6191
▁zgodovinski	-6192
-"	-6193
ün	-6194
bus	-6195
sre	-6196
vor	-6197
šev	-6198
mija	-6199
para	-6200
šeni	-6201
▁dani	-6202
▁vera	-6203
▁čete	-6204
računa	-6205
▁prine	-6206
▁sekre	-6207
▁uspeh	-6208
▁kristu	-6209
▁predlo	-6210
▁zapore	-6211
▁znanje	-6212
▁dejavni	-6213
▁ljudske	-6214
▁hidroksi	-6215
▁prevzeli	-6216
znanstveno	-6217
'.	-6218
by	-6219
gih	-6220
wor	-6221
▁aj	-6222
emon	-6223
ring	-6224
vice	-6225
šili	-6226
▁400	-6227
tenje	-6228
vesti	-6229
šilja	-6230
▁gaul	-6231
▁pova	-6232
▁prei	-6233
▁topo	-6234
ščenje	-6235
▁blago	-6236
▁josip	-6237
▁vodik	-6238
▁avtori	-6239
▁družbi	-6240
▁družbo	-6241
▁oceana	-6242
▁onesna	-6243
▁prizori	-6244
▁straneh	-6245
▁zgodilo	-6246
▁poročila	-6247
▁njihovega	-6248
▁azerbajdžan	-6249
▁gospodarske	-6250
13	-6251
.),	-6252
cus	-6253
hna	-6254
ret	-6255
▁%.	-6256
▁tj	-6257
pola	-6258
rion	-6259
▁leo	-6260
▁rah	-6261
▁žrt	-6262
▁boži	-6263
▁dvoj	-6264
▁tera	-6265
▁vzde	-6266
▁znam	-6267
▁žira	-6268
▁rekor	-6269
▁sesal	-6270
▁statu	-6271
▁časih	-6272
▁armada	-6273
▁martin	-6274
▁moških	-6275
▁posnet	-6276
▁prince	-6277
▁raznih	-6278
▁verske	-6279
▁wilhel	-6280
▁doživel	-6281
▁kandida	-6282
▁verskih	-6283
▁šolanje	-6284
▁napetost	-6285
kategorija	-6286
▁friedrich	-6287
▁izkoristi	-6288
tua	-6289
vat	-6290
žjo	-6291
▁zu	-6292
▁temi	-6293
▁črte	-6294
▁dirka	-6295
▁izšla	-6296
▁podje	-6297
▁repre	-6298
▁dogaja	-6299
▁indiji	-6300
▁kulturni	-6301
▁taborišča	-6302
dp	-6303
et	-6304
mad	-6305
nio	-6306
šav	-6307
ncev	-6308
rich	-6309
▁pal	-6310
▁1939	-6311
▁1994	-6312
▁pomi	-6313
▁vetr	-6314
▁zači	-6315
▁atomi	-6316
▁benet	-6317
▁domov	-6318
▁karla	-6319
▁oskrb	-6320
▁točko	-6321
▁časti	-6322
▁morske	-6323
▁nastop	-6324
▁razmno	-6325
▁stavbe	-6326
▁šrilan	-6327
▁celotne	-6328
▁dejstvo	-6329
▁pogodbe	-6330
▁postale	-6331
▁dirigent	-6332
▁interpre	-6333
▁preganja	-6334
▁sodobnih	-6335
▁številna	-6336
▁operacija	-6337
-8	-6338
▁jor	-6339
▁rad	-6340
▁tki	-6341
škemu	-6342
▁bogo	-6343
▁maro	-6344
▁pono	-6345
▁kovan	-6346
▁letni	-6347
▁napis	-6348
▁čisto	-6349
▁štaba	-6350
▁glasov	-6351
▁katego	-6352
▁napade	-6353
▁otroci	-6354
▁pehote	-6355
▁prived	-6356
▁skladi	-6357
▁zbirka	-6358
fikacija	-6359
▁slednji	-6360
▁strelja	-6361
▁zasedli	-6362
▁polotoka	-6363
▁hitrostjo	-6364
▁posledice	-6365
▁postavlja	-6366
▁republiki	-6367
▁pravzaprav	-6368
▁električnega	-6369
ls	-6370
oh	-6371
sis	-6372
mond	-6373
▁mau	-6374
larne	-6375
▁hans	-6376
▁masi	-6377
dinami	-6378
peljal	-6379
▁obalo	-6380
▁plani	-6381
ljenost	-6382
▁grških	-6383
▁plošči	-6384
▁švicar	-6385
ljenosti	-6386
▁habsbur	-6387
▁zasnova	-6388
▁španiji	-6389
▁sprememb	-6390
▁vladimir	-6391
▁vladavino	-6392
▁predstavnik	-6393
200	-6394
dbi	-6395
war	-6396
cepi	-6397
komu	-6398
skop	-6399
▁oma	-6400
lekti	-6401
čnemu	-6402
▁roke	-6403
▁arheo	-6404
▁letom	-6405
▁marko	-6406
▁sankt	-6407
▁uteme	-6408
▁časom	-6409
▁jeziko	-6410
▁mezopo	-6411
▁nalogo	-6412
▁opremo	-6413
▁ostane	-6414
▁pierre	-6415
▁pisava	-6416
▁sektor	-6417
▁naprave	-6418
▁zgradbe	-6419
▁dolarjev	-6420
▁največjo	-6421
▁pomenilo	-6422
▁pravilno	-6423
▁rastlina	-6424
▁zgodnjem	-6425
▁določenih	-6426
▁39	-6427
bela	-6428
fred	-6429
niško	-6430
▁dneh	-6431
▁savi	-6432
▁sebi	-6433
▁zavi	-6434
tacija	-6435
▁karbo	-6436
▁mesti	-6437
▁naklo	-6438
▁polka	-6439
▁umrla	-6440
pozdrav	-6441
▁deželo	-6442
▁poljub	-6443
▁propad	-6444
▁anglija	-6445
▁javnost	-6446
▁predsta	-6447
▁upodobi	-6448
▁najvišje	-6449
razločitev	-6450
▁državnega	-6451
▁povprečna	-6452
▁spremenil	-6453
▁električno	-6454
▁povzročila	-6455
▁arhitekture	-6456
75	-6457
ut	-6458
die	-6459
mag	-6460
gner	-6461
▁duše	-6462
▁poza	-6463
▁trst	-6464
▁vese	-6465
▁glago	-6466
▁hesse	-6467
▁plast	-6468
▁preli	-6469
▁rudar	-6470
▁uskla	-6471
čevanja	-6472
▁delijo	-6473
▁stekla	-6474
▁ukazal	-6475
▁divizij	-6476
▁gostoto	-6477
▁osnovna	-6478
▁predstavil	-6479
▁ustanovitev	-6480
▁zgodovinskih	-6481
fr	-6482
nda	-6483
▁ep	-6484
tala	-6485
thur	-6486
vard	-6487
▁les	-6488
▁1993	-6489
▁melo	-6490
▁scho	-6491
▁bregu	-6492
▁perio	-6493
▁popol	-6494
▁uspel	-6495
▁kontro	-6496
▁mongol	-6497
▁reakti	-6498
▁svinec	-6499
▁večine	-6500
▁besedil	-6501
▁določen	-6502
▁območij	-6503
▁okrožje	-6504
▁tolkien	-6505
▁dogodkov	-6506
▁ljudstvo	-6507
▁odkritje	-6508
▁privržen	-6509
▁sprejeli	-6510
▁cambridge	-6511
▁glasbenih	-6512
▁imenovani	-6513
▁konstanta	-6514
▁nadaljuje	-6515
pozdravljen	-6516
thu	-6517
pran	-6518
čkov	-6519
▁(),	-6520
▁ili	-6521
▁jar	-6522
▁noč	-6523
▁vro	-6524
▁žup	-6525
meter	-6526
ziran	-6527
▁augu	-6528
▁cvet	-6529
▁črke	-6530
▁najbo	-6531
▁svete	-6532
▁tomaž	-6533
▁edward	-6534
▁princi	-6535
▁uporni	-6536
▁avtonom	-6537
▁državami	-6538
▁molekule	-6539
▁namenjen	-6540
▁razvojem	-6541
▁razširil	-6542
▁britanska	-6543
ak	-6544
500	-6545
zla	-6546
gajo	-6547
vina	-6548
▁koe	-6549
▁vzo	-6550
▁2014	-6551
▁orien	-6552
▁raven	-6553
▁albert	-6554
▁alexan	-6555
▁hladne	-6556
▁kisika	-6557
▁pogled	-6558
▁tistih	-6559
▁zadovo	-6560
▁najdalj	-6561
▁pokopan	-6562
▁reorgani	-6563
▁britansko	-6564
▁prostovolj	-6565
▁poveljstvom	-6566
▁najverjetneje	-6567
lca	-6568
nel	-6569
sec	-6570
mente	-6571
močne	-6572
▁goji	-6573
▁tita	-6574
▁vmes	-6575
kratni	-6576
žujejo	-6577
▁dosle	-6578
▁maksi	-6579
▁mostu	-6580
▁nafte	-6581
▁obema	-6582
▁predo	-6583
▁bogovi	-6584
▁obenem	-6585
▁portre	-6586
▁privla	-6587
▁oboroži	-6588
▁prestol	-6589
▁sestava	-6590
▁učitelj	-6591
▁španski	-6592
▁nasprotno	-6593
▁−	-6594
ati	-6595
▁rs	-6596
▁šu	-6597
gnan	-6598
▁120	-6599
▁azi	-6600
▁nag	-6601
▁zni	-6602
letno	-6603
tskem	-6604
▁1917	-6605
▁baze	-6606
▁hein	-6607
▁kuhi	-6608
▁lesa	-6609
▁maha	-6610
▁orga	-6611
▁izoto	-6612
▁njemu	-6613
▁podvo	-6614
tovanje	-6615
▁otroka	-6616
▁sproži	-6617
▁walter	-6618
▁produkt	-6619
▁napoleon	-6620
▁poimenovanja	-6621
▁najpomembnejše	-6622
ws	-6623
cel	-6624
tto	-6625
jnem	-6626
lovo	-6627
šnje	-6628
▁bob	-6629
▁nik	-6630
larna	-6631
▁loko	-6632
▁nika	-6633
▁spon	-6634
▁zgle	-6635
▁bojne	-6636
▁jezus	-6637
▁koder	-6638
▁konti	-6639
▁sklep	-6640
▁vztra	-6641
▁izkopa	-6642
▁plošče	-6643
▁praksi	-6644
▁prevod	-6645
▁rommel	-6646
▁napadel	-6647
▁pojasni	-6648
▁poljsko	-6649
▁letalstva	-6650
▁železnice	-6651
▁infrastruktu	-6652
("	-6653
lou	-6654
tki	-6655
uni	-6656
king	-6657
▁dav	-6658
▁hči	-6659
▁lei	-6660
delek	-6661
itali	-6662
ville	-6663
▁mani	-6664
▁regu	-6665
lizira	-6666
▁lasti	-6667
▁nesta	-6668
▁semen	-6669
elektri	-6670
▁letali	-6671
▁usmeri	-6672
▁zgodaj	-6673
▁naselja	-6674
▁poslali	-6675
▁avstriji	-6676
▁pesnikov	-6677
▁različno	-6678
▁zgornjem	-6679
▁fakulteti	-6680
▁spremenljiv	-6681
▁predstavniki	-6682
▁izobraževanje	-6683
fen	-6684
via	-6685
vić	-6686
rian	-6687
tena	-6688
tvah	-6689
▁oza	-6690
▁1989	-6691
▁krva	-6692
▁pare	-6693
▁spoš	-6694
▁madri	-6695
▁redov	-6696
▁studi	-6697
▁žensko	-6698
▁stopnjo	-6699
▁vrnitvi	-6700
▁študija	-6701
▁milijoni	-6702
▁minister	-6703
▁letališče	-6704
▁današnjega	-6705
▁revolucijo	-6706
▁zgodovinarji	-6707
zah	-6708
▁aa	-6709
chel	-6710
ramo	-6711
žali	-6712
stika	-6713
tarja	-6714
▁nazi	-6715
▁bitko	-6716
▁enake	-6717
▁nižje	-6718
▁omeni	-6719
▁podča	-6720
▁pritr	-6721
▁delcev	-6722
▁johann	-6723
▁majhen	-6724
▁razlog	-6725
▁vozilo	-6726
▁zgoraj	-6727
▁pošilja	-6728
▁svojemu	-6729
▁bombardi	-6730
▁discipli	-6731
▁radioakti	-6732
▁aleksandra	-6733
82	-6734
ço	-6735
ür	-6736
rdo	-6737
kana	-6738
rata	-6739
▁max	-6740
▁oja	-6741
▁vid	-6742
loška	-6743
novem	-6744
▁valu	-6745
▁vzro	-6746
zaciji	-6747
▁filma	-6748
▁nizko	-6749
▁podvr	-6750
▁relie	-6751
▁tesno	-6752
▁vroči	-6753
▁žensk	-6754
▁pozimi	-6755
▁srebro	-6756
▁dogodek	-6757
▁moderni	-6758
▁pomenov	-6759
▁vsakega	-6760
▁elementa	-6761
▁potrebna	-6762
▁naslednik	-6763
▁parlament	-6764
▁slovencev	-6765
vam	-6766
ssel	-6767
▁ein	-6768
▁led	-6769
▁pau	-6770
janja	-6771
jevem	-6772
stral	-6773
ščene	-6774
▁hong	-6775
▁igri	-6776
▁nabi	-6777
▁simp	-6778
tinski	-6779
▁metal	-6780
▁nujno	-6781
▁odnos	-6782
▁požar	-6783
▁saint	-6784
▁island	-6785
▁javnih	-6786
▁mestom	-6787
▁morjem	-6788
▁naravne	-6789
▁rimskih	-6790
▁kitajski	-6791
▁lastnost	-6792
▁državljan	-6793
▁funkciona	-6794
▁potovanje	-6795
▁razširila	-6796
▁spominski	-6797
56	-6798
tti	-6799
sila	-6800
šeno	-6801
▁soo	-6802
▁golo	-6803
▁hudo	-6804
▁sebe	-6805
▁zevs	-6806
stanov	-6807
▁lenin	-6808
▁umrlo	-6809
▁atomov	-6810
▁delimo	-6811
▁marksi	-6812
▁napadu	-6813
▁polkov	-6814
▁trdijo	-6815
▁tretja	-6816
▁izvidni	-6817
▁objekti	-6818
▁razpore	-6819
▁vojnega	-6820
▁tekočine	-6821
▁samostojno	-6822
▁sposobnosti	-6823
yo	-6824
bih	-6825
ini	-6826
tos	-6827
hard	-6828
miti	-6829
▁hol	-6830
▁hru	-6831
▁1919	-6832
▁algo	-6833
▁cere	-6834
▁koru	-6835
▁mimo	-6836
▁tovr	-6837
▁vojn	-6838
tralje	-6839
▁dunaj	-6840
▁neneh	-6841
▁pilot	-6842
▁vodni	-6843
▁govore	-6844
▁sladko	-6845
▁ustava	-6846
▁zasnov	-6847
latinsko	-6848
▁egiptov	-6849
▁najzgod	-6850
▁pojavil	-6851
▁povelje	-6852
▁precejš	-6853
▁razsvet	-6854
▁slednje	-6855
▁združeno	-6856
▁pokrajina	-6857
▁premeščen	-6858
▁tehnologije	-6859
ct	-6860
«)	-6861
neti	-6862
risa	-6863
žiti	-6864
berta	-6865
stimi	-6866
znega	-6867
▁deni	-6868
▁ocea	-6869
▁toki	-6870
▁herce	-6871
▁izbri	-6872
▁izšel	-6873
▁jekla	-6874
▁opere	-6875
▁razum	-6876
▁mestnih	-6877
▁reforma	-6878
▁trajala	-6879
▁državnih	-6880
▁mestnega	-6881
▁milijard	-6882
▁nobenega	-6883
▁povezano	-6884
19	-6885
43	-6886
69	-6887
gno	-6888
mec	-6889
letij	-6890
činek	-6891
▁loga	-6892
▁prit	-6893
▁pouda	-6894
▁tovor	-6895
najstih	-6896
pustili	-6897
ternati	-6898
▁lennon	-6899
▁morski	-6900
▁učinek	-6901
▁gradnje	-6902
▁navzdol	-6903
▁predlog	-6904
▁nastanka	-6905
▁povezavo	-6906
▁premagal	-6907
▁povprečno	-6908
▁strukturo	-6909
▁magnetnega	-6910
▁prejšnjega	-6911
▁računalnik	-6912
▁jugoslaviji	-6913
▁gospodarstva	-6914
tei	-6915
ših	-6916
▁65	-6917
▁aš	-6918
▁ipd	-6919
▁min	-6920
▁sho	-6921
niška	-6922
▁dato	-6923
▁poga	-6924
▁rima	-6925
▁roma	-6926
▁tleh	-6927
hodnem	-6928
▁jedra	-6929
▁kazal	-6930
▁kazni	-6931
▁tremi	-6932
▁urada	-6933
▁virgi	-6934
▁češko	-6935
▁župan	-6936
▁aposto	-6937
▁doseči	-6938
▁mestne	-6939
▁pričel	-6940
▁wagner	-6941
▁okrožja	-6942
▁poskuša	-6943
▁elemente	-6944
▁govorijo	-6945
▁posebnih	-6946
▁nastajajo	-6947
▁združenega	-6948
":	-6949
77	-6950
lka	-6951
nav	-6952
sej	-6953
sion	-6954
sona	-6955
tari	-6956
zvez	-6957
▁cal	-6958
▁cho	-6959
▁ted	-6960
▁traj	-6961
▁jorda	-6962
jevanje	-6963
▁berlin	-6964
▁katera	-6965
▁konden	-6966
▁korist	-6967
▁načelo	-6968
▁obdrža	-6969
▁pacifi	-6970
▁skupni	-6971
▁ekonomi	-6972
▁financi	-6973
▁podobni	-6974
▁poznali	-6975
▁izrazito	-6976
▁najmočne	-6977
▁oblikoval	-6978
yn	-6979
▁th	-6980
pela	-6981
trop	-6982
marie	-6983
razse	-6984
snega	-6985
▁oman	-6986
taplja	-6987
▁barvo	-6988
▁bolje	-6989
▁cikel	-6990
▁kosov	-6991
▁musso	-6992
▁reali	-6993
kovanje	-6994
▁membra	-6995
▁podobo	-6996
▁takšne	-6997
▁funkcij	-6998
▁jezikih	-6999
▁koefici	-7000
▁polovico	-7001
▁teritori	-7002
▁ugotovil	-7003
▁združene	-7004
▁struktura	-7005
▁krščanstvo	-7006
▁pomanjkanja	-7007
voj	-7008
čbe	-7009
▁4,	-7010
erja	-7011
tano	-7012
tike	-7013
žejo	-7014
▁170	-7015
▁mul	-7016
▁piha	-7017
▁plan	-7018
▁vino	-7019
alnega	-7020
▁bomba	-7021
▁boris	-7022
▁rojen	-7023
▁člana	-7024
▁našega	-7025
▁oksidi	-7026
▁množica	-7027
▁polotok	-7028
▁prinaša	-7029
▁sinteti	-7030
▁zavrnil	-7031
▁delavcev	-7032
▁komponen	-7033
▁načelnik	-7034
▁province	-7035
▁človeško	-7036
▁oborožene	-7037
▁industrije	-7038
▁sestavljeno	-7039
pih	-7040
pora	-7041
▁ore	-7042
larno	-7043
▁1900	-7044
▁amfi	-7045
▁mont	-7046
▁roka	-7047
▁tibe	-7048
▁vrat	-7049
▁fizik	-7050
▁križa	-7051
▁nekak	-7052
▁obleg	-7053
▁pavel	-7054
▁stavb	-7055
▁točki	-7056
▁trdil	-7057
▁evropa	-7058
▁oceanu	-7059
▁pravni	-7060
▁pregle	-7061
▁premak	-7062
▁smrtjo	-7063
▁telesu	-7064
▁uresni	-7065
▁zaigra	-7066
▁šestih	-7067
▁štirje	-7068
▁alumini	-7069
▁herakle	-7070
▁integra	-7071
▁splošne	-7072
▁tehnika	-7073
▁doživela	-7074
▁sigismund	-7075
▁filozofije	-7076
▁ustanovila	-7077
▁rimskokatoli	-7078
▁znamenitosti	-7079
32	-7080
lé	-7081
nič	-7082
▁(5	-7083
rale	-7084
rino	-7085
skan	-7086
zani	-7087
čeva	-7088
▁ion	-7089
▁jer	-7090
▁črk	-7091
▁dama	-7092
▁igor	-7093
▁niži	-7094
▁okle	-7095
▁spla	-7096
▁amino	-7097
▁hipar	-7098
▁imeti	-7099
▁ognje	-7100
▁določi	-7101
▁grčiji	-7102
▁izgube	-7103
▁namera	-7104
▁rimska	-7105
▁rodovi	-7106
▁svinca	-7107
▁terori	-7108
▁množice	-7109
▁napadli	-7110
▁postaje	-7111
▁praznov	-7112
▁ravnote	-7113
▁boljševi	-7114
▁frankfur	-7115
▁postopku	-7116
▁vplivala	-7117
▁celotnega	-7118
▁naslednja	-7119
▁književnost	-7120
▁najpomembnejša	-7121
44	-7122
bral	-7123
kajš	-7124
▁god	-7125
▁kol	-7126
anjih	-7127
▁pokr	-7128
▁zatr	-7129
▁krivu	-7130
▁situa	-7131
▁stabi	-7132
▁arthur	-7133
▁kratek	-7134
▁mnenja	-7135
▁mohame	-7136
▁okolju	-7137
▁vremen	-7138
▁celoten	-7139
▁valižan	-7140
▁vrhovni	-7141
▁ameriško	-7142
▁artileri	-7143
▁prihodno	-7144
▁skandina	-7145
▁transport	-7146
▁naravoslov	-7147
▁spremenila	-7148
▁é	-7149
kod	-7150
kup	-7151
jezi	-7152
skal	-7153
šene	-7154
▁hun	-7155
▁one	-7156
▁vot	-7157
šenje	-7158
▁1948	-7159
▁1950	-7160
▁babi	-7161
▁hišo	-7162
▁kdaj	-7163
▁klub	-7164
▁vati	-7165
▁anato	-7166
▁bavar	-7167
▁dosti	-7168
▁himna	-7169
▁obdel	-7170
▁padel	-7171
▁pismo	-7172
▁prero	-7173
▁služb	-7174
▁unije	-7175
▁vloga	-7176
janskem	-7177
▁kovina	-7178
▁lastni	-7179
▁rusijo	-7180
▁tujini	-7181
▁pokriva	-7182
▁zasluge	-7183
▁ureditev	-7184
▁sodelovala	-7185
▁organizacijo	-7186
41	-7187
ap	-7188
dju	-7189
thi	-7190
tke	-7191
žek	-7192
lesa	-7193
teja	-7194
zeli	-7195
▁cik	-7196
▁pev	-7197
ovano	-7198
▁lega	-7199
▁nemi	-7200
▁upri	-7201
▁vlak	-7202
▁engel	-7203
▁krona	-7204
▁marie	-7205
▁priro	-7206
▁tlaka	-7207
▁aktivi	-7208
▁bistve	-7209
▁enakov	-7210
▁fizike	-7211
▁naroda	-7212
▁upravo	-7213
▁vesolja	-7214
▁asteroid	-7215
▁mariboru	-7216
▁vzhodnem	-7217
▁zahodnem	-7218
▁dokumenti	-7219
▁japonskem	-7220
▁arhitektura	-7221
zek	-7222
▁ag	-7223
neta	-7224
▁abu	-7225
▁cepi	-7226
▁kodi	-7227
▁sala	-7228
zirali	-7229
▁brazi	-7230
▁izumi	-7231
▁metri	-7232
▁preva	-7233
▁prire	-7234
▁atenta	-7235
▁dolino	-7236
▁stekle	-7237
▁strupe	-7238
▁ostanke	-7239
▁poljska	-7240
▁prejela	-7241
▁sledijo	-7242
▁operacij	-7243
▁mednarodnega	-7244
dem	-7245
iii	-7246
lik	-7247
sey	-7248
zin	-7249
zvo	-7250
▁52	-7251
dini	-7252
tner	-7253
toni	-7254
▁jla	-7255
▁obu	-7256
redna	-7257
talni	-7258
večen	-7259
▁gran	-7260
▁krog	-7261
▁poči	-7262
▁ribo	-7263
▁kraja	-7264
▁slavo	-7265
▁strmo	-7266
▁znaki	-7267
▁venezu	-7268
▁intelek	-7269
▁pridela	-7270
▁procesu	-7271
▁reforme	-7272
▁vatikan	-7273
▁znanost	-7274
▁notranji	-7275
▁politiki	-7276
▁sprejema	-7277
▁hercegovi	-7278
▁pozornost	-7279
▁razporedi	-7280
▁angleščini	-7281
▁italijanska	-7282
▁zgodovinske	-7283
61	-7284
mus	-7285
jose	-7286
žala	-7287
▁cir	-7288
▁miš	-7289
ževal	-7290
▁drži	-7291
▁črka	-7292
▁mlade	-7293
▁slabe	-7294
▁vodne	-7295
▁sedmih	-7296
▁takšno	-7297
▁zgodba	-7298
▁častni	-7299
▁odprave	-7300
▁posesti	-7301
▁splošni	-7302
▁verjame	-7303
▁zahteve	-7304
▁planetov	-7305
▁povezava	-7306
▁primerov	-7307
▁spomladi	-7308
▁vplivajo	-7309
▁dolžnosti	-7310
▁poskušali	-7311
▁povprečju	-7312
▁tradicijo	-7313
▁železnica	-7314
▁industriji	-7315
63	-7316
87	-7317
sz	-7318
dino	-7319
kita	-7320
ralo	-7321
▁ani	-7322
▁dnk	-7323
▁mai	-7324
▁whi	-7325
▁čre	-7326
▁dvor	-7327
▁raje	-7328
▁vple	-7329
▁črko	-7330
▁tečaj	-7331
▁dogovo	-7332
▁dokazi	-7333
▁indije	-7334
▁jordan	-7335
▁ločimo	-7336
▁njenem	-7337
▁nobene	-7338
▁očitno	-7339
▁sateli	-7340
▁sultan	-7341
▁uničil	-7342
▁arabski	-7343
▁narodne	-7344
▁ponekod	-7345
▁preobra	-7346
▁rojstva	-7347
▁satelit	-7348
▁templja	-7349
▁ustvari	-7350
▁velikim	-7351
▁wilhelm	-7352
▁delovala	-7353
▁duhovnik	-7354
▁objektov	-7355
▁avtomobil	-7356
▁preselila	-7357
▁svetovnih	-7358
az	-7359
sp	-7360
2),	-7361
▁dnu	-7362
▁paj	-7363
▁baza	-7364
▁bogu	-7365
▁cari	-7366
▁hiši	-7367
▁iger	-7368
▁loči	-7369
▁mino	-7370
▁ubil	-7371
▁homer	-7372
▁kisik	-7373
▁micha	-7374
▁narod	-7375
▁nedel	-7376
▁tiska	-7377
▁vloge	-7378
▁zlati	-7379
▁janeza	-7380
▁metodo	-7381
▁aktivno	-7382
▁denarja	-7383
▁pogojih	-7384
▁zdravil	-7385
▁odpravil	-7386
▁polotoku	-7387
▁sprejela	-7388
▁izvajanje	-7389
▁aleksandri	-7390
▁univerzite	-7391
▁številnimi	-7392
▁življenjsko	-7393
ose	-7394
cker	-7395
ctor	-7396
vani	-7397
▁dim	-7398
▁duh	-7399
▁sco	-7400
slova	-7401
tični	-7402
▁1938	-7403
▁plem	-7404
▁veja	-7405
torija	-7406
▁dober	-7407
▁obseg	-7408
▁pozno	-7409
▁virih	-7410
landija	-7411
▁takšna	-7412
▁znanja	-7413
▁podežel	-7414
▁ruskega	-7415
▁upravno	-7416
▁španija	-7417
▁dolžnost	-7418
▁japonska	-7419
▁položaje	-7420
▁ponavlja	-7421
▁generalov	-7422
▁porazdeli	-7423
▁priznanje	-7424
▁standardi	-7425
▁kmetijstvo	-7426
▁etimologija	-7427
ml	-7428
cht	-7429
ira	-7430
pod	-7431
cque	-7432
ning	-7433
▁ata	-7434
▁poš	-7435
▁que	-7436
▁spu	-7437
mentu	-7438
nicah	-7439
nosil	-7440
▁1969	-7441
▁arte	-7442
▁krov	-7443
▁sinu	-7444
▁atene	-7445
▁celic	-7446
▁green	-7447
▁ideja	-7448
▁10.000	-7449
▁domini	-7450
▁meščan	-7451
▁skupna	-7452
▁vrnila	-7453
▁dioksid	-7454
▁lokalne	-7455
▁velikan	-7456
▁volitve	-7457
▁vstopil	-7458
▁zdravje	-7459
▁naselili	-7460
▁sprejeta	-7461
▁metropoli	-7462
46	-7463
81	-7464
_3	-7465
dhi	-7466
jme	-7467
nka	-7468
▁%,	-7469
▁55	-7470
cali	-7471
dine	-7472
stor	-7473
tova	-7474
▁dou	-7475
▁hay	-7476
▁mol	-7477
▁1946	-7478
▁2015	-7479
▁doga	-7480
▁goro	-7481
▁kame	-7482
▁nebu	-7483
▁ptic	-7484
▁tank	-7485
▁vrti	-7486
navlja	-7487
▁haiti	-7488
▁jurij	-7489
▁pisma	-7490
▁slede	-7491
▁tetra	-7492
▁želez	-7493
▁mrtvih	-7494
▁odprto	-7495
▁surovi	-7496
▁vseeno	-7497
▁določil	-7498
▁ogromno	-7499
▁planeta	-7500
▁veljajo	-7501
▁domobran	-7502
▁nastanku	-7503
▁osebnost	-7504
▁uveljavlja	-7505
cs	-7506
2).	-7507
cro	-7508
nev	-7509
bach	-7510
cien	-7511
dile	-7512
gate	-7513
vamo	-7514
▁lai	-7515
▁rit	-7516
▁1914	-7517
▁1970	-7518
▁jedi	-7519
▁modu	-7520
▁plez	-7521
povedi	-7522
▁apnen	-7523
▁baker	-7524
▁odplu	-7525
▁piani	-7526
▁primo	-7527
▁zavra	-7528
▁henrik	-7529
▁krožni	-7530
▁moramo	-7531
▁pisave	-7532
▁celotni	-7533
▁osebnih	-7534
▁družbene	-7535
▁nadzorom	-7536
▁svetloba	-7537
▁intelektu	-7538
▁zaporedje	-7539
▁prisotnost	-7540
▁republikan	-7541
▁znanstvene	-7542
▁prestolnico	-7543
▁priljubljen	-7544
▁priljubljena	-7545
dam	-7546
pto	-7547
zes	-7548
gala	-7549
malo	-7550
nata	-7551
stel	-7552
vidu	-7553
çois	-7554
▁800	-7555
▁tja	-7556
▁uka	-7557
▁zli	-7558
dnike	-7559
jeval	-7560
▁este	-7561
▁fede	-7562
▁list	-7563
joseph	-7564
▁drevo	-7565
▁eliza	-7566
▁koali	-7567
▁likov	-7568
▁meteo	-7569
▁obala	-7570
▁očetu	-7571
▁stali	-7572
▁puščav	-7573
▁zaliva	-7574
▁prestop	-7575
▁začasno	-7576
▁špansko	-7577
▁egipčani	-7578
▁magnetno	-7579
▁reakcija	-7580
▁spodnjem	-7581
▁sredstev	-7582
▁izkorišča	-7583
▁letalskih	-7584
▁notranjost	-7585
▁svetovnega	-7586
▁ljubljanski	-7587
▁pridobivanje	-7588
.[	-7589
sr	-7590
**†	-7591
meta	-7592
▁250	-7593
▁ele	-7594
▁poi	-7595
▁wor	-7596
▁zid	-7597
▁zre	-7598
▁1921	-7599
▁1979	-7600
▁ehna	-7601
▁mega	-7602
▁odob	-7603
▁oper	-7604
▁saha	-7605
▁slap	-7606
▁arkti	-7607
▁nespo	-7608
▁oprav	-7609
▁redke	-7610
▁alfred	-7611
▁bojnih	-7612
▁najbli	-7613
▁načela	-7614
▁članek	-7615
▁lokalni	-7616
▁sredine	-7617
▁vplival	-7618
▁britanci	-7619
▁kompleks	-7620
▁polovica	-7621
▁razdalje	-7622
▁človeške	-7623
▁jugovzhodu	-7624
▁obveščeval	-7625
▁gospodarski	-7626
▁vzdrževanje	-7627
▁ustanovljeno	-7628
ón	-7629
▁—	-7630
ire	-7631
▁ph	-7632
brov	-7633
gnil	-7634
žnem	-7635
▁pač	-7636
▁uda	-7637
sedno	-7638
▁1949	-7639
▁agre	-7640
▁asir	-7641
▁lege	-7642
▁spor	-7643
▁škod	-7644
▁bakra	-7645
▁evolu	-7646
▁izgna	-7647
▁neptu	-7648
▁obrni	-7649
▁povel	-7650
▁priva	-7651
▁reagi	-7652
▁skrom	-7653
▁video	-7654
▁zadol	-7655
goritem	-7656
▁bogato	-7657
▁fronte	-7658
▁krajih	-7659
▁spodaj	-7660
▁vodnih	-7661
▁štajer	-7662
▁algorit	-7663
▁dejanje	-7664
▁poslika	-7665
▁prehaja	-7666
▁preneha	-7667
▁režiser	-7668
▁tamkajš	-7669
▁francozi	-7670
▁izgubila	-7671
▁pripoved	-7672
▁ferdinand	-7673
▁teroristi	-7674
▁tisočletja	-7675
ffe	-7676
fla	-7677
ori	-7678
ram	-7679
tija	-7680
čana	-7681
stijo	-7682
▁lako	-7683
▁luna	-7684
▁osla	-7685
▁priv	-7686
▁sedi	-7687
▁irska	-7688
▁javni	-7689
▁nevih	-7690
▁pridi	-7691
▁sliko	-7692
▁turki	-7693
▁ultra	-7694
▁izjemo	-7695
▁morebi	-7696
▁pogoji	-7697
▁spopad	-7698
▁zagreb	-7699
▁celotna	-7700
▁gozdovi	-7701
▁prevzem	-7702
▁merjenje	-7703
▁sekundar	-7704
▁sestavni	-7705
▁odločitev	-7706
▁omogočila	-7707
▁francoskih	-7708
▁najboljših	-7709
▁razpravlja	-7710
▁razširjena	-7711
▁washington	-7712
▁astronomije	-7713
fom	-7714
gin	-7715
gue	-7716
tet	-7717
▁un	-7718
kani	-7719
ovom	-7720
ozna	-7721
▁ren	-7722
▁2018	-7723
▁bali	-7724
▁boli	-7725
▁ledu	-7726
▁leon	-7727
▁muzi	-7728
▁neki	-7729
predse	-7730
▁azijo	-7731
grafijo	-7732
▁arnold	-7733
▁izhodi	-7734
▁meseca	-7735
▁oprema	-7736
▁redkih	-7737
▁želeli	-7738
▁elizabe	-7739
▁poljske	-7740
▁mladosti	-7741
▁religija	-7742
▁trgovine	-7743
▁univerzo	-7744
▁italijani	-7745
▁povzročil	-7746
▁tradicije	-7747
▁revolucija	-7748
▁slovenščini	-7749
39	-7750
sob	-7751
ura	-7752
zej	-7753
▁1/	-7754
pina	-7755
▁600	-7756
▁sou	-7757
razli	-7758
▁1922	-7759
▁kilo	-7760
▁main	-7761
sistem	-7762
▁avtoh	-7763
▁kanal	-7764
▁misel	-7765
▁nukle	-7766
▁preve	-7767
▁diaman	-7768
▁drugod	-7769
▁franca	-7770
▁moskov	-7771
▁napadi	-7772
▁viktor	-7773
▁dogodki	-7774
▁partije	-7775
▁pristoj	-7776
▁takšnih	-7777
▁vesolje	-7778
▁večjega	-7779
▁zakonom	-7780
▁zamisel	-7781
▁španije	-7782
▁ohranila	-7783
▁trenutku	-7784
▁materiali	-7785
▁raznoliko	-7786
▁poimenovanje	-7787
ae	-7788
dé	-7789
bom	-7790
cki	-7791
sod	-7792
ugh	-7793
šli	-7794
koni	-7795
ščin	-7796
▁war	-7797
plika	-7798
▁dala	-7799
▁eska	-7800
▁nati	-7801
▁navo	-7802
▁naše	-7803
▁okta	-7804
▁ribe	-7805
▁taka	-7806
▁ugle	-7807
▁datum	-7808
▁dejal	-7809
▁gruzi	-7810
▁puška	-7811
▁urana	-7812
▁zbora	-7813
▁zmagi	-7814
▁oznako	-7815
▁revije	-7816
▁christi	-7817
▁kulturi	-7818
▁palesti	-7819
▁referen	-7820
▁svobodo	-7821
▁kraljeva	-7822
▁mitralje	-7823
▁podobnih	-7824
▁povečala	-7825
▁slovenci	-7826
▁poveljeval	-7827
▁komunistične	-7828
▁predstavljal	-7829
ux	-7830
hor	-7831
lum	-7832
gije	-7833
obla	-7834
pole	-7835
▁pon	-7836
lnost	-7837
slika	-7838
▁1960	-7839
▁aloj	-7840
▁kola	-7841
▁snem	-7842
▁trdo	-7843
▁žrtv	-7844
ljenci	-7845
znosti	-7846
čevati	-7847
▁koper	-7848
▁menja	-7849
▁minut	-7850
▁preti	-7851
naciona	-7852
▁akadem	-7853
▁deželi	-7854
▁otočje	-7855
▁razlik	-7856
▁zbirko	-7857
▁dopolni	-7858
▁oklepno	-7859
▁partner	-7860
▁poljski	-7861
▁sodobna	-7862
▁formalno	-7863
▁posvečen	-7864
▁povečalo	-7865
▁vladarji	-7866
▁zanimanje	-7867
▁poimenoval	-7868
▁sodelovali	-7869
▁učinkovito	-7870
▁političnega	-7871
▁zdravljenje	-7872
▁konstantinopel	-7873
78	-7874
sc	-7875
]].	-7876
▁(,	-7877
beli	-7878
dena	-7879
dita	-7880
▁den	-7881
▁2017	-7882
▁gnez	-7883
▁gren	-7884
▁igro	-7885
▁kode	-7886
▁navi	-7887
▁zača	-7888
dujejo	-7889
jočega	-7890
osvobo	-7891
▁bitke	-7892
▁dušik	-7893
▁imamo	-7894
▁izoli	-7895
▁nakaz	-7896
▁posmr	-7897
▁prela	-7898
▁stene	-7899
▁cerkva	-7900
▁gotovo	-7901
▁pobudo	-7902
▁ustavo	-7903
▁zakonu	-7904
presioni	-7905
▁aminoki	-7906
▁anglijo	-7907
▁asteroi	-7908
▁bližnji	-7909
▁izmenja	-7910
▁ohranil	-7911
▁potekal	-7912
▁pravimo	-7913
▁srednjo	-7914
▁dandanes	-7915
▁molekula	-7916
▁poučeval	-7917
▁prinesla	-7918
▁pritlika	-7919
▁sarajevo	-7920
▁šahovski	-7921
▁načelnika	-7922
▁neodvisna	-7923
▁aktivnosti	-7924
▁elektromagne	-7925
▁italijanskih	-7926
ted	-7927
▁(15	-7928
▁umo	-7929
ditve	-7930
jevim	-7931
kuren	-7932
činah	-7933
▁1975	-7934
▁1980	-7935
▁200.	-7936
▁brah	-7937
▁take	-7938
▁štab	-7939
▁brati	-7940
▁menil	-7941
▁mobil	-7942
▁mogli	-7943
▁paten	-7944
▁zvoka	-7945
▁christ	-7946
▁fiziki	-7947
▁ljudmi	-7948
▁oznake	-7949
▁velepo	-7950
▁zmagal	-7951
▁zračne	-7952
▁dolžini	-7953
▁patriar	-7954
▁izvirajo	-7955
▁objavlja	-7956
▁ogljikov	-7957
▁številke	-7958
▁odstranje	-7959
▁nevarnosti	-7960
▁priložnost	-7961
bol	-7962
sha	-7963
tmo	-7964
yja	-7965
žba	-7966
loga	-7967
mona	-7968
stin	-7969
grada	-7970
poved	-7971
čanov	-7972
▁1953	-7973
▁idri	-7974
▁mere	-7975
▁razc	-7976
rednja	-7977
▁kneže	-7978
▁kozmo	-7979
▁našte	-7980
▁petro	-7981
▁razve	-7982
▁temno	-7983
▁vlogi	-7984
servati	-7985
▁doktri	-7986
▁gaulle	-7987
▁herman	-7988
▁naklju	-7989
▁obsegu	-7990
▁odnose	-7991
▁premer	-7992
▁rudolf	-7993
▁verski	-7994
▁vidimo	-7995
▁vodilo	-7996
▁zalivu	-7997
▁zapiše	-7998
▁zvezna	-7999
▁škofov	-8000
▁absorbi	-8001
▁prenese	-8002
▁profeso	-8003
▁grobnice	-8004
▁klasični	-8005
▁latinsko	-8006
▁zakonoda	-8007
▁algoritem	-8008
▁francoska	-8009
▁proizvede	-8010
▁informacij	-8011
▁kvadratnih	-8012
▁nacionalne	-8013
▁parlamenta	-8014
▁britanskega	-8015
▁državljanske	-8016
▁raziskovalci	-8017
76	-8018
ов	-8019
gio	-8020
mat	-8021
sur	-8022
uss	-8023
▁5,	-8024
▁az	-8025
▁ig	-8026
▁op	-8027
dane	-8028
giba	-8029
kola	-8030
pana	-8031
sani	-8032
▁rav	-8033
▁ske	-8034
▁vek	-8035
tanka	-8036
čnica	-8037
▁1968	-8038
▁afro	-8039
▁bori	-8040
▁tone	-8041
▁areti	-8042
▁desan	-8043
▁marja	-8044
▁proga	-8045
▁tanki	-8046
čevanju	-8047
▁beloru	-8048
▁enačbo	-8049
▁kaplje	-8050
▁mladih	-8051
▁višina	-8052
▁vpisal	-8053
▁zahoda	-8054
▁100.000	-8055
▁dokazov	-8056
▁kolumbi	-8057
▁koncert	-8058
▁pričela	-8059
▁skladbe	-8060
▁izgubili	-8061
▁zgrajene	-8062
▁potrebuje	-8063
▁severnega	-8064
▁svetovnem	-8065
▁taborišče	-8066
▁desetletjih	-8067
▁najstarejša	-8068
▁znanstvenih	-8069
mm	-8070
té	-8071
ant	-8072
rod	-8073
geni	-8074
zele	-8075
šitev	-8076
▁1958	-8077
▁2016	-8078
▁chur	-8079
▁konj	-8080
▁odso	-8081
▁opus	-8082
▁zale	-8083
ščenih	-8084
▁desno	-8085
▁korak	-8086
▁otoke	-8087
▁turni	-8088
▁višav	-8089
▁bistvu	-8090
▁denimo	-8091
▁evange	-8092
▁goriva	-8093
▁izdala	-8094
▁kerami	-8095
▁milano	-8096
▁nosijo	-8097
▁premik	-8098
▁zračni	-8099
▁berlinu	-8100
▁južnega	-8101
▁lokalno	-8102
▁površin	-8103
▁predeli	-8104
▁sledili	-8105
▁sprejme	-8106
▁zavzema	-8107
▁bližnjem	-8108
▁direktor	-8109
▁standard	-8110
▁trgovino	-8111
▁vladarja	-8112
▁obstajala	-8113
▁problemov	-8114
▁matematiko	-8115
▁nadaljevala	-8116
▁strokovnjaki	-8117
▁statističnega	-8118
pg	-8119
džu	-8120
fos	-8121
▁160	-8122
▁202	-8123
▁bdp	-8124
▁hče	-8125
▁via	-8126
▁čaj	-8127
jšimi	-8128
merna	-8129
ovani	-8130
▁disk	-8131
▁leve	-8132
▁ples	-8133
▁pris	-8134
▁samu	-8135
▁veda	-8136
▁vrne	-8137
metrov	-8138
▁kosti	-8139
▁plini	-8140
▁takih	-8141
elektra	-8142
glasnik	-8143
▁gledal	-8144
▁kralju	-8145
▁predel	-8146
▁zastru	-8147
▁črnega	-8148
▁živega	-8149
▁abraham	-8150
▁kraljem	-8151
▁poskusi	-8152
▁vrhunec	-8153
▁vzhodna	-8154
▁zaposle	-8155
▁navajajo	-8156
▁pokazala	-8157
▁milijarde	-8158
▁omogočilo	-8159
▁jezikoslov	-8160
▁materialov	-8161
▁mezopotami	-8162
▁prijatelji	-8163
▁sodelovanju	-8164
▁književnosti	-8165
33	-8166
49	-8167
89	-8168
gy	-8169
anu	-8170
sum	-8171
▁49	-8172
▁et	-8173
dese	-8174
novr	-8175
tini	-8176
▁cur	-8177
▁ero	-8178
▁mot	-8179
stana	-8180
telju	-8181
torat	-8182
valen	-8183
▁najo	-8184
▁pana	-8185
▁trga	-8186
stnega	-8187
tujejo	-8188
▁bojni	-8189
▁colle	-8190
▁galen	-8191
▁hiero	-8192
▁igrah	-8193
▁rahlo	-8194
▁vetra	-8195
▁vozil	-8196
▁afgani	-8197
▁bankov	-8198
▁german	-8199
▁helena	-8200
▁izobli	-8201
▁prevoz	-8202
▁smučar	-8203
▁steklo	-8204
▁zavzel	-8205
▁delavni	-8206
▁dosežke	-8207
▁pehotna	-8208
▁pristop	-8209
▁sarajev	-8210
▁splošna	-8211
▁vodenje	-8212
▁začetni	-8213
▁družbeno	-8214
▁njihovem	-8215
▁alternati	-8216
▁muslimani	-8217
▁povzročajo	-8218
▁olimpijskih	-8219
▁tradicionalni	-8220
4),	-8221
ano	-8222
jce	-8223
rol	-8224
▁7,	-8225
▁gö	-8226
dvaj	-8227
slin	-8228
titi	-8229
vica	-8230
▁kaz	-8231
5.000	-8232
▁1500	-8233
▁enim	-8234
▁jaro	-8235
kujejo	-8236
ogrska	-8237
▁dekla	-8238
▁delci	-8239
▁hitri	-8240
▁irske	-8241
▁zopet	-8242
zgodovi	-8243
▁dodeli	-8244
▁ekstre	-8245
▁hčerko	-8246
▁narodi	-8247
▁romana	-8248
▁tokrat	-8249
▁ustave	-8250
▁hermann	-8251
▁milijon	-8252
▁naprava	-8253
▁oddelka	-8254
▁raznovr	-8255
▁simetri	-8256
▁temelje	-8257
▁vesolju	-8258
▁študije	-8259
▁avtomobi	-8260
▁domnevno	-8261
▁pojavile	-8262
▁reprezen	-8263
▁značilne	-8264
▁besedilih	-8265
▁kulturnih	-8266
▁ugotavlja	-8267
▁mornariške	-8268
▁naslednika	-8269
▁prevladuje	-8270
▁predstavljala	-8271
dge	-8272
enj	-8273
šol	-8274
tlej	-8275
▁ano	-8276
▁nez	-8277
▁ola	-8278
▁pož	-8279
▁shi	-8280
▁uri	-8281
▁ved	-8282
ljice	-8283
▁1961	-8284
▁3000	-8285
▁alpi	-8286
▁barv	-8287
▁dalí	-8288
▁meso	-8289
▁vege	-8290
▁vina	-8291
franco	-8292
▁barba	-8293
▁dekle	-8294
▁ivana	-8295
▁opozi	-8296
▁pogon	-8297
▁sulta	-8298
▁takso	-8299
▁čisti	-8300
▁izjema	-8301
▁manjšo	-8302
▁zgodbo	-8303
▁dejanja	-8304
▁kariero	-8305
▁obstoja	-8306
▁porekla	-8307
▁pravijo	-8308
▁urednik	-8309
▁festival	-8310
▁medicine	-8311
▁podjetij	-8312
▁pomočnik	-8313
▁prinesel	-8314
▁pritiska	-8315
▁britanija	-8316
▁imenovala	-8317
▁preživlja	-8318
▁različico	-8319
▁avstrijski	-8320
▁civilizacije	-8321
▁raziskovanje	-8322
,"	-8323
26	-8324
ár	-8325
lop	-8326
sij	-8327
▁51	-8328
anti	-8329
lesu	-8330
mera	-8331
pisi	-8332
valu	-8333
vile	-8334
▁bis	-8335
▁gol	-8336
▁lok	-8337
▁tom	-8338
▁tve	-8339
▁1967	-8340
▁king	-8341
▁milo	-8342
▁naju	-8343
▁oplo	-8344
▁zati	-8345
▁zmog	-8346
▁harry	-8347
▁klino	-8348
▁recep	-8349
▁izliva	-8350
▁izmeri	-8351
▁korpus	-8352
▁palače	-8353
▁vidika	-8354
▁višjih	-8355
▁vojnih	-8356
▁zvezni	-8357
▁gibanju	-8358
▁moderne	-8359
▁plemeni	-8360
▁rojstvu	-8361
▁scenari	-8362
▁zgradbo	-8363
▁raziskav	-8364
▁perzijski	-8365
▁nacionalni	-8366
▁poveljstva	-8367
▁uveljavilo	-8368
▁uveljavlje	-8369
▁oblikovanje	-8370
▁pristanišča	-8371
▁ustanovitvi	-8372
▁ustvarjanje	-8373
▁neodvisnosti	-8374
dos	-8375
ise	-8376
kat	-8377
deno	-8378
obra	-8379
sled	-8380
▁hil	-8381
▁pse	-8382
hodna	-8383
klope	-8384
steme	-8385
zator	-8386
šnici	-8387
▁faza	-8388
▁mašč	-8389
▁wolf	-8390
ljenju	-8391
teljem	-8392
zirane	-8393
▁jožef	-8394
▁judje	-8395
▁polni	-8396
▁pomni	-8397
▁preba	-8398
▁razpr	-8399
kratica	-8400
ševanje	-8401
▁fronti	-8402
▁ležijo	-8403
▁pogaja	-8404
▁ponovi	-8405
▁potopi	-8406
▁starem	-8407
▁vodika	-8408
čevanjem	-8409
▁dokazal	-8410
▁ljudska	-8411
▁potrdil	-8412
▁prevede	-8413
▁reaktor	-8414
▁sodišča	-8415
▁zastopa	-8416
▁kraljevo	-8417
▁nastopil	-8418
▁zahodnih	-8419
▁ameriškega	-8420
▁francoskega	-8421
ces	-8422
cle	-8423
dae	-8424
dvo	-8425
fat	-8426
hote	-8427
▁140	-8428
▁fon	-8429
▁pig	-8430
▁pše	-8431
▁šel	-8432
▁1933	-8433
▁erne	-8434
▁glad	-8435
▁mary	-8436
▁obar	-8437
▁odpi	-8438
janjem	-8439
▁bojih	-8440
▁heroj	-8441
▁marsi	-8442
▁padla	-8443
▁večer	-8444
▁zakla	-8445
▁širok	-8446
▁federa	-8447
▁fiziko	-8448
▁načine	-8449
▁regijo	-8450
▁skupne	-8451
▁sodijo	-8452
▁ujetni	-8453
▁vojake	-8454
▁zadnjo	-8455
▁frederi	-8456
▁sevanja	-8457
▁seznamu	-8458
▁izvajajo	-8459
▁jedrskih	-8460
▁pojavijo	-8461
▁polprevo	-8462
▁razpolov	-8463
▁stanovan	-8464
▁umetniki	-8465
▁zračnega	-8466
▁britaniji	-8467
▁potovanja	-8468
▁predmetov	-8469
▁ugotovili	-8470
▁sposobnost	-8471
▁kompozicije	-8472
▁ministrstva	-8473
▁!	-8474
celi	-8475
dove	-8476
zali	-8477
šila	-8478
▁kup	-8479
▁lau	-8480
▁vpa	-8481
▁zvi	-8482
▁šah	-8483
bojno	-8484
dorja	-8485
▁1935	-8486
▁bral	-8487
▁difu	-8488
▁izpi	-8489
▁nose	-8490
jansko	-8491
▁bojno	-8492
▁cesti	-8493
▁javne	-8494
▁razne	-8495
▁tople	-8496
▁dnevni	-8497
▁izgnan	-8498
▁mnenje	-8499
▁moremo	-8500
▁načina	-8501
▁poslab	-8502
▁poznan	-8503
▁uprava	-8504
▁dogovor	-8505
▁obzidja	-8506
▁odprava	-8507
▁pregled	-8508
▁katastro	-8509
▁klasične	-8510
▁množično	-8511
▁nepravil	-8512
▁osvojili	-8513
▁pojavili	-8514
▁pridruži	-8515
▁razmerja	-8516
▁zamenjal	-8517
▁zmagoval	-8518
▁enostavno	-8519
▁nadomesti	-8520
▁narodnega	-8521
▁pisatelja	-8522
▁prvenstvo	-8523
▁neposredni	-8524
▁opazovanja	-8525
▁postavljen	-8526
▁bizantinsko	-8527
71	-8528
72	-8529
ia	-8530
dec	-8531
fov	-8532
tam	-8533
und	-8534
vki	-8535
čile	-8536
▁stu	-8537
▁trp	-8538
benha	-8539
letal	-8540
lnika	-8541
rišče	-8542
ženih	-8543
▁1930	-8544
▁1988	-8545
▁cele	-8546
▁feni	-8547
▁ideo	-8548
▁kave	-8549
▁mene	-8550
▁meni	-8551
▁moza	-8552
politi	-8553
▁bitja	-8554
▁boril	-8555
▁gluko	-8556
▁jolie	-8557
▁modre	-8558
▁najdi	-8559
▁ostri	-8560
▁pisar	-8561
▁podal	-8562
▁razte	-8563
▁ugled	-8564
▁afriko	-8565
▁ludvik	-8566
▁matere	-8567
▁morejo	-8568
▁motivi	-8569
▁obdaja	-8570
▁pridob	-8571
▁arabsko	-8572
▁dogodke	-8573
▁grškega	-8574
▁izpolni	-8575
▁koncept	-8576
▁narodna	-8577
▁odrasli	-8578
▁sprožil	-8579
▁starost	-8580
▁trgovci	-8581
▁veteran	-8582
▁vodstvo	-8583
▁zahodna	-8584
▁omogočil	-8585
▁sodeluje	-8586
▁širjenje	-8587
▁starejših	-8588
▁industrijo	-8589
ww	-8590
vim	-8591
žbo	-8592
000.	-8593
jšim	-8594
kalo	-8595
peri	-8596
▁čar	-8597
▁žan	-8598
▁1929	-8599
▁1985	-8600
▁carl	-8601
▁izve	-8602
▁paki	-8603
▁veje	-8604
centri	-8605
larnih	-8606
▁ekipa	-8607
▁enačb	-8608
▁komaj	-8609
▁pomla	-8610
▁rokah	-8611
▁sreča	-8612
▁zakaj	-8613
▁cankar	-8614
▁centri	-8615
▁faraon	-8616
▁odnosi	-8617
▁platon	-8618
▁porazu	-8619
▁sestra	-8620
▁stalni	-8621
▁zgodil	-8622
▁živela	-8623
fikacije	-8624
▁doktori	-8625
▁ljudsko	-8626
▁obratno	-8627
▁odkrila	-8628
▁določeni	-8629
▁izkazalo	-8630
▁komisija	-8631
▁predstoj	-8632
▁religije	-8633
▁britanije	-8634
▁knjižnica	-8635
▁vzporedno	-8636
▁filozofijo	-8637
▁letalonosil	-8638
▁organizacij	-8639
zmi	-8640
▁85	-8641
▁kö	-8642
razi	-8643
rnim	-8644
tiko	-8645
voja	-8646
▁sma	-8647
▁zob	-8648
▁šlo	-8649
letna	-8650
sinte	-8651
▁1928	-8652
▁datu	-8653
▁kori	-8654
▁lovi	-8655
▁čelu	-8656
dablja	-8657
vladal	-8658
▁antio	-8659
▁bojan	-8660
▁karto	-8661
▁komor	-8662
▁krila	-8663
▁loren	-8664
▁padcu	-8665
▁ptice	-8666
▁samou	-8667
▁trdno	-8668
▁trstu	-8669
▁žrtve	-8670
ževanje	-8671
▁bogata	-8672
▁naboja	-8673
▁odprta	-8674
▁osnovo	-8675
▁sloves	-8676
▁strogo	-8677
--------	-8678
▁diferen	-8679
▁gradnji	-8680
▁kariera	-8681
▁pogodba	-8682
▁razpadu	-8683
▁sestavo	-8684
▁friderik	-8685
▁komandan	-8686
▁povezavi	-8687
▁tretjega	-8688
▁udeležen	-8689
▁galaksije	-8690
▁generalšta	-8691
▁najstarejše	-8692
▁tradicionalne	-8693
▁usposabljanje	-8694
▁tradicionalnih	-8695
31	-8696
79	-8697
86	-8698
ek	-8699
-20	-8700
fin	-8701
mne	-8702
oti	-8703
«).	-8704
▁64	-8705
wski	-8706
▁%),	-8707
▁bin	-8708
▁ire	-8709
▁kai	-8710
▁pun	-8711
jnega	-8712
klasi	-8713
▁1915	-8714
▁hudi	-8715
▁josé	-8716
▁kapa	-8717
▁ugan	-8718
ščenja	-8719
▁harmo	-8720
▁konji	-8721
▁nevro	-8722
▁pogan	-8723
▁prije	-8724
▁samem	-8725
▁videz	-8726
▁brezpo	-8727
▁celine	-8728
▁fronta	-8729
▁humani	-8730
▁morsko	-8731
▁philip	-8732
▁prične	-8733
▁ustvar	-8734
▁uvedli	-8735
▁verjel	-8736
▁analiza	-8737
▁gostote	-8738
▁morskih	-8739
▁obsežno	-8740
▁razpada	-8741
▁toploto	-8742
▁lokalnih	-8743
▁orkestra	-8744
▁osrednja	-8745
▁razdalja	-8746
▁varnosti	-8747
▁kakovosti	-8748
▁britanskih	-8749
▁informacije	-8750
▁jugoslavijo	-8751
▁podrobnosti	-8752
▁pomanjkanje	-8753
lp	-8754
zy	-8755
eva	-8756
fil	-8757
los	-8758
moj	-8759
zbe	-8760
▁io	-8761
nard	-8762
▁isa	-8763
▁rep	-8764
▁vii	-8765
dstvo	-8766
scher	-8767
šnice	-8768
▁1973	-8769
▁1974	-8770
▁1986	-8771
▁odve	-8772
▁seme	-8773
nemško	-8774
▁alban	-8775
▁fanta	-8776
▁metod	-8777
▁simon	-8778
▁smith	-8779
▁vsake	-8780
▁vstop	-8781
▁vzpon	-8782
dovanja	-8783
▁bratov	-8784
▁hiparh	-8785
▁menijo	-8786
▁moskvi	-8787
▁muzeju	-8788
▁pogost	-8789
▁pretok	-8790
ljevanje	-8791
▁domneva	-8792
▁avstrija	-8793
▁kolonija	-8794
▁komisije	-8795
▁konkuren	-8796
▁takratni	-8797
▁velikimi	-8798
▁človeški	-8799
▁kristjani	-8800
▁nadaljnje	-8801
▁nevarnost	-8802
▁sodobnega	-8803
▁gospodarska	-8804
▁temperaturah	-8805
gib	-8806
hka	-8807
rhi	-8808
rut	-8809
sus	-8810
▁ea	-8811
mand	-8812
čejo	-8813
šnik	-8814
▁175	-8815
▁kil	-8816
▁los	-8817
denja	-8818
nitev	-8819
rusko	-8820
stanu	-8821
▁1964	-8822
▁1971	-8823
▁1976	-8824
▁alfa	-8825
▁cene	-8826
▁izčr	-8827
▁pobi	-8828
sopran	-8829
▁odbor	-8830
▁indone	-8831
▁najmla	-8832
▁plazil	-8833
▁zbirke	-8834
▁komisar	-8835
▁potomci	-8836
▁rešitve	-8837
▁sledilo	-8838
▁umaknil	-8839
▁vsebina	-8840
▁galaksij	-8841
▁sistemom	-8842
▁krščanske	-8843
!"	-8844
-9	-8845
ab	-8846
vk	-8847
▁53	-8848
▁kp	-8849
▁vu	-8850
dore	-8851
ngen	-8852
stja	-8853
▁gua	-8854
▁mas	-8855
snimi	-8856
strel	-8857
strov	-8858
▁1947	-8859
▁1962	-8860
▁1984	-8861
▁buda	-8862
▁koda	-8863
▁okus	-8864
▁trav	-8865
ogrske	-8866
▁idejo	-8867
▁novim	-8868
▁zmage	-8869
peljali	-8870
▁apolon	-8871
▁indija	-8872
▁jezeru	-8873
▁modeli	-8874
▁polmer	-8875
▁stebri	-8876
▁unesco	-8877
▁štetja	-8878
▁nagrada	-8879
▁naravna	-8880
▁obsežne	-8881
▁prevlad	-8882
▁toplota	-8883
▁človeku	-8884
▁beogradu	-8885
▁dvanajst	-8886
▁potekajo	-8887
▁pretvori	-8888
▁utemelji	-8889
▁zadnjega	-8890
▁aluminija	-8891
▁ljubljano	-8892
▁operacijo	-8893
▁pripadnik	-8894
▁definicija	-8895
▁konvencija	-8896
▁revoluciji	-8897
▁transforma	-8898
▁najstarejših	-8899
▁koncentracije	-8900
bb	-8901
pho	-8902
cent	-8903
dejo	-8904
manu	-8905
peti	-8906
pijo	-8907
skrb	-8908
tica	-8909
tnaj	-8910
wood	-8911
▁roy	-8912
▁vne	-8913
▁1983	-8914
▁bron	-8915
▁izpu	-8916
▁jaco	-8917
▁lisi	-8918
▁real	-8919
▁west	-8920
▁atoma	-8921
▁moške	-8922
▁nasel	-8923
▁navpi	-8924
▁oksid	-8925
▁ruska	-8926
▁teden	-8927
ljenjem	-8928
▁anarhi	-8929
▁deseti	-8930
▁domače	-8931
▁družin	-8932
▁prelom	-8933
▁uprave	-8934
▁veljal	-8935
▁vojnah	-8936
▁hrvaška	-8937
▁nosilci	-8938
▁potoval	-8939
▁površje	-8940
▁znanega	-8941
▁arabskih	-8942
▁japonsko	-8943
▁ohranili	-8944
▁osmansko	-8945
▁zapisano	-8946
▁zasnoval	-8947
▁mornarica	-8948
▁opisujejo	-8949
▁pokrajini	-8950
▁evropskega	-8951
▁laboratori	-8952
▁mitologije	-8953
▁samostojna	-8954
▁človeškega	-8955
▁sodelovanja	-8956
83	-8957
iv	-8958
▁́	-8959
dej	-8960
pno	-8961
▁tv	-8962
cala	-8963
drav	-8964
slan	-8965
▁bul	-8966
▁col	-8967
▁upi	-8968
▁vle	-8969
cioni	-8970
louis	-8971
valec	-8972
▁1987	-8973
▁2019	-8974
▁corn	-8975
▁jure	-8976
▁topi	-8977
godovi	-8978
ralnih	-8979
zirajo	-8980
▁glave	-8981
▁grška	-8982
▁potek	-8983
▁prazn	-8984
▁tesla	-8985
▁vilje	-8986
tovanja	-8987
▁datote	-8988
▁hoteli	-8989
▁prekmu	-8990
▁razšir	-8991
▁srbije	-8992
▁zvezne	-8993
▁živelo	-8994
▁analiti	-8995
▁budizem	-8996
▁college	-8997
▁drevesa	-8998
▁hrvaško	-8999
▁medalja	-9000
▁napadom	-9001
▁odpravo	-9002
▁pisanje	-9003
▁prometa	-9004
▁svobode	-9005
▁vzdevek	-9006
▁zelenja	-9007
▁japonski	-9008
▁jeruzale	-9009
▁latinske	-9010
▁odkritja	-9011
▁pomenila	-9012
▁ustanova	-9013
▁preostali	-9014
▁vladarjev	-9015
▁gledališča	-9016
▁imenovanih	-9017
▁krščanstva	-9018
▁prazgodovi	-9019
▁prisotnosti	-9020
▁administrati	-9021
▁državljansko	-9022
;/	-9023
geo	-9024
hat	-9025
opa	-9026
vič	-9027
šar	-9028
▁//	-9029
kata	-9030
leti	-9031
loni	-9032
tula	-9033
vane	-9034
vcev	-9035
▁179	-9036
▁eva	-9037
▁uče	-9038
jevič	-9039
tnica	-9040
▁1955	-9041
▁1966	-9042
▁izje	-9043
▁odme	-9044
▁sabo	-9045
▁saud	-9046
▁blaga	-9047
▁jakob	-9048
▁matja	-9049
▁njima	-9050
▁sliki	-9051
▁tekme	-9052
ljencev	-9053
▁brigad	-9054
▁ljudem	-9055
▁nekega	-9056
▁pravno	-9057
▁sklopu	-9058
▁vrnili	-9059
▁širine	-9060
▁ekvador	-9061
▁kongres	-9062
▁ognjeni	-9063
▁posodob	-9064
▁trajalo	-9065
▁triglav	-9066
▁vladala	-9067
▁japonske	-9068
▁provinci	-9069
▁zgrajeni	-9070
▁zunanjih	-9071
▁američani	-9072
▁koledarja	-9073
▁operaciji	-9074
▁razširili	-9075
▁jugoslavija	-9076
▁razumevanje	-9077
▁skladateljev	-9078
29	-9079
bec	-9080
hem	-9081
ras	-9082
ène	-9083
▁gm	-9084
drov	-9085
gami	-9086
nadi	-9087
šnim	-9088
šnjo	-9089
▁dei	-9090
▁lon	-9091
▁mur	-9092
▁mün	-9093
▁pok	-9094
▁rev	-9095
▁sfr	-9096
ligen	-9097
njuje	-9098
ralni	-9099
siona	-9100
tične	-9101
▁1963	-9102
▁alba	-9103
▁fazi	-9104
▁gove	-9105
▁mark	-9106
▁pere	-9107
▁prez	-9108
▁tali	-9109
ljeval	-9110
▁maria	-9111
▁močna	-9112
▁pobra	-9113
▁tbili	-9114
▁tlaku	-9115
▁troji	-9116
ziranih	-9117
▁misijo	-9118
▁nekdaj	-9119
▁ponoči	-9120
▁serije	-9121
▁takšen	-9122
▁zvrsti	-9123
▁deželah	-9124
▁graditi	-9125
▁izvedli	-9126
▁samomor	-9127
▁strojni	-9128
▁tutanka	-9129
▁arhitekt	-9130
▁avstrijo	-9131
▁glasbena	-9132
▁izhajajo	-9133
▁kontinen	-9134
▁nastanje	-9135
▁piramide	-9136
▁postopki	-9137
▁primerno	-9138
▁razmerah	-9139
▁fotografi	-9140
▁povečanje	-9141
▁zunanjega	-9142
▁spremenili	-9143
▁severovzhodu	-9144
▁severozahodu	-9145
▁koncentracija	-9146
ele	-9147
kam	-9148
kse	-9149
unt	-9150
wis	-9151
toro	-9152
▁145	-9153
▁700	-9154
▁ant	-9155
▁ilu	-9156
▁vil	-9157
delan	-9158
litvi	-9159
ralno	-9160
talna	-9161
▁1923	-9162
▁1936	-9163
▁1981	-9164
▁2020	-9165
▁boje	-9166
▁fort	-9167
▁kano	-9168
▁nere	-9169
▁raba	-9170
▁slav	-9171
▁vzbu	-9172
dnikom	-9173
▁napol	-9174
▁obrob	-9175
▁pavla	-9176
▁strah	-9177
▁klemen	-9178
▁opazil	-9179
▁pogreb	-9180
▁zameno	-9181
▁iskanje	-9182
▁jedrske	-9183
▁prihodu	-9184
▁sedanjo	-9185
▁sisteme	-9186
▁zakonov	-9187
▁besedami	-9188
▁celotnem	-9189
▁zaposlil	-9190
▁značilen	-9191
▁prepričan	-9192
▁rezultate	-9193
▁upodablja	-9194
▁organizmov	-9195
▁naslednjega	-9196
▁ustanovitelj	-9197
▁socialistične	-9198
ac	-9199
▁α	-9200
gua	-9201
sje	-9202
gena	-9203
gono	-9204
tter	-9205
škov	-9206
▁(10	-9207
▁jur	-9208
▁pop	-9209
žanje	-9210
▁1925	-9211
▁1934	-9212
▁argu	-9213
▁gost	-9214
▁jama	-9215
▁sten	-9216
danjem	-9217
talnih	-9218
▁božje	-9219
▁najem	-9220
▁tutmo	-9221
▁unesc	-9222
▁zbral	-9223
▁gozdov	-9224
▁koreja	-9225
▁kultur	-9226
▁naprav	-9227
▁poobla	-9228
▁pregna	-9229
▁četudi	-9230
janskega	-9231
▁avstral	-9232
▁boginje	-9233
▁deklara	-9234
▁georges	-9235
▁medijev	-9236
▁pokrovi	-9237
▁pravica	-9238
▁sestave	-9239
▁starogr	-9240
▁varstvo	-9241
▁štejemo	-9242
▁štirimi	-9243
▁kolonije	-9244
▁padavine	-9245
▁podpisal	-9246
▁značilni	-9247
▁alexander	-9248
▁postanejo	-9249
▁veleposla	-9250
▁državljani	-9251
▁literature	-9252
▁razglasila	-9253
▁julijanskem	-9254
▁uporabljena	-9255
dré	-9256
kto	-9257
pur	-9258
wig	-9259
▁('	-9260
▁by	-9261
bour	-9262
msko	-9263
▁peš	-9264
▁poh	-9265
▁ski	-9266
▁žal	-9267
mitri	-9268
sneje	-9269
tnice	-9270
▁alja	-9271
▁clau	-9272
▁domu	-9273
▁grož	-9274
▁piva	-9275
▁sote	-9276
▁stik	-9277
rednih	-9278
stnika	-9279
▁firen	-9280
▁izmiš	-9281
▁mreže	-9282
▁obnaš	-9283
▁povra	-9284
▁preto	-9285
▁pušči	-9286
▁tabli	-9287
▁tanza	-9288
▁tipov	-9289
▁albuma	-9290
▁gorski	-9291
▁jezike	-9292
▁prvimi	-9293
▁zapisi	-9294
▁atomsko	-9295
▁izstopa	-9296
▁nasprot	-9297
▁navzgor	-9298
▁podelil	-9299
▁podpore	-9300
▁ponudil	-9301
▁pritisk	-9302
▁raciona	-9303
▁sevanje	-9304
▁vojvoda	-9305
▁zlitine	-9306
▁avtonomi	-9307
▁doživlja	-9308
▁obdobjih	-9309
▁perzijci	-9310
▁svobodno	-9311
▁bojevanje	-9312
▁izgovarja	-9313
▁južnoafri	-9314
▁preživeli	-9315
▁jugozahodu	-9316
▁medsebojno	-9317
▁človekovih	-9318
▁pokopališču	-9319
▁narodnoosvobo	-9320
"-	-9321
kop	-9322
rad	-9323
vdo	-9324
vij	-9325
▁%)	-9326
ding	-9327
lage	-9328
lomu	-9329
mene	-9330
selj	-9331
trom	-9332
▁ave	-9333
▁bee	-9334
▁kov	-9335
▁ogr	-9336
stike	-9337
šnica	-9338
▁(190	-9339
▁jima	-9340
▁nego	-9341
▁neob	-9342
▁neve	-9343
▁pake	-9344
▁petr	-9345
▁teže	-9346
▁urah	-9347
▁vaku	-9348
▁zamr	-9349
▁ferra	-9350
▁franz	-9351
▁izkrc	-9352
▁ocene	-9353
▁oddaj	-9354
▁odpad	-9355
▁pismu	-9356
▁pragi	-9357
▁sužen	-9358
▁trebu	-9359
▁vidne	-9360
▁šibke	-9361
▁ščiti	-9362
▁figure	-9363
▁izumil	-9364
▁mediji	-9365
▁napake	-9366
▁odbora	-9367
▁odcepi	-9368
▁otokih	-9369
▁palačo	-9370
▁preple	-9371
▁skušal	-9372
▁umetno	-9373
▁venera	-9374
national	-9375
predvsem	-9376
▁analize	-9377
▁načinov	-9378
▁odvisen	-9379
▁posadke	-9380
▁kovinski	-9381
▁najbolje	-9382
▁povečuje	-9383
▁začetkom	-9384
▁skrivnost	-9385
▁spremembo	-9386
▁uveljavil	-9387
▁egipčanski	-9388
▁instrument	-9389
▁natančneje	-9390
▁osemdesetih	-9391
84	-9392
xa	-9393
ła	-9394
far	-9395
sky	-9396
vra	-9397
way	-9398
čah	-9399
▁56	-9400
▁95	-9401
▁cy	-9402
ante	-9403
bile	-9404
cler	-9405
eman	-9406
faši	-9407
gana	-9408
mali	-9409
moti	-9410
vare	-9411
šuje	-9412
▁hus	-9413
▁iso	-9414
▁ohi	-9415
▁šen	-9416
panje	-9417
čenju	-9418
ščajo	-9419
▁1910	-9420
▁1954	-9421
▁alži	-9422
▁iste	-9423
▁rude	-9424
▁vzel	-9425
jenost	-9426
ščanja	-9427
▁barvi	-9428
▁dopis	-9429
▁goren	-9430
▁gvine	-9431
▁monte	-9432
▁pompe	-9433
▁resno	-9434
▁višja	-9435
▁vrhun	-9436
▁zapro	-9437
jevanja	-9438
landije	-9439
▁afrika	-9440
▁ločeno	-9441
▁severa	-9442
▁svetle	-9443
▁gospodi	-9444
▁izjavil	-9445
▁javnega	-9446
▁nobenih	-9447
▁površja	-9448
▁poznega	-9449
▁razvile	-9450
▁zastava	-9451
▁oblastjo	-9452
▁potnikov	-9453
▁uvrščamo	-9454
▁številka	-9455
▁madžarske	-9456
▁osvobodil	-9457
▁povezanih	-9458
▁prispeval	-9459
▁različici	-9460
▁sovražnik	-9461
▁električna	-9462
▁protiletal	-9463
▁spremenilo	-9464
▁železniški	-9465
▁jugovzhodni	-9466
gru	-9467
smi	-9468
arab	-9469
lica	-9470
nist	-9471
čjih	-9472
žati	-9473
▁bay	-9474
▁dla	-9475
▁ern	-9476
▁gau	-9477
▁gil	-9478
▁koc	-9479
▁mrz	-9480
▁uru	-9481
▁vze	-9482
cques	-9483
jstvu	-9484
opera	-9485
tvami	-9486
▁1912	-9487
▁1952	-9488
▁orja	-9489
▁ugod	-9490
øbenha	-9491
▁benja	-9492
▁filip	-9493
▁inova	-9494
▁prave	-9495
▁radar	-9496
▁željo	-9497
▁bismar	-9498
▁drugje	-9499
▁džingi	-9500
▁filipi	-9501
▁listov	-9502
▁maršal	-9503
▁ponuja	-9504
▁preide	-9505
▁school	-9506
▁srbija	-9507
▁zgradb	-9508
▁osončja	-9509
▁podpira	-9510
▁povišan	-9511
▁preiska	-9512
▁procesi	-9513
▁razredu	-9514
▁zasedel	-9515
▁zunanjo	-9516
▁častili	-9517
▁indijski	-9518
▁inštitut	-9519
▁medseboj	-9520
▁policije	-9521
▁pomagala	-9522
▁udeležil	-9523
▁britanijo	-9524
▁današnjih	-9525
▁krščanski	-9526
▁programov	-9527
▁povezujejo	-9528
▁upravljanje	-9529
▁prebivalstvom	-9530
-0	-9531
73	-9532
rö	-9533
vn	-9534
οσ	-9535
col	-9536
dad	-9537
rea	-9538
▁dy	-9539
▁ty	-9540
bari	-9541
delo	-9542
mbro	-9543
pije	-9544
▁bej	-9545
▁ela	-9546
▁sva	-9547
▁škr	-9548
pelje	-9549
sever	-9550
▁1937	-9551
▁1956	-9552
▁1965	-9553
▁1972	-9554
▁idej	-9555
▁neba	-9556
▁obdr	-9557
▁pogu	-9558
▁umik	-9559
ranega	-9560
zirano	-9561
▁hiera	-9562
▁jesen	-9563
▁krogu	-9564
▁modri	-9565
▁sinte	-9566
▁dreves	-9567
▁kamnin	-9568
▁koliko	-9569
▁majhni	-9570
▁naviga	-9571
▁nobena	-9572
▁znatno	-9573
▁abecede	-9574
▁churchi	-9575
▁kamnine	-9576
▁kritiki	-9577
▁napadal	-9578
▁napačno	-9579
▁origina	-9580
▁prenosa	-9581
▁zasedla	-9582
▁zavzeli	-9583
▁istoimen	-9584
▁izotopov	-9585
▁olimpija	-9586
▁postojan	-9587
▁sosednji	-9588
▁fizikalne	-9589
▁glasbenik	-9590
▁katoliške	-9591
▁ljubljane	-9592
▁pogostost	-9593
▁raztopine	-9594
▁umetniško	-9595
▁zahodnega	-9596
▁človeških	-9597
▁avstrijsko	-9598
▁doktoriral	-9599
▁kraljevine	-9600
▁parlamentar	-9601
▁proizvodnji	-9602
▁zgodovinska	-9603
▁industrijsko	-9604
▁đ	-9605
ene	-9606
kos	-9607
nau	-9608
pha	-9609
tko	-9610
tma	-9611
more	-9612
nitu	-9613
rban	-9614
čevo	-9615
▁dna	-9616
▁efe	-9617
▁tod	-9618
▁you	-9619
ovanj	-9620
čnice	-9621
šenih	-9622
▁miro	-9623
▁moža	-9624
▁srce	-9625
▁suhi	-9626
▁taki	-9627
linski	-9628
ovalne	-9629
▁demon	-9630
▁direk	-9631
▁euler	-9632
▁jerne	-9633
▁proge	-9634
▁vidno	-9635
ljujejo	-9636
▁akcije	-9637
▁habita	-9638
▁kopnem	-9639
▁slovar	-9640
▁valovi	-9641
▁videli	-9642
▁ženski	-9643
▁dejstva	-9644
▁presene	-9645
▁srednja	-9646
▁zahtevo	-9647
▁dioksida	-9648
▁dosežejo	-9649
▁konserva	-9650
▁kraljica	-9651
▁ostalimi	-9652
▁ustrezno	-9653
▁akademijo	-9654
▁namestnik	-9655
▁organskih	-9656
▁reševanje	-9657
▁zahtevala	-9658
▁zakonodaj	-9659
▁izpopolnje	-9660
▁kraljevina	-9661
▁nadomestil	-9662
▁profesorja	-9663
▁tekmovanja	-9664
▁uporabljen	-9665
▁metropolitan	-9666
▁koncentracijo	-9667
▁najpogostejši	-9668
deh	-9669
gij	-9670
ssr	-9671
tch	-9672
izvi	-9673
nile	-9674
tago	-9675
▁155	-9676
▁blu	-9677
▁mah	-9678
▁olj	-9679
▁tav	-9680
▁dlje	-9681
▁ekvi	-9682
▁vzno	-9683
▁četa	-9684
enkrat	-9685
zijska	-9686
▁dneva	-9687
▁kroga	-9688
▁obraz	-9689
▁preus	-9690
▁testi	-9691
▁škodo	-9692
▁benedi	-9693
▁galile	-9694
▁krajše	-9695
▁načinu	-9696
▁preliv	-9697
▁ranjen	-9698
▁ruskih	-9699
▁samomo	-9700
▁versko	-9701
▁brigadi	-9702
▁cornwal	-9703
▁københa	-9704
▁lastnih	-9705
▁priznal	-9706
▁ravnove	-9707
▁razvilo	-9708
▁tedanje	-9709
stavljena	-9710
▁avstrije	-9711
▁dokončal	-9712
▁individu	-9713
▁projekta	-9714
▁zastrupi	-9715
▁gimnaziji	-9716
▁monarhije	-9717
▁napovedal	-9718
▁voditelji	-9719
▁organiziral	-9720
▁jugoslovanske	-9721
nca	-9722
pah	-9723
sed	-9724
▁ah	-9725
▁mg	-9726
▁ss	-9727
file	-9728
▁130	-9729
▁ami	-9730
▁fur	-9731
▁tel	-9732
▁žle	-9733
dnica	-9734
fordu	-9735
tropo	-9736
tveni	-9737
▁1957	-9738
▁1959	-9739
▁alpe	-9740
▁bala	-9741
▁endo	-9742
▁izli	-9743
▁lego	-9744
▁teži	-9745
▁tren	-9746
▁volu	-9747
▁zmer	-9748
lnosti	-9749
▁ekipe	-9750
▁gleda	-9751
▁izola	-9752
▁rekon	-9753
▁tisto	-9754
▁zanje	-9755
▁franči	-9756
▁sezone	-9757
▁srečal	-9758
▁zborov	-9759
▁ekspedi	-9760
▁epidemi	-9761
▁hrvaški	-9762
▁kislino	-9763
▁michael	-9764
▁orožjem	-9765
▁uspešen	-9766
▁verjeli	-9767
▁zgornje	-9768
▁španske	-9769
slovensko	-9770
▁odločili	-9771
▁pobegnil	-9772
▁reakcijo	-9773
▁socialne	-9774
▁sprejeti	-9775
▁stališče	-9776
▁stoletij	-9777
▁ustanove	-9778
▁prednosti	-9779
▁pričakova	-9780
▁sporočilo	-9781
▁stoletjih	-9782
▁vzhodnega	-9783
▁zemeljski	-9784
▁upodobljen	-9785
▁izobraževal	-9786
▁hidroelektra	-9787
▁raziskovalec	-9788
hai	-9789
hol	-9790
izo	-9791
ulo	-9792
lilo	-9793
mese	-9794
viti	-9795
čemo	-9796
▁aga	-9797
▁ese	-9798
▁lep	-9799
▁upr	-9800
gospo	-9801
ovane	-9802
staro	-9803
tizem	-9804
znost	-9805
▁1911	-9806
▁leže	-9807
▁niha	-9808
▁poje	-9809
▁pošt	-9810
▁sfrj	-9811
▁upad	-9812
▁vhod	-9813
oznaka	-9814
▁bloka	-9815
▁dodal	-9816
▁nalog	-9817
▁oster	-9818
▁pioni	-9819
▁pokon	-9820
▁ročno	-9821
▁skaka	-9822
▁zgore	-9823
▁period	-9824
▁povsod	-9825
▁romanu	-9826
▁storil	-9827
▁arabske	-9828
▁bližnje	-9829
▁bruselj	-9830
▁kristus	-9831
▁nadzora	-9832
▁odnosov	-9833
▁omejena	-9834
▁pianist	-9835
▁postajo	-9836
▁sodobno	-9837
▁vetrovi	-9838
▁začnejo	-9839
▁kemijske	-9840
▁predelih	-9841
▁predmete	-9842
▁starejše	-9843
▁strmogla	-9844
▁svetoval	-9845
▁zapišemo	-9846
▁združuje	-9847
▁madžarsko	-9848
▁nekdanjih	-9849
▁podpredse	-9850
▁sladkorja	-9851
▁zaključil	-9852
▁nacionalna	-9853
▁znanstvena	-9854
▁ministrstvo	-9855
▁uporabljalo	-9856
hn	-9857
-18	-9858
ath	-9859
jek	-9860
nie	-9861
tea	-9862
▁ai	-9863
▁es	-9864
jočo	-9865
reja	-9866
▁().	-9867
▁cro	-9868
▁ina	-9869
▁izi	-9870
▁jug	-9871
dilni	-9872
tiral	-9873
torju	-9874
▁davi	-9875
▁deko	-9876
▁gama	-9877
▁jack	-9878
▁musi	-9879
▁nasa	-9880
▁nico	-9881
▁solo	-9882
▁srca	-9883
▁theo	-9884
ovalni	-9885
rjenja	-9886
▁1991.	-9887
▁dvoru	-9888
▁gozda	-9889
▁janko	-9890
▁kamna	-9891
▁mrežo	-9892
▁širše	-9893
▁aplika	-9894
▁erevan	-9895
▁igrali	-9896
▁najlep	-9897
▁pisati	-9898
▁schuma	-9899
▁silami	-9900
▁vrstah	-9901
tologija	-9902
▁ameriko	-9903
▁besedah	-9904
▁formule	-9905
▁oddelek	-9906
▁pedagog	-9907
▁povečal	-9908
▁provinc	-9909
▁uničili	-9910
▁vladali	-9911
▁zgodnja	-9912
▁armenije	-9913
▁izdelkov	-9914
▁izvajali	-9915
▁korenine	-9916
▁leonardo	-9917
▁oblačila	-9918
▁podelila	-9919
▁predmeti	-9920
▁božanstvo	-9921
▁dobesedno	-9922
▁družbenih	-9923
▁enciklope	-9924
▁kasnejših	-9925
▁letalstvo	-9926
▁pritiskom	-9927
▁razdeljen	-9928
▁razširjen	-9929
▁zmanjšalo	-9930
▁angleškega	-9931
▁sorazmerno	-9932
▁specialnih	-9933
▁posameznika	-9934
▁potrebujejo	-9935
▁prepričanje	-9936
▁prihodnosti	-9937
▁tehnologija	-9938
▁konstrukcije	-9939
pt	-9940
dig	-9941
gah	-9942
hei	-9943
isa	-9944
ppe	-9945
▁nk	-9946
koma	-9947
morf	-9948
pozi	-9949
snim	-9950
▁aro	-9951
▁bun	-9952
▁goe	-9953
▁vnu	-9954
kakor	-9955
rnimi	-9956
strop	-9957
thumb	-9958
čarji	-9959
▁kofe	-9960
▁leni	-9961
▁rolk	-9962
▁črto	-9963
njenje	-9964
torjem	-9965
▁andro	-9966
▁dušan	-9967
▁makro	-9968
▁parka	-9969
▁pevec	-9970
▁puške	-9971
▁režim	-9972
▁senat	-9973
▁topli	-9974
▁varia	-9975
▁baskov	-9976
▁filmov	-9977
▁gorivo	-9978
▁posplo	-9979
▁predor	-9980
▁semena	-9981
▁sestre	-9982
▁služba	-9983
▁spusti	-9984
▁verige	-9985
▁vplivi	-9986
▁dragoce	-9987
▁gradili	-9988
▁kemično	-9989
▁napadla	-9990
▁naročil	-9991
▁poletja	-9992
▁spektro	-9993
▁divizijo	-9994
▁prepoved	-9995
▁socialno	-9996
▁odgovarja	-9997
▁nizozemski	-9998
▁dostojevski	-9999
▁ustanovitve	-10000
▁μ	-10001
bas	-10002
hon	-10003
jam	-10004
lau	-10005
low	-10006
nur	-10007
šlo	-10008
▁54	-10009
▁58	-10010
▁61	-10011
anji	-10012
gijo	-10013
hani	-10014
pise	-10015
samb	-10016
vanj	-10017
čica	-10018
▁loj	-10019
▁bazo	-10020
▁dali	-10021
▁enki	-10022
▁otto	-10023
▁peti	-10024
▁temo	-10025
▁ugra	-10026
▁učil	-10027
▁vrha	-10028
▁georg	-10029
▁ladji	-10030
▁močjo	-10031
▁nihče	-10032
▁oblet	-10033
▁opero	-10034
▁pleme	-10035
▁sakso	-10036
▁titan	-10037
▁vilin	-10038
▁wales	-10039
▁windo	-10040
▁zboru	-10041
▁dobijo	-10042
▁energe	-10043
▁južnih	-10044
▁kontek	-10045
▁kripto	-10046
▁ledeni	-10047
▁motori	-10048
▁oklepa	-10049
fikacijo	-10050
▁gruzije	-10051
▁obramba	-10052
▁okrožij	-10053
▁pehotni	-10054
▁pogosta	-10055
▁posebni	-10056
▁ptolema	-10057
▁rojstni	-10058
▁služila	-10059
▁telesne	-10060
▁trikrat	-10061
▁zagrebu	-10062
▁cerkveno	-10063
▁gradbeni	-10064
▁heinrich	-10065
▁kasnejši	-10066
▁milijone	-10067
▁poljedel	-10068
▁pomorski	-10069
▁prisoten	-10070
▁združeni	-10071
▁zemljevi	-10072
▁izgradnjo	-10073
▁preselili	-10074
▁pridobila	-10075
▁pripovedi	-10076
▁razvijati	-10077
▁schumacher	-10078
▁standardni	-10079
▁predstavljali	-10080
74	-10081
bek	-10082
jpg	-10083
žem	-10084
dale	-10085
drom	-10086
▁anu	-10087
▁gva	-10088
▁htt	-10089
▁mao	-10090
▁tka	-10091
harmo	-10092
janci	-10093
tična	-10094
veril	-10095
▁2021	-10096
▁etru	-10097
▁mesa	-10098
▁nano	-10099
▁nave	-10100
▁sele	-10101
▁sofi	-10102
▁stal	-10103
▁turk	-10104
janske	-10105
▁ciklo	-10106
▁krepi	-10107
▁krizo	-10108
▁kuvaj	-10109
▁mrtve	-10110
▁naved	-10111
▁oltar	-10112
▁osvet	-10113
▁parni	-10114
▁prefe	-10115
▁rešil	-10116
▁serge	-10117
▁socio	-10118
▁zanjo	-10119
bilnost	-10120
ljivega	-10121
▁dobilo	-10122
▁izbral	-10123
▁koncem	-10124
▁madrid	-10125
▁orodja	-10126
▁orodje	-10127
▁pogoje	-10128
▁tabele	-10129
▁vodili	-10130
▁avtohto	-10131
▁avtorji	-10132
▁izotopi	-10133
▁kemični	-10134
▁mladost	-10135
▁mostovi	-10136
▁napadov	-10137
▁omejeno	-10138
▁premika	-10139
▁propada	-10140
▁prostem	-10141
▁hierarhi	-10142
▁igralcev	-10143
▁marinske	-10144
▁osvojila	-10145
▁prinesli	-10146
▁akademija	-10147
▁daljnogle	-10148
▁helenisti	-10149
▁zgodnjega	-10150
▁literaturi	-10151
▁nizozemska	-10152
▁olimpijske	-10153
▁prebivalce	-10154
▁tekmovanje	-10155
▁državljanov	-10156
▁reprezentan	-10157
▁zavezništvo	-10158
▁devetdesetih	-10159
-19	-10160
jul	-10161
lat	-10162
sul	-10163
ult	-10164
char	-10165
dske	-10166
fero	-10167
kcij	-10168
kina	-10169
tako	-10170
tijo	-10171
žnji	-10172
▁165	-10173
▁bon	-10174
▁haw	-10175
mesto	-10176
oklep	-10177
slava	-10178
▁460.	-10179
▁fluo	-10180
▁maka	-10181
▁mars	-10182
▁neiz	-10183
▁odpa	-10184
▁posu	-10185
▁sena	-10186
▁umor	-10187
polkov	-10188
zirala	-10189
▁alojz	-10190
▁butan	-10191
▁enaki	-10192
▁iskal	-10193
▁moško	-10194
▁okvir	-10195
▁olimp	-10196
▁zbole	-10197
▁želja	-10198
▁20.000	-10199
▁delega	-10200
▁izvrši	-10201
▁mariji	-10202
▁občini	-10203
▁podpis	-10204
▁polari	-10205
▁posnel	-10206
▁prenes	-10207
▁stroji	-10208
▁tistim	-10209
▁uradna	-10210
▁dodatne	-10211
▁ehnaton	-10212
▁nenehno	-10213
▁nosilec	-10214
▁periodi	-10215
▁potreba	-10216
▁premier	-10217
▁rezerva	-10218
▁reziden	-10219
▁govorimo	-10220
▁mešanica	-10221
▁napredek	-10222
▁nobelovo	-10223
▁propagan	-10224
▁različic	-10225
▁razprave	-10226
▁vsebnost	-10227
▁določenem	-10228
▁kristusom	-10229
▁mussolini	-10230
▁spomeniki	-10231
▁sporočila	-10232
▁valovanja	-10233
▁valovanje	-10234
▁koeficient	-10235
▁latinskega	-10236
▁označujejo	-10237
lk	-10238
ré	-10239
ves	-10240
vre	-10241
wel	-10242
▁63	-10243
pari	-10244
samo	-10245
stek	-10246
ttle	-10247
▁60.	-10248
▁bou	-10249
▁hek	-10250
▁vdo	-10251
burža	-10252
stiti	-10253
tskim	-10254
virja	-10255
čišče	-10256
▁1926	-10257
▁dari	-10258
▁izva	-10259
▁kiru	-10260
▁neči	-10261
▁rabo	-10262
▁salo	-10263
▁zaob	-10264
▁zssr	-10265
mentih	-10266
▁bospo	-10267
▁dimen	-10268
▁hidra	-10269
▁kajti	-10270
▁noben	-10271
▁pozne	-10272
▁preži	-10273
▁sloga	-10274
▁trage	-10275
▁zoper	-10276
njenega	-10277
stavili	-10278
▁bateri	-10279
▁celini	-10280
▁dioniz	-10281
▁giovan	-10282
▁kapaci	-10283
▁ločena	-10284
▁marije	-10285
▁poznih	-10286
▁takšni	-10287
▁vodijo	-10288
▁desetih	-10289
▁gradivo	-10290
▁izvedla	-10291
▁kapitan	-10292
▁nemškem	-10293
▁pomenil	-10294
▁trdnost	-10295
▁vsebino	-10296
▁aluminij	-10297
▁hrvaškem	-10298
▁johannes	-10299
▁klasično	-10300
▁komunici	-10301
▁organske	-10302
▁problema	-10303
▁projekti	-10304
▁sekretar	-10305
▁trdnjava	-10306
▁trgovina	-10307
▁združili	-10308
▁bližnjega	-10309
▁njegovimi	-10310
▁rezultati	-10311
▁prijatelja	-10312
▁teoretično	-10313
▁električnih	-10314
▁razsežnosti	-10315
▁uporabljale	-10316
▁organizaciji	-10317
-10	-10318
zzo	-10319
▁ms	-10320
rida	-10321
veda	-10322
▁(16	-10323
▁dov	-10324
▁fin	-10325
▁hiš	-10326
▁kje	-10327
▁uga	-10328
metra	-10329
stopu	-10330
▁1907	-10331
▁1977	-10332
▁1978	-10333
▁430.	-10334
▁akro	-10335
▁halo	-10336
▁irak	-10337
▁neča	-10338
▁noge	-10339
▁odzi	-10340
▁voka	-10341
▁dalma	-10342
▁ionov	-10343
▁jeklo	-10344
▁liste	-10345
▁nekem	-10346
▁odziv	-10347
▁priim	-10348
▁skuša	-10349
▁vsota	-10350
▁absorp	-10351
▁edvard	-10352
▁grčije	-10353
▁luksem	-10354
▁moskva	-10355
▁nespre	-10356
▁opusto	-10357
▁podobe	-10358
▁porabi	-10359
▁razpro	-10360
▁samice	-10361
▁siriji	-10362
▁stavba	-10363
▁zastop	-10364
▁babilon	-10365
▁gorovje	-10366
▁izkazal	-10367
▁kancler	-10368
▁katalog	-10369
▁libanon	-10370
▁primere	-10371
▁rezervi	-10372
▁trigono	-10373
▁uspešni	-10374
▁zagovor	-10375
▁španijo	-10376
▁delovati	-10377
▁hierogli	-10378
▁koroškem	-10379
▁ministra	-10380
▁možganov	-10381
▁naredili	-10382
▁omejitev	-10383
▁gimnazijo	-10384
▁inštitutu	-10385
▁nadmorske	-10386
▁naravnega	-10387
▁odločitve	-10388
▁prvenstvu	-10389
▁združitev	-10390
▁generacije	-10391
▁nekaterimi	-10392
▁zagovarjal	-10393
▁češkoslova	-10394
▁pripisujejo	-10395
▁observatoriju	-10396
="	-10397
yd	-10398
ens	-10399
fel	-10400
mut	-10401
num	-10402
žbi	-10403
▁62	-10404
▁mn	-10405
▁nm	-10406
dsko	-10407
jana	-10408
lska	-10409
njak	-10410
ovem	-10411
ratu	-10412
sper	-10413
▁mel	-10414
▁met	-10415
▁nin	-10416
bergu	-10417
lniki	-10418
malno	-10419
stove	-10420
▁1913	-10421
▁1916	-10422
▁1951	-10423
▁euro	-10424
▁groz	-10425
▁hava	-10426
▁inde	-10427
▁ljub	-10428
▁miti	-10429
kovski	-10430
stribu	-10431
zijsko	-10432
▁ander	-10433
▁gorah	-10434
▁jekle	-10435
▁kromo	-10436
▁licen	-10437
▁mašče	-10438
▁ogenj	-10439
▁opozo	-10440
▁osmih	-10441
▁princ	-10442
▁privo	-10443
▁proda	-10444
▁prodi	-10445
▁redni	-10446
▁rodov	-10447
▁ujema	-10448
▁vzame	-10449
▁yorku	-10450
grafski	-10451
▁ansamb	-10452
▁boljši	-10453
▁dvajse	-10454
▁katali	-10455
▁ladjev	-10456
▁mandat	-10457
▁ploščo	-10458
▁skladb	-10459
▁sužnje	-10460
▁troben	-10461
▁uspeha	-10462
▁večjem	-10463
▁vrniti	-10464
▁značaj	-10465
▁anatoli	-10466
▁dvajset	-10467
▁hitreje	-10468
▁integri	-10469
▁jedrsko	-10470
▁omrežje	-10471
▁poplave	-10472
▁posadko	-10473
▁povezal	-10474
▁sklenil	-10475
▁začetki	-10476
▁časopis	-10477
▁kapitala	-10478
▁lokomoti	-10479
▁norveška	-10480
▁podpiral	-10481
▁pomorske	-10482
▁sestavil	-10483
▁visokega	-10484
▁zagotovo	-10485
▁današnjem	-10486
▁indoevrop	-10487
▁namenjene	-10488
▁pokrajino	-10489
▁pridobiti	-10490
▁oborožitev	-10491
▁nadaljevali	-10492
▁računalnika	-10493
▁zračnoprevo	-10494
▁prevladujejo	-10495
ah	-10496
cc	-10497
jar	-10498
tml	-10499
yce	-10500
čji	-10501
čle	-10502
žer	-10503
lete	-10504
polo	-10505
sche	-10506
skrt	-10507
stik	-10508
zila	-10509
čija	-10510
▁iko	-10511
▁kdo	-10512
▁čet	-10513
▁čol	-10514
produ	-10515
▁1848	-10516
▁1927	-10517
▁400.	-10518
▁hude	-10519
▁kipi	-10520
▁obši	-10521
▁port	-10522
formes	-10523
indvaj	-10524
pribli	-10525
▁arhiv	-10526
▁divje	-10527
▁dopol	-10528
▁guten	-10529
▁infor	-10530
▁kranj	-10531
▁nasla	-10532
▁osebo	-10533
▁parku	-10534
▁prsti	-10535
▁tobak	-10536
▁toksi	-10537
▁armado	-10538
▁herodo	-10539
▁nadgra	-10540
▁narava	-10541
▁načrte	-10542
▁odprli	-10543
▁poglav	-10544
▁pogovo	-10545
▁radika	-10546
▁razgra	-10547
▁restav	-10548
▁sirijo	-10549
▁spušča	-10550
▁strahu	-10551
▁urbani	-10552
▁učenec	-10553
▁zvesto	-10554
▁igralci	-10555
▁izbrisa	-10556
▁navadni	-10557
▁nemškim	-10558
▁puščave	-10559
▁razvija	-10560
▁rezervo	-10561
▁angelina	-10562
▁cerkvene	-10563
▁državnem	-10564
▁ladjedel	-10565
▁pokazale	-10566
▁skrajnem	-10567
▁spopadov	-10568
▁stališča	-10569
▁najboljše	-10570
▁pozitivno	-10571
▁preživela	-10572
▁pridobili	-10573
▁prispevek	-10574
▁umetniški	-10575
▁vključena	-10576
▁preostanek	-10577
▁bizantinski	-10578
▁matematično	-10579
▁sestavljali	-10580
▁številčenje	-10581
▁trigonometri	-10582
_4	-10583
gn	-10584
cam	-10585
pzi	-10586
sco	-10587
▁mw	-10588
▁oa	-10589
anno	-10590
belo	-10591
dene	-10592
gène	-10593
lico	-10594
rika	-10595
▁fen	-10596
▁ham	-10597
▁jen	-10598
▁vik	-10599
▁vpo	-10600
ravno	-10601
stvih	-10602
▁1982	-10603
▁300.	-10604
▁faze	-10605
▁feli	-10606
▁fine	-10607
▁veji	-10608
▁špar	-10609
ovanih	-10610
▁bogom	-10611
▁izpod	-10612
▁prvak	-10613
▁romar	-10614
▁spošt	-10615
▁stala	-10616
▁stiku	-10617
▁subje	-10618
▁sulfi	-10619
▁težje	-10620
ustanov	-10621
▁antwer	-10622
▁avtobu	-10623
▁bogate	-10624
▁daniel	-10625
▁dnevno	-10626
▁dolgih	-10627
▁dvigne	-10628
▁himala	-10629
▁kleopa	-10630
▁konzer	-10631
▁manife	-10632
▁mornar	-10633
▁oxford	-10634
▁posred	-10635
▁potuje	-10636
▁pošlje	-10637
▁prvaka	-10638
▁stopil	-10639
▁system	-10640
▁vodnik	-10641
▁vsakih	-10642
▁zeleno	-10643
▁živino	-10644
▁herbert	-10645
▁hrvaške	-10646
▁izstrel	-10647
▁izvirni	-10648
▁okolico	-10649
▁pehotne	-10650
▁razpolo	-10651
▁stopnji	-10652
▁vrnitev	-10653
▁družbeni	-10654
▁planetar	-10655
▁storitve	-10656
▁svetišče	-10657
▁trgovske	-10658
▁fotosinte	-10659
▁mehanizem	-10660
▁odgovoren	-10661
▁osrednjem	-10662
▁postavila	-10663
▁razpolago	-10664
▁renesanse	-10665
▁tranzisto	-10666
▁zahtevali	-10667
▁avstraliji	-10668
▁nahajališča	-10669
▁operacijski	-10670
▁priložnosti	-10671
▁pripoveduje	-10672
▁državljanska	-10673
▁predstavnikov	-10674
cum	-10675
mou	-10676
usa	-10677
čku	-10678
žab	-10679
▁),	-10680
▁ly	-10681
knji	-10682
mira	-10683
peli	-10684
ssen	-10685
žani	-10686
▁ahe	-10687
▁bus	-10688
▁dev	-10689
▁don	-10690
▁jem	-10691
▁vdr	-10692
kciji	-10693
proti	-10694
rskih	-10695
shire	-10696
tonov	-10697
verje	-10698
▁huma	-10699
▁izog	-10700
▁orto	-10701
▁poži	-10702
▁prof	-10703
▁tiho	-10704
dinger	-10705
▁mavri	-10706
▁mogla	-10707
▁multi	-10708
▁nadar	-10709
▁parag	-10710
▁plosk	-10711
▁potro	-10712
▁rdečo	-10713
▁silam	-10714
▁stike	-10715
▁težke	-10716
▁trena	-10717
▁višjo	-10718
▁zevsa	-10719
▁arabci	-10720
▁dirigi	-10721
▁hladno	-10722
▁igrajo	-10723
▁izdajo	-10724
▁izmeni	-10725
▁katalo	-10726
▁mangan	-10727
▁matjaž	-10728
▁nekako	-10729
▁nizkih	-10730
▁objekt	-10731
▁pisavo	-10732
▁tiskar	-10733
▁usmrti	-10734
▁vstopa	-10735
▁češkem	-10736
▁civilno	-10737
▁delavci	-10738
▁delovne	-10739
▁doseglo	-10740
▁izračun	-10741
▁končani	-10742
▁kriteri	-10743
▁nikolaj	-10744
▁oklepna	-10745
▁pravilo	-10746
▁predpis	-10747
▁skrajša	-10748
▁strojev	-10749
▁vsebine	-10750
▁zasebno	-10751
▁časovno	-10752
▁članice	-10753
▁širitev	-10754
▁števili	-10755
▁infrarde	-10756
▁kapitula	-10757
▁kongresu	-10758
▁mohameda	-10759
▁odkritju	-10760
▁predvaja	-10761
▁prevzame	-10762
▁problemi	-10763
▁zaigrala	-10764
▁bakterije	-10765
▁božanstva	-10766
▁količinah	-10767
▁geografsko	-10768
▁podmornice	-10769
▁zaveznikov	-10770
▁znanstveni	-10771
▁elektronski	-10772
▁odlikovanje	-10773
sd	-10774
uri	-10775
▁ei	-10776
djem	-10777
liki	-10778
zana	-10779
žnim	-10780
▁ane	-10781
▁baj	-10782
▁sor	-10783
▁uše	-10784
vitev	-10785
▁azte	-10786
▁geno	-10787
▁juni	-10788
▁lete	-10789
▁pode	-10790
▁sino	-10791
▁sple	-10792
▁težo	-10793
▁šmar	-10794
jenjem	-10795
▁dobri	-10796
▁fidži	-10797
▁hiper	-10798
▁karta	-10799
▁lojze	-10800
▁morav	-10801
▁odprt	-10802
▁prahu	-10803
▁slovi	-10804
▁sovje	-10805
▁škofa	-10806
▁cestni	-10807
▁fevdal	-10808
▁kakšno	-10809
▁ledene	-10810
▁leipzi	-10811
▁leopol	-10812
▁linije	-10813
▁lovsko	-10814
▁obstre	-10815
▁oskrbo	-10816
▁otoman	-10817
▁reviji	-10818
▁stopni	-10819
▁vzorec	-10820
▁analizo	-10821
▁antični	-10822
▁antropo	-10823
▁grofija	-10824
▁kritike	-10825
▁nadzoru	-10826
▁nesreči	-10827
▁oblikah	-10828
▁onemogo	-10829
▁prehodu	-10830
▁sedežem	-10831
▁trditev	-10832
▁zastare	-10833
▁cesarski	-10834
▁finančno	-10835
▁kasnejše	-10836
▁latinski	-10837
▁nepresta	-10838
▁ostankov	-10839
▁podporni	-10840
▁poslušal	-10841
▁sodobnem	-10842
▁struktur	-10843
▁čaščenje	-10844
▁bojevanja	-10845
▁delovanju	-10846
▁dolgotraj	-10847
▁ekvivalen	-10848
▁pripravil	-10849
▁stoletjem	-10850
▁strateško	-10851
▁temeljijo	-10852
▁tradicija	-10853
▁ustvarili	-10854
▁zmanjšala	-10855
▁pozornosti	-10856
▁samostojne	-10857
▁kombinacija	-10858
▁ogljikovega	-10859
.:	-10860
].	-10861
rs	-10862
dou	-10863
nad	-10864
rbi	-10865
sas	-10866
sia	-10867
ule	-10868
«".	-10869
▁57	-10870
chnu	-10871
dron	-10872
heim	-10873
izem	-10874
kong	-10875
kore	-10876
mila	-10877
pani	-10878
siji	-10879
tama	-10880
▁lie	-10881
▁ner	-10882
bilna	-10883
kinja	-10884
ralna	-10885
reden	-10886
strom	-10887
▁1931	-10888
▁almo	-10889
▁breg	-10890
▁lige	-10891
▁neso	-10892
▁stož	-10893
▁ženi	-10894
▁ernst	-10895
▁kavka	-10896
▁letna	-10897
▁ognja	-10898
▁samci	-10899
▁urban	-10900
▁vanjo	-10901
▁vreme	-10902
▁izotop	-10903
▁michel	-10904
▁popisu	-10905
▁poznal	-10906
▁prejme	-10907
▁prište	-10908
▁razoča	-10909
▁verska	-10910
▁wilson	-10911
▁zaloge	-10912
▁budizma	-10913
▁dioniza	-10914
▁etnične	-10915
▁izdelan	-10916
▁jedrski	-10917
▁knjigah	-10918
▁kolikor	-10919
▁komando	-10920
▁naselij	-10921
▁prehoda	-10922
▁presega	-10923
▁pričeli	-10924
▁prvotni	-10925
▁sedanje	-10926
▁služijo	-10927
▁tehniko	-10928
▁usposob	-10929
▁izdelave	-10930
▁klinopis	-10931
▁letalske	-10932
▁ofenzivo	-10933
▁priprave	-10934
▁razdelil	-10935
▁aleksandr	-10936
▁neskončno	-10937
▁odpotoval	-10938
▁potovanju	-10939
▁satelitov	-10940
▁zmanjšuje	-10941
▁desetletje	-10942
▁nekdanjega	-10943
▁nasprotoval	-10944
▁zemljepisne	-10945
▁računalniški	-10946
tj	-10947
šk	-10948
gia	-10949
vic	-10950
ller	-10951
splo	-10952
teno	-10953
šati	-10954
▁ege	-10955
▁fro	-10956
▁she	-10957
▁wri	-10958
▁čer	-10959
field	-10960
▁(191	-10961
▁brzo	-10962
▁hoče	-10963
▁hrib	-10964
▁izum	-10965
▁išče	-10966
▁manu	-10967
▁otvo	-10968
dskega	-10969
karion	-10970
▁bitje	-10971
▁bosan	-10972
▁dobra	-10973
▁dviga	-10974
▁enoti	-10975
▁garni	-10976
▁helij	-10977
▁javna	-10978
▁levem	-10979
▁nekje	-10980
▁pišto	-10981
▁razko	-10982
dovanju	-10983
▁30.000	-10984
▁engels	-10985
▁gustav	-10986
▁kratki	-10987
▁ljudeh	-10988
▁mišice	-10989
▁nadvla	-10990
▁nameni	-10991
▁newton	-10992
▁odraža	-10993
▁trajal	-10994
▁uvedbo	-10995
▁veroiz	-10996
▁vreten	-10997
▁zlahka	-10998
▁žirafe	-10999
▁govoril	-11000
▁izbrali	-11001
▁množico	-11002
▁popravi	-11003
▁povedal	-11004
▁pripisa	-11005
▁štejejo	-11006
▁cerkveni	-11007
▁cerkvijo	-11008
▁izkušnje	-11009
▁komentar	-11010
▁ljudstev	-11011
▁natrijev	-11012
▁obrambni	-11013
▁odločila	-11014
▁potreben	-11015
▁poškodbe	-11016
▁trideset	-11017
▁mineralov	-11018
▁neodvisne	-11019
▁podelitve	-11020
▁sestavine	-11021
▁nacionalno	-11022
▁populacije	-11023
▁mednarodnem	-11024
▁italijanskega	-11025
34	-11026
113	-11027
gos	-11028
mol	-11029
ney	-11030
brom	-11031
fera	-11032
ming	-11033
plet	-11034
star	-11035
šenj	-11036
▁džo	-11037
▁lee	-11038
▁nar	-11039
▁odz	-11040
ditvi	-11041
jenim	-11042
našal	-11043
ravan	-11044
▁1924	-11045
▁410.	-11046
▁440.	-11047
▁cita	-11048
▁kota	-11049
▁kožo	-11050
▁neap	-11051
▁paro	-11052
▁savo	-11053
kovali	-11054
kratno	-11055
menija	-11056
▁apolo	-11057
▁dragu	-11058
▁glava	-11059
▁grana	-11060
▁grani	-11061
▁kladi	-11062
▁kneza	-11063
▁lewis	-11064
▁muška	-11065
▁nizke	-11066
▁odklo	-11067
▁schrö	-11068
▁vpisa	-11069
▁zgodi	-11070
▁čarov	-11071
▁češke	-11072
ritmeti	-11073
▁abstra	-11074
▁arteri	-11075
▁bistri	-11076
▁dajejo	-11077
▁dobrih	-11078
▁kratke	-11079
▁mesece	-11080
▁nemogo	-11081
▁plezal	-11082
▁podoba	-11083
▁potres	-11084
▁prejem	-11085
▁prever	-11086
▁tisoče	-11087
▁učenje	-11088
▁vodnja	-11089
discipli	-11090
▁domačih	-11091
▁londona	-11092
▁maurice	-11093
▁nabojev	-11094
▁organov	-11095
▁označil	-11096
▁planote	-11097
▁pomladi	-11098
▁privile	-11099
▁publika	-11100
▁puščava	-11101
▁reakcij	-11102
▁stopinj	-11103
▁telefon	-11104
▁turčija	-11105
▁združil	-11106
▁einstein	-11107
▁najvišjo	-11108
▁notranja	-11109
▁poglavar	-11110
▁potrebne	-11111
▁primerna	-11112
▁priprava	-11113
▁probleme	-11114
▁dielektri	-11115
▁dinastijo	-11116
▁jeruzalem	-11117
▁knjižnice	-11118
▁madžarska	-11119
▁polkovnik	-11120
▁posebnega	-11121
▁uporabiti	-11122
▁konferenci	-11123
▁konstantin	-11124
▁profesiona	-11125
▁razdelitev	-11126
▁razglasili	-11127
▁spomenikov	-11128
▁arhitekturo	-11129
▁nasprotniki	-11130
▁življenjski	-11131
▁nadaljevanje	-11132
▁posameznikov	-11133
bn	-11134
mc	-11135
vá	-11136
▁;	-11137
kvi	-11138
zul	-11139
ktom	-11140
medi	-11141
movi	-11142
siti	-11143
tane	-11144
thov	-11145
tiki	-11146
▁bea	-11147
▁ozn	-11148
▁rog	-11149
▁sno	-11150
▁uma	-11151
▁čem	-11152
stina	-11153
▁250.	-11154
▁dalo	-11155
▁deci	-11156
▁fila	-11157
▁kult	-11158
▁zrna	-11159
jenimi	-11160
▁cikla	-11161
▁dolen	-11162
▁gasil	-11163
▁konfe	-11164
▁misle	-11165
▁odboj	-11166
▁sveče	-11167
▁tista	-11168
▁topov	-11169
▁vihar	-11170
▁vroče	-11171
▁širši	-11172
rednega	-11173
▁atenah	-11174
▁bivali	-11175
▁doslej	-11176
▁faktor	-11177
▁hektar	-11178
▁indijo	-11179
▁koreni	-11180
▁marmor	-11181
▁podpor	-11182
▁sezono	-11183
▁spreob	-11184
▁veliča	-11185
▁filmski	-11186
▁izvedbo	-11187
▁moškega	-11188
▁nacisti	-11189
▁najuspe	-11190
▁pisanja	-11191
▁pogovor	-11192
▁prusija	-11193
▁rdečega	-11194
▁slovani	-11195
▁spodnja	-11196
▁upravna	-11197
▁upravne	-11198
▁vrstami	-11199
▁diviziji	-11200
▁kraljice	-11201
▁križarji	-11202
▁napisana	-11203
▁premirje	-11204
▁razširja	-11205
▁trgovsko	-11206
▁ureditve	-11207
▁vključil	-11208
▁organizmi	-11209
▁razdelimo	-11210
▁zapustila	-11211
▁filozofski	-11212
▁konservati	-11213
▁ohranjanje	-11214
▁osmanskega	-11215
▁parlamentu	-11216
▁povzročijo	-11217
▁programske	-11218
▁samostojni	-11219
▁diferencial	-11220
▁uporabljeni	-11221
▁vključevala	-11222
▁posodobljeno	-11223
▁raziskovanja	-11224
▁sedemdesetih	-11225
čk	-11226
на	-11227
ans	-11228
ari	-11229
bog	-11230
bon	-11231
dka	-11232
ges	-11233
mid	-11234
nas	-11235
pav	-11236
tla	-11237
ylo	-11238
▁(4	-11239
▁ae	-11240
dami	-11241
feri	-11242
rjem	-11243
čeve	-11244
žilo	-11245
▁80.	-11246
▁gno	-11247
▁ote	-11248
▁sun	-11249
lnice	-11250
čitve	-11251
▁1932	-11252
▁320.	-11253
▁420.	-11254
▁avar	-11255
▁basi	-11256
▁biro	-11257
▁lipi	-11258
▁okri	-11259
▁teti	-11260
▁tito	-11261
▁unix	-11262
▁veže	-11263
▁vizu	-11264
ništva	-11265
slovje	-11266
▁kasti	-11267
▁kirur	-11268
▁kriza	-11269
▁malih	-11270
▁oporo	-11271
▁podlo	-11272
▁prodr	-11273
▁sedmi	-11274
▁trdni	-11275
▁zaprt	-11276
najbolj	-11277
▁dodali	-11278
▁revija	-11279
▁tekton	-11280
▁teorij	-11281
▁venere	-11282
▁zraste	-11283
▁anglije	-11284
▁antiohi	-11285
▁iskanju	-11286
▁kositra	-11287
▁magnitu	-11288
▁obzidje	-11289
▁opazili	-11290
▁rojstvo	-11291
▁stabili	-11292
▁zastavo	-11293
▁španska	-11294
▁agencija	-11295
▁christum	-11296
▁françois	-11297
▁heraklej	-11298
▁kopenska	-11299
▁norveške	-11300
▁omenjajo	-11301
▁posredno	-11302
▁privedlo	-11303
▁voditelj	-11304
▁zgrajeno	-11305
▁katoliški	-11306
▁nadaljnji	-11307
▁preusmeri	-11308
▁rekonstru	-11309
▁sporazuma	-11310
▁verjamejo	-11311
▁vrhovnega	-11312
▁zahtevajo	-11313
▁združenem	-11314
▁človekove	-11315
▁človeštva	-11316
▁elektroteh	-11317
▁enakomerno	-11318
▁napredoval	-11319
▁oglaševanje	-11320
▁predstojnik	-11321
▁srednjeveški	-11322
lá	-11323
1),	-11324
arl	-11325
dis	-11326
fun	-11327
ing	-11328
ozi	-11329
rba	-11330
tic	-11331
doks	-11332
egip	-11333
hega	-11334
like	-11335
▁1,5	-11336
▁ahi	-11337
▁grb	-11338
▁ono	-11339
▁ray	-11340
enako	-11341
kljub	-11342
nizem	-11343
niške	-11344
preti	-11345
ročij	-11346
talno	-11347
šnico	-11348
žnica	-11349
▁260.	-11350
▁380.	-11351
▁adam	-11352
▁adri	-11353
▁duha	-11354
▁jude	-11355
▁kodo	-11356
▁neja	-11357
▁neva	-11358
▁reso	-11359
▁vemo	-11360
▁zasu	-11361
jščina	-11362
kralje	-11363
stopom	-11364
▁bohin	-11365
▁dohod	-11366
▁fosfa	-11367
▁izvir	-11368
▁jedru	-11369
▁johna	-11370
▁karak	-11371
▁karib	-11372
▁kemik	-11373
▁kroni	-11374
▁lizbo	-11375
▁mreža	-11376
▁nabor	-11377
▁nadre	-11378
▁navzo	-11379
▁oskar	-11380
▁pojas	-11381
▁radia	-11382
▁rudni	-11383
▁srebr	-11384
▁tekom	-11385
▁tokov	-11386
▁vidni	-11387
▁vodno	-11388
▁zapos	-11389
▁zavla	-11390
▁zlate	-11391
▁antiki	-11392
▁debele	-11393
▁gveril	-11394
▁izdaje	-11395
▁marjan	-11396
▁podaja	-11397
▁posest	-11398
▁predvi	-11399
▁stopen	-11400
▁tretjo	-11401
▁utrdbe	-11402
▁varian	-11403
▁aleksej	-11404
▁budimpe	-11405
▁greenwi	-11406
▁interne	-11407
▁kolekti	-11408
▁kratkem	-11409
▁medalje	-11410
▁obrambi	-11411
▁pravlji	-11412
▁sedanji	-11413
▁stranko	-11414
▁člankov	-11415
▁športni	-11416
▁evangeli	-11417
▁navdušen	-11418
▁normalno	-11419
▁podaljša	-11420
▁reakciji	-11421
▁stolnica	-11422
▁uničenje	-11423
▁inteligen	-11424
▁nenavadno	-11425
▁obstajata	-11426
▁tradiciji	-11427
▁umetnikov	-11428
▁džingiskan	-11429
▁najuspešne	-11430
▁nasprotnik	-11431
▁nizozemsko	-11432
▁pogostosti	-11433
▁pravoslavne	-11434
▁slovenščino	-11435
▁šestdesetih	-11436
▁državljanski	-11437
▁relativnosti	-11438
▁sistematično	-11439
▁bizantinskega	-11440
').	-11441
cid	-11442
det	-11443
tip	-11444
biča	-11445
dani	-11446
ldžu	-11447
lišč	-11448
majo	-11449
vano	-11450
▁900	-11451
▁meč	-11452
▁330.	-11453
▁450.	-11454
▁5000	-11455
▁camp	-11456
▁luka	-11457
▁odpu	-11458
▁oran	-11459
▁pres	-11460
▁ruše	-11461
▁sati	-11462
▁umre	-11463
dnevni	-11464
lovega	-11465
pravah	-11466
▁atena	-11467
▁bosne	-11468
▁celje	-11469
▁force	-11470
▁kočev	-11471
▁nižji	-11472
▁prezi	-11473
▁tanke	-11474
▁udoma	-11475
▁zauži	-11476
▁šolah	-11477
izvirno	-11478
landiji	-11479
▁ideali	-11480
▁irskem	-11481
▁mostov	-11482
▁muziko	-11483
▁naučil	-11484
▁novimi	-11485
▁progla	-11486
▁sirije	-11487
▁trajno	-11488
▁truplo	-11489
▁širšem	-11490
▁formulo	-11491
▁gregori	-11492
▁končalo	-11493
▁omrežja	-11494
▁prilaga	-11495
▁reagira	-11496
▁središč	-11497
▁tretjem	-11498
▁turčije	-11499
▁veljalo	-11500
približno	-11501
▁benjamin	-11502
▁distribu	-11503
▁določiti	-11504
▁kemijski	-11505
▁liberali	-11506
▁nasproti	-11507
▁odposlan	-11508
▁področij	-11509
▁pojavilo	-11510
▁poročilo	-11511
▁prevedel	-11512
▁prihodom	-11513
▁primeren	-11514
▁programe	-11515
▁ptolemaj	-11516
▁sprednji	-11517
▁načrtoval	-11518
▁ohranjeni	-11519
▁pripeljal	-11520
▁skupinami	-11521
▁specialne	-11522
▁zaporedja	-11523
▁pridružila	-11524
▁fotografije	-11525
▁institucije	-11526
▁načrtovanje	-11527
▁oblikovanju	-11528
▁prestolnice	-11529
▁industrijske	-11530
▁dostojevskega	-11531
▁osamosvojitve	-11532
▁znanstvenikov	-11533
cz	-11534
sv	-11535
sy	-11536
enu	-11537
meh	-11538
sio	-11539
▁sc	-11540
haus	-11541
oksi	-11542
roni	-11543
tele	-11544
▁dno	-11545
▁mra	-11546
▁ora	-11547
▁pin	-11548
▁qui	-11549
▁sie	-11550
dalji	-11551
motor	-11552
sedaj	-11553
semen	-11554
stven	-11555
črkov	-11556
žnimi	-11557
▁1800	-11558
▁fazo	-11559
▁frak	-11560
▁iber	-11561
▁moli	-11562
▁nama	-11563
▁schu	-11564
▁sija	-11565
▁suho	-11566
▁timu	-11567
▁tovo	-11568
▁trak	-11569
▁tram	-11570
▁zidu	-11571
▁šahi	-11572
magnet	-11573
zirati	-11574
▁bombe	-11575
▁celem	-11576
▁ciril	-11577
▁dekli	-11578
▁evkli	-11579
▁konju	-11580
▁mozai	-11581
▁prora	-11582
▁redki	-11583
▁rekel	-11584
▁steno	-11585
▁teodo	-11586
▁zrcal	-11587
▁živih	-11588
▁dvanaj	-11589
▁dvojni	-11590
▁islama	-11591
▁izraža	-11592
▁kopali	-11593
▁krajši	-11594
▁predal	-11595
▁psevdo	-11596
▁pustil	-11597
▁seldžu	-11598
▁sestro	-11599
▁stavek	-11600
▁stroja	-11601
▁uradne	-11602
▁široka	-11603
nadirska	-11604
▁delitve	-11605
▁faraona	-11606
▁mojster	-11607
▁naslova	-11608
▁objekte	-11609
▁okrajša	-11610
▁omeniti	-11611
▁poganja	-11612
▁prispel	-11613
▁razvita	-11614
▁staršev	-11615
▁tbilisi	-11616
▁turčiji	-11617
▁velemoj	-11618
▁armenija	-11619
▁bronaste	-11620
▁klasična	-11621
▁nadškofi	-11622
▁obremeni	-11623
▁potekalo	-11624
▁prisotni	-11625
▁procesov	-11626
▁projektu	-11627
▁restavra	-11628
▁umaknili	-11629
▁upokojil	-11630
▁vsekakor	-11631
▁zgraditi	-11632
▁koncentri	-11633
▁konstante	-11634
▁notranjih	-11635
▁podpirajo	-11636
▁predhodno	-11637
▁referendu	-11638
▁aminokisli	-11639
▁izdelovali	-11640
▁nizozemske	-11641
▁poimenovan	-11642
▁prebivalca	-11643
▁posamezniki	-11644
▁postavljena	-11645
▁schrödinger	-11646
nit	-11647
rer	-11648
rez	-11649
tia	-11650
vju	-11651
zio	-11652
čim	-11653
▁(+	-11654
▁pé	-11655
angl	-11656
hrva	-11657
indi	-11658
lice	-11659
tiku	-11660
▁(1.	-11661
▁000	-11662
▁70.	-11663
▁ovo	-11664
▁sau	-11665
ciden	-11666
cizem	-11667
dstva	-11668
tting	-11669
▁(180	-11670
▁(186	-11671
▁1908	-11672
▁270.	-11673
▁370.	-11674
▁dote	-11675
▁empi	-11676
▁flav	-11677
▁liga	-11678
▁lisz	-11679
▁mumi	-11680
▁nauk	-11681
▁pelo	-11682
▁podi	-11683
▁ugla	-11684
primer	-11685
▁1945,	-11686
▁anglo	-11687
▁bojna	-11688
▁cassi	-11689
▁jezui	-11690
▁kanta	-11691
▁krize	-11692
▁metra	-11693
▁oceni	-11694
▁padec	-11695
▁perze	-11696
▁potok	-11697
▁termi	-11698
▁težka	-11699
▁zapor	-11700
▁celina	-11701
▁daljši	-11702
▁ideolo	-11703
▁kampan	-11704
▁logari	-11705
▁ločeni	-11706
▁prekli	-11707
▁pretre	-11708
▁sončne	-11709
▁strank	-11710
▁walesa	-11711
stavljen	-11712
▁hongkon	-11713
▁izbruhu	-11714
▁izgovor	-11715
▁izvirno	-11716
▁ljudski	-11717
▁poezije	-11718
▁posneli	-11719
▁prevodu	-11720
▁procesa	-11721
▁reformi	-11722
▁regijah	-11723
▁subtrop	-11724
▁vodilni	-11725
▁zračnih	-11726
▁federati	-11727
▁interven	-11728
▁izdelavi	-11729
▁lestvici	-11730
▁nanašajo	-11731
▁omejitve	-11732
▁pomagali	-11733
▁pripravo	-11734
▁resnično	-11735
▁rezervat	-11736
▁tehnično	-11737
▁uporaben	-11738
▁vzhodnih	-11739
▁zapisana	-11740
▁kemijskih	-11741
▁prejšnjih	-11742
▁sestavina	-11743
▁trgovskih	-11744
▁gledališču	-11745
▁življenjske	-11746
ín	-11747
mun	-11748
pos	-11749
ssn	-11750
wan	-11751
▁67	-11752
▁hy	-11753
▁my	-11754
bala	-11755
fere	-11756
velj	-11757
šijo	-11758
ščal	-11759
▁dež	-11760
▁mac	-11761
▁mej	-11762
▁pul	-11763
▁thi	-11764
▁wer	-11765
▁zju	-11766
▁1905	-11767
▁1906	-11768
▁290.	-11769
▁310.	-11770
▁390.	-11771
▁abdu	-11772
▁amen	-11773
▁ceno	-11774
▁ekso	-11775
▁kriv	-11776
▁land	-11777
▁olje	-11778
▁rado	-11779
▁vtis	-11780
dovali	-11781
hodnih	-11782
jskemu	-11783
partma	-11784
čanjem	-11785
▁karte	-11786
▁lovec	-11787
▁major	-11788
▁močni	-11789
▁obmor	-11790
▁pozni	-11791
▁prepi	-11792
▁razpu	-11793
▁scott	-11794
▁sklad	-11795
▁varja	-11796
▁vergi	-11797
▁vojak	-11798
▁četrt	-11799
zijskih	-11800
▁algebr	-11801
▁filmih	-11802
▁hermes	-11803
▁krogla	-11804
▁mojstr	-11805
▁odstop	-11806
▁pisali	-11807
▁preneh	-11808
▁prislu	-11809
▁pritok	-11810
▁prosil	-11811
▁strune	-11812
▁zvezdo	-11813
▁četrto	-11814
▁širino	-11815
00000000	-11816
lizacije	-11817
▁biokemi	-11818
▁brezpla	-11819
▁dimitri	-11820
▁kariere	-11821
▁karieri	-11822
▁mariner	-11823
▁naslika	-11824
▁osončju	-11825
▁ostanek	-11826
▁windows	-11827
▁švedska	-11828
▁bogastvo	-11829
▁gibljejo	-11830
▁konflikt	-11831
▁kulturna	-11832
▁razdaljo	-11833
▁razvidno	-11834
▁tekmoval	-11835
▁učenjaki	-11836
▁vplivalo	-11837
▁dediščino	-11838
▁gospodinj	-11839
▁namenjeno	-11840
▁navidezno	-11841
▁pogajanja	-11842
▁poškodova	-11843
▁samostana	-11844
▁krščanskih	-11845
▁ohranjenih	-11846
▁programski	-11847
▁spominskega	-11848
▁sredozemsko	-11849
▁observatorij	-11850
ep	-11851
og	-11852
bit	-11853
vol	-11854
vse	-11855
▁bé	-11856
inov	-11857
poro	-11858
rejo	-11859
rita	-11860
čimi	-11861
▁bas	-11862
▁dur	-11863
▁fjo	-11864
▁idr	-11865
▁law	-11866
▁tir	-11867
▁usd	-11868
▁šii	-11869
isson	-11870
kespe	-11871
klesa	-11872
tniku	-11873
▁240.	-11874
▁ambi	-11875
▁city	-11876
▁haro	-11877
▁http	-11878
▁koza	-11879
▁pret	-11880
▁spri	-11881
▁trži	-11882
▁vita	-11883
novega	-11884
slovec	-11885
▁2000.	-11886
▁barto	-11887
▁figur	-11888
▁gline	-11889
▁jamaj	-11890
▁komet	-11891
▁konce	-11892
▁mirno	-11893
▁obroč	-11894
teljica	-11895
▁aachen	-11896
▁avtoma	-11897
▁celica	-11898
▁dosega	-11899
▁govora	-11900
▁grčija	-11901
▁hribov	-11902
▁izbran	-11903
▁jezusa	-11904
▁nomina	-11905
▁primož	-11906
▁skorje	-11907
▁tednov	-11908
▁ukrepi	-11909
▁uravna	-11910
▁članic	-11911
▁gorovja	-11912
▁karavan	-11913
▁krimina	-11914
▁kromato	-11915
▁meteoro	-11916
▁mladega	-11917
▁obsojen	-11918
▁pogojev	-11919
▁urjenje	-11920
▁veljala	-11921
▁zastave	-11922
▁zjutraj	-11923
▁žuželke	-11924
▁imperiju	-11925
▁nezadovo	-11926
▁pesnitev	-11927
▁policija	-11928
▁pomoršča	-11929
▁prisotna	-11930
▁produkti	-11931
▁skupnega	-11932
▁uvrščeno	-11933
▁zasebnih	-11934
▁arheologi	-11935
▁inštituta	-11936
▁krščansko	-11937
▁njegovemu	-11938
▁postopkov	-11939
▁ustvarila	-11940
▁zagotovil	-11941
▁glasbeniki	-11942
▁kristjanov	-11943
▁madžarskem	-11944
▁obveznosti	-11945
▁razdeljeno	-11946
▁zakonodaja	-11947
▁industriali	-11948
▁ljubljanske	-11949
▁zavezniških	-11950
▁observatorija	-11951
▁tradicionalna	-11952
54	-11953
yu	-11954
cto	-11955
kes	-11956
lce	-11957
oče	-11958
qua	-11959
udí	-11960
vje	-11961
▁(8	-11962
▁0.	-11963
▁66	-11964
brez	-11965
klop	-11966
mske	-11967
ritz	-11968
znem	-11969
zore	-11970
▁%).	-11971
▁arm	-11972
▁pie	-11973
▁wei	-11974
desan	-11975
roman	-11976
tions	-11977
člove	-11978
šanja	-11979
▁1909	-11980
▁280.	-11981
▁apne	-11982
▁chri	-11983
▁clar	-11984
▁izbo	-11985
▁oslo	-11986
▁sopo	-11987
▁stis	-11988
▁tebe	-11989
▁vanj	-11990
▁vira	-11991
▁zime	-11992
▁črta	-11993
▁žita	-11994
ljenem	-11995
mehani	-11996
peljan	-11997
čenega	-11998
▁ambro	-11999
▁andré	-12000
▁ciklu	-12001
▁dežja	-12002
▁ekspo	-12003
▁gaudí	-12004
▁irski	-12005
▁križi	-12006
▁kuban	-12007
▁leksi	-12008
▁motiv	-12009
▁nesmr	-12010
▁obred	-12011
▁odprl	-12012
▁odred	-12013
▁pesti	-12014
▁preho	-12015
▁tanka	-12016
▁ubili	-12017
▁uglas	-12018
▁vodje	-12019
▁čigar	-12020
▁črpal	-12021
loškega	-12022
▁dotlej	-12023
▁enajst	-12024
▁enotno	-12025
▁izgubi	-12026
▁jakost	-12027
▁matija	-12028
▁moralo	-12029
▁moskvo	-12030
▁močnim	-12031
▁odvija	-12032
▁prosti	-12033
▁srbiji	-12034
▁srbski	-12035
▁zbirki	-12036
▁zeleni	-12037
ljevanja	-12038
▁beethov	-12039
▁bojišču	-12040
▁ferrari	-12041
▁grščine	-12042
▁jacques	-12043
▁komponi	-12044
▁mladeni	-12045
▁podčast	-12046
▁pogosti	-12047
▁polobli	-12048
▁razredi	-12049
▁religio	-12050
▁umetnik	-12051
▁edinstve	-12052
▁izgublja	-12053
▁libanonu	-12054
▁poljskem	-12055
▁pomorsko	-12056
▁poročnik	-12057
▁postopka	-12058
▁ranjenih	-12059
▁razmerju	-12060
▁rolkanje	-12061
▁sistemih	-12062
▁upošteva	-12063
▁znamenje	-12064
▁dogajanje	-12065
▁eksploziv	-12066
▁raztaplja	-12067
▁spremembi	-12068
▁antarktiki	-12069
▁geografske	-12070
▁kmetijstva	-12071
▁mitologija	-12072
▁največjega	-12073
▁postavitev	-12074
▁problemati	-12075
▁egipčanskih	-12076
▁kombinaciji	-12077
▁eksperimenta	-12078
▁porazdelitev	-12079
▁klasifikacija	-12080
')	-12081
3).	-12082
inu	-12083
jon	-12084
nga	-12085
phy	-12086
zoi	-12087
jean	-12088
mbar	-12089
mska	-12090
nese	-12091
tsch	-12092
zako	-12093
zala	-12094
čane	-12095
čice	-12096
šiti	-12097
▁2,5	-12098
▁pij	-12099
▁zbe	-12100
datum	-12101
kovič	-12102
provi	-12103
rence	-12104
▁1904	-12105
▁470.	-12106
▁anda	-12107
▁medu	-12108
▁oblo	-12109
▁pero	-12110
▁rena	-12111
▁vili	-12112
▁bazal	-12113
▁desne	-12114
▁dolin	-12115
▁doseg	-12116
▁fosfo	-12117
▁lahka	-12118
▁obzor	-12119
▁ofici	-12120
▁pisec	-12121
▁previ	-12122
▁srečo	-12123
▁talen	-12124
▁torpe	-12125
▁ulice	-12126
▁valja	-12127
▁zalju	-12128
▁člane	-12129
▁školj	-12130
▁borili	-12131
▁diagra	-12132
▁kemijo	-12133
▁krompi	-12134
▁luknje	-12135
▁modela	-12136
▁moskve	-12137
▁obnovo	-12138
▁obredi	-12139
▁odkrit	-12140
▁omejen	-12141
▁pojava	-12142
▁prerok	-12143
▁priteg	-12144
▁sklepa	-12145
▁vetrov	-12146
▁vplete	-12147
▁zmeraj	-12148
▁zmerno	-12149
▁dominik	-12150
▁ključno	-12151
▁kositer	-12152
▁nesreče	-12153
▁nečisto	-12154
▁omenjen	-12155
▁pisanju	-12156
▁portoro	-12157
▁poskusu	-12158
▁poslala	-12159
▁poznana	-12160
▁pristal	-12161
▁stopenj	-12162
▁študiju	-12163
▁ženskih	-12164
▁angleške	-12165
▁filharmo	-12166
▁katarina	-12167
▁kemijsko	-12168
▁libanona	-12169
▁ohranilo	-12170
▁osebnega	-12171
▁podnebja	-12172
▁primarni	-12173
▁sosednje	-12174
▁cerkvenih	-12175
▁duhovniki	-12176
▁evropskem	-12177
▁habsburža	-12178
▁poskušala	-12179
▁taksonomi	-12180
▁temeljila	-12181
▁zapustili	-12182
▁oblikovala	-12183
▁odvisnosti	-12184
▁prevodnost	-12185
▁sodelujejo	-12186
▁superprevo	-12187
▁izboljšanje	-12188
▁poimenovana	-12189
▁proizvajajo	-12190
▁tehnologijo	-12191
▁verjetnosti	-12192
▁obiskovalcev	-12193
▁razporeditev	-12194
cco	-12195
lur	-12196
roy	-12197
tio	-12198
vri	-12199
yle	-12200
čmi	-12201
▁88	-12202
▁lé	-12203
bula	-12204
ceni	-12205
dska	-12206
geor	-12207
giji	-12208
treb	-12209
tten	-12210
zave	-12211
▁0,0	-12212
▁90.	-12213
▁end	-12214
▁hei	-12215
▁imu	-12216
▁lar	-12217
▁las	-12218
▁nim	-12219
▁und	-12220
lično	-12221
razen	-12222
štvom	-12223
▁340.	-12224
▁feld	-12225
▁kamp	-12226
▁nila	-12227
▁ogre	-12228
▁osmi	-12229
▁peča	-12230
▁pivo	-12231
▁tihi	-12232
▁uslu	-12233
▁učbe	-12234
▁znal	-12235
▁župa	-12236
grange	-12237
krščan	-12238
ljenim	-12239
zijske	-12240
žnikov	-12241
▁2004.	-12242
▁dnevi	-12243
▁epizo	-12244
▁goste	-12245
▁miche	-12246
▁place	-12247
▁prema	-12248
▁slavi	-12249
▁steph	-12250
▁viadu	-12251
▁zmesi	-12252
▁štela	-12253
grafiji	-12254
▁ciljev	-12255
▁cirili	-12256
▁davkov	-12257
▁dvojno	-12258
▁izbere	-12259
▁napako	-12260
▁odprav	-12261
▁pisavi	-12262
▁presku	-12263
▁soglas	-12264
▁starši	-12265
▁svetih	-12266
▁težkih	-12267
▁trubar	-12268
▁učinki	-12269
▁štefan	-12270
▁arabska	-12271
▁delovno	-12272
▁glasbil	-12273
▁gorskih	-12274
▁hranijo	-12275
▁podlago	-12276
▁pojavov	-12277
▁potenci	-12278
▁rastejo	-12279
▁ravnini	-12280
▁sprosti	-12281
▁stalina	-12282
▁stritar	-12283
▁uradnih	-12284
▁zgradbi	-12285
▁amenhote	-12286
▁aritmeti	-12287
▁dogodkih	-12288
▁domovino	-12289
▁giovanni	-12290
▁interese	-12291
▁internet	-12292
▁mikrosko	-12293
▁omenjeni	-12294
▁omenjeno	-12295
▁polovice	-12296
▁prejšnje	-12297
▁preučuje	-12298
▁razpadla	-12299
▁toplotno	-12300
▁šahovske	-12301
▁ekosistem	-12302
▁klasičnih	-12303
▁konfedera	-12304
▁kvadratni	-12305
▁nadmorski	-12306
▁namenjeni	-12307
▁norveškem	-12308
▁odvisnost	-12309
▁prihajajo	-12310
▁pripadajo	-12311
▁skupščina	-12312
▁sodelavci	-12313
▁sporazume	-12314
▁uporabimo	-12315
▁določenega	-12316
▁muslimanov	-12317
▁preprečuje	-12318
▁prizorišče	-12319
▁starodavni	-12320
▁upoštevati	-12321
▁verjetnost	-12322
▁avtomobilov	-12323
▁prikazujejo	-12324
▁sestavljeni	-12325
▁gospodarskih	-12326
▁instrumentov	-12327
▁pristojnosti	-12328
▁računalnikov	-12329
//	-12330
gl	-12331
žb	-12332
flu	-12333
new	-12334
sim	-12335
vod	-12336
čas	-12337
▁82	-12338
gata	-12339
nima	-12340
zane	-12341
▁cra	-12342
▁dun	-12343
▁ema	-12344
▁jak	-12345
▁jez	-12346
▁kuh	-12347
▁vdi	-12348
torje	-12349
▁1903	-12350
▁kras	-12351
▁nate	-12352
▁roki	-12353
▁vija	-12354
▁vnet	-12355
▁vrta	-12356
centra	-12357
lovska	-12358
▁blagi	-12359
▁bosta	-12360
▁cesto	-12361
▁dvoji	-12362
▁fermi	-12363
▁massa	-12364
▁mount	-12365
▁okupi	-12366
▁prvim	-12367
▁sanja	-12368
▁sarko	-12369
▁silah	-12370
▁teren	-12371
▁tolma	-12372
▁vedel	-12373
▁viden	-12374
▁vodah	-12375
▁češki	-12376
▁živec	-12377
pustila	-12378
▁40.000	-12379
▁akcija	-12380
▁blagov	-12381
▁doktor	-12382
▁gibral	-12383
▁goethe	-12384
▁igrala	-12385
▁mošeja	-12386
▁nivoju	-12387
▁osnove	-12388
▁otvori	-12389
▁presti	-12390
▁rešiti	-12391
▁simpto	-12392
▁tekoče	-12393
▁unifor	-12394
▁uredil	-12395
▁zbolel	-12396
▁zgledu	-12397
▁bogoslu	-12398
▁dodatek	-12399
▁etnična	-12400
▁izpodri	-12401
▁kombini	-12402
▁koristi	-12403
▁motorji	-12404
▁nadškof	-12405
▁odlično	-12406
▁odstopi	-12407
▁omejuje	-12408
▁pesnika	-12409
▁poletje	-12410
▁razcvet	-12411
▁razprav	-12412
▁rodbine	-12413
▁svoboda	-12414
▁termina	-12415
▁uničiti	-12416
▁zgornja	-12417
▁študent	-12418
▁dodatnih	-12419
▁domovini	-12420
▁kakovost	-12421
▁oblikuje	-12422
▁plezanje	-12423
▁pomorska	-12424
▁tekočina	-12425
▁arabskega	-12426
▁atlantski	-12427
▁dvajsetih	-12428
▁elektroni	-12429
▁logaritem	-12430
▁najmanjša	-12431
▁obstajati	-12432
▁oddaljena	-12433
▁računanje	-12434
▁ukvarjajo	-12435
▁vključeni	-12436
▁zamenjali	-12437
▁cambridgeu	-12438
▁definiciji	-12439
▁naslednjem	-12440
▁pridobitev	-12441
▁pripeljalo	-12442
▁specifična	-12443
▁zmanjšanje	-12444
▁železniške	-12445
▁novoustanov	-12446
▁sestavljene	-12447
▁generalštaba	-12448
▁osamosvojitvi	-12449
▁konstantinopla	-12450
ća	-12451
ра	-12452
dže	-12453
oce	-12454
gane	-12455
lami	-12456
mono	-12457
nita	-12458
▁edu	-12459
▁vti	-12460
▁čel	-12461
plici	-12462
vklju	-12463
▁1200	-12464
▁arka	-12465
▁cena	-12466
▁holo	-12467
▁izob	-12468
▁jami	-12469
▁kala	-12470
▁kmeč	-12471
▁koši	-12472
▁naje	-12473
▁ogle	-12474
▁orbi	-12475
▁pete	-12476
▁plen	-12477
▁tole	-12478
lacija	-12479
▁1945.	-12480
▁black	-12481
▁dvoži	-12482
▁haydn	-12483
▁hrana	-12484
▁izena	-12485
▁meril	-12486
▁monta	-12487
▁razso	-12488
▁regij	-12489
▁roger	-12490
▁skulp	-12491
▁stani	-12492
▁švici	-12493
hodnega	-12494
▁greben	-12495
▁kmetje	-12496
▁metodi	-12497
▁nosili	-12498
▁ploske	-12499
▁rekord	-12500
▁režima	-12501
▁tobaka	-12502
▁žalost	-12503
▁gradiva	-12504
▁izrazom	-12505
▁legenda	-12506
▁stebrov	-12507
▁violino	-12508
▁agencije	-12509
▁dodeljen	-12510
▁dunajski	-12511
▁membrane	-12512
▁podzemne	-12513
▁protokol	-12514
▁republik	-12515
▁sprožila	-12516
▁stranski	-12517
▁templjev	-12518
▁vseboval	-12519
▁aktivnost	-12520
▁elektroli	-12521
▁fakultete	-12522
▁nameraval	-12523
▁naslednjo	-12524
▁podmornic	-12525
▁pokrivajo	-12526
▁posebnost	-12527
▁sosednjih	-12528
▁voditelja	-12529
▁vsebovala	-12530
▁zapustiti	-12531
▁častnikov	-12532
▁živalskih	-12533
▁direktorja	-12534
▁kmetijskih	-12535
▁latinščini	-12536
▁marinskega	-12537
▁osrednjega	-12538
▁posameznik	-12539
▁kalifornija	-12540
▁zdravljenja	-12541
▁srednjeveške	-12542
▁državljanstvo	-12543
▁international	-12544
57	-12545
58	-12546
dl	-12547
ск	-12548
100	-12549
4).	-12550
bet	-12551
cie	-12552
das	-12553
dbu	-12554
mbu	-12555
pec	-12556
pul	-12557
sca	-12558
▁).	-12559
▁69	-12560
▁72	-12561
▁76	-12562
bese	-12563
deže	-12564
erra	-12565
mont	-12566
stka	-12567
stle	-12568
tice	-12569
tkom	-12570
▁110	-12571
▁bag	-12572
▁dam	-12573
▁mrk	-12574
▁nan	-12575
▁ode	-12576
dobij	-12577
dovan	-12578
logov	-12579
▁4000	-12580
▁brus	-12581
▁kože	-12582
▁olja	-12583
▁pasi	-12584
▁save	-12585
chuset	-12586
ovodja	-12587
taciji	-12588
tičnih	-12589
▁ataše	-12590
▁banke	-12591
▁histo	-12592
▁ideal	-12593
▁kaspi	-12594
▁krilo	-12595
▁lenno	-12596
▁marka	-12597
▁odsek	-12598
▁odško	-12599
▁regen	-12600
▁stoje	-12601
▁tekmi	-12602
▁timur	-12603
▁tokio	-12604
▁tragi	-12605
▁znake	-12606
▁češka	-12607
▁žarki	-12608
kovanja	-12609
niškega	-12610
special	-12611
▁alkali	-12612
▁amster	-12613
▁arheje	-12614
▁centru	-12615
▁dansko	-12616
▁jernej	-12617
▁koncil	-12618
▁koreji	-12619
▁krogle	-12620
▁linija	-12621
▁russel	-12622
▁stolpi	-12623
▁vidijo	-12624
ameriški	-12625
▁antične	-12626
▁balkanu	-12627
▁beograd	-12628
▁delovna	-12629
▁globino	-12630
▁grobnic	-12631
▁kavkaza	-12632
▁kemične	-12633
▁mnogimi	-12634
▁obdobij	-12635
▁obdržal	-12636
▁odporni	-12637
▁oxfordu	-12638
▁popolna	-12639
▁poravna	-12640
▁prekopa	-12641
▁premoga	-12642
▁protina	-12643
▁razlago	-12644
▁skladba	-12645
▁skladno	-12646
▁časovni	-12647
▁škofije	-12648
▁določili	-12649
▁elektron	-12650
▁kateremu	-12651
▁minerali	-12652
▁norveško	-12653
▁obnavlja	-12654
▁obrambne	-12655
▁pokazali	-12656
▁preprost	-12657
▁razvijal	-12658
▁slovanov	-12659
▁stroškov	-12660
▁ustrezni	-12661
▁aluminije	-12662
▁christian	-12663
▁hidroksid	-12664
▁izumitelj	-12665
▁podpirali	-12666
▁raztopini	-12667
▁spremljal	-12668
▁univerzal	-12669
▁impresioni	-12670
▁konjeniški	-12671
▁prireditev	-12672
▁privrženci	-12673
▁simfonični	-12674
▁ustvarjajo	-12675
▁arhitekturi	-12676
▁postavljeni	-12677
▁prostornino	-12678
▁ustvarjanja	-12679
"«	-12680
gg	-12681
ky	-12682
rl	-12683
dus	-12684
pne	-12685
stó	-12686
zme	-12687
šak	-12688
▁(7	-12689
▁6,	-12690
▁68	-12691
▁8,	-12692
▁ya	-12693
buje	-12694
enne	-12695
fona	-12696
prvi	-12697
rene	-12698
zman	-12699
šček	-12700
ženj	-12701
žina	-12702
▁heb	-12703
▁ned	-12704
▁nel	-12705
▁zbu	-12706
briel	-12707
steri	-12708
▁350.	-12709
▁amon	-12710
▁bota	-12711
▁bošt	-12712
▁fina	-12713
▁izur	-12714
▁klav	-12715
▁odbo	-12716
▁sazu	-12717
▁schi	-12718
▁seba	-12719
▁skon	-12720
litika	-12721
▁dante	-12722
▁glasi	-12723
▁glavi	-12724
▁izmer	-12725
▁kenne	-12726
▁klini	-12727
▁kraje	-12728
▁lango	-12729
▁ljubo	-12730
▁mleko	-12731
▁nitra	-12732
▁nižja	-12733
▁odšla	-12734
▁okolj	-12735
▁poteg	-12736
▁rasto	-12737
▁razbi	-12738
▁sardi	-12739
▁tehta	-12740
▁vodna	-12741
▁zgodb	-12742
▁zlora	-12743
krivlje	-12744
stičnim	-12745
▁desnem	-12746
▁franki	-12747
▁izdali	-12748
▁izgubo	-12749
▁ludwig	-12750
▁nemcev	-12751
▁osebne	-12752
▁pariza	-12753
▁plovbo	-12754
▁podprl	-12755
▁pokaže	-12756
▁prakse	-12757
▁prekop	-12758
▁razvit	-12759
▁steber	-12760
▁turško	-12761
▁zavest	-12762
▁črkami	-12763
▁žveplo	-12764
števanje	-12765
▁bernard	-12766
▁izdelke	-12767
▁količin	-12768
▁nedeljo	-12769
▁nepreki	-12770
▁odrasle	-12771
▁okolice	-12772
▁opustil	-12773
▁očetovi	-12774
▁razstav	-12775
▁spekter	-12776
▁spopadi	-12777
▁vplivov	-12778
▁avtorjev	-12779
▁franklin	-12780
▁invazijo	-12781
▁izdelali	-12782
▁izdelava	-12783
▁izvajala	-12784
▁ledeniki	-12785
▁manjšine	-12786
▁nakazuje	-12787
▁navkljub	-12788
▁odškodni	-12789
▁opravila	-12790
▁predniki	-12791
▁prefektu	-12792
▁severnih	-12793
▁shakespe	-12794
▁umaknila	-12795
▁festivalu	-12796
▁fizikalna	-12797
▁frankfurt	-12798
▁knjižnico	-12799
▁negativno	-12800
▁nevtronov	-12801
▁ostrostre	-12802
▁samostanu	-12803
▁daljnogled	-12804
▁dokumentov	-12805
▁kategoriji	-12806
▁kraljevino	-12807
▁opravljajo	-12808
▁populacija	-12809
▁preprečiti	-12810
▁uporabniki	-12811
▁učinkovite	-12812
▁astronomske	-12813
▁instrumenti	-12814
▁odgovornost	-12815
▁razsvetljen	-12816
▁zagotavljanje	-12817
)",	-12818
199	-12819
isi	-12820
íja	-12821
šin	-12822
▁78	-12823
▁9,	-12824
ener	-12825
hali	-12826
kara	-12827
over	-12828
slet	-12829
turn	-12830
vata	-12831
znik	-12832
žari	-12833
▁350	-12834
▁50.	-12835
▁mat	-12836
▁pel	-12837
▁pia	-12838
ovimi	-12839
praše	-12840
stiko	-12841
ščani	-12842
▁1895	-12843
▁230.	-12844
▁360.	-12845
▁etno	-12846
▁heli	-12847
▁inzu	-12848
▁milj	-12849
▁palu	-12850
▁pojm	-12851
▁tona	-12852
▁ubit	-12853
▁zasi	-12854
▁čile	-12855
▁barce	-12856
▁edvar	-12857
▁farma	-12858
▁grego	-12859
▁hamil	-12860
▁indij	-12861
▁jones	-12862
▁laser	-12863
▁levan	-12864
▁papir	-12865
▁pogoj	-12866
▁porab	-12867
▁prehi	-12868
▁soncu	-12869
▁spoče	-12870
▁world	-12871
▁člena	-12872
ziranje	-12873
ževanja	-12874
▁bratom	-12875
▁celovi	-12876
▁enotam	-12877
▁ernest	-12878
▁fronto	-12879
▁gorska	-12880
▁igrati	-12881
▁izraču	-12882
▁konkre	-12883
▁ločuje	-12884
▁nagrad	-12885
▁ocenah	-12886
▁palači	-12887
▁popoln	-12888
▁prikri	-12889
▁rečemo	-12890
▁službi	-12891
▁stolpa	-12892
▁tokovi	-12893
▁učenci	-12894
▁učinke	-12895
▁zakone	-12896
komunika	-12897
▁diplomi	-12898
▁fizično	-12899
▁gledano	-12900
▁jarosla	-12901
▁karolin	-12902
▁občutek	-12903
▁oddelku	-12904
▁povezav	-12905
▁promovi	-12906
▁spojina	-12907
▁srebrno	-12908
▁telesno	-12909
▁uspešna	-12910
▁vrhovno	-12911
▁vznožju	-12912
▁washing	-12913
▁winslet	-12914
▁zunanja	-12915
▁drugačen	-12916
▁manjšina	-12917
▁norveški	-12918
▁obdelavo	-12919
▁obrambno	-12920
▁odstopil	-12921
▁opozarja	-12922
▁predaval	-12923
▁prevlado	-12924
▁trdnjavo	-12925
▁turistov	-12926
▁umakniti	-12927
▁vplivali	-12928
▁zmanjšal	-12929
▁človeška	-12930
▁avtoceste	-12931
▁letališča	-12932
▁podeljuje	-12933
▁preproste	-12934
▁zgrajenih	-12935
▁beljakovin	-12936
▁izbruhnila	-12937
▁svetlobnih	-12938
▁turistična	-12939
▁astronomijo	-12940
▁jugovzhodno	-12941
▁jugozahodni	-12942
▁nasprotnika	-12943
▁portugalska	-12944
▁skladatelja	-12945
▁konstrukcija	-12946
▁shranjevanje	-12947
rk	-12948
ст	-12949
1).	-12950
eri	-12951
ffa	-12952
run	-12953
zve	-12954
šje	-12955
▁dž	-12956
▁mö	-12957
▁sz	-12958
code	-12959
juli	-12960
pine	-12961
ware	-12962
zili	-12963
žalo	-12964
▁boe	-12965
▁dor	-12966
▁hud	-12967
▁jah	-12968
▁pit	-12969
▁rig	-12970
▁tea	-12971
▁zaj	-12972
bisci	-12973
dalni	-12974
larni	-12975
letne	-12976
redne	-12977
seksu	-12978
silva	-12979
talne	-12980
▁(198	-12981
▁1899	-12982
▁bakr	-12983
▁broz	-12984
▁fosi	-12985
▁izpa	-12986
▁juga	-12987
▁leda	-12988
▁pnev	-12989
▁spol	-12990
▁vijo	-12991
▁vlad	-12992
graphi	-12993
tonski	-12994
čenjem	-12995
▁adolf	-12996
▁bogat	-12997
▁bosni	-12998
▁della	-12999
▁divji	-13000
▁dubli	-13001
▁freud	-13002
▁grofa	-13003
▁hello	-13004
▁hezbo	-13005
▁jacob	-13006
▁kalde	-13007
▁modra	-13008
▁monar	-13009
▁možne	-13010
▁najte	-13011
▁nakup	-13012
▁parki	-13013
▁poglo	-13014
▁psihi	-13015
▁smemo	-13016
▁spola	-13017
▁trdna	-13018
▁varno	-13019
▁zvrst	-13020
▁členu	-13021
arabsko	-13022
cijskem	-13023
konjeni	-13024
njenost	-13025
sociali	-13026
vnejših	-13027
▁antona	-13028
▁bogove	-13029
▁brskal	-13030
▁dušika	-13031
▁endemi	-13032
▁grafit	-13033
▁kemije	-13034
▁plenil	-13035
▁polemi	-13036
▁prišle	-13037
▁protek	-13038
▁slavni	-13039
▁smatra	-13040
▁vrtovi	-13041
▁zaprli	-13042
▁admiral	-13043
▁cvetovi	-13044
▁dolgoro	-13045
▁dovolil	-13046
▁gladino	-13047
▁jedrska	-13048
▁krajine	-13049
▁naslovi	-13050
▁neenako	-13051
▁ploskev	-13052
▁podlaga	-13053
▁popolni	-13054
▁površju	-13055
▁puščavi	-13056
▁ribolov	-13057
▁statusa	-13058
▁tovarna	-13059
▁zavzela	-13060
▁dokument	-13061
▁kamnitih	-13062
▁kristusa	-13063
▁poljubno	-13064
▁universi	-13065
▁velikono	-13066
▁zdravila	-13067
▁študijem	-13068
▁dokumenta	-13069
▁ekonomsko	-13070
▁frederick	-13071
▁humanisti	-13072
▁izdeloval	-13073
▁kompleksa	-13074
▁odpravili	-13075
▁pogosteje	-13076
▁razdelili	-13077
▁rimljanov	-13078
▁združenje	-13079
▁znameniti	-13080
▁azerbajdža	-13081
▁federacije	-13082
▁oblikovali	-13083
▁potreboval	-13084
▁predpostav	-13085
▁protioklep	-13086
▁zagotoviti	-13087
▁železniška	-13088
▁demokracije	-13089
▁pripravljen	-13090
▁programskih	-13091
▁sredozemlju	-13092
▁termodinami	-13093
▁zemeljskega	-13094
▁industrijski	-13095
▁priljubljene	-13096
▁industrijskih	-13097
kh	-13098
");	-13099
gge	-13100
gine	-13101
hama	-13102
lana	-13103
memb	-13104
rava	-13105
seja	-13106
sova	-13107
zami	-13108
▁gis	-13109
▁sum	-13110
▁ude	-13111
...).	-13112
kultu	-13113
ralne	-13114
slove	-13115
stoji	-13116
tacij	-13117
ženju	-13118
žnice	-13119
▁(199	-13120
▁1888	-13121
▁2500	-13122
▁aktu	-13123
▁enaj	-13124
▁liri	-13125
▁nori	-13126
▁obča	-13127
▁prah	-13128
▁rabe	-13129
▁suha	-13130
▁vire	-13131
▁čase	-13132
kovati	-13133
vinski	-13134
▁bantu	-13135
▁celju	-13136
▁etiop	-13137
▁fizio	-13138
▁hitra	-13139
▁joyce	-13140
▁kijev	-13141
▁krovu	-13142
▁litur	-13143
▁matej	-13144
▁pozej	-13145
▁pošte	-13146
▁prera	-13147
▁ramze	-13148
▁roose	-13149
▁royal	-13150
▁terci	-13151
▁trdne	-13152
▁umrli	-13153
▁vidna	-13154
▁zanem	-13155
ljivimi	-13156
▁botani	-13157
▁celino	-13158
▁gandhi	-13159
▁gradcu	-13160
▁harold	-13161
▁kakšen	-13162
▁kanadi	-13163
▁olajša	-13164
▁opisan	-13165
▁poizku	-13166
▁poroko	-13167
▁ramzes	-13168
▁relief	-13169
▁stalne	-13170
▁umetne	-13171
▁vzgoji	-13172
▁zanika	-13173
▁zvezno	-13174
▁štipen	-13175
▁amonija	-13176
▁harmoni	-13177
▁igranje	-13178
▁investi	-13179
▁kalibra	-13180
▁kapital	-13181
▁meglice	-13182
▁moderna	-13183
▁najnove	-13184
▁napravo	-13185
▁okrožju	-13186
▁ostalim	-13187
▁ozračju	-13188
▁poisson	-13189
▁princip	-13190
▁reševal	-13191
▁spletni	-13192
▁današnjo	-13193
▁glasbila	-13194
▁grobnica	-13195
▁omenjena	-13196
▁potekale	-13197
▁predmest	-13198
▁prostore	-13199
▁prostori	-13200
▁stabilen	-13201
▁storitev	-13202
▁trdnjave	-13203
▁vključen	-13204
▁šahovska	-13205
▁določanje	-13206
▁komunizma	-13207
▁koncertov	-13208
▁ohranjena	-13209
▁radijskih	-13210
▁ustvariti	-13211
▁vesoljski	-13212
▁antarktike	-13213
▁dejavnikov	-13214
▁filozofske	-13215
▁geometrije	-13216
▁identifici	-13217
▁narodnosti	-13218
▁neprestano	-13219
▁starejšega	-13220
▁odlikovanja	-13221
▁pokrovitelj	-13222
▁pomembnejše	-13223
▁rastlinstvo	-13224
▁napredovanje	-13225
▁gospodarskega	-13226
▁konstantinoplu	-13227
mé	-13228
oz	-13229
ví	-13230
ál	-13231
bir	-13232
psi	-13233
arne	-13234
blan	-13235
boli	-13236
dney	-13237
iner	-13238
janj	-13239
mari	-13240
nisa	-13241
reta	-13242
voda	-13243
ščni	-13244
▁art	-13245
▁inš	-13246
▁rey	-13247
▁rus	-13248
▁sek	-13249
▁zor	-13250
▁češ	-13251
glice	-13252
lonče	-13253
menka	-13254
pisih	-13255
tonom	-13256
▁220.	-13257
▁alan	-13258
▁alje	-13259
▁anor	-13260
▁ašur	-13261
▁beta	-13262
▁hora	-13263
▁hugo	-13264
▁long	-13265
▁njun	-13266
▁pakt	-13267
▁plod	-13268
▁ross	-13269
▁safa	-13270
▁soko	-13271
▁ulom	-13272
▁urad	-13273
▁urbe	-13274
▁viii	-13275
kovala	-13276
loškem	-13277
menski	-13278
nskemu	-13279
ogrski	-13280
spekti	-13281
šenega	-13282
▁...).	-13283
▁bruno	-13284
▁grebe	-13285
▁kluba	-13286
▁krvni	-13287
▁mehur	-13288
▁ninur	-13289
▁novak	-13290
▁obrat	-13291
▁petek	-13292
▁sinom	-13293
▁snega	-13294
▁sopro	-13295
▁taylo	-13296
▁ulici	-13297
▁umiku	-13298
▁unija	-13299
▁valva	-13300
▁visko	-13301
▁vzoru	-13302
▁zatek	-13303
▁šesti	-13304
egipčan	-13305
jenosti	-13306
ljublja	-13307
stičnem	-13308
▁drugič	-13309
▁krogih	-13310
▁mihail	-13311
▁močnih	-13312
▁najsla	-13313
▁obalah	-13314
▁obalna	-13315
▁oskrbe	-13316
▁ozadje	-13317
▁serija	-13318
▁sončni	-13319
▁spolno	-13320
▁stanov	-13321
▁trance	-13322
lizacija	-13323
▁amfitea	-13324
▁angleži	-13325
▁apnenca	-13326
▁condita	-13327
▁gruzija	-13328
▁izdelki	-13329
▁izhajal	-13330
▁kolidžu	-13331
▁letalom	-13332
▁meritve	-13333
▁nepriča	-13334
▁ozračje	-13335
▁plečnik	-13336
▁plovila	-13337
▁postaji	-13338
▁poznajo	-13339
▁ravnine	-13340
▁tovarne	-13341
▁viktori	-13342
▁vpeljal	-13343
▁vzpodbu	-13344
▁zmanjše	-13345
▁znanimi	-13346
▁christop	-13347
▁indijske	-13348
▁medicini	-13349
▁osrednjo	-13350
▁ostanejo	-13351
▁podrobno	-13352
▁postopno	-13353
▁potaplja	-13354
▁preslika	-13355
▁sesalcev	-13356
▁zaposlen	-13357
▁božanstev	-13358
▁demonstra	-13359
▁komunizem	-13360
▁nasprotje	-13361
▁specialna	-13362
▁umetniška	-13363
▁zapuščina	-13364
▁angleščina	-13365
▁matematika	-13366
▁petdesetih	-13367
▁povzročile	-13368
▁preostalih	-13369
▁ravnotežje	-13370
▁specifično	-13371
▁umetniških	-13372
▁konstruktor	-13373
▁massachuset	-13374
▁oblikovanja	-13375
▁spremljeval	-13376
▁upodobljena	-13377
▁predstavljalo	-13378
▁severovzhodni	-13379
▁severozahodni	-13380
-+	-13381
ex	-13382
hl	-13383
-15	-13384
6),	-13385
bot	-13386
cli	-13387
phe	-13388
rag	-13389
rey	-13390
yan	-13391
▁tü	-13392
gova	-13393
homo	-13394
tain	-13395
▁cep	-13396
▁voh	-13397
▁xii	-13398
▁zrn	-13399
▁šle	-13400
današ	-13401
kovim	-13402
mični	-13403
▁cink	-13404
▁izte	-13405
▁juan	-13406
▁komo	-13407
▁krmi	-13408
▁leva	-13409
▁lord	-13410
▁majo	-13411
▁monu	-13412
▁piro	-13413
▁pohi	-13414
▁poni	-13415
▁rose	-13416
▁šaha	-13417
jočimi	-13418
nicami	-13419
tanski	-13420
tnajst	-13421
▁balet	-13422
▁baski	-13423
▁ciper	-13424
▁cveto	-13425
▁divja	-13426
▁drama	-13427
▁genov	-13428
▁izrec	-13429
▁koran	-13430
▁mnoga	-13431
▁nekon	-13432
▁oblak	-13433
▁oceno	-13434
▁operi	-13435
▁ostre	-13436
▁padlo	-13437
▁promo	-13438
▁prosi	-13439
▁pusti	-13440
▁reich	-13441
▁sklic	-13442
▁stadi	-13443
▁tkiva	-13444
▁zupan	-13445
▁bolgar	-13446
▁burman	-13447
▁delati	-13448
▁donave	-13449
▁fosfor	-13450
▁foster	-13451
▁hotela	-13452
▁kmetov	-13453
▁kritik	-13454
▁kulina	-13455
▁menili	-13456
▁najdbe	-13457
▁nižjih	-13458
▁obkoli	-13459
▁ogleda	-13460
▁organe	-13461
▁silika	-13462
▁takega	-13463
▁uspela	-13464
▁zadrža	-13465
▁žarkov	-13466
vključno	-13467
▁200.000	-13468
▁drugemu	-13469
▁globina	-13470
▁konting	-13471
▁letenja	-13472
▁luteran	-13473
▁maistra	-13474
▁napravi	-13475
▁plovilo	-13476
▁pobočja	-13477
▁rokopis	-13478
▁spopada	-13479
▁tedanji	-13480
▁titanic	-13481
▁uvrstil	-13482
▁zapisov	-13483
▁zasedbo	-13484
▁bismarck	-13485
▁kardinal	-13486
▁nadstrop	-13487
▁nezakoni	-13488
▁plebisci	-13489
▁razpadom	-13490
▁razstavo	-13491
▁sporočil	-13492
▁športnih	-13493
▁churchill	-13494
▁določitev	-13495
▁elektrona	-13496
▁francisco	-13497
▁karakteri	-13498
▁monarhija	-13499
▁njihovimi	-13500
▁objavljen	-13501
▁okoliških	-13502
▁posledico	-13503
▁praštevil	-13504
▁predstave	-13505
▁razprosti	-13506
▁rezervoar	-13507
▁središčem	-13508
▁umetniške	-13509
▁visokogor	-13510
▁študentov	-13511
▁dvanajstih	-13512
▁egipčanske	-13513
▁intenzivno	-13514
▁kraljevega	-13515
▁oblikujejo	-13516
▁pripeljala	-13517
▁razširjeno	-13518
▁matematične	-13519
▁nadomestila	-13520
▁prepričanja	-13521
▁samoglasnik	-13522
▁zagotavljajo	-13523
▁izobraževanja	-13524
▁izpopolnjeval	-13525
▁jugoslovanski	-13526
▁zgodovinskega	-13527
of	-13528
vé	-13529
pes	-13530
uer	-13531
wen	-13532
ław	-13533
▁74	-13534
▁pl	-13535
▁um	-13536
cchi	-13537
mijo	-13538
pley	-13539
sara	-13540
sena	-13541
skri	-13542
čano	-13543
▁had	-13544
▁izv	-13545
hitre	-13546
karbo	-13547
reich	-13548
stnem	-13549
vedli	-13550
čevje	-13551
▁1880	-13552
▁bach	-13553
▁hori	-13554
▁kant	-13555
▁kato	-13556
▁lito	-13557
▁mode	-13558
▁nemo	-13559
▁nemu	-13560
▁plim	-13561
▁rein	-13562
▁sava	-13563
▁soma	-13564
▁vrte	-13565
▁zima	-13566
parati	-13567
ščinah	-13568
▁1943,	-13569
▁bakre	-13570
▁fosil	-13571
▁garda	-13572
▁gueva	-13573
▁iraku	-13574
▁irsko	-13575
▁iznaj	-13576
▁izpol	-13577
▁ključ	-13578
▁mejah	-13579
▁monsu	-13580
▁možna	-13581
▁natis	-13582
▁piran	-13583
▁plesa	-13584
▁potez	-13585
▁sonda	-13586
▁thomp	-13587
▁črnih	-13588
formula	-13589
▁antike	-13590
▁artefa	-13591
▁dejanj	-13592
▁hipote	-13593
▁kolesa	-13594
▁mesecu	-13595
▁muzeja	-13596
▁nasplo	-13597
▁odprte	-13598
▁pohodu	-13599
▁pojmov	-13600
▁reduci	-13601
▁resolu	-13602
▁slogov	-13603
▁sončev	-13604
▁sporov	-13605
▁stalna	-13606
▁starša	-13607
▁svetom	-13608
▁zlogov	-13609
▁andreja	-13610
▁anorgan	-13611
▁izrazov	-13612
▁lokalna	-13613
▁meritev	-13614
▁povzdig	-13615
▁pravnih	-13616
▁sultana	-13617
▁valovno	-13618
▁črnogor	-13619
▁cesarske	-13620
▁ključnih	-13621
▁legendar	-13622
▁maradona	-13623
▁narediti	-13624
▁narodnih	-13625
▁national	-13626
▁neoklasi	-13627
▁ocenjuje	-13628
▁prejšnji	-13629
▁pristaja	-13630
▁razdalji	-13631
▁skupinah	-13632
▁sposoben	-13633
▁takratne	-13634
▁tehnične	-13635
▁zbiranje	-13636
▁španskih	-13637
▁aristokra	-13638
▁brezposel	-13639
▁duhovnika	-13640
▁formacija	-13641
▁madžarski	-13642
▁najmlajši	-13643
▁omenjenih	-13644
▁osvojitvi	-13645
▁posvečena	-13646
▁preostale	-13647
▁pretvarja	-13648
▁raznovrst	-13649
▁skupščine	-13650
▁temeljito	-13651
▁zamenjala	-13652
▁avstralija	-13653
▁desetletju	-13654
▁konferenca	-13655
▁literarnih	-13656
▁nezadovolj	-13657
▁prevajanje	-13658
▁tisočletje	-13659
▁preimenoval	-13660
▁sestavljata	-13661
▁demokratična	-13662
▁komunistični	-13663
▁matematičnih	-13664
▁nasprotnikov	-13665
▁samostojnost	-13666
km	-13667
fro	-13668
lič	-13669
lyn	-13670
ute	-13671
▁kv	-13672
gonu	-13673
nava	-13674
tman	-13675
▁3,5	-13676
▁aba	-13677
▁asa	-13678
▁haa	-13679
▁ink	-13680
▁net	-13681
▁sue	-13682
▁ubo	-13683
▁vna	-13684
henri	-13685
jenem	-13686
jšemu	-13687
rojen	-13688
venti	-13689
šitve	-13690
▁1898	-13691
▁celj	-13692
▁chan	-13693
▁cone	-13694
▁devi	-13695
▁jazz	-13696
▁klor	-13697
▁lice	-13698
▁plat	-13699
▁wood	-13700
▁zvon	-13701
čeprav	-13702
šnikov	-13703
▁adami	-13704
▁alpah	-13705
▁bazen	-13706
▁depre	-13707
▁dvori	-13708
▁germa	-13709
▁grkov	-13710
▁kupil	-13711
▁nanje	-13712
▁napla	-13713
▁nizka	-13714
▁odmak	-13715
▁opomo	-13716
▁pojma	-13717
▁posle	-13718
▁puški	-13719
▁ravne	-13720
▁santa	-13721
▁tamil	-13722
▁vodjo	-13723
▁august	-13724
▁bitkah	-13725
▁dolgem	-13726
▁jersey	-13727
▁kitare	-13728
▁linijo	-13729
▁nedvom	-13730
▁papeže	-13731
▁paradi	-13732
▁pohoda	-13733
▁polici	-13734
▁sinovi	-13735
▁sodnik	-13736
▁srbske	-13737
▁sužnji	-13738
▁uspeli	-13739
▁zelena	-13740
▁zgodbi	-13741
▁zraven	-13742
▁žuželk	-13743
▁aktivni	-13744
▁avtorja	-13745
▁boginjo	-13746
▁dvorana	-13747
▁igralca	-13748
▁igranja	-13749
▁inciden	-13750
▁mandela	-13751
▁množici	-13752
▁načrtih	-13753
▁predava	-13754
▁premalo	-13755
▁privede	-13756
▁razvito	-13757
▁sledile	-13758
▁violini	-13759
▁zaščiti	-13760
ranjujejo	-13761
teroristi	-13762
▁angleška	-13763
▁delovali	-13764
▁etničnih	-13765
▁motorjev	-13766
▁nekdanja	-13767
▁obiskala	-13768
▁obljubil	-13769
▁odstotka	-13770
▁oriental	-13771
▁podjetju	-13772
▁poletnih	-13773
▁poslabša	-13774
▁prispeva	-13775
▁sarajevu	-13776
▁socialni	-13777
▁tretjino	-13778
▁violonče	-13779
konjeniška	-13780
▁aristotel	-13781
▁kovinskih	-13782
▁nastopila	-13783
▁partizani	-13784
▁priporoča	-13785
▁različnim	-13786
▁služboval	-13787
▁vladavina	-13788
▁šahovskih	-13789
grenadirska	-13790
▁asteroidov	-13791
▁eksplozija	-13792
▁francoskem	-13793
▁preživetje	-13794
▁pridružili	-13795
▁pripeljali	-13796
▁rezultatov	-13797
▁svetovalec	-13798
▁demografija	-13799
▁elektronske	-13800
▁interakcije	-13801
▁kapitalizma	-13802
▁obravnavajo	-13803
▁spreminjajo	-13804
▁sredozemlja	-13805
▁uporabljata	-13806
▁računalniško	-13807
▁prijateljstvo	-13808
ан	-13809
▁π	-13810
_10	-13811
are	-13812
bis	-13813
pil	-13814
pot	-13815
ust	-13816
šah	-13817
▁hp	-13818
dobe	-13819
enta	-13820
fata	-13821
feld	-13822
isto	-13823
plje	-13824
scri	-13825
▁(14	-13826
▁cre	-13827
▁kun	-13828
▁seg	-13829
▁zaž	-13830
dence	-13831
dobno	-13832
kovec	-13833
peler	-13834
stave	-13835
terni	-13836
tizma	-13837
tnike	-13838
world	-13839
šenja	-13840
žanja	-13841
▁2022	-13842
▁bari	-13843
▁cela	-13844
▁draž	-13845
▁emil	-13846
▁evri	-13847
▁gott	-13848
▁graf	-13849
▁here	-13850
▁kril	-13851
▁luno	-13852
▁modi	-13853
▁raja	-13854
▁rodo	-13855
tičnem	-13856
čarjev	-13857
življe	-13858
▁beton	-13859
▁bitij	-13860
▁cilji	-13861
▁funda	-13862
▁jadra	-13863
▁jovan	-13864
▁kambi	-13865
▁lotil	-13866
▁medij	-13867
▁micro	-13868
▁nafto	-13869
▁našem	-13870
▁prila	-13871
▁uvaja	-13872
▁white	-13873
▁ščita	-13874
▁živah	-13875
chester	-13876
▁branje	-13877
▁corpus	-13878
▁dobiti	-13879
▁parala	-13880
▁petimi	-13881
▁poslop	-13882
▁preisk	-13883
▁reform	-13884
▁sasani	-13885
▁serijo	-13886
▁topovi	-13887
▁članku	-13888
▁širina	-13889
verjetno	-13890
▁apostol	-13891
▁bližine	-13892
▁dogodku	-13893
▁herodot	-13894
▁izbruhi	-13895
▁kopnega	-13896
▁mestnem	-13897
▁planota	-13898
▁podatek	-13899
▁povabil	-13900
▁prejeli	-13901
▁primiti	-13902
▁pritoki	-13903
▁publici	-13904
▁rodbina	-13905
▁sarkofa	-13906
▁verniki	-13907
▁viljema	-13908
▁zasedbi	-13909
▁zmagala	-13910
▁armencev	-13911
▁armeniji	-13912
▁armenski	-13913
▁cesarsko	-13914
▁eksponen	-13915
▁gozdovih	-13916
▁hongkong	-13917
▁izvolili	-13918
▁njihovim	-13919
▁ohraniti	-13920
▁pokrajin	-13921
▁poudarek	-13922
▁povečali	-13923
▁premerom	-13924
▁primarno	-13925
▁prineslo	-13926
▁trenutni	-13927
▁vodilnih	-13928
▁zdravili	-13929
▁združila	-13930
▁zemljišč	-13931
▁absolutna	-13932
▁dediščina	-13933
▁gutenberg	-13934
▁izvajanja	-13935
▁japonskih	-13936
▁katoliška	-13937
▁literarni	-13938
▁obleganje	-13939
▁periodnem	-13940
▁programer	-13941
▁prostorov	-13942
▁strateški	-13943
▁združenja	-13944
▁zemeljske	-13945
italijansko	-13946
▁dovoljenje	-13947
▁fizikalnih	-13948
▁kolonialne	-13949
▁ogljikovih	-13950
▁povzročili	-13951
▁preprečili	-13952
▁vzpostavil	-13953
▁zanesljivo	-13954
▁matematični	-13955
▁nacionalnih	-13956
▁označevanje	-13957
▁preučevanje	-13958
▁avstrijskega	-13959
▁prostovoljno	-13960
▁učinkovitost	-13961
▁preprečevanje	-13962
))	-13963
cv	-13964
kö	-13965
ua	-13966
-14	-13967
300	-13968
9),	-13969
bul	-13970
cve	-13971
see	-13972
umu	-13973
zmo	-13974
–18	-13975
azza	-13976
calo	-13977
delj	-13978
fina	-13979
hari	-13980
izma	-13981
pelo	-13982
pote	-13983
▁lom	-13984
▁may	-13985
▁vel	-13986
▁wel	-13987
burga	-13988
hidro	-13989
kralj	-13990
landu	-13991
▁1870	-13992
▁brad	-13993
▁civi	-13994
▁dena	-13995
▁esto	-13996
▁huni	-13997
▁orle	-13998
▁peči	-13999
▁remi	-14000
▁uroš	-14001
▁urug	-14002
▁wiki	-14003
mentom	-14004
rskega	-14005
ženjem	-14006
▁1991,	-14007
▁2000,	-14008
▁bivši	-14009
▁debla	-14010
▁istri	-14011
▁izhla	-14012
▁izvoz	-14013
▁jeder	-14014
▁karna	-14015
▁kloro	-14016
▁korup	-14017
▁mozar	-14018
▁neura	-14019
▁slave	-14020
▁stane	-14021
▁tabor	-14022
▁turne	-14023
▁ulica	-14024
▁uporu	-14025
▁vratu	-14026
jevanju	-14027
▁bogati	-14028
▁domoro	-14029
▁empiri	-14030
▁enakih	-14031
▁enotah	-14032
▁gozdna	-14033
▁hetero	-14034
▁jurija	-14035
▁kamnov	-14036
▁kemiji	-14037
▁kristi	-14038
▁litine	-14039
▁mehiki	-14040
▁moštva	-14041
▁muzeji	-14042
▁napeto	-14043
▁odpora	-14044
▁postaj	-14045
▁razode	-14046
▁samuel	-14047
▁slavko	-14048
▁svinče	-14049
▁tednih	-14050
▁teksti	-14051
▁ubitih	-14052
▁večjim	-14053
▁victor	-14054
▁volfra	-14055
▁vsebin	-14056
▁zasede	-14057
▁španci	-14058
▁želela	-14059
grafskih	-14060
▁antonio	-14061
▁bogovom	-14062
▁dobrega	-14063
▁dvorani	-14064
▁filmske	-14065
▁glikoli	-14066
▁gospoda	-14067
▁kakršne	-14068
▁kritika	-14069
▁lastnik	-14070
▁martina	-14071
▁napolni	-14072
▁narejen	-14073
▁navedel	-14074
▁polinom	-14075
▁pridejo	-14076
▁prošnjo	-14077
▁razvije	-14078
▁razvite	-14079
▁slednja	-14080
▁stranki	-14081
▁stroški	-14082
▁vodilno	-14083
▁zapisan	-14084
▁zavedal	-14085
▁značaja	-14086
▁švedski	-14087
▁antičnih	-14088
▁domačega	-14089
▁funkciji	-14090
▁izročilo	-14091
▁judovski	-14092
▁klavirja	-14093
▁komiteja	-14094
▁najhitre	-14095
▁radijski	-14096
▁signalov	-14097
▁sposobni	-14098
▁starejša	-14099
▁tekočino	-14100
▁vojaškem	-14101
▁postaviti	-14102
▁prisiljen	-14103
▁razširilo	-14104
▁ukvarjati	-14105
▁avstrijske	-14106
▁eksplozije	-14107
▁filozofija	-14108
▁izračunamo	-14109
▁notranjega	-14110
▁opremljena	-14111
▁preživljal	-14112
▁ustanavlja	-14113
▁uveljavila	-14114
▁avstrijskem	-14115
▁jugovzhodne	-14116
▁kraljestvom	-14117
▁portugalski	-14118
▁spoštovanje	-14119
▁elektronskih	-14120
▁ljubljanskem	-14121
▁predstavitev	-14122
▁elektromagnet	-14123
▁najpogostejša	-14124
cd	-14125
op	-14126
ot	-14127
én	-14128
▁б	-14129
-60	-14130
gol	-14131
idi	-14132
ket	-14133
lag	-14134
mis	-14135
vsa	-14136
zza	-14137
žič	-14138
▁87	-14139
▁dz	-14140
▁if	-14141
▁pc	-14142
▁sm	-14143
ktih	-14144
raft	-14145
snil	-14146
stal	-14147
vino	-14148
▁125	-14149
▁ape	-14150
▁cun	-14151
▁ipa	-14152
▁mdr	-14153
▁mig	-14154
▁sap	-14155
▁tig	-14156
berku	-14157
lovih	-14158
množi	-14159
mskih	-14160
nasta	-14161
nikar	-14162
ziona	-14163
▁1871	-14164
▁1878	-14165
▁amar	-14166
▁aran	-14167
▁beat	-14168
▁bere	-14169
▁free	-14170
▁hali	-14171
▁jese	-14172
▁niče	-14173
▁sive	-14174
▁tria	-14175
▁vest	-14176
▁zadu	-14177
▁zaup	-14178
madžar	-14179
stitve	-14180
čljivo	-14181
▁banka	-14182
▁božji	-14183
▁celja	-14184
▁fritz	-14185
▁ločil	-14186
▁magma	-14187
▁mavzo	-14188
▁nasve	-14189
▁priho	-14190
▁puško	-14191
▁queen	-14192
▁rekre	-14193
▁resne	-14194
▁selek	-14195
▁vazal	-14196
▁višek	-14197
▁zadaj	-14198
▁šibko	-14199
grafske	-14200
kasneje	-14201
letnega	-14202
▁almoha	-14203
▁belega	-14204
▁daljše	-14205
▁danska	-14206
▁grčijo	-14207
▁izčrpa	-14208
▁kenija	-14209
▁luknja	-14210
▁mentor	-14211
▁ocenil	-14212
▁papežu	-14213
▁pomlad	-14214
▁poroke	-14215
▁pravne	-14216
▁prstan	-14217
▁signal	-14218
▁smrtno	-14219
▁spopri	-14220
▁stavbo	-14221
▁trenja	-14222
▁vpelja	-14223
▁škofje	-14224
▁boštjan	-14225
▁celicah	-14226
▁duhovno	-14227
▁izvedba	-14228
▁kolesar	-14229
▁obnovil	-14230
▁podpora	-14231
▁prodajo	-14232
▁razpade	-14233
▁resnice	-14234
▁stephen	-14235
▁trajajo	-14236
▁valovne	-14237
▁vedenje	-14238
▁wolfgan	-14239
▁zavesti	-14240
▁začimba	-14241
▁železne	-14242
slovenski	-14243
▁bogastva	-14244
▁doživelo	-14245
▁izdelani	-14246
▁načeloma	-14247
▁nemogoče	-14248
▁nenadoma	-14249
▁objavili	-14250
▁okriljem	-14251
▁potrdila	-14252
▁poznejši	-14253
▁prometno	-14254
▁protesti	-14255
▁prstanov	-14256
▁rastlino	-14257
▁razredov	-14258
▁simbolov	-14259
▁tolkiena	-14260
▁učitelja	-14261
▁zaprosil	-14262
▁centralne	-14263
▁dejavniki	-14264
▁izobrazbo	-14265
▁komandant	-14266
▁lokalnega	-14267
▁najboljšo	-14268
▁odločilno	-14269
▁položajev	-14270
▁priključi	-14271
▁socialnih	-14272
▁spoznanja	-14273
▁strukturi	-14274
▁termodina	-14275
▁trikotnik	-14276
▁vojašnici	-14277
disciplinar	-14278
▁bizantinci	-14279
▁cesarstvom	-14280
▁konstrukti	-14281
▁nadaljnjih	-14282
▁odsotnosti	-14283
▁peterburgu	-14284
▁prizadeval	-14285
▁stabilnost	-14286
▁standardna	-14287
▁taboriščih	-14288
▁astronomska	-14289
▁znanstvenik	-14290
▁laboratoriju	-14291
▁mezopotamiji	-14292
▁organizirali	-14293
▁predsednikom	-14294
▁priljubljeni	-14295
▁priljubljeno	-14296
▁pripravljena	-14297
▁samoglasniki	-14298
▁podpredsednik	-14299
▁računalniških	-14300
_5	-14301
ea	-14302
ue	-14303
art	-14304
cil	-14305
pon	-14306
tej	-14307
tol	-14308
zih	-14309
šer	-14310
žec	-14311
žka	-14312
▁(6	-14313
alma	-14314
foni	-14315
isen	-14316
kapi	-14317
mara	-14318
mbur	-14319
mura	-14320
pape	-14321
▁(12	-14322
▁106	-14323
▁gnu	-14324
▁hon	-14325
▁reg	-14326
▁sav	-14327
▁vaj	-14328
▁zne	-14329
▁žre	-14330
landa	-14331
leton	-14332
parti	-14333
zajem	-14334
▁(189	-14335
▁1830	-14336
▁1850	-14337
▁1890	-14338
▁aleš	-14339
▁atri	-14340
▁bour	-14341
▁mane	-14342
▁meke	-14343
▁nike	-14344
▁obrt	-14345
▁raka	-14346
▁seri	-14347
▁sira	-14348
▁sneg	-14349
▁vaje	-14350
▁zame	-14351
dovala	-14352
kateri	-14353
vanger	-14354
▁1944,	-14355
▁arhai	-14356
▁avari	-14357
▁bloki	-14358
▁božič	-14359
▁chica	-14360
▁cilja	-14361
▁encim	-14362
▁evaku	-14363
▁garde	-14364
▁janša	-14365
▁memfi	-14366
▁nordi	-14367
▁okusa	-14368
▁polav	-14369
▁prago	-14370
▁rival	-14371
▁srbov	-14372
▁strel	-14373
▁stric	-14374
▁thoma	-14375
▁tihem	-14376
▁virtu	-14377
▁zbira	-14378
▁zoran	-14379
▁škode	-14380
000.000	-14381
charles	-14382
zulstva	-14383
▁ekspan	-14384
▁gojijo	-14385
▁izdaji	-14386
▁jožefa	-14387
▁kazalo	-14388
▁komite	-14389
▁končna	-14390
▁medije	-14391
▁minima	-14392
▁možnih	-14393
▁najkra	-14394
▁napisi	-14395
▁načrti	-14396
▁odplul	-14397
▁petnaj	-14398
▁pijača	-14399
▁preboj	-14400
▁rakete	-14401
▁recimo	-14402
▁ruskem	-14403
▁takole	-14404
▁tovora	-14405
▁uporov	-14406
▁vzorce	-14407
▁zapisu	-14408
▁zelene	-14409
▁zrakop	-14410
▁akumula	-14411
▁dopušča	-14412
▁feldmar	-14413
▁izvajal	-14414
▁kolobar	-14415
▁kratice	-14416
▁kratkih	-14417
▁kuhinja	-14418
▁mirovni	-14419
▁nasploh	-14420
▁obkroža	-14421
▁plemiči	-14422
▁porazil	-14423
▁prehran	-14424
▁pričajo	-14425
▁razlage	-14426
▁sužnjev	-14427
▁templji	-14428
▁zasedbe	-14429
▁zaščita	-14430
▁znašala	-14431
francosko	-14432
▁cesarjev	-14433
▁dejavnik	-14434
▁delovnih	-14435
▁dokazuje	-14436
▁domačini	-14437
▁drugačne	-14438
▁izkazala	-14439
▁kovinske	-14440
▁ladijski	-14441
▁letalska	-14442
▁močnejši	-14443
▁ravnanje	-14444
▁razpravo	-14445
▁spodbuja	-14446
▁tretjini	-14447
▁williama	-14448
▁izhodišče	-14449
▁izvoljeni	-14450
▁perzijsko	-14451
▁peterburg	-14452
▁podpisali	-14453
▁prebivali	-14454
▁premagali	-14455
▁stavanger	-14456
▁vojaškimi	-14457
▁identitete	-14458
▁literaturo	-14459
▁premoženje	-14460
▁razširitev	-14461
▁tekmovanju	-14462
▁glasbenikov	-14463
▁oglaševanja	-14464
▁opredelitev	-14465
▁potrebovali	-14466
▁jugoslovansko	-14467
cp	-14468
ig	-14469
xx	-14470
ör	-14471
ни	-14472
)".	-14473
ace	-14474
bij	-14475
cas	-14476
cku	-14477
day	-14478
vca	-14479
ürn	-14480
▁"-	-14481
▁dé	-14482
▁ix	-14483
▁om	-14484
dora	-14485
goni	-14486
gula	-14487
kran	-14488
rena	-14489
reni	-14490
rico	-14491
vost	-14492
▁40.	-14493
▁cle	-14494
▁gab	-14495
▁kep	-14496
▁kim	-14497
▁kpj	-14498
▁sig	-14499
▁sik	-14500
▁tuj	-14501
bitev	-14502
kovem	-14503
lenka	-14504
ntgen	-14505
peter	-14506
tarne	-14507
tenor	-14508
vinah	-14509
▁1868	-14510
▁1893	-14511
▁1901	-14512
▁1902	-14513
▁480.	-14514
▁adol	-14515
▁cito	-14516
▁daja	-14517
▁evra	-14518
▁frag	-14519
▁gani	-14520
▁izzi	-14521
▁java	-14522
▁judi	-14523
▁kurt	-14524
▁lepi	-14525
▁mada	-14526
▁obal	-14527
▁odbi	-14528
▁osam	-14529
▁oton	-14530
▁peta	-14531
▁poša	-14532
▁romm	-14533
▁zmes	-14534
jancev	-14535
kovano	-14536
vision	-14537
▁alber	-14538
▁ašker	-14539
▁flote	-14540
▁morfo	-14541
▁najhu	-14542
▁neome	-14543
▁ocena	-14544
▁opiše	-14545
▁ozvez	-14546
▁pearl	-14547
▁presk	-14548
▁redka	-14549
▁savin	-14550
▁spora	-14551
▁steze	-14552
▁temne	-14553
▁točne	-14554
▁upada	-14555
▁zalog	-14556
larnost	-14557
▁amazon	-14558
▁armadi	-14559
▁bližje	-14560
▁danski	-14561
▁elipti	-14562
▁hebrej	-14563
▁helene	-14564
▁izvoru	-14565
▁kislin	-14566
▁kratic	-14567
▁kratka	-14568
▁lesene	-14569
▁maščob	-14570
▁morale	-14571
▁njenim	-14572
▁odnosu	-14573
▁otočja	-14574
▁očetov	-14575
▁pravna	-14576
▁revijo	-14577
▁sinago	-14578
▁spravi	-14579
▁terenu	-14580
▁turški	-14581
▁tutmoz	-14582
▁vidmar	-14583
▁vmesni	-14584
▁zapora	-14585
▁zločin	-14586
▁douglas	-14587
▁enakost	-14588
▁izgleda	-14589
▁ključni	-14590
▁leonard	-14591
▁megalit	-14592
▁metalur	-14593
▁microso	-14594
▁motorja	-14595
▁močnega	-14596
▁nikakor	-14597
▁odkriti	-14598
▁odkrito	-14599
▁ogromen	-14600
▁razviti	-14601
▁sestoji	-14602
▁srebrni	-14603
▁vertika	-14604
▁vsakemu	-14605
▁založni	-14606
▁zasebni	-14607
▁zlatega	-14608
▁živalih	-14609
▁departma	-14610
▁dobrodel	-14611
▁dokazati	-14612
▁določajo	-14613
▁drugačno	-14614
▁evkarion	-14615
▁govorili	-14616
▁grobnici	-14617
▁krivulje	-14618
▁ladjevje	-14619
▁lastnega	-14620
▁magnetni	-14621
▁nedvomno	-14622
▁objavila	-14623
▁označena	-14624
▁pomagajo	-14625
▁poudarja	-14626
▁programu	-14627
▁protonov	-14628
▁razprava	-14629
▁razstave	-14630
▁razumeti	-14631
▁spoznali	-14632
▁staciona	-14633
▁toplotni	-14634
▁ustrezne	-14635
▁uvrščajo	-14636
▁vsakodne	-14637
▁absorbira	-14638
▁atmosfero	-14639
▁brzostrel	-14640
▁evropejci	-14641
▁kitajskih	-14642
▁konstanto	-14643
▁literarno	-14644
▁mornarico	-14645
▁najbogate	-14646
▁najboljša	-14647
▁naseljena	-14648
▁objavljal	-14649
▁pehotnega	-14650
▁prestopno	-14651
▁prihajalo	-14652
▁proračuna	-14653
▁renesansa	-14654
▁ukvarjali	-14655
▁ultravijo	-14656
▁angleščine	-14657
▁prispevala	-14658
▁razsežnost	-14659
▁zakonodaje	-14660
▁astronomsko	-14661
▁beljakovine	-14662
▁elektronsko	-14663
▁pomembnejši	-14664
▁razvrstitev	-14665
▁uporabljene	-14666
▁zdravstvene	-14667
▁astronomskih	-14668
▁industrijska	-14669
▁inštrumentov	-14670
▁preimenovali	-14671
▁pridobivanja	-14672
▁veroizpovedi	-14673
▁ustanovitvijo	-14674
▁infrastrukture	-14675
▁elektromagnetno	-14676
_6	-14677
pé	-14678
://	-14679
kit	-14680
mej	-14681
mum	-14682
pru	-14683
sat	-14684
vac	-14685
vio	-14686
vus	-14687
▁59	-14688
▁oc	-14689
▁ut	-14690
anto	-14691
ence	-14692
leni	-14693
lius	-14694
mega	-14695
ngov	-14696
vier	-14697
čjem	-14698
žemo	-14699
▁172	-14700
▁176	-14701
▁baz	-14702
▁int	-14703
▁kao	-14704
▁lim	-14705
▁pho	-14706
▁ral	-14707
▁črt	-14708
merni	-14709
mično	-14710
verpo	-14711
vosto	-14712
zidar	-14713
čniki	-14714
▁1600	-14715
▁bomo	-14716
▁dana	-14717
▁feno	-14718
▁gram	-14719
▁guil	-14720
▁istr	-14721
▁kine	-14722
▁mike	-14723
▁poču	-14724
▁sode	-14725
▁stil	-14726
▁witt	-14727
▁zano	-14728
janska	-14729
kovalo	-14730
mišlji	-14731
činski	-14732
▁1990.	-14733
▁angel	-14734
▁dalji	-14735
▁davek	-14736
▁enlil	-14737
▁gozdu	-14738
▁hebre	-14739
▁hvali	-14740
▁josef	-14741
▁justi	-14742
▁knezi	-14743
▁libre	-14744
▁nanjo	-14745
▁njuno	-14746
▁pisci	-14747
▁pivov	-14748
▁porek	-14749
▁sadje	-14750
▁tonov	-14751
▁tribu	-14752
▁zasli	-14753
▁začen	-14754
landijo	-14755
▁amfibi	-14756
▁helija	-14757
▁hersch	-14758
▁iskati	-14759
▁korejo	-14760
▁milanu	-14761
▁nedolo	-14762
▁nomini	-14763
▁odhodu	-14764
▁odprla	-14765
▁otokom	-14766
▁postoj	-14767
▁pozval	-14768
▁prired	-14769
▁sestri	-14770
▁skupek	-14771
▁svetem	-14772
▁uvedla	-14773
▁veriga	-14774
▁vodovo	-14775
▁čudovi	-14776
fikaciji	-14777
različne	-14778
▁afriške	-14779
▁analizi	-14780
▁antoine	-14781
▁dosežki	-14782
▁inkvizi	-14783
▁legendi	-14784
▁matrike	-14785
▁monotei	-14786
▁mussoli	-14787
▁nasilja	-14788
▁nedavno	-14789
▁nedotak	-14790
▁nevarne	-14791
▁odigral	-14792
▁popolne	-14793
▁posadka	-14794
▁primera	-14795
▁razloga	-14796
▁slabega	-14797
▁tehniki	-14798
▁turizma	-14799
▁ustavno	-14800
▁volitev	-14801
▁zasledi	-14802
▁zvezdni	-14803
▁športno	-14804
polkovnik	-14805
▁dosledno	-14806
▁eskadron	-14807
▁krivulja	-14808
▁marincev	-14809
▁odpeljal	-14810
▁posledic	-14811
▁presenet	-14812
▁provinca	-14813
▁splošnih	-14814
▁učitelji	-14815
▁zavrnila	-14816
▁znamenja	-14817
▁avstrijci	-14818
▁frekvence	-14819
▁izobrazbe	-14820
▁mornarici	-14821
▁premikajo	-14822
▁uporabijo	-14823
▁vzporedni	-14824
▁združitvi	-14825
▁švicarski	-14826
▁družbenega	-14827
▁lastnostmi	-14828
▁namestnika	-14829
▁podobnosti	-14830
▁prestolona	-14831
▁primerjavo	-14832
▁raziskavah	-14833
▁suverenost	-14834
▁zagotovila	-14835
▁intelektual	-14836
▁kompozicijo	-14837
▁simbolizira	-14838
▁skladatelji	-14839
▁vzpostavili	-14840
▁aminokisline	-14841
▁demokratično	-14842
jn	-14843
uk	-14844
ía	-14845
ghi	-14846
goj	-14847
ido	-14848
smr	-14849
čeh	-14850
▁77	-14851
▁ml	-14852
▁yo	-14853
▁zn	-14854
arda	-14855
augu	-14856
beas	-14857
hibi	-14858
jami	-14859
rnil	-14860
timo	-14861
tiso	-14862
vedi	-14863
vska	-14864
zina	-14865
▁105	-14866
▁108	-14867
▁161	-14868
▁cam	-14869
▁dog	-14870
▁fol	-14871
▁ful	-14872
▁sea	-14873
▁tex	-14874
▁ube	-14875
dniku	-14876
jorda	-14877
mirja	-14878
nitve	-14879
▁1859	-14880
▁asov	-14881
▁beau	-14882
▁bona	-14883
▁dano	-14884
▁igna	-14885
▁ogra	-14886
▁posi	-14887
▁ritu	-14888
▁teng	-14889
▁časi	-14890
▁čist	-14891
▁živa	-14892
negati	-14893
ogrsko	-14894
čevalo	-14895
[...]
