<unk>	0
<s>	0
</s>	0
▁п	-0
ст	-1
▁в	-2
▁с	-3
но	-4
ни	-5
ра	-6
▁и	-7
на	-8
ко	-9
ро	-10
▁о	-11
го	-12
ре	-13
то	-14
ны	-15
ли	-16
ри	-17
ле	-18
▁по	-19
ль	-20
▁д	-21
ва	-22
не	-23
▁м	-24
ка	-25
те	-26
▁на	-27
ло	-28
ки	-29
ла	-30
во	-31
та	-32
▁б	-33
ве	-34
да	-35
че	-36
ти	-37
ме	-38
▁а	-39
за	-40
▁го	-41
ми	-42
де	-43
ся	-44
▁со	-45
▁ко	-46
ско	-47
ци	-48
▁к	-49
▁у	-50
ру	-51
же	-52
ля	-53
ви	-54
ния	-55
▁ра	-56
ста	-57
ди	-58
ет	-59
▁не	-60
▁1	-61
ски	-62
ние	-63
▁г	-64
▁(	-65
▁э	-66
по	-67
▁про	-68
ма	-69
ча	-70
▁за	-71
сти	-72
▁об	-73
▁во	-74
до	-75
сто	-76
чи	-77
▁при	-78
мо	-79
ду	-80
ер	-81
▁от	-82
ных	-83
▁ка	-84
ть	-85
си	-86
▁—	-87
нно	-88
▁ф	-89
▁«	-90
▁е	-91
▁из	-92
хо	-93
▁до	-94
бо	-95
ры	-96
▁бы	-97
со	-98
ги	-99
се	-100
ще	-101
ные	-102
▁т	-103
▁ре	-104
льно	-105
▁та	-106
сь	-107
▁мо	-108
ши	-109
▁пре	-110
▁те	-111
ше	-112
▁то	-113
сть	-114
вы	-115
▁ме	-116
га	-117
ют	-118
▁2	-119
▁вы	-120
▁я	-121
це	-122
зо	-123
пе	-124
са	-125
па	-126
▁ма	-127
ный	-128
жи	-129
ту	-130
ну	-131
ку	-132
▁бо	-133
лу	-134
▁19	-135
ной	-136
▁ч	-137
▁де	-138
му	-139
щи	-140
ство	-141
ется	-142
ской	-143
ря	-144
ня	-145
▁пе	-146
ты	-147
▁з	-148
стве	-149
▁#	-150
▁раз	-151
▁##	-152
сле	-153
▁года	-154
пи	-155
▁ве	-156
мы	-157
▁се	-158
зи	-159
▁кото	-160
вля	-161
чески	-162
стра	-163
зы	-164
▁но	-165
▁году	-166
ции	-167
ского	-168
лю	-169
▁ро	-170
сте	-171
▁так	-172
су	-173
▁че	-174
▁си	-175
ного	-176
ным	-177
▁ис	-178
тель	-179
▁что	-180
▁ста	-181
ная	-182
▁па	-183
нии	-184
ке	-185
вле	-186
ву	-187
▁ми	-188
▁20	-189
нт	-190
▁это	-191
ска	-192
).	-193
ства	-194
▁под	-195
▁как	-196
▁"	-197
стро	-198
="	-199
сно	-200
▁ли	-201
),	-202
▁х	-203
вер	-204
▁для	-205
жа	-206
▁су	-207
гра	-208
▁са	-209
ды	-210
фи	-211
▁пере	-212
сси	-213
▁пред	-214
би	-215
пу	-216
▁ча	-217
ков	-218
▁рас	-219
ний	-220
▁ле	-221
or	-222
рова	-223
ский	-224
▁сво	-225
▁да	-226
▁ин	-227
мен	-228
▁также	-229
тельно	-230
ров	-231
ор	-232
бе	-233
ша	-234
▁кон	-235
▁ни	-236
▁од	-237
▁пра	-238
тов	-239
ца	-240
об	-241
ющи	-242
▁бе	-243
▁все	-244
род	-245
▁пер	-246
▁которы	-247
нных	-248
ба	-249
ются	-250
мя	-251
▁его	-252
нь	-253
зу	-254
лись	-255
цио	-256
ге	-257
▁вре	-258
вя	-259
зова	-260
▁воз	-261
▁после	-262
▁же	-263
▁име	-264
▁фи	-265
рия	-266
мер	-267
ская	-268
▁ви	-269
кт	-270
▁ру	-271
▁це	-272
гу	-273
вой	-274
▁был	-275
»,	-276
пре	-277
про	-278
▁дру	-279
рии	-280
▁осно	-281
▁стра	-282
дар	-283
лся	-284
ном	-285
▁обра	-286
».	-287
нию	-288
бы	-289
ей	-290
00	-291
ем	-292
стоя	-293
▁явля	-294
ща	-295
ными	-296
ция	-297
тив	-298
нные	-299
ственно	-300
тся	-301
ходи	-302
нием	-303
ха	-304
ских	-305
нов	-306
вет	-307
▁жи	-308
▁ба	-309
▁i	-310
зна	-311
ную	-312
▁чи	-313
лы	-314
ран	-315
▁ш	-316
▁или	-317
жно	-318
▁прои	-319
▁ку	-320
ur	-321
▁боль	-322
логи	-323
стви	-324
лее	-325
▁%	-326
ству	-327
do	-328
лё	-329
wi	-330
▁испо	-331
пра	-332
▁сре	-333
сту	-334
ki	-335
дов	-336
▁соста	-337
вши	-338
▁ав	-339
чно	-340
жде	-341
циа	-342
ней	-343
судар	-344
wiki	-345
▁ки	-346
doc	-347
▁ди	-348
▁<	-349
▁зна	-350
зыва	-351
▁он	-352
бли	-353
▁горо	-354
ром	-355
▁государ	-356
▁хо	-357
▁росси	-358
сс	-359
руп	-360
кра	-361
▁ар	-362
▁ю	-363
сло	-364
нный	-365
▁тер	-366
▁нача	-367
▁3	-368
лей	-369
▁ва	-370
дер	-371
▁язы	-372
▁ор	-373
▁ком	-374
лько	-375
▁пи	-376
▁c	-377
▁му	-378
том	-379
нной	-380
фе	-381
▁рабо	-382
ком	-383
бу	-384
▁201	-385
лось	-386
вод	-387
▁ге	-388
▁сло	-389
тер	-390
ления	-391
▁свя	-392
▁бу	-393
гла	-394
▁сто	-395
▁были	-396
▁исто	-397
▁меж	-398
▁га	-399
▁исполь	-400
▁полу	-401
▁объ	-402
▁год	-403
нима	-404
▁было	-405
лове	-406
хи	-407
▁пу	-408
ход	-409
▁18	-410
ное	-411
▁други	-412
▁время	-413
ские	-414
лась	-415
дова	-416
кой	-417
при	-418
ложе	-419
▁ан	-420
ское	-421
ском	-422
ск	-423
вые	-424
тия	-425
▁систе	-426
зда	-427
вых	-428
тически	-429
ев	-430
▁x	-431
ться	-432
te	-433
▁между	-434
▁челове	-435
чё	-436
▁была	-437
▁гра	-438
▁является	-439
спо	-440
пы	-441
гда	-442
ческой	-443
каза	-444
клю	-445
▁t	-446
▁им	-447
19	-448
di	-449
ности	-450
цы	-451
▁вой	-452
▁которо	-453
le	-454
сла	-455
▁отно	-456
▁предста	-457
зва	-458
нта	-459
▁их	-460
▁пла	-461
▁обла	-462
ника	-463
▁200	-464
▁4	-465
сы	-466
▁насе	-467
нного	-468
ность	-469
нд	-470
пера	-471
es	-472
кон	-473
▁фор	-474
▁суще	-475
спе	-476
рь	-477
▁более	-478
ствова	-479
▁вла	-480
▁обще	-481
la	-482
▁ев	-483
рт	-484
рито	-485
веде	-486
▁гла	-487
▁вер	-488
▁5	-489
▁ха	-490
льных	-491
нным	-492
жда	-493
▁ти	-494
нее	-495
▁слу	-496
зе	-497
лек	-498
▁ла	-499
▁f	-500
фор	-501
кры	-502
▁лю	-503
▁основ	-504
▁произ	-505
▁эле	-506
от	-507
преде	-508
ii	-509
▁орга	-510
▁дол	-511
▁созда	-512
тор	-513
▁одна	-514
▁фа	-515
юще	-516
бря	-517
▁эти	-518
три	-519
it	-520
лов	-521
нения	-522
нк	-523
ман	-524
льной	-525
чения	-526
▁террито	-527
торы	-528
коно	-529
▁эк	-530
pe	-531
ческих	-532
▁цент	-533
▁поли	-534
▁сред	-535
▁разви	-536
▁пар	-537
▁мно	-538
▁прави	-539
чение	-540
фа	-541
мени	-542
▁города	-543
ник	-544
сли	-545
рак	-546
ём	-547
риа	-548
обра	-549
▁само	-550
вления	-551
ску	-552
ческого	-553
▁н	-554
▁сов	-555
дин	-556
сов	-557
нная	-558
▁нау	-559
▁назва	-560
id	-561
▁мар	-562
ru	-563
▁199	-564
▁только	-565
она	-566
▁её	-567
▁ц	-568
циона	-569
tp	-570
▁ги	-571
рен	-572
▁тем	-573
▁ca	-574
▁ты	-575
▁би	-576
▁века	-577
щё	-578
ht	-579
ление	-580
сты	-581
вого	-582
лия	-583
емы	-584
вая	-585
писа	-586
льные	-587
▁6	-588
води	-589
зд	-590
рио	-591
чита	-592
▁кра	-593
dia	-594
▁таки	-595
дей	-596
▁том	-597
▁спо	-598
ori	-599
▁неко	-600
org	-601
▁пол	-602
▁однако	-603
ющих	-604
mu	-605
http	-606
//	-607
▁ur	-608
▁id	-609
pedia	-610
▁город	-611
cur	-612
▁которые	-613
://	-614
телей	-615
▁рус	-616
gori	-617
wikipedia	-618
https	-619
▁url	-620
▁tit	-621
▁title	-622
▁cate	-623
▁</	-624
▁дей	-625
">	-626
curid	-627
gories	-628
▁categories	-629
дом	-630
▁опреде	-631
тя	-632
▁ок	-633
▁вели	-634
вый	-635
▁оста	-636
льного	-637
чных	-638
▁обо	-639
▁ту	-640
стру	-641
▁сле	-642
▁состоя	-643
пер	-644
жения	-645
▁for	-646
▁зем	-647
жет	-648
ек	-649
стре	-650
mula	-651
▁называ	-652
цию	-653
ств	-654
▁авто	-655
теля	-656
публи	-657
фо	-658
▁евро	-659
▁пло	-660
▁тео	-661
пол	-662
ан	-663
▁фу	-664
▁ри	-665
▁ду	-666
льный	-667
▁formula	-668
вое	-669
▁использова	-670
коло	-671
▁россии	-672
ским	-673
рев	-674
▁согла	-675
▁17	-676
0-	-677
▁лет	-678
сса	-679
ят	-680
▁кла	-681
▁стро	-682
▁7	-683
вест	-684
тур	-685
ций	-686
ники	-687
▁составля	-688
дь	-689
лосо	-690
▁совет	-691
▁остро	-692
▁круп	-693
▁части	-694
рой	-695
ющие	-696
▁высо	-697
вым	-698
ников	-699
скую	-700
мента	-701
грам	-702
▁запа	-703
▁8	-704
бра	-705
дё	-706
ческие	-707
▁фе	-708
▁страны	-709
▁может	-710
кономи	-711
нное	-712
▁органи	-713
▁тре	-714
▁перио	-715
▁ак	-716
▁гер	-717
нской	-718
▁распо	-719
смо	-720
▁часть	-721
шо	-722
▁груп	-723
кате	-724
лли	-725
хра	-726
лага	-727
льта	-728
тий	-729
▁счита	-730
▁который	-731
рез	-732
▁мате	-733
▁населения	-734
▁тра	-735
следова	-736
ством	-737
▁они	-738
чной	-739
пример	-740
▁ло	-741
20	-742
▁осо	-743
сср	-744
зя	-745
▁разли	-746
▁вос	-747
▁некоторы	-748
ября	-749
▁ию	-750
▁этом	-751
он	-752
лн	-753
лом	-754
..	-755
▁наи	-756
▁уча	-757
▁жиз	-758
▁того	-759
▁куль	-760
▁образова	-761
нение	-762
нами	-763
шей	-764
▁свои	-765
▁есть	-766
кси	-767
графи	-768
▁приме	-769
▁вто	-770
▁больши	-771
▁которых	-772
▁вое	-773
ссо	-774
▁экономи	-775
▁около	-776
▁ссср	-777
нность	-778
еди	-779
▁совре	-780
▁числе	-781
жива	-782
ёр	-783
▁получи	-784
нности	-785
▁кре	-786
личе	-787
шения	-788
цу	-789
▁спе	-790
бер	-791
мет	-792
кан	-793
ью	-794
▁поя	-795
18	-796
▁извест	-797
см	-798
стано	-799
жё	-800
▁неско	-801
▁зо	-802
▁человек	-803
▁элект	-804
▁откры	-805
ден	-806
▁соот	-807
▁15	-808
▁дви	-809
",	-810
зма	-811
кого	-812
▁кри	-813
▁рес	-814
▁рай	-815
виси	-816
▁кар	-817
ческая	-818
кла	-819
▁использу	-820
зульта	-821
▁где	-822
жение	-823
нер	-824
йской	-825
ческий	-826
▁результа	-827
нг	-828
▁програм	-829
▁поль	-830
▁коро	-831
▁9	-832
тера	-833
вление	-834
гория	-835
▁этого	-836
ких	-837
▁территории	-838
▁других	-839
ряд	-840
тура	-841
ствует	-842
▁фран	-843
▁многи	-844
струк	-845
ях	-846
▁республи	-847
▁ши	-848
▁восто	-849
рабо	-850
▁194	-851
чные	-852
▁реа	-853
ках	-854
тие	-855
▁приня	-856
ключа	-857
зом	-858
зм	-859
▁харак	-860
▁дву	-861
туры	-862
▁оче	-863
рта	-864
тре	-865
▁много	-866
ёл	-867
▁филосо	-868
▁10	-869
▁гу	-870
нди	-871
твер	-872
вор	-873
бле	-874
▁прези	-875
▁области	-876
зации	-877
▁возмо	-878
▁правитель	-879
▁s	-880
тора	-881
цев	-882
категория	-883
ван	-884
мой	-885
▁тран	-886
▁поз	-887
▁поло	-888
жу	-889
▁тех	-890
▁случа	-891
рав	-892
▁фо	-893
▁уни	-894
▁чем	-895
стей	-896
мина	-897
бой	-898
▁место	-899
▁среди	-900
▁через	-901
▁значи	-902
▁ад	-903
▁сторо	-904
▁кро	-905
ристи	-906
тели	-907
ститу	-908
них	-909
лез	-910
▁ана	-911
▁истори	-912
кре	-913
щая	-914
▁сте	-915
▁когда	-916
вшие	-917
▁соответ	-918
▁[	-919
▁следу	-920
="">	-921
рая	-922
ходит	-923
шая	-924
держа	-925
▁наибо	-926
ляр	-927
▁национа	-928
▁самы	-929
▁198	-930
ждения	-931
мати	-932
мини	-933
стран	-934
▁ещё	-935
дера	-936
гли	-937
дол	-938
▁быть	-939
▁них	-940
лен	-941
▁км	-942
▁изме	-943
▁можно	-944
▁поэ	-945
▁проис	-946
▁послед	-947
▁16	-948
личи	-949
▁глав	-950
▁сер	-951
▁ско	-952
▁исследова	-953
вета	-954
▁проце	-955
стов	-956
рий	-957
нского	-958
▁работа	-959
▁распро	-960
народ	-961
▁тру	-962
▁отде	-963
той	-964
▁находи	-965
▁уже	-966
▁количе	-967
ним	-968
строе	-969
▁лу	-970
нский	-971
▁север	-972
▁древ	-973
▁каче	-974
шего	-975
▁196	-976
льная	-977
▁например	-978
▁она	-979
вания	-980
▁помо	-981
▁вне	-982
шие	-983
воз	-984
▁ал	-985
▁поч	-986
▁част	-987
▁197	-988
стан	-989
нера	-990
лиги	-991
ющий	-992
▁стали	-993
него	-994
пла	-995
ступ	-996
лем	-997
▁спосо	-998
мыш	-999
пло	-1000
▁всех	-1001
▁конце	-1002
вается	-1003
мирова	-1004
▁полити	-1005
▁стал	-1006
тра	-1007
▁другие	-1008
кий	-1009
▁центра	-1010
нем	-1011
шение	-1012
▁еди	-1013
ками	-1014
вать	-1015
▁если	-1016
льное	-1017
▁функ	-1018
er	-1019
слу	-1020
лаго	-1021
▁обе	-1022
▁12	-1023
▁занима	-1024
▁времени	-1025
ёт	-1026
on	-1027
рей	-1028
17	-1029
ших	-1030
▁напра	-1031
мии	-1032
шь	-1033
ходя	-1034
▁всего	-1035
▁сша	-1036
▁действи	-1037
▁ци	-1038
▁без	-1039
▁три	-1040
вом	-1041
тии	-1042
▁р	-1043
]]	-1044
нными	-1045
▁электро	-1046
тей	-1047
мент	-1048
▁являются	-1049
▁инте	-1050
▁кни	-1051
▁религи	-1052
краи	-1053
вал	-1054
▁шко	-1055
▁окру	-1056
▁слова	-1057
бур	-1058
хов	-1059
▁обы	-1060
▁вс	-1061
▁вме	-1062
ья	-1063
ческое	-1064
▁расположе	-1065
щения	-1066
▁международ	-1067
конча	-1068
ье	-1069
рита	-1070
▁(19	-1071
бре	-1072
▁роди	-1073
▁над	-1074
дно	-1075
▁европе	-1076
ственной	-1077
▁стан	-1078
▁согласно	-1079
мери	-1080
рё	-1081
▁ры	-1082
из	-1083
ую	-1084
▁кор	-1085
▁упра	-1086
▁вну	-1087
▁офи	-1088
▁сою	-1089
▁несколько	-1090
мости	-1091
▁сохра	-1092
▁войны	-1093
▁физи	-1094
вра	-1095
▁мы	-1096
вил	-1097
▁федера	-1098
▁могу	-1099
▁которой	-1100
▁относи	-1101
цией	-1102
▁продол	-1103
мов	-1104
▁реги	-1105
▁социа	-1106
en	-1107
▁тор	-1108
▁цер	-1109
▁жизни	-1110
гов	-1111
▁имеет	-1112
in	-1113
▁возможно	-1114
вич	-1115
▁мест	-1116
▁связа	-1117
вший	-1118
нах	-1119
тки	-1120
дела	-1121
▁соб	-1122
▁хи	-1123
кло	-1124
▁два	-1125
▁наиболее	-1126
▁дея	-1127
▁193	-1128
мышле	-1129
логии	-1130
▁большо	-1131
вает	-1132
скому	-1133
кти	-1134
▁период	-1135
▁государстве	-1136
прия	-1137
▁ян	-1138
▁алек	-1139
▁гре	-1140
цо	-1141
▁тыся	-1142
вали	-1143
▁ос	-1144
▁млн	-1145
рения	-1146
льным	-1147
▁этот	-1148
форма	-1149
▁производ	-1150
▁системы	-1151
▁неза	-1152
▁n	-1153
тных	-1154
▁рав	-1155
▁образом	-1156
▁большин	-1157
▁включа	-1158
бор	-1159
▁[[	-1160
ред	-1161
▁годы	-1162
▁миро	-1163
рд	-1164
▁которая	-1165
▁могут	-1166
▁архи	-1167
▁годах	-1168
—19	-1169
▁севе	-1170
▁призна	-1171
▁тыс	-1172
an	-1173
▁благо	-1174
▁каза	-1175
▁объя	-1176
▁лишь	-1177
▁теле	-1178
стью	-1179
▁авгу	-1180
10	-1181
казыва	-1182
▁14	-1183
нача	-1184
▁чтобы	-1185
ar	-1186
вших	-1187
▁побе	-1188
▁универ	-1189
▁("	-1190
▁влия	-1191
▁иде	-1192
нную	-1193
кус	-1194
▁комп	-1195
▁право	-1196
▁особе	-1197
▁ша	-1198
▁ца	-1199
▁упо	-1200
▁позво	-1201
тому	-1202
▁свой	-1203
ственного	-1204
▁качестве	-1205
▁против	-1206
▁строи	-1207
волю	-1208
суще	-1209
▁янва	-1210
▁широ	-1211
▁один	-1212
▁грани	-1213
▁промышле	-1214
▁представля	-1215
ссе	-1216
▁основа	-1217
▁существова	-1218
сков	-1219
▁дости	-1220
▁одно	-1221
▁ино	-1222
▁ше	-1223
▁13	-1224
▁тради	-1225
нном	-1226
над	-1227
▁xv	-1228
▁площа	-1229
гре	-1230
сут	-1231
▁украи	-1232
тельности	-1233
▁дека	-1234
▁запад	-1235
дели	-1236
▁сти	-1237
▁опера	-1238
▁p	-1239
▁специа	-1240
чного	-1241
нова	-1242
▁эта	-1243
ностью	-1244
▁вопро	-1245
▁годов	-1246
al	-1247
слови	-1248
▁отме	-1249
ён	-1250
нин	-1251
▁двух	-1252
▁название	-1253
▁сим	-1254
нци	-1255
▁195	-1256
▁руко	-1257
тек	-1258
▁192	-1259
▁мира	-1260
хе	-1261
▁мини	-1262
▁доро	-1263
щих	-1264
тар	-1265
ропо	-1266
▁гражда	-1267
▁распростра	-1268
▁музы	-1269
▁этой	-1270
▁которого	-1271
▁кроме	-1272
▁юж	-1273
▁искус	-1274
▁президе	-1275
▁составляет	-1276
зии	-1277
▁пара	-1278
бя	-1279
след	-1280
ствии	-1281
▁каж	-1282
▁литера	-1283
▁,	-1284
▁интер	-1285
вую	-1286
лле	-1287
▁транспо	-1288
▁писа	-1289
ведения	-1290
▁m	-1291
▁бра	-1292
▁официа	-1293
▁утвер	-1294
▁тро	-1295
ступа	-1296
▁пос	-1297
строй	-1298
▁система	-1299
12	-1300
▁мето	-1301
няя	-1302
тиво	-1303
0,	-1304
▁дли	-1305
ствие	-1306
▁памя	-1307
ями	-1308
▁точ	-1309
▁анти	-1310
▁амери	-1311
сите	-1312
тин	-1313
▁окт	-1314
вар	-1315
▁связи	-1316
▁число	-1317
доро	-1318
▁друго	-1319
▁часто	-1320
тельных	-1321
обще	-1322
нению	-1323
▁сла	-1324
▁свое	-1325
▁сы	-1326
числе	-1327
▁мире	-1328
15	-1329
▁необ	-1330
▁способ	-1331
▁представи	-1332
▁своей	-1333
▁спи	-1334
▁государства	-1335
▁моск	-1336
ющей	-1337
министра	-1338
▁множе	-1339
▁некоторые	-1340
▁свобо	-1341
ствуют	-1342
▁темпера	-1343
▁xi	-1344
▁кли	-1345
доб	-1346
▁сент	-1347
знача	-1348
тельной	-1349
туа	-1350
кро	-1351
нти	-1352
▁вол	-1353
▁желез	-1354
▁виде	-1355
тельные	-1356
13	-1357
заи	-1358
раз	-1359
деля	-1360
▁человека	-1361
▁больше	-1362
▁аль	-1363
▁собой	-1364
кая	-1365
нав	-1366
▁университе	-1367
▁современ	-1368
▁день	-1369
▁себя	-1370
ктически	-1371
▁предпо	-1372
▁посе	-1373
▁объек	-1374
▁уров	-1375
нове	-1376
мом	-1377
▁ради	-1378
кова	-1379
▁уве	-1380
▁диа	-1381
▁выра	-1382
бира	-1383
▁результате	-1384
тно	-1385
▁ря	-1386
▁нико	-1387
рус	-1388
▁гор	-1389
верх	-1390
▁смер	-1391
▁переда	-1392
▁народ	-1393
▁состав	-1394
▁зако	-1395
▁мор	-1396
▁изда	-1397
▁устано	-1398
санд	-1399
зяй	-1400
▁городе	-1401
▁учё	-1402
грани	-1403
тем	-1404
▁гео	-1405
рёх	-1406
▁языка	-1407
▁независи	-1408
дра	-1409
▁второй	-1410
▁простран	-1411
кие	-1412
сма	-1413
сом	-1414
кое	-1415
▁мет	-1416
▁ну	-1417
нка	-1418
▁настоя	-1419
▁чу	-1420
▁импера	-1421
лии	-1422
▁живо	-1423
щее	-1424
▁ху	-1425
▁хотя	-1426
чный	-1427
▁власти	-1428
блю	-1429
ступи	-1430
▁компа	-1431
ору	-1432
16	-1433
роди	-1434
▁поня	-1435
▁зе	-1436
дук	-1437
▁многие	-1438
".	-1439
000	-1440
▁уг	-1441
▁разрабо	-1442
14	-1443
вшиеся	-1444
▁(«	-1445
тельность	-1446
▁александ	-1447
▁кита	-1448
▁содержа	-1449
дви	-1450
▁кня	-1451
▁чле	-1452
▁начи	-1453
▁язык	-1454
▁осуще	-1455
▁бли	-1456
▁пет	-1457
▁даже	-1458
нте	-1459
▁нео	-1460
▁неме	-1461
▁важ	-1462
▁герма	-1463
нови	-1464
▁шве	-1465
▁апре	-1466
▁встре	-1467
▁v	-1468
▁аб	-1469
скими	-1470
,5	-1471
▁взаи	-1472
▁инди	-1473
▁одной	-1474
...	-1475
восто	-1476
▁поддер	-1477
▁райо	-1478
▁испол	-1479
▁пор	-1480
▁противо	-1481
▁англи	-1482
нда	-1483
чь	-1484
боль	-1485
тами	-1486
▁мета	-1487
▁собы	-1488
▁коми	-1489
▁необходи	-1490
дро	-1491
▁свою	-1492
▁услови	-1493
▁xx	-1494
▁острова	-1495
лиза	-1496
▁совер	-1497
▁начале	-1498
at	-1499
▁сере	-1500
▁изу	-1501
евра	-1502
▁тек	-1503
рами	-1504
▁христи	-1505
виа	-1506
▁этих	-1507
телем	-1508
▁попу	-1509
▁администра	-1510
▁зада	-1511
▁февра	-1512
▁b	-1513
▁ке	-1514
▁уче	-1515
▁гово	-1516
тен	-1517
▁внеш	-1518
▁обеспе	-1519
▁энер	-1520
▁класси	-1521
емых	-1522
шее	-1523
шли	-1524
▁пробле	-1525
▁российской	-1526
мость	-1527
льку	-1528
тные	-1529
▁затем	-1530
ждение	-1531
логия	-1532
▁совреме	-1533
стер	-1534
50	-1535
▁наблю	-1536
▁первый	-1537
лла	-1538
йского	-1539
сматри	-1540
вов	-1541
▁актив	-1542
▁января	-1543
▁сме	-1544
▁коман	-1545
▁оце	-1546
▁уда	-1547
▁количество	-1548
ником	-1549
ственных	-1550
слав	-1551
▁конт	-1552
▁источ	-1553
▁таким	-1554
▁положе	-1555
▁построе	-1556
гово	-1557
зов	-1558
лет	-1559
ший	-1560
▁аф	-1561
▁сем	-1562
▁земли	-1563
ющим	-1564
▁стран	-1565
трен	-1566
жен	-1567
ющая	-1568
▁выпол	-1569
▁вместе	-1570
▁крупней	-1571
раб	-1572
▁тысяч	-1573
виде	-1574
▁менее	-1575
ющего	-1576
▁выс	-1577
щие	-1578
▁жа	-1579
▁нор	-1580
▁импе	-1581
▁ему	-1582
▁одним	-1583
рах	-1584
▁пя	-1585
нских	-1586
iii	-1587
▁сель	-1588
▁веке	-1589
▁стране	-1590
▁генера	-1591
доста	-1592
▁немец	-1593
ческим	-1594
▁конститу	-1595
тических	-1596
ствия	-1597
лев	-1598
фика	-1599
▁приро	-1600
▁находится	-1601
▁ней	-1602
1,	-1603
ске	-1604
ic	-1605
▁принци	-1606
▁работы	-1607
▁дела	-1608
▁отра	-1609
▁вз	-1610
▁космо	-1611
▁появи	-1612
ким	-1613
▁очень	-1614
▁разме	-1615
▁гру	-1616
▁ново	-1617
гии	-1618
▁имеют	-1619
▁мая	-1620
им	-1621
дой	-1622
тру	-1623
▁моло	-1624
▁коло	-1625
▁заме	-1626
▁%,	-1627
▁строитель	-1628
▁бело	-1629
▁терми	-1630
▁буду	-1631
▁помощ	-1632
▁демо	-1633
▁написа	-1634
he	-1635
▁группы	-1636
нга	-1637
▁такие	-1638
▁форма	-1639
▁почти	-1640
пита	-1641
▁бога	-1642
ческую	-1643
▁поэтому	-1644
▁револю	-1645
йских	-1646
▁мона	-1647
▁скоро	-1648
дина	-1649
седа	-1650
▁заня	-1651
▁характер	-1652
пада	-1653
пара	-1654
тические	-1655
писы	-1656
чёт	-1657
йский	-1658
▁веще	-1659
дет	-1660
▁теории	-1661
▁всё	-1662
▁202	-1663
▁постоя	-1664
▁внутрен	-1665
▁хра	-1666
▁бер	-1667
чная	-1668
▁причи	-1669
оз	-1670
▁бере	-1671
▁сокра	-1672
is	-1673
▁япо	-1674
▁частности	-1675
▁ат	-1676
кви	-1677
нам	-1678
▁осущест	-1679
▁взаимо	-1680
рию	-1681
нет	-1682
вают	-1683
▁марта	-1684
ффе	-1685
▁изобра	-1686
зем	-1687
▁информа	-1688
▁био	-1689
хва	-1690
▁показа	-1691
туре	-1692
▁деся	-1693
▁числа	-1694
ница	-1695
▁обу	-1696
тельного	-1697
ат	-1698
▁чер	-1699
вести	-1700
▁своих	-1701
▁выбо	-1702
став	-1703
▁даль	-1704
вин	-1705
нец	-1706
▁.	-1707
мир	-1708
▁моря	-1709
няется	-1710
град	-1711
▁характе	-1712
щий	-1713
▁выпу	-1714
тах	-1715
ложи	-1716
▁един	-1717
вен	-1718
▁августа	-1719
▁учи	-1720
▁позд	-1721
▁струк	-1722
▁зависи	-1723
▁декабря	-1724
▁впер	-1725
▁экспе	-1726
▁обычно	-1727
▁представле	-1728
того	-1729
стри	-1730
ит	-1731
пти	-1732
нё	-1733
нси	-1734
кто	-1735
▁францу	-1736
▁золо	-1737
▁четы	-1738
▁оказа	-1739
тельный	-1740
▁a	-1741
жит	-1742
ссии	-1743
▁наро	-1744
шим	-1745
▁вра	-1746
▁возду	-1747
▁истории	-1748
▁случае	-1749
мор	-1750
▁которое	-1751
▁стала	-1752
мая	-1753
▁кур	-1754
ху	-1755
▁d	-1756
ин	-1757
▁25	-1758
бро	-1759
десь	-1760
▁тур	-1761
▁некоторых	-1762
▁позволя	-1763
▁сол	-1764
зирова	-1765
лья	-1766
хода	-1767
▁глу	-1768
▁суб	-1769
чу	-1770
нью	-1771
▁ряд	-1772
▁непо	-1773
▁описа	-1774
▁философи	-1775
тельное	-1776
▁сам	-1777
▁низ	-1778
▁меха	-1779
▁христиан	-1780
ар	-1781
емо	-1782
▁g	-1783
жении	-1784
шёл	-1785
▁отноше	-1786
▁xix	-1787
▁оке	-1788
ментов	-1789
▁(2	-1790
реж	-1791
чным	-1792
▁своего	-1793
▁пись	-1794
скольку	-1795
▁него	-1796
▁существует	-1797
▁30	-1798
▁архитек	-1799
▁большинство	-1800
ческом	-1801
дя	-1802
▁июля	-1803
▁июня	-1804
гло	-1805
▁ита	-1806
▁столи	-1807
▁котором	-1808
▁неф	-1809
▁республики	-1810
▁население	-1811
рон	-1812
ток	-1813
▁здесь	-1814
▁основном	-1815
каде	-1816
▁материа	-1817
писи	-1818
▁выше	-1819
▁возник	-1820
▁испа	-1821
▁сконча	-1822
сной	-1823
▁языке	-1824
▁таких	-1825
▁впервые	-1826
▁тя	-1827
▁стре	-1828
▁верси	-1829
▁роль	-1830
▁симво	-1831
▁поскольку	-1832
▁начала	-1833
емые	-1834
▁рим	-1835
▁пример	-1836
▁организа	-1837
▁хозяй	-1838
нений	-1839
▁стороны	-1840
▁первой	-1841
онов	-1842
ющее	-1843
▁време	-1844
▁направле	-1845
▁ограни	-1846
▁развития	-1847
йн	-1848
▁пря	-1849
▁сентября	-1850
▁объеди	-1851
▁должно	-1852
▁зда	-1853
▁пов	-1854
▁особенно	-1855
яза	-1856
▁ран	-1857
выми	-1858
▁институ	-1859
▁определя	-1860
▁др	-1861
▁кана	-1862
▁разде	-1863
▁милли	-1864
▁°	-1865
шую	-1866
▁степе	-1867
▁войска	-1868
нская	-1869
шки	-1870
щение	-1871
▁жу	-1872
треб	-1873
▁данным	-1874
ню	-1875
ному	-1876
вшего	-1877
▁спу	-1878
ственные	-1879
сми	-1880
тых	-1881
▁влади	-1882
▁море	-1883
▁кру	-1884
льную	-1885
▁стату	-1886
пли	-1887
рна	-1888
▁шта	-1889
ссы	-1890
▁перво	-1891
зер	-1892
ген	-1893
lt	-1894
▁исклю	-1895
▁история	-1896
▁продолжа	-1897
нки	-1898
▁перед	-1899
▁190	-1900
▁срав	-1901
▁r	-1902
бург	-1903
▁две	-1904
▁будет	-1905
▁проек	-1906
даря	-1907
▁отли	-1908
▁сдела	-1909
▁успе	-1910
▁полё	-1911
▁транспорт	-1912
▁акаде	-1913
зей	-1914
▁француз	-1915
▁законо	-1916
▁апреля	-1917
▁защи	-1918
надле	-1919
жных	-1920
гни	-1921
11	-1922
▁меся	-1923
▁людей	-1924
▁стать	-1925
▁различных	-1926
▁меди	-1927
▁соеди	-1928
▁октября	-1929
▁жен	-1930
▁популяр	-1931
▁именно	-1932
▁определё	-1933
шла	-1934
▁ари	-1935
▁маши	-1936
▁сохрани	-1937
рок	-1938
▁худо	-1939
реме	-1940
et	-1941
▁возра	-1942
▁парла	-1943
год	-1944
тирова	-1945
▁москов	-1946
ваются	-1947
чен	-1948
льном	-1949
▁хими	-1950
▁рассматри	-1951
образ	-1952
▁отсут	-1953
▁принадле	-1954
▁полови	-1955
▁многих	-1956
▁участи	-1957
▁уч	-1958
▁приве	-1959
стья	-1960
▁ii	-1961
нтов	-1962
менты	-1963
льными	-1964
▁участ	-1965
▁получа	-1966
▁мир	-1967
ллек	-1968
вание	-1969
▁крити	-1970
▁продук	-1971
▁философ	-1972
▁религиоз	-1973
▁сан	-1974
умер	-1975
▁основе	-1976
▁настоящее	-1977
шло	-1978
▁co	-1979
стой	-1980
▁административ	-1981
тря	-1982
лирова	-1983
▁никола	-1984
▁аэ	-1985
нару	-1986
ана	-1987
»)	-1988
город	-1989
сф	-1990
дель	-1991
ce	-1992
▁тогда	-1993
.,	-1994
лют	-1995
▁закон	-1996
фици	-1997
дами	-1998
док	-1999
ходят	-2000
gt	-2001
▁математи	-2002
вёр	-2003
▁значение	-2004
ср	-2005
▁трёх	-2006
▁находя	-2007
▁северо	-2008
▁видов	-2009
▁родились	-2010
▁осуществля	-2011
▁мень	-2012
▁произо	-2013
личие	-2014
рует	-2015
▁уро	-2016
▁воды	-2017
▁велико	-2018
▁поверх	-2019
▁течение	-2020
еры	-2021
▁дж	-2022
▁церков	-2023
▁используется	-2024
2,	-2025
30	-2026
▁долж	-2027
куль	-2028
пута	-2029
▁собра	-2030
▁обяза	-2031
чное	-2032
▁основные	-2033
▁президент	-2034
us	-2035
▁оконча	-2036
тной	-2037
▁стало	-2038
▁подго	-2039
▁совета	-2040
▁культур	-2041
▁веро	-2042
▁имени	-2043
▁бук	-2044
▁пси	-2045
тил	-2046
ственный	-2047
▁благодаря	-2048
▁скончались	-2049
▁публи	-2050
▁ио	-2051
▁форму	-2052
▁ноября	-2053
тельная	-2054
▁первые	-2055
родившиеся	-2056
▁пти	-2057
▁торго	-2058
ждё	-2059
▁реки	-2060
ндии	-2061
руется	-2062
рин	-2063
чей	-2064
▁зву	-2065
▁проводи	-2066
цей	-2067
▁региона	-2068
▁зая	-2069
ственное	-2070
пози	-2071
▁дво	-2072
умершие	-2073
▁облада	-2074
сад	-2075
мия	-2076
▁11	-2077
▁мл	-2078
тельным	-2079
ябре	-2080
▁перево	-2081
▁контро	-2082
кам	-2083
ект	-2084
вшей	-2085
▁февраля	-2086
пов	-2087
▁празд	-2088
▁неболь	-2089
▁образу	-2090
▁традицио	-2091
▁игра	-2092
муще	-2093
▁афри	-2094
▁кисло	-2095
▁относя	-2096
▁юго	-2097
▁армии	-2098
▁отношения	-2099
▁мало	-2100
▁принима	-2101
▁развитие	-2102
▁вв	-2103
▁фина	-2104
▁встреча	-2105
вно	-2106
▁правительства	-2107
щую	-2108
труд	-2109
▁режи	-2110
▁комплек	-2111
▁союз	-2112
▁млрд	-2113
образова	-2114
▁взаимодей	-2115
▁ль	-2116
▁музыка	-2117
▁л	-2118
каз	-2119
▁экспо	-2120
кс	-2121
▁движения	-2122
тый	-2123
▁предприя	-2124
▁ам	-2125
▁доста	-2126
▁обнару	-2127
▁отмеча	-2128
▁рам	-2129
▁оборо	-2130
зь	-2131
▁либо	-2132
цами	-2133
▁учре	-2134
ro	-2135
▁пользова	-2136
бир	-2137
дия	-2138
▁цар	-2139
▁женщи	-2140
▁массо	-2141
▁полностью	-2142
▁ива	-2143
мей	-2144
▁«"	-2145
▁губер	-2146
рит	-2147
мест	-2148
▁()	-2149
▁воору	-2150
▁протя	-2151
»).	-2152
▁голо	-2153
▁брита	-2154
▁интере	-2155
никами	-2156
▁получил	-2157
кта	-2158
▁профе	-2159
лью	-2160
вобо	-2161
▁ули	-2162
as	-2163
▁кали	-2164
▁оно	-2165
дения	-2166
▁пле	-2167
▁помощью	-2168
выше	-2169
листи	-2170
чества	-2171
▁отлича	-2172
▁астро	-2173
▁установле	-2174
▁no	-2175
послед	-2176
смотря	-2177
▁империи	-2178
гом	-2179
обре	-2180
▁библи	-2181
▁стандар	-2182
джа	-2183
▁другой	-2184
лами	-2185
▁назна	-2186
▁последова	-2187
▁едини	-2188
▁руковод	-2189
▁правительство	-2190
нде	-2191
▁чёр	-2192
▁фото	-2193
▁величи	-2194
▁вод	-2195
ведение	-2196
▁начина	-2197
▁вок	-2198
нирова	-2199
▁несмотря	-2200
▁практически	-2201
▁наблюда	-2202
▁ог	-2203
▁солн	-2204
▁радио	-2205
▁середи	-2206
▁поля	-2207
▁района	-2208
вить	-2209
шу	-2210
▁24	-2211
▁организации	-2212
ез	-2213
▁водо	-2214
тни	-2215
▁фло	-2216
▁силы	-2217
рхи	-2218
▁заклю	-2219
▁происхо	-2220
вили	-2221
▁подоб	-2222
▁влияние	-2223
▁косми	-2224
▁федерации	-2225
▁первым	-2226
▁одного	-2227
▁иг	-2228
▁борь	-2229
▁новой	-2230
сел	-2231
▁партии	-2232
▁лё	-2233
▁германии	-2234
вшая	-2235
ётся	-2236
▁компью	-2237
▁допол	-2238
▁%.	-2239
мень	-2240
25	-2241
ьер	-2242
▁100	-2243
▁эпо	-2244
▁происходит	-2245
▁авиа	-2246
▁верхов	-2247
ныне	-2248
▁нас	-2249
▁тон	-2250
ter	-2251
▁слово	-2252
▁примерно	-2253
▁филь	-2254
сою	-2255
▁ато	-2256
гля	-2257
▁мировой	-2258
вед	-2259
торов	-2260
▁o	-2261
▁власть	-2262
▁смерти	-2263
рение	-2264
▁иногда	-2265
там	-2266
что	-2267
▁расши	-2268
▁ап	-2269
3,	-2270
▁попы	-2271
▁мнению	-2272
мар	-2273
сни	-2274
клад	-2275
▁нет	-2276
сных	-2277
▁сообще	-2278
сили	-2279
▁журна	-2280
▁церкви	-2281
▁клима	-2282
▁депута	-2283
▁кино	-2284
вались	-2285
чением	-2286
▁плане	-2287
пасно	-2288
▁очере	-2289
▁избира	-2290
чности	-2291
шем	-2292
▁центр	-2293
▁дома	-2294
▁проте	-2295
60	-2296
▁пода	-2297
запа	-2298
стоит	-2299
▁доку	-2300
▁производи	-2301
▁прекра	-2302
пле	-2303
▁там	-2304
раи	-2305
▁культуры	-2306
▁государство	-2307
ниях	-2308
тного	-2309
емый	-2310
▁(18	-2311
▁поста	-2312
ведё	-2313
▁понима	-2314
кую	-2315
брита	-2316
▁2000	-2317
▁пути	-2318
ваться	-2319
▁утвержда	-2320
▁бал	-2321
▁уста	-2322
▁площадь	-2323
am	-2324
▁события	-2325
ch	-2326
▁сту	-2327
▁начало	-2328
ктор	-2329
▁сфор	-2330
▁указа	-2331
ственным	-2332
лых	-2333
дии	-2334
▁свобод	-2335
графия	-2336
нией	-2337
▁оте	-2338
▁образования	-2339
нены	-2340
телями	-2341
сер	-2342
кли	-2343
рую	-2344
▁вариа	-2345
▁смо	-2346
▁места	-2347
▁механи	-2348
▁смы	-2349
▁союза	-2350
▁большой	-2351
▁пози	-2352
▁эффе	-2353
щего	-2354
▁американ	-2355
вень	-2356
▁2010	-2357
ьё	-2358
▁сочи	-2359
▁практи	-2360
▁вет	-2361
ческими	-2362
стя	-2363
▁председа	-2364
▁дальней	-2365
▁муж	-2366
▁комму	-2367
")	-2368
40	-2369
▁спа	-2370
нев	-2371
▁189	-2372
нские	-2373
▁себе	-2374
▁край	-2375
▁несколь	-2376
шта	-2377
▁экспери	-2378
▁твор	-2379
▁чего	-2380
жные	-2381
▁досто	-2382
▁вероят	-2383
▁регу	-2384
▁образ	-2385
▁состоит	-2386
тро	-2387
▁0,	-2388
▁предложе	-2389
последствии	-2390
например	-2391
нении	-2392
тный	-2393
▁своё	-2394
▁отпра	-2395
▁опубли	-2396
▁деятельности	-2397
un	-2398
▁типа	-2399
бри	-2400
▁тол	-2401
▁очередь	-2402
▁общи	-2403
▁поме	-2404
щей	-2405
▁законода	-2406
»),	-2407
тка	-2408
▁l	-2409
тво	-2410
▁есте	-2411
▁хоро	-2412
пере	-2413
▁памят	-2414
▁поле	-2415
▁пасса	-2416
лан	-2417
стом	-2418
▁род	-2419
70	-2420
▁1,	-2421
влением	-2422
стров	-2423
▁поддерж	-2424
▁полно	-2425
▁треть	-2426
▁израи	-2427
ктив	-2428
▁плато	-2429
тые	-2430
▁экс	-2431
точно	-2432
▁самых	-2433
нному	-2434
рица	-2435
сред	-2436
строи	-2437
▁упомина	-2438
▁техни	-2439
▁ори	-2440
▁тот	-2441
▁разно	-2442
▁обеспечи	-2443
▁представляет	-2444
тить	-2445
▁близ	-2446
▁великобрита	-2447
80	-2448
▁ходе	-2449
▁разных	-2450
▁уби	-2451
▁сооб	-2452
дах	-2453
▁множество	-2454
▁рей	-2455
▁выступа	-2456
▁относительно	-2457
лизации	-2458
▁уз	-2459
▁еже	-2460
сен	-2461
▁права	-2462
▁кам	-2463
чными	-2464
тельства	-2465
руг	-2466
ванто	-2467
▁всей	-2468
▁ир	-2469
▁22	-2470
▁располага	-2471
▁23	-2472
нодоро	-2473
▁устрой	-2474
вила	-2475
нина	-2476
▁сни	-2477
▁поряд	-2478
▁крестья	-2479
▁формирова	-2480
шен	-2481
лам	-2482
циях	-2483
▁выделя	-2484
▁образование	-2485
езд	-2486
▁сове	-2487
▁миха	-2488
▁впоследствии	-2489
▁ото	-2490
моби	-2491
▁руб	-2492
▁президента	-2493
мно	-2494
жной	-2495
▁теоре	-2496
);	-2497
тет	-2498
тика	-2499
бай	-2500
▁служ	-2501
▁городов	-2502
▁северной	-2503
лье	-2504
▁просто	-2505
▁2008	-2506
мпи	-2507
▁техно	-2508
▁подписа	-2509
▁восстано	-2510
лга	-2511
▁зи	-2512
▁тай	-2513
▁средне	-2514
лки	-2515
▁пассажи	-2516
▁кры	-2517
тию	-2518
сона	-2519
вался	-2520
▁безо	-2521
▁государственной	-2522
▁продолжи	-2523
▁железнодоро	-2524
▁группа	-2525
тором	-2526
ферен	-2527
▁прото	-2528
мых	-2529
мана	-2530
▁исследования	-2531
▁оп	-2532
▁сфе	-2533
▁26	-2534
имуще	-2535
▁считается	-2536
▁весь	-2537
▁кажды	-2538
▁посвя	-2539
▁медици	-2540
говор	-2541
▁раство	-2542
▁жителей	-2543
тая	-2544
▁момент	-2545
▁вооружё	-2546
▁2011	-2547
читы	-2548
ющими	-2549
▁воро	-2550
1"	-2551
▁составе	-2552
чай	-2553
▁европы	-2554
▁прожива	-2555
гер	-2556
▁провин	-2557
▁станови	-2558
▁философии	-2559
либо	-2560
▁ранее	-2561
▁кванто	-2562
▁королев	-2563
▁значения	-2564
ion	-2565
оте	-2566
▁бес	-2567
ум	-2568
▁внима	-2569
▁школы	-2570
▁побереж	-2571
▁конструк	-2572
▁территория	-2573
3"	-2574
ланд	-2575
вии	-2576
▁50	-2577
воль	-2578
▁буд	-2579
▁хро	-2580
▁точки	-2581
▁приводи	-2582
▁коле	-2583
▁стар	-2584
▁макси	-2585
▁широко	-2586
▁языков	-2587
▁площади	-2588
▁линии	-2589
▁систем	-2590
▁21	-2591
▁сра	-2592
7"	-2593
▁27	-2594
▁проя	-2595
▁запре	-2596
▁требо	-2597
▁оши	-2598
▁кораб	-2599
▁другими	-2600
▁функции	-2601
фу	-2602
▁самым	-2603
нто	-2604
▁позже	-2605
▁означа	-2606
▁увеличи	-2607
▁называется	-2608
▁соответству	-2609
▁2017	-2610
гип	-2611
▁возвра	-2612
▁свойства	-2613
6"	-2614
сные	-2615
▁первая	-2616
45	-2617
▁пы	-2618
бора	-2619
▁возможность	-2620
▁нём	-2621
▁све	-2622
▁новый	-2623
▁коне	-2624
▁свет	-2625
▁дет	-2626
.)	-2627
▁ква	-2628
▁+	-2629
▁28	-2630
▁температура	-2631
"),	-2632
графии	-2633
▁область	-2634
нен	-2635
чную	-2636
▁данных	-2637
▁уровень	-2638
4,	-2639
▁долла	-2640
▁славя	-2641
▁освобо	-2642
2"	-2643
re	-2644
валось	-2645
▁крепо	-2646
▁однов	-2647
▁мощ	-2648
▁предполага	-2649
▁ды	-2650
пар	-2651
ременно	-2652
▁зрения	-2653
чении	-2654
▁сотруд	-2655
▁применя	-2656
▁сум	-2657
▁вызва	-2658
тической	-2659
▁луч	-2660
▁рез	-2661
▁поми	-2662
▁солне	-2663
ндо	-2664
▁системе	-2665
▁степени	-2666
="6	-2667
dice	-2668
▁аре	-2669
▁аппара	-2670
8"	-2671
гия	-2672
9"	-2673
▁украины	-2674
пря	-2675
▁автомоби	-2676
▁подготов	-2677
▁состоянию	-2678
▁ниже	-2679
4"	-2680
дко	-2681
носи	-2682
▁различные	-2683
▁ним	-2684
▁реак	-2685
▁древне	-2686
▁рамках	-2687
▁тепло	-2688
▁большое	-2689
▁управления	-2690
чном	-2691
▁программ	-2692
▁29	-2693
▁h	-2694
▁психо	-2695
▁2009	-2696
▁месте	-2697
зия	-2698
▁эпи	-2699
степе	-2700
▁счёт	-2701
начально	-2702
▁преимуще	-2703
йти	-2704
вича	-2705
▁красно	-2706
▁исполни	-2707
▁предоста	-2708
толи	-2709
▁(),	-2710
▁завер	-2711
▁космонав	-2712
лый	-2713
▁микро	-2714
▁электри	-2715
рина	-2716
▁свиде	-2717
цов	-2718
▁нового	-2719
▁указыва	-2720
▁неу	-2721
▁заво	-2722
ис	-2723
▁оби	-2724
чены	-2725
▁музе	-2726
ждений	-2727
чих	-2728
▁бло	-2729
▁коллек	-2730
▁следует	-2731
▁поддержива	-2732
пись	-2733
▁().	-2734
пуска	-2735
▁похо	-2736
▁жизнь	-2737
няет	-2738
тики	-2739
штей	-2740
▁уровня	-2741
тине	-2742
▁иностра	-2743
▁ниж	-2744
▁новых	-2745
▁аристо	-2746
баты	-2747
85	-2748
жей	-2749
един	-2750
▁2018	-2751
сфе	-2752
рирова	-2753
▁анали	-2754
▁сопро	-2755
▁разработа	-2756
br	-2757
гель	-2758
▁тела	-2759
▁нескольких	-2760
▁мя	-2761
туру	-2762
▁общества	-2763
вок	-2764
▁любо	-2765
гну	-2766
лые	-2767
▁2007	-2768
вели	-2769
▁абсо	-2770
▁тому	-2771
▁второ	-2772
▁округа	-2773
▁граждан	-2774
▁решение	-2775
75	-2776
скоре	-2777
▁коре	-2778
▁промышленности	-2779
▁сей	-2780
▁вклю	-2781
▁мифо	-2782
▁природ	-2783
▁теория	-2784
▁франции	-2785
▁деятельность	-2786
▁e	-2787
тический	-2788
▁странах	-2789
тием	-2790
йские	-2791
▁1991	-2792
▁2020	-2793
▁реше	-2794
гна	-2795
пор	-2796
▁действия	-2797
жный	-2798
▁этим	-2799
лением	-2800
ющихся	-2801
жений	-2802
▁дере	-2803
▁добы	-2804
▁земле	-2805
▁отличие	-2806
мах	-2807
▁расстоя	-2808
▁многочисле	-2809
сам	-2810
▁"«	-2811
▁исти	-2812
▁ответ	-2813
тельную	-2814
чил	-2815
▁формы	-2816
дре	-2817
кар	-2818
▁вся	-2819
▁газ	-2820
▁республика	-2821
▁гидро	-2822
▁названия	-2823
_2	-2824
суль	-2825
▁чув	-2826
петер	-2827
▁вид	-2828
стана	-2829
▁первого	-2830
▁преобразова	-2831
▁iii	-2832
▁2014	-2833
▁верх	-2834
▁государств	-2835
езда	-2836
мира	-2837
▁инду	-2838
▁правило	-2839
▁западной	-2840
▁съ	-2841
цент	-2842
▁позна	-2843
▁южной	-2844
▁имя	-2845
▁атмо	-2846
▁сил	-2847
▁неиз	-2848
▁объяс	-2849
▁существуют	-2850
сами	-2851
▁гри	-2852
▁присут	-2853
35	-2854
жением	-2855
▁работ	-2856
льности	-2857
оне	-2858
▁такой	-2859
поли	-2860
▁2019	-2861
▁основных	-2862
▁взя	-2863
▁опы	-2864
сок	-2865
росси	-2866
▁ленин	-2867
▁всегда	-2868
джи	-2869
тчи	-2870
лл	-2871
▁бю	-2872
▁ору	-2873
чество	-2874
▁программы	-2875
▁захва	-2876
ступил	-2877
▁казах	-2878
▁значительно	-2879
▁предме	-2880
▁термин	-2881
▁одновременно	-2882
▁ву	-2883
▁оли	-2884
ологи	-2885
▁пари	-2886
▁описы	-2887
▁ситуа	-2888
▁целью	-2889
▁восста	-2890
лой	-2891
▁2013	-2892
▁учеб	-2893
▁включая	-2894
▁русского	-2895
сур	-2896
леко	-2897
ствен	-2898
▁веду	-2899
▁науки	-2900
▁превра	-2901
▁президен	-2902
6,	-2903
iv	-2904
▁фин	-2905
▁разре	-2906
7,	-2907
▁нью	-2908
вшим	-2909
тиру	-2910
▁урав	-2911
▁внутри	-2912
▁островов	-2913
▁2012	-2914
▁изменения	-2915
мена	-2916
▁codice	-2917
▁сторон	-2918
▁строительство	-2919
рыв	-2920
▁кате	-2921
нсо	-2922
вала	-2923
▁поро	-2924
ствовал	-2925
▁помимо	-2926
жай	-2927
▁бого	-2928
▁сбор	-2929
нго	-2930
возмо	-2931
▁тури	-2932
дёт	-2933
рко	-2934
поло	-2935
▁жан	-2936
вё	-2937
жо	-2938
▁конца	-2939
▁рефор	-2940
▁этому	-2941
емой	-2942
▁целом	-2943
9,	-2944
▁поте	-2945
вшихся	-2946
▁общей	-2947
▁положение	-2948
▁которым	-2949
▁распростран	-2950
кса	-2951
▁новые	-2952
32	-2953
сля	-2954
▁геро	-2955
▁австра	-2956
▁десяти	-2957
лого	-2958
▁егип	-2959
▁районе	-2960
рю	-2961
вило	-2962
выша	-2963
▁xviii	-2964
▁требу	-2965
▁называют	-2966
▁современной	-2967
=6	-2968
▁позднее	-2969
▁государственный	-2970
тили	-2971
▁дней	-2972
▁отказа	-2973
▁непосред	-2974
йская	-2975
▁дополни	-2976
▁трак	-2977
▁частью	-2978
▁друг	-2979
▁аэропо	-2980
дам	-2981
▁обозна	-2982
▁страна	-2983
.),	-2984
сед	-2985
тиви	-2986
▁%),	-2987
▁ска	-2988
▁подвер	-2989
союз	-2990
▁предела	-2991
рид	-2992
соеди	-2993
▁производства	-2994
el	-2995
жды	-2996
▁изо	-2997
▁санкт	-2998
▁мед	-2999
▁россия	-3000
▁специали	-3001
емого	-3002
▁сформирова	-3003
▁которую	-3004
▁занимает	-3005
2.	-3006
ционной	-3007
▁век	-3008
▁чисел	-3009
▁тю	-3010
ковой	-3011
▁москве	-3012
▁используются	-3013
чки	-3014
▁литератур	-3015
тём	-3016
чер	-3017
кими	-3018
▁книги	-3019
▁приходи	-3020
▁постепе	-3021
▁русской	-3022
шру	-3023
лена	-3024
ниями	-3025
▁двига	-3026
▁сказа	-3027
ган	-3028
▁своим	-3029
▁первое	-3030
фра	-3031
▁дра	-3032
▁музей	-3033
ницы	-3034
▁дерев	-3035
▁начал	-3036
▁вопрос	-3037
▁информации	-3038
чего	-3039
▁орби	-3040
▁вокруг	-3041
рией	-3042
▁гим	-3043
▁основной	-3044
▁средства	-3045
сей	-3046
тех	-3047
▁удо	-3048
▁яро	-3049
▁долго	-3050
▁император	-3051
▁зависимости	-3052
.).	-3053
тым	-3054
речи	-3055
▁магни	-3056
▁движение	-3057
▁оде	-3058
▁прем	-3059
▁остров	-3060
▁статус	-3061
▁условиях	-3062
▁„	-3063
мато	-3064
▁ура	-3065
▁фили	-3066
▁област	-3067
▁последние	-3068
▁численность	-3069
влении	-3070
возгла	-3071
▁должен	-3072
▁2016	-3073
▁нару	-3074
▁отве	-3075
▁света	-3076
вляется	-3077
▁главным	-3078
▁систему	-3079
▁позволяет	-3080
▁объё	-3081
▁достаточно	-3082
▁пересе	-3083
▁революции	-3084
▁това	-3085
▁трам	-3086
▁отрица	-3087
48	-3088
▁40	-3089
сказа	-3090
▁собственно	-3091
летия	-3092
▁демокра	-3093
▁ск	-3094
▁2015	-3095
▁доказа	-3096
▁первых	-3097
гру	-3098
рот	-3099
▁носи	-3100
▁находятся	-3101
▁ито	-3102
▁зали	-3103
▁пост	-3104
▁процесс	-3105
▁дер	-3106
валась	-3107
▁каждый	-3108
лах	-3109
▁фон	-3110
▁достига	-3111
▁участие	-3112
брь	-3113
новь	-3114
▁верну	-3115
▁пру	-3116
▁пяти	-3117
▁детей	-3118
▁говори	-3119
нок	-3120
▁маршру	-3121
▁помощи	-3122
il	-3123
или	-3124
рье	-3125
▁бар	-3126
▁дио	-3127
▁дня	-3128
▁сет	-3129
▁уго	-3130
▁библиоте	-3131
▁186	-3132
пасности	-3133
▁вдо	-3134
▁периода	-3135
▁дене	-3136
▁абсолют	-3137
▁университет	-3138
▁хло	-3139
единё	-3140
лении	-3141
▁крупных	-3142
▁руководи	-3143
▁относятся	-3144
хом	-3145
▁вскоре	-3146
▁восточной	-3147
бран	-3148
▁сек	-3149
▁языки	-3150
▁2006	-3151
▁пала	-3152
▁спор	-3153
жности	-3154
▁екате	-3155
▁четыре	-3156
▁элемента	-3157
▁быстро	-3158
▁работу	-3159
▁провозгла	-3160
="5	-3161
леку	-3162
лин	-3163
▁эко	-3164
▁прибы	-3165
▁первую	-3166
сного	-3167
ционных	-3168
▁должны	-3169
—18	-3170
▁дело	-3171
▁концеп	-3172
вей	-3173
▁188	-3174
▁ника	-3175
▁употреб	-3176
▁православ	-3177
чем	-3178
ковых	-3179
ясь	-3180
▁животных	-3181
ници	-3182
▁недоста	-3183
▁выда	-3184
▁ката	-3185
▁огром	-3186
▁прибли	-3187
▁середине	-3188
49	-3189
co	-3190
th	-3191
еха	-3192
▁умень	-3193
▁поверхности	-3194
▁ныне	-3195
▁использование	-3196
▁ие	-3197
▁начиная	-3198
сем	-3199
язы	-3200
▁наук	-3201
лизова	-3202
▁соответствии	-3203
▁2005	-3204
ландии	-3205
▁взгля	-3206
▁искусства	-3207
▁логи	-3208
▁содер	-3209
▁вместо	-3210
▁the	-3211
▁лати	-3212
ющиеся	-3213
▁насчиты	-3214
▁решения	-3215
▁0	-3216
▁военно	-3217
▁пространства	-3218
ьи	-3219
▁свяще	-3220
фли	-3221
циями	-3222
▁разру	-3223
зне	-3224
▁187	-3225
▁бан	-3226
▁принадлежа	-3227
име	-3228
лях	-3229
шед	-3230
▁умер	-3231
▁самого	-3232
вита	-3233
щу	-3234
мера	-3235
метри	-3236
жества	-3237
▁болга	-3238
▁долларов	-3239
▁самостоя	-3240
▁советского	-3241
нять	-3242
▁печа	-3243
▁положи	-3244
▁оказыва	-3245
▁произведения	-3246
▁птиц	-3247
▁доба	-3248
▁угле	-3249
▁подчи	-3250
▁000	-3251
тон	-3252
▁зве	-3253
▁стои	-3254
▁гипо	-3255
тное	-3256
▁становится	-3257
▁фро	-3258
▁версии	-3259
▁j	-3260
▁ресур	-3261
▁художе	-3262
▁подтвер	-3263
▁энергии	-3264
слов	-3265
ющую	-3266
▁закры	-3267
принима	-3268
▁путём	-3269
▁доступ	-3270
ственная	-3271
▁китай	-3272
рец	-3273
▁земе	-3274
▁догово	-3275
▁ввп	-3276
▁писал	-3277
▁лей	-3278
▁пои	-3279
▁станции	-3280
st	-3281
лло	-3282
▁мере	-3283
вай	-3284
дор	-3285
▁мас	-3286
▁элементов	-3287
33	-3288
прав	-3289
▁&	-3290
лка	-3291
влен	-3292
тета	-3293
▁войск	-3294
▁сильно	-3295
▁соответственно	-3296
гани	-3297
бом	-3298
мые	-3299
▁2,	-3300
▁гар	-3301
▁последу	-3302
▁люди	-3303
ниципа	-3304
▁составляют	-3305
▁суд	-3306
запад	-3307
▁семей	-3308
▁паро	-3309
▁своём	-3310
ведений	-3311
▁модели	-3312
сия	-3313
стями	-3314
▁потом	-3315
нты	-3316
▁расте	-3317
▁бое	-3318
чность	-3319
▁парламент	-3320
▁использовать	-3321
):	-3322
чём	-3323
нить	-3324
▁эту	-3325
▁совмест	-3326
▁2004	-3327
▁двор	-3328
▁высоко	-3329
▁класса	-3330
▁партий	-3331
▁приобре	-3332
▁прежде	-3333
90	-3334
гам	-3335
▁бор	-3336
▁дом	-3337
▁жела	-3338
▁астроно	-3339
▁конституции	-3340
гор	-3341
ъек	-3342
ряду	-3343
▁городской	-3344
▁друга	-3345
▁центром	-3346
мую	-3347
чено	-3348
▁тен	-3349
нском	-3350
▁реко	-3351
▁большая	-3352
обла	-3353
▁мол	-3354
▁фла	-3355
▁завод	-3356
▁относится	-3357
▁покры	-3358
чений	-3359
▁кири	-3360
тным	-3361
▁вновь	-3362
▁каждо	-3363
ционные	-3364
5,	-3365
—2	-3366
▁шу	-3367
водя	-3368
▁фра	-3369
ниц	-3370
мере	-3371
стрирова	-3372
▁монасты	-3373
▁премьер	-3374
ори	-3375
▁азии	-3376
▁возгла	-3377
8,	-3378
ссия	-3379
▁характеристи	-3380
▁русский	-3381
▁связыва	-3382
▁организова	-3383
").	-3384
виду	-3385
сфср	-3386
▁объём	-3387
стр	-3388
лект	-3389
навли	-3390
ходов	-3391
▁переме	-3392
▁понятие	-3393
▁теа	-3394
▁моно	-3395
▁главе	-3396
▁возника	-3397
▁официально	-3398
ступления	-3399
сова	-3400
▁чел	-3401
▁сами	-3402
▁компози	-3403
▁in	-3404
▁соору	-3405
▁стати	-3406
▁дороги	-3407
креп	-3408
руют	-3409
▁араб	-3410
▁недо	-3411
жида	-3412
смотре	-3413
▁молеку	-3414
▁включает	-3415
час	-3416
▁изуча	-3417
▁мужчи	-3418
▁солнца	-3419
▁муниципа	-3420
ложил	-3421
▁финля	-3422
их	-3423
▁худож	-3424
жным	-3425
лены	-3426
▁кто	-3427
лений	-3428
▁направления	-3429
ra	-3430
нке	-3431
нена	-3432
▁духов	-3433
▁вызыва	-3434
▁данные	-3435
▁академи	-3436
▁невозмо	-3437
▁четырёх	-3438
▁фактически	-3439
тность	-3440
▁необходимо	-3441
шил	-3442
▁служи	-3443
щим	-3444
торо	-3445
нностью	-3446
▁севере	-3447
ствовать	-3448
▁церковь	-3449
вшее	-3450
вляет	-3451
сибир	-3452
▁2021	-3453
▁присоеди	-3454
▁экономики	-3455
дже	-3456
йца	-3457
няются	-3458
фикации	-3459
▁герман	-3460
вале	-3461
жного	-3462
ляции	-3463
▁прямо	-3464
▁честь	-3465
▁конкре	-3466
▁калинин	-3467
▁создания	-3468
▁составил	-3469
▁университета	-3470
нюю	-3471
емая	-3472
моно	-3473
годня	-3474
▁поко	-3475
нением	-3476
▁прода	-3477
▁самой	-3478
▁пользу	-3479
▁причём	-3480
тельство	-3481
▁проходи	-3482
▁распространё	-3483
86	-3484
бина	-3485
▁нем	-3486
▁прав	-3487
ссиона	-3488
▁самый	-3489
фицирова	-3490
скре	-3491
▁май	-3492
▁1917	-3493
▁просты	-3494
▁которому	-3495
▁советской	-3496
рода	-3497
▁оон	-3498
▁конфли	-3499
▁производство	-3500
тбо	-3501
чие	-3502
поль	-3503
сный	-3504
чета	-3505
▁приводит	-3506
▁распреде	-3507
мым	-3508
рам	-3509
▁возможности	-3510
лизма	-3511
▁силу	-3512
▁инстру	-3513
кет	-3514
лит	-3515
▁см	-3516
▁петра	-3517
▁характери	-3518
лог	-3519
сон	-3520
▁лит	-3521
▁озе	-3522
менных	-3523
▁получила	-3524
▁центральной	-3525
▁xvii	-3526
▁ряда	-3527
▁петро	-3528
▁матери	-3529
▁ж	-3530
цер	-3531
жная	-3532
▁испы	-3533
▁основы	-3534
▁русских	-3535
um	-3536
▁гро	-3537
▁пора	-3538
▁программирова	-3539
▁стоя	-3540
▁рсфср	-3541
▁удалось	-3542
▁воздуш	-3543
▁другим	-3544
▁католи	-3545
▁компании	-3546
27	-3547
39	-3548
▁рода	-3549
▁океана	-3550
ними	-3551
чена	-3552
▁виды	-3553
▁порт	-3554
▁пунк	-3555
▁языках	-3556
=5	-3557
шё	-3558
ям	-3559
гото	-3560
▁квар	-3561
жены	-3562
▁война	-3563
▁активно	-3564
все	-3565
▁60	-3566
▁глубо	-3567
▁климат	-3568
▁границы	-3569
▁великобритании	-3570
ссов	-3571
чению	-3572
вольно	-3573
рования	-3574
▁отношении	-3575
кты	-3576
сказыва	-3577
▁генерал	-3578
дат	-3579
▁гг	-3580
ябрь	-3581
влено	-3582
▁осад	-3583
▁канди	-3584
37	-3585
печа	-3586
▁бро	-3587
▁выну	-3588
▁забо	-3589
▁спут	-3590
▁суде	-3591
▁лондо	-3592
▁сегодня	-3593
▁обознача	-3594
ческому	-3595
▁контине	-3596
▁жё	-3597
▁алфа	-3598
▁конку	-3599
▁равно	-3600
▁секре	-3601
спи	-3602
▁мер	-3603
▁часов	-3604
▁потреб	-3605
бов	-3606
▁юге	-3607
▁гипоте	-3608
▁аналоги	-3609
дий	-3610
▁вещества	-3611
▁использования	-3612
47	-3613
дж	-3614
вёл	-3615
▁нов	-3616
▁охра	-3617
▁ошиб	-3618
▁нидер	-3619
▁преду	-3620
лега	-3621
▁лёг	-3622
▁наиболь	-3623
обо	-3624
▁тонн	-3625
щается	-3626
▁начали	-3627
ева	-3628
рных	-3629
▁тан	-3630
▁кило	-3631
▁членов	-3632
ционного	-3633
▁скло	-3634
▁министер	-3635
26	-3636
▁непре	-3637
36	-3638
▁пес	-3639
▁мину	-3640
▁получили	-3641
]],	-3642
▁океа	-3643
▁крупные	-3644
▁современных	-3645
йде	-3646
купа	-3647
▁газа	-3648
▁идеи	-3649
рудова	-3650
▁автор	-3651
▁общая	-3652
▁меньше	-3653
▁москвы	-3654
▁письме	-3655
▁объектов	-3656
▁миллионов	-3657
▁появились	-3658
▁следующие	-3659
▁расположен	-3660
куп	-3661
мигра	-3662
цкого	-3663
▁далее	-3664
ствовали	-3665
▁преимущественно	-3666
ot	-3667
▁неё	-3668
▁стол	-3669
▁двумя	-3670
▁мысли	-3671
▁новая	-3672
▁труда	-3673
▁работе	-3674
▁чемпи	-3675
46	-3676
ol	-3677
▁суда	-3678
вшийся	-3679
▁михаи	-3680
▁связь	-3681
▁регуляр	-3682
▁постепенно	-3683
▁мел	-3684
▁пово	-3685
▁руси	-3686
жность	-3687
▁автобу	-3688
▁персона	-3689
▁понятия	-3690
▁географи	-3691
ia	-3692
йском	-3693
▁чита	-3694
лению	-3695
▁инже	-3696
▁всемир	-3697
шими	-3698
▁добро	-3699
▁капита	-3700
▁случай	-3701
▁религии	-3702
под	-3703
вато	-3704
▁дни	-3705
▁1990	-3706
▁спра	-3707
▁входи	-3708
▁хорошо	-3709
▁принято	-3710
▁статисти	-3711
▁(,	-3712
▁клу	-3713
▁доли	-3714
облада	-3715
▁спект	-3716
▁уничто	-3717
▁культура	-3718
▁опубликова	-3719
цкий	-3720
▁рост	-3721
▁обви	-3722
▁норве	-3723
▁констан	-3724
▁внимание	-3725
лок	-3726
гами	-3727
▁фер	-3728
▁швед	-3729
▁катего	-3730
▁убе	-3731
▁эсто	-3732
льность	-3733
соб	-3734
тина	-3735
влека	-3736
▁сети	-3737
▁теат	-3738
▁общего	-3739
▁проект	-3740
▁депутатов	-3741
▁футбо	-3742
▁эксперимента	-3743
лова	-3744
несе	-3745
▁клю	-3746
▁орде	-3747
▁форме	-3748
▁индо	-3749
▁кора	-3750
нисти	-3751
▁введе	-3752
▁веков	-3753
▁старо	-3754
38	-3755
▁цк	-3756
луч	-3757
сах	-3758
▁армя	-3759
держива	-3760
▁потому	-3761
▁означает	-3762
вид	-3763
▁оз	-3764
▁циф	-3765
▁коль	-3766
▁говоря	-3767
95	-3768
нили	-3769
▁вене	-3770
▁будди	-3771
зан	-3772
▁компо	-3773
▁серге	-3774
служива	-3775
▁природы	-3776
▁мог	-3777
▁1918	-3778
байджа	-3779
▁партия	-3780
зербайджа	-3781
28	-3782
▁2022	-3783
▁ассо	-3784
▁острове	-3785
▁переход	-3786
▁соверше	-3787
ьёз	-3788
тная	-3789
произ	-3790
скопа	-3791
▁древней	-3792
▁средняя	-3793
▁городского	-3794
▁порту	-3795
▁излу	-3796
вит	-3797
▁мин	-3798
▁президентом	-3799
▁пыта	-3800
▁реда	-3801
тивных	-3802
▁уровне	-3803
▁половине	-3804
▁безопасности	-3805
▁поги	-3806
▁пока	-3807
▁корпу	-3808
▁названием	-3809
▁осе	-3810
▁кризи	-3811
нское	-3812
▁вслед	-3813
▁окружа	-3814
▁xvi	-3815
ждении	-3816
▁вероятно	-3817
▁представления	-3818
▁сиби	-3819
▁акт	-3820
циони	-3821
▁небе	-3822
тельными	-3823
▁имеется	-3824
▁александр	-3825
net	-3826
плу	-3827
бурга	-3828
метров	-3829
▁земля	-3830
▁максима	-3831
▁преоблада	-3832
42	-3833
ac	-3834
пусти	-3835
▁маги	-3836
▁наза	-3837
▁твёр	-3838
мами	-3839
щена	-3840
▁действу	-3841
вос	-3842
▁кг	-3843
▁ини	-3844
▁эфи	-3845
▁центре	-3846
щает	-3847
▁бит	-3848
▁пять	-3849
▁министров	-3850
▁услу	-3851
▁следова	-3852
рос	-3853
чий	-3854
▁вида	-3855
▁подо	-3856
▁азербайджа	-3857
▁w	-3858
вия	-3859
▁мм	-3860
влены	-3861
▁арме	-3862
▁термина	-3863
▁определи	-3864
дру	-3865
лий	-3866
▁(20	-3867
клады	-3868
хозяй	-3869
▁евре	-3870
▁коор	-3871
тическим	-3872
кну	-3873
▁ске	-3874
▁хри	-3875
▁юри	-3876
поста	-3877
▁считал	-3878
▁средневе	-3879
▁протяжении	-3880
цен	-3881
ходы	-3882
тивной	-3883
▁исключи	-3884
▁дис	-3885
▁сли	-3886
вшись	-3887
▁успеш	-3888
реги	-3889
▁субъек	-3890
▁знамени	-3891
▁традиции	-3892
тическая	-3893
▁предприятия	-3894
▁каме	-3895
▁впло	-3896
▁слов	-3897
▁выпуска	-3898
▁отдельных	-3899
▁транспорта	-3900
▁=	-3901
▁сю	-3902
стен	-3903
▁пита	-3904
▁нефти	-3905
▁мусуль	-3906
▁олимпи	-3907
▁действует	-3908
-2	-3909
вла	-3910
гина	-3911
ственном	-3912
▁постано	-3913
▁финансо	-3914
▁температуры	-3915
og	-3916
▁арми	-3917
лод	-3918
тке	-3919
тона	-3920
рополи	-3921
▁войне	-3922
▁созна	-3923
▁газо	-3924
▁топо	-3925
▁метал	-3926
▁отече	-3927
▁важней	-3928
▁представителей	-3929
▁зам	-3930
▁лето	-3931
▁фигу	-3932
▁особо	-3933
фы	-3934
рва	-3935
так	-3936
▁джа	-3937
▁чет	-3938
▁сезо	-3939
▁массы	-3940
▁языком	-3941
▁профессиона	-3942
льд	-3943
▁экономика	-3944
▁государственных	-3945
99	-3946
сят	-3947
▁кп	-3948
▁полуо	-3949
▁научно	-3950
▁список	-3951
▁позволи	-3952
▁полномо	-3953
гах	-3954
надца	-3955
▁моне	-3956
▁напо	-3957
▁ядер	-3958
▁1990-	-3959
▁италии	-3960
▁известно	-3961
▁й	-3962
▁всю	-3963
тации	-3964
▁член	-3965
43	-3966
▁упа	-3967
ложения	-3968
▁превыша	-3969
os	-3970
нил	-3971
▁путе	-3972
▁петер	-3973
емое	-3974
кипа	-3975
нским	-3976
▁1992	-3977
▁литов	-3978
логических	-3979
▁состояния	-3980
роб	-3981
ковые	-3982
▁наде	-3983
▁групп	-3984
▁создание	-3985
нос	-3986
сре	-3987
тана	-3988
щении	-3989
▁2003	-3990
▁вело	-3991
▁нако	-3992
ума	-3993
доров	-3994
▁свидетель	-3995
начала	-3996
ствием	-3997
тивные	-3998
▁правления	-3999
плуа	-4000
▁бай	-4001
▁связано	-4002
▁профессо	-4003
▁произошло	-4004
▁независимости	-4005
▁той	-4006
▁чаще	-4007
динами	-4008
▁серьёз	-4009
▁ау	-4010
лков	-4011
мани	-4012
▁ссы	-4013
▁разо	-4014
▁тихо	-4015
▁выход	-4016
▁рублей	-4017
▁японии	-4018
▁основным	-4019
щены	-4020
▁привело	-4021
вере	-4022
▁виль	-4023
▁люби	-4024
льному	-4025
▁летом	-4026
▁весьма	-4027
▁торгов	-4028
▁заключа	-4029
▁политики	-4030
▁препо	-4031
▁расти	-4032
▁судеб	-4033
▁входит	-4034
▁началось	-4035
ав	-4036
▁ген	-4037
▁лат	-4038
кнове	-4039
насти	-4040
приня	-4041
▁бассе	-4042
▁строе	-4043
▁городах	-4044
▁различа	-4045
али	-4046
▁скорость	-4047
▁ара	-4048
▁атом	-4049
▁боже	-4050
▁театра	-4051
▁экспеди	-4052
▁компьютер	-4053
▁характеризу	-4054
im	-4055
ссив	-4056
▁дели	-4057
стойчи	-4058
▁балтий	-4059
▁вплоть	-4060
▁самолё	-4061
▁сравни	-4062
▁концент	-4063
▁состояние	-4064
▁верховного	-4065
дил	-4066
славя	-4067
▁выде	-4068
▁отда	-4069
▁термо	-4070
▁женщин	-4071
▁военных	-4072
▁оборудова	-4073
шка	-4074
▁лег	-4075
▁1941	-4076
▁обита	-4077
нтирова	-4078
▁востоке	-4079
▁хозяйства	-4080
▁количества	-4081
дить	-4082
▁1000	-4083
▁речи	-4084
▁могли	-4085
▁воздей	-4086
▁народов	-4087
▁рф	-4088
дение	-4089
стами	-4090
▁норма	-4091
нс	-4092
▁k	-4093
сид	-4094
йнштей	-4095
▁португа	-4096
▁элементы	-4097
▁−	-4098
▁31	-4099
▁наряду	-4100
▁документа	-4101
▁киев	-4102
▁сталин	-4103
▁сотрудни	-4104
бло	-4105
дца	-4106
▁(17	-4107
влению	-4108
▁иметь	-4109
▁рядом	-4110
ционный	-4111
▁политика	-4112
▁обслужива	-4113
нес	-4114
бурге	-4115
▁2001	-4116
▁выво	-4117
▁экипа	-4118
▁колони	-4119
▁сейчас	-4120
▁эксплуа	-4121
лад	-4122
▁интерпре	-4123
эр	-4124
цам	-4125
▁рек	-4126
▁сразу	-4127
▁проблемы	-4128
▁шо	-4129
▁территорию	-4130
22	-4131
нено	-4132
стры	-4133
▁большеви	-4134
ждён	-4135
▁госпо	-4136
▁императора	-4137
78	-4138
ut	-4139
жать	-4140
▁тяжё	-4141
▁великой	-4142
▁институт	-4143
▁существования	-4144
▁промышленность	-4145
96	-4146
▁ом	-4147
▁гон	-4148
▁отс	-4149
▁измени	-4150
▁большую	-4151
▁проведе	-4152
рас	-4153
ндия	-4154
▁кир	-4155
жению	-4156
▁2002	-4157
▁жидко	-4158
▁русском	-4159
▁событий	-4160
▁происходи	-4161
ir	-4162
▁метров	-4163
▁обрабо	-4164
▁великого	-4165
▁особенности	-4166
лён	-4167
▁180	-4168
▁награ	-4169
▁напря	-4170
▁динами	-4171
▁академии	-4172
▁исследований	-4173
жное	-4174
▁звё	-4175
▁италья	-4176
▁кара	-4177
▁беско	-4178
национа	-4179
▁неодно	-4180
▁управля	-4181
▁расположены	-4182
34	-4183
чек	-4184
▁сце	-4185
▁имел	-4186
▁координа	-4187
▁-	-4188
▁побережье	-4189
вари	-4190
▁сро	-4191
зация	-4192
▁потре	-4193
▁самая	-4194
▁фунда	-4195
▁частей	-4196
яр	-4197
▁70	-4198
тива	-4199
влений	-4200
льский	-4201
▁типов	-4202
▁должна	-4203
рона	-4204
▁линей	-4205
▁членом	-4206
▁эйнштей	-4207
▁доля	-4208
▁синте	-4209
▁такое	-4210
▁полага	-4211
▁принял	-4212
▁воздуха	-4213
▁вынужде	-4214
физи	-4215
энер	-4216
▁зер	-4217
▁армия	-4218
▁противоречи	-4219
1.	-4220
▁уси	-4221
ментом	-4222
▁постоянно	-4223
▁международных	-4224
цем	-4225
▁эр	-4226
▁возро	-4227
▁посвящё	-4228
▁средств	-4229
▁существование	-4230
све	-4231
▁пале	-4232
▁имели	-4233
▁посред	-4234
▁имеются	-4235
so	-4236
чить	-4237
▁500	-4238
▁гори	-4239
▁судь	-4240
▁болез	-4241
▁сочета	-4242
▁случаях	-4243
▁операции	-4244
▁среднего	-4245
▁распространение	-4246
▁ними	-4247
▁след	-4248
ксирова	-4249
▁ленина	-4250
▁учение	-4251
▁команди	-4252
▁состава	-4253
▁используют	-4254
▁яко	-4255
▁1945	-4256
▁свер	-4257
▁метод	-4258
▁поддержа	-4259
76	-4260
ющем	-4261
тения	-4262
▁рома	-4263
числи	-4264
▁пушки	-4265
▁замет	-4266
▁колле	-4267
▁концу	-4268
▁сосед	-4269
▁сопрово	-4270
▁сначала	-4271
▁сравнению	-4272
бар	-4273
цом	-4274
▁афи	-4275
телям	-4276
▁адре	-4277
▁этимо	-4278
▁диалек	-4279
▁полёта	-4280
тан	-4281
▁орие	-4282
▁сеть	-4283
▁независимость	-4284
de	-4285
оны	-4286
щихся	-4287
▁еврей	-4288
▁свыше	-4289
▁рабочих	-4290
▁существу	-4291
"»	-4292
тое	-4293
▁80	-4294
змом	-4295
▁втор	-4296
▁подраз	-4297
▁предлага	-4298
▁первоначально	-4299
▁види	-4300
▁масса	-4301
▁одном	-4302
▁народа	-4303
▁бед	-4304
▁одну	-4305
▁вдоль	-4306
▁среды	-4307
▁большей	-4308
▁месторо	-4309
▁протяжё	-4310
▁среднем	-4311
гора	-4312
▁плу	-4313
▁дипло	-4314
▁роман	-4315
лекопита	-4316
▁родился	-4317
▁социалисти	-4318
▁авст	-4319
▁газет	-4320
▁ожида	-4321
▁закона	-4322
гар	-4323
кут	-4324
▁источника	-4325
чия	-4326
▁опти	-4327
▁держа	-4328
▁самые	-4329
▁небольшо	-4330
▁технологи	-4331
▁возникнове	-4332
▁определение	-4333
нау	-4334
кции	-4335
▁185	-4336
ктора	-4337
турой	-4338
▁срок	-4339
льской	-4340
▁избран	-4341
▁масшта	-4342
▁большого	-4343
▁владимир	-4344
▁состоянии	-4345
▁численности	-4346
24	-4347
свя	-4348
чка	-4349
влена	-4350
▁назад	-4351
▁отвер	-4352
▁оцени	-4353
▁такого	-4354
eb	-4355
мого	-4356
руются	-4357
▁модель	-4358
▁восприя	-4359
▁династи	-4360
▁паралле	-4361
▁млекопита	-4362
21	-4363
пой	-4364
▁кле	-4365
▁меня	-4366
▁эффектив	-4367
▁3,	-4368
ниям	-4369
рные	-4370
▁чрез	-4371
▁белорус	-4372
▁порядка	-4373
▁александра	-4374
▁континента	-4375
▁пространство	-4376
▁ей	-4377
ллей	-4378
перь	-4379
▁лейб	-4380
▁изобре	-4381
▁должность	-4382
▁определения	-4383
▁охо	-4384
▁предна	-4385
▁договор	-4386
зме	-4387
голь	-4388
манд	-4389
▁отря	-4390
▁белору	-4391
▁золота	-4392
ступление	-4393
▁командова	-4394
▁приходится	-4395
▁встречаются	-4396
сная	-4397
падает	-4398
▁особы	-4399
▁эволю	-4400
тью	-4401
фов	-4402
—20	-4403
▁яр	-4404
▁воло	-4405
▁новое	-4406
▁западе	-4407
▁путеше	-4408
скохозяй	-4409
▁зависит	-4410
▁управление	-4411
▁взаимодействия	-4412
▁ес	-4413
тков	-4414
▁дел	-4415
годно	-4416
▁семи	-4417
▁сена	-4418
▁чере	-4419
▁иностранных	-4420
др	-4421
▁тело	-4422
▁район	-4423
▁вообще	-4424
▁органы	-4425
▁швейца	-4426
ственную	-4427
▁научных	-4428
бю	-4429
бал	-4430
ётр	-4431
▁мае	-4432
▁бель	-4433
▁цвет	-4434
тности	-4435
▁самоу	-4436
▁земель	-4437
▁америки	-4438
▁предприятий	-4439
▁представители	-4440
ведён	-4441
▁окта	-4442
▁пото	-4443
метрии	-4444
шин	-4445
▁долл	-4446
▁пище	-4447
▁потен	-4448
▁довольно	-4449
▁сельскохозяй	-4450
▁происхождения	-4451
лым	-4452
ропе	-4453
ровки	-4454
техни	-4455
▁даёт	-4456
▁сухо	-4457
▁этни	-4458
▁исход	-4459
▁инициа	-4460
▁выборах	-4461
▁функциона	-4462
▁литературе	-4463
▁непосредственно	-4464
44	-4465
рк	-4466
▁)	-4467
▁всем	-4468
▁татар	-4469
▁создан	-4470
▁частиц	-4471
▁январе	-4472
▁гравита	-4473
▁районах	-4474
▁началась	-4475
▁проходит	-4476
▁скорости	-4477
▁частично	-4478
23	-4479
мби	-4480
исто	-4481
▁нам	-4482
▁стано	-4483
▁бесконе	-4484
▁дальнейшем	-4485
▁международный	-4486
▁индии	-4487
▁августе	-4488
▁отношение	-4489
▁применение	-4490
▁национальный	-4491
гро	-4492
сио	-4493
▁сви	-4494
вляются	-4495
▁ломоно	-4496
▁размер	-4497
▁смысле	-4498
▁физики	-4499
▁работал	-4500
▁употребля	-4501
▁происхождение	-4502
29	-4503
как	-4504
демо	-4505
жает	-4506
▁мыш	-4507
ллейбу	-4508
▁оружи	-4509
▁резко	-4510
▁сложи	-4511
▁методы	-4512
▁осадков	-4513
▁средней	-4514
▁действий	-4515
▁крупнейших	-4516
▁бур	-4517
▁венг	-4518
▁метрополи	-4519
▁множества	-4520
▁строительства	-4521
рабаты	-4522
▁кандида	-4523
▁пределах	-4524
▁сми	-4525
менные	-4526
▁выдви	-4527
▁престо	-4528
▁национальной	-4529
▁35	-4530
лень	-4531
няют	-4532
довой	-4533
▁каби	-4534
▁ислам	-4535
▁процесса	-4536
▁современного	-4537
хар	-4538
▁запо	-4539
▁прис	-4540
▁периоди	-4541
▁препода	-4542
om	-4543
▁фё	-4544
▁дире	-4545
▁больших	-4546
▁временем	-4547
пру	-4548
▁1999	-4549
▁мора	-4550
▁глуби	-4551
суа	-4552
▁зим	-4553
▁сср	-4554
▁каса	-4555
▁окон	-4556
▁попа	-4557
▁нефте	-4558
▁вычисле	-4559
▁получить	-4560
дио	-4561
щем	-4562
▁моду	-4563
▁угро	-4564
стях	-4565
ation	-4566
▁реши	-4567
▁любой	-4568
▁точно	-4569
емым	-4570
лизм	-4571
▁выя	-4572
прави	-4573
▁мала	-4574
▁корабля	-4575
▁получения	-4576
▁вследствие	-4577
▁большинства	-4578
эй	-4579
▁дми	-4580
▁реша	-4581
▁декабре	-4582
▁отношений	-4583
▁рыб	-4584
ющийся	-4585
▁самом	-4586
▁назнача	-4587
тического	-4588
▁половины	-4589
йским	-4590
▁фоне	-4591
▁веках	-4592
▁стреми	-4593
▁написал	-4594
▁планеты	-4595
▁известных	-4596
"».	-4597
кор	-4598
бера	-4599
изма	-4600
тони	-4601
элект	-4602
▁ключе	-4603
▁минима	-4604
▁открыт	-4605
▁конферен	-4606
▁цве	-4607
▁грам	-4608
▁будут	-4609
▁школа	-4610
▁троллейбу	-4611
▁противополо	-4612
»;	-4613
ен	-4614
тку	-4615
руса	-4616
▁пят	-4617
▁гран	-4618
▁поки	-4619
▁труд	-4620
▁измерения	-4621
▁сообщения	-4622
▁/	-4623
▁5,	-4624
вало	-4625
▁пётр	-4626
способ	-4627
▁книге	-4628
ложение	-4629
▁содержит	-4630
▁исключением	-4631
кри	-4632
груп	-4633
товой	-4634
▁мото	-4635
▁1980-	-4636
▁автома	-4637
▁голосо	-4638
▁четвёр	-4639
▁наличие	-4640
▁возраста	-4641
▁компания	-4642
▁передачи	-4643
▁советских	-4644
▁устанавли	-4645
▁председатель	-4646
нцев	-4647
жается	-4648
▁записи	-4649
▁интенси	-4650
97	-4651
ma	-4652
изм	-4653
сил	-4654
▁4,	-4655
евич	-4656
▁ира	-4657
▁моз	-4658
▁сын	-4659
▁1989	-4660
▁заседа	-4661
▁местных	-4662
▁перевод	-4663
▁известны	-4664
тери	-4665
▁ими	-4666
части	-4667
▁раза	-4668
▁твер	-4669
▁никогда	-4670
▁марте	-4671
▁населё	-4672
▁оппози	-4673
▁чемпиона	-4674
ьет	-4675
▁iv	-4676
горо	-4677
мбле	-4678
▁ами	-4679
▁криста	-4680
▁теперь	-4681
▁второго	-4682
▁историю	-4683
▁считают	-4684
▁организаций	-4685
▁пространстве	-4686
шему	-4687
▁оси	-4688
▁июле	-4689
▁путь	-4690
▁какой	-4691
▁равни	-4692
▁органов	-4693
▁искусство	-4694
▁калининград	-4695
▁полёт	-4696
▁входят	-4697
▁здания	-4698
▁студен	-4699
▁переписи	-4700
▁последний	-4701
▁национального	-4702
нович	-4703
▁спорт	-4704
льского	-4705
▁переиме	-4706
▁протоко	-4707
▁потенциа	-4708
▁окончательно	-4709
берг	-4710
вами	-4711
веща	-4712
ктов	-4713
▁пифа	-4714
▁руководством	-4715
нцы	-4716
твор	-4717
▁месяц	-4718
▁патри	-4719
▁сверх	-4720
▁автоном	-4721
▁октябре	-4722
сев	-4723
кана	-4724
телю	-4725
▁плат	-4726
▁тира	-4727
▁публика	-4728
ственности	-4729
▁бори	-4730
▁цели	-4731
▁демон	-4732
▁литературы	-4733
▁политической	-4734
▁преде	-4735
▁сыгра	-4736
▁вороне	-4737
▁текста	-4738
31	-4739
пси	-4740
охра	-4741
▁разделя	-4742
▁районов	-4743
▁опублико	-4744
▁остаётся	-4745
регистрирова	-4746
87	-4747
мён	-4748
нико	-4749
рной	-4750
ходе	-4751
▁план	-4752
▁выборы	-4753
▁данный	-4754
▁наличи	-4755
▁русские	-4756
▁ежегодно	-4757
▁утра	-4758
▁фрид	-4759
ровать	-4760
▁насле	-4761
станции	-4762
▁атмосф	-4763
▁веществ	-4764
гой	-4765
▁зоны	-4766
▁исче	-4767
▁книг	-4768
▁единиц	-4769
▁пассажир	-4770
98	-4771
▁1993	-4772
▁идеа	-4773
▁инфра	-4774
фикация	-4775
▁ярослав	-4776
▁государством	-4777
92	-4778
лета	-4779
▁бог	-4780
▁пове	-4781
▁пожа	-4782
▁посо	-4783
вшейся	-4784
▁графи	-4785
▁районы	-4786
▁тракта	-4787
▁принцип	-4788
зму	-4789
▁de	-4790
▁st	-4791
▁став	-4792
стской	-4793
▁дорог	-4794
▁завое	-4795
▁николай	-4796
▁программа	-4797
сипе	-4798
полне	-4799
▁газе	-4800
спомина	-4801
▁собира	-4802
▁показыва	-4803
рья	-4804
▁170	-4805
▁архе	-4806
▁преда	-4807
▁табли	-4808
▁короля	-4809
▁предше	-4810
▁спустя	-4811
▁единица	-4812
▁сторону	-4813
пом	-4814
рика	-4815
▁1919	-4816
▁жерт	-4817
▁заим	-4818
▁рубе	-4819
ставки	-4820
▁релье	-4821
лизация	-4822
▁испании	-4823
чо	-4824
▁300	-4825
кратно	-4826
▁глаго	-4827
▁семьи	-4828
ъя	-4829
▁(1	-4830
чёта	-4831
▁азо	-4832
вании	-4833
▁обосно	-4834
▁военной	-4835
нему	-4836
компа	-4837
▁роли	-4838
▁памяти	-4839
▁соотно	-4840
▁символи	-4841
▁интернет	-4842
▁основными	-4843
▁современные	-4844
and	-4845
реб	-4846
▁1-	-4847
▁квадра	-4848
▁матема	-4849
▁каждого	-4850
▁свободы	-4851
▁экспорт	-4852
▁остальные	-4853
▁содержание	-4854
йор	-4855
ряз	-4856
фер	-4857
лина	-4858
▁этно	-4859
▁княже	-4860
▁стары	-4861
▁составила	-4862
ing	-4863
стую	-4864
трия	-4865
стане	-4866
▁1995	-4867
▁точка	-4868
▁усили	-4869
▁минера	-4870
▁фундамента	-4871
гий	-4872
дови	-4873
вшими	-4874
горит	-4875
терна	-4876
товых	-4877
▁войну	-4878
▁театр	-4879
ственными	-4880
▁военного	-4881
▁концентра	-4882
72	-4883
вре	-4884
диа	-4885
щими	-4886
клопе	-4887
кульп	-4888
▁1920	-4889
▁отец	-4890
▁посла	-4891
▁объект	-4892
▁потеря	-4893
▁скульп	-4894
▁выборов	-4895
▁зарегистрирова	-4896
жил	-4897
▁концер	-4898
▁неизвест	-4899
65	-4900
av	-4901
ig	-4902
нгви	-4903
логов	-4904
▁полез	-4905
▁филип	-4906
▁считать	-4907
▁начинается	-4908
▁большинстве	-4909
▁многочисленные	-4910
▁гло	-4911
▁опа	-4912
▁арти	-4913
ностей	-4914
▁менде	-4915
▁стаби	-4916
▁учили	-4917
▁началь	-4918
▁высокой	-4919
▁губернии	-4920
зой	-4921
▁иу	-4922
пуль	-4923
▁кпсс	-4924
▁лиде	-4925
▁обсу	-4926
▁одина	-4927
▁своими	-4928
▁структура	-4929
▁осуществляется	-4930
коми	-4931
▁коммер	-4932
▁страну	-4933
▁вычисли	-4934
▁некоторо	-4935
логические	-4936
▁сочинения	-4937
▁кан	-4938
▁банк	-4939
▁крем	-4940
▁метро	-4941
▁рассе	-4942
▁алексе	-4943
▁обладает	-4944
▁общество	-4945
▁сопровожда	-4946
рих	-4947
▁апо	-4948
▁убий	-4949
▁форм	-4950
▁общее	-4951
▁эпоху	-4952
▁изгото	-4953
нциклопе	-4954
▁интеллек	-4955
▁%)	-4956
това	-4957
магни	-4958
новой	-4959
▁леса	-4960
▁улуч	-4961
▁оценка	-4962
▁представляют	-4963
▁титу	-4964
▁роста	-4965
▁король	-4966
▁атмосфе	-4967
▁магистра	-4968
▁предложил	-4969
▁международной	-4970
▁книга	-4971
▁монго	-4972
▁сибир	-4973
водятся	-4974
▁основу	-4975
▁вопросы	-4976
▁момента	-4977
▁известные	-4978
▁политических	-4979
op	-4980
▁τ	-4981
тыми	-4982
▁грузо	-4983
востоке	-4984
ствовала	-4985
пя	-4986
ус	-4987
эк	-4988
▁xii	-4989
▁кав	-4990
▁борьбы	-4991
▁воскре	-4992
▁действие	-4993
▁индивиду	-4994
▁компьюте	-4995
▁результаты	-4996
55	-4997
дума	-4998
▁сня	-4999
▁желе	-5000
▁соли	-5001
▁сфере	-5002
▁форми	-5003
▁натура	-5004
▁деление	-5005
▁трамвай	-5006
▁определяется	-5007
нёс	-5008
▁%).	-5009
▁проли	-5010
▁фабри	-5011
▁апреле	-5012
▁времён	-5013
▁учения	-5014
▁института	-5015
77	-5016
йло	-5017
рины	-5018
▁идей	-5019
▁изве	-5020
▁опро	-5021
▁янта	-5022
тельном	-5023
экономи	-5024
▁отдельные	-5025
▁положения	-5026
▁представлены	-5027
ent	-5028
шет	-5029
▁схо	-5030
▁спорта	-5031
41	-5032
шек	-5033
▁хол	-5034
средо	-5035
тился	-5036
▁доби	-5037
эн	-5038
▁анд	-5039
▁сих	-5040
▁ука	-5041
▁владе	-5042
▁вокза	-5043
▁горба	-5044
▁домаш	-5045
▁избра	-5046
▁псков	-5047
▁берегу	-5048
▁сентябре	-5049
▁учреждения	-5050
▁существенно	-5051
хро	-5052
вода	-5053
▁заг	-5054
▁вода	-5055
▁рекон	-5056
▁оригина	-5057
▁проблем	-5058
3.	-5059
68	-5060
лер	-5061
▁эй	-5062
нике	-5063
сное	-5064
▁каз	-5065
▁ман	-5066
вился	-5067
совет	-5068
▁1996	-5069
▁гимна	-5070
▁нашей	-5071
стройки	-5072
▁бассей	-5073
▁заболе	-5074
▁разные	-5075
▁большим	-5076
▁городом	-5077
тельностью	-5078
▁отношению	-5079
▁разнообраз	-5080
▁организация	-5081
кке	-5082
▁секу	-5083
▁1970-	-5084
▁транс	-5085
▁испыта	-5086
▁рекомен	-5087
▁референ	-5088
▁создании	-5089
кл	-5090
тила	-5091
▁ощу	-5092
вокуп	-5093
▁проме	-5094
▁собор	-5095
▁вторая	-5096
91	-5097
его	-5098
чёр	-5099
▁неред	-5100
▁подви	-5101
▁шести	-5102
▁являлся	-5103
▁отсутствие	-5104
ису	-5105
ново	-5106
▁молда	-5107
▁функций	-5108
▁комплекс	-5109
▁контроль	-5110
▁менделее	-5111
▁праздники	-5112
64	-5113
пии	-5114
▁вя	-5115
рить	-5116
▁вар	-5117
▁беспо	-5118
▁такая	-5119
▁тысячи	-5120
▁месяцев	-5121
▁природе	-5122
▁международного	-5123
цах	-5124
ьев	-5125
▁45	-5126
▁наслед	-5127
▁словам	-5128
▁губерна	-5129
▁причиной	-5130
▁известный	-5131
ал	-5132
зен	-5133
визи	-5134
▁карл	-5135
▁типи	-5136
▁хреб	-5137
▁сибири	-5138
▁учёных	-5139
ствовало	-5140
▁израиль	-5141
▁святого	-5142
▁велосипе	-5143
▁влиянием	-5144
▁растений	-5145
▁северного	-5146
▁гражданской	-5147
▁обозначения	-5148
88	-5149
тео	-5150
—17	-5151
тена	-5152
денти	-5153
▁васи	-5154
▁семья	-5155
▁сигна	-5156
ционная	-5157
▁отличается	-5158
_1	-5159
»".	-5160
стных	-5161
▁1994	-5162
▁зави	-5163
▁иска	-5164
▁брази	-5165
▁землю	-5166
тивного	-5167
▁отвеча	-5168
▁крестьян	-5169
▁рождения	-5170
▁новосибир	-5171
»:	-5172
гно	-5173
▁2-	-5174
▁ата	-5175
▁песни	-5176
▁холод	-5177
▁выдели	-5178
▁солдат	-5179
▁алгорит	-5180
▁кол	-5181
▁осу	-5182
новки	-5183
▁удоб	-5184
▁пирами	-5185
▁инвести	-5186
▁обороны	-5187
▁реформы	-5188
▁телевиде	-5189
ливо	-5190
▁ази	-5191
новых	-5192
▁вики	-5193
▁гиль	-5194
▁любы	-5195
▁кален	-5196
▁службы	-5197
▁военные	-5198
▁процессе	-5199
▁финляндии	-5200
▁изображения	-5201
▁принадлежит	-5202
нса	-5203
▁вьет	-5204
▁румы	-5205
▁посёл	-5206
▁номина	-5207
▁основан	-5208
▁условия	-5209
▁территориа	-5210
́ль	-5211
нье	-5212
▁геор	-5213
▁текст	-5214
рование	-5215
▁записа	-5216
▁ноябре	-5217
▁большие	-5218
▁предназна	-5219
вычай	-5220
ципли	-5221
▁горы	-5222
▁наука	-5223
▁члены	-5224
▁африки	-5225
▁господ	-5226
▁крайне	-5227
▁замести	-5228
▁совокуп	-5229
▁назначен	-5230
▁непрерыв	-5231
▁полуостро	-5232
▁применяется	-5233
они	-5234
▁сом	-5235
▁специ	-5236
мулирова	-5237
▁московского	-5238
▁отечественной	-5239
жено	-5240
лено	-5241
▁ада	-5242
▁идёт	-5243
органи	-5244
▁андре	-5245
▁легко	-5246
▁топли	-5247
▁сосредо	-5248
xv	-5249
▁90	-5250
неско	-5251
нтами	-5252
▁1998	-5253
▁собо	-5254
▁ничего	-5255
▁учёные	-5256
▁древних	-5257
▁позиции	-5258
▁восточно	-5259
▁железной	-5260
▁островах	-5261
▁середины	-5262
▁вес	-5263
▁попытки	-5264
▁обеспечения	-5265
ct	-5266
▁дю	-5267
гент	-5268
▁зача	-5269
образи	-5270
▁вклад	-5271
▁чисто	-5272
▁горизо	-5273
▁здание	-5274
▁морской	-5275
▁проекта	-5276
▁создана	-5277
▁устойчи	-5278
▁квантовой	-5279
▁советский	-5280
▁млекопитающих	-5281
▁жили	-5282
▁здра	-5283
честве	-5284
нования	-5285
▁явления	-5286
▁воспринима	-5287
82	-5288
ag	-5289
▁опи	-5290
▁сама	-5291
▁1960-	-5292
▁четвер	-5293
▁достоев	-5294
▁сведения	-5295
▁торговли	-5296
▁человеком	-5297
▁внутренних	-5298
▁устройства	-5299
66	-5300
▁масс	-5301
▁цице	-5302
ванием	-5303
▁нынеш	-5304
▁колеба	-5305
▁музыки	-5306
▁возрасте	-5307
▁новгород	-5308
▁космонавтов	-5309
▁направлении	-5310
▁расположена	-5311
валь	-5312
▁сна	-5313
тивно	-5314
▁меро	-5315
▁обши	-5316
▁охва	-5317
▁повы	-5318
▁фило	-5319
▁непри	-5320
▁европей	-5321
▁объекты	-5322
▁считает	-5323
▁изучения	-5324
▁действуют	-5325
▁основании	-5326
ково	-5327
▁мани	-5328
▁флаг	-5329
▁увели	-5330
▁интерес	-5331
▁ограниче	-5332
▁рассмотре	-5333
▁чрезвычай	-5334
▁парламента	-5335
84	-5336
вив	-5337
▁клад	-5338
работа	-5339
▁снова	-5340
▁вступи	-5341
▁теорию	-5342
▁ассоциа	-5343
▁биография	-5344
▁мусульман	-5345
▁тка	-5346
ствий	-5347
▁речь	-5348
ждению	-5349
▁выбор	-5350
▁голов	-5351
▁плани	-5352
▁законы	-5353
▁австралии	-5354
▁изначально	-5355
сим	-5356
зона	-5357
▁юпи	-5358
около	-5359
▁(200	-5360
▁доме	-5361
▁наиме	-5362
▁нарко	-5363
▁семье	-5364
▁версия	-5365
▁орбита	-5366
▁страте	-5367
▁телефо	-5368
▁работает	-5369
▁встречается	-5370
="7	-5371
рико	-5372
▁чёт	-5373
слова	-5374
▁базе	-5375
▁иису	-5376
▁импо	-5377
▁опла	-5378
▁эпохи	-5379
▁диплома	-5380
▁приблизи	-5381
▁должности	-5382
▁провинции	-5383
▁невозможно	-5384
▁традиционно	-5385
мате	-5386
▁тип	-5387
града	-5388
▁повто	-5389
▁цвета	-5390
▁молодё	-5391
▁своему	-5392
▁связаны	-5393
▁народных	-5394
62	-5395
89	-5396
жена	-5397
лита	-5398
тными	-5399
▁алге	-5400
▁выте	-5401
▁кине	-5402
▁нель	-5403
▁корот	-5404
▁заявил	-5405
▁отличи	-5406
▁первом	-5407
▁ограничи	-5408
▁территорий	-5409
эс	-5410
рма	-5411
▁бру	-5412
▁дре	-5413
▁1997	-5414
▁кано	-5415
▁цело	-5416
▁среде	-5417
▁другом	-5418
▁времена	-5419
▁политические	-5420
рип	-5421
▁игры	-5422
▁иркут	-5423
▁психи	-5424
▁социо	-5425
▁греции	-5426
▁иденти	-5427
петербург	-5428
▁применения	-5429
▁реализации	-5430
▁la	-5431
тран	-5432
▁150	-5433
▁запу	-5434
▁июне	-5435
▁рожда	-5436
▁допуска	-5437
▁произведений	-5438
▁соответствует	-5439
_5	-5440
одо	-5441
▁нес	-5442
▁цен	-5443
▁маль	-5444
▁отца	-5445
▁судо	-5446
▁подра	-5447
▁самое	-5448
▁конгре	-5449
▁монархи	-5450
▁интенсив	-5451
▁проблема	-5452
▁странами	-5453
нуть	-5454
продук	-5455
▁индуст	-5456
▁горбачё	-5457
▁мероприя	-5458
ie	-5459
▁оса	-5460
совой	-5461
▁джон	-5462
▁парк	-5463
▁супер	-5464
▁мужчин	-5465
▁единицы	-5466
93	-5467
ws	-5468
зок	-5469
зор	-5470
фме	-5471
нтро	-5472
никам	-5473
▁ваго	-5474
кторов	-5475
▁ликви	-5476
▁слабо	-5477
▁плутар	-5478
▁промежу	-5479
▁рациона	-5480
▁феврале	-5481
▁описание	-5482
67	-5483
нул	-5484
▁гене	-5485
▁душу	-5486
▁избе	-5487
▁неда	-5488
вшаяся	-5489
▁главы	-5490
▁фести	-5491
▁шесть	-5492
▁водоро	-5493
▁скепти	-5494
▁самоупра	-5495
▁английский	-5496
▁населением	-5497
менте	-5498
▁деревя	-5499
▁солнце	-5500
▁необходимости	-5501
lo	-5502
▁гото	-5503
▁парт	-5504
▁школ	-5505
▁каждой	-5506
▁факуль	-5507
▁нередко	-5508
▁аэропорт	-5509
▁известен	-5510
-1	-5511
шев	-5512
▁лиц	-5513
▁оба	-5514
▁1944	-5515
▁линия	-5516
▁посту	-5517
▁устра	-5518
▁подверга	-5519
▁появился	-5520
▁инфраструк	-5521
▁российских	-5522
.0	-5523
ллю	-5524
нне	-5525
▁вир	-5526
▁сай	-5527
амери	-5528
кового	-5529
▁заста	-5530
▁прида	-5531
▁терро	-5532
▁энерге	-5533
▁основой	-5534
▁первонача	-5535
▁сосредото	-5536
▁исключительно	-5537
зья	-5538
мый	-5539
тую	-5540
щен	-5541
бами	-5542
шком	-5543
▁длина	-5544
▁лично	-5545
▁умере	-5546
▁анализа	-5547
▁сопроти	-5548
рил	-5549
тай	-5550
общи	-5551
стром	-5552
шению	-5553
▁князя	-5554
▁незна	-5555
▁здраво	-5556
les	-5557
береж	-5558
▁скан	-5559
▁подня	-5560
▁компоне	-5561
▁октябрь	-5562
▁заимствова	-5563
▁разработки	-5564
▁уи	-5565
рский	-5566
севдо	-5567
европе	-5568
▁предо	-5569
▁именем	-5570
▁внешней	-5571
69	-5572
ак	-5573
тья	-5574
▁(5	-5575
▁wi	-5576
▁дне	-5577
тацию	-5578
▁мигра	-5579
▁найде	-5580
▁округ	-5581
▁мнение	-5582
▁соверша	-5583
исследова	-5584
▁основания	-5585
ix	-5586
пят	-5587
▁глава	-5588
▁равен	-5589
▁отобра	-5590
▁получе	-5591
▁структуры	-5592
▁этимология	-5593
▁архитектуры	-5594
ос	-5595
фей	-5596
стной	-5597
▁нему	-5598
▁англии	-5599
▁индивидуа	-5600
▁экономического	-5601
63	-5602
83	-5603
для	-5604
▁гли	-5605
▁живу	-5606
▁паде	-5607
▁таба	-5608
▁судов	-5609
▁фронта	-5610
▁устройство	-5611
▁z	-5612
▁бла	-5613
▁1940	-5614
▁несо	-5615
▁звёзд	-5616
▁фанта	-5617
▁пригла	-5618
▁секрета	-5619
▁побережья	-5620
▁энциклопе	-5621
94	-5622
жем	-5623
▁3-	-5624
▁ще	-5625
восток	-5626
▁техники	-5627
ционирова	-5628
▁окончания	-5629
жат	-5630
ёра	-5631
arch	-5632
берт	-5633
щено	-5634
▁xiv	-5635
▁цио	-5636
▁боги	-5637
▁идея	-5638
▁напа	-5639
▁ордена	-5640
▁главный	-5641
▁научной	-5642
▁построен	-5643
74	-5644
пиа	-5645
▁учиты	-5646
▁консер	-5647
▁николая	-5648
▁подгото	-5649
▁религия	-5650
▁здравоохра	-5651
▁математики	-5652
эф	-5653
кле	-5654
нья	-5655
▁be	-5656
▁гви	-5657
▁герцо	-5658
▁продо	-5659
▁режим	-5660
▁тропи	-5661
▁распоря	-5662
▁развитии	-5663
▁ант	-5664
▁эмо	-5665
▁двой	-5666
▁души	-5667
▁фраг	-5668
▁здоров	-5669
▁инженер	-5670
▁крепости	-5671
▁пассажиров	-5672
▁экономической	-5673
▁рези	-5674
▁южно	-5675
▁жизне	-5676
▁уника	-5677
▁местах	-5678
▁ростов	-5679
▁швеции	-5680
▁реформа	-5681
▁увеличе	-5682
▁источников	-5683
▁совершенно	-5684
дыха	-5685
пред	-5686
систе	-5687
▁гали	-5688
▁сход	-5689
▁буквы	-5690
▁вошли	-5691
▁конта	-5692
▁пусты	-5693
▁перевоз	-5694
▁сократа	-5695
▁наблюдения	-5696
уэ	-5697
бин	-5698
▁1960	-5699
▁золото	-5700
▁африкан	-5701
▁влияния	-5702
▁говорит	-5703
▁красной	-5704
▁построи	-5705
▁согласи	-5706
▁дисципли	-5707
▁краснояр	-5708
▁появилась	-5709
▁vi	-5710
рово	-5711
хими	-5712
▁брод	-5713
▁гомо	-5714
▁деле	-5715
▁войсками	-5716
▁европейской	-5717
▁посредством	-5718
▁термодинами	-5719
▁баш	-5720
▁хле	-5721
▁аргу	-5722
▁музея	-5723
▁синто	-5724
▁нельзя	-5725
▁интегра	-5726
▁уровнем	-5727
▁принципа	-5728
▁плотность	-5729
▁единственным	-5730
▁оки	-5731
▁ряде	-5732
▁тоже	-5733
▁аресто	-5734
▁президи	-5735
ad	-5736
мин	-5737
влял	-5738
граф	-5739
собы	-5740
вляют	-5741
раздо	-5742
▁инде	-5743
▁обли	-5744
емости	-5745
▁карто	-5746
▁минут	-5747
▁пишет	-5748
▁москву	-5749
▁повыше	-5750
▁тысяче	-5751
▁частицы	-5752
▁древнегре	-5753
▁находился	-5754
▁совместно	-5755
▁подготовки	-5756
зды	-5757
▁75	-5758
▁ст	-5759
кали	-5760
кисло	-5761
рядок	-5762
▁xiii	-5763
▁визан	-5764
▁задач	-5765
▁новую	-5766
▁делает	-5767
▁авторов	-5768
▁объединё	-5769
▁системой	-5770
▁распространены	-5771
se	-5772
эль	-5773
част	-5774
печат	-5775
▁царя	-5776
▁корре	-5777
▁данной	-5778
▁либера	-5779
▁мастер	-5780
▁столица	-5781
▁циолков	-5782
▁европейских	-5783
мое	-5784
ноко	-5785
форм	-5786
▁сне	-5787
▁сущ	-5788
метра	-5789
▁анализ	-5790
▁будучи	-5791
▁египет	-5792
▁индоне	-5793
▁сделать	-5794
▁продукции	-5795
▁религиозных	-5796
79	-5797
пора	-5798
▁вои	-5799
▁бата	-5800
▁гага	-5801
▁кафе	-5802
▁серве	-5803
▁банков	-5804
▁иванов	-5805
▁память	-5806
▁силами	-5807
▁вариант	-5808
▁гораздо	-5809
▁относительности	-5810
нику	-5811
тную	-5812
▁очи	-5813
▁дета	-5814
▁засе	-5815
▁итоге	-5816
▁арифме	-5817
▁помощь	-5818
▁тенден	-5819
▁энерги	-5820
▁сельского	-5821
ft	-5822
▁гос	-5823
ковым	-5824
▁лесо	-5825
▁конец	-5826
▁нужно	-5827
▁ракет	-5828
▁машины	-5829
▁методов	-5830
▁германия	-5831
▁комитета	-5832
▁миллиона	-5833
▁развитию	-5834
▁соединения	-5835
мок	-5836
▁ум	-5837
▁дал	-5838
▁зелё	-5839
▁невы	-5840
▁сына	-5841
тивный	-5842
▁поляр	-5843
▁пребы	-5844
▁победы	-5845
▁создал	-5846
▁культуре	-5847
▁перегово	-5848
▁солнечной	-5849
▁вооружённые	-5850
сл	-5851
▁мэ	-5852
сным	-5853
▁ред	-5854
▁тел	-5855
космо	-5856
▁заря	-5857
влетво	-5858
ктором	-5859
▁высказыва	-5860
▁хозяйство	-5861
▁архитектур	-5862
нр	-5863
бия	-5864
кин	-5865
▁брю	-5866
▁узбе	-5867
сперан	-5868
▁поезд	-5869
▁статье	-5870
▁началом	-5871
▁местного	-5872
▁философа	-5873
▁следующим	-5874
▁неоднократно	-5875
скоп	-5876
▁(15	-5877
▁думы	-5878
▁подъ	-5879
▁трудо	-5880
▁подроб	-5881
▁работать	-5882
▁соглашение	-5883
▁сохранились	-5884
▁y	-5885
май	-5886
▁хе	-5887
ницу	-5888
▁закре	-5889
▁модер	-5890
▁юриди	-5891
государ	-5892
▁важным	-5893
▁российского	-5894
шить	-5895
▁атла	-5896
▁валют	-5897
▁малень	-5898
▁женщины	-5899
▁реакции	-5900
▁римской	-5901
▁занимают	-5902
▁зеландии	-5903
▁собрание	-5904
гие	-5905
кур	-5906
▁),	-5907
▁меда	-5908
▁укреп	-5909
▁зданий	-5910
▁кладби	-5911
▁законов	-5912
▁средние	-5913
ux	-5914
рест	-5915
▁преж	-5916
▁бизне	-5917
▁другу	-5918
▁компи	-5919
▁орган	-5920
▁атомов	-5921
▁заключё	-5922
▁создать	-5923
▁основная	-5924
▁планирова	-5925
▁составляла	-5926
дли	-5927
ждая	-5928
▁бума	-5929
▁курс	-5930
филосо	-5931
▁псевдо	-5932
▁литература	-5933
)"	-5934
гс	-5935
лию	-5936
тивы	-5937
▁бен	-5938
▁герб	-5939
▁девя	-5940
▁аксио	-5941
▁китая	-5942
▁жители	-5943
▁страда	-5944
▁главной	-5945
▁израиля	-5946
▁равнове	-5947
оке	-5948
▁эн	-5949
нета	-5950
▁уль	-5951
нился	-5952
▁реке	-5953
▁стоит	-5954
вшегося	-5955
▁армении	-5956
▁совершил	-5957
▁предположи	-5958
▁наблюдается	-5959
▁государственная	-5960
жской	-5961
▁мари	-5962
демокра	-5963
▁началу	-5964
▁подзем	-5965
▁подход	-5966
▁эстонии	-5967
▁поддержку	-5968
▁сообщение	-5969
▁национальных	-5970
▁председателя	-5971
лег	-5972
ссу	-5973
▁4-	-5974
метр	-5975
рубе	-5976
тике	-5977
шена	-5978
▁бом	-5979
▁1939	-5980
▁копе	-5981
▁вселе	-5982
▁вавило	-5983
▁называли	-5984
▁поселения	-5985
ph	-5986
мони	-5987
мыми	-5988
▁деля	-5989
▁дума	-5990
летний	-5991
▁парти	-5992
▁флота	-5993
▁лингви	-5994
▁востока	-5995
▁регионе	-5996
▁эсперан	-5997
▁альтерна	-5998
▁конституция	-5999
бах	-6000
ехал	-6001
знец	-6002
няли	-6003
▁1943	-6004
▁жёст	-6005
▁грамо	-6006
▁найти	-6007
▁редко	-6008
▁таджи	-6009
▁домини	-6010
▁призва	-6011
▁распада	-6012
▁христиа	-6013
▁екатерин	-6014
логической	-6015
▁федерального	-6016
мум	-6017
фом	-6018
▁...	-6019
жский	-6020
нести	-6021
▁цель	-6022
▁дании	-6023
▁общий	-6024
▁главой	-6025
▁задачи	-6026
▁универса	-6027
▁французский	-6028
▁re	-6029
▁кэ	-6030
веда	-6031
гран	-6032
зами	-6033
пала	-6034
стых	-6035
▁веру	-6036
▁приё	-6037
▁ядра	-6038
няться	-6039
оборот	-6040
щаются	-6041
▁архипе	-6042
▁вполне	-6043
▁знания	-6044
▁ископа	-6045
▁процессов	-6046
▁связанные	-6047
▁вооружённых	-6048
▁предусматри	-6049
▁государственные	-6050
хан	-6051
вной	-6052
вшую	-6053
кому	-6054
ляция	-6055
▁река	-6056
▁эсте	-6057
щением	-6058
▁князь	-6059
▁принят	-6060
▁западно	-6061
▁приписы	-6062
▁программе	-6063
▁предпринима	-6064
▁исследователи	-6065
▁исследователь	-6066
▁общественного	-6067
":	-6068
лём	-6069
чит	-6070
купи	-6071
стые	-6072
тном	-6073
▁шах	-6074
inter	-6075
▁дмитри	-6076
▁комбина	-6077
тическими	-6078
▁включают	-6079
▁писатель	-6080
▁процессо	-6081
▁средизем	-6082
▁достигает	-6083
юр	-6084
▁ель	-6085
▁глоба	-6086
▁лётчи	-6087
▁преды	-6088
▁загряз	-6089
▁подвод	-6090
▁порядок	-6091
▁работают	-6092
73	-6093
▁65	-6094
—200	-6095
ваний	-6096
долго	-6097
▁асса	-6098
▁моби	-6099
▁рису	-6100
▁тяже	-6101
▁выбра	-6102
▁зимой	-6103
▁насто	-6104
▁погло	-6105
▁москва	-6106
▁протеста	-6107
▁поведение	-6108
▁философия	-6109
▁u	-6110
лая	-6111
лога	-6112
делия	-6113
▁паль	-6114
ландия	-6115
тивная	-6116
▁кампа	-6117
▁комитет	-6118
▁россией	-6119
▁слишком	-6120
▁созданы	-6121
▁немецкий	-6122
▁ани	-6123
низма	-6124
▁1988	-6125
▁зара	-6126
▁лица	-6127
▁антар	-6128
▁пропа	-6129
▁разби	-6130
▁преступ	-6131
▁соединё	-6132
▁категории	-6133
▁способность	-6134
)|	-6135
▁щи	-6136
▁тво	-6137
шений	-6138
▁вось	-6139
▁годом	-6140
▁стрем	-6141
▁цифро	-6142
▁выхода	-6143
▁свойств	-6144
▁следующий	-6145
mp	-6146
нча	-6147
вери	-6148
днев	-6149
ньше	-6150
сток	-6151
▁кот	-6152
служи	-6153
канской	-6154
▁абстра	-6155
▁севера	-6156
▁серебря	-6157
▁случаев	-6158
▁сталина	-6159
▁зачастую	-6160
▁связанных	-6161
▁значительное	-6162
▁формирования	-6163
▁использованием	-6164
ент	-6165
нём	-6166
▁мне	-6167
меров	-6168
▁мать	-6169
▁нега	-6170
▁исчез	-6171
▁продви	-6172
▁расска	-6173
▁кислоты	-6174
▁местные	-6175
▁незначи	-6176
▁городских	-6177
da	-6178
змы	-6179
тье	-6180
шении	-6181
▁1975	-6182
▁спро	-6183
▁берли	-6184
▁обусло	-6185
▁привели	-6186
▁привлека	-6187
▁классической	-6188
▁распространения	-6189
81	-6190
тс	-6191
вол	-6192
▁32	-6193
user	-6194
змов	-6195
▁xxi	-6196
граде	-6197
парта	-6198
ходом	-6199
▁веща	-6200
западе	-6201
▁залива	-6202
▁похоро	-6203
▁радика	-6204
▁функция	-6205
▁республике	-6206
▁социальной	-6207
нял	-6208
▁тё	-6209
▁джо	-6210
▁1946	-6211
▁линий	-6212
▁африке	-6213
▁польши	-6214
▁посеща	-6215
▁претен	-6216
▁переста	-6217
▁некоторое	-6218
▁достижения	-6219
▁проведения	-6220
▁административно	-6221
61	-6222
»"	-6223
кер	-6224
▁un	-6225
дных	-6226
миро	-6227
▁пав	-6228
стики	-6229
▁дыха	-6230
▁ритуа	-6231
▁услуг	-6232
террито	-6233
▁нейтра	-6234
▁окончил	-6235
▁страной	-6236
▁украине	-6237
▁константи	-6238
▁расстояние	-6239
▁правительством	-6240
ир	-6241
рай	-6242
мыка	-6243
орда	-6244
близи	-6245
▁обре	-6246
▁приш	-6247
▁турк	-6248
жского	-6249
сторон	-6250
▁вулка	-6251
▁класс	-6252
▁птицы	-6253
▁анархи	-6254
▁письма	-6255
▁америке	-6256
▁голосов	-6257
▁объекта	-6258
▁раздели	-6259
бок	-6260
зре	-6261
кка	-6262
▁кё	-6263
▁юг	-6264
стям	-6265
▁дат	-6266
▁епи	-6267
водят	-6268
тение	-6269
▁лока	-6270
прочем	-6271
▁бо́ль	-6272
▁числу	-6273
▁письмо	-6274
▁данного	-6275
▁наконец	-6276
▁платона	-6277
▁экипажа	-6278
▁последнее	-6279
бии	-6280
дне	-6281
сии	-6282
квар	-6283
ирова	-6284
▁1979	-6285
▁порта	-6286
▁слове	-6287
▁стади	-6288
▁импуль	-6289
▁ошибке	-6290
▁победи	-6291
▁строго	-6292
ственность	-6293
▁крупнейший	-6294
▁протяжённость	-6295
alk	-6296
зоб	-6297
▁алю	-6298
▁гам	-6299
номор	-6300
▁пило	-6301
▁сино	-6302
вающей	-6303
▁имела	-6304
▁леген	-6305
▁столицы	-6306
▁качества	-6307
▁регионов	-6308
▁собрания	-6309
▁руководство	-6310
▁1905	-6311
▁1942	-6312
▁1961	-6313
▁лука	-6314
▁млад	-6315
▁отре	-6316
ведены	-6317
▁всеми	-6318
▁гаран	-6319
▁посад	-6320
▁ближай	-6321
▁группу	-6322
▁режисс	-6323
▁присвое	-6324
▁связана	-6325
▁памятные	-6326
рее	-6327
вина	-6328
фран	-6329
▁1970	-6330
▁края	-6331
▁дворя	-6332
▁неуда	-6333
▁второе	-6334
▁мотоци	-6335
▁обстоя	-6336
▁прошло	-6337
▁порядке	-6338
▁высокого	-6339
▁университете	-6340
5"	-6341
qu	-6342
био	-6343
шко	-6344
зовы	-6345
ровка	-6346
▁бази	-6347
▁зоне	-6348
▁меры	-6349
шением	-6350
▁конфе	-6351
▁распа	-6352
тическое	-6353
▁величины	-6354
▁астрономи	-6355
▁требования	-6356
▁министерства	-6357
++	-6358
мс	-6359
дых	-6360
нями	-6361
▁гип	-6362
▁жид	-6363
▁луи	-6364
▁реб	-6365
ковая	-6366
логию	-6367
▁диску	-6368
▁прогре	-6369
▁условий	-6370
▁нидерлан	-6371
▁открытия	-6372
▁практике	-6373
пр	-6374
жал	-6375
▁кгб	-6376
▁доче	-6377
▁иван	-6378
▁пору	-6379
▁суды	-6380
▁фоль	-6381
фферен	-6382
▁буква	-6383
▁елиза	-6384
▁карти	-6385
▁погиб	-6386
водство	-6387
низации	-6388
▁борьбе	-6389
▁защиты	-6390
▁оккупа	-6391
▁пласти	-6392
▁раньше	-6393
▁учёный	-6394
▁говорят	-6395
▁справед	-6396
▁достигну	-6397
▁уравнения	-6398
,4	-6399
▁зу	-6400
▁коали	-6401
▁хроно	-6402
▁газеты	-6403
▁пропор	-6404
▁высказа	-6405
фиксирова	-6406
▁источником	-6407
▁коммунисти	-6408
▁исторических	-6409
71	-6410
вь	-6411
вки	-6412
▁of	-6413
льфа	-6414
низм	-6415
филь	-6416
мести	-6417
▁1980	-6418
▁анто	-6419
▁расс	-6420
▁машино	-6421
▁изменение	-6422
▁называются	-6423
▁последнего	-6424
▁значительной	-6425
▁представлена	-6426
yth	-6427
▁мю	-6428
лыпи	-6429
рена	-6430
▁фай	-6431
▁воде	-6432
▁еван	-6433
▁резер	-6434
ждением	-6435
▁михаил	-6436
▁русско	-6437
▁описания	-6438
шены	-6439
▁пье	-6440
спект	-6441
▁1922	-6442
эффици	-6443
▁стиле	-6444
ступает	-6445
▁берега	-6446
▁достиг	-6447
▁упразд	-6448
▁главных	-6449
▁империя	-6450
▁средний	-6451
▁центров	-6452
▁экспедиции	-6453
бан	-6454
пел	-6455
сль	-6456
веду	-6457
дент	-6458
мета	-6459
▁нер	-6460
▁схе	-6461
жными	-6462
ровая	-6463
▁амми	-6464
▁неве	-6465
▁храм	-6466
валент	-6467
шается	-6468
▁флага	-6469
▁династии	-6470
▁изучение	-6471
▁памятник	-6472
▁получают	-6473
▁излучения	-6474
▁результат	-6475
▁специально	-6476
▁зафиксирова	-6477
▁сформулирова	-6478
▁взаимодействие	-6479
рик	-6480
роа	-6481
цизм	-6482
▁(16	-6483
вятся	-6484
▁гвар	-6485
▁узна	-6486
▁диапа	-6487
▁кошки	-6488
▁настрое	-6489
▁столицей	-6490
эта	-6491
ницей	-6492
▁2023	-6493
нтакси	-6494
против	-6495
▁1930-	-6496
▁суток	-6497
▁задача	-6498
▁премии	-6499
▁степень	-6500
▁явлений	-6501
▁обществе	-6502
▁московской	-6503
▁социальных	-6504
▁располагается	-6505
]].	-6506
сения	-6507
тизма	-6508
▁1964	-6509
▁входя	-6510
▁книгу	-6511
нование	-6512
▁беспла	-6513
▁впрочем	-6514
▁иммигра	-6515
▁договора	-6516
▁которыми	-6517
▁последних	-6518
▁превышает	-6519
▁определить	-6520
▁утверждает	-6521
оп	-6522
="4	-6523
лями	-6524
▁жена	-6525
▁иоан	-6526
общить	-6527
▁путин	-6528
▁улицы	-6529
ционное	-6530
▁вырази	-6531
▁затруд	-6532
▁итогам	-6533
▁прибре	-6534
▁старей	-6535
▁правила	-6536
▁разнови	-6537
▁вильгель	-6538
▁раствори	-6539
кте	-6540
▁ix	-6541
▁ph	-6542
осно	-6543
▁уто	-6544
▁шка	-6545
▁пого	-6546
провод	-6547
▁латин	-6548
▁макро	-6549
события	-6550
▁осенью	-6551
▁рейтин	-6552
▁бывшего	-6553
▁издания	-6554
▁предыду	-6555
▁стороне	-6556
восточной	-6557
▁использовались	-6558
ам	-6559
ври	-6560
ваку	-6561
груз	-6562
цвет	-6563
▁мяг	-6564
▁одо	-6565
▁уско	-6566
archiv	-6567
▁пенси	-6568
▁сергей	-6569
▁политику	-6570
▁пределами	-6571
▁сочинений	-6572
▁использует	-6573
▁учреждений	-6574
▁приблизительно	-6575
нку	-6576
види	-6577
▁зло	-6578
▁код	-6579
▁уме	-6580
▁эры	-6581
влять	-6582
крови	-6583
щиеся	-6584
▁брон	-6585
▁мост	-6586
▁вышла	-6587
▁путей	-6588
▁сувере	-6589
▁взгляды	-6590
▁относят	-6591
▁механики	-6592
▁появление	-6593
▁различными	-6594
▁европейского	-6595
▁представление	-6596
▁использоваться	-6597
реа	-6598
риф	-6599
▁дже	-6600
▁безу	-6601
менный	-6602
рского	-6603
торами	-6604
▁набор	-6605
▁сатур	-6606
▁космос	-6607
▁лабора	-6608
▁смерть	-6609
▁историк	-6610
▁указывает	-6611
▁направление	-6612
пет	-6613
рный	-6614
ссий	-6615
▁фео	-6616
▁харь	-6617
ченных	-6618
▁львов	-6619
▁равна	-6620
▁школу	-6621
▁превос	-6622
▁эмигра	-6623
▁высокая	-6624
▁финанси	-6625
▁коммента	-6626
▁составляли	-6627
▁необходимость	-6628
ab	-6629
жки	-6630
▁мат	-6631
▁фир	-6632
▁банка	-6633
▁голла	-6634
▁дорога	-6635
▁третий	-6636
internet	-6637
▁мирового	-6638
▁технологии	-6639
▁заключается	-6640
▁te	-6641
гене	-6642
▁бри	-6643
▁нена	-6644
▁полю	-6645
▁экви	-6646
▁волны	-6647
▁вторы	-6648
▁смеша	-6649
▁содру	-6650
▁назвал	-6651
▁помога	-6652
▁морских	-6653
▁мифологии	-6654
▁петербург	-6655
ri	-6656
ад	-6657
lin	-6658
сме	-6659
чим	-6660
▁гне	-6661
ваясь	-6662
празд	-6663
▁букв	-6664
▁педа	-6665
▁денег	-6666
▁прове	-6667
▁деньги	-6668
▁общины	-6669
▁отстав	-6670
▁выделяют	-6671
▁процессы	-6672
гры	-6673
сна	-6674
шке	-6675
▁di	-6676
испо	-6677
▁жил	-6678
▁лед	-6679
▁комна	-6680
▁разум	-6681
▁весной	-6682
▁восток	-6683
▁месяца	-6684
▁трудно	-6685
▁столыпи	-6686
▁компаний	-6687
▁коэффици	-6688
▁разрабаты	-6689
▁аристотеля	-6690
,2	-6691
бен	-6692
дие	-6693
ртов	-6694
▁миру	-6695
ющаяся	-6696
▁богов	-6697
▁возоб	-6698
▁всему	-6699
▁авторы	-6700
▁содержи	-6701
▁обучения	-6702
▁структур	-6703
▁реконструк	-6704
ид	-6705
oog	-6706
гео	-6707
зве	-6708
пия	-6709
лист	-6710
нице	-6711
▁обуча	-6712
▁турни	-6713
▁другое	-6714
▁латвии	-6715
▁дифферен	-6716
▁календар	-6717
▁комиссии	-6718
▁императри	-6719
▁реализова	-6720
▁удовлетво	-6721
▁библиотека	-6722
два	-6723
ндр	-6724
пля	-6725
▁лы	-6726
лиру	-6727
ython	-6728
вариа	-6729
▁брат	-6730
щаться	-6731
▁алюми	-6732
▁возраст	-6733
▁выпусти	-6734
▁журнала	-6735
▁операций	-6736
▁ситуация	-6737
▁называемый	-6738
▁объединения	-6739
for	-6740
имё	-6741
лёв	-6742
▁сф	-6743
зуме	-6744
▁1967	-6745
▁talk	-6746
▁нато	-6747
▁прика	-6748
▁сорев	-6749
▁увиде	-6750
нностей	-6751
▁вектор	-6752
▁подчёр	-6753
▁привле	-6754
▁россию	-6755
▁франция	-6756
▁главного	-6757
▁подразде	-6758
▁продоволь	-6759
дт	-6760
che	-6761
мас	-6762
сек	-6763
лизу	-6764
теле	-6765
тории	-6766
▁куро	-6767
▁сила	-6768
метрия	-6769
▁гости	-6770
▁группе	-6771
▁недели	-6772
американ	-6773
▁высоких	-6774
▁синтакси	-6775
▁концепции	-6776
▁конструкции	-6777
▁современный	-6778
▁докт	-6779
▁зака	-6780
▁колу	-6781
▁укра	-6782
▁креди	-6783
▁общем	-6784
▁смысл	-6785
▁звание	-6786
▁ранних	-6787
▁внешняя	-6788
▁формули	-6789
▁сельское	-6790
▁выступает	-6791
▁ленинград	-6792
▁белоруссии	-6793
цин	-6794
щер	-6795
дили	-6796
мора	-6797
▁гол	-6798
▁маке	-6799
▁рича	-6800
нялись	-6801
▁григо	-6802
▁виртуа	-6803
ковского	-6804
сообщить	-6805
▁крупный	-6806
▁поднима	-6807
▁приклад	-6808
▁пруссии	-6809
▁перехода	-6810
▁крупнейшие	-6811
,6	-6812
ub	-6813
щён	-6814
исти	-6815
тизм	-6816
▁1965	-6817
кистана	-6818
▁сделал	-6819
▁статьи	-6820
▁обладают	-6821
▁древнерус	-6822
▁столкнове	-6823
▁находились	-6824
нор	-6825
ebot	-6826
рота	-6827
▁1,5	-6828
канчи	-6829
▁1987	-6830
▁панк	-6831
▁типо	-6832
▁царь	-6833
▁протека	-6834
▁областей	-6835
archivebot	-6836
▁источники	-6837
▁утверждал	-6838
▁называемые	-6839
▁использовал	-6840
▁упоминается	-6841
▁популярность	-6842
▁администрации	-6843
ne	-6844
дут	-6845
хам	-6846
ссию	-6847
тиков	-6848
▁лета	-6849
стного	-6850
▁вести	-6851
▁зарубе	-6852
▁конкур	-6853
▁монеты	-6854
▁очеред	-6855
▁поезда	-6856
▁образуют	-6857
▁характера	-6858
▁исторически	-6859
чая	-6860
▁зме	-6861
стные	-6862
▁каль	-6863
▁прош	-6864
▁лицен	-6865
▁черты	-6866
▁преодо	-6867
▁провёл	-6868
▁алфавит	-6869
▁воспита	-6870
▁границе	-6871
▁колониа	-6872
▁специфи	-6873
▁фолькло	-6874
▁антаркти	-6875
▁обучение	-6876
▁транспор	-6877
исследователь	-6878
▁центрального	-6879
ist	-6880
гне	-6881
ксо	-6882
оце	-6883
дино	-6884
лера	-6885
▁выи	-6886
▁снг	-6887
йское	-6888
океан	-6889
▁моди	-6890
▁вопло	-6891
▁канад	-6892
▁лежит	-6893
▁расчё	-6894
▁ступе	-6895
▁турец	-6896
▁гонкон	-6897
▁париже	-6898
▁одноимё	-6899
▁представлен	-6900
ллы	-6901
▁нев	-6902
▁хру	-6903
▁бюро	-6904
▁рожде	-6905
▁стихи	-6906
▁выпуск	-6907
▁высших	-6908
▁запись	-6909
▁объёма	-6910
▁объявил	-6911
территориа	-6912
▁восстание	-6913
▁княжества	-6914
▁экономике	-6915
▁определяет	-6916
▁противостоя	-6917
54	-6918
золо	-6919
изме	-6920
▁vii	-6921
▁зри	-6922
▁наме	-6923
▁обря	-6924
▁саха	-6925
▁упро	-6926
▁2000-	-6927
▁прими	-6928
▁автори	-6929
▁важную	-6930
▁впечат	-6931
▁полной	-6932
хождения	-6933
▁военный	-6934
▁примени	-6935
▁личности	-6936
▁немецких	-6937
▁пришлось	-6938
▁оказались	-6939
▁построены	-6940
▁подготовку	-6941
▁единственный	-6942
li	-6943
ys	-6944
ёв	-6945
▁"-	-6946
рная	-6947
▁1985	-6948
▁агре	-6949
▁бесс	-6950
▁шара	-6951
▁втори	-6952
▁масси	-6953
▁соблю	-6954
▁стихо	-6955
▁персид	-6956
▁плоско	-6957
▁кирилли	-6958
▁процеду	-6959
▁автомати	-6960
▁открытие	-6961
▁произведе	-6962
ver	-6963
▁кв	-6964
▁тэ	-6965
езде	-6966
кора	-6967
▁пок	-6968
▁скры	-6969
▁вводи	-6970
▁имена	-6971
▁лучше	-6972
▁окраи	-6973
▁серии	-6974
▁школе	-6975
▁музыкан	-6976
▁считали	-6977
▁советские	-6978
▁километров	-6979
▁результатом	-6980
▁использовали	-6981
вана	-6982
▁400	-6983
ездов	-6984
▁1978	-6985
▁трой	-6986
▁могла	-6987
▁наций	-6988
▁океан	-6989
▁отдыха	-6990
▁собора	-6991
▁расшире	-6992
▁массовой	-6993
▁множеств	-6994
▁народной	-6995
▁начинает	-6996
▁отмечает	-6997
▁социально	-6998
▁эсперанто	-6999
▁христианство	-7000
_3	-7001
рома	-7002
ленно	-7003
фициа	-7004
▁1962	-7005
▁эмпи	-7006
▁озеро	-7007
▁втором	-7008
▁замени	-7009
▁священ	-7010
▁служит	-7011
▁частных	-7012
▁крепость	-7013
▁ресурсов	-7014
▁восстания	-7015
▁поведения	-7016
▁появилось	-7017
▁студентов	-7018
▁конференции	-7019
ci	-7020
бая	-7021
еве	-7022
цеп	-7023
шён	-7024
oogle	-7025
▁1921	-7026
▁1983	-7027
▁латы	-7028
▁силь	-7029
вающих	-7030
▁водой	-7031
▁водорода	-7032
▁начались	-7033
▁стратеги	-7034
▁горизонта	-7035
▁произошёл	-7036
пп	-7037
ун	-7038
зин	-7039
ква	-7040
тьев	-7041
▁дочь	-7042
▁круг	-7043
▁типы	-7044
▁тяго	-7045
листов	-7046
▁крови	-7047
▁суббо	-7048
▁васили	-7049
▁заверши	-7050
▁станция	-7051
▁граммати	-7052
▁областях	-7053
▁международные	-7054
56	-7055
[[	-7056
▁(3	-7057
кура	-7058
▁ано	-7059
▁сда	-7060
дации	-7061
▁душа	-7062
▁моги	-7063
▁осве	-7064
▁заслу	-7065
▁короле	-7066
▁мнения	-7067
▁безрабо	-7068
▁проведё	-7069
▁течения	-7070
▁требует	-7071
▁воскресе	-7072
▁ситуации	-7073
▁действительно	-7074
,8	-7075
зах	-7076
лыми	-7077
▁наци	-7078
▁агент	-7079
▁верши	-7080
▁занял	-7081
▁почвы	-7082
▁почёт	-7083
▁прось	-7084
▁чинов	-7085
▁играет	-7086
▁скорее	-7087
▁простых	-7088
▁крупнейшим	-7089
▁космического	-7090
рг	-7091
вел	-7092
мон	-7093
рет	-7094
▁бэ	-7095
гена	-7096
хоро	-7097
▁блю	-7098
благо	-7099
венти	-7100
генти	-7101
щений	-7102
▁1930	-7103
▁капи	-7104
▁чече	-7105
▁лагер	-7106
▁марок	-7107
▁фильм	-7108
▁гумани	-7109
▁маркси	-7110
▁физике	-7111
▁другого	-7112
▁отрасли	-7113
▁выступил	-7114
▁изобрази	-7115
▁окружающей	-7116
▁участвовал	-7117
▁опубликовал	-7118
▁собственные	-7119
▁значительную	-7120
дри	-7121
гера	-7122
стар	-7123
▁гера	-7124
▁леги	-7125
▁снизи	-7126
▁стиль	-7127
▁знаком	-7128
▁каждая	-7129
▁популя	-7130
▁проник	-7131
▁указом	-7132
▁христа	-7133
▁команды	-7134
▁учебных	-7135
тельством	-7136
▁вопросам	-7137
▁познания	-7138
▁британской	-7139
▁творчества	-7140
▁электромагни	-7141
,7	-7142
шал	-7143
вому	-7144
комо	-7145
▁160	-7146
▁хищ	-7147
менту	-7148
▁1973	-7149
▁иной	-7150
▁озёр	-7151
▁вышел	-7152
▁зороа	-7153
▁китае	-7154
▁лекси	-7155
▁новым	-7156
▁промы	-7157
▁рассу	-7158
▁берего	-7159
▁дважды	-7160
▁запада	-7161
▁запасы	-7162
▁оценки	-7163
▁связан	-7164
▁питания	-7165
▁министра	-7166
▁наследия	-7167
▁независимо	-7168
▁государственным	-7169
́н	-7170
нях	-7171
лежа	-7172
▁120	-7173
▁мур	-7174
▁уде	-7175
▁перм	-7176
▁проз	-7177
▁звуча	-7178
▁общие	-7179
▁верховный	-7180
▁изменений	-7181
▁построена	-7182
жд	-7183
="8	-7184
ваи	-7185
▁боя	-7186
▁опо	-7187
товые	-7188
▁факт	-7189
лькуля	-7190
стских	-7191
▁гвине	-7192
▁запро	-7193
▁оболо	-7194
хранили	-7195
▁одному	-7196
▁почита	-7197
▁работах	-7198
▁воспроиз	-7199
▁давления	-7200
▁образует	-7201
▁экспорта	-7202
▁появления	-7203
▁формально	-7204
▁отличаются	-7205
▁электроэнер	-7206
ок	-7207
дении	-7208
никах	-7209
нскую	-7210
шенко	-7211
▁гибе	-7212
▁крат	-7213
▁обоб	-7214
ваемых	-7215
вшееся	-7216
льская	-7217
тивное	-7218
▁дикта	-7219
▁каспи	-7220
▁команд	-7221
▁великий	-7222
▁кинемато	-7223
▁считаются	-7224
▁российский	-7225
ксу	-7226
нек	-7227
▁эв	-7228
ряет	-7229
▁ина	-7230
комму	-7231
сными	-7232
▁1986	-7233
▁моде	-7234
▁осла	-7235
▁усло	-7236
лённых	-7237
менным	-7238
▁герой	-7239
▁едино	-7240
▁офице	-7241
▁таком	-7242
▁целях	-7243
ковский	-7244
▁прибал	-7245
▁металлов	-7246
▁подчёрки	-7247
▁телекана	-7248
▁поддержки	-7249
▁развитием	-7250
▁референду	-7251
▁материалов	-7252
▁соглашения	-7253
▁значительные	-7254
рем	-7255
▁мг	-7256
▁(10	-7257
▁лав	-7258
▁домо	-7259
▁запи	-7260
▁знак	-7261
▁фено	-7262
нились	-7263
▁консу	-7264
▁мозга	-7265
▁откло	-7266
▁улице	-7267
электро	-7268
ющегося	-7269
▁автора	-7270
▁дворец	-7271
▁македо	-7272
▁натрия	-7273
▁атланти	-7274
▁туристов	-7275
▁возникает	-7276
▁продуктов	-7277
,9	-7278
веле	-7279
жают	-7280
▁аку	-7281
▁бос	-7282
щиков	-7283
▁1974	-7284
▁водя	-7285
▁рыба	-7286
▁мекси	-7287
▁канады	-7288
▁законом	-7289
▁причине	-7290
▁внимания	-7291
▁генерала	-7292
▁библиотеки	-7293
▁содержания	-7294
▁официальным	-7295
▁представитель	-7296
_4	-7297
sh	-7298
ап	-7299
зиру	-7300
циям	-7301
ждает	-7302
▁прин	-7303
▁домов	-7304
▁проро	-7305
▁полуша	-7306
▁граница	-7307
▁приложе	-7308
▁филиппи	-7309
▁вселенной	-7310
▁природных	-7311
▁информацию	-7312
▁месторождения	-7313
per	-7314
гих	-7315
жду	-7316
▁(4	-7317
мона	-7318
ремо	-7319
▁600	-7320
▁вино	-7321
▁доми	-7322
▁пери	-7323
емость	-7324
▁волго	-7325
▁замеча	-7326
▁многом	-7327
▁такими	-7328
▁высшего	-7329
▁классов	-7330
▁обнаружи	-7331
▁народного	-7332
▁остальных	-7333
▁подразуме	-7334
▁скоростью	-7335
логического	-7336
▁отмечается	-7337
▁отсутствует	-7338
▁современном	-7339
bo	-7340
мат	-7341
сить	-7342
щать	-7343
раста	-7344
▁софи	-7345
падают	-7346
▁нагре	-7347
▁сухопу	-7348
▁яросла	-7349
▁корпора	-7350
▁широкое	-7351
ствования	-7352
▁владимира	-7353
▁местности	-7354
▁внутренней	-7355
▁физических	-7356
▁σ	-7357
аль	-7358
рицы	-7359
стаи	-7360
▁эль	-7361
дётся	-7362
емыми	-7363
рного	-7364
▁выро	-7365
▁идею	-7366
▁наси	-7367
▁проф	-7368
ющейся	-7369
▁армию	-7370
▁кирги	-7371
▁компе	-7372
▁возвыше	-7373
▁границу	-7374
▁закончи	-7375
праздники	-7376
▁профессор	-7377
▁всемирного	-7378
▁специализирова	-7379
кп	-7380
чко	-7381
▁куп	-7382
▁лау	-7383
▁удар	-7384
▁элли	-7385
▁верто	-7386
▁индей	-7387
▁непро	-7388
▁супру	-7389
▁другая	-7390
▁товары	-7391
▁металли	-7392
▁писателя	-7393
▁совершен	-7394
▁существовало	-7395
ck	-7396
жан	-7397
нигс	-7398
▁lin	-7399
▁рос	-7400
▁1924	-7401
▁прус	-7402
▁руки	-7403
ологии	-7404
тилась	-7405
▁длины	-7406
▁строя	-7407
▁долгое	-7408
▁записы	-7409
▁полков	-7410
▁режима	-7411
▁аппарат	-7412
▁аргенти	-7413
▁оценкам	-7414
▁примеру	-7415
▁принятия	-7416
▁принципиа	-7417
▁республик	-7418
▁психологии	-7419
▁химических	-7420
▁ограничения	-7421
▁существовали	-7422
▁следовательно	-7423
=7	-7424
ae	-7425
бий	-7426
зий	-7427
▁ch	-7428
▁мё	-7429
▁сва	-7430
берта	-7431
▁авра	-7432
▁вспо	-7433
▁богат	-7434
▁освое	-7435
▁южном	-7436
▁данном	-7437
▁пришёл	-7438
▁ранние	-7439
▁делятся	-7440
▁начался	-7441
▁троцкий	-7442
▁интерфей	-7443
▁северный	-7444
▁предприня	-7445
▁технологий	-7446
▁предложение	-7447
io	-7448
lan	-7449
нни	-7450
▁джи	-7451
манду	-7452
новые	-7453
тация	-7454
тской	-7455
цизма	-7456
▁1957	-7457
▁боло	-7458
▁гале	-7459
▁калу	-7460
▁семь	-7461
▁стру	-7462
▁церк	-7463
вились	-7464
жество	-7465
челове	-7466
▁англо	-7467
▁затра	-7468
▁изгна	-7469
▁науке	-7470
▁проко	-7471
▁сферы	-7472
▁уилья	-7473
▁афгани	-7474
▁провер	-7475
▁единого	-7476
▁конечно	-7477
▁туристи	-7478
▁вопросов	-7479
▁появляется	-7480
▁формирование	-7481
▁преобразования	-7482
▁йо	-7483
▁оа	-7484
дора	-7485
емую	-7486
льси	-7487
ванию	-7488
▁исла	-7489
▁рыбо	-7490
▁добыча	-7491
▁числом	-7492
космонав	-7493
▁высокий	-7494
▁диапазо	-7495
▁примеры	-7496
▁железных	-7497
▁основана	-7498
▁состоялся	-7499
▁республикан	-7500
жную	-7501
сено	-7502
▁вале	-7503
▁гора	-7504
револю	-7505
ходить	-7506
▁атома	-7507
▁южная	-7508
ционным	-7509
▁борьба	-7510
▁площад	-7511
▁резиден	-7512
▁товаров	-7513
▁ассамбле	-7514
▁всеросси	-7515
▁контроля	-7516
▁наоборот	-7517
▁используя	-7518
▁сравнительно	-7519
=4	-7520
me	-7521
душ	-7522
▁ох	-7523
дьми	-7524
комп	-7525
довых	-7526
▁1936	-7527
▁1968	-7528
▁1977	-7529
▁дель	-7530
▁зона	-7531
▁кари	-7532
дирова	-7533
▁1920-	-7534
▁бюдже	-7535
▁оформ	-7536
▁покло	-7537
▁прису	-7538
▁google	-7539
▁двадца	-7540
▁евреев	-7541
▁кризис	-7542
▁связей	-7543
▁эффект	-7544
▁открыто	-7545
▁патриар	-7546
▁теплово	-7547
▁народный	-7548
▁проходил	-7549
▁полуострова	-7550
,1	-7551
джет	-7552
стая	-7553
▁250	-7554
▁win	-7555
▁фау	-7556
неров	-7557
▁1900	-7558
▁усть	-7559
▁любого	-7560
▁сказал	-7561
▁артилле	-7562
▁объясни	-7563
▁принята	-7564
▁элемент	-7565
▁северном	-7566
▁археологи	-7567
▁индустриа	-7568
▁отказался	-7569
▁президиума	-7570
▁сооружения	-7571
▁установлен	-7572
▁национальная	-7573
мед	-7574
▁сё	-7575
сную	-7576
▁1947	-7577
▁1949	-7578
▁1963	-7579
▁базо	-7580
▁льво	-7581
▁мело	-7582
▁древе	-7583
▁керен	-7584
▁строй	-7585
▁сообщи	-7586
числения	-7587
▁антропо	-7588
▁главные	-7589
▁михаила	-7590
▁приняли	-7591
▁участия	-7592
▁созданию	-7593
логическая	-7594
петербурга	-7595
▁атмосферы	-7596
▁участников	-7597
▁изображение	-7598
▁способности	-7599
▁характеризуется	-7600
рда	-7601
фай	-7602
цкой	-7603
▁пли	-7604
приме	-7605
▁1959	-7606
▁лени	-7607
▁муль	-7608
▁хоки	-7609
включа	-7610
▁химии	-7611
▁физико	-7612
▁высоким	-7613
▁выступи	-7614
▁издание	-7615
▁палести	-7616
▁платфор	-7617
▁северная	-7618
▁требуется	-7619
▁казахстана	-7620
▁соединений	-7621
▁промышленных	-7622
▁использовался	-7623
▁великобритания	-7624
▁исследователей	-7625
,3	-7626
dio	-7627
лон	-7628
чку	-7629
—15	-7630
стый	-7631
▁впа	-7632
▁рок	-7633
ждена	-7634
▁1938	-7635
▁боро	-7636
▁всём	-7637
▁голу	-7638
▁иных	-7639
▁коме	-7640
▁ланд	-7641
▁монар	-7642
▁росто	-7643
▁солов	-7644
▁столь	-7645
ровский	-7646
▁победу	-7647
▁австрии	-7648
▁отсчёта	-7649
▁вернулся	-7650
▁инициати	-7651
▁некоторым	-7652
▁становятся	-7653
▁противопоста	-7654
ака	-7655
рба	-7656
ффи	-7657
▁al	-7658
чили	-7659
тивов	-7660
▁1948	-7661
▁заго	-7662
▁иран	-7663
▁пада	-7664
тивным	-7665
тились	-7666
▁горах	-7667
▁нефть	-7668
▁осман	-7669
▁перспе	-7670
▁полное	-7671
▁титана	-7672
▁успешно	-7673
▁явление	-7674
▁получает	-7675
▁настолько	-7676
▁командованием	-7677
ml	-7678
кии	-7679
рес	-7680
фри	-7681
чён	-7682
мога	-7683
шает	-7684
▁днём	-7685
▁кода	-7686
▁опыт	-7687
▁можай	-7688
▁свето	-7689
▁википе	-7690
▁окрест	-7691
▁оружия	-7692
▁япония	-7693
▁высотой	-7694
▁казаков	-7695
▁спектра	-7696
▁кладбище	-7697
▁консерва	-7698
▁памятники	-7699
▁позволило	-7700
▁предсказа	-7701
▁александро	-7702
▁появляются	-7703
▁проводится	-7704
рэ	-7705
пто	-7706
▁мв	-7707
лона	-7708
онер	-7709
шено	-7710
▁жар	-7711
трибу	-7712
▁1982	-7713
▁агра	-7714
▁куда	-7715
▁нема	-7716
центри	-7717
▁видео	-7718
▁смени	-7719
▁прошёл	-7720
▁твёрдо	-7721
▁древние	-7722
▁научные	-7723
▁престол	-7724
▁жидкости	-7725
▁идеологи	-7726
▁придержива	-7727
▁республикой	-7728
52	-7729
"»,	-7730
the	-7731
худ	-7732
чик	-7733
▁36	-7734
icro	-7735
▁1914	-7736
▁веры	-7737
▁игро	-7738
▁юрий	-7739
ночных	-7740
▁аркти	-7741
▁прито	-7742
▁python	-7743
▁вблизи	-7744
лизирова	-7745
▁состоят	-7746
▁западных	-7747
▁научного	-7748
▁открытый	-7749
▁проходят	-7750
▁регистра	-7751
▁углерода	-7752
▁королевства	-7753
▁собственных	-7754
▁специальные	-7755
▁французского	-7756
ap	-7757
ай	-7758
уго	-7759
следу	-7760
ссией	-7761
▁1971	-7762
▁заро	-7763
▁сара	-7764
русали	-7765
▁паска	-7766
▁фронт	-7767
▁высоте	-7768
▁городу	-7769
▁оккупи	-7770
▁прилага	-7771
▁фридрих	-7772
▁источник	-7773
▁норвегии	-7774
▁торговля	-7775
▁выполнения	-7776
▁назначения	-7777
▁осуществляет	-7778
▁насчитывается	-7779
жом	-7780
тав	-7781
это	-7782
▁аг	-7783
блей	-7784
вшем	-7785
ссер	-7786
прези	-7787
стика	-7788
▁крым	-7789
▁сути	-7790
▁указ	-7791
менная	-7792
ченные	-7793
▁волги	-7794
▁евкли	-7795
▁плохо	-7796
▁ребён	-7797
▁стари	-7798
▁торже	-7799
▁правил	-7800
▁причин	-7801
▁уголов	-7802
▁властей	-7803
▁вступил	-7804
▁немного	-7805
▁потребо	-7806
▁достовер	-7807
▁искусств	-7808
▁оказался	-7809
▁оказалась	-7810
▁протестан	-7811
▁советская	-7812
▁результатам	-7813
cl	-7814
инте	-7815
дород	-7816
▁1926	-7817
▁ладо	-7818
▁ночь	-7819
▁корни	-7820
▁назван	-7821
▁покупа	-7822
▁вертолё	-7823
▁всеобще	-7824
▁крайней	-7825
▁юпитера	-7826
▁болгарии	-7827
▁величина	-7828
▁значений	-7829
▁подобные	-7830
▁небольшой	-7831
▁последней	-7832
▁регулярно	-7833
▁структуру	-7834
▁восприятия	-7835
▁французской	-7836
▁государственное	-7837
гма	-7838
спа	-7839
▁ава	-7840
▁сул	-7841
белев	-7842
▁1935	-7843
▁бара	-7844
▁вече	-7845
▁неде	-7846
кистан	-7847
тского	-7848
▁всеоб	-7849
▁выста	-7850
▁матри	-7851
▁морем	-7852
▁потер	-7853
▁преем	-7854
▁редак	-7855
▁людьми	-7856
▁наказа	-7857
▁мировых	-7858
▁средних	-7859
▁геометри	-7860
▁позволяют	-7861
▁космических	-7862
вах	-7863
дям	-7864
сан	-7865
жали	-7866
кома	-7867
более	-7868
уголь	-7869
▁пони	-7870
▁соба	-7871
вающая	-7872
▁ивана	-7873
▁накло	-7874
▁внешне	-7875
▁символ	-7876
▁склады	-7877
▁христо	-7878
▁византий	-7879
▁вызывает	-7880
▁граничит	-7881
▁площадью	-7882
▁обращения	-7883
▁сообщества	-7884
▁олимпийских	-7885
▁ориентирова	-7886
▁поверхность	-7887
▁исследование	-7888
▁произведение	-7889
бн	-7890
чны	-7891
▁пау	-7892
▁пом	-7893
▁шот	-7894
мысле	-7895
после	-7896
▁трои	-7897
▁альбо	-7898
станция	-7899
▁еванге	-7900
▁комите	-7901
▁поводу	-7902
▁туризм	-7903
▁достоин	-7904
▁принять	-7905
▁русская	-7906
▁напомина	-7907
▁памятников	-7908
58	-7909
дит	-7910
горе	-7911
номи	-7912
риха	-7913
тило	-7914
▁тём	-7915
▁фре	-7916
кость	-7917
▁1976	-7918
▁дать	-7919
▁джей	-7920
▁иллю	-7921
▁мемо	-7922
▁озна	-7923
истори	-7924
▁каких	-7925
▁назем	-7926
▁силой	-7927
▁бывший	-7928
▁дворца	-7929
▁прогно	-7930
▁путина	-7931
▁рельеф	-7932
▁тексты	-7933
▁крупным	-7934
▁миллиар	-7935
логический	-7936
▁ломоносов	-7937
▁составлял	-7938
▁уравнений	-7939
▁эйнштейна	-7940
ta	-7941
ber	-7942
пове	-7943
▁иса	-7944
▁кей	-7945
берна	-7946
опера	-7947
▁тюрь	-7948
▁возбу	-7949
▁хокке	-7950
грирова	-7951
▁группи	-7952
▁планет	-7953
▁экспер	-7954
▁соловьё	-7955
ментирова	-7956
▁немецкой	-7957
▁городские	-7958
▁стоимость	-7959
▁температур	-7960
▁увеличение	-7961
▁десятилетия	-7962
▁результатов	-7963
▁классификация	-7964
ng	-7965
nu	-7966
бба	-7967
▁ne	-7968
дные	-7969
▁гит	-7970
▁1950	-7971
▁джор	-7972
▁орке	-7973
▁разу	-7974
▁сбли	-7975
лённые	-7976
▁ввиду	-7977
▁выгля	-7978
▁герба	-7979
▁высота	-7980
▁прошли	-7981
▁допусти	-7982
▁училище	-7983
▁чёрного	-7984
▁говорить	-7985
▁иностран	-7986
▁символов	-7987
▁системах	-7988
▁германией	-7989
▁демонстра	-7990
▁приобрета	-7991
▁количеством	-7992
au	-7993
ava	-7994
жны	-7995
юда	-7996
рядо	-7997
▁зев	-7998
▁иль	-7999
▁воду	-8000
▁горя	-8001
▁вывод	-8002
▁прибо	-8003
▁газета	-8004
▁потери	-8005
▁департа	-8006
▁общения	-8007
▁простые	-8008
▁словами	-8009
▁главноко	-8010
▁разновид	-8011
▁география	-8012
▁латинской	-8013
▁оккупирова	-8014
▁эквивалент	-8015
▁метрополитена	-8016
бую	-8017
▁кнр	-8018
▁эми	-8019
скопи	-8020
▁1929	-8021
▁1956	-8022
▁окси	-8023
▁соль	-8024
▁суме	-8025
▁укре	-8026
▁1950-	-8027
▁вошла	-8028
▁малых	-8029
▁опира	-8030
вариант	-8031
культур	-8032
▁атрибу	-8033
▁выраже	-8034
▁кварта	-8035
▁контек	-8036
▁налого	-8037
▁наполе	-8038
▁совеща	-8039
▁адвенти	-8040
▁приметы	-8041
▁ресурсы	-8042
▁сказать	-8043
▁столице	-8044
▁находилась	-8045
▁водохранили	-8046
▁инструмента	-8047
▁обеспечивает	-8048
▁образованием	-8049
▁общественных	-8050
▁рассматривается	-8051
ll	-8052
no	-8053
="3	-8054
мане	-8055
▁опе	-8056
▁таи	-8057
цвета	-8058
▁риме	-8059
▁солё	-8060
▁носит	-8061
▁слабы	-8062
▁вторым	-8063
▁импорт	-8064
▁метода	-8065
▁турции	-8066
▁кораблей	-8067
▁выражение	-8068
▁небольшие	-8069
▁промежуто	-8070
▁следующих	-8071
▁официальной	-8072
▁христианства	-8073
▁ar	-8074
▁игр	-8075
▁счё	-8076
▁шар	-8077
страи	-8078
▁вест	-8079
▁мага	-8080
страда	-8081
▁движу	-8082
▁точке	-8083
водства	-8084
ждается	-8085
ношения	-8086
▁длиной	-8087
▁земной	-8088
▁испыты	-8089
▁корпус	-8090
▁партнё	-8091
▁повлия	-8092
▁группой	-8093
▁делится	-8094
▁размеры	-8095
вью	-8096
рат	-8097
сро	-8098
▁ай	-8099
▁св	-8100
куда	-8101
▁800	-8102
▁вру	-8103
▁лин	-8104
жется	-8105
нства	-8106
▁неот	-8107
▁карла	-8108
▁монет	-8109
▁озера	-8110
▁тесно	-8111
▁упомя	-8112
тельств	-8113
▁киноте	-8114
▁контра	-8115
▁местом	-8116
пасность	-8117
▁иерусали	-8118
▁программу	-8119
▁аристотель	-8120
▁социальные	-8121
▁творчество	-8122
сель	-8123
▁рит	-8124
кости	-8125
спорт	-8126
▁1966	-8127
▁иера	-8128
▁нака	-8129
▁неже	-8130
ющимся	-8131
▁охваты	-8132
▁королём	-8133
▁никаких	-8134
▁энергия	-8135
▁конкурен	-8136
▁выражения	-8137
▁московский	-8138
▁проводятся	-8139
▁внутреннего	-8140
▁собственной	-8141
▁человеческого	-8142
км	-8143
дон	-8144
тел	-8145
чью	-8146
▁(6	-8147
геля	-8148
пова	-8149
▁ора	-8150
▁эли	-8151
щению	-8152
▁1984	-8153
▁надо	-8154
▁поче	-8155
▁родо	-8156
▁micro	-8157
▁готов	-8158
▁погре	-8159
▁кёнигс	-8160
▁препят	-8161
▁чёрной	-8162
▁произво	-8163
▁обращение	-8164
▁отделения	-8165
▁поражение	-8166
▁внутренние	-8167
▁полномочия	-8168
▁температуре	-8169
▁председателем	-8170
вто	-8171
жён	-8172
▁33	-8173
▁37	-8174
вига	-8175
деся	-8176
меся	-8177
рыва	-8178
щают	-8179
▁нар	-8180
▁сор	-8181
графа	-8182
▁1933	-8183
▁1937	-8184
▁санк	-8185
▁ухуд	-8186
вшимся	-8187
▁красо	-8188
▁метри	-8189
▁титул	-8190
▁трети	-8191
▁целей	-8192
▁завода	-8193
▁знаний	-8194
▁парово	-8195
▁поиска	-8196
▁расстре	-8197
▁обыкнове	-8198
▁воспомина	-8199
▁основного	-8200
▁сложности	-8201
▁полномочий	-8202
▁обеспечение	-8203
▁расположено	-8204
▁железнодорожный	-8205
▁калининградской	-8206
▁;	-8207
▁sm	-8208
били	-8209
виль	-8210
день	-8211
хами	-8212
▁(12	-8213
новка	-8214
▁1969	-8215
▁визи	-8216
▁вице	-8217
▁клуб	-8218
▁одни	-8219
▁опер	-8220
▁звука	-8221
▁имену	-8222
▁конго	-8223
▁низме	-8224
▁поэта	-8225
▁репре	-8226
▁палаты	-8227
▁славян	-8228
▁ультра	-8229
▁имеющие	-8230
▁экспози	-8231
▁занимался	-8232
▁оставался	-8233
▁образуется	-8234
▁дифференциа	-8235
▁наступление	-8236
▁переименова	-8237
▁предложения	-8238
▁современная	-8239
▁экономических	-8240
."	-8241
бры	-8242
▁ах	-8243
полу	-8244
▁(13	-8245
▁аспе	-8246
▁мамо	-8247
▁пехо	-8248
▁экра	-8249
кузнец	-8250
ряется	-8251
стские	-8252
▁декла	-8253
▁докла	-8254
образие	-8255
примеча	-8256
▁ежегод	-8257
▁раскры	-8258
нических	-8259
▁климата	-8260
▁критика	-8261
▁подавля	-8262
▁потреби	-8263
▁политике	-8264
▁столетия	-8265
▁являлись	-8266
▁лукашенко	-8267
▁обработки	-8268
▁принимать	-8269
▁революция	-8270
▁английском	-8271
▁разработчи	-8272
▁сохранения	-8273
▁направлений	-8274
▁последующие	-8275
▁исторической	-8276
▁классификации	-8277
▁функционирова	-8278
▁экономический	-8279
зию	-8280
хло	-8281
▁(;	-8282
фина	-8283
▁ибн	-8284
▁1958	-8285
▁штаб	-8286
вилась	-8287
▁азота	-8288
▁играх	-8289
▁имуще	-8290
▁отряд	-8291
▁раско	-8292
ваториа	-8293
▁восьми	-8294
▁осново	-8295
▁петров	-8296
▁болезни	-8297
▁лейбниц	-8298
▁будущего	-8299
▁существи	-8300
▁эйнштейн	-8301
▁осуществи	-8302
▁предметов	-8303
▁подразделя	-8304
▁средневеков	-8305
́р	-8306
ard	-8307
лай	-8308
лур	-8309
слей	-8310
тору	-8311
лемён	-8312
▁морю	-8313
цирова	-8314
▁linux	-8315
▁полит	-8316
▁боевых	-8317
▁грузии	-8318
▁молодо	-8319
▁октави	-8320
▁племён	-8321
▁просве	-8322
▁служил	-8323
▁усилия	-8324
▁кризиса	-8325
▁племена	-8326
▁поступа	-8327
▁приказа	-8328
▁принимает	-8329
▁религиозные	-8330
▁оборудование	-8331
жие	-8332
▁55	-8333
="14	-8334
вные	-8335
регу	-8336
▁(14	-8337
новым	-8338
психо	-8339
стого	-8340
▁гига	-8341
вающие	-8342
▁вещей	-8343
▁вошёл	-8344
▁ксено	-8345
▁курга	-8346
▁масте	-8347
▁активи	-8348
▁берлин	-8349
▁бюджет	-8350
▁печати	-8351
▁службу	-8352
▁физика	-8353
▁отмечал	-8354
▁различия	-8355
▁греческой	-8356
▁казахстан	-8357
▁немецкого	-8358
▁информация	-8359
▁преследова	-8360
гуа	-8361
авто	-8362
бюро	-8363
лика	-8364
мому	-8365
▁фру	-8366
▁чём	-8367
ющему	-8368
▁1953	-8369
▁чехи	-8370
▁жесто	-8371
▁марса	-8372
▁стены	-8373
губерна	-8374
▁правом	-8375
▁властью	-8376
▁парамет	-8377
▁проекту	-8378
▁конфликт	-8379
▁человеку	-8380
▁безработи	-8381
▁поддержке	-8382
▁занимается	-8383
▁рассказыва	-8384
▁объединение	-8385
▁чрезвычайно	-8386
▁значительная	-8387
▁главнокоманду	-8388
пс	-8389
нхе	-8390
▁ван	-8391
▁оль	-8392
▁теку	-8393
правда	-8394
▁блока	-8395
▁иначе	-8396
▁высоты	-8397
▁данное	-8398
▁значит	-8399
▁иисуса	-8400
▁кавале	-8401
▁приори	-8402
▁голланд	-8403
▁прирост	-8404
ственному	-8405
▁составили	-8406
▁специалистов	-8407
▁использовании	-8408
сё	-8409
вои	-8410
пут	-8411
уса	-8412
гоги	-8413
коль	-8414
цина	-8415
щики	-8416
ждены	-8417
социа	-8418
▁1906	-8419
▁viii	-8420
▁боли	-8421
▁кндр	-8422
▁кошек	-8423
▁этапе	-8424
▁исходя	-8425
▁неопла	-8426
▁раздел	-8427
▁внешних	-8428
▁достато	-8429
▁предмет	-8430
▁русским	-8431
▁текстов	-8432
▁преобладают	-8433
ge	-8434
зё	-8435
ess	-8436
▁42	-8437
▁48	-8438
▁ля	-8439
шний	-8440
▁жёл	-8441
▁шер	-8442
вляли	-8443
новая	-8444
право	-8445
споль	-8446
▁1981	-8447
▁beat	-8448
▁диви	-8449
▁нера	-8450
▁осна	-8451
▁фами	-8452
аппара	-8453
▁лидер	-8454
▁маних	-8455
▁обоих	-8456
▁панте	-8457
▁рекла	-8458
▁уделя	-8459
министр	-8460
▁апосто	-8461
▁границ	-8462
▁прочих	-8463
▁алгебра	-8464
▁военное	-8465
▁функцию	-8466
▁царства	-8467
▁возникли	-8468
▁вращения	-8469
▁калькуля	-8470
▁послевое	-8471
▁коммуника	-8472
▁функциони	-8473
▁расстояния	-8474
▁физической	-8475
▁параллельно	-8476
▁предполагается	-8477
жна	-8478
рёл	-8479
сыла	-8480
▁або	-8481
дений	-8482
ковод	-8483
▁1972	-8484
▁java	-8485
▁ввёл	-8486
▁воль	-8487
▁рыбы	-8488
▁снаб	-8489
пления	-8490
▁ведёт	-8491
вленные	-8492
надцати	-8493
▁поэзии	-8494
▁округов	-8495
▁передви	-8496
▁прошлом	-8497
▁среднее	-8498
▁возникла	-8499
▁деревьев	-8500
▁катастро	-8501
▁напротив	-8502
▁содержат	-8503
▁аэропорта	-8504
▁греческого	-8505
▁составляло	-8506
▁английского	-8507
▁архитектура	-8508
▁руководства	-8509
▁политическая	-8510
57	-8511
бля	-8512
рьи	-8513
сий	-8514
="13	-8515
бных	-8516
жига	-8517
меда	-8518
▁гау	-8519
▁инф	-8520
▁син	-8521
украи	-8522
▁база	-8523
▁коди	-8524
▁крите	-8525
▁литвы	-8526
▁мария	-8527
▁марша	-8528
▁преми	-8529
▁хорва	-8530
включая	-8531
▁болгар	-8532
▁высшее	-8533
▁высшей	-8534
▁оплаты	-8535
▁романа	-8536
▁суммар	-8537
▁заканчи	-8538
▁колумби	-8539
▁команду	-8540
▁критику	-8541
▁органом	-8542
▁полного	-8543
▁преобра	-8544
▁рабочей	-8545
▁величине	-8546
▁движении	-8547
▁красного	-8548
▁способом	-8549
▁командира	-8550
▁отношениях	-8551
▁известность	-8552
▁центральный	-8553
▁достопримеча	-8554
▁православной	-8555
вляя	-8556
дный	-8557
▁поо	-8558
▁чар	-8559
летий	-8560
▁1934	-8561
▁глаз	-8562
▁смог	-8563
▁эква	-8564
▁ярко	-8565
вленных	-8566
▁перено	-8567
▁постав	-8568
▁разным	-8569
▁статья	-8570
▁комисса	-8571
▁попытка	-8572
▁давление	-8573
▁значении	-8574
▁монастырь	-8575
▁славянских	-8576
▁физические	-8577
est	-8578
рим	-8579
▁38	-8580
dows	-8581
soft	-8582
▁али	-8583
подоб	-8584
слава	-8585
▁волн	-8586
▁зато	-8587
▁луны	-8588
▁прод	-8589
▁песен	-8590
▁привы	-8591
▁солда	-8592
▁стиля	-8593
▁вьетна	-8594
▁списка	-8595
▁школах	-8596
▁верхней	-8597
▁золотой	-8598
▁лондоне	-8599
▁михайло	-8600
▁древности	-8601
▁закономер	-8602
▁российская	-8603
▁состоялось	-8604
▁американский	-8605
▁определённых	-8606
ns	-8607
без	-8608
жая	-8609
▁1925	-8610
▁дети	-8611
▁зале	-8612
▁копи	-8613
▁наше	-8614
▁сина	-8615
▁богом	-8616
▁людям	-8617
▁марки	-8618
▁руках	-8619
▁тайва	-8620
▁южного	-8621
▁иерархи	-8622
▁команда	-8623
▁критики	-8624
▁реакция	-8625
▁примером	-8626
▁комплекса	-8627
▁источниках	-8628
осо	-8629
тик	-8630
▁).	-8631
▁so	-8632
▁эм	-8633
коро	-8634
ллов	-8635
▁фос	-8636
радио	-8637
рении	-8638
▁коде	-8639
▁рима	-8640
▁седь	-8641
▁цеза	-8642
ющееся	-8643
▁нефтя	-8644
▁фонда	-8645
гломера	-8646
▁пришли	-8647
▁удосто	-8648
нической	-8649
хождение	-8650
▁авиации	-8651
▁высокие	-8652
▁изделия	-8653
▁колонии	-8654
▁компиля	-8655
▁мемориа	-8656
▁пытался	-8657
▁служить	-8658
▁операция	-8659
▁нидерланд	-8660
▁социального	-8661
▁возникновения	-8662
ул	-8663
▁(0,	-8664
вилов	-8665
▁асси	-8666
▁засу	-8667
▁ками	-8668
▁мель	-8669
▁поэт	-8670
▁выпла	-8671
▁марии	-8672
▁эваку	-8673
▁этими	-8674
▁южный	-8675
▁выращи	-8676
▁герцог	-8677
▁посоль	-8678
▁россий	-8679
▁статей	-8680
▁учётом	-8681
▁вертика	-8682
▁минимум	-8683
▁сколько	-8684
▁статуса	-8685
▁австрали	-8686
▁граждане	-8687
▁принципы	-8688
▁поколения	-8689
▁получение	-8690
▁свободной	-8691
▁философов	-8692
▁продолжает	-8693
▁предшествен	-8694
▁установлены	-8695
▁особенностью	-8696
53	-8697
vi	-8698
▁дэ	-8699
▁and	-8700
▁чеш	-8701
▁юга	-8702
морфи	-8703
▁(190	-8704
▁духо	-8705
▁окра	-8706
▁пояс	-8707
▁соло	-8708
▁гарни	-8709
▁диони	-8710
▁живут	-8711
▁моста	-8712
▁общим	-8713
▁урана	-8714
▁якобы	-8715
▁делега	-8716
▁отожде	-8717
▁beatles	-8718
▁министр	-8719
▁однозна	-8720
▁пушкина	-8721
▁решений	-8722
▁станций	-8723
▁судоход	-8724
▁академия	-8725
▁атмосфер	-8726
▁регионах	-8727
▁туркмени	-8728
▁составило	-8729
▁структуре	-8730
▁временного	-8731
▁характеристика	-8732
пок	-8733
нули	-8734
реза	-8735
чков	-8736
▁джу	-8737
▁лиф	-8738
▁югу	-8739
ковый	-8740
лакти	-8741
ланда	-8742
ловой	-8743
▁дани	-8744
▁заве	-8745
▁каре	-8746
▁перу	-8747
▁пско	-8748
▁часа	-8749
вающий	-8750
евский	-8751
нялась	-8752
▁науру	-8753
▁подли	-8754
▁римля	-8755
рийский	-8756
▁особое	-8757
▁имеющих	-8758
▁контакт	-8759
▁нобелев	-8760
▁открыта	-8761
▁первыми	-8762
▁подобно	-8763
▁членами	-8764
▁решением	-8765
▁спутников	-8766
▁большевиков	-8767
▁интеллектуа	-8768
▁характеристики	-8769
_6	-8770
шать	-8771
▁ува	-8772
▁лице	-8773
▁какие	-8774
▁хрущё	-8775
▁экзем	-8776
вляться	-8777
▁библии	-8778
▁далеко	-8779
▁сознания	-8780
▁своеобраз	-8781
▁считалось	-8782
▁выделяются	-8783
▁пребывания	-8784
▁пропорциона	-8785
▁развивается	-8786
тт	-8787
дзи	-8788
тип	-8789
бона	-8790
вных	-8791
нибу	-8792
рное	-8793
▁зад	-8794
ринга	-8795
▁1928	-8796
▁нрав	-8797
тилось	-8798
▁закреп	-8799
▁одержа	-8800
▁осозна	-8801
ствующих	-8802
▁меньшей	-8803
▁обрабаты	-8804
▁останови	-8805
▁поверхно	-8806
▁описывает	-8807
▁переходит	-8808
▁постоянной	-8809
▁машинострое	-8810
▁официальных	-8811
▁содружества	-8812
▁сторонников	-8813
ида	-8814
лёй	-8815
бные	-8816
жном	-8817
▁130	-8818
▁оре	-8819
несли	-8820
север	-8821
▁лоша	-8822
▁сюже	-8823
▁ведом	-8824
▁иорда	-8825
▁подда	-8826
ционную	-8827
▁юнеско	-8828
▁корпуса	-8829
▁морские	-8830
▁октавиа	-8831
▁покрови	-8832
▁послужи	-8833
▁участки	-8834
▁владения	-8835
▁вынужден	-8836
▁немецкие	-8837
▁получило	-8838
▁монастыря	-8839
▁писателей	-8840
▁проживает	-8841
▁королевство	-8842
▁исторический	-8843
ян	-8844
коне	-8845
▁бой	-8846
▁вич	-8847
▁дро	-8848
▁омы	-8849
▁иоси	-8850
▁ниуэ	-8851
▁русь	-8852
▁варша	-8853
▁восем	-8854
▁героя	-8855
▁малой	-8856
▁молит	-8857
▁номер	-8858
▁нормы	-8859
▁париж	-8860
▁песча	-8861
▁шелли	-8862
▁италия	-8863
▁польше	-8864
▁услуги	-8865
▁древнего	-8866
▁мышления	-8867
▁заведения	-8868
▁проживало	-8869
▁тихоокеан	-8870
▁самостоятельно	-8871
▁дипломатические	-8872
ss	-8873
мё	-8874
тё	-8875
влё	-8876
лую	-8877
чле	-8878
▁(7	-8879
="12	-8880
▁кух	-8881
▁мгу	-8882
▁пля	-8883
тский	-8884
▁немно	-8885
▁привя	-8886
▁рынок	-8887
▁полный	-8888
▁святой	-8889
▁частях	-8890
▁бельгии	-8891
▁вавилов	-8892
▁меньшин	-8893
▁назвать	-8894
▁приняла	-8895
▁выделить	-8896
▁родствен	-8897
логическое	-8898
▁признание	-8899
▁количеству	-8900
▁компьютера	-8901
▁расширения	-8902
▁принадлежат	-8903
▁специальных	-8904
▁насчитывалось	-8905
-3	-8906
бру	-8907
▁ip	-8908
анти	-8909
бати	-8910
ндию	-8911
▁1916	-8912
▁вяче	-8913
▁долю	-8914
▁чуть	-8915
▁юсти	-8916
▁полей	-8917
▁приём	-8918
▁закону	-8919
▁занято	-8920
▁кавказ	-8921
▁каждом	-8922
▁углево	-8923
географи	-8924
▁вопросу	-8925
▁закрепи	-8926
▁пограни	-8927
ствование	-8928
▁абстракт	-8929
▁вспомога	-8930
▁продукты	-8931
▁работали	-8932
▁троцкого	-8933
▁небольших	-8934
▁познакоми	-8935
▁продолжал	-8936
▁выступления	-8937
▁компьютеров	-8938
▁мероприятия	-8939
▁поддерживает	-8940
▁государственном	-8941
эт	-8942
чев	-8943
вины	-8944
▁фак	-8945
вшему	-8946
жащих	-8947
летие	-8948
▁мёрт	-8949
герман	-8950
партий	-8951
▁бытия	-8952
▁общих	-8953
▁высшая	-8954
▁дерево	-8955
▁прокоф	-8956
▁регион	-8957
нические	-8958
▁величин	-8959
▁ньютона	-8960
▁расходы	-8961
▁подобных	-8962
▁северных	-8963
▁являлась	-8964
▁действием	-8965
▁балтийского	-8966
▁справедливо	-8967
▁политического	-8968
▁собственности	-8969
pr	-8970
ει	-8971
зуа	-8972
ксем	-8973
фана	-8974
шинё	-8975
щему	-8976
—190	-8977
▁бре	-8978
довая	-8979
▁алма	-8980
▁ната	-8981
▁жанра	-8982
▁притя	-8983
▁токси	-8984
материа	-8985
▁дочери	-8986
▁истины	-8987
▁открыл	-8988
▁прошед	-8989
рийского	-8990
▁советов	-8991
▁сопоста	-8992
▁животные	-8993
▁иванович	-8994
▁известна	-8995
▁компонен	-8996
▁переводе	-8997
▁пострада	-8998
▁принимал	-8999
▁благоприя	-9000
▁расширение	-9001
▁зависимость	-9002
▁религиозной	-9003
▁производстве	-9004
▁соответствующих	-9005
to	-9006
село	-9007
ткой	-9008
▁вста	-9009
▁мифа	-9010
▁надё	-9011
▁флот	-9012
ционно	-9013
▁аэрод	-9014
▁смеси	-9015
ватории	-9016
▁журнал	-9017
▁попыта	-9018
▁реформ	-9019
тируется	-9020
тическую	-9021
▁бюджета	-9022
▁инструк	-9023
▁создано	-9024
▁фильмов	-9025
▁хромато	-9026
петербурге	-9027
▁искусстве	-9028
▁ассоциации	-9029
▁публикации	-9030
▁реальности	-9031
▁исторического	-9032
▁правительству	-9033
ik	-9034
кру	-9035
нду	-9036
чке	-9037
—16	-9038
▁ход	-9039
зацию	-9040
совер	-9041
▁1955	-9042
▁дыры	-9043
▁куби	-9044
▁умно	-9045
тового	-9046
ходили	-9047
▁зерка	-9048
▁краси	-9049
▁необы	-9050
▁обста	-9051
▁расту	-9052
▁сахар	-9053
▁баталь	-9054
▁введён	-9055
▁выигра	-9056
▁землёй	-9057
▁мурман	-9058
▁некото	-9059
▁перепи	-9060
▁поиско	-9061
▁рекорд	-9062
компания	-9063
нический	-9064
▁пунктов	-9065
▁свободу	-9066
▁компанией	-9067
▁перевозки	-9068
▁петроград	-9069
▁американских	-9070
▁исторические	-9071
▁человеческой	-9072
▁многочисленных	-9073
▁соответствующие	-9074
51	-9075
—3	-9076
кни	-9077
нге	-9078
фон	-9079
▁ас	-9080
term	-9081
йорк	-9082
кита	-9083
музы	-9084
орие	-9085
▁ску	-9086
▁1923	-9087
▁1932	-9088
▁ближ	-9089
▁напи	-9090
▁углу	-9091
▁чехо	-9092
льских	-9093
центра	-9094
▁глаза	-9095
▁каким	-9096
▁дефици	-9097
▁лучших	-9098
▁windows	-9099
▁говорил	-9100
▁понятий	-9101
▁серебра	-9102
▁топлива	-9103
▁металлур	-9104
▁перерабо	-9105
▁свободно	-9106
▁семейства	-9107
▁ломоносова	-9108
▁называемых	-9109
▁обнаружены	-9110
▁содержится	-9111
▁объясняется	-9112
59	-9113
ork	-9114
гри	-9115
лио	-9116
рты	-9117
▁эс	-9118
зелё	-9119
миру	-9120
▁бей	-9121
▁бух	-9122
▁дон	-9123
▁лес	-9124
▁тут	-9125
▁час	-9126
штейн	-9127
▁1912	-9128
▁1913	-9129
▁1927	-9130
▁войн	-9131
виться	-9132
ченный	-9133
▁могло	-9134
▁храма	-9135
▁горных	-9136
▁водород	-9137
▁журнале	-9138
▁сатурна	-9139
▁десятков	-9140
▁здоровья	-9141
▁молодёжи	-9142
▁называть	-9143
▁оператор	-9144
▁подписал	-9145
▁предвари	-9146
▁стихотво	-9147
▁хранения	-9148
▁известным	-9149
▁политбюро	-9150
▁советское	-9151
▁швейцарии	-9152
▁обязанности	-9153
▁официальное	-9154
▁предполагает	-9155
▁присутствует	-9156
▁пользователей	-9157
▁располагаются	-9158
=8	-9159
фек	-9160
▁мит	-9161
равни	-9162
▁1911	-9163
▁крае	-9164
▁реме	-9165
▁уезд	-9166
москов	-9167
▁манда	-9168
▁облег	-9169
▁песня	-9170
▁стара	-9171
▁корруп	-9172
▁мелких	-9173
▁прямой	-9174
▁эмпири	-9175
▁ведётся	-9176
▁материи	-9177
▁отверга	-9178
▁учёного	-9179
▁метафизи	-9180
▁плутарха	-9181
▁привести	-9182
▁временных	-9183
▁характерно	-9184
▁обязательно	-9185
▁отсутствуют	-9186
▁освобождения	-9187
▁эксплуатацию	-9188
▁электроэнергии	-9189
дея	-9190
емле	-9191
кона	-9192
куро	-9193
твра	-9194
▁веб	-9195
▁кем	-9196
▁арте	-9197
▁вещи	-9198
▁като	-9199
▁фонд	-9200
▁любое	-9201
▁мюнхе	-9202
▁оценке	-9203
▁выходит	-9204
▁призыва	-9205
▁агломера	-9206
▁половина	-9207
▁эволюции	-9208
▁оказалось	-9209
▁правление	-9210
▁предотвра	-9211
▁заключения	-9212
▁состоялась	-9213
▁федеральный	-9214
▁самоуправления	-9215
ed	-9216
зю	-9217
_12	-9218
ran	-9219
мит	-9220
нны	-9221
▁ra	-9222
="16	-9223
функ	-9224
▁вот	-9225
ковое	-9226
пархи	-9227
▁рель	-9228
жаются	-9229
▁взаим	-9230
▁мудро	-9231
▁наших	-9232
▁прину	-9233
▁снима	-9234
▁сфера	-9235
▁тормо	-9236
▁услов	-9237
▁выбира	-9238
▁социал	-9239
низирова	-9240
▁показал	-9241
▁показали	-9242
▁переимено	-9243
▁протестант	-9244
▁расстоянии	-9245
▁регулирова	-9246
▁оказывается	-9247
▁официальный	-9248
▁определённой	-9249
▁представителями	-9250
ens	-9251
лке	-9252
▁34	-9253
оном	-9254
рили	-9255
крове	-9256
носит	-9257
▁вдох	-9258
▁днев	-9259
▁кики	-9260
▁орфо	-9261
▁тала	-9262
▁чили	-9263
ностях	-9264
нскими	-9265
▁горно	-9266
▁канал	-9267
▁конфи	-9268
▁машин	-9269
▁мисти	-9270
▁обмен	-9271
▁орден	-9272
▁превы	-9273
▁решил	-9274
летнего	-9275
лизацию	-9276
▁единой	-9277
▁знание	-9278
▁издели	-9279
▁лагран	-9280
▁пушкин	-9281
▁старше	-9282
▁набереж	-9283
▁туризма	-9284
▁частные	-9285
формирова	-9286
▁алфавита	-9287
▁октавиан	-9288
▁microsoft	-9289
▁концепция	-9290
▁документов	-9291
▁приходилось	-9292
▁государствами	-9293
▁распределение	-9294
▁здравоохранения	-9295
-7	-9296
бие	-9297
бка	-9298
пах	-9299
▁1/	-9300
▁an	-9301
бель	-9302
льва	-9303
пами	-9304
▁гей	-9305
▁мла	-9306
логом	-9307
▁1931	-9308
▁ядро	-9309
▁труды	-9310
пределё	-9311
▁штатов	-9312
▁механизм	-9313
▁офицеров	-9314
▁рейтинге	-9315
▁последним	-9316
▁системати	-9317
▁следующем	-9318
▁константино	-9319
▁национально	-9320
▁азербайджана	-9321
amp	-9322
гона	-9323
если	-9324
пари	-9325
пыта	-9326
▁ввс	-9327
▁лев	-9328
▁эри	-9329
барди	-9330
▁дизе	-9331
▁изба	-9332
▁клие	-9333
▁маха	-9334
▁чему	-9335
▁видом	-9336
▁живых	-9337
▁сверд	-9338
▁содей	-9339
циирова	-9340
▁классы	-9341
▁привер	-9342
▁отчасти	-9343
▁перешла	-9344
▁препара	-9345
▁привела	-9346
▁выпадает	-9347
▁живописи	-9348
▁отставку	-9349
▁праздник	-9350
▁предметом	-9351
▁возрождения	-9352
▁тысячелетия	-9353
▁рассматривать	-9354
жь	-9355
лаг	-9356
рту	-9357
щал	-9358
логе	-9359
▁2,5	-9360
новый	-9361
▁льда	-9362
▁набо	-9363
▁улиц	-9364
женных	-9365
нибудь	-9366
▁ветра	-9367
▁корей	-9368
▁проду	-9369
▁сумма	-9370
▁феода	-9371
▁алфави	-9372
▁намере	-9373
▁учился	-9374
▁вызвало	-9375
▁кардина	-9376
▁наимень	-9377
▁природа	-9378
▁железная	-9379
▁факторов	-9380
▁заседании	-9381
▁материала	-9382
▁некоторыми	-9383
▁национальные	-9384
▁промышленного	-9385
.&	-9386
=3	-9387
="1	-9388
дел	-9389
▁1.	-9390
▁5-	-9391
роде	-9392
тику	-9393
▁жив	-9394
▁зла	-9395
▁ово	-9396
▁хар	-9397
метро	-9398
нялся	-9399
числя	-9400
▁обно	-9401
сексуа	-9402
▁выбро	-9403
▁правя	-9404
▁целый	-9405
▁кольца	-9406
▁флорен	-9407
▁входили	-9408
▁доступа	-9409
▁манихей	-9410
▁равнины	-9411
▁третьей	-9412
▁участок	-9413
▁вспомина	-9414
▁границей	-9415
▁комиссия	-9416
▁переводи	-9417
▁протокол	-9418
▁торговых	-9419
▁координат	-9420
▁плотности	-9421
▁понимание	-9422
▁поселение	-9423
▁преподава	-9424
▁симметрии	-9425
▁инициативе	-9426
▁обнаружива	-9427
▁характерны	-9428
▁установлена	-9429
▁производится	-9430
od	-9431
рея	-9432
чна	-9433
▁жю	-9434
гаме	-9435
▁вку	-9436
▁зал	-9437
ченко	-9438
▁вспы	-9439
▁угля	-9440
▁штур	-9441
▁ближе	-9442
▁маори	-9443
▁призы	-9444
▁рынка	-9445
▁числи	-9446
ровской	-9447
▁годами	-9448
▁зарабо	-9449
▁изложе	-9450
▁откуда	-9451
▁теорий	-9452
▁мужчины	-9453
▁научный	-9454
▁основал	-9455
▁реализу	-9456
▁соверши	-9457
▁аппарата	-9458
▁основное	-9459
▁отождест	-9460
▁произошли	-9461
▁следствие	-9462
▁свободного	-9463
▁химические	-9464
▁автомобилей	-9465
▁сохранилось	-9466
▁философских	-9467
▁совокупность	-9468
"-	-9469
up	-9470
мян	-9471
чет	-9472
чье	-9473
▁43	-9474
стки	-9475
▁700	-9476
▁дар	-9477
▁кад	-9478
▁оле	-9479
собле	-9480
▁горь	-9481
▁колё	-9482
▁тока	-9483
▁шири	-9484
▁драма	-9485
▁филиа	-9486
▁грузов	-9487
▁дивизи	-9488
▁кварти	-9489
▁кишинё	-9490
▁самыми	-9491
▁формой	-9492
▁царицы	-9493
▁лидеров	-9494
▁металла	-9495
▁вещество	-9496
▁участием	-9497
▁художников	-9498
▁организацию	-9499
▁проводились	-9500
ip	-9501
na	-9502
дка	-9503
зву	-9504
пан	-9505
слы	-9506
="18	-9507
номо	-9508
чика	-9509
▁коп	-9510
вости	-9511
ровок	-9512
▁леге	-9513
▁съём	-9514
▁экза	-9515
женный	-9516
женцев	-9517
нилась	-9518
▁ансам	-9519
▁замок	-9520
стройка	-9521
▁поступ	-9522
▁примор	-9523
▁созыва	-9524
▁доходов	-9525
▁подверг	-9526
▁введение	-9527
▁называет	-9528
▁заведений	-9529
▁интересов	-9530
▁наибольшее	-9531
▁обеспечить	-9532
▁естественных	-9533
▁человечества	-9534
жка	-9535
▁49	-9536
дной	-9537
мита	-9538
поле	-9539
цева	-9540
▁ниц	-9541
▁хай	-9542
берга	-9543
ждено	-9544
обрёл	-9545
▁крон	-9546
▁пола	-9547
▁прес	-9548
▁раст	-9549
▁спла	-9550
▁амино	-9551
▁квали	-9552
▁киеве	-9553
▁массу	-9554
▁казани	-9555
▁автором	-9556
▁елизаве	-9557
▁занимал	-9558
▁историо	-9559
▁сложных	-9560
▁биографи	-9561
▁строение	-9562
▁известной	-9563
▁кристалли	-9564
▁последовательно	-9565
уро	-9566
валу	-9567
вати	-9568
меха	-9569
▁gnu	-9570
▁зон	-9571
▁ибо	-9572
▁люб	-9573
▁мак	-9574
▁ого	-9575
▁сад	-9576
▁дают	-9577
▁диск	-9578
▁духа	-9579
▁жить	-9580
▁ясно	-9581
тирует	-9582
▁вытес	-9583
▁мысль	-9584
▁слобо	-9585
▁андрей	-9586
▁белого	-9587
▁данная	-9588
▁отсюда	-9589
▁привёл	-9590
▁андропо	-9591
▁опровер	-9592
▁открыты	-9593
▁падения	-9594
▁футболу	-9595
▁морского	-9596
▁проектов	-9597
▁менделеев	-9598
▁недостато	-9599
▁интеллекта	-9600
▁отсутствия	-9601
▁независимых	-9602
▁утверждения	-9603
ica	-9604
морф	-9605
▁раб	-9606
▁эду	-9607
рений	-9608
сский	-9609
▁1952	-9610
▁гипа	-9611
▁дата	-9612
▁насы	-9613
ваемые	-9614
▁борис	-9615
▁брата	-9616
▁истре	-9617
▁лесов	-9618
▁попол	-9619
▁поход	-9620
▁рынке	-9621
▁сутки	-9622
▁фиджи	-9623
ловский	-9624
▁музыку	-9625
▁прочие	-9626
▁тихого	-9627
значения	-9628
▁критике	-9629
▁обратно	-9630
▁повторя	-9631
▁геометрии	-9632
▁молекуляр	-9633
▁вычисления	-9634
▁фотографии	-9635
▁заболевания	-9636
▁недостаточно	-9637
▁расположенный	-9638
▁строительстве	-9639
_10	-9640
бки	-9641
най	-9642
шаф	-9643
▁44	-9644
▁рю	-9645
дону	-9646
зией	-9647
сила	-9648
▁тью	-9649
тская	-9650
▁виду	-9651
▁мали	-9652
▁эфио	-9653
титься	-9654
щались	-9655
▁любых	-9656
▁нераз	-9657
▁пусть	-9658
▁сезон	-9659
формати	-9660
▁войско	-9661
▁епархи	-9662
▁заложе	-9663
▁люксем	-9664
▁отряда	-9665
▁словом	-9666
▁изделий	-9667
▁позицию	-9668
▁причины	-9669
▁символы	-9670
▁бассейна	-9671
▁материал	-9672
▁молекулы	-9673
▁сложения	-9674
▁цицерона	-9675
▁возглавил	-9676
▁двигателя	-9677
▁китайской	-9678
▁последняя	-9679
▁следующее	-9680
▁культурных	-9681
▁работников	-9682
▁сторонники	-9683
▁стремление	-9684
▁императором	-9685
▁центральных	-9686
ld	-9687
веды	-9688
вказ	-9689
преж	-9690
теро	-9691
▁нея	-9692
▁моро	-9693
вилось	-9694
▁блоки	-9695
▁индия	-9696
▁одино	-9697
▁опыта	-9698
▁десять	-9699
▁дороге	-9700
▁иоанна	-9701
▁летопи	-9702
▁неприя	-9703
▁нижней	-9704
▁повтор	-9705
▁заметно	-9706
▁корабле	-9707
▁намного	-9708
▁поздней	-9709
▁прилега	-9710
▁решению	-9711
▁церквей	-9712
▁выступал	-9713
▁пирамиды	-9714
▁рассчита	-9715
▁римского	-9716
▁абсолютно	-9717
▁атмосфере	-9718
▁княжество	-9719
▁неоплатони	-9720
▁производству	-9721
▁экономические	-9722
";	-9723
вне	-9724
нён	-9725
чув	-9726
▁(8	-9727
...&	-9728
ваны	-9729
▁дух	-9730
стеро	-9731
▁1954	-9732
зрения	-9733
ставра	-9734
христи	-9735
▁актуа	-9736
▁близо	-9737
▁брига	-9738
▁гранж	-9739
▁кариб	-9740
▁немед	-9741
▁пород	-9742
▁борьбу	-9743
▁венгер	-9744
▁обмена	-9745
▁описал	-9746
▁владель	-9747
▁молекул	-9748
▁перешли	-9749
▁украина	-9750
▁горбачёв	-9751
▁молдавии	-9752
▁пережива	-9753
▁поступил	-9754
▁стациона	-9755
▁восточных	-9756
▁продукция	-9757
▁скончался	-9758
▁выделяется	-9759
▁противника	-9760
▁разделение	-9761
▁российские	-9762
▁использовалась	-9763
́й	-9764
маш	-9765
▁эд	-9766
лите	-9767
ллер	-9768
▁шли	-9769
дента	-9770
милли	-9771
созда	-9772
▁гимн	-9773
▁избы	-9774
▁кров	-9775
▁пары	-9776
▁ремо	-9777
▁тези	-9778
лятиви	-9779
▁азиат	-9780
▁газов	-9781
▁тремя	-9782
новения	-9783
▁армией	-9784
▁добычи	-9785
▁египта	-9786
▁конвен	-9787
▁платон	-9788
▁прости	-9789
▁коммуни	-9790
▁полиции	-9791
▁русское	-9792
▁старший	-9793
нического	-9794
▁железные	-9795
▁предложи	-9796
▁способны	-9797
▁торговле	-9798
▁возникают	-9799
▁организма	-9800
▁произошла	-9801
▁создавать	-9802
▁фестиваль	-9803
▁нидерландов	-9804
▁установлено	-9805
сит	-9806
тим	-9807
▁ap	-9808
тинг	-9809
▁ере	-9810
▁оча	-9811
▁базы	-9812
▁евге	-9813
▁марк	-9814
▁ниге	-9815
▁охла	-9816
▁резо	-9817
▁часо	-9818
▁марка	-9819
▁пояса	-9820
▁радиа	-9821
вленный	-9822
▁диссер	-9823
▁машина	-9824
▁попада	-9825
▁проспе	-9826
▁режиме	-9827
▁совсем	-9828
▁депутат	-9829
▁мировоз	-9830
▁напряжё	-9831
▁пределы	-9832
▁остались	-9833
▁отказыва	-9834
▁суверени	-9835
▁экземпля	-9836
▁важнейших	-9837
▁вильгельм	-9838
▁переговоры	-9839
▁разработка	-9840
▁космический	-9841
▁особенностей	-9842
▁христианской	-9843
▁дополнительные	-9844
мб	-9845
ame	-9846
хой	-9847
▁he	-9848
емом	-9849
нете	-9850
файл	-9851
▁140	-9852
▁бле	-9853
▁пой	-9854
чному	-9855
▁гроз	-9856
▁иуда	-9857
▁сосу	-9858
началь	-9859
▁метра	-9860
▁тожде	-9861
ждённых	-9862
▁алкого	-9863
▁дальше	-9864
▁образа	-9865
▁антисфе	-9866
▁главное	-9867
▁доброде	-9868
▁испания	-9869
▁компакт	-9870
▁ориента	-9871
▁остался	-9872
▁событие	-9873
▁создаёт	-9874
▁мощность	-9875
▁отдельно	-9876
▁возглавля	-9877
▁западного	-9878
▁хозяйстве	-9879
▁населённых	-9880
▁происходят	-9881
▁химической	-9882
▁управлением	-9883
▁литературного	-9884
ca	-9885
em	-9886
нков	-9887
▁сты	-9888
нство	-9889
▁граф	-9890
▁лиги	-9891
▁нуле	-9892
кварти	-9893
▁архие	-9894
▁битве	-9895
▁делам	-9896
▁перви	-9897
▁перми	-9898
▁подпо	-9899
▁схола	-9900
▁финан	-9901
востока	-9902
▁бронзо	-9903
▁делать	-9904
▁европу	-9905
западной	-9906
▁будущем	-9907
▁бомбарди	-9908
▁кирибати	-9909
▁вариантов	-9910
▁городская	-9911
▁космонавт	-9912
▁показатель	-9913
▁фотоаппара	-9914
▁культурного	-9915
▁образовании	-9916
▁американской	-9917
▁деятельностью	-9918
1-	-9919
2)	-9920
ime	-9921
выс	-9922
гим	-9923
кля	-9924
▁39	-9925
бной	-9926
йдег	-9927
рачи	-9928
стам	-9929
вость	-9930
салют	-9931
тропи	-9932
▁имён	-9933
религи	-9934
▁свято	-9935
▁смесь	-9936
▁союзе	-9937
▁храни	-9938
▁важных	-9939
▁ледови	-9940
▁локомо	-9941
▁орбиты	-9942
▁раздра	-9943
▁разума	-9944
▁резона	-9945
▁сибирь	-9946
▁екатери	-9947
▁красный	-9948
▁называл	-9949
▁научная	-9950
▁обсужда	-9951
▁столько	-9952
▁взглядов	-9953
▁возникло	-9954
▁касается	-9955
▁кинотеат	-9956
▁торговые	-9957
▁учеников	-9958
▁возможных	-9959
▁материалы	-9960
▁новоросси	-9961
▁установить	-9962
▁вероятность	-9963
▁элементарных	-9964
ti	-9965
▁2.	-9966
▁64	-9967
="10	-9968
виле	-9969
воды	-9970
нтом	-9971
▁цир	-9972
нером	-9973
ризма	-9974
ровку	-9975
центр	-9976
щался	-9977
▁бана	-9978
▁ведь	-9979
▁небо	-9980
▁село	-9981
▁слой	-9982
▁сток	-9983
▁фрак	-9984
▁ябло	-9985
льские	-9986
нскому	-9987
тивную	-9988
▁гипер	-9989
▁карье	-9990
▁воздух	-9991
▁повыша	-9992
▁северу	-9993
▁служат	-9994
▁съезда	-9995
▁тексти	-9996
прежнему	-9997
▁ведущих	-9998
▁великих	-9999
▁воронеж	-10000
▁диалект	-10001
▁награды	-10002
▁сектора	-10003
▁упомяну	-10004
▁символом	-10005
▁сущности	-10006
▁третьего	-10007
▁конфликта	-10008
▁различным	-10009
▁новокузнец	-10010
▁сооружений	-10011
▁вероятности	-10012
tel	-10013
▁тр	-10014
жить	-10015
моло	-10016
тины	-10017
▁глю	-10018
▁дож	-10019
визио	-10020
▁апел	-10021
▁гуми	-10022
▁диза	-10023
▁дона	-10024
▁кори	-10025
▁куба	-10026
▁мака	-10027
рением	-10028
стская	-10029
▁малай	-10030
▁отказ	-10031
▁репти	-10032
▁слуша	-10033
▁сцена	-10034
▁талли	-10035
програм	-10036
ризации	-10037
ющимися	-10038
▁венеры	-10039
▁охраны	-10040
▁фильме	-10041
тируются	-10042
▁вьетнам	-10043
▁десятки	-10044
▁израиле	-10045
▁простей	-10046
▁рыболов	-10047
▁историки	-10048
▁убийства	-10049
▁природные	-10050
▁провинций	-10051
▁уравнение	-10052
▁участники	-10053
ориентирова	-10054
▁называемая	-10055
▁музыкальных	-10056
лиз	-10057
нар	-10058
низ	-10059
хим	-10060
▁le	-10061
▁бах	-10062
▁най	-10063
▁тёп	-10064
▁цик	-10065
;...&	-10066
▁1907	-10067
▁горе	-10068
▁наса	-10069
▁рыца	-10070
▁серд	-10071
▁спец	-10072
▁тема	-10073
▁фору	-10074
▁измен	-10075
▁канта	-10076
▁морфо	-10077
▁точек	-10078
венства	-10079
▁библей	-10080
▁версий	-10081
▁выводу	-10082
▁другую	-10083
▁железа	-10084
▁заняла	-10085
▁массив	-10086
▁разгро	-10087
▁ростом	-10088
▁фильма	-10089
▁дмитрий	-10090
▁кабинет	-10091
▁многими	-10092
▁наличии	-10093
▁царство	-10094
▁конечном	-10095
▁огромное	-10096
▁предметы	-10097
▁проблему	-10098
▁маршрутов	-10099
▁нарушения	-10100
▁принципов	-10101
▁стоимости	-10102
▁активности	-10103
▁наблюдений	-10104
▁украинской	-10105
▁современное	-10106
▁центральная	-10107
▁достоевского	-10108
▁собственного	-10109
▁существовала	-10110
und	-10111
бит	-10112
дки	-10113
жуа	-10114
кол	-10115
нкт	-10116
сор	-10117
ура	-10118
веро	-10119
двое	-10120
моро	-10121
торе	-10122
▁ате	-10123
▁1915	-10124
▁госу	-10125
▁заба	-10126
▁замы	-10127
▁селе	-10128
▁тамо	-10129
▁фазо	-10130
летней	-10131
▁берег	-10132
▁запла	-10133
▁палео	-10134
▁сотни	-10135
влялись	-10136
носится	-10137
▁знаков	-10138
▁приста	-10139
▁развед	-10140
▁растёт	-10141
▁сексуа	-10142
▁сроком	-10143
▁хайдег	-10144
▁венгрии	-10145
▁именова	-10146
▁корабль	-10147
▁неподви	-10148
▁полноце	-10149
▁размера	-10150
▁сильное	-10151
▁советом	-10152
▁западная	-10153
▁интервью	-10154
▁неофициа	-10155
▁пересека	-10156
▁различают	-10157
▁утверждён	-10158
▁экваториа	-10159
▁вычислений	-10160
▁параметров	-10161
▁подготовке	-10162
▁утверждение	-10163
▁значительный	-10164
▁концентрации	-10165
▁оборудования	-10166
▁общественный	-10167
▁сопротивление	-10168
▁сотрудничества	-10169
po	-10170
где	-10171
неф	-10172
чом	-10173
="15	-10174
вара	-10175
сном	-10176
▁мра	-10177
▁хор	-10178
брово	-10179
дного	-10180
теран	-10181
▁вход	-10182
▁кофе	-10183
▁тере	-10184
▁тома	-10185
испыта	-10186
нового	-10187
▁индуи	-10188
▁иоган	-10189
▁кабба	-10190
▁людви	-10191
▁банкно	-10192
▁декора	-10193
▁заняли	-10194
▁ссылки	-10195
▁храмов	-10196
▁воздухе	-10197
▁кислота	-10198
▁получив	-10199
▁разными	-10200
▁ребёнка	-10201
▁термино	-10202
▁кандидат	-10203
▁подписан	-10204
▁церковно	-10205
▁количестве	-10206
▁областного	-10207
▁нефтепродук	-10208
▁соревнования	-10209
бет	-10210
нги	-10211
рео	-10212
▁se	-10213
▁11,	-10214
▁гиб	-10215
▁кай	-10216
▁воин	-10217
▁пожи	-10218
▁холо	-10219
▁вузов	-10220
▁герои	-10221
▁запол	-10222
▁импор	-10223
▁музеи	-10224
▁такую	-10225
▁южных	-10226
▁защиту	-10227
▁неделю	-10228
▁англича	-10229
▁военную	-10230
▁гвардей	-10231
▁моделей	-10232
▁публици	-10233
▁упорядо	-10234
▁алюминия	-10235
▁внешнего	-10236
▁возможным	-10237
▁поражения	-10238
▁построено	-10239
▁христиане	-10240
▁художника	-10241
▁чехослова	-10242
▁интерпрета	-10243
▁показывает	-10244
▁построения	-10245
▁соотношение	-10246
▁участвовали	-10247
▁значительным	-10248
▁транспортных	-10249
сп	-10250
ers	-10251
ine	-10252
вий	-10253
гей	-10254
упо	-10255
▁юм	-10256
вида	-10257
насе	-10258
тяну	-10259
▁гва	-10260
▁мав	-10261
откры	-10262
▁двои	-10263
▁инер	-10264
▁ряду	-10265
▁стен	-10266
сирова	-10267
устрой	-10268
▁аниме	-10269
▁имело	-10270
▁общин	-10271
▁успех	-10272
▁водных	-10273
▁каждое	-10274
▁кресто	-10275
▁размно	-10276
видимому	-10277
▁введены	-10278
▁исполня	-10279
▁поездов	-10280
▁проекты	-10281
▁пропага	-10282
▁городами	-10283
▁историко	-10284
▁остаются	-10285
▁размеров	-10286
▁религией	-10287
▁существа	-10288
▁польского	-10289
▁происходя	-10290
▁состояний	-10291
▁популярным	-10292
▁появлением	-10293
▁предпочита	-10294
▁национальным	-10295
▁письменности	-10296
▁православных	-10297
▁программного	-10298
▁постановление	-10299
▁распределения	-10300
▁восстановление	-10301
—1	-10302
дию	-10303
ляет	-10304
несё	-10305
сена	-10306
ьева	-10307
лился	-10308
сылки	-10309
▁кост	-10310
▁моко	-10311
▁обыча	-10312
▁поток	-10313
венство	-10314
▁быстры	-10315
▁восемь	-10316
▁конста	-10317
▁лондон	-10318
▁образе	-10319
▁поправ	-10320
▁прибыл	-10321
▁тувалу	-10322
▁августи	-10323
▁являясь	-10324
▁доминика	-10325
▁крупными	-10326
▁культуру	-10327
▁объектом	-10328
▁педагоги	-10329
▁пригород	-10330
▁строения	-10331
▁воздушных	-10332
▁восточная	-10333
▁екатерины	-10334
▁дальнейшее	-10335
▁менделеева	-10336
▁настоящего	-10337
▁естественно	-10338
▁планируется	-10339
▁рождаемости	-10340
4.	-10341
con	-10342
зам	-10343
кал	-10344
обы	-10345
сце	-10346
высо	-10347
▁зао	-10348
▁умо	-10349
гмати	-10350
особе	-10351
тинже	-10352
▁саму	-10353
▁фале	-10354
тельны	-10355
▁актёр	-10356
▁калия	-10357
▁нужда	-10358
▁самих	-10359
▁бывших	-10360
▁входил	-10361
▁лидера	-10362
▁нашего	-10363
▁особый	-10364
▁пифаго	-10365
▁подъём	-10366
▁сократ	-10367
▁стадии	-10368
тическом	-10369
▁военным	-10370
▁главная	-10371
▁ландшаф	-10372
▁развива	-10373
▁сложные	-10374
▁соединя	-10375
▁теорией	-10376
▁массовые	-10377
▁местоиме	-10378
▁начинают	-10379
▁консульта	-10380
▁плоскости	-10381
▁похоронен	-10382
▁советским	-10383
▁указывают	-10384
▁известными	-10385
▁инвестиций	-10386
▁применяются	-10387
▁общественной	-10388
▁искусственного	-10389
-6	-10390
pl	-10391
200	-10392
_13	-10393
вна	-10394
жих	-10395
хаи	-10396
▁яв	-10397
пуск	-10398
▁ума	-10399
листы	-10400
мышлен	-10401
начале	-10402
▁блава	-10403
▁викто	-10404
▁дожде	-10405
▁испра	-10406
▁кепле	-10407
▁медве	-10408
▁нерав	-10409
▁суммы	-10410
▁точку	-10411
▁эпизо	-10412
надцать	-10413
станций	-10414
▁австро	-10415
▁гибели	-10416
▁звезда	-10417
▁какого	-10418
▁корона	-10419
▁методи	-10420
▁новому	-10421
▁номера	-10422
▁портре	-10423
▁товари	-10424
▁церемо	-10425
▁цивили	-10426
▁неправи	-10427
▁религий	-10428
▁энергию	-10429
▁божества	-10430
▁достигла	-10431
▁разговор	-10432
▁соседних	-10433
▁традиций	-10434
▁разделена	-10435
▁установил	-10436
▁философию	-10437
▁основанный	-10438
▁разработке	-10439
▁гражданских	-10440
▁территориях	-10441
▁существовать	-10442
▁расположенных	-10443
▁распространён	-10444
;/	-10445
ay	-10446
ho	-10447
one	-10448
глу	-10449
зон	-10450
оси	-10451
уме	-10452
чьи	-10453
бить	-10454
тема	-10455
▁зоо	-10456
▁цеп	-10457
вичем	-10458
товая	-10459
▁богу	-10460
▁уточ	-10461
▁фила	-10462
▁целе	-10463
зирует	-10464
компью	-10465
▁авраа	-10466
▁герак	-10467
▁герце	-10468
▁леони	-10469
▁планк	-10470
новский	-10471
▁дискре	-10472
▁планка	-10473
▁приспо	-10474
▁целост	-10475
▁возобно	-10476
▁столицу	-10477
▁чувстви	-10478
▁реставра	-10479
▁четверти	-10480
▁калиброво	-10481
▁оккупации	-10482
▁исполнения	-10483
▁образуются	-10484
▁отправился	-10485
▁современным	-10486
▁свидетельства	-10487
▁существовании	-10488
▁университетов	-10489
йки	-10490
рис	-10491
сны	-10492
▁me	-10493
▁pe	-10494
chem	-10495
горь	-10496
добы	-10497
ксид	-10498
ману	-10499
риса	-10500
рпла	-10501
садо	-10502
▁кер	-10503
▁ока	-10504
▁юно	-10505
актив	-10506
довые	-10507
печата	-10508
честву	-10509
▁лекар	-10510
▁набра	-10511
▁павла	-10512
▁полка	-10513
▁приез	-10514
▁реаги	-10515
стского	-10516
▁играют	-10517
▁конден	-10518
▁низкой	-10519
▁энерго	-10520
совершен	-10521
▁иванова	-10522
▁обычных	-10523
▁проника	-10524
▁рабочие	-10525
▁цицерон	-10526
▁алгебраи	-10527
▁изобрета	-10528
▁объединя	-10529
▁традиция	-10530
▁индонезии	-10531
▁кислорода	-10532
▁астрономии	-10533
▁неопределё	-10534
▁социальная	-10535
▁компонентов	-10536
▁екатеринбург	-10537
xx	-10538
бей	-10539
мба	-10540
оле	-10541
▁do	-10542
▁въ	-10543
▁ях	-10544
гром	-10545
гура	-10546
двор	-10547
защи	-10548
ленд	-10549
чами	-10550
▁лек	-10551
▁миф	-10552
▁1951	-10553
▁имму	-10554
▁иные	-10555
▁кант	-10556
▁мега	-10557
▁мифы	-10558
▁реку	-10559
▁слия	-10560
воздуш	-10561
жников	-10562
новича	-10563
▁адрес	-10564
▁видел	-10565
▁визуа	-10566
▁дворе	-10567
▁защит	-10568
▁мисси	-10569
слежива	-10570
▁библио	-10571
▁высшим	-10572
▁здании	-10573
▁рукопи	-10574
▁сервер	-10575
тельному	-10576
▁армения	-10577
▁деревни	-10578
▁перешёл	-10579
министром	-10580
▁бо́льшая	-10581
▁бортинже	-10582
▁исповеду	-10583
▁народная	-10584
▁художник	-10585
▁документы	-10586
▁мощностью	-10587
▁объяснить	-10588
▁октавиана	-10589
▁проходили	-10590
▁самолётов	-10591
▁факультет	-10592
▁демократии	-10593
▁известного	-10594
▁исполнение	-10595
_8	-10596
бла	-10597
деш	-10598
узе	-10599
▁(9	-10600
▁нк	-10601
▁пр	-10602
рным	-10603
эрто	-10604
▁(1,	-10605
▁опу	-10606
скрип	-10607
▁1500	-10608
▁кука	-10609
▁ману	-10610
▁трав	-10611
которы	-10612
лённый	-10613
▁битвы	-10614
▁водоё	-10615
▁граду	-10616
▁декре	-10617
▁живёт	-10618
▁корея	-10619
▁немцы	-10620
▁никто	-10621
▁август	-10622
▁важное	-10623
▁округе	-10624
▁палата	-10625
ствующие	-10626
▁задачей	-10627
▁заповед	-10628
▁признал	-10629
▁трансля	-10630
▁фабрика	-10631
▁чувства	-10632
▁бразилии	-10633
▁вавилова	-10634
▁единства	-10635
▁симметри	-10636
▁маринеско	-10637
▁сообщений	-10638
▁фотографи	-10639
▁природного	-10640
▁разделения	-10641
▁воздействия	-10642
▁европейский	-10643
▁конституцию	-10644
▁ликвидирова	-10645
▁обозначение	-10646
▁единственной	-10647
▁пользователя	-10648
▁циолковского	-10649
▁представлений	-10650
▁рассматривает	-10651
▁увеличивается	-10652
be	-10653
льф	-10654
▁85	-10655
ката	-10656
цкая	-10657
ёлок	-10658
▁тща	-10659
описа	-10660
▁мери	-10661
▁хозя	-10662
большо	-10663
▁возле	-10664
▁кенне	-10665
▁нейро	-10666
▁намест	-10667
▁народы	-10668
▁неизбе	-10669
▁резолю	-10670
▁введена	-10671
▁методом	-10672
▁остатки	-10673
▁пригото	-10674
▁уменьши	-10675
▁условно	-10676
космонавт	-10677
▁гипотезы	-10678
▁обнаружил	-10679
▁постсовет	-10680
▁телевизио	-10681
▁переворота	-10682
▁предположение	-10683
▁математических	-10684
чне	-10685
="17	-10686
дила	-10687
муля	-10688
щийся	-10689
▁веку	-10690
▁лежа	-10691
▁руса	-10692
▁суть	-10693
▁шриф	-10694
▁этап	-10695
щённые	-10696
▁вмеша	-10697
▁вышли	-10698
▁прово	-10699
▁суффи	-10700
▁улица	-10701
▁высший	-10702
▁ошибок	-10703
▁полосы	-10704
▁сложно	-10705
▁деклара	-10706
▁мотоцик	-10707
▁удоволь	-10708
▁провести	-10709
▁рассказа	-10710
▁свердлов	-10711
▁городское	-10712
▁написания	-10713
▁фиксирова	-10714
▁восточного	-10715
▁парламенте	-10716
▁телевидения	-10717
▁католической	-10718
▁обслуживания	-10719
▁возникновение	-10720
ba	-10721
́в	-10722
ом	-10723
сю	-10724
фф	-10725
—4	-10726
—5	-10727
эле	-10728
▁47	-10729
▁56	-10730
гать	-10731
кино	-10732
лией	-10733
рида	-10734
фель	-10735
▁бир	-10736
кроме	-10737
сенко	-10738
союза	-10739
▁ауди	-10740
▁байт	-10741
голосо	-10742
▁inter	-10743
▁вовсе	-10744
▁греки	-10745
▁ницше	-10746
▁озёра	-10747
▁ошибо	-10748
▁повре	-10749
▁серви	-10750
▁среда	-10751
▁сыном	-10752
▁бывшей	-10753
▁запрет	-10754
▁мотива	-10755
▁оборот	-10756
▁ошибки	-10757
▁полеми	-10758
▁приказ	-10759
▁смогли	-10760
▁старой	-10761
▁третья	-10762
▁центры	-10763
особенно	-10764
▁алексей	-10765
▁оборони	-10766
▁харьков	-10767
▁активное	-10768
▁гагарина	-10769
▁занимала	-10770
логическим	-10771
▁восточном	-10772
▁османской	-10773
▁проведена	-10774
▁революцио	-10775
▁точностью	-10776
▁восприятие	-10777
▁увеличения	-10778
▁иностранные	-10779
▁коэффициент	-10780
▁технических	-10781
▁традиционные	-10782
▁месторождений	-10783
-5	-10784
вец	-10785
▁ям	-10786
голо	-10787
есте	-10788
поне	-10789
шина	-10790
эффе	-10791
слави	-10792
стора	-10793
▁анне	-10794
▁апол	-10795
▁макс	-10796
▁убит	-10797
знания	-10798
интере	-10799
▁гармо	-10800
▁джона	-10801
▁кирпи	-10802
▁лорен	-10803
▁павел	-10804
▁сопер	-10805
▁черте	-10806
времени	-10807
▁греков	-10808
▁сезона	-10809
▁твёрды	-10810
▁цветов	-10811
▁вопроса	-10812
▁имеющий	-10813
▁посёлок	-10814
▁простой	-10815
▁варианта	-10816
▁избежать	-10817
▁напрямую	-10818
▁переводы	-10819
▁рабочего	-10820
▁военнослу	-10821
▁вторжения	-10822
▁вынуждены	-10823
▁отражение	-10824
▁губернатор	-10825
▁португалии	-10826
▁свойствами	-10827
“,	-10828
com	-10829
="19	-10830
миль	-10831
уров	-10832
докса	-10833
ксида	-10834
сокра	-10835
▁вера	-10836
▁кипе	-10837
▁рито	-10838
▁тюрк	-10839
▁шухе	-10840
ковыми	-10841
логией	-10842
ниться	-10843
▁знаки	-10844
▁новом	-10845
▁общую	-10846
▁адреса	-10847
▁лёгких	-10848
▁хокинг	-10849
▁аммиака	-10850
▁василье	-10851
▁выдвину	-10852
▁занятия	-10853
▁отметил	-10854
▁подхода	-10855
▁богослов	-10856
▁релятиви	-10857
▁доброволь	-10858
▁календарь	-10859
▁оппозиции	-10860
▁латинского	-10861
▁находилось	-10862
▁элементами	-10863
▁достоевский	-10864
▁последствия	-10865
▁развиваться	-10866
▁единственная	-10867
▁политический	-10868
ok	-10869
ts	-10870
гон	-10871
▁52	-10872
▁6-	-10873
▁ут	-10874
венг	-10875
▁гдр	-10876
ровке	-10877
споли	-10878
▁азов	-10879
▁орто	-10880
▁осло	-10881
▁родов	-10882
▁скота	-10883
▁адмира	-10884
▁канала	-10885
▁немало	-10886
▁окисле	-10887
▁рассел	-10888
▁стремя	-10889
▁съезде	-10890
▁сыграл	-10891
▁буддизм	-10892
▁исключа	-10893
▁налогов	-10894
▁посетил	-10895
▁привиле	-10896
▁проходя	-10897
▁раннего	-10898
▁юстиции	-10899
▁гипотеза	-10900
▁границах	-10901
▁принципу	-10902
▁советско	-10903
▁квантовая	-10904
▁экономику	-10905
▁московском	-10906
▁расследова	-10907
▁стандартной	-10908
▁генерального	-10909
▁министерство	-10910
▁пользоваться	-10911
▁доказательства	-10912
▁ответственность	-10913
.-	-10914
_7	-10915
кия	-10916
руя	-10917
▁46	-10918
мены	-10919
ндро	-10920
сомо	-10921
тари	-10922
яния	-10923
▁бел	-10924
▁гай	-10925
▁гэс	-10926
▁мон	-10927
▁шла	-10928
▁божи	-10929
▁брак	-10930
▁нами	-10931
▁тера	-10932
▁вален	-10933
▁камбо	-10934
▁коста	-10935
▁сотво	-10936
▁музыке	-10937
▁мульти	-10938
▁одобре	-10939
▁ознаме	-10940
▁отмени	-10941
▁поведе	-10942
▁породы	-10943
▁служба	-10944
▁предпоч	-10945
▁природу	-10946
▁большими	-10947
▁развитых	-10948
▁аристокра	-10949
▁давлением	-10950
▁отделение	-10951
▁постройки	-10952
▁активность	-10953
▁избирается	-10954
▁ископаемых	-10955
▁математика	-10956
▁профессора	-10957
▁работающих	-10958
▁упоминание	-10959
▁представлял	-10960
▁наименование	-10961
▁международная	-10962
▁международном	-10963
▁географическое	-10964
́т	-10965
isp	-10966
иды	-10967
нна	-10968
ять	-10969
—12	-10970
▁as	-10971
▁ов	-10972
рять	-10973
ходу	-10974
▁110	-10975
▁диф	-10976
▁пир	-10977
▁пше	-10978
▁сча	-10979
стаби	-10980
техно	-10981
▁аэро	-10982
▁звук	-10983
▁реже	-10984
▁чуко	-10985
россия	-10986
▁белый	-10987
▁вверх	-10988
▁знако	-10989
▁контр	-10990
▁навод	-10991
▁самим	-10992
▁твери	-10993
▁абрико	-10994
▁аристи	-10995
▁диоген	-10996
▁канаде	-10997
▁музеев	-10998
▁оружие	-10999
▁пуэрто	-11000
▁спуска	-11001
образных	-11002
▁берегов	-11003
▁большее	-11004
▁кафедра	-11005
▁местной	-11006
▁создали	-11007
▁западное	-11008
▁спутника	-11009
▁францией	-11010
▁законопро	-11011
▁историков	-11012
▁обвинения	-11013
▁перевозок	-11014
▁поддержка	-11015
▁построить	-11016
▁проблемой	-11017
▁аминокисло	-11018
▁институтов	-11019
▁показатели	-11020
▁пользуются	-11021
▁разработан	-11022
▁средствами	-11023
▁позвоночных	-11024
▁постоянного	-11025
▁энциклопедии	-11026
▁растительность	-11027
▁свидетельствует	-11028
tr	-11029
бь	-11030
cal	-11031
▁sp	-11032
▁ею	-11033
кина	-11034
люби	-11035
▁оао	-11036
довое	-11037
косми	-11038
линей	-11039
новке	-11040
ровал	-11041
товым	-11042
харак	-11043
▁анна	-11044
▁евра	-11045
▁ирак	-11046
▁кель	-11047
▁прио	-11048
▁степ	-11049
▁вышед	-11050
▁давно	-11051
▁напол	-11052
▁натур	-11053
▁невер	-11054
▁сумму	-11055
▁тенни	-11056
▁языку	-11057
электри	-11058
▁важной	-11059
▁видами	-11060
▁выстав	-11061
▁живопи	-11062
▁захоро	-11063
▁лекции	-11064
▁партию	-11065
▁рубеже	-11066
▁точкой	-11067
христиан	-11068
▁кеннеди	-11069
▁наступа	-11070
▁посполи	-11071
▁сборная	-11072
▁старого	-11073
▁варианты	-11074
▁властями	-11075
▁интересы	-11076
▁меняется	-11077
▁названий	-11078
▁преодоле	-11079
▁совмести	-11080
▁фантасти	-11081
▁всемирной	-11082
▁контролем	-11083
▁общеприня	-11084
▁связывают	-11085
▁средством	-11086
▁архипелага	-11087
▁компоненты	-11088
▁наступления	-11089
▁популярности	-11090
▁математической	-11091
="2	-11092
изо	-11093
муж	-11094
▁ma	-11095
▁os	-11096
бова	-11097
звез	-11098
цких	-11099
▁аба	-11100
▁мей	-11101
▁сбо	-11102
завод	-11103
проце	-11104
тория	-11105
чиков	-11106
▁депо	-11107
▁лебе	-11108
▁ущер	-11109
▁цикл	-11110
седнев	-11111
семест	-11112
▁анато	-11113
▁бессо	-11114
▁копер	-11115
▁ливии	-11116
▁обеих	-11117
▁погру	-11118
▁толщи	-11119
▁черно	-11120
▁шоссе	-11121
▁выража	-11122
▁делают	-11123
▁младен	-11124
▁очевид	-11125
▁развер	-11126
▁считая	-11127
▁устраи	-11128
▁фигуры	-11129
▁восполь	-11130
▁раздела	-11131
струирова	-11132
▁недоволь	-11133
▁органами	-11134
▁признаки	-11135
▁растения	-11136
▁тверской	-11137
▁австралия	-11138
▁бродского	-11139
▁перспекти	-11140
▁понимания	-11141
▁присвоено	-11142
▁называемой	-11143
▁отказаться	-11144
▁октябрьской	-11145
▁циолковский	-11146
▁промышленные	-11147
▁обстоятельства	-11148
ka	-11149
-10	-11150
_14	-11151
гал	-11152
дры	-11153
фии	-11154
фия	-11155
▁ib	-11156
land	-11157
лени	-11158
хотя	-11159
▁сар	-11160
стить	-11161
▁варя	-11162
▁воли	-11163
▁даты	-11164
▁кипр	-11165
▁увле	-11166
группы	-11167
класси	-11168
▁латви	-11169
▁леший	-11170
▁повер	-11171
▁уезда	-11172
▁флаго	-11173
▁писать	-11174
▁урожай	-11175
▁деревья	-11176
▁животно	-11177
▁продукт	-11178
велесовой	-11179
▁арабских	-11180
▁деятелей	-11181
▁механике	-11182
▁снижение	-11183
▁горбачёва	-11184
▁повсемест	-11185
▁проводить	-11186
▁состоящий	-11187
▁чеченской	-11188
▁бесконечно	-11189
▁назначение	-11190
▁показывают	-11191
▁официальные	-11192
▁проектирова	-11193
▁сотрудников	-11194
▁преобразований	-11195
▁здравоохранение	-11196
cp	-11197
pg	-11198
2).	-11199
_15	-11200
сай	-11201
изда	-11202
льди	-11203
парк	-11204
слом	-11205
шель	-11206
▁пап	-11207
▁алле	-11208
▁мясо	-11209
▁огне	-11210
▁села	-11211
вского	-11212
▁взрос	-11213
▁грузи	-11214
▁залив	-11215
▁съезд	-11216
formula	-11217
▁апелля	-11218
▁бизнес	-11219
▁виктор	-11220
▁египте	-11221
▁замкну	-11222
▁молоды	-11223
▁навига	-11224
▁пункты	-11225
▁списке	-11226
ничества	-11227
▁богослу	-11228
▁вначале	-11229
▁внешний	-11230
▁деления	-11231
▁деятель	-11232
▁рельефа	-11233
▁состоял	-11234
▁черномор	-11235
▁информати	-11236
▁конфедера	-11237
▁проживают	-11238
▁операторов	-11239
▁подчинения	-11240
▁проявления	-11241
▁творчестве	-11242
▁несколькими	-11243
▁увеличилось	-11244
▁официального	-11245
3-	-11246
тю	-11247
»",	-11248
джу	-11249
ниа	-11250
▁po	-11251
вера	-11252
гали	-11253
▁аму	-11254
▁зре	-11255
▁руд	-11256
вится	-11257
▁выса	-11258
▁пови	-11259
▁поже	-11260
несены	-11261
▁круга	-11262
▁персо	-11263
▁сетей	-11264
▁выступ	-11265
▁землях	-11266
▁казаки	-11267
▁массой	-11268
▁норвеж	-11269
▁парков	-11270
▁прошла	-11271
▁развёр	-11272
▁третье	-11273
▁успеха	-11274
ническая	-11275
▁выполне	-11276
▁высокую	-11277
▁гватема	-11278
▁назвали	-11279
▁прибыли	-11280
▁размере	-11281
▁римский	-11282
▁историка	-11283
▁качество	-11284
▁крупного	-11285
▁лейбница	-11286
▁переворот	-11287
▁избираются	-11288
▁изменяется	-11289
▁исключения	-11290
▁оставалась	-11291
▁продолжали	-11292
▁следствием	-11293
▁генеральный	-11294
▁определению	-11295
▁телевидение	-11296
▁цивилизации	-11297
▁эксплуатации	-11298
▁теоретической	-11299
-,	-11300
аб	-11301
вд	-11302
пен	-11303
шёт	-11304
▁рс	-11305
байт	-11306
вики	-11307
вная	-11308
кове	-11309
нист	-11310
▁pas	-11311
▁pro	-11312
▁аде	-11313
▁плю	-11314
▁сау	-11315
ствию	-11316
ходил	-11317
▁1908	-11318
▁алжи	-11319
▁грен	-11320
▁пищи	-11321
▁руды	-11322
▁хлеб	-11323
▁наход	-11324
▁увере	-11325
▁хлора	-11326
философ	-11327
▁астеро	-11328
▁дерева	-11329
▁звуков	-11330
▁лётчик	-11331
▁магази	-11332
▁подмно	-11333
▁сектор	-11334
▁смолен	-11335
▁спокой	-11336
▁транзи	-11337
тировать	-11338
▁большом	-11339
▁внешние	-11340
▁глубина	-11341
▁импорта	-11342
▁особого	-11343
▁оставил	-11344
▁открове	-11345
▁пищевой	-11346
▁просуще	-11347
▁работой	-11348
▁буддизма	-11349
▁изобража	-11350
▁кампании	-11351
▁объявила	-11352
▁получать	-11353
▁русскими	-11354
▁судебная	-11355
▁владимиро	-11356
▁греческих	-11357
▁инвариант	-11358
▁окончании	-11359
▁повседнев	-11360
▁положении	-11361
▁электрово	-11362
▁документах	-11363
▁объяснения	-11364
▁сокращение	-11365
▁воспользова	-11366
▁космической	-11367
▁специальной	-11368
▁возможностей	-11369
▁инструментов	-11370
▁национальное	-11371
▁политическое	-11372
▁традиционных	-11373
▁сопротивления	-11374
▁экономическая	-11375
ино	-11376
рост	-11377
щика	-11378
▁кау	-11379
▁убы	-11380
мерно	-11381
ндеми	-11382
рывно	-11383
сскую	-11384
▁мяте	-11385
▁нулю	-11386
▁тита	-11387
▁явно	-11388
грамма	-11389
▁басти	-11390
▁варьи	-11391
▁враща	-11392
▁манга	-11393
▁обсер	-11394
▁планы	-11395
▁пункт	-11396
▁серде	-11397
▁склад	-11398
▁черта	-11399
▁южнее	-11400
▁амстер	-11401
▁андрея	-11402
▁взгляд	-11403
▁выводи	-11404
▁загово	-11405
▁зарпла	-11406
▁капиту	-11407
▁сканди	-11408
▁уступа	-11409
▁уступи	-11410
▁учреди	-11411
▁василий	-11412
▁введено	-11413
▁великим	-11414
▁выполня	-11415
▁герцего	-11416
▁древеси	-11417
▁изданий	-11418
▁лидером	-11419
▁марокко	-11420
▁повстан	-11421
▁признан	-11422
▁сохраня	-11423
▁изучению	-11424
▁католиче	-11425
▁приобрёл	-11426
▁соловьёв	-11427
▁говорится	-11428
▁проведены	-11429
▁сравнения	-11430
▁счисления	-11431
▁занимались	-11432
▁кандидатов	-11433
▁реконструкции	-11434
▁инфраструктуры	-11435
2-	-11436
6.	-11437
τα	-11438
оо	-11439
гле	-11440
туи	-11441
▁58	-11442
▁en	-11443
неры	-11444
поля	-11445
сило	-11446
▁лам	-11447
▁юби	-11448
ждать	-11449
▁1904	-11450
▁актё	-11451
▁деву	-11452
▁друж	-11453
▁зону	-11454
▁имея	-11455
▁кури	-11456
▁лево	-11457
▁фазы	-11458
▁цены	-11459
▁щело	-11460
лились	-11461
▁взрыв	-11462
▁издал	-11463
▁пусто	-11464
▁саксо	-11465
▁сырья	-11466
▁такси	-11467
▁товар	-11468
фикацию	-11469
▁альбом	-11470
▁вокзал	-11471
▁насеко	-11472
▁отдела	-11473
▁отложе	-11474
▁сообра	-11475
▁исследу	-11476
▁профсою	-11477
▁согласо	-11478
▁тираспо	-11479
▁толкова	-11480
▁трамвая	-11481
▁отметить	-11482
▁северную	-11483
▁эмоциона	-11484
▁помещения	-11485
▁продолжил	-11486
▁совпадает	-11487
▁архитектора	-11488
▁референдума	-11489
▁сегодняшний	-11490
▁формируется	-11491
▁христианских	-11492
▁рассматриваются	-11493
je	-11494
ice	-11495
зни	-11496
оче	-11497
щик	-11498
▁сх	-11499
рока	-11500
▁air	-11501
ответ	-11502
▁1910	-11503
▁ваку	-11504
▁взлё	-11505
▁лиши	-11506
▁плен	-11507
▁фрон	-11508
города	-11509
городе	-11510
опреде	-11511
▁пакет	-11512
▁попро	-11513
▁рыбин	-11514
▁члена	-11515
▁чётко	-11516
▁штата	-11517
▁доктор	-11518
▁старых	-11519
▁военная	-11520
▁местное	-11521
▁планета	-11522
▁взаимоот	-11523
▁западные	-11524
▁монархии	-11525
▁освободи	-11526
▁открытым	-11527
▁престола	-11528
▁шарапова	-11529
▁керенский	-11530
▁субъектов	-11531
▁образована	-11532
▁спортивных	-11533
▁территорией	-11534
▁контролирова	-11535
▁употребление	-11536
▁расположенные	-11537
▁соответствуют	-11538
▁свидетельствуют	-11539
мяг	-11540
шне	-11541
дона	-11542
▁del	-11543
▁вёл	-11544
ковал	-11545
▁взял	-11546
▁выру	-11547
▁июль	-11548
▁обме	-11549
▁хода	-11550
▁часы	-11551
вшуюся	-11552
ляется	-11553
пление	-11554
▁взять	-11555
▁изото	-11556
▁огонь	-11557
▁высшие	-11558
▁доходы	-11559
▁звезды	-11560
▁канада	-11561
▁концов	-11562
▁почему	-11563
▁янтаря	-11564
▁высочай	-11565
▁молодых	-11566
▁партиза	-11567
▁пруссия	-11568
▁участии	-11569
▁беспоряд	-11570
▁вступила	-11571
▁ирландии	-11572
▁мощности	-11573
▁осталось	-11574
▁отмечают	-11575
▁простира	-11576
▁гуманитар	-11577
▁демографи	-11578
▁колебания	-11579
▁свободных	-11580
▁секретаря	-11581
▁созданный	-11582
▁установки	-11583
▁заниматься	-11584
▁разрешения	-11585
▁электронов	-11586
▁голосования	-11587
▁происходило	-11588
▁собственную	-11589
▁американского	-11590
▁международным	-11591
ff	-11592
ql	-11593
од	-11594
jpg	-11595
▁41	-11596
неме	-11597
туда	-11598
флек	-11599
▁ару	-11600
▁зай	-11601
вский	-11602
евича	-11603
▁бора	-11604
▁дали	-11605
▁свин	-11606
▁спер	-11607
▁спло	-11608
▁стер	-11609
▁туда	-11610
▁любви	-11611
▁низко	-11612
▁поиск	-11613
▁фауна	-11614
низация	-11615
русский	-11616
▁ворота	-11617
▁вступа	-11618
▁героев	-11619
▁задачу	-11620
▁ислама	-11621
▁немцев	-11622
▁оптими	-11623
▁паради	-11624
▁премию	-11625
▁протек	-11626
▁чтения	-11627
▁берлине	-11628
▁однород	-11629
▁передал	-11630
▁перееха	-11631
▁сильные	-11632
▁училища	-11633
▁благород	-11634
▁заинтере	-11635
▁конгресс	-11636
▁методами	-11637
▁николаев	-11638
▁основано	-11639
▁ситуацию	-11640
▁суждения	-11641
▁считался	-11642
▁выполняет	-11643
▁контексте	-11644
▁музыканты	-11645
▁появлению	-11646
▁проголосо	-11647
▁скандинав	-11648
▁начальника	-11649
▁республику	-11650
▁солнечного	-11651
▁воздействие	-11652
▁воскресенье	-11653
▁мероприятий	-11654
▁предприятие	-11655
▁представить	-11656
▁присутствии	-11657
▁региональных	-11658
▁соответствие	-11659
▁способствует	-11660
▁определённого	-11661
▁подразделения	-11662
▁восстановления	-11663
5.	-11664
ps	-11665
sd	-11666
тр	-11667
▁mi	-11668
▁to	-11669
▁«»	-11670
▁гю	-11671
куля	-11672
куру	-11673
▁com	-11674
▁con	-11675
▁фри	-11676
ковую	-11677
разви	-11678
также	-11679
тонов	-11680
▁бран	-11681
▁гнез	-11682
▁жены	-11683
▁мече	-11684
▁несу	-11685
▁силе	-11686
▁фара	-11687
▁эска	-11688
▁юрис	-11689
▁балан	-11690
▁киева	-11691
▁решёт	-11692
▁росту	-11693
▁бывает	-11694
▁железо	-11695
▁играть	-11696
▁князей	-11697
▁кольцо	-11698
▁советы	-11699
республи	-11700
▁будущее	-11701
▁неожида	-11702
▁сильным	-11703
▁сослови	-11704
▁увидеть	-11705
▁депутаты	-11706
▁никакого	-11707
▁спортсме	-11708
▁инстанции	-11709
▁мифология	-11710
▁перечисле	-11711
▁участвует	-11712
▁британского	-11713
▁философские	-11714
▁большинством	-11715
▁познакомился	-11716
▁провозглашена	-11717
ana	-11718
▁54	-11719
нила	-11720
порт	-11721
рьер	-11722
стым	-11723
чьих	-11724
▁хво	-11725
дится	-11726
▁арен	-11727
▁дове	-11728
▁лого	-11729
▁мезо	-11730
▁суши	-11731
рующих	-11732
▁борту	-11733
▁длину	-11734
▁косве	-11735
▁метео	-11736
▁мухам	-11737
▁спино	-11738
▁ссыла	-11739
▁стани	-11740
▁штаба	-11741
▁бывают	-11742
▁планта	-11743
▁покров	-11744
▁службе	-11745
▁соборе	-11746
▁станет	-11747
▁уровню	-11748
▁ширина	-11749
ничество	-11750
▁бассейн	-11751
▁братьев	-11752
▁включён	-11753
▁галакти	-11754
▁синтеза	-11755
▁формулы	-11756
▁включены	-11757
▁восходит	-11758
▁механика	-11759
▁недалеко	-11760
▁польской	-11761
▁субтропи	-11762
▁условиям	-11763
▁повышение	-11764
▁программи	-11765
▁углекисло	-11766
листической	-11767
▁античности	-11768
▁композиции	-11769
▁популярной	-11770
▁описывается	-11771
▁собственным	-11772
▁произведениях	-11773
▁принадлежности	-11774
бр	-11775
are	-11776
нды	-11777
пав	-11778
сет	-11779
▁95	-11780
▁дя	-11781
киев	-11782
русь	-11783
▁аве	-11784
▁ама	-11785
▁меч	-11786
▁мои	-11787
видно	-11788
▁1896	-11789
▁нала	-11790
▁рога	-11791
▁серб	-11792
▁банки	-11793
▁гелия	-11794
▁линию	-11795
▁новей	-11796
▁парус	-11797
▁распу	-11798
▁триум	-11799
▁важные	-11800
▁вильню	-11801
▁единое	-11802
▁любовь	-11803
▁неизме	-11804
▁океане	-11805
▁особой	-11806
▁отрази	-11807
▁польша	-11808
▁случаи	-11809
▁молодой	-11810
▁моменту	-11811
▁научным	-11812
▁орденом	-11813
▁пригово	-11814
▁языками	-11815
▁введения	-11816
▁временно	-11817
▁добиться	-11818
▁жидкость	-11819
▁медицины	-11820
▁объявлен	-11821
▁отверсти	-11822
▁секретар	-11823
▁субъекта	-11824
▁сущность	-11825
▁фольклор	-11826
▁выполнять	-11827
▁крестьяне	-11828
▁нападения	-11829
▁физиологи	-11830
▁обнаружено	-11831
▁оставаться	-11832
▁сохранение	-11833
▁существовал	-11834
▁определённые	-11835
▁представлено	-11836
sm	-11837
кос	-11838
цет	-11839
тали	-11840
▁10-	-11841
▁гид	-11842
▁лео	-11843
▁люд	-11844
▁сжа	-11845
стрее	-11846
▁абду	-11847
▁анны	-11848
▁блок	-11849
▁бота	-11850
▁купе	-11851
▁папа	-11852
▁улья	-11853
уровне	-11854
▁атомы	-11855
▁вырос	-11856
▁играл	-11857
▁кости	-11858
▁кошка	-11859
▁пости	-11860
▁выбора	-11861
▁гигант	-11862
▁дворцо	-11863
▁настаи	-11864
▁нежели	-11865
▁похода	-11866
▁смысла	-11867
▁спекта	-11868
▁статью	-11869
▁январь	-11870
▁зависят	-11871
▁коопера	-11872
▁лысенко	-11873
▁масштаб	-11874
▁молотов	-11875
▁неблаго	-11876
▁плутарх	-11877
▁формула	-11878
▁широком	-11879
▁движений	-11880
▁коалиции	-11881
▁основаны	-11882
▁проводил	-11883
▁удержива	-11884
▁устройств	-11885
▁еврейского	-11886
▁переменных	-11887
▁полуостров	-11888
▁разработал	-11889
▁смертность	-11890
▁последующих	-11891
▁потребности	-11892
▁различаются	-11893
▁продолжается	-11894
▁руководитель	-11895
▁традиционной	-11896
▁экспериментов	-11897
az	-11898
vis	-11899
жье	-11900
жья	-11901
гоце	-11902
тыся	-11903
чила	-11904
▁php	-11905
▁чай	-11906
летря	-11907
рской	-11908
совые	-11909
товый	-11910
▁баку	-11911
▁мону	-11912
▁набе	-11913
▁побу	-11914
▁подс	-11915
▁типу	-11916
гладеш	-11917
женные	-11918
оценка	-11919
щённых	-11920
▁добра	-11921
▁жилищ	-11922
▁отчёт	-11923
▁парка	-11924
▁устья	-11925
▁флора	-11926
▁храмы	-11927
▁чехии	-11928
▁долины	-11929
▁единый	-11930
▁нагруз	-11931
▁ричард	-11932
▁употре	-11933
▁годовой	-11934
▁женился	-11935
▁картины	-11936
▁консуль	-11937
▁праздни	-11938
▁расширя	-11939
▁способы	-11940
логически	-11941
президент	-11942
▁автодоро	-11943
▁античных	-11944
▁местными	-11945
▁принципе	-11946
▁выступают	-11947
▁двигатель	-11948
▁излучение	-11949
▁награждён	-11950
▁настоящий	-11951
▁упоминает	-11952
▁литовского	-11953
▁популярных	-11954
▁соединение	-11955
▁заключённых	-11956
▁проявляется	-11957
▁сохранилась	-11958
▁присутствуют	-11959
▁постановлением	-11960
],	-11961
эм	-11962
mon	-11963
бам	-11964
зки	-11965
лат	-11966
▁8-	-11967
▁тм	-11968
бело	-11969
льев	-11970
стье	-11971
толе	-11972
чнее	-11973
ъект	-11974
▁115	-11975
▁ibm	-11976
▁юар	-11977
менён	-11978
метки	-11979
▁идут	-11980
▁нано	-11981
▁поне	-11982
▁серы	-11983
▁скон	-11984
католи	-11985
мостью	-11986
сского	-11987
▁доход	-11988
▁любые	-11989
▁плену	-11990
▁рейсы	-11991
▁тетра	-11992
ционном	-11993
▁друзья	-11994
▁заводе	-11995
▁кольце	-11996
▁минске	-11997
▁объёму	-11998
▁оценку	-11999
▁пролив	-12000
зировать	-12001
лируется	-12002
▁погибли	-12003
▁полотни	-12004
▁проигра	-12005
▁учителя	-12006
▁группами	-12007
▁единство	-12008
▁закрепле	-12009
▁известня	-12010
▁медленно	-12011
▁сведений	-12012
▁участков	-12013
▁ценности	-12014
▁береговой	-12015
▁википедии	-12016
▁известная	-12017
▁изолирова	-12018
▁платформы	-12019
▁радиовеща	-12020
▁секретарь	-12021
▁стандарта	-12022
▁углеводоро	-12023
▁минимальный	-12024
▁электронной	-12025
▁значительных	-12026
▁органических	-12027
▁пассажирских	-12028
▁пользователь	-12029
▁способствовало	-12030
-13	-12031
шку	-12032
▁ex	-12033
архи	-12034
зора	-12035
тать	-12036
тник	-12037
▁дав	-12038
стрий	-12039
▁1897	-12040
▁адап	-12041
▁бала	-12042
▁жанр	-12043
▁желу	-12044
▁знал	-12045
▁лицо	-12046
▁паци	-12047
▁побы	-12048
▁сене	-12049
▁сказ	-12050
▁введё	-12051
▁ведут	-12052
▁замка	-12053
▁карли	-12054
▁курса	-12055
▁семан	-12056
▁серий	-12057
▁трибу	-12058
тизации	-12059
чеством	-12060
▁заводы	-12061
▁защите	-12062
▁кристи	-12063
▁манифе	-12064
▁методо	-12065
▁начать	-12066
▁нижний	-12067
▁отража	-12068
▁полном	-12069
▁понять	-12070
▁предъя	-12071
▁сердце	-12072
▁филиал	-12073
▁чёрных	-12074
▁экстре	-12075
▁вокзала	-12076
▁местами	-12077
▁прихода	-12078
▁технику	-12079
▁трансли	-12080
▁доказыва	-12081
▁землетря	-12082
▁маршалло	-12083
▁массовых	-12084
▁медицине	-12085
▁проводит	-12086
▁богослови	-12087
▁захватили	-12088
▁колебаний	-12089
▁оказывает	-12090
▁полушарии	-12091
▁понимании	-12092
▁сохранить	-12093
▁эмиграции	-12094
▁нидерланды	-12095
▁определяют	-12096
▁проведение	-12097
▁референдум	-12098
▁заместитель	-12099
▁натуральных	-12100
▁максимальная	-12101
▁объединённых	-12102
▁столкновения	-12103
▁употребляется	-12104
▁последователей	-12105
-4	-12106
нут	-12107
—13	-12108
ковы	-12109
льна	-12110
чает	-12111
ятся	-12112
▁fre	-12113
▁мен	-12114
▁ски	-12115
зовая	-12116
летию	-12117
совым	-12118
▁1895	-12119
▁дири	-12120
▁допу	-12121
▁поощ	-12122
ведена	-12123
▁гиппо	-12124
▁карты	-12125
▁облик	-12126
▁одних	-12127
▁преди	-12128
▁симфо	-12129
▁сотен	-12130
▁звания	-12131
▁исчеза	-12132
▁решено	-12133
▁тексто	-12134
▁устрои	-12135
▁бизнеса	-12136
▁востоку	-12137
▁всесоюз	-12138
▁периоды	-12139
▁примеча	-12140
▁разруши	-12141
▁техника	-12142
▁украину	-12143
▁фёдоров	-12144
▁автобусы	-12145
▁домашних	-12146
▁западную	-12147
▁пилотиру	-12148
▁сельском	-12149
▁сложение	-12150
▁состояла	-12151
▁широкого	-12152
▁лингвисти	-12153
▁образован	-12154
▁основание	-12155
▁британских	-12156
▁конкретных	-12157
▁магнитного	-12158
▁определённым	-12159
▁совокупности	-12160
▁президентских	-12161
▁средиземномор	-12162
▁дополнительных	-12163
▁железнодорожных	-12164
ол	-12165
ive	-12166
ази	-12167
ард	-12168
ари	-12169
дрп	-12170
зво	-12171
сне	-12172
сях	-12173
тто	-12174
чее	-12175
▁cd	-12176
цким	-12177
▁вин	-12178
▁гот	-12179
▁иду	-12180
▁шту	-12181
маном	-12182
▁жало	-12183
▁инно	-12184
▁иуде	-12185
▁рене	-12186
▁урба	-12187
▁женой	-12188
▁камер	-12189
▁крово	-12190
▁культ	-12191
▁науку	-12192
▁почты	-12193
▁солей	-12194
▁страх	-12195
▁цикла	-12196
ational	-12197
язычных	-12198
▁буржуа	-12199
▁горные	-12200
▁моноте	-12201
▁нижнем	-12202
▁низкая	-12203
▁одежды	-12204
▁подклю	-12205
▁синтои	-12206
▁эрмита	-12207
новского	-12208
▁бессмер	-12209
▁всякого	-12210
▁запуска	-12211
▁корабли	-12212
▁красная	-12213
▁мировая	-12214
▁найдены	-12215
▁придвор	-12216
▁регионы	-12217
▁губерния	-12218
▁подобное	-12219
▁бангладеш	-12220
▁взаимосвя	-12221
▁временное	-12222
▁диалектов	-12223
▁оператора	-12224
▁отдельный	-12225
▁применяют	-12226
▁разнообра	-12227
▁казахстане	-12228
▁константин	-12229
▁координаты	-12230
▁химическая	-12231
▁концентрация	-12232
▁переименован	-12233
▁употребления	-12234
▁интерпретации	-12235
▁происхождении	-12236
ke	-12237
бил	-12238
гию	-12239
цик	-12240
▁%;	-12241
дное	-12242
идов	-12243
кета	-12244
лайн	-12245
лить	-12246
лови	-12247
мова	-12248
▁3,5	-12249
▁30-	-12250
▁ала	-12251
▁аце	-12252
▁пей	-12253
▁рот	-12254
▁сег	-12255
▁хва	-12256
xviii	-12257
литов	-12258
патри	-12259
рован	-12260
рские	-12261
сферы	-12262
▁креа	-12263
▁наго	-12264
▁отка	-12265
▁рыно	-12266
▁тара	-12267
▁шель	-12268
▁бруно	-12269
▁музее	-12270
▁плана	-12271
▁подъё	-12272
▁профи	-12273
▁стиму	-12274
▁чарль	-12275
вшимися	-12276
женного	-12277
разному	-12278
▁анакса	-12279
▁личной	-12280
▁правда	-12281
▁речной	-12282
▁секунд	-12283
▁семина	-12284
▁силика	-12285
▁экспор	-12286
▁легенда	-12287
▁пропове	-12288
▁рубежом	-12289
▁сторона	-12290
▁бедности	-12291
▁летописи	-12292
▁принятие	-12293
▁восточную	-12294
▁категория	-12295
▁наследова	-12296
▁объектами	-12297
▁признания	-12298
▁усовершен	-12299
▁финляндия	-12300
▁путешествен	-12301
▁собственный	-12302
▁сохраняется	-12303
▁специальный	-12304
▁литературный	-12305
▁централизова	-12306
▁муниципальных	-12307
фт	-12308
-19	-12309
ich	-12310
man	-12311
ten	-12312
звё	-12313
фан	-12314
▁mc	-12315
ване	-12316
дать	-12317
рель	-12318
рики	-12319
скры	-12320
шинг	-12321
▁20-	-12322
▁слы	-12323
▁шаг	-12324
дился	-12325
довал	-12326
интер	-12327
▁вере	-12328
▁взры	-12329
▁забы	-12330
▁сюда	-12331
зацией	-12332
масшта	-12333
▁армий	-12334
▁годам	-12335
▁иисус	-12336
▁какое	-12337
▁леона	-12338
▁мурав	-12339
▁прися	-12340
▁рабов	-12341
▁рсдрп	-12342
▁сенат	-12343
▁наречи	-12344
▁святых	-12345
▁сената	-12346
▁страхо	-12347
▁фильмы	-12348
ционными	-12349
▁женщину	-12350
▁каналов	-12351
▁копенга	-12352
▁наличия	-12353
▁образца	-12354
▁оказали	-12355
▁примыка	-12356
▁развита	-12357
▁румынии	-12358
▁сообщил	-12359
▁спутник	-12360
▁духовной	-12361
▁западном	-12362
▁образовы	-12363
▁перевода	-12364
▁различие	-12365
▁редакции	-12366
▁треуголь	-12367
▁движением	-12368
▁некоторой	-12369
▁омывается	-12370
▁повышения	-12371
▁подписали	-12372
▁португаль	-12373
▁столыпина	-12374
▁немедленно	-12375
▁оставались	-12376
▁смертности	-12377
▁восстанавли	-12378
▁действовать	-12379
▁образованию	-12380
▁специалисты	-12381
▁метрополитен	-12382
▁современников	-12383
▁государственную	-12384
oh	-12385
_11	-12386
вка	-12387
зде	-12388
тит	-12389
чив	-12390
▁жо	-12391
▁уэ	-12392
чкой	-12393
▁0,5	-12394
▁дна	-12395
▁ооо	-12396
▁рту	-12397
▁уво	-12398
▁юма	-12399
между	-12400
чился	-12401
▁анге	-12402
▁веса	-12403
▁внёс	-12404
▁змей	-12405
▁лега	-12406
▁нере	-12407
▁путя	-12408
▁сдви	-12409
▁штат	-12410
лённой	-12411
щённый	-12412
▁архан	-12413
▁оксид	-12414
▁сгора	-12415
▁славы	-12416
▁совме	-12417
▁среду	-12418
▁судно	-12419
▁сюжет	-12420
▁хотел	-12421
▁автоно	-12422
▁дохода	-12423
▁переве	-12424
▁прямым	-12425
▁сердца	-12426
▁кемеров	-12427
▁названы	-12428
▁произно	-12429
▁термины	-12430
▁зеландия	-12431
▁сельских	-12432
▁согласия	-12433
▁тьюринга	-12434
▁арестован	-12435
▁зороастри	-12436
▁категорий	-12437
▁населению	-12438
▁небольшое	-12439
▁сочинение	-12440
▁германской	-12441
▁компьютеры	-12442
▁постоянная	-12443
▁постоянных	-12444
▁возвращения	-12445
▁губернатора	-12446
▁насчитывает	-12447
▁соединённых	-12448
▁политическую	-12449
▁атлантического	-12450
▁художественной	-12451
ul	-12452
ёй	-12453
10"	-12454
ity	-12455
вик	-12456
зал	-12457
мам	-12458
плы	-12459
ппа	-12460
▁ул	-12461
глав	-12462
мель	-12463
▁«[[	-12464
▁дуб	-12465
▁идо	-12466
▁пас	-12467
▁сен	-12468
▁шле	-12469
реждё	-12470
риата	-12471
свобо	-12472
▁1909	-12473
▁баск	-12474
▁бесе	-12475
▁изъя	-12476
▁моче	-12477
▁наши	-12478
▁полк	-12479
▁цепи	-12480
▁экзо	-12481
▁эссе	-12482
гности	-12483
извест	-12484
строен	-12485
▁дубли	-12486
▁обеща	-12487
▁ткани	-12488
▁трудя	-12489
вленной	-12490
контине	-12491
▁войной	-12492
▁выясни	-12493
▁кислот	-12494
▁полоса	-12495
▁прести	-12496
▁спектр	-12497
▁футбол	-12498
религиоз	-12499
симметри	-12500
▁барсело	-12501
▁быстрее	-12502
▁заводов	-12503
▁надпись	-12504
▁поздних	-12505
▁публику	-12506
▁существ	-12507
▁открылся	-12508
▁старшего	-12509
▁термитов	-12510
▁диапазоне	-12511
▁назывался	-12512
▁объявлено	-12513
▁псковской	-12514
▁занимаются	-12515
▁культурной	-12516
▁нидерланда	-12517
▁николаевич	-12518
▁основанная	-12519
▁безработицы	-12520
▁владивосток	-12521
▁императрицы	-12522
▁музыкальные	-12523
▁предусмотре	-12524
▁философской	-12525
▁гражданского	-12526
▁обозначается	-12527
▁расположение	-12528
▁последователи	-12529
▁принципиально	-12530
▁исполнительной	-12531
▁железнодорожной	-12532
8.	-12533
зав	-12534
лея	-12535
нту	-12536
хай	-12537
кано	-12538
лева	-12539
мари	-12540
моск	-12541
роне	-12542
скор	-12543
форд	-12544
▁113	-12545
▁пев	-12546
▁сма	-12547
мония	-12548
несён	-12549
сение	-12550
тками	-12551
▁анта	-12552
▁валю	-12553
▁лозу	-12554
▁отте	-12555
состоя	-12556
▁евреи	-12557
▁носят	-12558
▁опере	-12559
▁рецеп	-12560
▁штаты	-12561
менными	-12562
▁гамиль	-12563
▁италию	-12564
▁клетки	-12565
▁нейтро	-12566
▁тридца	-12567
▁унитар	-12568
▁швеция	-12569
ровского	-12570
▁калифор	-12571
▁космоса	-12572
▁маршрут	-12573
▁погибло	-12574
▁приведё	-12575
▁приняты	-12576
▁числами	-12577
▁широкий	-12578
▁передача	-12579
▁практику	-12580
▁пытались	-12581
▁разделить	-12582
▁чемпионат	-12583
▁аналогично	-12584
▁возглавлял	-12585
▁отказались	-12586
▁реализация	-12587
▁особенность	-12588
▁построенный	-12589
▁материальной	-12590
▁александрович	-12591
ёд	-12592
_16	-12593
age	-12594
дую	-12595
воло	-12596
гори	-12597
льны	-12598
нден	-12599
ряют	-12600
свет	-12601
тину	-12602
▁жре	-12603
▁кло	-12604
▁нра	-12605
ьерра	-12606
▁обер	-12607
▁опол	-12608
▁рука	-12609
▁сете	-12610
▁сици	-12611
▁тему	-12612
▁ветви	-12613
▁градо	-12614
▁крест	-12615
▁михай	-12616
▁нехва	-12617
▁порты	-12618
▁темпы	-12619
сколько	-12620
ссембле	-12621
▁голоса	-12622
▁кустар	-12623
▁пионер	-12624
▁сьерра	-12625
▁упадок	-12626
▁эндеми	-12627
▁оправда	-12628
▁ремесле	-12629
▁восприня	-12630
▁вьетнама	-12631
▁импульса	-12632
▁микрорай	-12633
▁отвечает	-12634
▁очевидно	-12635
▁пифагора	-12636
▁полезных	-12637
▁факульте	-12638
▁являлось	-12639
▁демонстри	-12640
▁культурно	-12641
▁поселений	-12642
▁посещения	-12643
▁провинциа	-12644
▁культурные	-12645
▁основополо	-12646
▁равновесия	-12647
▁архитектуре	-12648
▁государству	-12649
▁преобладает	-12650
▁направлениях	-12651
▁установления	-12652
йо	-12653
2),	-12654
20"	-12655
бол	-12656
кад	-12657
мея	-12658
нат	-12659
син	-12660
—10	-12661
—14	-12662
▁кю	-12663
▁яи	-12664
леке	-12665
реди	-12666
риге	-12667
▁0,0	-12668
▁ады	-12669
▁вож	-12670
▁вят	-12671
▁ени	-12672
▁фрг	-12673
▁шей	-12674
▁внед	-12675
▁огня	-12676
▁сати	-12677
группа	-12678
знание	-12679
▁ампли	-12680
▁брака	-12681
▁бэкон	-12682
▁ветхо	-12683
▁водах	-12684
▁миром	-12685
▁морей	-12686
▁насла	-12687
▁прогу	-12688
▁разря	-12689
▁регла	-12690
▁служе	-12691
▁судей	-12692
▁схема	-12693
▁факти	-12694
▁джордж	-12695
▁дорого	-12696
▁ельцин	-12697
▁завеща	-12698
▁излага	-12699
▁мелкие	-12700
▁невысо	-12701
▁община	-12702
▁сессии	-12703
▁театре	-12704
тельской	-12705
▁владими	-12706
▁гагарин	-12707
▁глубоко	-12708
▁достичь	-12709
▁наркома	-12710
▁отнести	-12711
▁сделали	-12712
▁ставший	-12713
▁геральди	-12714
▁массовое	-12715
▁предупре	-12716
▁вспоминал	-12717
▁интернета	-12718
▁параметры	-12719
▁принимают	-12720
▁выражается	-12721
▁укрепления	-12722
▁дальнейшего	-12723
▁действующих	-12724
▁запланирова	-12725
▁предоставля	-12726
▁пространств	-12727
▁федеральных	-12728
▁воздействием	-12729
▁компьютерных	-12730
▁общественные	-12731
▁организацией	-12732
▁разнообразие	-12733
▁рекомендации	-12734
▁разнообразных	-12735
▁предполагалось	-12736
▁законодательной	-12737
блу	-12738
▁66	-12739
▁pr	-12740
деть	-12741
жили	-12742
ниша	-12743
само	-12744
ссом	-12745
чник	-12746
▁900	-12747
▁поп	-12748
▁топ	-12749
▁уди	-12750
▁фей	-12751
вного	-12752
рская	-12753
рских	-12754
телях	-12755
форми	-12756
▁гром	-12757
▁инве	-12758
▁пару	-12759
▁сига	-12760
▁чуде	-12761
рующие	-12762
▁извле	-12763
▁клуба	-12764
▁кувей	-12765
▁мудре	-12766
▁непол	-12767
▁полем	-12768
▁птоле	-12769
▁стрел	-12770
▁энтро	-12771
новение	-12772
▁валюты	-12773
▁ввести	-12774
▁дворце	-12775
▁заливе	-12776
▁лёгкой	-12777
▁особые	-12778
▁прозра	-12779
▁ранней	-12780
▁совету	-12781
▁созвез	-12782
▁старый	-12783
▁стерео	-12784
▁гонконг	-12785
▁интелли	-12786
▁причина	-12787
▁процент	-12788
▁таблицы	-12789
▁укрепле	-12790
▁учёными	-12791
▁февраль	-12792
▁целиком	-12793
▁германию	-12794
▁личность	-12795
▁наличием	-12796
▁осталась	-12797
▁практики	-12798
▁библиотек	-12799
▁иерусалим	-12800
▁переселен	-12801
▁английской	-12802
▁новороссий	-12803
▁получается	-12804
строительный	-12805
▁европейские	-12806
▁конструкций	-12807
▁определённый	-12808
▁преимущества	-12809
▁церковнославя	-12810
▁доказательство	-12811
▁использовалось	-12812
▁многочисленными	-12813
гая	-12814
зиа	-12815
ина	-12816
пту	-12817
рие	-12818
тта	-12819
чук	-12820
ндже	-12821
нева	-12822
трак	-12823
▁дья	-12824
▁иоа	-12825
▁пик	-12826
▁сож	-12827
некдо	-12828
тному	-12829
штадт	-12830
▁июнь	-12831
▁кого	-12832
▁ледо	-12833
▁сева	-12834
▁фаши	-12835
▁заряд	-12836
▁клави	-12837
▁ночью	-12838
▁племе	-12839
▁траек	-12840
тировал	-12841
▁водами	-12842
▁вражде	-12843
▁газете	-12844
▁завета	-12845
▁одними	-12846
▁тампли	-12847
▁австрий	-12848
▁архиепи	-12849
▁встречи	-12850
▁госпита	-12851
▁заголов	-12852
▁лондона	-12853
▁названа	-12854
▁паскаль	-12855
▁покинул	-12856
▁сборник	-12857
▁столкну	-12858
▁странам	-12859
▁широкой	-12860
▁гильгаме	-12861
▁главными	-12862
▁небесных	-12863
▁отраслей	-12864
▁подробно	-12865
▁пресмыка	-12866
▁причинам	-12867
▁расходов	-12868
▁способов	-12869
▁арабского	-12870
▁атмосферу	-12871
▁животного	-12872
▁гравитации	-12873
▁крупнейшая	-12874
▁кёнигсберг	-12875
▁мусульмане	-12876
▁называться	-12877
▁объединены	-12878
▁приложения	-12879
▁разрешение	-12880
▁секретарём	-12881
▁избирателей	-12882
▁метрополите	-12883
▁общественно	-12884
▁соотношения	-12885
▁поддерживать	-12886
▁представляли	-12887
▁международное	-12888
▁сотрудничество	-12889
▁художественных	-12890
ov	-12891
вс	-12892
хт	-12893
ual	-12894
бек	-12895
хоз	-12896
▁(+	-12897
▁bo	-12898
▁ив	-12899
дная	-12900
наро	-12901
нтам	-12902
шают	-12903
▁118	-12904
▁дюй	-12905
▁уса	-12906
блика	-12907
десят	-12908
совре	-12909
▁smtp	-12910
▁изго	-12911
▁лаге	-12912
▁нали	-12913
▁руан	-12914
▁сана	-12915
▁угол	-12916
онеров	-12917
полага	-12918
▁импер	-12919
▁муссо	-12920
▁фигур	-12921
▁целое	-12922
нований	-12923
▁близко	-12924
▁версию	-12925
▁вселен	-12926
▁гегеля	-12927
▁каждые	-12928
▁лесной	-12929
▁личных	-12930
▁оказал	-12931
▁прямых	-12932
▁кальция	-12933
▁кварков	-12934
▁обитают	-12935
▁подчинё	-12936
▁поездки	-12937
▁позиций	-12938
▁рассказ	-12939
▁раствор	-12940
▁директор	-12941
▁передать	-12942
▁польский	-12943
▁приказал	-12944
▁проверки	-12945
▁средство	-12946
▁волгоград	-12947
▁еврейской	-12948
▁свободное	-12949
▁ярославль	-12950
▁внутренний	-12951
▁гомосексуа	-12952
▁сокращения	-12953
▁упоминания	-12954
▁характерна	-12955
▁инструменты	-12956
▁крупнейшими	-12957
▁медицинских	-12958
▁конституцией	-12959
▁периодически	-12960
▁политическим	-12961
▁популярностью	-12962
▁экономическое	-12963
▁принадлежность	-12964
tem	-12965
ньи	-12966
пу́	-12967
сец	-12968
фло	-12969
бого	-12970
зако	-12971
памя	-12972
пить	-12973
снаб	-12974
хова	-12975
кторе	-12976
нином	-12977
плава	-12978
торая	-12979
щейся	-12980
▁алта	-12981
▁кожи	-12982
▁фрей	-12983
дневно	-12984
переда	-12985
▁весен	-12986
▁гамби	-12987
▁гелио	-12988
▁гибри	-12989
▁завоё	-12990
▁лежат	-12991
▁отста	-12992
▁прили	-12993
▁прима	-12994
▁сумел	-12995
▁хромо	-12996
спектро	-12997
▁видеть	-12998
▁кикимо	-12999
▁чувств	-13000
▁югосла	-13001
▁атомных	-13002
▁древнее	-13003
▁религию	-13004
▁теорема	-13005
▁трактов	-13006
▁успехом	-13007
▁денежная	-13008
▁договору	-13009
▁ключевых	-13010
▁монголии	-13011
▁северным	-13012
▁торговый	-13013
▁возобнови	-13014
▁институте	-13015
▁институты	-13016
▁ископаемые	-13017
▁продолжают	-13018
▁состоялись	-13019
▁иммигрантов	-13020
▁источниками	-13021
▁определении	-13022
▁эксперименты	-13023
▁представляется	-13024
ас	-13025
бл	-13026
▁α	-13027
por	-13028
иде	-13029
кис	-13030
льт	-13031
сие	-13032
▁4.	-13033
▁57	-13034
="49	-13035
orld	-13036
work	-13037
зной	-13038
ната	-13039
фори	-13040
чать	-13041
▁вит	-13042
▁коз	-13043
▁рис	-13044
▁уна	-13045
▁шёл	-13046
раясь	-13047
стыми	-13048
фиоле	-13049
▁1903	-13050
▁3000	-13051
▁деви	-13052
▁лига	-13053
▁пато	-13054
▁темы	-13055
▁хали	-13056
▁штра	-13057
гражда	-13058
лирует	-13059
нейших	-13060
стский	-13061
▁зинов	-13062
▁иного	-13063
▁ирана	-13064
▁лицом	-13065
▁подве	-13066
▁почве	-13067
▁смену	-13068
▁степа	-13069
▁ущерб	-13070
▁цензу	-13071
▁вермах	-13072
▁выпуще	-13073
▁девять	-13074
▁изнача	-13075
▁князем	-13076
▁патрио	-13077
▁придне	-13078
▁темати	-13079
▁величай	-13080
▁дивизии	-13081
▁кавказа	-13082
▁космосе	-13083
▁перепра	-13084
▁поступи	-13085
▁бессозна	-13086
▁единицей	-13087
▁маршруты	-13088
▁отражает	-13089
▁периодом	-13090
▁просьбой	-13091
▁разногла	-13092
▁биографии	-13093
▁директора	-13094
▁небольшая	-13095
▁опасности	-13096
▁британский	-13097
▁внутреннее	-13098
▁германских	-13099
▁математике	-13100
▁словацкого	-13101
▁сообщество	-13102
▁философией	-13103
▁опубликован	-13104
▁полуострове	-13105
▁французских	-13106
▁бортинженера	-13107
▁командование	-13108
▁человеческих	-13109
▁инфраструктура	-13110
чок	-13111
эпо	-13112
▁68	-13113
▁ер	-13114
▁ид	-13115
бита	-13116
нкер	-13117
пира	-13118
ьера	-13119
▁анг	-13120
▁оро	-13121
ловых	-13122
мысли	-13123
новей	-13124
онами	-13125
стная	-13126
сторо	-13127
тером	-13128
▁кабе	-13129
▁клей	-13130
▁можа	-13131
▁слоя	-13132
▁триа	-13133
▁укло	-13134
▁цили	-13135
первых	-13136
ченной	-13137
энерге	-13138
▁будто	-13139
▁важно	-13140
▁корне	-13141
▁любом	-13142
▁массе	-13143
▁фёдор	-13144
▁целые	-13145
▁акусти	-13146
▁логики	-13147
▁населя	-13148
▁особую	-13149
▁сепара	-13150
ловского	-13151
▁алексея	-13152
▁берлина	-13153
▁ведения	-13154
▁океаном	-13155
▁прочего	-13156
▁разгово	-13157
▁свергну	-13158
▁авторите	-13159
▁гимназии	-13160
▁документ	-13161
▁достигли	-13162
▁западный	-13163
▁ощущения	-13164
▁передаче	-13165
▁процвета	-13166
▁точности	-13167
▁умеренно	-13168
▁церковью	-13169
▁ежедневно	-13170
▁застройки	-13171
▁областной	-13172
▁протекает	-13173
▁михайлович	-13174
▁музыкантов	-13175
▁персонажей	-13176
▁подтвержда	-13177
▁технология	-13178
▁оценивается	-13179
▁продолжение	-13180
▁развивалась	-13181
▁уменьшается	-13182
▁изготовления	-13183
▁опубликована	-13184
▁провозгласил	-13185
▁утверждается	-13186
▁рассматривают	-13187
▁функционирует	-13188
▁железнодорожная	-13189
!»	-13190
"/	-13191
дю	-13192
уз	-13193
_18	-13194
ant	-13195
ath	-13196
nal	-13197
ами	-13198
гоф	-13199
лав	-13200
нит	-13201
рхо	-13202
▁fr	-13203
кара	-13204
лкой	-13205
▁шпи	-13206
ленин	-13207
нятся	-13208
стное	-13209
торго	-13210
▁берё	-13211
▁выве	-13212
▁двум	-13213
▁ильи	-13214
▁мейн	-13215
▁мило	-13216
▁норм	-13217
termes	-13218
▁звуки	-13219
▁нашли	-13220
▁ослож	-13221
работки	-13222
системы	-13223
▁встрое	-13224
▁выводы	-13225
▁олицет	-13226
▁респу́	-13227
▁сергея	-13228
▁сферах	-13229
▁формах	-13230
совмести	-13231
▁падение	-13232
▁попытку	-13233
▁развиты	-13234
▁свобода	-13235
▁террори	-13236
▁уровней	-13237
▁алексеев	-13238
▁верующих	-13239
▁верхнего	-13240
▁разделён	-13241
▁стандарт	-13242
▁строится	-13243
▁креациони	-13244
▁миллиарда	-13245
▁обратился	-13246
▁островами	-13247
▁применять	-13248
▁принимали	-13249
▁процентов	-13250
▁союзников	-13251
▁ценностей	-13252
▁ликвидации	-13253
▁организмов	-13254
▁переговоров	-13255
▁электронных	-13256
▁письменность	-13257
географическая	-13258
▁разнообразные	-13259
▁руководителей	-13260
▁средневековья	-13261
▁характеризова	-13262
▁императорского	-13263
▁устанавливается	-13264
шю	-13265
—8	-13266
бль	-13267
вам	-13268
пей	-13269
фро	-13270
шно	-13271
ннов	-13272
пели	-13273
риев	-13274
сине	-13275
целе	-13276
чими	-13277
▁350	-13278
▁bas	-13279
▁лаэ	-13280
▁хан	-13281
время	-13282
вропе	-13283
йорке	-13284
кский	-13285
▁адро	-13286
▁бела	-13287
▁гава	-13288
▁ливи	-13289
▁меир	-13290
▁нике	-13291
▁пузы	-13292
▁пьер	-13293
▁тимо	-13294
частли	-13295
ченная	-13296
шенных	-13297
▁карбо	-13298
▁нашёл	-13299
▁нитри	-13300
▁эйзен	-13301
▁эпиде	-13302
▁pascal	-13303
▁врачей	-13304
▁грамма	-13305
▁друзей	-13306
▁еписко	-13307
▁миссии	-13308
▁объёме	-13309
▁петром	-13310
▁полная	-13311
▁полную	-13312
▁пришла	-13313
▁самосо	-13314
▁фактов	-13315
▁единицу	-13316
▁недавно	-13317
▁прокура	-13318
▁реакцию	-13319
▁учебные	-13320
▁частями	-13321
▁изменить	-13322
▁народные	-13323
▁находясь	-13324
▁обитания	-13325
▁развитой	-13326
▁расстрой	-13327
▁рекоменду	-13328
▁согласных	-13329
▁зороастрий	-13330
▁недостатки	-13331
▁прибрежных	-13332
▁заболеваний	-13333
▁характерные	-13334
▁энциклопеди	-13335
▁белорусского	-13336
▁голосованием	-13337
▁определяются	-13338
▁пассажирские	-13339
▁администрация	-13340
▁западноевропе	-13341
▁нефтепродукты	-13342
▁предоставляет	-13343
▁сотрудничестве	-13344
7.	-13345
_9	-13346
пк	-13347
кту	-13348
уни	-13349
фик	-13350
ьем	-13351
льде	-13352
режи	-13353
стка	-13354
чины	-13355
▁80-	-13356
▁але	-13357
▁маг	-13358
▁1878	-13359
▁доль	-13360
▁лесу	-13361
▁угла	-13362
▁хлоп	-13363
генера	-13364
десяти	-13365
жаться	-13366
логами	-13367
носить	-13368
▁вексе	-13369
▁вечер	-13370
▁вроде	-13371
▁депре	-13372
▁факты	-13373
▁фирмы	-13374
▁эпику	-13375
большой	-13376
красный	-13377
▁звёзды	-13378
▁ирланд	-13379
▁мостов	-13380
▁отстаи	-13381
▁первич	-13382
▁подряд	-13383
▁породи	-13384
▁романе	-13385
▁синхро	-13386
▁совете	-13387
▁тексте	-13388
▁чёрный	-13389
▁экстра	-13390
тельстве	-13391
тельству	-13392
формации	-13393
▁вагонов	-13394
▁гласных	-13395
▁отличия	-13396
▁подходя	-13397
▁романов	-13398
▁станцию	-13399
▁угрозой	-13400
▁выработа	-13401
▁вячеслав	-13402
▁переходе	-13403
▁прошлого	-13404
▁авторитет	-13405
▁греческий	-13406
▁елизавета	-13407
▁концепцию	-13408
▁начальник	-13409
▁памятника	-13410
▁патриарха	-13411
▁разделены	-13412
▁солнечных	-13413
▁британские	-13414
▁крупнейшей	-13415
▁психология	-13416
▁чемпионата	-13417
▁гражданская	-13418
▁лаборатории	-13419
▁направлению	-13420
▁независимой	-13421
▁респу́блика	-13422
▁трудоспособ	-13423
▁интернациона	-13424
▁преступления	-13425
?»	-13426
fc	-13427
дев	-13428
као	-13429
▁яй	-13430
xvii	-13431
варе	-13432
льда	-13433
служ	-13434
сыпа	-13435
▁мем	-13436
▁мкс	-13437
▁рау	-13438
▁чьи	-13439
грамм	-13440
летов	-13441
несла	-13442
сками	-13443
стным	-13444
фанта	-13445
▁1885	-13446
▁мили	-13447
▁номе	-13448
▁папу	-13449
▁папы	-13450
▁скор	-13451
▁циви	-13452
зрение	-13453
ровали	-13454
францу	-13455
▁агрип	-13456
▁вымер	-13457
▁гонду	-13458
▁зевса	-13459
▁несом	-13460
▁срока	-13461
▁устье	-13462
▁южную	-13463
▁афинах	-13464
▁гвинеи	-13465
▁камеры	-13466
▁курорт	-13467
▁наукой	-13468
▁ответа	-13469
▁провод	-13470
▁роберт	-13471
▁трамва	-13472
▁уильям	-13473
▁экипаж	-13474
▁юрисди	-13475
зируется	-13476
исповеда	-13477
образные	-13478
▁выходят	-13479
▁древний	-13480
▁коротки	-13481
▁частной	-13482
▁аналогии	-13483
▁католики	-13484
▁петропав	-13485
▁правилам	-13486
▁режиссёр	-13487
▁шведской	-13488
▁авиакомпа	-13489
▁коэффицие	-13490
▁нижегород	-13491
▁парапсихо	-13492
▁природный	-13493
▁создаётся	-13494
▁интеллиген	-13495
▁переменной	-13496
▁сталинград	-13497
▁утверждают	-13498
▁участвовать	-13499
▁противоречия	-13500
▁радиостанции	-13501
▁религиозного	-13502
▁электродинами	-13503
▁демократической	-13504
.:	-13505
лку	-13506
чья	-13507
idae	-13508
гает	-13509
мума	-13510
раса	-13511
▁112	-13512
▁119	-13513
▁15-	-13514
▁боу	-13515
▁гаи	-13516
▁квт	-13517
▁эро	-13518
вторы	-13519
емому	-13520
ковом	-13521
назва	-13522
фести	-13523
▁midi	-13524
▁видо	-13525
▁канц	-13526
▁каро	-13527
▁карт	-13528
▁пиро	-13529
▁семё	-13530
▁юрия	-13531
никова	-13532
▁бакте	-13533
▁дизай	-13534
▁длине	-13535
▁каком	-13536
▁нагля	-13537
человек	-13538
▁боевой	-13539
▁гвинея	-13540
▁казань	-13541
▁камень	-13542
▁месяцы	-13543
▁радиус	-13544
▁спутни	-13545
▁фёдоро	-13546
▁хоккей	-13547
▁данными	-13548
▁деревне	-13549
▁дмитрия	-13550
▁другому	-13551
▁запасов	-13552
▁извести	-13553
▁комсомо	-13554
▁лютеран	-13555
▁моменты	-13556
▁несовер	-13557
▁нестаби	-13558
▁нижнего	-13559
▁перекры	-13560
▁повести	-13561
▁прокуро	-13562
▁прямого	-13563
▁святили	-13564
▁следуют	-13565
▁стадион	-13566
▁тайвань	-13567
▁текстах	-13568
▁течений	-13569
▁умерших	-13570
▁античной	-13571
▁давлении	-13572
▁естество	-13573
▁изобрете	-13574
▁индуизма	-13575
▁олицетво	-13576
▁переехал	-13577
▁приговор	-13578
▁скандина	-13579
▁сознание	-13580
▁указания	-13581
▁аппаратов	-13582
▁вернуться	-13583
▁восточный	-13584
▁интернете	-13585
▁латинский	-13586
▁приостано	-13587
▁расстреля	-13588
▁родителей	-13589
матического	-13590
▁находиться	-13591
▁интегрирова	-13592
▁космическом	-13593
▁максимально	-13594
▁официальная	-13595
▁собственное	-13596
▁содержанием	-13597
▁американские	-13598
▁естественным	-13599
▁автоматически	-13600
▁руководителем	-13601
▁электрического	-13602
ds	-13603
25"	-13604
дис	-13605
лиа	-13606
лля	-13607
лёт	-13608
думы	-13609
зоны	-13610
стор	-13611
цком	-13612
ыска	-13613
▁10,	-13614
▁ким	-13615
▁риф	-13616
демон	-13617
нцами	-13618
ровых	-13619
рьеры	-13620
тавли	-13621
▁1812	-13622
▁лаби	-13623
▁лест	-13624
▁поку	-13625
▁соля	-13626
ложить	-13627
точных	-13628
▁атлан	-13629
▁барба	-13630
▁волна	-13631
▁лаэрт	-13632
▁любая	-13633
▁сухой	-13634
▁фарма	-13635
▁низкий	-13636
▁охраня	-13637
▁сестра	-13638
▁синтез	-13639
▁союзом	-13640
▁трудов	-13641
▁феноме	-13642
▁целого	-13643
▁читать	-13644
льностью	-13645
промышле	-13646
▁великая	-13647
▁георгий	-13648
▁коммуна	-13649
▁лечения	-13650
▁словарь	-13651
▁султана	-13652
▁беженцев	-13653
▁доступны	-13654
▁империей	-13655
▁кабинета	-13656
▁материка	-13657
▁наследие	-13658
▁плодород	-13659
▁понимать	-13660
▁терминал	-13661
▁убийство	-13662
▁армянской	-13663
▁открытого	-13664
▁справедли	-13665
▁фрагменты	-13666
▁возрастает	-13667
▁композитор	-13668
▁сохранении	-13669
▁конкретного	-13670
▁минеральных	-13671
▁обусловлено	-13672
▁увеличением	-13673
▁утверждению	-13674
▁окрестностях	-13675
▁распространи	-13676
▁императорской	-13677
▁международную	-13678
▁планировалось	-13679
▁экономическим	-13680
▁муниципального	-13681
/2	-13682
ue	-13683
бс	-13684
19"	-13685
pen	-13686
газ	-13687
нито	-13688
▁60-	-13689
▁вай	-13690
▁вкп	-13691
▁дай	-13692
▁тэц	-13693
▁уте	-13694
▁хао	-13695
▁эра	-13696
ллект	-13697
медиа	-13698
▁1889	-13699
▁воле	-13700
▁иеро	-13701
▁лету	-13702
▁побо	-13703
▁поса	-13704
ваемой	-13705
ология	-13706
ющуюся	-13707
▁кореи	-13708
▁обога	-13709
▁писем	-13710
▁пошли	-13711
▁сериа	-13712
▁спаса	-13713
▁убеди	-13714
ходятся	-13715
▁важный	-13716
▁вытека	-13717
▁выходе	-13718
▁дорогу	-13719
▁крупно	-13720
▁лауреа	-13721
▁полным	-13722
▁претер	-13723
▁приеха	-13724
▁репута	-13725
▁чёрная	-13726
рованные	-13727
▁ельцина	-13728
▁кипения	-13729
▁несомне	-13730
▁пищевая	-13731
▁простым	-13732
▁сборной	-13733
▁бродский	-13734
▁операцию	-13735
▁открытых	-13736
▁практика	-13737
▁реоргани	-13738
▁столыпин	-13739
▁екатерина	-13740
▁операторы	-13741
▁связывает	-13742
▁сравнении	-13743
▁четвёртый	-13744
▁арктически	-13745
▁дисциплины	-13746
▁посполитой	-13747
▁предлагает	-13748
▁регулярные	-13749
▁этнических	-13750
▁александром	-13751
▁допускается	-13752
▁парламентом	-13753
▁экземпляров	-13754
▁единственное	-13755
▁распространено	-13756
1)	-13757
pt	-13758
ут	-13759
100	-13760
гин	-13761
ера	-13762
лап	-13763
наи	-13764
нус	-13765
хин	-13766
▁6,	-13767
▁7-	-13768
валя	-13769
гвар	-13770
тент	-13771
тком	-13772
▁вле	-13773
▁хер	-13774
▁чеч	-13775
киста	-13776
скоро	-13777
сфера	-13778
теров	-13779
▁1200	-13780
▁нквд	-13781
▁овла	-13782
▁черт	-13783
ваемый	-13784
матозо	-13785
▁арома	-13786
▁астра	-13787
▁двора	-13788
▁колла	-13789
▁послу	-13790
▁служа	-13791
▁сферу	-13792
▁сцене	-13793
▁тонне	-13794
▁умира	-13795
▁учёта	-13796
▁цифры	-13797
▁читал	-13798
▁эпоха	-13799
кистане	-13800
француз	-13801
▁высоту	-13802
▁длится	-13803
▁керами	-13804
▁кукуру	-13805
▁минуты	-13806
▁отряды	-13807
▁парижа	-13808
▁самому	-13809
▁учению	-13810
▁крупное	-13811
▁магнито	-13812
▁неравно	-13813
▁принуди	-13814
▁академик	-13815
▁выглядит	-13816
▁датирова	-13817
▁означало	-13818
▁переданы	-13819
▁полагают	-13820
▁предмета	-13821
▁сражения	-13822
▁твёрдого	-13823
▁японской	-13824
▁буквально	-13825
▁изучением	-13826
▁компонент	-13827
▁пифагорей	-13828
▁прибалтий	-13829
▁системами	-13830
▁советском	-13831
▁способами	-13832
▁татарстан	-13833
▁трудности	-13834
▁неизвестно	-13835
▁отсутствии	-13836
▁петербурге	-13837
▁поддержкой	-13838
▁постоянные	-13839
▁протектора	-13840
▁управлении	-13841
▁образований	-13842
▁потребления	-13843
▁потребность	-13844
▁используемых	-13845
▁специального	-13846
▁существующих	-13847
▁транспортные	-13848
▁константинополь	-13849
▁ответственности	-13850
▁:	-13851
15"	-13852
=49	-13853
ate	-13854
бон	-13855
пий	-13856
фта	-13857
ьях	-13858
▁3.	-13859
▁ур	-13860
бота	-13861
жами	-13862
инди	-13863
иску	-13864
леты	-13865
лёва	-13866
путе	-13867
стах	-13868
▁vis	-13869
▁абу	-13870
▁вей	-13871
▁зат	-13872
▁лао	-13873
ездом	-13874
левла	-13875
небре	-13876
преки	-13877
▁1880	-13878
▁«...	-13879
▁азот	-13880
▁взят	-13881
▁дала	-13882
▁рейх	-13883
блется	-13884
обычно	-13885
щалось	-13886
▁ввода	-13887
▁выгод	-13888
▁жилых	-13889
▁круго	-13890
▁малые	-13891
▁масло	-13892
▁серия	-13893
▁турку	-13894
▁уголь	-13895
▁хрома	-13896
▁целых	-13897
невосто	-13898
▁вторую	-13899
▁китаем	-13900
▁наивыс	-13901
▁ненави	-13902
▁опуска	-13903
▁органа	-13904
▁печата	-13905
▁посети	-13906
▁ставит	-13907
▁ведущие	-13908
▁глагола	-13909
▁строить	-13910
▁трактат	-13911
▁требуют	-13912
▁участке	-13913
▁широкую	-13914
▁болгария	-13915
▁живопись	-13916
▁лагранжи	-13917
▁миграции	-13918
▁основную	-13919
▁простого	-13920
▁размером	-13921
▁спутники	-13922
▁четверть	-13923
▁ядерного	-13924
▁важнейшим	-13925
▁дискуссии	-13926
▁нарушение	-13927
▁отдельной	-13928
▁тенденция	-13929
▁шведского	-13930
▁внутренняя	-13931
▁европейцев	-13932
▁завершения	-13933
▁индоевропе	-13934
▁множеством	-13935
▁приложений	-13936
▁проведении	-13937
▁разработку	-13938
▁сибирского	-13939
▁изображений	-13940
▁медицинской	-13941
▁музыкальной	-13942
▁подавляющее	-13943
▁пользовался	-13944
▁операционной	-13945
▁пользовались	-13946
▁православные	-13947
▁дополнительно	-13948
▁собственность	-13949
▁протяжённостью	-13950
▁законодательная	-13951
fi	-13952
sa	-13953
art	-13954
лие	-13955
рян	-13956
хий	-13957
чеб	-13958
▁74	-13959
▁кх	-13960
▁ун	-13961
рную	-13962
стно	-13963
фото	-13964
чики	-13965
щали	-13966
▁50-	-13967
▁дыр	-13968
▁общ	-13969
равне	-13970
чками	-13971
▁брах	-13972
▁выпа	-13973
▁духе	-13974
▁змеи	-13975
▁навы	-13976
▁ники	-13977
▁пана	-13978
▁фаса	-13979
▁хвой	-13980
▁яйца	-13981
водных	-13982
▁radio	-13983
▁башни	-13984
▁берёт	-13985
▁недав	-13986
▁нечто	-13987
▁отдел	-13988
▁отцом	-13989
▁удалё	-13990
тивными	-13991
чностью	-13992
▁анархо	-13993
▁братья	-13994
▁диамет	-13995
▁иоганн	-13996
▁камеру	-13997
▁медали	-13998
▁набора	-13999
▁нелега	-14000
▁новозе	-14001
▁пригод	-14002
▁прозви	-14003
▁ракеты	-14004
▁франко	-14005
▁цезаря	-14006
образием	-14007
▁входила	-14008
▁законам	-14009
▁ориенти	-14010
▁позиция	-14011
▁потомки	-14012
▁режиссё	-14013
▁сыновей	-14014
▁факторы	-14015
▁двадцати	-14016
▁исландии	-14017
▁приводят	-14018
▁самолёта	-14019
▁испанский	-14020
▁наблюдать	-14021
▁носителей	-14022
▁архитектор	-14023
▁источникам	-14024
▁колеблется	-14025
▁контролиру	-14026
▁нацистской	-14027
▁пользуется	-14028
▁сперматозо	-14029
▁спортивные	-14030
▁выполняется	-14031
▁новосибирск	-14032
▁применяться	-14033
▁обеспечивают	-14034
▁промышленной	-14035
▁экономически	-14036
▁регионального	-14037
fe	-14038
16"	-14039
xix	-14040
вну	-14041
дая	-14042
нят	-14043
▁6:	-14044
▁7,	-14045
▁ru	-14046
▁цо	-14047
...»	-14048
="50	-14049
="70	-14050
древ	-14051
каме	-14052
▁узе	-14053
▁щит	-14054
азиат	-14055
ндент	-14056
сской	-14057
стера	-14058
товал	-14059
чести	-14060
▁иное	-14061
▁омск	-14062
▁пищу	-14063
▁рати	-14064
▁угли	-14065
▁упру	-14066
▁цита	-14067
фрикан	-14068
штейна	-14069
▁бенга	-14070
▁булга	-14071
▁дания	-14072
▁знать	-14073
▁минск	-14074
▁оперы	-14075
▁снаря	-14076
▁сплош	-14077
▁траге	-14078
ждённый	-14079
сообраз	-14080
▁долине	-14081
▁кузнец	-14082
▁культа	-14083
▁мелеке	-14084
▁недель	-14085
▁племян	-14086
▁старые	-14087
▁хребет	-14088
строение	-14089
▁километ	-14090
▁легенды	-14091
▁личного	-14092
▁полётов	-14093
▁посёлка	-14094
▁рестора	-14095
▁ассембле	-14096
▁покинуть	-14097
▁полезные	-14098
▁приходит	-14099
▁свойство	-14100
▁сообщает	-14101
▁финского	-14102
республика	-14103
▁запрещено	-14104
▁приведены	-14105
▁произошед	-14106
▁считались	-14107
▁участвуют	-14108
▁вступления	-14109
▁завоевания	-14110
▁конкретной	-14111
▁междугород	-14112
▁основатель	-14113
▁получивший	-14114
▁происходил	-14115
▁сохранился	-14116
▁учреждение	-14117
▁центрально	-14118
▁африканских	-14119
▁находящихся	-14120
▁перемещения	-14121
▁перестройки	-14122
▁технические	-14123
▁французском	-14124
▁вероисповеда	-14125
▁восстановить	-14126
▁наименования	-14127
▁составляющих	-14128
▁температурой	-14129
▁автомобильный	-14130
▁постановления	-14131
▁средневековой	-14132
▁распространена	-14133
3)	-14134
ni	-14135
οσ	-14136
13"	-14137
40"	-14138
ang	-14139
ast	-14140
ара	-14141
бат	-14142
дан	-14143
зри	-14144
лау	-14145
мбу	-14146
опа	-14147
ппе	-14148
сот	-14149
“».	-14150
▁67	-14151
▁mu	-14152
дием	-14153
мала	-14154
нтан	-14155
нуне	-14156
ринг	-14157
теры	-14158
▁(11	-14159
▁ser	-14160
▁вас	-14161
летии	-14162
обряд	-14163
▁1901	-14164
▁верн	-14165
▁всад	-14166
▁дроб	-14167
▁март	-14168
▁обру	-14169
▁прох	-14170
▁радо	-14171
▁челю	-14172
точные	-14173
числен	-14174
▁брать	-14175
▁затво	-14176
▁ионов	-14177
▁литве	-14178
▁подле	-14179
▁попал	-14180
▁рубля	-14181
▁ското	-14182
▁тепла	-14183
▁эдуар	-14184
ностями	-14185
спонден	-14186
▁анекдо	-14187
▁белков	-14188
▁бориса	-14189
▁гомофо	-14190
▁городи	-14191
▁джеймс	-14192
▁доктри	-14193
▁играли	-14194
▁кругло	-14195
▁львова	-14196
▁никара	-14197
▁обезья	-14198
▁обобще	-14199
▁приток	-14200
▁трудом	-14201
▁формат	-14202
ключения	-14203
родинами	-14204
ствующей	-14205
теризова	-14206
▁дыхания	-14207
▁задержа	-14208
▁образуя	-14209
▁планете	-14210
▁сложной	-14211
▁совпада	-14212
▁технике	-14213
▁третьем	-14214
▁царской	-14215
▁часовой	-14216
▁эффекта	-14217
▁близости	-14218
▁воинской	-14219
▁гиппокра	-14220
▁дальнего	-14221
▁доказать	-14222
▁изучении	-14223
▁написаны	-14224
▁немецким	-14225
▁пирамида	-14226
▁понедель	-14227
▁признать	-14228
▁финансов	-14229
регулирова	-14230
▁ассамблеи	-14231
▁кандидата	-14232
▁неоднозна	-14233
▁опасность	-14234
▁реального	-14235
▁содержать	-14236
▁сочетании	-14237
▁абсолютной	-14238
▁петрограде	-14239
▁появляться	-14240
▁президенту	-14241
▁чемпионате	-14242
▁королевской	-14243
▁натурфилосо	-14244
▁ограничений	-14245
▁приспособле	-14246
▁присутствие	-14247
▁просвещения	-14248
▁температуру	-14249
▁эксперимент	-14250
▁безопасность	-14251
▁определённое	-14252
▁транспортной	-14253
▁историографии	-14254
▁преобразование	-14255
pa	-14256
va	-14257
ил	-14258
▁ε	-14259
18"	-14260
30-	-14261
phi	-14262
ung	-14263
нив	-14264
ъём	-14265
гают	-14266
земе	-14267
кило	-14268
коди	-14269
мали	-14270
скар	-14271
сках	-14272
тары	-14273
▁cor	-14274
▁xml	-14275
▁бег	-14276
▁неа	-14277
▁оже	-14278
ystem	-14279
жская	-14280
ндией	-14281
▁двое	-14282
▁дешё	-14283
▁изли	-14284
▁иско	-14285
▁отто	-14286
▁ране	-14287
зависи	-14288
рирует	-14289
словно	-14290
ходила	-14291
▁барен	-14292
▁вышло	-14293
▁друже	-14294
▁казни	-14295
▁канто	-14296
▁рецен	-14297
▁флаги	-14298
▁баскет	-14299
▁вашинг	-14300
▁водные	-14301
▁голода	-14302
▁западу	-14303
▁лагеря	-14304
▁лешего	-14305
▁манипу	-14306
▁молока	-14307
▁орбите	-14308
▁охарак	-14309
▁похожи	-14310
▁родным	-14311
▁сканда	-14312
▁трудах	-14313
▁черепа	-14314
▁чертой	-14315
лизацией	-14316
▁берегах	-14317
▁вопреки	-14318
▁детских	-14319
▁ежеднев	-14320
▁изучать	-14321
▁коралло	-14322
▁ксенофо	-14323
▁лоренца	-14324
▁ричарда	-14325
▁сильных	-14326
▁среднюю	-14327
▁твёрдых	-14328
▁томской	-14329
▁третьим	-14330
▁фактора	-14331
▁черного	-14332
коммуника	-14333
▁академию	-14334
▁архимеда	-14335
▁болезней	-14336
▁женского	-14337
▁приорите	-14338
▁рассчиты	-14339
▁рептилий	-14340
▁сильного	-14341
▁спасения	-14342
▁энергией	-14343
▁очередной	-14344
▁протокола	-14345
▁растворов	-14346
▁состоящие	-14347
▁сочетание	-14348
▁электрона	-14349
▁двигателей	-14350
▁командиром	-14351
▁новозеланд	-14352
▁однозначно	-14353
▁охватывает	-14354
▁размещения	-14355
▁низменности	-14356
▁орбитальной	-14357
▁отсутствием	-14358
▁сократилось	-14359
▁физического	-14360
▁государствах	-14361
▁литературных	-14362
▁муниципалите	-14363
▁рассматривал	-14364
▁региональные	-14365
▁водохранилища	-14366
▁присоединения	-14367
▁охарактеризова	-14368
▁способствовали	-14369
17"	-14370
пев	-14371
тум	-14372
▁ki	-14373
ight	-14374
мара	-14375
нула	-14376
рент	-14377
рион	-14378
сант	-14379
фона	-14380
▁вал	-14381
▁гря	-14382
▁фрэ	-14383
водов	-14384
довым	-14385
повед	-14386
рокко	-14387
согла	-14388
факто	-14389
чиями	-14390
ьерке	-14391
▁1898	-14392
▁дано	-14393
▁дево	-14394
▁джай	-14395
▁зимы	-14396
▁коры	-14397
▁лиди	-14398
▁мене	-14399
▁мера	-14400
менную	-14401
титель	-14402
щегося	-14403
▁2010-	-14404
▁арабо	-14405
▁впада	-14406
▁генна	-14407
▁данте	-14408
▁интуи	-14409
▁итого	-14410
▁крыла	-14411
▁кухня	-14412
▁митин	-14413
▁никак	-14414
▁прибе	-14415
▁связя	-14416
▁селек	-14417
▁шахма	-14418
▁бывшие	-14419
▁зароди	-14420
▁картин	-14421
▁короны	-14422
▁лучшим	-14423
▁мартин	-14424
▁моторо	-14425
▁низких	-14426
▁новыми	-14427
▁решить	-14428
▁строки	-14429
▁сульфа	-14430
▁талант	-14431
▁финики	-14432
▁хребта	-14433
▁адмирал	-14434
▁альбома	-14435
▁великое	-14436
▁встрече	-14437
▁гумилёв	-14438
▁древнем	-14439
▁партией	-14440
▁периоду	-14441
▁таблице	-14442
▁участка	-14443
▁формами	-14444
▁землевла	-14445
▁небесной	-14446
▁немецком	-14447
▁областью	-14448
▁получены	-14449
▁построил	-14450
▁прямоуго	-14451
▁способен	-14452
▁статусом	-14453
▁цифровой	-14454
▁выступали	-14455
▁изменении	-14456
▁измерений	-14457
▁интеллект	-14458
▁массового	-14459
▁подземных	-14460
▁потенциал	-14461
▁созданием	-14462
▁считаться	-14463
▁исключение	-14464
▁магистрали	-14465
▁ознаменова	-14466
▁определены	-14467
▁постоянное	-14468
▁российским	-14469
▁статистики	-14470
▁унаследова	-14471
▁необходимые	-14472
▁украинского	-14473
▁химического	-14474
▁заместителем	-14475
▁классическая	-14476
▁парламентских	-14477
▁туркменистана	-14478
▁представителем	-14479
▁представлениям	-14480
ob	-14481
ug	-14482
75"	-14483
ell	-14484
our	-14485
ple	-14486
жек	-14487
зеф	-14488
знь	-14489
кен	-14490
ллу	-14491
реи	-14492
рый	-14493
цки	-14494
▁72	-14495
▁am	-14496
лять	-14497
стил	-14498
туро	-14499
член	-14500
▁бол	-14501
▁оку	-14502
▁пан	-14503
земля	-14504
ровые	-14505
▁1700	-14506
▁1890	-14507
▁арка	-14508
▁зима	-14509
▁ирты	-14510
▁ливо	-14511
▁мозг	-14512
▁орла	-14513
▁орёл	-14514
▁похи	-14515
▁скот	-14516
▁смяг	-14517
▁штор	-14518
говари	-14519
дением	-14520
менкла	-14521
▁1940-	-14522
▁волге	-14523
▁вошед	-14524
▁вторг	-14525
▁греко	-14526
▁медиа	-14527
▁ничто	-14528
▁опаса	-14529
▁осени	-14530
▁остры	-14531
▁приба	-14532
▁сбора	-14533
▁следы	-14534
▁смеши	-14535
▁споры	-14536
▁услож	-14537
рациона	-14538
▁вперёд	-14539
▁гендер	-14540
▁геродо	-14541
▁дистри	-14542
▁индекс	-14543
▁иннова	-14544
▁кьерке	-14545
▁лютера	-14546
▁миролю	-14547
▁пришло	-14548
▁съёмки	-14549
▁устаре	-14550
▁атомной	-14551
▁дефицит	-14552
▁желание	-14553
▁колоний	-14554
▁крупной	-14555
▁мирного	-14556
▁образцу	-14557
▁победил	-14558
▁подлежа	-14559
▁приняло	-14560
▁разгром	-14561
▁реакций	-14562
▁секунды	-14563
▁сервера	-14564
▁солдаты	-14565
▁условии	-14566
▁византии	-14567
▁возможны	-14568
▁грузовых	-14569
▁здоровье	-14570
▁киргизии	-14571
▁мышление	-14572
▁открытом	-14573
▁позднего	-14574
▁приказом	-14575
▁родители	-14576
▁важнейшие	-14577
▁верховным	-14578
▁достигают	-14579
▁елизаветы	-14580
▁заявление	-14581
▁известное	-14582
▁исходного	-14583
▁приобрела	-14584
▁созданная	-14585
▁древнейших	-14586
▁знаменитый	-14587
▁миллиардов	-14588
▁нахождения	-14589
▁славянской	-14590
▁установили	-14591
▁чиновников	-14592
▁музыкальный	-14593
▁приднестров	-14594
▁разработаны	-14595
▁ярославской	-14596
▁изображением	-14597
▁установление	-14598
▁классического	-14599
ib	-14600
xt	-14601
ack	-14602
der	-14603
зян	-14604
йдя	-14605
кня	-14606
нео	-14607
нёр	-14608
пса	-14609
▁ао	-14610
дром	-14611
маха	-14612
один	-14613
панк	-14614
реат	-14615
склю	-14616
слан	-14617
спор	-14618
▁114	-14619
▁116	-14620
▁117	-14621
▁sun	-14622
▁tcp	-14623
▁гет	-14624
берге	-14625
брасы	-14626
гипет	-14627
стный	-14628
▁1870	-14629
▁врач	-14630
▁долг	-14631
▁едва	-14632
▁лаза	-14633
▁мыса	-14634
▁мяса	-14635
▁охот	-14636
▁семе	-14637
▁возму	-14638
▁знает	-14639
▁литви	-14640
▁повол	-14641
▁прино	-14642
▁свете	-14643
▁черни	-14644
▁черня	-14645
африкан	-14646
вленная	-14647
▁бахрей	-14648
▁верова	-14649
▁вывода	-14650
▁госуда	-14651
▁двугла	-14652
▁запоро	-14653
▁контак	-14654
▁пассив	-14655
▁победо	-14656
▁прелом	-14657
▁эритре	-14658
▁горожан	-14659
▁доброво	-14660
▁драгоце	-14661
▁полагал	-14662
▁полиция	-14663
▁примере	-14664
западного	-14665
▁алгоритм	-14666
▁выпущена	-14667
▁королевы	-14668
▁получали	-14669
▁участках	-14670
логическую	-14671
▁коллекции	-14672
▁механизма	-14673
▁направлен	-14674
▁незадолго	-14675
▁обработка	-14676
▁позволили	-14677
▁серьёзные	-14678
▁телерадио	-14679
▁называлась	-14680
▁проживания	-14681
▁ассоциирова	-14682
▁достоинства	-14683
▁конструкция	-14684
▁указывается	-14685
▁владивостока	-14686
▁демонстрации	-14687
▁православная	-14688
▁автомобильных	-14689
▁разновидности	-14690
▁сохранившихся	-14691
▁сформулировал	-14692
▁соответствующей	-14693
мп	-14694
—7	-14695
!».	-14696
12"	-14697
30"	-14698
бог	-14699
див	-14700
ита	-14701
лец	-14702
нян	-14703
▁51	-14704
▁99	-14705
безо	-14706
лица	-14707
ндра	-14708
▁1,3	-14709
[...]
