<unk>	0
<s>	0
</s>	0
,	-3.16589
.	-3.34152
▁в	-3.57318
▁и	-3.93686
▁	-3.99673
а	-4.1868
е	-4.45894
▁на	-4.67826
▁с	-4.70705
и	-4.99752
м	-5.05941
-	-5.06099
▁—	-5.06529
▁(	-5.08867
▁«	-5.09088
ы	-5.12438
▁по	-5.21168
х	-5.22587
у	-5.28995
о	-5.33543
▁не	-5.40603
й	-5.4142
ом	-5.48638
▁к	-5.49324
ов	-5.52846
:	-5.63136
▁из	-5.64979
▁##	-5.67731
▁а	-5.71575
»	-5.74448
▁года	-5.77684
"	-5.78603
▁от	-5.79988
▁году	-5.80563
ой	-5.83835
)	-5.84784
▁как	-5.98347
▁что	-5.99568
▁за	-6.0428
▁для	-6.06772
▁о	-6.08529
▁при	-6.09001
▁"	-6.10273
ми	-6.1282
я	-6.14325
▁до	-6.16028
).	-6.20761
▁также	-6.23558
го	-6.24607
в	-6.25088
),	-6.27584
▁у	-6.29514
с	-6.31487
ая	-6.35609
▁его	-6.3963
="	-6.40258
ных	-6.40336
ами	-6.42155
▁был	-6.45293
ся	-6.46151
ого	-6.47511
ные	-6.52085
ной	-6.55384
»,	-6.60349
;	-6.61169
▁или	-6.65437
».	-6.66342
ий	-6.66859
ный	-6.66865
т	-6.67211
ия	-6.6739
ки	-6.67983
но	-6.70262
▁он	-6.72117
на	-6.73412
doc	-6.735
>	-6.73756
▁но	-6.74062
ка	-6.74321
ых	-6.77867
▁под	-6.78031
ю	-6.78488
ного	-6.79107
ли	-6.79733
ие	-6.85488
▁год	-6.86763
ная	-6.88839
▁были	-6.89662
▁это	-6.91992
▁во	-6.92014
▁после	-6.9214
/	-6.92485
ах	-6.92755
▁со	-6.9292
▁было	-6.92958
ет	-6.93077
▁так	-6.93612
▁время	-6.9493
ии	-6.96746
ую	-6.97242
▁то	-6.97936
▁является	-7.00432
d	-7.01538
▁была	-7.01788
л	-7.02172
▁же	-7.03194
ей	-7.04796
к	-7.05073
ые	-7.05507
▁%	-7.07076
ь	-7.08187
н	-7.11514
▁м	-7.1217
ской	-7.12637
▁более	-7.13861
▁г	-7.14067
за	-7.15018
ский	-7.15076
ным	-7.15146
г	-7.15987
▁1	-7.16438
ского	-7.16844
не	-7.17577
ть	-7.18802
д	-7.19469
ый	-7.19725
▁их	-7.22994
▁про	-7.23759
▁об	-7.23809
ла	-7.24055
ое	-7.25624
ию	-7.26968
ное	-7.29295
ым	-7.30569
по	-7.31048
?	-7.31069
ам	-7.31739
ч	-7.32149
▁только	-7.3348
их	-7.33617
▁её	-7.3434
ru	-7.34766
ская	-7.36195
та	-7.37146
—	-7.37825
▁18	-7.38248
▁пере	-7.39031
▁том	-7.39787
▁п	-7.39947
▁раз	-7.40642
ies	-7.40732
▁однако	-7.41024
org	-7.41078
▁города	-7.41326
▁id	-7.41927
▁которые	-7.41931
wiki	-7.41979
им	-7.4217
://	-7.42683
curi	-7.42759
wikipedia	-7.42855
https	-7.42892
▁url	-7.42931
ш	-7.42963
▁<	-7.42987
▁title	-7.42989
▁categor	-7.43066
▁</	-7.43164
▁между	-7.43506
▁века	-7.44198
п	-7.44246
ж	-7.45185
▁т	-7.45202
ную	-7.45493
ем	-7.46293
▁н	-7.46317
б	-7.4669
▁э	-7.47979
▁россии	-7.48039
▁лет	-7.48594
▁д	-7.49038
▁formula	-7.50026
з	-7.51485
▁все	-7.54119
ку	-7.54492
см	-7.5496
р	-7.55904
▁страны	-7.56448
ном	-7.56785
▁17	-7.56824
ется	-7.57154
▁может	-7.57304
▁2	-7.57496
▁населения	-7.58764
▁который	-7.58988
ф	-7.59638
му	-7.5994
ок	-7.60081
▁этом	-7.62797
от	-7.62907
▁они	-7.6324
▁того	-7.64755
▁человек	-7.64899
▁есть	-7.64986
ными	-7.65502
ских	-7.66205
▁которых	-7.66573
▁ссср	-7.66665
ва	-7.66885
▁около	-7.67437
да	-7.69254
|	-7.69535
ение	-7.7003
лись	-7.70042
ке	-7.70076
сти	-7.71494
то	-7.72398
ля	-7.72656
▁3	-7.73347
▁где	-7.73586
▁тем	-7.73867
▁территории	-7.75071
▁других	-7.75404
c	-7.75813
ен	-7.7591
▁этого	-7.76346
ить	-7.77155
ют	-7.78278
▁часть	-7.78978
s	-7.79307
▁области	-7.79745
категория	-7.80136
ль	-7.80452
▁период	-7.80689
ни	-7.81008
ются	-7.82164
▁через	-7.82381
▁5	-7.82543
▁10	-7.84006
ков	-7.84195
▁4	-7.84199
ские	-7.84259
ны	-7.84533
те	-7.84955
▁когда	-7.85094
из	-7.85176
▁де	-7.85902
▁15	-7.86239
▁ещё	-7.86466
▁них	-7.86842
▁быть	-7.87474
га	-7.87703
▁можно	-7.87716
▁город	-7.89051
ин	-7.89245
ко	-7.89629
▁уже	-7.89674
ил	-7.90512
▁стал	-7.9091
ения	-7.90969
▁вы	-7.91141
19	-7.91448
▁без	-7.91597
до	-7.91926
2	-7.92753
▁например	-7.92852
▁среди	-7.93084
ра	-7.93189
▁км	-7.94186
ст	-7.94196
са	-7.94278
ит	-7.94464
▁другие	-7.96214
▁части	-7.96242
ском	-7.96441
ло	-7.96617
▁всех	-7.96663
де	-7.97032
▁если	-7.97242
или	-7.97795
▁времени	-7.97814
▁ф	-7.98119
▁сша	-7.98485
ности	-7.98534
▁всего	-7.98551
▁она	-7.98818
вер	-7.99281
об	-7.99917
▁являются	-7.99939
ти	-8.00059
▁6	-8.00364
чи	-8.00505
▁16	-8.00527
▁согласно	-8.00581
▁(19	-8.01391
▁войны	-8.02353
▁чем	-8.02951
▁несколько	-8.03263
▁которой	-8.03764
ле	-8.03994
ность	-8.04009
▁я	-8.04258
▁имеет	-8.04348
ское	-8.05144
▁жизни	-8.05217
лся	-8.05908
▁состав	-8.06696
▁над	-8.07061
▁ре	-8.07116
▁наиболее	-8.07201
ыми	-8.07704
▁ни	-8.07964
▁этот	-8.08072
ния	-8.08243
ться	-8.09362
▁эти	-8.09659
▁числе	-8.09683
▁млн	-8.09929
▁место	-8.10185
лась	-8.10273
",	-8.10581
▁образом	-8.11019
▁системы	-8.1175
▁которая	-8.11969
ал	-8.11981
ист	-8.12234
▁годов	-8.12347
▁8	-8.12382
▁один	-8.12386
▁кон	-8.12539
▁могут	-8.12549
▁12	-8.12857
▁б	-8.12933
▁тыс	-8.12957
ри	-8.13205
▁годы	-8.1352
▁7	-8.1372
▁чтобы	-8.13796
▁лишь	-8.13982
▁три	-8.14027
сть	-8.14334
ц	-8.14804
=	-8.15222
▁качестве	-8.1568
ты	-8.15759
▁годах	-8.17162
ру	-8.17723
▁бы	-8.1773
кой	-8.17851
со	-8.17992
▁ли	-8.18213
тор	-8.18489
лось	-8.19249
▁двух	-8.19448
▁название	-8.19523
он	-8.1979
ре	-8.19975
ости	-8.20274
ись	-8.2036
э	-8.20867
▁которого	-8.21201
ев	-8.21272
▁мира	-8.21346
▁против	-8.21501
▁кроме	-8.21578
ба	-8.21843
ство	-8.2198
▁язык	-8.21991
▁составляет	-8.22178
▁сам	-8.22217
▁("	-8.22756
ги	-8.22772
ским	-8.22833
нов	-8.22869
▁этой	-8.23676
▁пред	-8.24489
ать	-8.24648
ор	-8.24744
▁связи	-8.24829
ди	-8.25336
▁9	-8.25519
ось	-8.25697
че	-8.25984
▁мире	-8.26344
ар	-8.26503
ства	-8.26713
▁20	-8.26799
▁своей	-8.26921
ос	-8.27243
▁ряд	-8.27417
при	-8.27551
▁два	-8.27917
▁собой	-8.28421
▁себя	-8.28675
▁14	-8.292
▁некоторые	-8.29643
ма	-8.30464
▁человека	-8.30723
▁пре	-8.31351
▁ко	-8.31443
▁др	-8.31554
▁результате	-8.31575
скую	-8.31652
▁11	-8.32181
мер	-8.32393
▁мир	-8.32463
▁второй	-8.32971
мен	-8.33063
▁власти	-8.33106
лен	-8.33416
во	-8.338
▁13	-8.34177
▁государства	-8.34418
▁городе	-8.34482
▁языка	-8.34523
▁рас	-8.34802
ман	-8.35164
▁много	-8.35175
▁хотя	-8.35185
▁стран	-8.35268
▁день	-8.3535
▁(«	-8.35781
▁многие	-8.35888
▁стали	-8.36348
ве	-8.36556
ер	-8.36631
про	-8.36813
ние	-8.37105
▁i	-8.37338
▁даже	-8.37401
ком	-8.37493
цы	-8.37913
▁ш	-8.38081
ту	-8.38161
па	-8.38989
ив	-8.39221
▁число	-8.39623
▁одной	-8.39652
▁тысяч	-8.39759
се	-8.3981
▁система	-8.40355
▁свою	-8.40796
тер	-8.41165
ну	-8.41269
▁одним	-8.4177
лю	-8.41901
▁начале	-8.42011
▁ар	-8.42253
▁часто	-8.4305
овой	-8.43146
▁российской	-8.43302
ому	-8.43306
▁этих	-8.43456
&	-8.4369
▁затем	-8.43744
ан	-8.44006
3	-8.44267
овых	-8.44431
▁января	-8.44584
▁первый	-8.44617
▁количество	-8.45328
▁обычно	-8.45509
▁земли	-8.4584
▁самы	-8.46227
▁менее	-8.4634
▁слова	-8.46565
▁перед	-8.46632
▁таким	-8.46721
▁вместе	-8.46915
▁ему	-8.4711
изм	-8.47473
ник	-8.47548
▁гор	-8.48308
ск	-8.48408
_	-8.48846
▁конце	-8.48989
▁веке	-8.49
ась	-8.49004
ще	-8.49188
▁стране	-8.49307
ость	-8.49461
▁находится	-8.4974
▁очень	-8.50354
▁работы	-8.50427
си	-8.50968
ня	-8.51559
▁мая	-8.51616
▁прав	-8.5166
▁поэтому	-8.51774
n	-8.51902
▁всё	-8.51984
▁больше	-8.5211
▁расположен	-8.52121
ении	-8.52125
y	-8.52251
▁имеют	-8.52349
ду	-8.52385
мо	-8.5243
ча	-8.52506
en	-8.52588
▁почти	-8.53026
▁такие	-8.53297
▁те	-8.53406
▁группы	-8.53604
од	-8.53724
би	-8.54488
▁марта	-8.5449
▁частности	-8.54595
ина	-8.54676
▁виде	-8.5519
▁большинство	-8.55352
ви	-8.55508
]]	-8.55653
▁августа	-8.55998
▁теории	-8.56121
вы	-8.56141
ят	-8.56277
▁своих	-8.56416
▁случае	-8.56472
▁числа	-8.56556
▁декабря	-8.56604
▁истории	-8.57094
▁30	-8.57556
ья	-8.57573
▁моря	-8.57632
ией	-8.58587
1	-8.59441
зи	-8.59523
ён	-8.60009
▁которое	-8.60118
ис	-8.60398
▁xx	-8.60542
0	-8.60627
ель	-8.60719
▁данным	-8.6116
ат	-8.61321
▁июля	-8.6162
ров	-8.61629
▁население	-8.61664
▁июня	-8.61868
овые	-8.61873
▁своего	-8.61884
4	-8.61884
▁некоторых	-8.61926
али	-8.61971
▁xix	-8.61986
▁основном	-8.62322
ному	-8.62473
5	-8.62543
▁котором	-8.62561
▁сентября	-8.62747
▁республики	-8.62802
▁здесь	-8.62866
▁существует	-8.63003
▁л	-8.63035
ний	-8.63075
ием	-8.63412
▁[[	-8.63449
▁стала	-8.63648
жи	-8.63674
▁транспорт	-8.63721
▁c	-8.63729
вод	-8.6391
▁роль	-8.64121
▁поскольку	-8.64191
ша	-8.64219
▁таких	-8.64663
▁план	-8.64688
цев	-8.64843
су	-8.64876
▁центр	-8.64887
▁впервые	-8.64992
▁стороны	-8.65286
▁первой	-8.65294
")	-8.65625
нии	-8.65792
▁языке	-8.65862
ец	-8.65979
аль	-8.6602
▁развития	-8.66138
щ	-8.66163
лет	-8.66224
▁начала	-8.66328
▁острова	-8.6642
гу	-8.66434
k	-8.66486
▁президент	-8.66537
10	-8.6662
ур	-8.66644
цион	-8.67133
ше	-8.6731
дер	-8.67622
▁характер	-8.67885
▁именно	-8.68207
▁°	-8.68207
ге	-8.68589
▁октября	-8.68827
▁будет	-8.68992
▁история	-8.6914
20	-8.692
▁суд	-8.69366
▁апреля	-8.70048
lt	-8.70063
▁имени	-8.70319
▁значение	-8.70602
оз	-8.70716
ает	-8.70864
▁людей	-8.70878
вед	-8.70961
пе	-8.71094
▁%,	-8.71122
▁течение	-8.71215
▁момент	-8.71548
▁25	-8.71586
▁различных	-8.71924
▁союз	-8.72034
o	-8.72122
▁эта	-8.72315
кон	-8.7234
ками	-8.72392
▁дел	-8.72425
b	-8.7274
▁мо	-8.7281
▁право	-8.7293
▁многих	-8.72956
▁ii	-8.73315
▁основе	-8.73385
лы	-8.73546
▁одно	-8.73641
▁него	-8.73658
▁кар	-8.73818
l	-8.73833
ци	-8.73891
▁создан	-8.74482
▁настоящее	-8.74656
▁северо	-8.74746
ир	-8.7503
▁тогда	-8.75086
a	-8.75563
▁особенно	-8.75764
ических	-8.75871
▁сил	-8.75952
ро	-8.75962
▁совет	-8.76196
ова	-8.76325
▁родились	-8.76479
ё	-8.76594
gt	-8.76868
▁вод	-8.77043
▁две	-8.77115
»)	-8.77231
ды	-8.77392
▁само	-8.77855
▁воз	-8.77881
▁используется	-8.77885
изма	-8.77904
m	-8.78084
▁ноября	-8.78294
▁воды	-8.78443
▁основные	-8.78472
ников	-8.78537
▁море	-8.78588
ун	-8.78607
00	-8.78755
▁видов	-8.7877
родившие	-8.78808
▁ди	-8.78811
▁термин	-8.79104
▁скончались	-8.79113
бы	-8.79255
▁благодаря	-8.79262
тов	-8.79385
▁получил	-8.79605
умершие	-8.79714
́	-8.79906
иль	-8.8004
ации	-8.80092
▁стало	-8.80238
▁февраля	-8.80315
▁кор	-8.80437
раз	-8.80448
▁реки	-8.80487
▁ин	-8.80499
g	-8.80534
▁s	-8.80597
ца	-8.80812
▁совета	-8.80854
▁армии	-8.80925
вар	-8.81082
сто	-8.81291
лей	-8.81396
▁первые	-8.81612
▁трёх	-8.81669
вал	-8.81715
же	-8.81729
▁закон	-8.82021
▁развитие	-8.82241
жд	-8.82554
▁млрд	-8.8261
▁правительства	-8.8265
вин	-8.83099
▁свои	-8.83322
▁движения	-8.83778
▁га	-8.8423
лин	-8.84494
▁им	-8.8453
фа	-8.84571
7	-8.84612
смотря	-8.84676
e	-8.84712
▁пар	-8.85329
▁з	-8.8548
▁правительство	-8.85515
▁происходит	-8.85674
▁полностью	-8.85842
▁языков	-8.85927
▁да	-8.85949
ика	-8.86149
рав	-8.86298
▁помощью	-8.86426
▁империи	-8.86475
▁no	-8.86501
▁либо	-8.86606
жен	-8.86648
нд	-8.86994
пл	-8.87129
ями	-8.87344
зна	-8.87352
t	-8.87533
ировать	-8.87556
▁2010	-8.87558
▁влияние	-8.87702
▁другой	-8.87817
▁вер	-8.87855
ают	-8.87859
▁объём	-8.87995
род	-8.88001
▁федерации	-8.8826
▁р	-8.88325
▁организации	-8.88431
ими	-8.88472
▁юго	-8.88621
p	-8.88662
ним	-8.88671
три	-8.88695
▁силы	-8.88793
▁пор	-8.88807
▁основан	-8.88818
▁вид	-8.88906
▁первым	-8.88981
▁практически	-8.89083
ща	-8.89116
▁co	-8.89254
▁завод	-8.89445
▁партии	-8.89497
кор	-8.89544
ция	-8.89574
бор	-8.90032
▁германии	-8.90288
▁мнению	-8.90414
ус	-8.90536
ней	-8.90635
25	-8.90665
▁власть	-8.90806
▁войска	-8.90834
▁одного	-8.90896
▁ю	-8.91113
щи	-8.91167
▁новой	-8.91187
чен	-8.91217
ена	-8.9124
▁форм	-8.91473
ол	-8.91717
▁европе	-8.91752
ики	-8.91762
▁мировой	-8.91802
ические	-8.91847
▁ан	-8.91903
▁()	-8.91933
▁примерно	-8.9198
стан	-8.92065
ений	-8.92207
▁церкви	-8.92269
кс	-8.92386
нос	-8.92477
▁бо	-8.92703
▁иногда	-8.92926
ющие	-8.92948
▁смерти	-8.92953
▁оно	-8.93096
скому	-8.93137
ению	-8.93164
ции	-8.93265
тур	-8.933
▁род	-8.9342
▁слово	-8.93597
▁счёт	-8.9362
30	-8.93729
бе	-8.93885
▁там	-8.93895
▁относительно	-8.93919
тон	-8.93929
ёр	-8.93975
▁значительно	-8.94068
▁переход	-8.9424
ши	-8.94312
▁государство	-8.94322
»).	-8.94348
i	-8.94432
ры	-8.94466
ут	-8.94479
▁культуры	-8.94684
▁сер	-8.94725
ций	-8.94969
▁дж	-8.94983
бер	-8.9517
f	-8.95359
r	-8.95369
▁анти	-8.9537
(	-8.95398
ден	-8.95399
­	-8.95472
сы	-8.95622
▁тот	-8.95648
ид	-8.95731
ян	-8.95775
▁события	-8.95784
▁начало	-8.95821
вен	-8.95985
ирован	-8.9604
▁электро	-8.96066
▁образования	-8.96093
▁республика	-8.96144
▁порт	-8.96326
▁%)	-8.96402
зе	-8.96514
▁множество	-8.96655
6	-8.96776
▁большой	-8.9726
пол	-8.97301
▁па	-8.97335
▁«"	-8.97445
▁выше	-8.97582
пис	-8.97655
жа	-8.97913
▁себе	-8.97917
образ	-8.98137
▁философ	-8.98183
▁(18	-8.98272
ация	-8.98286
ска	-8.98523
▁чего	-8.98542
изации	-8.98575
▁отношения	-8.98711
дель	-8.98753
например	-8.98768
фи	-8.98826
бо	-8.98862
▁своё	-8.98873
▁деятельности	-8.99152
ста	-8.99155
▁открыт	-8.99244
▁союза	-8.99267
▁вопрос	-8.99301
▁мест	-8.99459
ич	-8.99557
▁начал	-8.9956
▁пол	-8.99653
▁наук	-8.99893
▁100	-8.99986
▁состоит	-9.00156
▁нет	-9.00214
50	-9.00219
▁очередь	-9.0034
мы	-9.00468
▁21	-9.00551
ового	-9.00689
ировал	-9.00721
);	-9.00879
ключ	-9.01116
▁государств	-9.0121
▁ру	-9.0126
▁поля	-9.0145
ско	-9.01556
ход	-9.01759
▁исследования	-9.01937
ству	-9.02043
▁представляет	-9.02062
▁бес	-9.02133
▁александр	-9.02197
▁50	-9.0222
▁проект	-9.02505
ъ	-9.02569
▁тех	-9.02641
ент	-9.02706
▁свет	-9.0281
▁широко	-9.02822
ств	-9.03001
▁систем	-9.03105
▁способ	-9.03127
40	-9.03177
▁граждан	-9.03211
▁статус	-9.03364
▁крестьян	-9.03486
▁ходе	-9.03508
дел	-9.03589
вид	-9.03629
▁действия	-9.03724
пер	-9.03729
бр	-9.03819
его	-9.03854
▁кол	-9.03884
▁возможно	-9.03997
ической	-9.0415
▁мы	-9.04206
▁ма	-9.04257
▁полу	-9.04369
▁пер	-9.045
▁просто	-9.0453
▁бар	-9.04625
▁городов	-9.04694
▁образование	-9.04759
▁разных	-9.04766
▁типа	-9.0511
она	-9.052
▁программ	-9.05202
▁впоследствии	-9.05281
уч	-9.05357
▁возможность	-9.05453
тен	-9.05547
лож	-9.05627
▁остров	-9.05709
11	-9.05734
▁бу	-9.05773
фе	-9.05793
▁процесс	-9.05959
дан	-9.06146
▁мог	-9.06154
▁ос	-9.0624
le	-9.06243
▁государственной	-9.06308
▁ней	-9.06323
ана	-9.06376
▁пост	-9.06419
▁2008	-9.06851
▁одна	-9.06895
▁мало	-9.06896
▁всей	-9.06901
▁президента	-9.07074
▁северной	-9.07083
стра	-9.07087
▁хо	-9.07179
ье	-9.07351
ющих	-9.07518
h	-9.07562
▁ле	-9.07609
▁этим	-9.07804
br	-9.0785
стро	-9.07893
дов	-9.07965
ены	-9.07965
▁2011	-9.08045
рон	-9.08055
▁точки	-9.08167
▁университет	-9.08291
▁жителей	-9.08323
лу	-9.0839
слов	-9.08406
▁считается	-9.08493
либо	-9.08569
▁слов	-9.08615
▁24	-9.08657
ясь	-9.08762
▁европы	-9.09124
тар	-9.09127
под	-9.09245
▁раздел	-9.09367
x	-9.0943
овым	-9.09494
▁22	-9.09551
▁активно	-9.09891
▁площади	-9.09931
▁линии	-9.09982
▁значения	-9.1006
▁философии	-9.10144
▁23	-9.10203
▁ранее	-9.10357
став	-9.10364
▁школы	-9.10378
гор	-9.10398
мин	-9.10525
стр	-9.10572
пу	-9.10586
стоя	-9.10676
нь	-9.10876
ём	-9.10911
▁лев	-9.11094
▁рек	-9.11154
▁функции	-9.11165
ул	-9.11266
ген	-9.11277
▁называется	-9.11298
нский	-9.11304
▁комплекс	-9.11328
оль	-9.11373
▁первая	-9.11375
оп	-9.11428
▁ч	-9.11639
▁права	-9.11649
▁новый	-9.11687
v	-9.11708
мор	-9.11738
ован	-9.11939
▁самым	-9.11993
▁2017	-9.12215
▁нём	-9.12254
▁зрения	-9.12298
▁позже	-9.12391
▁другими	-9.12469
▁составе	-9.1272
="6	-9.12769
▁область	-9.12811
27	-9.12943
ек	-9.12948
уд	-9.12951
бу	-9.13084
»),	-9.13122
▁назван	-9.1324
z	-9.13271
сс	-9.13316
▁китай	-9.13342
▁уровень	-9.13344
цен	-9.13677
▁сильно	-9.13911
dice	-9.13993
▁управления	-9.14191
▁украины	-9.14193
▁достаточно	-9.14296
▁птиц	-9.14345
ники	-9.14374
▁степени	-9.14402
▁рамках	-9.14618
▁император	-9.14641
▁цен	-9.14651
▁мин	-9.14693
тр	-9.14701
▁ха	-9.14719
▁состоянию	-9.14731
▁температура	-9.14925
▁большое	-9.14935
▁отличие	-9.14935
ера	-9.14967
]	-9.15021
▁различные	-9.15053
▁образ	-9.15089
▁движение	-9.15182
70	-9.15222
▁договор	-9.15296
▁2020	-9.15405
▁женщин	-9.15417
кар	-9.15427
▁данных	-9.15457
▁+	-9.15527
▁стандарт	-9.15722
▁дом	-9.15751
▁2009	-9.16032
▁нового	-9.16091
α	-9.1611
▁размер	-9.16173
ум	-9.16289
▁положение	-9.16415
▁%.	-9.16427
▁одновременно	-9.16446
▁часов	-9.16546
▁1991	-9.16559
▁главным	-9.16677
ический	-9.16724
▁ста	-9.16764
▁строительство	-9.16769
▁названия	-9.16794
▁театр	-9.16896
▁системе	-9.16905
▁свой	-9.16919
государственного	-9.16963
скими	-9.17154
▁жизнь	-9.17234
▁следует	-9.17318
▁бога	-9.17358
▁ним	-9.17538
▁писал	-9.17674
▁решение	-9.17692
▁месте	-9.17751
▁уровня	-9.17864
▁2018	-9.17887
▁страна	-9.17934
▁деятельность	-9.18087
▁площадь	-9.18292
▁2007	-9.18332
21	-9.18351
▁новых	-9.1844
▁общества	-9.18487
28	-9.18534
▁франции	-9.18537
▁выход	-9.18557
сон	-9.18629
▁промышленности	-9.18646
лён	-9.18879
▁ла	-9.19054
▁ра	-9.1906
=6	-9.19099
ала	-9.19199
▁кур	-9.19209
60	-9.19308
▁имя	-9.19351
город	-9.19372
▁нескольких	-9.19529
▁правило	-9.19701
▁поли	-9.19747
▁океан	-9.19873
ar	-9.19925
мир	-9.19985
▁теория	-9.19996
▁странах	-9.20102
том	-9.20106
▁климат	-9.20127
▁первого	-9.20166
▁iii	-9.20388
лад	-9.2039
▁генерал	-9.20429
15	-9.20443
▁полёт	-9.2056
▁западной	-9.20616
▁стро	-9.20662
ик	-9.20855
▁2014	-9.20903
▁институт	-9.20907
емых	-9.2102
ран	-9.21184
▁тонн	-9.21245
▁основных	-9.21386
пре	-9.21396
▁тому	-9.21453
▁округа	-9.21465
re	-9.21554
▁труд	-9.21634
▁южной	-9.2165
▁существуют	-9.21681
▁формы	-9.21682
▁друг	-9.21744
ическая	-9.21788
▁ро	-9.21827
рас	-9.21961
▁ги	-9.2198
▁всегда	-9.22022
пи	-9.22035
ланд	-9.22128
▁войск	-9.22195
▁конца	-9.22201
▁2019	-9.22233
нес	-9.22293
▁целом	-9.22301
86	-9.22383
▁2012	-9.22508
24	-9.22612
▁ор	-9.22621
▁целью	-9.22771
▁русского	-9.22801
▁26	-9.22804
ью	-9.22811
▁программы	-9.22841
▁пути	-9.22872
▁тела	-9.22909
▁2000	-9.2291
рез	-9.22994
▁включая	-9.23174
12	-9.23294
лов	-9.23366
нк	-9.23447
▁„	-9.23514
▁тай	-9.23521
▁27	-9.23653
тель	-9.23793
▁интерес	-9.23817
▁2013	-9.239
бл	-9.23939
▁такой	-9.24041
="4	-9.24091
▁островов	-9.24119
▁"«	-9.24272
▁науки	-9.24317
▁которым	-9.2437
▁помимо	-9.24464
▁изменения	-9.24701
13	-9.24796
ках	-9.2483
26	-9.24899
▁тип	-9.24936
▁ц	-9.24953
_1	-9.25011
ант	-9.25021
▁автор	-9.2506
ович	-9.25092
пут	-9.25162
ического	-9.25186
▁19	-9.25256
▁кам	-9.25315
▁группа	-9.25328
ав	-9.25383
▁современной	-9.25406
▁позднее	-9.25457
▁написан	-9.25466
σ	-9.25594
—20	-9.25712
вой	-9.25754
слав	-9.25788
▁общей	-9.25855
▁(20	-9.25916
ях	-9.25948
▁новые	-9.26048
in	-9.26083
▁называют	-9.26088
▁быстро	-9.26129
▁xviii	-9.26182
мест	-9.26375
▁радио	-9.26497
лев	-9.26525
▁государственный	-9.26611
▁территория	-9.26657
лом	-9.26733
мар	-9.26805
ились	-9.26824
▁частью	-9.26859
ложен	-9.26885
la	-9.26952
▁районе	-9.27012
▁стар	-9.27025
▁дней	-9.27045
луч	-9.27087
овая	-9.27102
поль	-9.27163
▁москве	-9.27202
▁40	-9.2722
▁россия	-9.27278
▁русской	-9.27474
сов	-9.27622
▁санкт	-9.27694
овал	-9.27849
▁лес	-9.27989
▁занимает	-9.28016
▁построен	-9.28071
истов	-9.28114
▁ниже	-9.28114
▁тур	-9.28205
18	-9.28275
▁чисел	-9.28419
▁этому	-9.28438
▁книги	-9.28442
▁которую	-9.28716
▁28	-9.28725
▁парламент	-9.28734
▁раствор	-9.28758
▁используются	-9.28886
рос	-9.28962
▁подход	-9.28969
▁голов	-9.29076
▁район	-9.29103
▁производства	-9.29117
="5	-9.29322
дар	-9.29338
▁мер	-9.29385
▁та	-9.29393
▁информации	-9.29525
эн	-9.29599
це	-9.29623
▁численность	-9.29727
цией	-9.29823
▁первое	-9.30036
атель	-9.30102
▁вокруг	-9.30161
цию	-9.30166
▁музей	-9.30204
ват	-9.30409
▁своим	-9.30484
вшие	-9.30497
▁пи	-9.30499
▁внутри	-9.30521
▁избран	-9.30558
▁революции	-9.30645
▁2016	-9.30668
ад	-9.30669
▁основной	-9.30692
▁премьер	-9.30742
итель	-9.30747
▁должен	-9.3077
ган	-9.30836
▁срок	-9.30845
▁ту	-9.30931
инг	-9.30947
енных	-9.30956
ирует	-9.30962
рус	-9.31012
▁ген	-9.31053
80	-9.31086
▁мор	-9.31124
▁систему	-9.31184
ион	-9.31203
цами	-9.31256
рен	-9.31262
▁зависимости	-9.31277
чат	-9.31298
29	-9.31355
▁последние	-9.31398
▁первых	-9.31414
ления	-9.31428
▁условиях	-9.3145
▁свойства	-9.31559
▁дат	-9.31565
▁участие	-9.31644
фер	-9.31665
ника	-9.31766
▁каждый	-9.31771
исты	-9.31784
реч	-9.31875
47	-9.31921
▁бел	-9.32027
▁позволяет	-9.32157
▁2015	-9.32186
нского	-9.32201
▁ответ	-9.32212
▁курс	-9.32227
▁административно	-9.32335
ился	-9.32381
▁дорог	-9.32499
▁понятие	-9.3254
▁дня	-9.32541
22	-9.32712
бра	-9.32745
рат	-9.32792
▁детей	-9.32796
▁официально	-9.32798
▁a	-9.32852
▁помощи	-9.32922
▁находятся	-9.33051
▁2006	-9.33105
▁связан	-9.33141
чёт	-9.3319
▁кино	-9.33339
▁должны	-9.33435
ила	-9.33552
▁0	-9.33606
ν	-9.33674
▁четыре	-9.33687
▁света	-9.33853
нут	-9.33924
▁первую	-9.33951
17	-9.33955
▁гу	-9.34017
▁работу	-9.34034
ания	-9.34066
▁восточной	-9.34098
72	-9.34102
▁умер	-9.3412
35	-9.34182
ющего	-9.34289
▁текст	-9.3435
ита	-9.34365
▁тро	-9.34393
▁класс	-9.34435
—18	-9.34443
нию	-9.34618
▁метод	-9.3473
иться	-9.34807
ёт	-9.34847
▁война	-9.34853
al	-9.34865
▁относятся	-9.34921
▁работа	-9.34922
45	-9.34989
▁использование	-9.35049
▁известно	-9.35051
▁начиная	-9.35123
▁крупных	-9.35138
ря	-9.35159
лиз	-9.35183
▁центра	-9.3523
▁ге	-9.35345
▁(),	-9.35353
▁вскоре	-9.35397
90	-9.35398
гер	-9.35415
▁ж	-9.35461
▁сто	-9.35488
▁долларов	-9.35518
▁29	-9.35562
▁научно	-9.35673
▁советского	-9.35695
95	-9.35711
99	-9.35734
▁000	-9.35754
▁языки	-9.35764
▁середине	-9.35777
68	-9.35881
ева	-9.35914
▁народ	-9.35994
▁соответствии	-9.36041
▁станции	-9.36047
▁решения	-9.36068
▁2005	-9.36077
стве	-9.3615
▁бог	-9.36167
▁искусства	-9.36213
кт	-9.36242
кан	-9.36253
▁век	-9.36262
8	-9.36341
▁цвет	-9.36553
▁поверхности	-9.36571
01	-9.36639
▁букв	-9.3668
▁the	-9.36777
▁код	-9.36782
шей	-9.36841
др	-9.36907
▁().	-9.36961
▁различ	-9.36983
вали	-9.37018
▁киев	-9.37021
14	-9.37021
▁самого	-9.37082
дж	-9.37096
▁версии	-9.37103
▁рост	-9.37118
▁вместо	-9.37119
▁приводит	-9.37166
▁поле	-9.37193
▁земель	-9.37208
вл	-9.37237
46	-9.37274
ёл	-9.37317
▁труда	-9.37335
▁мере	-9.37441
воз	-9.3747
▁аппарат	-9.37477
зы	-9.37542
тив	-9.37546
1"	-9.3756
уль	-9.37661
стей	-9.37683
▁существ	-9.37717
=5	-9.37753
▁становится	-9.37772
us	-9.37866
3"	-9.37896
▁постепенно	-9.38064
един	-9.38078
7"	-9.38087
an	-9.38092
▁пространства	-9.38146
нее	-9.38166
▁60	-9.38186
▁жив	-9.38195
союз	-9.38201
▁групп	-9.38292
▁роман	-9.3831
69	-9.3851
ел	-9.38545
▁свобод	-9.38566
▁ввп	-9.38655
вая	-9.38782
сп	-9.38822
раж	-9.38867
92	-9.38889
▁направлен	-9.38891
▁принцип	-9.3893
82	-9.39009
2"	-9.39145
▁элементов	-9.39217
▁ограничен	-9.39272
84	-9.39351
▁принято	-9.39385
▁путём	-9.39671
▁чел	-9.39677
6"	-9.39873
вели	-9.39931
u	-9.39964
▁флаг	-9.39969
▁соответственно	-9.40023
иков	-9.40055
тра	-9.40066
67	-9.40089
▁2004	-9.40119
▁уровне	-9.4017
▁меньше	-9.40184
вшихся	-9.40184
▁люди	-9.40219
16	-9.40268
ением	-9.40343
5"	-9.40443
тан	-9.40499
▁составляют	-9.40505
23	-9.40506
74	-9.40589
▁главе	-9.40605
▁обще	-9.40637
▁включает	-9.40644
▁[	-9.40679
твор	-9.40739
▁университета	-9.40811
▁использовать	-9.40891
▁конституции	-9.4091
▁факт	-9.4097
▁v	-9.41089
зо	-9.41095
▁форма	-9.41111
▁производство	-9.41316
▁партий	-9.41474
▁вес	-9.41502
▁прежде	-9.41517
▁работ	-9.4153
▁первоначально	-9.41605
▁своём	-9.41606
▁интернет	-9.41609
ший	-9.41654
ra	-9.41686
54	-9.41695
▁отдел	-9.41733
▁периода	-9.41735
“	-9.41796
▁компьютер	-9.42018
08	-9.42022
▁месяц	-9.42134
▁собор	-9.42162
75	-9.42168
▁большая	-9.42169
ирования	-9.4219
▁благо	-9.42276
▁каза	-9.42305
▁ло	-9.42347
▁животных	-9.42394
▁относится	-9.42503
▁эту	-9.42504
▁непосредственно	-9.42573
▁бур	-9.42658
▁городской	-9.4268
уз	-9.42681
ток	-9.42719
▁орган	-9.42726
▁ислам	-9.42772
▁владимир	-9.42816
81	-9.42823
▁русский	-9.42958
▁вновь	-9.43019
77	-9.43075
▁люб	-9.43115
▁дома	-9.43278
62	-9.43295
чин	-9.43323
центр	-9.4339
66	-9.43404
▁выбор	-9.43433
гар	-9.43441
▁азии	-9.43445
ёв	-9.43529
вшего	-9.43704
▁суда	-9.43735
4"	-9.43821
сен	-9.4384
96	-9.43958
лог	-9.44001
олог	-9.44066
▁центром	-9.44074
▁постоянно	-9.44076
▁ал	-9.44092
ван	-9.44095
▁солнца	-9.4415
енный	-9.44233
63	-9.44258
49	-9.44418
шен	-9.44425
8"	-9.44491
▁истин	-9.44601
78	-9.44624
шёл	-9.44745
="3	-9.44782
▁образован	-9.44818
▁опубликован	-9.44825
9"	-9.44839
▁ново	-9.44876
41	-9.44936
▁составил	-9.44939
▁высоко	-9.44988
ющий	-9.45038
▁2021	-9.45046
▁вида	-9.45147
▁частиц	-9.45189
ющей	-9.45204
or	-9.45262
▁мар	-9.45266
▁русских	-9.45324
лит	-9.45366
▁сан	-9.45412
▁энергии	-9.45447
▁пример	-9.45509
гре	-9.45605
доль	-9.4567
▁создания	-9.45704
▁дороги	-9.45754
▁района	-9.45774
гра	-9.45776
▁рода	-9.45929
▁земле	-9.4595
▁цар	-9.46
▁экономики	-9.46032
▁перевод	-9.46039
▁церковь	-9.46061
еж	-9.46124
▁советской	-9.46149
▁фактически	-9.46192
действ	-9.46286
▁направления	-9.46463
▁петра	-9.46497
ям	-9.46588
▁ба	-9.46589
▁четырёх	-9.46614
▁испан	-9.46618
▁установлен	-9.46633
▁пе	-9.46651
ак	-9.46665
▁&	-9.46755
стью	-9.46774
енные	-9.46777
▁ряда	-9.46803
сту	-9.46866
▁севере	-9.46868
▁компании	-9.46908
сер	-9.46915
85	-9.46934
▁честь	-9.46977
▁данные	-9.47022
73	-9.47028
▁связь	-9.47088
_2	-9.472
▁1917	-9.47215
▁класса	-9.47226
▁пан	-9.47227
▁марк	-9.47235
▁океана	-9.47383
▁опыт	-9.47405
91	-9.47441
▁рсфср	-9.47498
ается	-9.47579
пад	-9.4761
ром	-9.47664
▁маг	-9.47669
▁самой	-9.47675
▁масс	-9.47751
▁плат	-9.47781
▁оон	-9.47814
лан	-9.47822
▁карл	-9.47855
▁кто	-9.47869
▁центральной	-9.47939
▁вывод	-9.47944
зд	-9.4795
56	-9.48024
лон	-9.48025
тик	-9.48049
▁возможности	-9.48125
чита	-9.4813
▁причём	-9.48242
▁фи	-9.48316
▁равно	-9.48362
ro	-9.48373
▁силу	-9.48431
▁рыб	-9.48448
▁средств	-9.4849
▁b	-9.48521
▁внимание	-9.4854
▁xvii	-9.48563
крас	-9.48616
32	-9.48661
▁единиц	-9.48736
▁принял	-9.48741
пп	-9.48781
ред	-9.48808
▁которому	-9.48829
▁удалось	-9.4884
w	-9.48843
▁волн	-9.48881
▁границы	-9.48904
▁планет	-9.48959
ших	-9.4896
▁отношении	-9.48989
▁другим	-9.48997
▁создание	-9.49039
дал	-9.49145
83	-9.49164
▁развива	-9.49193
вший	-9.49199
▁имел	-9.49268
▁крас	-9.49274
гн	-9.49329
чер	-9.49336
ание	-9.49445
▁мол	-9.49469
34	-9.49567
▁великобритании	-9.49592
93	-9.49695
▁фе	-9.49709
ο	-9.49745
метр	-9.49852
▁документ	-9.4992
):	-9.4994
43	-9.5001
▁следующие	-9.5007
98	-9.50116
09	-9.5025
▁поэт	-9.50273
нг	-9.5038
▁назначен	-9.504
▁божеств	-9.50425
▁москвы	-9.50503
ющая	-9.50505
te	-9.50528
▁(1	-9.50553
▁идеи	-9.50567
▁ок	-9.50611
▁ри	-9.50673
48	-9.50694
76	-9.50715
71	-9.50722
▁резко	-9.50759
▁оста	-9.50763
эт	-9.50807
▁языках	-9.50935
▁ду	-9.51001
▁швед	-9.5117
кам	-9.51328
ике	-9.51331
овый	-9.51377
▁член	-9.51412
▁фа	-9.51421
▁потом	-9.51446
▁символ	-9.51542
▁мысли	-9.51544
▁ленин	-9.51567
▁юге	-9.51596
▁гг	-9.5163
05	-9.51696
бел	-9.51771
▁использования	-9.51789
97	-9.518
запад	-9.51843
04	-9.51916
87	-9.52051
▁преимущественно	-9.52073
▁анализ	-9.52092
▁пу	-9.52157
пят	-9.52212
▁кан	-9.52251
▁склон	-9.52257
пере	-9.52277
▁необходимо	-9.52299
ряд	-9.5231
альные	-9.52316
альный	-9.52317
▁машин	-9.52329
37	-9.52361
▁получила	-9.5237
▁признан	-9.52417
ится	-9.52423
58	-9.52444
▁меня	-9.52454
▁1990	-9.52507
▁считал	-9.52541
▁начали	-9.52572
▁объектов	-9.52766
▁p	-9.5277
фор	-9.52833
▁крупные	-9.52835
▁актив	-9.52837
▁хи	-9.52854
▁членов	-9.52912
▁получили	-9.52919
▁му	-9.52952
▁веков	-9.52959
▁общая	-9.5296
вшиеся	-9.52974
▁далее	-9.52988
=3	-9.53001
▁работал	-9.53049
▁произведения	-9.53104
зу	-9.5321
нер	-9.5323
▁новая	-9.53311
▁след	-9.53362
ирование	-9.53371
0"	-9.53532
мон	-9.53668
51	-9.53707
▁куп	-9.5372
39	-9.53786
▁двумя	-9.53798
▁неё	-9.53801
▁аэропорт	-9.53826
▁славян	-9.53927
▁средства	-9.53931
▁команд	-9.53933
▁понятия	-9.54076
▁лу	-9.54097
64	-9.54186
ностью	-9.54351
▁миллионов	-9.54364
▁виды	-9.5441
▁гол	-9.54419
▁опер	-9.54423
07	-9.54469
▁русском	-9.54547
▁жел	-9.54549
▁появились	-9.54561
лер	-9.54571
▁берлин	-9.54624
кова	-9.54653
▁2022	-9.54742
▁аль	-9.54789
▁депутатов	-9.548
▁круг	-9.54848
кур	-9.54967
▁закона	-9.54968
хан	-9.54976
▁хорошо	-9.54977
нской	-9.55003
ено	-9.55174
▁религии	-9.55188
▁дни	-9.55196
▁электрон	-9.5528
вор	-9.55307
▁f	-9.55324
▁новгород	-9.55349
▁жил	-9.55387
мат	-9.55409
33	-9.55499
▁представлен	-9.5552
36	-9.55569
овский	-9.55574
▁тер	-9.55576
аются	-9.55583
▁31	-9.55642
is	-9.55648
▁доступ	-9.55652
▁исход	-9.55688
овать	-9.55704
▁инженер	-9.55798
▁состояния	-9.5583
▁сети	-9.55883
▁состояние	-9.55991
▁газ	-9.56007
▁газа	-9.56014
▁руси	-9.56016
▁некоторо	-9.56152
▁игр	-9.56238
▁природы	-9.56316
42	-9.56334
▁работе	-9.56381
ε	-9.56395
луж	-9.56452
▁ес	-9.56477
▁1918	-9.56489
▁книг	-9.56497
38	-9.56517
▁потому	-9.56525
▁бер	-9.56539
клад	-9.56626
▁разработан	-9.56639
вшийся	-9.56677
ед	-9.56678
стер	-9.5679
▁означает	-9.568
▁солдат	-9.568
▁половине	-9.568
▁партия	-9.56805
чная	-9.56874
▁гер	-9.56886
ющихся	-9.56982
▁форме	-9.57013
="7	-9.57021
▁цк	-9.57098
▁свойств	-9.57211
▁средняя	-9.57255
▁безопасности	-9.57456
▁земля	-9.57458
79	-9.57477
лем	-9.57603
тора	-9.57632
59	-9.57661
▁президентом	-9.57669
▁городского	-9.57707
▁эффект	-9.57776
▁граф	-9.57834
=1	-9.57896
44	-9.57901
▁места	-9.57936
▁80	-9.58065
▁представления	-9.58079
03	-9.58098
▁модели	-9.58165
ителя	-9.58257
▁современных	-9.58273
31	-9.58287
▁xvi	-9.58358
88	-9.58374
▁острове	-9.58407
▁духов	-9.58444
▁клуб	-9.58472
▁муж	-9.58582
▁ран	-9.58748
фон	-9.58838
▁маршрут	-9.58869
▁смысл	-9.58881
▁меж	-9.58893
ология	-9.58935
▁ман	-9.59077
вол	-9.59214
▁распространение	-9.59268
▁вещества	-9.59402
ари	-9.59637
▁бе	-9.59663
▁би	-9.59672
коп	-9.59695
▁культура	-9.59712
чные	-9.59786
▁x	-9.59818
▁парк	-9.59839
▁1000	-9.59843
▁общего	-9.5987
▁традиции	-9.59935
́н	-9.59974
▁министров	-9.59988
▁имеется	-9.60017
емые	-9.60125
зем	-9.60132
li	-9.60152
06	-9.60153
▁пять	-9.60185
▁должно	-9.60289
▁см	-9.60299
▁бор	-9.6036
дом	-9.60361
▁военно	-9.60389
ины	-9.60414
▁пяти	-9.60546
53	-9.60629
лага	-9.60703
▁атом	-9.60717
er	-9.60778
год	-9.60818
яз	-9.60821
ch	-9.60822
▁e	-9.60859
▁пока	-9.60949
▁наличие	-9.61088
▁учение	-9.6121
▁чувств	-9.61243
▁окруж	-9.61345
65	-9.61417
▁войне	-9.6147
▁мусульман	-9.61475
°	-9.61495
меня	-9.61548
▁действует	-9.61626
▁предприятия	-9.61626
цов	-9.61668
▁финансов	-9.61724
▁нефти	-9.61798
").	-9.61799
▁готов	-9.61847
обра	-9.61874
▁компания	-9.61972
изация	-9.62028
▁названием	-9.62082
ti	-9.6209
шин	-9.62108
▁христиан	-9.62113
▁сеть	-9.62179
уш	-9.62241
пра	-9.62248
▁евро	-9.6238
▁промышленность	-9.62459
плоть	-9.62468
нс	-9.62498
▁ну	-9.62526
ia	-9.62583
61	-9.6265
▁тол	-9.62659
▁экономика	-9.62659
▁мед	-9.62738
ели	-9.62775
▁центре	-9.62827
▁протяжении	-9.62827
▁италии	-9.62828
▁собственно	-9.62831
▁правления	-9.62854
▁список	-9.63
▁государственных	-9.63019
ta	-9.63019
▁применение	-9.63023
▁всю	-9.63033
кре	-9.63089
▁отдельных	-9.6318
▁цикл	-9.63188
ющиеся	-9.63193
▁ти	-9.63227
▁длин	-9.63244
сла	-9.6326
9	-9.63286
ож	-9.63291
▁ак	-9.6331
▁сын	-9.63417
▁акт	-9.63487
▁японии	-9.63519
▁сталин	-9.63522
▁политика	-9.6353
▁2003	-9.63573
▁герб	-9.63599
▁ростов	-9.63656
селен	-9.63719
▁отлича	-9.63779
▁ядер	-9.63792
▁эр	-9.63817
▁здания	-9.63876
ило	-9.6388
▁принят	-9.64079
▁мастер	-9.64088
стат	-9.64098
тро	-9.64114
▁дело	-9.64308
▁языком	-9.64366
▁административны	-9.64392
▁1990-	-9.64406
ять	-9.64435
▁основным	-9.64452
▁представителей	-9.64567
▁школ	-9.64568
стор	-9.64788
ологии	-9.64797
нят	-9.64881
89	-9.64889
▁заявил	-9.6492
▁организация	-9.64927
▁независимости	-9.64964
▁подписан	-9.65091
орож	-9.65102
▁точно	-9.65108
▁кри	-9.65117
▁народа	-9.65123
телей	-9.6516
▁называем	-9.65213
▁коллектив	-9.65233
ma	-9.65245
▁веществ	-9.6525
▁типов	-9.6526
▁привело	-9.65273
▁политики	-9.65279
▁массы	-9.65281
▁рублей	-9.65283
св	-9.65438
▁объявил	-9.65449
▁народов	-9.65481
▁содержание	-9.65612
▁температуры	-9.65633
▁совместно	-9.65634
▁200	-9.6569
▁че	-9.65731
▁транспорта	-9.65759
▁чаще	-9.65815
форм	-9.65905
▁норм	-9.65956
▁произошло	-9.65982
рожд	-9.65996
сл	-9.66009
▁началось	-9.66048
онов	-9.66096
тели	-9.66104
el	-9.66152
льд	-9.66156
ι	-9.66203
▁дал	-9.66245
▁точка	-9.6626
▁70	-9.66281
нных	-9.66285
lo	-9.66353
ителей	-9.66479
▁военных	-9.66504
▁существенно	-9.66537
▁могли	-9.66548
2.	-9.66557
▁верховного	-9.66592
ски	-9.66619
▁колон	-9.66722
▁окончательно	-9.66725
пт	-9.66775
▁de	-9.66808
▁реш	-9.66855
▁пространство	-9.66871
▁полёта	-9.66913
сек	-9.66959
оф	-9.66966
национальный	-9.66973
▁входит	-9.67005
полн	-9.67034
55	-9.67071
▁среднем	-9.67248
▁минут	-9.67282
▁ум	-9.6733
так	-9.67367
▁получен	-9.67374
▁аб	-9.6739
▁побережье	-9.67417
альная	-9.67433
▁элементы	-9.67509
▁1992	-9.67612
▁речи	-9.67617
▁сделал	-9.67661
▁проблем	-9.67689
сь	-9.67767
▁армия	-9.67785
▁существование	-9.67785
кал	-9.67801
th	-9.67863
бан	-9.67988
▁весьма	-9.67988
▁связано	-9.68001
▁скорость	-9.68043
▁2001	-9.6805
▁экспорт	-9.68074
▁рф	-9.68081
de	-9.68092
шая	-9.68097
▁предложил	-9.68143
▁ша	-9.68146
▁космос	-9.68146
▁став	-9.68153
▁ши	-9.68178
▁открыл	-9.68192
▁кал	-9.68272
▁иметь	-9.68333
▁великой	-9.68343
▁традиционно	-9.6837
▁h	-9.68373
▁определение	-9.68376
ора	-9.68407
▁количества	-9.68515
▁сразу	-9.68518
▁рядом	-9.68584
▁2002	-9.68589
▁бело	-9.68632
щие	-9.68728
▁набор	-9.68757
▁комитет	-9.68795
▁удар	-9.68802
▁коп	-9.68835
▁хозяйства	-9.6888
▁яр	-9.6895
тика	-9.68995
▁идея	-9.69038
▁событий	-9.69057
▁территорию	-9.69057
ri	-9.69387
▁великого	-9.69401
▁вероятно	-9.69405
▁существования	-9.69431
шие	-9.69474
▁приём	-9.69475
рей	-9.69595
▁мм	-9.69617
▁метров	-9.69619
▁рассказ	-9.69644
▁фон	-9.69674
уп	-9.6972
▁режим	-9.69792
▁востоке	-9.69871
▁особенности	-9.69911
щая	-9.69976
▁кра	-9.70003
пс	-9.7011
▁предложен	-9.7015
▁наряду	-9.7017
at	-9.70207
ическое	-9.70212
сси	-9.70256
▁ст	-9.70284
▁частично	-9.70287
▁сейчас	-9.70406
▁проходил	-9.70448
▁выпуска	-9.70461
▁летом	-9.70499
▁богат	-9.70508
▁−	-9.70521
▁корабля	-9.70537
▁львов	-9.70538
ало	-9.70658
▁проблемы	-9.70771
▁леса	-9.70783
фик	-9.70847
▁сервер	-9.70849
тре	-9.70884
▁большую	-9.7091
▁импорт	-9.70926
▁выражен	-9.70948
дол	-9.70997
▁=	-9.70999
▁1941	-9.71015
▁бен	-9.71087
▁1945	-9.71112
▁тело	-9.71142
co	-9.71151
▁вариант	-9.71154
02	-9.7118
▁книга	-9.71186
▁мил	-9.71229
▁самом	-9.71276
▁герман	-9.71323
дор	-9.71375
кси	-9.71483
пар	-9.71516
▁городах	-9.71527
▁имели	-9.71544
кол	-9.71562
▁спор	-9.71623
94	-9.71625
готов	-9.71642
▁частей	-9.71666
▁модель	-9.7172
как	-9.7175
▁вынужден	-9.7185
▁диалект	-9.71858
▁оператор	-9.71871
▁написал	-9.72049
▁международных	-9.72076
рк	-9.72166
es	-9.72185
▁академии	-9.72229
▁исследований	-9.72256
▁должна	-9.72418
▁реформ	-9.72517
▁мост	-9.72559
▁самая	-9.72595
ируется	-9.72606
▁операции	-9.72627
▁доля	-9.72649
▁независимость	-9.72732
бол	-9.72813
▁случаях	-9.72888
▁региона	-9.72936
▁суб	-9.72951
гр	-9.73057
+	-9.73065
▁такое	-9.73095
ура	-9.73121
▁членом	-9.7313
▁множеств	-9.73145
▁тан	-9.73174
j	-9.73185
▁порядка	-9.73232
on	-9.73296
▁гидро	-9.733
ическую	-9.73345
▁одном	-9.73372
▁отсутствие	-9.73372
бит	-9.73415
стру	-9.73415
▁золото	-9.73416
▁древне	-9.7342
жу	-9.73447
лё	-9.73513
▁взаимодействия	-9.73564
▁механизм	-9.73564
▁проходит	-9.73586
ино	-9.73664
▁возник	-9.73681
▁сначала	-9.73764
▁отношение	-9.73792
▁расположены	-9.73831
▁золота	-9.73842
▁противо	-9.74019
▁стен	-9.74111
▁дальнейшем	-9.74138
▁(17	-9.74193
ацию	-9.74218
▁интер	-9.74327
▁отряд	-9.74332
▁свыше	-9.74342
▁указ	-9.74382
▁бал	-9.74516
▁поход	-9.74523
▁происхождение	-9.7453
▁рабочих	-9.7453
▁воздуха	-9.74536
▁чу	-9.74569
▁приказ	-9.74595
нт	-9.74617
▁ежегодно	-9.74724
нные	-9.74747
▁концу	-9.7475
it	-9.74753
▁используют	-9.7476
работ	-9.74932
нием	-9.75141
▁императора	-9.75159
▁приход	-9.75202
▁миф	-9.75222
▁звёзд	-9.75241
▁кос	-9.75265
▁имеются	-9.75265
▁дела	-9.75403
▁ними	-9.75594
▁линия	-9.75678
▁численности	-9.75707
▁среды	-9.75708
эк	-9.75731
▁масштаб	-9.75775
▁монет	-9.75866
▁эн	-9.75896
▁родился	-9.7594
сибирск	-9.75944
▁двор	-9.75956
▁культур	-9.75961
▁d	-9.76049
▁сравнению	-9.76094
▁общество	-9.76095
▁одну	-9.76096
кры	-9.76139
эм	-9.76171
дава	-9.7619
▁долг	-9.76223
град	-9.76245
▁той	-9.76266
▁автобус	-9.76291
▁крайне	-9.76347
▁куб	-9.76384
▁должность	-9.76413
▁g	-9.76424
▁ленина	-9.76463
▁большого	-9.76489
▁зем	-9.76492
▁сократ	-9.76541
альной	-9.76545
ень	-9.7658
▁ху	-9.76588
▁объявлен	-9.76602
▁псков	-9.76649
▁фронт	-9.76655
▁большей	-9.76673
▁мужчин	-9.76698
▁приходится	-9.7673
▁иран	-9.76809
казан	-9.76956
▁экс	-9.76965
▁пра	-9.76974
▁адрес	-9.76976
▁пара	-9.77066
нцев	-9.77068
▁конфликт	-9.77074
▁иностранных	-9.77084
стран	-9.77108
▁транс	-9.77176
поли	-9.77242
шу	-9.77322
▁хан	-9.77353
▁шар	-9.77428
▁выборах	-9.77429
▁проблема	-9.77458
изирован	-9.77478
▁литературе	-9.77483
▁500	-9.77498
▁округ	-9.77551
▁управление	-9.77644
▁холод	-9.77672
▁состоянии	-9.77682
теля	-9.77683
▁брак	-9.7783
▁лиц	-9.77847
▁выда	-9.77866
▁контроль	-9.77891
ально	-9.77949
овое	-9.77952
▁сбор	-9.77986
▁александра	-9.78079
▁позволяю	-9.78089
логи	-9.7813
▁представитель	-9.78242
▁сегодня	-9.7828
▁спас	-9.78304
▁даёт	-9.78346
программирования	-9.784
охран	-9.78401
дон	-9.78581
▁долл	-9.78616
▁мак	-9.78628
сказ	-9.78629
▁предприятий	-9.78689
▁происхождения	-9.78689
▁вооружённы	-9.78737
▁корон	-9.78765
бег	-9.78854
▁вклад	-9.78859
▁зависит	-9.78891
▁1999	-9.78907
▁iv	-9.79025
ющее	-9.7903
▁искусство	-9.7907
▁отдельно	-9.79079
▁январе	-9.79094
▁началась	-9.79162
▁определения	-9.79183
▁рук	-9.79227
ируют	-9.79284
▁сельскохозяйств	-9.79297
▁красно	-9.79298
▁международный	-9.79323
гон	-9.79392
▁вне	-9.79424
ne	-9.79485
▁крест	-9.79504
▁научных	-9.79504
▁встречаются	-9.79535
▁августе	-9.79556
▁такого	-9.79569
вести	-9.79595
▁новое	-9.79629
двига	-9.79629
▁действий	-9.79708
шев	-9.79713
вшей	-9.79715
иц	-9.79774
▁западе	-9.79805
воль	-9.79844
▁достиг	-9.7986
рис	-9.79869
▁причин	-9.79874
цк	-9.79905
▁вступил	-9.7991
-1	-9.7992
▁индии	-9.7993
▁вообще	-9.79963
▁лидер	-9.80008
▁уз	-9.80066
▁крупнейших	-9.80074
▁современного	-9.80114
аться	-9.80191
ni	-9.80233
▁районах	-9.80234
▁пла	-9.80244
илась	-9.80269
▁возраст	-9.80281
▁строительства	-9.8032
мент	-9.80323
▁пределах	-9.80358
▁военной	-9.80368
▁америки	-9.80525
st	-9.80553
▁осадков	-9.80562
▁мон	-9.80595
▁школа	-9.80643
атив	-9.80646
▁дев	-9.80662
▁довольно	-9.80732
▁назад	-9.80744
▁русские	-9.80763
клон	-9.80765
▁фин	-9.80831
▁национальной	-9.80865
as	-9.80872
▁нью	-9.80926
▁теле	-9.80942
шем	-9.80946
▁версия	-9.80951
▁скорости	-9.80964
пан	-9.80977
▁органы	-9.80977
▁праздник	-9.81117
ида	-9.81243
каз	-9.81299
▁смысле	-9.81356
▁всем	-9.81371
ард	-9.81416
▁средней	-9.8147
▁декабре	-9.81486
шего	-9.81503
рё	-9.81559
дина	-9.81623
▁методы	-9.81674
бар	-9.81676
▁мае	-9.81796
▁цифр	-9.81859
▁наука	-9.81882
▁иван	-9.81894
лес	-9.81917
▁другом	-9.81927
▁отношений	-9.81978
▁представители	-9.81979
▁фото	-9.82001
рова	-9.8205
▁специально	-9.82104
ическим	-9.82138
▁переписи	-9.82196
▁временем	-9.82222
▁m	-9.82243
▁вектор	-9.82258
▁получить	-9.82271
▁вода	-9.82295
ицы	-9.8234
▁отмен	-9.82347
▁пространстве	-9.82437
▁содержит	-9.82448
▁май	-9.82477
et	-9.82505
▁1980-	-9.82607
▁1940	-9.82629
рок	-9.8267
няя	-9.82745
▁советских	-9.82953
ing	-9.83014
▁больших	-9.83034
▁сср	-9.8314
▁получения	-9.83194
ата	-9.8321
▁пётр	-9.8324
▁положения	-9.83241
▁будут	-9.83258
▁необходим	-9.83276
кий	-9.83303
▁полос	-9.83366
енной	-9.83394
чу	-9.83397
▁вследствие	-9.83399
▁любой	-9.83428
▁1989	-9.83464
▁пыта	-9.83523
точ	-9.83644
▁троллейбус	-9.83664
am	-9.83766
▁проч	-9.83812
альных	-9.83827
▁дан	-9.83848
▁здание	-9.83877
рин	-9.83877
▁долго	-9.83955
ющим	-9.84019
▁матери	-9.84057
▁известны	-9.84067
▁литературы	-9.8409
▁состава	-9.84095
▁джон	-9.84106
▁записи	-9.84134
▁охот	-9.84174
▁случай	-9.8419
крыт	-9.84217
▁семи	-9.84313
▁июле	-9.84328
▁измерения	-9.84349
лли	-9.84375
▁берега	-9.84384
▁путь	-9.84418
▁1993	-9.84421
▁прямо	-9.84459
▁квантов	-9.84469
▁абсолютно	-9.8448
▁половины	-9.84523
da	-9.8463
▁марте	-9.8463
▁(2	-9.84662
▁знаком	-9.84673
"»	-9.84728
▁протокол	-9.84756
▁сделан	-9.84774
▁молод	-9.84783
▁развит	-9.84841
▁спорт	-9.84871
▁мел	-9.84916
▁теперь	-9.84947
▁ныне	-9.84954
▁физики	-9.84956
se	-9.84998
▁оп	-9.85061
▁исключением	-9.85092
52	-9.85098
▁большинства	-9.85163
▁историю	-9.85164
плав	-9.85178
▁сообщения	-9.85179
▁разум	-9.85185
▁считают	-9.85239
емого	-9.85265
мана	-9.85284
▁сохраня	-9.85288
▁знак	-9.85291
▁местных	-9.85339
▁множества	-9.85352
▁кара	-9.85364
ходят	-9.8543
▁указан	-9.85438
▁национального	-9.85439
▁меди	-9.85454
▁первом	-9.85473
▁алфавит	-9.85477
▁калининград	-9.85494
▁известных	-9.85497
▁90	-9.85527
▁результат	-9.85586
▁организаций	-9.85595
▁планеты	-9.85597
▁независимо	-9.85599
▁передачи	-9.8562
▁представляют	-9.85646
вест	-9.85656
▁баз	-9.85794
▁программа	-9.85846
суд	-9.85862
▁политической	-9.8593
vi	-9.86158
▁n	-9.86164
жал	-9.86176
▁монарх	-9.86281
▁руководством	-9.86299
язы	-9.86333
ица	-9.86396
▁октябре	-9.86466
▁автономн	-9.86488
ic	-9.86536
▁создал	-9.86549
пат	-9.86568
фо	-9.86569
ss	-9.86615
даётся	-9.86653
рек	-9.86671
енного	-9.86674
▁кап	-9.86693
▁осад	-9.86694
евич	-9.86721
топ	-9.86733
нев	-9.86765
▁борис	-9.8678
▁структур	-9.86813
дин	-9.86819
▁vi	-9.86903
▁никогда	-9.86916
▁пес	-9.86943
▁тра	-9.86964
▁брат	-9.87017
еров	-9.8708
▁последний	-9.87132
▁спин	-9.87136
2,	-9.87155
кос	-9.87164
▁лондон	-9.87284
▁районы	-9.87304
▁татар	-9.87357
na	-9.87376
▁выборы	-9.87378
▁книге	-9.87383
▁лит	-9.87387
▁гре	-9.87406
▁париж	-9.87422
▁остаётся	-9.87567
что	-9.87586
▁второго	-9.8759
▁тел	-9.87679
▁архитектор	-9.87683
ba	-9.87696
▁короля	-9.87786
▁принимал	-9.87803
▁применя	-9.87848
▁крым	-9.87856
эй	-9.87889
▁времена	-9.87916
▁собира	-9.8795
▁блок	-9.87971
▁солнце	-9.87973
▁памяти	-9.88007
реб	-9.88036
▁пояс	-9.88094
▁тре	-9.88137
бин	-9.8814
▁органов	-9.88187
вшейся	-9.88239
▁флор	-9.88282
▁авиа	-9.88353
▁воронеж	-9.88386
▁глубин	-9.88386
▁роли	-9.88456
▁районов	-9.88506
еш	-9.88579
▁1995	-9.88693
▁института	-9.88708
щих	-9.88716
▁храм	-9.88728
кер	-9.88741
▁друга	-9.88742
▁зоны	-9.88767
▁пр	-9.88781
▁данный	-9.88824
▁космонавт	-9.88855
▁государством	-9.88861
▁микро	-9.88864
▁контакт	-9.889
▁дар	-9.88988
▁испании	-9.89049
сел	-9.89112
▁организован	-9.89124
▁веках	-9.89154
шим	-9.89155
▁поток	-9.89191
▁совершил	-9.8923
▁иванов	-9.89245
ведения	-9.8931
ница	-9.89345
▁глагол	-9.8935
▁ленинград	-9.89357
▁условия	-9.89365
▁сторону	-9.89378
анти	-9.8938
▁свободно	-9.89488
▁голосов	-9.89528
▁ход	-9.89572
▁николай	-9.89576
емой	-9.8961
вёл	-9.8965
аб	-9.8965
все	-9.89654
ьных	-9.89661
яр	-9.89725
▁вход	-9.89791
▁r	-9.89889
▁моно	-9.8996
»;	-9.89971
петербург	-9.90019
▁телефон	-9.90034
▁велико	-9.90039
▁изначально	-9.90046
▁начинается	-9.90152
▁военного	-9.90178
▁авто	-9.90228
▁титул	-9.90254
▁войну	-9.9031
ню	-9.90358
▁слабо	-9.90404
▁каждого	-9.90479
около	-9.9051
▁входят	-9.90526
▁проекта	-9.90551
▁фигур	-9.90574
▁t	-9.9059
▁культ	-9.90607
▁этап	-9.9061
цу	-9.90693
▁невозможно	-9.90722
="8	-9.90753
▁деление	-9.90776
"».	-9.90821
▁рос	-9.9084
▁семьи	-9.90842
▁диск	-9.90878
▁весь	-9.90895
рт	-9.90895
▁спустя	-9.90936
▁остальные	-9.90992
_3	-9.90994
▁бра	-9.90998
щён	-9.91043
▁отмечал	-9.91164
▁религия	-9.91164
▁вызвал	-9.91166
▁исключительно	-9.9117
▁содержа	-9.91201
▁выступил	-9.91221
▁страх	-9.91252
▁пал	-9.91319
▁издан	-9.91337
▁фактор	-9.91378
▁основными	-9.91392
▁большинстве	-9.91394
▁губернии	-9.91394
▁син	-9.91612
▁обладает	-9.91624
▁значительн	-9.91665
лия	-9.91682
▁водо	-9.91772
ныне	-9.9178
▁следующим	-9.91792
▁выборов	-9.91805
ьная	-9.91822
▁кпсс	-9.91856
▁обо	-9.91862
▁самостоятельно	-9.91869
▁король	-9.91888
остью	-9.91903
▁памятник	-9.91944
▁1920	-9.91946
▁высокой	-9.91948
▁считать	-9.91962
нц	-9.91971
▁кислот	-9.91991
▁текста	-9.91999
▁журнал	-9.9203
▁платон	-9.92051
кин	-9.92068
▁сопровожда	-9.92085
▁рад	-9.92129
иан	-9.92136
▁эпоху	-9.92141
пир	-9.92143
▁описан	-9.92143
▁черт	-9.92231
▁отец	-9.92257
▁форму	-9.92263
▁политических	-9.92344
▁многочисленные	-9.9235
ниж	-9.92364
▁семья	-9.92432
пря	-9.9246
▁речь	-9.92486
▁современные	-9.92572
▁квадрат	-9.92702
▁побед	-9.92713
▁картин	-9.92732
▁1996	-9.92798
▁канал	-9.92813
▁сфере	-9.92819
▁хар	-9.92835
▁свободы	-9.92848
▁основу	-9.92861
▁идей	-9.92875
▁материал	-9.92878
▁осуществляется	-9.92892
▁це	-9.92983
▁борьбы	-9.93014
ования	-9.93042
▁своими	-9.9309
гран	-9.93136
ρ	-9.93223
▁хор	-9.93223
▁некоторым	-9.93248
крат	-9.93351
йорк	-9.93372
▁важным	-9.93372
▁страну	-9.93378
▁составила	-9.93423
▁протест	-9.93482
▁сочинения	-9.93482
▁сторон	-9.93589
▁легенд	-9.9368
▁непо	-9.93764
▁действие	-9.93787
▁ев	-9.93827
▁международной	-9.93831
сло	-9.9394
▁апреле	-9.93952
▁учения	-9.93956
пред	-9.94052
вается	-9.94057
▁вопросы	-9.94062
лл	-9.94108
▁трактат	-9.94241
▁xii	-9.94291
стар	-9.94366
▁залив	-9.94404
▁трамвай	-9.94424
▁времён	-9.94425
▁элемент	-9.94448
▁чисто	-9.94453
груз	-9.94517
мол	-9.94539
▁сад	-9.94567
▁пользу	-9.9457
строй	-9.94575
гин	-9.94611
▁роста	-9.94615
ятся	-9.94621
▁дух	-9.94635
▁сентябре	-9.94661
▁утверждал	-9.94664
▁лучше	-9.94681
▁большим	-9.94698
тяж	-9.94793
леч	-9.94845
▁описание	-9.9485
верх	-9.94857
▁in	-9.94883
▁западно	-9.94921
ce	-9.94925
син	-9.94984
ter	-9.9504
▁определяется	-9.95052
над	-9.95063
me	-9.95092
граф	-9.95101
▁выполнен	-9.95117
ование	-9.95146
▁чер	-9.95149
▁успешно	-9.9515
▁берегу	-9.95179
▁ученик	-9.9523
▁общее	-9.95261
▁искусств	-9.95286
▁отношению	-9.95376
джа	-9.9538
▁1994	-9.95389
рит	-9.954
енным	-9.95414
▁социально	-9.9545
▁формул	-9.9549
▁объект	-9.95509
пы	-9.95568
▁протяжённость	-9.95621
▁стра	-9.95622
▁являлся	-9.9564
▁ракет	-9.95665
▁посад	-9.95696
▁создании	-9.95703
вес	-9.95755
зин	-9.95759
▁звук	-9.95782
▁цел	-9.95807
!	-9.95846
▁1970-	-9.95869
▁сахар	-9.95879
▁учреждения	-9.95916
▁1919	-9.95934
▁известные	-9.95962
▁сезон	-9.95963
а́	-9.95972
▁представлены	-9.96021
▁био	-9.96028
▁300	-9.96089
пле	-9.96094
▁воспринима	-9.96095
▁продукт	-9.96171
▁конечно	-9.96209
зов	-9.96223
▁дик	-9.96252
▁свят	-9.96283
▁отдельные	-9.96345
▁священн	-9.96364
▁вторая	-9.96376
▁лично	-9.96434
▁спорта	-9.96445
фф	-9.96456
▁покров	-9.96497
▁закрыт	-9.96504
▁капитал	-9.96509
▁результаты	-9.96514
́р	-9.96521
фр	-9.96529
▁гражданской	-9.96539
▁сибири	-9.96577
▁обраща	-9.9658
▁природе	-9.96586
▁болгар	-9.96602
▁месяцев	-9.96628
un	-9.96701
▁лица	-9.9681
▁функций	-9.9682
▁совершенно	-9.96868
эс	-9.96963
▁святого	-9.9698
▁военные	-9.97013
сор	-9.97017
поляр	-9.97017
▁память	-9.97063
▁азербайджан	-9.97099
▁профессор	-9.97146
▁нас	-9.97151
▁регион	-9.97179
▁масса	-9.97185
▁плотность	-9.97205
▁задач	-9.9726
дз	-9.97266
▁руб	-9.9728
▁виктор	-9.97314
зон	-9.97327
▁землю	-9.97334
▁обозначения	-9.97352
вших	-9.97363
▁международного	-9.97368
▁музыка	-9.97373
▁биография	-9.97383
▁север	-9.9741
▁верн	-9.9748
▁продолжал	-9.97493
▁шести	-9.97539
▁изображения	-9.9755
▁обороны	-9.97578
▁объектив	-9.97619
▁исторически	-9.97681
▁математик	-9.97696
▁мод	-9.97759
дра	-9.97761
▁нашей	-9.97761
▁шесть	-9.97803
▁реформы	-9.97817
▁огромн	-9.97848
▁отечественной	-9.97906
сан	-9.98002
▁разные	-9.98011
▁функция	-9.98039
▁службы	-9.98039
▁отличается	-9.98112
дь	-9.98134
▁распространён	-9.98149
тян	-9.9815
▁северного	-9.98152
▁считает	-9.98177
ину	-9.98203
▁древней	-9.98221
—17	-9.9826
▁естественно	-9.98283
▁праздники	-9.98298
▁губернатор	-9.98308
▁песни	-9.9833
▁восстановлен	-9.98331
▁составлен	-9.98398
▁царя	-9.98427
▁исключ	-9.98434
пал	-9.98455
енко	-9.98456
▁велосипед	-9.98457
бург	-9.9846
▁ян	-9.98467
низ	-9.98467
▁гран	-9.98489
▁влиянием	-9.98491
▁цель	-9.98496
▁известный	-9.98559
▁близки	-9.98571
▁московского	-9.98595
▁алгоритм	-9.98667
▁длительн	-9.98753
▁учёных	-9.98778
▁растений	-9.98778
▁рождения	-9.9878
жения	-9.98809
▁изучение	-9.98817
▁1960-	-9.98858
куп	-9.98863
▁станция	-9.98902
▁процесса	-9.98959
▁африки	-9.99026
▁принадлежит	-9.99026
▁уничтожен	-9.99026
▁финляндии	-9.99026
▁1998	-9.99043
▁структура	-9.99095
▁действительно	-9.99123
рес	-9.99145
пор	-9.99239
▁буд	-9.99257
▁ноябре	-9.99274
▁торговли	-9.99275
▁идёт	-9.99278
▁большие	-9.9928
▁служил	-9.9933
▁корпус	-9.99333
▁мнение	-9.99359
чик	-9.99375
овского	-9.99392
▁словам	-9.99454
техник	-9.99495
▁середины	-9.99523
▁позиции	-9.99523
ального	-9.99549
▁концерт	-9.9955
движ	-9.99608
нный	-9.99621
▁применяется	-9.99635
лёт	-9.99644
▁формально	-9.99678
ll	-9.9971
▁городом	-9.99729
▁состоял	-9.99828
▁река	-9.99844
ируются	-9.9989
▁определя	-9.99902
вшим	-9.99928
▁запад	-9.9993
▁зон	-9.99954
▁стиле	-9.99979
▁петербург	-9.99998
▁новосибирск	-10.0003
▁советский	-10.0004
▁k	-10.0006
▁гос	-10.0013
▁богослов	-10.0027
▁ничего	-10.0027
нёс	-10.0027
▁пролив	-10.0033
▁расп	-10.0034
арх	-10.0035
▁имена	-10.0037
▁тысячи	-10.0039
сом	-10.0043
▁ярослав	-10.0045
net	-10.0048
▁зарегистрирован	-10.0052
▁должности	-10.0059
▁35	-10.006
▁произведений	-10.006
ающих	-10.0065
▁израиль	-10.0068
▁члены	-10.0075
▁сверх	-10.0077
▁глубоко	-10.0078
▁железной	-10.0078
▁явления	-10.0078
▁обеспечения	-10.0083
▁мощ	-10.0084
эр	-10.0085
▁какой	-10.0085
лек	-10.0088
▁массив	-10.0088
рог	-10.0092
▁достигает	-10.0095
▁собрание	-10.0096
▁выделен	-10.0098
▁учёные	-10.0103
▁основании	-10.0108
no	-10.0111
▁причиной	-10.0114
фу	-10.0117
▁хозяйство	-10.0117
▁номер	-10.0118
▁эпохи	-10.012
▁устройство	-10.0122
▁процессе	-10.0125
▁переименован	-10.0128
▁депутат	-10.013
▁кризис	-10.0132
бил	-10.0134
мед	-10.0136
▁объекты	-10.014
▁кандидат	-10.0142
▁сведения	-10.0155
▁попытки	-10.017
ходит	-10.0175
американ	-10.0176
▁древних	-10.0179
кр	-10.018
▁1997	-10.0181
▁восточно	-10.0182
▁метро	-10.019
восток	-10.019
▁1-	-10.0191
▁встреча	-10.0194
▁направлении	-10.0197
чки	-10.02
▁кавказ	-10.0202
▁фридрих	-10.0204
▁действуют	-10.0204
▁окончил	-10.0204
▁раб	-10.0205
▁посту	-10.0206
▁такая	-10.0211
▁зе	-10.0211
▁легко	-10.0216
▁экспериментальн	-10.0221
il	-10.0221
▁продолжительно	-10.0225
плат	-10.0229
▁территорий	-10.023
▁музыки	-10.023
▁нужно	-10.0231
▁внутренних	-10.0231
▁сигнал	-10.0231
▁судов	-10.0238
▁сложи	-10.0239
▁шт	-10.0239
▁успех	-10.0245
▁морской	-10.0248
▁ци	-10.025
▁космонавтов	-10.025
▁михаил	-10.0258
ост	-10.0267
иш	-10.0269
▁южно	-10.0271
▁издания	-10.0272
▁глава	-10.0277
▁горы	-10.0279
▁провинции	-10.0281
▁пишет	-10.0282
▁изучения	-10.0284
▁плав	-10.0285
нских	-10.0286
▁астроном	-10.0288
▁регулярно	-10.029
▁островах	-10.029
после	-10.029
▁услуг	-10.0291
емый	-10.0293
ош	-10.0294
телем	-10.0302
мес	-10.0307
▁греции	-10.0309
сар	-10.0329
▁главы	-10.033
▁работает	-10.033
▁семье	-10.0331
овыми	-10.0333
▁тор	-10.034
pe	-10.0341
▁участвовал	-10.0343
▁снова	-10.0352
▁князя	-10.0359
▁единственным	-10.0359
▁1944	-10.0361
▁австралии	-10.0362
инский	-10.0366
▁гал	-10.0367
▁политические	-10.0375
зол	-10.0377
нская	-10.038
▁музея	-10.0385
▁степень	-10.0386
▁своему	-10.0387
▁июне	-10.0393
▁всяк	-10.0395
▁единица	-10.0396
▁раза	-10.0398
▁объекта	-10.04
▁l	-10.0401
тин	-10.0401
цкий	-10.0404
цин	-10.042
▁направление	-10.0425
▁соответствующи	-10.0426
▁камер	-10.0429
▁бол	-10.0438
▁реализации	-10.044
▁мотив	-10.0441
▁изменение	-10.0444
▁народных	-10.0444
металл	-10.0446
▁величин	-10.0459
без	-10.0462
▁директор	-10.0463
▁английский	-10.0463
▁встречается	-10.0469
▁применения	-10.047
▁рей	-10.0474
ведение	-10.0483
▁стол	-10.049
▁душу	-10.0492
▁общин	-10.0492
▁возрасте	-10.0493
▁флот	-10.0499
▁ордена	-10.0501
▁выс	-10.0507
уса	-10.0509
▁строго	-10.0516
▁соответствует	-10.0516
▁теорию	-10.0516
▁письма	-10.0516
▁среде	-10.0518
▁дорога	-10.0521
▁вьетнам	-10.053
▁открыто	-10.0531
▁грузов	-10.0531
▁связаны	-10.0532
кул	-10.0537
▁известен	-10.0542
▁конституционн	-10.0543
▁обратно	-10.0544
грамм	-10.0544
▁социал	-10.0553
▁странами	-10.0555
▁почт	-10.0558
▁отца	-10.0559
▁председатель	-10.0559
os	-10.0563
▁дис	-10.0565
▁пифагор	-10.0566
▁константин	-10.0569
▁деле	-10.0576
▁тепло	-10.0578
▁занят	-10.0579
▁обряд	-10.0581
▁мне	-10.0583
▁устройства	-10.059
ких	-10.0591
ie	-10.0594
▁феврале	-10.0595
▁нередко	-10.0595
рь	-10.0606
▁необходимости	-10.0606
▁характерны	-10.061
нной	-10.0612
нит	-10.0614
ались	-10.0616
▁основой	-10.0617
▁побережья	-10.0622
▁российских	-10.0622
▁появился	-10.0623
нная	-10.0629
▁верхов	-10.0629
аты	-10.0631
сфер	-10.0632
▁научной	-10.0634
ющийся	-10.0636
руб	-10.0639
душ	-10.0639
коль	-10.0642
▁единицы	-10.0646
▁край	-10.0647
▁окончания	-10.0648
▁создана	-10.065
▁населением	-10.0653
▁игры	-10.0655
ns	-10.0656
▁редко	-10.066
ывают	-10.066
еля	-10.0667
si	-10.0668
▁законы	-10.0668
▁каждой	-10.0675
▁знания	-10.0675
морф	-10.0688
▁иркутск	-10.0696
▁рис	-10.0696
▁факультет	-10.0702
▁вызван	-10.0702
▁жертв	-10.0702
пил	-10.0707
▁момента	-10.0709
▁оборот	-10.071
▁вели	-10.0712
▁эл	-10.072
рю	-10.0725
▁разработки	-10.0729
▁омск	-10.0729
▁поведение	-10.0732
▁шаг	-10.0741
ическом	-10.0742
▁человеком	-10.0743
▁домов	-10.0745
▁2-	-10.0749
боль	-10.0752
▁базе	-10.0753
to	-10.0754
лени	-10.0755
▁секунд	-10.0756
▁сыграл	-10.0756
▁этимология	-10.0758
▁кабинет	-10.076
▁внешней	-10.0761
итов	-10.0761
нат	-10.0763
▁квантовой	-10.0766
▁альбом	-10.0767
пас	-10.0771
▁китае	-10.078
тельный	-10.0781
▁столица	-10.0783
▁именем	-10.0784
пон	-10.0785
▁архитектуры	-10.0786
▁старо	-10.0795
▁сих	-10.0796
▁выпуск	-10.0798
елл	-10.0799
▁роди	-10.08
вшаяся	-10.08
рак	-10.0804
▁способствовал	-10.0808
▁экономического	-10.0809
▁выпущен	-10.081
▁заимствован	-10.081
▁англии	-10.081
▁сообщение	-10.0811
▁актёр	-10.0812
юр	-10.0812
рели	-10.0814
▁пен	-10.0817
2)	-10.0819
▁главный	-10.0821
вел	-10.0824
ьев	-10.0828
▁бассейн	-10.0833
▁сход	-10.0836
ьные	-10.0837
▁композитор	-10.0837
▁почв	-10.0847
ge	-10.085
▁недо	-10.085
▁собран	-10.085
вит	-10.0854
стями	-10.0858
гл	-10.0862
▁влияния	-10.0864
▁говорит	-10.087
▁латин	-10.0875
▁разно	-10.0876
▁боль	-10.0879
▁рассел	-10.0884
▁1960	-10.0885
▁%).	-10.0888
▁темп	-10.0896
▁основы	-10.0896
ur	-10.0896
▁длина	-10.0902
кция	-10.0903
▁разрушен	-10.0906
производ	-10.0907
▁самое	-10.091
▁продолжа	-10.0916
▁фаз	-10.0917
▁петроград	-10.0919
чного	-10.092
▁захват	-10.0921
и́	-10.0925
лег	-10.0926
нова	-10.0926
▁николая	-10.0926
мыш	-10.0929
▁взят	-10.0932
▁заряд	-10.0935
нди	-10.0936
▁вал	-10.0938
вр	-10.0939
▁ситуация	-10.0947
▁близ	-10.0947
▁временно	-10.0948
▁души	-10.0953
▁установил	-10.0954
ался	-10.0955
▁xiv	-10.096
▁газов	-10.0961
▁историк	-10.0961
▁москву	-10.0974
▁швеции	-10.0974
▁o	-10.0976
▁герцог	-10.0977
чей	-10.0981
▁xv	-10.0987
енная	-10.0992
▁пас	-10.0992
▁основания	-10.0992
»"	-10.0994
▁структуры	-10.0994
долго	-10.0994
▁занял	-10.0996
▁письмо	-10.1002
▁крепости	-10.1003
▁войсками	-10.1005
▁равны	-10.1006
▁техники	-10.1006
▁/	-10.1014
▁собрания	-10.1015
▁путин	-10.1018
▁кат	-10.1027
яется	-10.103
▁подверг	-10.1031
евой	-10.1036
ику	-10.1036
вать	-10.1044
▁конкрет	-10.1047
цер	-10.1051
очно	-10.1052
▁рок	-10.1052
летний	-10.1052
▁мал	-10.1056
▁млекопитающих	-10.1057
культ	-10.106
▁фильм	-10.1064
▁появилась	-10.1066
▁государственным	-10.1071
▁инструмент	-10.1073
▁фонд	-10.108
▁стать	-10.1082
▁балтийск	-10.1082
ённых	-10.1085
▁соглашение	-10.1085
▁расстояние	-10.1085
▁экономической	-10.1086
ует	-10.1087
▁чист	-10.109
▁красной	-10.109
▁тест	-10.109
▁низ	-10.1092
▁источников	-10.1094
ске	-10.1098
вшегося	-10.1103
▁перемен	-10.1105
▁использовал	-10.1106
▁решил	-10.1112
▁взаимодействие	-10.1113
▁оборон	-10.1117
о́	-10.1129
▁употребля	-10.1136
▁цвета	-10.1139
илось	-10.1139
▁сюжет	-10.1141
▁вошли	-10.1142
▁газет	-10.1144
▁ради	-10.1146
▁2023	-10.1146
химическ	-10.1147
▁семей	-10.1148
▁европейской	-10.1148
▁победы	-10.1156
▁географическ	-10.1163
▁среднего	-10.1167
▁контр	-10.1167
цар	-10.1168
au	-10.117
▁находился	-10.1172
▁ей	-10.1174
дя	-10.1179
▁генеральн	-10.1179
▁буквы	-10.1182
»".	-10.1194
пов	-10.1196
▁посредством	-10.1197
▁подготовки	-10.1197
▁красноярск	-10.1197
▁сделать	-10.1198
рет	-10.12
▁наблюдения	-10.12
▁края	-10.12
▁сказал	-10.1201
сия	-10.1203
пуска	-10.1204
▁мыс	-10.1206
нуть	-10.1206
▁математики	-10.1219
игра	-10.1224
▁изображение	-10.1225
▁нельзя	-10.1226
▁итоге	-10.1226
сол	-10.1228
кра	-10.1234
▁крупнейшим	-10.1234
нин	-10.1242
бат	-10.1244
мут	-10.1249
▁конституция	-10.1254
▁религиозных	-10.1254
▁египет	-10.1254
▁француз	-10.1254
рут	-10.1258
▁обнаружен	-10.126
▁новым	-10.1262
ством	-10.1264
▁комитета	-10.1264
совет	-10.1264
▁занимал	-10.1265
▁развитии	-10.1266
▁местах	-10.1267
▁xiii	-10.1271
▁гар	-10.1271
▁продукции	-10.1282
▁будучи	-10.1283
▁методов	-10.1284
▁вене	-10.1288
▁новую	-10.129
арктическ	-10.1293
▁помощь	-10.1299
▁носит	-10.13
▁пожар	-10.13
▁объединя	-10.1301
▁руководство	-10.1304
▁температур	-10.1307
ангел	-10.1308
▁re	-10.131
▁гон	-10.131
▁европейских	-10.1311
▁исполня	-10.1315
▁средне	-10.1316
▁делает	-10.1317
▁панк	-10.1318
рам	-10.1318
стях	-10.1318
пит	-10.1327
▁сократа	-10.133
национал	-10.1333
▁врач	-10.1334
▁конец	-10.1336
арь	-10.1338
▁соли	-10.1339
▁конгресс	-10.1339
основ	-10.1339
▁горазд	-10.134
востоке	-10.1341
▁правил	-10.1343
▁включают	-10.1343
▁тоже	-10.1347
▁авторов	-10.1352
▁сим	-10.1353
▁юм	-10.1353
▁совершен	-10.1354
▁хорош	-10.1354
ex	-10.1359
жит	-10.1362
▁парламента	-10.1367
партнёр	-10.1368
▁хлеб	-10.1368
▁действующ	-10.1373
▁уровнем	-10.1379
ником	-10.1384
▁мета	-10.1384
▁железнодорожны	-10.1386
▁германия	-10.1387
▁данной	-10.1389
▁деревянн	-10.139
ук	-10.1393
▁распространены	-10.1397
ители	-10.1397
▁сельского	-10.1397
▁пассажиров	-10.1399
дук	-10.14
▁бесконечно	-10.1401
▁признал	-10.1402
ада	-10.1404
▁лист	-10.1406
зр	-10.1408
▁дуб	-10.141
▁запрет	-10.1415
▁литература	-10.1425
▁взрыв	-10.1426
▁председателя	-10.1426
▁силами	-10.143
▁соединения	-10.1431
▁мани	-10.1431
файл	-10.1433
тип	-10.1441
енно	-10.1442
▁модерн	-10.1448
ьер	-10.145
▁законодательств	-10.1454
▁системой	-10.1457
▁думы	-10.1459
ящий	-10.146
▁j	-10.1461
▁определен	-10.148
▁зданий	-10.1483
кл	-10.1487
▁валют	-10.1488
рия	-10.1491
▁развитию	-10.1492
▁бед	-10.1498
▁бат	-10.1504
▁памятны	-10.1508
близи	-10.1508
▁культуре	-10.1509
▁(3	-10.1509
▁сила	-10.1512
▁опубликовал	-10.1512
▁1939	-10.1514
▁вечер	-10.152
▁частот	-10.152
▁российского	-10.152
физик	-10.1526
▁явля	-10.1527
▁относительности	-10.1528
▁1943	-10.1529
▁общем	-10.1531
▁дума	-10.1531
▁князь	-10.1533
▁машины	-10.1537
▁банков	-10.1538
сил	-10.1538
▁армении	-10.1542
пуля	-10.1542
▁xxi	-10.1542
▁боевы	-10.1544
▁местного	-10.1549
▁солнечной	-10.1552
▁сына	-10.1555
сель	-10.1567
▁выступал	-10.1568
▁главой	-10.1569
▁неоднократно	-10.1571
▁перво	-10.1573
▁необходимость	-10.1575
▁фронта	-10.1576
▁свидетельств	-10.1579
авших	-10.1581
емое	-10.1582
ас	-10.1582
▁глас	-10.1585
▁описания	-10.1587
щик	-10.1596
▁зеландии	-10.16
▁поддержку	-10.16
▁средние	-10.16
▁создать	-10.16
▁равна	-10.1601
▁32	-10.1609
▁атмосфер	-10.1609
▁45	-10.1613
▁занимают	-10.1614
▁работать	-10.1619
▁реакции	-10.163
бира	-10.1632
▁эфир	-10.1632
▁сохранились	-10.1634
вшее	-10.1642
▁главной	-10.1643
▁обществе	-10.165
▁частицы	-10.1654
▁римской	-10.1655
▁жители	-10.166
▁миллиона	-10.1666
▁труб	-10.1666
▁восток	-10.1667
▁престол	-10.1668
▁стан	-10.1669
_4	-10.1674
▁увеличение	-10.1675
ново	-10.1679
▁доклад	-10.1681
▁лёгк	-10.1682
▁задачи	-10.1682
▁молекул	-10.1683
▁гимн	-10.1685
um	-10.1686
щей	-10.1689
▁эстонии	-10.1689
▁τ	-10.1689
▁формирования	-10.1691
▁всеобщ	-10.1694
▁основная	-10.1697
▁приток	-10.1699
вшись	-10.1702
▁карт	-10.1708
▁нему	-10.171
овую	-10.1717
носят	-10.1721
▁физико	-10.1728
▁атомов	-10.173
▁называли	-10.1731
ницы	-10.1732
▁театра	-10.1733
▁анализа	-10.1734
▁получают	-10.1734
ву	-10.1735
▁юг	-10.1736
▁бан	-10.1737
▁стоит	-10.1742
▁смог	-10.1743
▁индекс	-10.1748
▁поселения	-10.1748
нет	-10.1755
хар	-10.1763
▁выража	-10.1766
▁царь	-10.1767
тал	-10.1771
▁национальных	-10.1778
▁писатель	-10.1779
▁китая	-10.1779
▁государственная	-10.178
▁ожида	-10.178
▁составляла	-10.1789
ограф	-10.1792
mi	-10.1801
ацией	-10.1804
той	-10.1805
цел	-10.1807
▁статье	-10.1813
▁женщины	-10.1823
▁сенат	-10.1831
зия	-10.1833
▁наблюдается	-10.1839
▁вполне	-10.1844
▁трав	-10.1848
sa	-10.1848
▁арабск	-10.1852
▁началом	-10.1863
данного	-10.1863
▁израиля	-10.1868
▁исследователи	-10.1868
▁взаимо	-10.1868
▁изобража	-10.1868
▁государственные	-10.1871
ve	-10.1878
▁прибыл	-10.1884
▁серб	-10.1885
▁банк	-10.1886
▁звуков	-10.1887
▁сложно	-10.189
рн	-10.189
для	-10.1898
▁управля	-10.1898
▁итогам	-10.1898
▁федерального	-10.1898
▁космически	-10.1901
▁французский	-10.1907
▁передан	-10.191
▁преврати	-10.1914
▁холм	-10.1917
▁москва	-10.1919
▁вооружённых	-10.1919
▁регионе	-10.1921
▁флота	-10.1922
емая	-10.1922
▁перенос	-10.1923
▁жанр	-10.1924
▁доход	-10.1926
▁глаз	-10.1927
▁екатеринбург	-10.1929
▁данном	-10.1932
▁москов	-10.1933
▁связанные	-10.1933
ивший	-10.1933
▁началу	-10.1944
▁пород	-10.1946
▁общественного	-10.1948
▁кост	-10.195
▁назвал	-10.1952
ённые	-10.1955
жан	-10.1956
ывает	-10.1956
▁дисциплин	-10.1957
▁порядок	-10.1959
▁россией	-10.196
▁найти	-10.1963
▁ядра	-10.1964
▁залива	-10.1968
▁тракт	-10.1971
▁образова	-10.1981
▁поиск	-10.1982
▁гри	-10.1983
▁цели	-10.1987
▁обмен	-10.199
▁лётчик	-10.199
▁w	-10.1994
▁правила	-10.1996
▁британски	-10.1997
вет	-10.1999
▁поезд	-10.2002
▁королевск	-10.2004
▁кот	-10.2005
раст	-10.2014
ял	-10.2014
ложи	-10.2018
▁действовал	-10.2021
▁уст	-10.2022
▁законов	-10.2022
▁1946	-10.2022
▁следующий	-10.2025
нском	-10.2027
глав	-10.2027
▁общий	-10.2031
ово	-10.2033
рош	-10.2036
▁сектор	-10.2038
ut	-10.2039
берг	-10.204
▁взял	-10.2044
▁зачастую	-10.2051
▁можайск	-10.2051
▁открытие	-10.2052
▁уезд	-10.206
▁трудов	-10.2062
▁министр	-10.2062
▁лингвист	-10.2065
ближ	-10.2071
▁классов	-10.2075
кус	-10.2077
▁социальной	-10.2078
▁1975	-10.2084
▁1970	-10.2087
сона	-10.2092
ивают	-10.2092
▁философия	-10.2094
▁работают	-10.2095
▁реке	-10.2096
▁кирилл	-10.2097
нга	-10.21
▁150	-10.21
торы	-10.2102
▁сталина	-10.2108
ставить	-10.2109
▁категории	-10.2112
▁зимой	-10.2113
▁крупно	-10.2114
▁украине	-10.2115
групп	-10.2119
▁представление	-10.212
▁распада	-10.2125
▁3-	-10.2126
ёк	-10.2128
▁высоким	-10.2131
▁местные	-10.2131
▁пло	-10.2134
nd	-10.2134
ави	-10.2136
рица	-10.2136
▁достижения	-10.2143
▁слишком	-10.2143
▁...	-10.2146
−	-10.2146
▁востока	-10.215
▁оси	-10.2151
▁1988	-10.2176
▁располага	-10.2177
▁ры	-10.2179
▁держав	-10.218
▁страда	-10.219
▁этнически	-10.2192
лез	-10.2195
чество	-10.2202
▁клиент	-10.2203
очные	-10.2205
▁аргумент	-10.2205
▁династии	-10.2205
▁полномочия	-10.2206
▁распространения	-10.2206
▁польши	-10.2206
разреш	-10.2206
▁продаж	-10.2207
▁1942	-10.2207
▁пункт	-10.2208
▁обе	-10.2208
▁комп	-10.2209
енное	-10.221
нор	-10.2216
аф	-10.2218
▁хром	-10.2219
▁городских	-10.2223
▁мудр	-10.2232
▁способность	-10.2236
ическими	-10.2237
▁1979	-10.2239
▁представлял	-10.2239
тики	-10.2242
▁гали	-10.2248
▁линий	-10.2253
цам	-10.2256
▁привели	-10.2258
▁немецкий	-10.2268
▁статистик	-10.2268
▁рим	-10.227
▁1961	-10.227
▁демократическ	-10.2272
▁общественно	-10.2276
▁связанных	-10.2277
▁мас	-10.2277
▁час	-10.2282
евский	-10.2284
водится	-10.2285
▁проживал	-10.2286
▁проведения	-10.2287
▁играл	-10.229
территориальн	-10.2291
▁художник	-10.2298
▁автомобиль	-10.2302
▁стоя	-10.2303
очных	-10.2304
▁республике	-10.2306
▁усили	-10.2315
pa	-10.2316
▁банка	-10.2316
▁координат	-10.2318
▁ирак	-10.2318
ca	-10.232
▁страной	-10.2323
занима	-10.2323
»:	-10.2324
▁обязательно	-10.2325
τ	-10.2326
ировали	-10.2329
▁ап	-10.233
▁программе	-10.233
)"	-10.2331
internet	-10.2331
▁введён	-10.2331
▁теорем	-10.2331
▁мать	-10.2335
голов	-10.2338
▁случаев	-10.2339
▁созданы	-10.234
▁окружающе	-10.2343
▁каз	-10.2344
западе	-10.2349
▁библиотека	-10.2353
▁числу	-10.2354
рв	-10.2358
лекс	-10.2359
кие	-10.236
дв	-10.2362
▁африке	-10.2363
▁владивосток	-10.2363
▁порядке	-10.2363
▁процессов	-10.2365
▁1980	-10.2365
лист	-10.2366
▁соверш	-10.2367
▁гарант	-10.2367
несли	-10.2368
оны	-10.2371
анг	-10.2379
▁кислоты	-10.2381
тек	-10.2381
▁коммун	-10.2387
▁зал	-10.2393
▁режиссёр	-10.2394
▁столицы	-10.2395
▁оксид	-10.2397
цем	-10.2399
▁атак	-10.2407
▁степ	-10.2408
ань	-10.2413
▁возраста	-10.2417
▁втором	-10.2419
▁армян	-10.2426
▁насчитывал	-10.2426
▁последнее	-10.2426
▁шест	-10.2426
!»	-10.2428
вил	-10.2429
▁операция	-10.2429
▁элемента	-10.2429
▁севера	-10.2431
▁журнала	-10.2436
дия	-10.2438
▁текстов	-10.244
▁глав	-10.2442
▁итальян	-10.2456
▁открыты	-10.2457
-2	-10.2464
▁рам	-10.2469
▁полезны	-10.2473
писа	-10.2476
▁использованием	-10.2488
▁мотоцикл	-10.249
звуч	-10.2492
аз	-10.2495
▁искусственно	-10.2496
▁4-	-10.2499
▁повышен	-10.2502
лам	-10.2504
▁показал	-10.2505
католич	-10.2505
▁ше	-10.251
▁регионов	-10.2511
▁граница	-10.2515
▁обязан	-10.2519
▁борьбе	-10.2522
▁бо́льш	-10.2523
▁филиал	-10.2523
▁классической	-10.2525
вис	-10.2528
евых	-10.2535
▁чемпионат	-10.2547
▁предназначен	-10.255
▁социальных	-10.2555
▁сформирован	-10.2555
▁спектр	-10.2555
▁поверхность	-10.2557
акт	-10.2557
гло	-10.2558
▁орбитальн	-10.2559
нул	-10.256
▁явление	-10.2561
▁официальным	-10.2565
▁преобразования	-10.2565
учи	-10.2565
▁ант	-10.2569
▁коммунистическ	-10.2577
▁правительством	-10.2583
▁защиты	-10.2587
▁рельеф	-10.2589
▁спутник	-10.2589
▁тепловоз	-10.259
аны	-10.2591
гряз	-10.2591
ющую	-10.2595
▁зло	-10.2596
тся	-10.2597
▁штат	-10.2598
гиб	-10.2602
▁наслед	-10.2605
▁платона	-10.2617
▁неудач	-10.262
▁наконец	-10.262
маленьк	-10.2621
остей	-10.2621
▁1922	-10.2622
▁кгб	-10.2625
user	-10.2628
кла	-10.2628
тера	-10.263
▁получив	-10.263
мос	-10.2632
сообщить	-10.2637
▁распространи	-10.2638
ительно	-10.2639
▁договора	-10.264
▁формат	-10.2642
ему	-10.2642
ha	-10.2643
▁груз	-10.2643
▁плен	-10.2643
▁канон	-10.265
▁ад	-10.2651
бри	-10.2652
▁условий	-10.2652
▁приблизительно	-10.2653
▁второе	-10.2654
▁регистр	-10.2655
сим	-10.2659
▁вед	-10.266
сн	-10.2661
▁московской	-10.2661
чка	-10.2665
▁открытия	-10.2665
ким	-10.2666
▁главных	-10.2669
▁состоят	-10.267
▁значительное	-10.2676
▁яв	-10.2683
ственно	-10.2683
анта	-10.2685
▁прожива	-10.2687
▁лун	-10.2689
▁ивана	-10.2689
▁министерства	-10.269
альную	-10.269
мп	-10.2692
сср	-10.2693
тир	-10.2693
▁эв	-10.2696
сид	-10.2697
▁говорят	-10.2697
▁лесо	-10.2699
подобн	-10.2701
енд	-10.2701
▁селе	-10.2706
▁прибор	-10.2711
▁источник	-10.2713
▁арест	-10.2713
▁всеми	-10.2713
ндр	-10.2714
▁экспедиции	-10.2715
▁америке	-10.2718
▁империя	-10.2718
▁современном	-10.2718
овка	-10.2719
▁1964	-10.272
вания	-10.2722
▁меры	-10.2728
существ	-10.2728
▁един	-10.273
▁называются	-10.273
ver	-10.2731
аг	-10.2731
▁едино	-10.2731
▁жёстк	-10.2732
▁знаменит	-10.2734
▁обеспечивает	-10.2736
▁гимна	-10.2736
▁входил	-10.2738
▁имела	-10.2738
сле	-10.2743
▁практике	-10.2746
▁публи	-10.2747
▁крупнейши	-10.2748
▁торгово	-10.2749
ива	-10.275
▁раньше	-10.2751
▁определить	-10.2751
ad	-10.2751
▁уравнения	-10.2752
▁ошибке	-10.2753
▁предложение	-10.2756
▁вопросам	-10.2758
чё	-10.2759
▁источником	-10.276
▁св	-10.276
▁выхода	-10.2761
бен	-10.2761
▁экипажа	-10.2763
▁эпи	-10.2764
член	-10.2765
▁полов	-10.2767
кая	-10.2769
ii	-10.277
уля	-10.277
▁зоне	-10.2772
▁другое	-10.2773
va	-10.2773
▁крепость	-10.2775
ci	-10.2776
▁проявля	-10.2778
▁сочинений	-10.2784
▁паровоз	-10.2784
▁газеты	-10.2786
▁проводил	-10.279
▁сама	-10.279
▁больниц	-10.2795
события	-10.2799
▁чрезвычайно	-10.2801
▁указывает	-10.2801
рик	-10.2805
▁крем	-10.2809
▁признак	-10.2811
▁(15	-10.2814
▁аксиом	-10.2816
▁последнего	-10.2817
▁широт	-10.2817
▁суток	-10.2818
▁верховны	-10.2819
эл	-10.2822
▁исторических	-10.2824
▁сосед	-10.2825
▁экз	-10.2827
лот	-10.2827
▁максимально	-10.2829
ступает	-10.2834
▁улицы	-10.2835
▁произведение	-10.2839
▁1930-	-10.2841
лед	-10.2845
▁доме	-10.2847
▁перепис	-10.2848
▁импульс	-10.285
▁обнаружил	-10.285
▁превышает	-10.285
▁предыдущ	-10.285
▁столицей	-10.2851
▁кошки	-10.2852
▁предмет	-10.2852
▁центров	-10.2855
ьё	-10.2862
нские	-10.2868
инд	-10.2869
▁птицы	-10.2869
▁рез	-10.287
▁хе	-10.2873
▁епископ	-10.2883
▁средний	-10.2883
▁озеро	-10.2884
▁пик	-10.2884
чит	-10.2886
▁распространённы	-10.2887
▁вершин	-10.2887
▁связ	-10.2891
кле	-10.2893
рад	-10.2902
станция	-10.2907
▁суды	-10.2911
▁коллекци	-10.2917
▁постановление	-10.2917
▁политику	-10.2917
▁мифологии	-10.2918
▁чеченск	-10.2918
▁лето	-10.2919
цкого	-10.2922
▁качества	-10.2923
▁бывшего	-10.2923
▁величины	-10.2925
▁сборник	-10.2926
▁мирового	-10.2926
the	-10.2935
▁взгляды	-10.2939
▁бас	-10.2941
▁связана	-10.2942
▁явлений	-10.295
++	-10.2952
▁использовались	-10.2954
▁командир	-10.2957
▁польше	-10.2958
▁пусты	-10.2959
▁располагается	-10.2961
▁z	-10.2963
▁христианство	-10.2965
▁утверждает	-10.2968
селя	-10.2972
▁смерть	-10.2973
▁осенью	-10.2984
▁технологии	-10.2984
▁звание	-10.2985
ph	-10.2985
▁богов	-10.2986
▁россию	-10.2987
▁обучение	-10.2987
▁использоваться	-10.2989
▁составляли	-10.299
▁автора	-10.299
бал	-10.299
▁учреждений	-10.2992
▁найден	-10.2994
▁стрел	-10.2994
▁(4	-10.2996
▁неза	-10.2996
▁группу	-10.3009
▁которыми	-10.301
кса	-10.3011
вые	-10.3012
▁сергей	-10.3018
▁требовал	-10.3019
▁1965	-10.302
писать	-10.3021
порт	-10.3027
▁пределами	-10.3028
▁мэр	-10.3032
▁представлена	-10.3032
▁университете	-10.3038
▁ограничива	-10.3039
▁ix	-10.3041
▁соседни	-10.3051
▁содержат	-10.3051
▁подъём	-10.3052
▁каждом	-10.3052
дания	-10.3053
▁карьер	-10.3054
▁попал	-10.3058
▁афин	-10.3059
▁писателя	-10.3062
▁господ	-10.3062
▁дополнительно	-10.3068
▁посвящен	-10.3072
беж	-10.308
▁европейского	-10.3082
▁использован	-10.3083
ресурс	-10.3084
▁латвии	-10.3086
▁денег	-10.3086
▁1967	-10.3088
▁появление	-10.309
кро	-10.309
▁получ	-10.3091
мель	-10.3093
▁месяца	-10.3095
▁соответствующе	-10.3099
▁сравнительно	-10.31
▁служит	-10.31
▁высокого	-10.3101
▁различными	-10.3102
▁прирост	-10.3103
▁использует	-10.3104
▁ломоносов	-10.3105
▁деньги	-10.3105
▁пришёл	-10.3105
вос	-10.3109
пр	-10.3112
▁65	-10.3114
▁разрабатыва	-10.312
▁фольклор	-10.312
▁пригород	-10.3121
▁авторы	-10.3122
▁восстание	-10.3122
▁роз	-10.3124
▁заключается	-10.3124
bot	-10.3125
восточной	-10.3128
▁топ	-10.3129
скор	-10.3129
▁непрерывн	-10.3132
[	-10.3141
▁вышл	-10.3141
▁допуска	-10.3141
com	-10.3142
нюю	-10.3143
▁относят	-10.3145
▁равен	-10.315
▁традиция	-10.3154
▁минимум	-10.3154
рем	-10.3155
▁премии	-10.3156
▁курган	-10.3158
▁книгу	-10.3158
́т	-10.3161
▁общины	-10.3163
▁терминал	-10.3174
мах	-10.3176
▁пушкин	-10.3176
▁пресс	-10.3177
мень	-10.3177
_5	-10.318
▁школу	-10.3184
▁впрочем	-10.3188
▁комиссии	-10.3189
▁путей	-10.3189
▁рекорд	-10.3189
▁потенциал	-10.3192
▁статья	-10.3195
спар	-10.3201
▁ион	-10.3205
телями	-10.3212
▁десяти	-10.3214
▁последних	-10.3223
▁скульптур	-10.3223
идов	-10.3223
▁соединя	-10.3224
▁весной	-10.3224
▁франк	-10.3226
▁последовательно	-10.3228
▁полуостров	-10.323
начал	-10.3231
ивает	-10.3232
▁годом	-10.3235
fe	-10.3235
▁главного	-10.3235
sh	-10.3236
▁озёр	-10.3236
▁выделяют	-10.3242
▁эйнштейн	-10.3244
▁обучения	-10.3257
▁разгром	-10.3258
▁аристотеля	-10.3258
▁философа	-10.3258
▁комнат	-10.3258
▁мат	-10.3259
▁восстания	-10.3259
▁доктор	-10.3259
▁протека	-10.3259
▁спец	-10.3262
▁гранж	-10.3262
▁высокая	-10.3263
министра	-10.3265
право	-10.3266
▁коэффициент	-10.3266
▁северном	-10.3272
▁отказ	-10.3275
ллер	-10.3279
▁щит	-10.3289
▁библиотек	-10.3289
▁пир	-10.3289
▁турнир	-10.3292
▁механики	-10.3293
▁кир	-10.3294
▁выражение	-10.3297
▁объединения	-10.3301
▁упоминается	-10.3303
сут	-10.3304
▁атома	-10.3305
ительные	-10.3305
орган	-10.3305
▁сайт	-10.3307
▁орден	-10.331
▁находи	-10.3313
▁лейбниц	-10.3316
стал	-10.3323
▁автомат	-10.3326
▁белоруссии	-10.3327
▁доктрин	-10.3327
▁концепции	-10.3327
▁компаний	-10.3327
▁третий	-10.3327
▁бит	-10.3327
▁1987	-10.3329
▁эры	-10.3331
ходящих	-10.3336
бель	-10.3345
▁советские	-10.3346
▁вред	-10.3347
способ	-10.3349
▁киров	-10.3354
▁волны	-10.336
▁франция	-10.3362
archive	-10.3362
▁возвраща	-10.3362
▁обстоятельств	-10.3362
▁харьков	-10.3362
▁глобальн	-10.3362
▁сельское	-10.3362
▁низко	-10.3363
чества	-10.3364
▁улице	-10.3366
▁находились	-10.3366
▁универсальн	-10.3367
▁изменил	-10.3368
нское	-10.3368
эль	-10.3371
ённый	-10.3374
▁ат	-10.3376
▁75	-10.3377
▁называемый	-10.3377
▁исчез	-10.338
▁послан	-10.3382
▁ас	-10.3382
▁континент	-10.3389
систем	-10.339
▁кипр	-10.3391
▁посвящён	-10.3393
▁st	-10.3394
▁конструкции	-10.3397
▁отмечен	-10.3397
▁современный	-10.3397
▁областей	-10.3397
нист	-10.3397
▁сформировал	-10.3398
▁процессы	-10.3399
▁высоких	-10.3399
▁массовы	-10.34
▁рассматрива	-10.3402
▁африка	-10.3403
днев	-10.3404
▁согласи	-10.3407
▁говорил	-10.3413
чный	-10.3415
▁xi	-10.3417
bo	-10.3421
труд	-10.3421
кат	-10.3423
лик	-10.3424
▁принципа	-10.343
▁призыв	-10.343
▁серебрян	-10.3431
▁пруссии	-10.3432
▁ричард	-10.3432
▁диоген	-10.3432
реж	-10.3434
ющейся	-10.3435
fi	-10.3436
ливо	-10.3438
▁выступает	-10.3439
ализации	-10.3443
дет	-10.3446
▁снят	-10.3448
▁кредит	-10.3449
▁источника	-10.3449
▁идеал	-10.345
▁налогов	-10.3453
▁зона	-10.3456
ийский	-10.3461
рев	-10.3462
нским	-10.3465
▁внешняя	-10.3468
▁творчество	-10.3468
▁операций	-10.3468
▁индуизм	-10.3468
ac	-10.347
▁тропическ	-10.347
▁глаза	-10.347
▁крупный	-10.3471
шн	-10.3472
▁плато	-10.3474
▁диалог	-10.3474
▁тон	-10.3479
▁распространя	-10.3484
▁отмечает	-10.3487
▁поста	-10.3492
▁популярность	-10.3492
▁париже	-10.3494
▁румын	-10.3494
ющаяся	-10.3494
so	-10.3495
▁снг	-10.35
▁всему	-10.3502
▁ельцин	-10.3503
▁высота	-10.3504
класс	-10.3508
▁высказыва	-10.3512
пен	-10.3512
▁казахстан	-10.3514
▁недели	-10.3515
сты	-10.3518
джи	-10.3526
гель	-10.3528
▁эквивалент	-10.3539
▁администрации	-10.3539
▁прекратил	-10.3539
▁1978	-10.3541
▁уступ	-10.3543
▁времен	-10.3543
▁нигер	-10.3548
▁отверг	-10.3548
▁единственно	-10.3552
▁статьи	-10.3554
▁пап	-10.3554
изацию	-10.3556
▁одинаков	-10.3562
▁образуют	-10.3563
▁равнин	-10.3568
▁томск	-10.357
▁стороне	-10.3572
▁творчества	-10.3574
▁ранних	-10.3574
▁talk	-10.3574
▁немецких	-10.3574
▁издание	-10.3577
▁1962	-10.3577
▁взгляд	-10.3583
нцы	-10.3597
выш	-10.36
▁участник	-10.3602
cl	-10.3602
▁расширен	-10.3605
▁гроз	-10.3606
▁математически	-10.3606
▁богом	-10.3608
ed	-10.361
▁продолжил	-10.361
ka	-10.3611
▁лежит	-10.3612
▁1985	-10.3613
▁запись	-10.3613
▁стихи	-10.3615
▁личности	-10.3618
▁племена	-10.362
▁миру	-10.3621
национальная	-10.3624
▁психолог	-10.3624
▁вооруж	-10.3625
дут	-10.3625
ol	-10.3627
оров	-10.3629
▁(5	-10.3632
▁формирование	-10.3635
гры	-10.3641
закон	-10.3643
▁определяет	-10.3645
▁400	-10.3645
▁процедур	-10.3646
▁гонконг	-10.3646
▁окраин	-10.3646
▁монеты	-10.3647
▁высших	-10.3647
▁вильгельм	-10.3648
▁слав	-10.3648
▁источники	-10.365
▁юр	-10.3651
▁реформа	-10.3654
mo	-10.3655
▁собора	-10.3657
▁границе	-10.3664
▁уни	-10.3665
очной	-10.3666
ску	-10.367
министр	-10.367
▁сум	-10.3672
▁военный	-10.3675
▁крупнейшие	-10.3675
▁наблюд	-10.3676
▁жар	-10.3676
▁пет	-10.3682
▁важную	-10.3682
▁экономике	-10.3683
гро	-10.3683
▁конкурс	-10.3684
линг	-10.3688
емым	-10.3689
▁провёл	-10.3694
▁расчёт	-10.3694
▁глин	-10.3696
бул	-10.3696
▁называемые	-10.3702
▁иванович	-10.3703
▁республик	-10.3705
▁пассажир	-10.3705
...»	-10.3715
▁результатом	-10.3716
▁трудно	-10.3716
▁разговор	-10.3718
▁пришлось	-10.3719
▁утверждён	-10.3719
pi	-10.372
▁производстве	-10.372
альное	-10.3722
▁приняты	-10.3723
▁лавр	-10.3725
▁250	-10.3728
▁парус	-10.3729
▁арестован	-10.373
▁подобно	-10.373
▁марс	-10.3731
▁1973	-10.374
айн	-10.3742
▁черты	-10.3742
▁происходил	-10.3743
▁командованием	-10.3746
▁километров	-10.3746
мобил	-10.3751
▁подготовку	-10.3755
▁одноимённ	-10.3755
▁убит	-10.3759
▁синтез	-10.376
▁рима	-10.376
бож	-10.3761
▁воде	-10.3762
гур	-10.3764
▁1930	-10.3769
бес	-10.3775
▁1983	-10.3784
▁вокзал	-10.3784
свет	-10.3789
▁обладают	-10.3791
▁расстояния	-10.3791
▁ситуации	-10.3791
▁1921	-10.3795
лок	-10.3795
▁флага	-10.3796
▁начались	-10.3804
▁ярко	-10.3811
лова	-10.3811
▁строк	-10.3812
▁привод	-10.3815
▁бюджет	-10.3817
▁результатам	-10.3819
▁начинает	-10.3821
▁южном	-10.3824
фра	-10.3827
петербурга	-10.3827
тес	-10.3828
▁1905	-10.383
еле	-10.3833
▁мифологическ	-10.3835
они	-10.3836
▁познания	-10.3836
▁поведения	-10.3844
▁центрального	-10.3845
▁основал	-10.3845
▁эсперанто	-10.3847
▁петров	-10.3849
▁печ	-10.3849
▁прекращ	-10.3854
▁обоснова	-10.3854
еры	-10.3855
▁княжества	-10.3855
определ	-10.3858
▁рус	-10.3858
▁идеолог	-10.3861
▁жан	-10.3864
▁стихотвор	-10.3865
▁частных	-10.3865
▁единственный	-10.3865
▁vii	-10.3867
▁полно	-10.3867
▁оказались	-10.3868
▁сферы	-10.3868
▁мнения	-10.3869
▁народной	-10.3872
▁использовали	-10.388
▁поддерживает	-10.3884
▁спутников	-10.3885
ho	-10.389
▁важно	-10.389
▁могла	-10.3892
▁полной	-10.3897
▁футбол	-10.3899
гру	-10.3899
▁провод	-10.39
нда	-10.39
▁тёпл	-10.3902
▁учёный	-10.3902
▁собственные	-10.3902
▁стоимость	-10.3902
теле	-10.3904
▁стиль	-10.3907
▁вышел	-10.391
▁погиб	-10.3913
▁улица	-10.3922
▁считали	-10.3923
▁u	-10.3923
▁2000-	-10.3926
троп	-10.3927
▁построены	-10.3933
▁сосредоточен	-10.3939
▁ресурсов	-10.3939
▁великий	-10.394
▁1986	-10.3942
еро	-10.3943
▁международные	-10.3946
▁заключа	-10.3946
▁массовой	-10.3949
▁ma	-10.3951
чить	-10.3952
▁оказал	-10.3959
▁играет	-10.3963
▁говоря	-10.3966
▁общ	-10.3966
▁студентов	-10.3966
▁грамот	-10.3967
рот	-10.3968
▁мари	-10.397
фил	-10.3975
▁метода	-10.3975
▁течения	-10.3976
▁дважды	-10.3976
▁нефть	-10.3976
▁воздушно	-10.3976
▁троцкий	-10.3977
▁героя	-10.3977
сам	-10.3979
▁1974	-10.3979
di	-10.398
▁средневеков	-10.398
▁серии	-10.3981
енными	-10.399
яет	-10.3995
▁1,5	-10.3996
▁ввод	-10.4001
▁водорода	-10.4004
▁соль	-10.4009
▁произошёл	-10.4013
▁противоположно	-10.4013
▁областях	-10.4013
▁отрасли	-10.4013
▁молотов	-10.4013
▁принимает	-10.4014
▁появилось	-10.4015
юн	-10.4015
▁дочь	-10.4015
▁of	-10.402
брос	-10.4023
нного	-10.4026
▁наследия	-10.4028
час	-10.4028
тремя	-10.4033
▁характеристика	-10.4036
тел	-10.4037
▁лод	-10.404
▁опти	-10.4041
вода	-10.4041
▁аналогичны	-10.4042
▁воздух	-10.4046
▁эксперимент	-10.4047
▁законом	-10.4047
▁имеющие	-10.4059
▁группе	-10.406
▁образу	-10.406
▁внешне	-10.4062
зя	-10.4062
кв	-10.4062
▁ритуал	-10.4063
▁душа	-10.4065
▁проб	-10.4065
▁зи	-10.4074
▁школе	-10.4074
▁берегов	-10.4079
▁леон	-10.408
ставлен	-10.4088
вшееся	-10.4088
▁оценки	-10.4088
▁заметно	-10.4089
галь	-10.4089
▁космического	-10.4091
▁крови	-10.4092
▁десят	-10.4093
▁отдыха	-10.4093
▁продуктов	-10.4093
▁учебных	-10.4095
▁простых	-10.4097
▁объёма	-10.4097
▁радиус	-10.41
▁фил	-10.4101
▁референдум	-10.4108
лизм	-10.4109
▁требует	-10.411
▁резерв	-10.411
▁руд	-10.4111
рика	-10.412
▁британской	-10.4125
▁толст	-10.4125
▁скорее	-10.4126
▁хокинг	-10.4126
▁рациональн	-10.4126
▁никаки	-10.4127
▁почвы	-10.4133
▁водой	-10.4133
▁скоро	-10.4137
рид	-10.4138
пк	-10.4146
▁исследование	-10.4146
▁фоне	-10.415
▁григор	-10.4152
ога	-10.4155
чем	-10.4156
▁герой	-10.4158
▁подписал	-10.416
били	-10.4162
▁задача	-10.4164
▁дав	-10.4164
рождение	-10.4168
даёт	-10.4169
▁указом	-10.417
▁победу	-10.417
▁кру	-10.4175
▁запасы	-10.4181
▁индо	-10.4182
ницей	-10.4185
▁кг	-10.4185
созда	-10.4187
ниц	-10.419
ола	-10.4196
▁архив	-10.4199
▁российский	-10.4202
▁теоретически	-10.4202
▁христа	-10.4202
▁каждая	-10.4202
▁посетил	-10.4202
▁высшего	-10.4203
▁богаты	-10.4205
▁обобщ	-10.4205
▁возникает	-10.4205
tra	-10.4214
▁другого	-10.4216
▁джаз	-10.4216
▁туризм	-10.4219
▁мис	-10.422
▁вагон	-10.4224
▁включал	-10.4227
▁наций	-10.4229
иды	-10.423
ума	-10.4233
▁основ	-10.4234
ваться	-10.4238
бой	-10.4238
▁библиотеки	-10.4238
орд	-10.424
▁телеканал	-10.424
▁поражение	-10.424
▁изменений	-10.4241
▁металлов	-10.4241
▁целях	-10.4242
ленд	-10.4244
нем	-10.4244
▁оборудование	-10.4246
▁враг	-10.4246
▁тар	-10.4248
природных	-10.425
per	-10.4251
▁оценкам	-10.4252
3,	-10.4253
очный	-10.4253
▁прес	-10.4256
нами	-10.4259
▁компонент	-10.4262
▁составлял	-10.4265
▁функционал	-10.4266
▁общие	-10.4267
▁команды	-10.427
гам	-10.4273
▁палат	-10.4273
▁мала	-10.4278
славянск	-10.4278
▁появления	-10.4278
▁аспект	-10.4278
▁авторитет	-10.4278
▁излучения	-10.4278
▁македо	-10.4279
▁ед	-10.4279
▁академик	-10.4279
▁содержания	-10.4284
май	-10.4285
▁пат	-10.4286
▁тесно	-10.4289
▁народного	-10.4291
▁материалов	-10.4292
ически	-10.4295
уб	-10.4296
▁письме	-10.4297
люб	-10.4301
турецк	-10.4302
ивания	-10.4303
▁георг	-10.4305
втор	-10.4307
▁поезда	-10.4313
▁показан	-10.4315
▁поддержки	-10.4317
▁давления	-10.4318
▁натрия	-10.4318
▁хлор	-10.432
▁туристов	-10.432
праздники	-10.4327
ber	-10.4327
яются	-10.4328
▁дворец	-10.433
▁улиц	-10.433
ённой	-10.4332
дум	-10.4333
▁вечно	-10.4334
▁величина	-10.4336
▁вести	-10.4337
асс	-10.4342
▁персонаж	-10.4347
альным	-10.4349
вании	-10.4352
▁добавлен	-10.4355
▁канады	-10.4355
▁1957	-10.4356
▁питания	-10.4358
▁устройств	-10.436
▁отличаются	-10.4364
▁академическ	-10.4364
▁рассматривал	-10.4368
▁значительные	-10.437
▁конференции	-10.4373
▁обслужива	-10.4375
▁запада	-10.4378
▁полем	-10.4381
▁режима	-10.4386
▁многом	-10.4388
овали	-10.4391
▁кул	-10.4392
▁соглашения	-10.4394
▁информацию	-10.4394
▁месторождения	-10.4394
▁параллельно	-10.4397
▁бег	-10.4403
ьян	-10.4404
▁характера	-10.4407
▁морских	-10.4409
▁одному	-10.4409
▁600	-10.4413
▁правильно	-10.4415
▁август	-10.4418
▁ключевы	-10.4423
оло	-10.4425
▁профессионально	-10.4426
▁(16	-10.4427
▁обеспечение	-10.4429
▁образует	-10.4429
▁правительственн	-10.4432
▁армию	-10.4434
▁вселенной	-10.4434
▁идею	-10.4436
измом	-10.4437
▁1924	-10.4437
▁штаб	-10.444
гри	-10.4443
▁попытка	-10.4443
▁экспорта	-10.4445
▁казаков	-10.4449
▁жидко	-10.4455
ent	-10.4456
▁йо	-10.4457
евро	-10.4457
▁говор	-10.4459
▁всемирного	-10.4459
▁сотрудник	-10.4471
▁советским	-10.4472
▁зафиксирован	-10.4472
благоприятн	-10.4472
▁внимания	-10.4472
▁внутренней	-10.4473
падает	-10.4474
▁типы	-10.4475
▁1948	-10.4475
▁единого	-10.4476
▁остальных	-10.4483
украин	-10.4485
▁построена	-10.4486
ющегося	-10.4487
▁товары	-10.4487
▁дыр	-10.4487
▁особо	-10.4489
▁эль	-10.4489
актив	-10.449
атом	-10.4495
▁вас	-10.4497
▁существовало	-10.4498
▁свод	-10.4503
▁считаются	-10.4504
▁рассматривать	-10.4508
▁причине	-10.4509
mp	-10.4511
▁евреев	-10.4511
▁борьба	-10.4511
▁железных	-10.4511
▁соединённы	-10.4511
▁1963	-10.4512
ke	-10.4513
▁цирк	-10.4513
▁проход	-10.4514
▁физике	-10.4514
▁принята	-10.4514
▁1947	-10.4514
▁каса	-10.4515
▁песня	-10.4515
временн	-10.4521
▁психологии	-10.4522
космонавт	-10.4525
жил	-10.4527
▁двойн	-10.4528
кую	-10.453
▁предложения	-10.4539
▁принятия	-10.454
▁плотин	-10.454
▁самолёт	-10.454
▁жена	-10.4548
▁вызывает	-10.4551
▁реакция	-10.4551
▁технологий	-10.4551
▁36	-10.4551
монт	-10.4552
▁диаметр	-10.4553
▁1949	-10.4554
▁ядро	-10.4554
▁вавилов	-10.4557
вала	-10.4564
▁гам	-10.4565
▁местности	-10.4565
▁отмечается	-10.4568
▁фра	-10.457
▁общим	-10.4571
▁существовали	-10.4589
▁следовательно	-10.459
▁проспект	-10.459
▁оставил	-10.4594
▁физических	-10.4594
▁менделеев	-10.4597
▁министра	-10.4598
▁границу	-10.4598
▁кро	-10.4599
bi	-10.4603
▁магнит	-10.4603
▁переселен	-10.4608
виду	-10.4609
▁плод	-10.461
▁джа	-10.461
▁скоростью	-10.4616
мак	-10.4616
▁столь	-10.462
▁начина	-10.4623
ga	-10.4624
▁уильям	-10.463
▁энергия	-10.463
шер	-10.4631
▁условно	-10.4632
▁хол	-10.4638
▁развитием	-10.4644
▁северный	-10.4651
▁газета	-10.4652
▁di	-10.4654
один	-10.4657
овской	-10.4658
▁расход	-10.4663
▁пуст	-10.4663
▁процессор	-10.4665
▁достигнут	-10.4668
иста	-10.4669
om	-10.4669
предположительно	-10.467
▁оценив	-10.4672
▁1959	-10.4672
▁отказался	-10.4673
▁1982	-10.4673
▁1968	-10.4673
▁придержива	-10.4674
жён	-10.4679
▁минск	-10.4681
▁филиппин	-10.4682
▁заключен	-10.4683
лаб	-10.4684
план	-10.4686
▁1950	-10.4691
▁владимира	-10.4698
▁массово	-10.4698
▁знамен	-10.4704
▁михаила	-10.4705
▁работах	-10.4708
▁google	-10.471
▁кладбище	-10.471
▁наступление	-10.471
▁отсутствует	-10.471
▁способны	-10.471
▁химических	-10.471
ющими	-10.4711
▁подавлен	-10.4711
▁делятся	-10.4713
▁характеризуется	-10.4714
1,	-10.4715
▁событие	-10.4717
▁соединений	-10.4717
дат	-10.4718
▁гост	-10.4719
▁швейцар	-10.4719
▁организм	-10.4719
▁часа	-10.4721
ведении	-10.4728
держи	-10.473
▁фрагмент	-10.4731
▁съезд	-10.4733
народ	-10.4739
▁начался	-10.474
нил	-10.4741
▁алгебр	-10.4743
сад	-10.4744
овича	-10.4748
▁афганистан	-10.475
▁используя	-10.475
▁перспектив	-10.475
▁южная	-10.475
▁принадлежал	-10.475
▁появляется	-10.4752
▁1938	-10.4752
▁1977	-10.4753
▁высокий	-10.4755
▁увеличен	-10.4756
авший	-10.4757
▁критика	-10.4758
▁угроз	-10.4761
▁генерала	-10.4764
▁кант	-10.4766
▁главные	-10.4769
▁примеру	-10.477
▁основа	-10.4772
▁состоялся	-10.4775
▁получает	-10.4777
ичных	-10.4778
▁руки	-10.478
▁меч	-10.4781
гун	-10.4784
чеш	-10.4784
▁мозга	-10.4785
▁товаров	-10.4787
▁долгое	-10.4787
▁добыча	-10.479
▁контроля	-10.479
▁1936	-10.4793
▁эффективно	-10.4793
▁1935	-10.4793
▁эпох	-10.4794
петербурге	-10.4796
000	-10.4799
▁носил	-10.48
▁кер	-10.4801
▁волос	-10.4804
▁вопросов	-10.4804
пустил	-10.4805
▁поставлен	-10.4809
▁великобритания	-10.481
▁президиума	-10.4815
▁33	-10.4822
нести	-10.4824
▁народный	-10.483
▁участия	-10.4831
▁1971	-10.4833
вание	-10.4835
▁таком	-10.4838
▁казахстана	-10.4842
▁способности	-10.4845
инского	-10.4849
▁другая	-10.4852
▁священник	-10.4854
ьной	-10.4856
кот	-10.4856
▁кода	-10.4857
▁полуострова	-10.4864
▁арт	-10.4864
▁старше	-10.487
▁исследователей	-10.4871
▁палестин	-10.4871
▁приговор	-10.4871
▁перевоз	-10.4873
▁попытк	-10.4875
▁примеры	-10.4876
▁избира	-10.4879
▁кинематограф	-10.4882
▁связей	-10.4882
▁длины	-10.4887
▁физика	-10.4888
хор	-10.4888
▁штата	-10.4888
никами	-10.4895
водятся	-10.4896
▁наоборот	-10.4898
▁1920-	-10.4902
▁объединение	-10.4903
▁титана	-10.4904
▁ограничения	-10.4911
▁стадион	-10.4912
▁христо	-10.4912
▁сооружения	-10.4916
▁участников	-10.4917
▁ранние	-10.4918
▁северная	-10.4929
▁требуется	-10.4929
▁любого	-10.4931
▁опор	-10.4935
▁использовался	-10.4935
—15	-10.4939
▁оба	-10.4939
▁металлическ	-10.4944
тами	-10.4946
▁недостаточно	-10.4946
▁водород	-10.4947
▁клин	-10.4952
▁днём	-10.4953
▁япония	-10.4953
▁настолько	-10.4953
▁промышленных	-10.4953
▁отсчёта	-10.4953
▁химии	-10.4954
▁английском	-10.4954
ированных	-10.4954
▁боя	-10.4958
▁повторя	-10.496
▁обрати	-10.496
▁русская	-10.4961
▁имеющих	-10.4961
▁полюс	-10.4963
▁вернулся	-10.4964
▁французского	-10.4964
▁существующ	-10.4965
фин	-10.4966
▁дании	-10.4967
▁подвижн	-10.4967
▁гипотез	-10.4976
▁запас	-10.4976
▁мен	-10.4977
▁луи	-10.4977
▁исполнитель	-10.4984
▁расширение	-10.4986
▁приняли	-10.4986
▁размера	-10.4987
▁позволил	-10.4988
▁песен	-10.499
▁такими	-10.4991
▁ты	-10.4991
▁начальник	-10.4992
▁различия	-10.4993
▁оружия	-10.4994
филь	-10.4995
▁созданию	-10.4995
▁падеж	-10.4996
▁древние	-10.4997
▁портрет	-10.4997
▁1956	-10.4997
ори	-10.4998
▁1926	-10.4998
▁австрии	-10.5
роб	-10.5004
▁na	-10.5005
▁куда	-10.5006
▁плохо	-10.5009
▁редки	-10.501
▁народно	-10.5014
▁прошёл	-10.5015
▁исполни	-10.5017
ивание	-10.5019
▁западных	-10.5022
тв	-10.5022
литовск	-10.5023
▁отступ	-10.5024
ящих	-10.5028
▁сен	-10.5028
▁42	-10.5035
▁интерфейс	-10.5036
▁торговля	-10.5036
▁нынешне	-10.5036
▁атмосферы	-10.5036
▁эпикур	-10.5037
▁производитель	-10.5038
▁оказалась	-10.5038
▁жидкости	-10.504
яд	-10.5044
рный	-10.5046
▁широкое	-10.5047
нец	-10.5048
ir	-10.5049
▁проходят	-10.5052
нера	-10.5052
▁высотой	-10.5053
север	-10.5054
▁экологическ	-10.5055
▁научного	-10.5057
▁тексты	-10.5061
▁республикой	-10.5069
ухи	-10.5069
бур	-10.5069
ивших	-10.507
сион	-10.507
▁лиш	-10.5074
▁перехода	-10.5075
▁памятники	-10.5075
▁преобразован	-10.5076
▁норвегии	-10.5077
▁становятся	-10.5077
▁курорт	-10.5078
▁ча	-10.5081
▁королевства	-10.5087
▁французской	-10.5089
▁сути	-10.5094
▁проводится	-10.5096
▁биограф	-10.5098
▁науке	-10.5099
▁таблиц	-10.5101
президент	-10.5101
вшая	-10.5107
▁ночь	-10.511
▁нато	-10.5111
▁королевство	-10.5114
▁полное	-10.5117
▁людьми	-10.5119
▁узбекистан	-10.5119
▁властей	-10.5119
▁волги	-10.512
▁стиля	-10.5121
▁дворян	-10.5121
▁снег	-10.5121
▁спирт	-10.5122
▁1900	-10.5125
▁риф	-10.5125
▁значит	-10.5126
▁голод	-10.513
▁свин	-10.5134
▁горбачёв	-10.5135
▁стабильн	-10.5135
камен	-10.5136
▁сми	-10.5137
▁субъект	-10.5138
▁мораль	-10.5142
▁выполнения	-10.5143
бон	-10.5148
▁популярны	-10.515
▁границ	-10.5152
ража	-10.5152
нис	-10.5152
▁кров	-10.5157
100	-10.5157
▁углерода	-10.5162
ходящие	-10.5163
▁записан	-10.5164
▁дворца	-10.5164
ающий	-10.5167
▁профессиональны	-10.5171
▁болгарии	-10.5178
▁платформ	-10.5178
▁оказался	-10.5178
▁ферм	-10.5179
физическ	-10.5189
▁горизонт	-10.519
▁демон	-10.5192
▁осуществляет	-10.5195
▁намерен	-10.5196
pl	-10.5198
▁метрополитена	-10.52
влад	-10.5201
антов	-10.5201
▁восприятия	-10.5203
▁классификация	-10.5203
▁собственных	-10.5203
▁значений	-10.5203
▁старейши	-10.5203
▁пакет	-10.5203
▁площадью	-10.5204
▁корм	-10.5205
▁метрополитен	-10.5205
▁специальные	-10.5205
▁1976	-10.5206
▁интересов	-10.5207
▁эс	-10.5207
▁сообщества	-10.5208
▁сид	-10.5209
▁черно	-10.5212
▁обращение	-10.5213
▁открытый	-10.5214
▁увеличива	-10.5215
шт	-10.5224
государственн	-10.5224
▁ван	-10.5225
▁экипаж	-10.5228
▁высоте	-10.523
▁лег	-10.5232
▁замеча	-10.5232
▁изготовлен	-10.5233
вались	-10.5237
марк	-10.5244
оги	-10.5245
▁вертолёт	-10.5245
▁соловьёв	-10.5245
▁последней	-10.5245
▁граничит	-10.5245
▁султан	-10.5245
▁поступил	-10.5246
▁появляются	-10.5246
▁научные	-10.5247
▁1914	-10.5248
▁1929	-10.5248
цит	-10.5249
▁получал	-10.5249
▁развиты	-10.5249
▁слух	-10.5252
▁горах	-10.5253
▁макро	-10.5254
▁надел	-10.5254
▁(10	-10.5256
▁пользователя	-10.5256
вращен	-10.5262
▁говорить	-10.5263
▁тут	-10.5264
▁мировых	-10.5265
▁la	-10.5266
▁училище	-10.527
▁байт	-10.5271
▁звука	-10.5281
симметри	-10.5281
▁средних	-10.5287
▁заговор	-10.5287
луг	-10.5288
▁подобные	-10.5288
велесов	-10.5288
▁позволило	-10.5294
▁уголовн	-10.5296
▁потеря	-10.5298
▁числом	-10.53
лип	-10.53
▁вторым	-10.5301
▁октавиан	-10.5306
▁назначения	-10.5308
▁цветов	-10.531
бре	-10.531
▁сар	-10.5312
▁баб	-10.5312
▁государственное	-10.5316
▁еврей	-10.5319
пала	-10.532
▁семь	-10.532
йцев	-10.532
▁космических	-10.5321
промышленн	-10.5321
▁налог	-10.5324
▁термина	-10.5324
▁прогноз	-10.533
▁феномен	-10.533
▁покинул	-10.533
иты	-10.533
́д	-10.5333
▁опира	-10.5334
▁олимпийских	-10.5336
ab	-10.5337
▁государственном	-10.5338
▁насчитывается	-10.5338
▁всём	-10.5341
чное	-10.5342
▁сказать	-10.5342
▁юрий	-10.5346
коммерческ	-10.5348
▁небольшой	-10.5352
▁жанра	-10.5355
▁антони	-10.5356
▁сочета	-10.5357
▁фильма	-10.5357
▁запрос	-10.5358
▁вещ	-10.536
▁берег	-10.5365
рван	-10.5367
▁советская	-10.5367
▁существенны	-10.537
уют	-10.5372
▁десятилетия	-10.5373
▁положительно	-10.5373
▁христианства	-10.5379
▁бывший	-10.5381
▁материала	-10.5385
▁убежд	-10.5385
▁юпитера	-10.5385
▁крайней	-10.5387
обще	-10.5389
▁бак	-10.5392
▁коммерчески	-10.5398
▁1950-	-10.5398
пел	-10.5406
▁принять	-10.5407
оре	-10.5408
▁параметр	-10.5408
буд	-10.5409
▁град	-10.541
▁получение	-10.5412
▁патриарх	-10.5415
▁характерно	-10.5415
▁наполеон	-10.5415
▁подземн	-10.5416
герман	-10.5416
шта	-10.5418
▁иоанн	-10.5418
▁короле	-10.5419
▁предоставля	-10.5423
▁простые	-10.5423
▁журналист	-10.5426
▁создав	-10.5427
министром	-10.5428
▁структуру	-10.5428
▁искусстве	-10.5433
шир	-10.5438
берт	-10.544
▁бри	-10.5441
▁повтор	-10.5442
ище	-10.5442
▁гора	-10.5442
▁супруг	-10.5445
▁установ	-10.5446
▁произведен	-10.5448
pro	-10.5449
▁сами	-10.5449
тол	-10.5451
▁полномочий	-10.5459
▁авраам	-10.5459
▁водохранилищ	-10.5459
▁участка	-10.5459
▁революция	-10.5459
▁прошли	-10.5459
▁обращения	-10.5463
▁турции	-10.5463
▁завода	-10.5466
▁городские	-10.5471
▁прекращени	-10.5472
▁основана	-10.5474
▁48	-10.5477
соглас	-10.5485
▁предлага	-10.5489
▁одни	-10.5489
▁страниц	-10.5489
▁утвержден	-10.549
▁памятников	-10.549
▁нефте	-10.549
пара	-10.5492
пет	-10.5493
▁лад	-10.5495
щит	-10.5495
▁остальн	-10.55
▁департамент	-10.5502
▁принимать	-10.5502
▁поводу	-10.5504
гул	-10.5505
▁1937	-10.5505
араб	-10.5506
▁германией	-10.5506
цеп	-10.5507
лаг	-10.5511
▁латинской	-10.5515
▁герба	-10.5522
▁потреб	-10.5522
атов	-10.5523
▁крупным	-10.5524
▁наклон	-10.5524
шка	-10.5527
▁конечны	-10.5534
▁фу	-10.5539
▁товар	-10.5539
-3	-10.5539
▁столице	-10.5544
▁37	-10.5545
▁гитлер	-10.5545
▁израиле	-10.5545
▁квартал	-10.5546
▁приобрел	-10.5546
▁уравнений	-10.5546
▁социальные	-10.5546
▁подчиня	-10.5547
▁выпустил	-10.5551
тай	-10.5556
▁общения	-10.556
хождения	-10.5564
▁путина	-10.5568
▁символов	-10.557
интер	-10.5574
▁фирм	-10.5576
▁помещен	-10.5577
▁будущи	-10.5578
▁противника	-10.5578
ation	-10.5583
▁приметы	-10.5589
▁1958	-10.5592
▁веры	-10.5598
▁превраща	-10.5599
▁олимпийск	-10.5603
":	-10.5608
▁дальнейше	-10.5614
▁кре	-10.5618
▁результатов	-10.5626
▁королём	-10.5633
▁присоединил	-10.5633
▁встретил	-10.5633
▁немецкой	-10.5633
▁ресурсы	-10.5634
▁общественных	-10.5634
летнего	-10.5636
▁1984	-10.5636
▁потери	-10.5636
wa	-10.5637
▁география	-10.5639
▁каст	-10.5639
▁будущего	-10.5641
▁силой	-10.5641
▁царство	-10.5647
ушки	-10.5648
бог	-10.565
▁1933	-10.5651
▁прошлом	-10.5652
▁небесны	-10.5655
работа	-10.566
▁пирамид	-10.5662
▁земной	-10.5665
▁октябрь	-10.5668
id	-10.5671
▁сохрани	-10.5676
▁достоинств	-10.5677
▁знаний	-10.5677
▁озера	-10.5677
добр	-10.5677
▁вошла	-10.5677
▁осуществлени	-10.5677
▁кнр	-10.5678
▁дать	-10.5678
▁находилась	-10.5681
▁следующих	-10.5681
ап	-10.5683
▁являлись	-10.5684
чай	-10.5686
▁московский	-10.5688
▁алк	-10.5694
▁малых	-10.5696
io	-10.5696
очным	-10.5697
высшая	-10.5697
▁график	-10.5699
▁магнитны	-10.5704
)|	-10.5704
▁строй	-10.571
▁присвоен	-10.5712
▁кораблей	-10.5715
риз	-10.5716
▁соответствую	-10.5719
белорус	-10.5719
▁специализирован	-10.5719
▁заказ	-10.572
▁оружие	-10.5721
▁небольшие	-10.5721
▁оркестр	-10.5721
▁председателем	-10.5721
▁человеческого	-10.5721
▁зевс	-10.5722
▁1969	-10.5724
▁русско	-10.5726
брать	-10.5728
▁морем	-10.5729
▁ветра	-10.574
▁польско	-10.5745
▁бре	-10.5746
много	-10.5746
пресс	-10.5752
▁образованием	-10.5755
действительности	-10.5755
йские	-10.5756
ванию	-10.5756
▁риме	-10.5757
руша	-10.5758
ини	-10.5758
3.	-10.5759
▁указа	-10.576
▁введение	-10.5761
тюр	-10.5765
▁пакистан	-10.5766
▁службу	-10.5766
▁исторической	-10.5766
совместим	-10.5766
▁точке	-10.5766
▁кинотеатр	-10.5766
▁эст	-10.5766
▁800	-10.577
▁лагер	-10.577
▁блока	-10.5771
▁послужил	-10.5781
▁рассматривается	-10.5783
▁вице	-10.5783
▁романа	-10.5787
▁древ	-10.5794
▁официальной	-10.5795
вался	-10.5795
▁отправлен	-10.5797
одно	-10.5797
чев	-10.5799
уры	-10.58
▁сфера	-10.58
▁1953	-10.5806
▁лю	-10.5809
▁джордж	-10.581
▁последним	-10.581
▁современным	-10.581
▁чёрной	-10.5811
▁экран	-10.5813
▁1966	-10.5814
раб	-10.5815
_6	-10.5816
▁восьми	-10.5817
тона	-10.5817
▁программу	-10.5819
▁проводятся	-10.5825
▁писа	-10.5826
▁трети	-10.5828
▁отделения	-10.5828
торгов	-10.5832
ьную	-10.5832
▁слоя	-10.5836
▁словами	-10.5837
▁реально	-10.5839
▁дю	-10.5846
▁бир	-10.585
lu	-10.5853
▁лице	-10.5854
▁туркменистан	-10.5855
▁печати	-10.5855
▁внутреннего	-10.5855
▁аристотель	-10.5855
sp	-10.5856
▁станций	-10.5857
▁делится	-10.586
▁сложности	-10.5862
абсолют	-10.5867
▁устав	-10.5869
▁литературно	-10.5875
▁целей	-10.5876
▁чин	-10.5876
▁мартин	-10.588
▁городу	-10.5882
▁хозяйстве	-10.5884
▁длиной	-10.5886
чков	-10.5888
▁правом	-10.589
▁экономических	-10.5894
▁умеренно	-10.5896
▁признание	-10.5898
▁завет	-10.59
▁пехот	-10.59
▁писателей	-10.5901
▁троцкого	-10.5901
революционн	-10.5905
▁основного	-10.5914
соль	-10.5916
▁нежел	-10.5918
шест	-10.592
go	-10.5923
▁экономический	-10.5925
▁железнодорожный	-10.5926
▁русским	-10.5927
▁хотел	-10.5929
▁выражения	-10.5931
▁современная	-10.5933
▁разнообразны	-10.5937
▁квартир	-10.5938
губернатор	-10.5941
op	-10.5941
альт	-10.5942
▁иерусалим	-10.5945
▁лукашенко	-10.5945
▁информация	-10.5945
▁политике	-10.5945
▁показатель	-10.5945
▁принадлежат	-10.5946
▁коз	-10.5946
вшимся	-10.5948
▁ибн	-10.5949
▁предметов	-10.5954
▁грузии	-10.5959
▁фре	-10.5961
▁знание	-10.5962
▁исследователь	-10.5962
▁шу	-10.5964
▁аналогично	-10.5967
▁so	-10.597
ированные	-10.5971
▁уход	-10.5971
▁собственной	-10.5973
▁знамениты	-10.5975
▁правление	-10.5975
нным	-10.5976
▁ведёт	-10.5976
анда	-10.5977
▁верх	-10.5977
ённым	-10.5982
▁астрономическ	-10.5985
▁поэта	-10.5988
▁рев	-10.5988
▁направлений	-10.5989
▁бос	-10.5991
▁религиозные	-10.5991
▁обработки	-10.5991
▁проезд	-10.5991
▁рынка	-10.5991
▁столетия	-10.5991
▁составляющи	-10.5992
▁пери	-10.5992
движен	-10.5995
щение	-10.6
маз	-10.6006
▁вещей	-10.6006
▁эйнштейна	-10.6008
▁размеры	-10.6009
арий	-10.601
▁начинают	-10.6014
▁палаты	-10.6017
суббот	-10.6018
▁порта	-10.6025
бук	-10.6027
ящим	-10.6028
пин	-10.6032
воздушн	-10.6034
имость	-10.6034
▁храма	-10.6034
▁количеством	-10.6036
▁java	-10.6036
▁греческой	-10.6036
▁собственным	-10.6038
▁иначе	-10.604
▁процент	-10.6043
▁воду	-10.6045
▁группой	-10.6045
▁знал	-10.6051
▁вкус	-10.6052
ae	-10.6052
▁властью	-10.6053
истами	-10.6054
это	-10.6054
▁расположено	-10.6057
▁хозяйств	-10.6058
▁разряд	-10.6061
▁монах	-10.6062
▁занимался	-10.6062
ичным	-10.6067
чил	-10.6069
▁буддизм	-10.6069
шива	-10.6069
день	-10.607
▁значительная	-10.6071
▁вошёл	-10.6072
▁всемирн	-10.6073
▁характеристик	-10.6079
▁поддерживал	-10.608
▁формировани	-10.6081
▁морю	-10.6081
▁атрибут	-10.6082
▁кёнигсберг	-10.6082
▁обсужда	-10.6082
▁племён	-10.6082
▁поддержке	-10.6082
▁специалистов	-10.6083
▁британско	-10.6084
▁1934	-10.6085
▁разработал	-10.6086
▁военным	-10.609
▁финал	-10.6093
▁регулярны	-10.6093
лайн	-10.6094
▁рыбинск	-10.6095
▁linux	-10.6095
▁персон	-10.6096
▁плане	-10.6096
этническ	-10.6104
▁добро	-10.6105
▁вычислительн	-10.6107
="12	-10.6109
▁ям	-10.6113
▁бизнес	-10.6115
▁цицерон	-10.6115
▁играх	-10.6118
▁избираемы	-10.6118
▁близко	-10.6121
▁кризиса	-10.6121
гал	-10.6123
▁напротив	-10.6125
▁азота	-10.6127
▁температуре	-10.6127
▁воспитан	-10.6128
▁поэзии	-10.6128
▁главнокомандующ	-10.6128
▁английского	-10.6129
▁высказал	-10.6129
▁оставался	-10.6129
▁взаимно	-10.613
▁высшей	-10.613
ica	-10.6133
▁38	-10.6134
опер	-10.6137
▁предан	-10.6137
▁каких	-10.6138
▁конго	-10.6138
кого	-10.6139
▁po	-10.6139
▁кле	-10.6141
циан	-10.6144
▁предполагается	-10.6145
="14	-10.6145
▁значительным	-10.6145
див	-10.6145
▁колес	-10.6152
▁брон	-10.616
▁al	-10.6165
звезд	-10.6167
▁серьёзно	-10.6169
▁карла	-10.617
▁проведён	-10.6171
▁известность	-10.6173
▁внешних	-10.6175
▁приоритет	-10.6175
▁монастырь	-10.6175
▁чёрного	-10.6175
▁прос	-10.6176
▁внутренние	-10.6177
варшав	-10.6177
der	-10.6177
▁1981	-10.6178
▁1972	-10.6178
▁преобладают	-10.6179
▁литвы	-10.6179
vo	-10.6179
▁античн	-10.6181
сед	-10.6181
▁чём	-10.6182
▁царства	-10.6183
льский	-10.6183
▁натуральн	-10.6186
▁кндр	-10.6187
▁занимается	-10.6189
▁проекту	-10.619
▁полк	-10.619
▁функционально	-10.619
▁возникла	-10.6192
нка	-10.6193
▁нико	-10.6193
▁облик	-10.6195
кристалл	-10.6201
nt	-10.6203
мех	-10.6203
▁устойчиво	-10.6203
▁войн	-10.6205
▁дон	-10.6209
▁сет	-10.6211
▁создавал	-10.6216
чку	-10.6216
▁метр	-10.6216
▁популярным	-10.6219
▁провинция	-10.6221
▁минимальны	-10.6222
▁роберт	-10.6222
включая	-10.6225
▁следующем	-10.6232
▁стены	-10.6233
▁определённых	-10.6236
▁добыва	-10.624
уха	-10.6243
ag	-10.6244
▁ch	-10.6245
▁последующ	-10.6247
эп	-10.6248
▁обуча	-10.625
▁слуша	-10.6254
▁сак	-10.6255
▁племен	-10.6256
▁системах	-10.626
▁диа	-10.6262
▁пришли	-10.6265
▁академия	-10.6268
▁национальным	-10.6268
дру	-10.627
▁призван	-10.627
▁1925	-10.6274
▁списка	-10.6274
▁обратил	-10.6274
▁светл	-10.6275
con	-10.6276
▁термит	-10.6277
▁украински	-10.628
▁евклид	-10.628
▁славянских	-10.6282
▁обоих	-10.6283
▁периодически	-10.6284
дент	-10.6285
лас	-10.6285
▁урал	-10.629
▁прото	-10.6297
▁аналог	-10.6298
▁культурно	-10.6303
рост	-10.6303
лат	-10.6303
▁социального	-10.6306
▁высоты	-10.6308
▁кварк	-10.6308
ированы	-10.6313
▁руководства	-10.6315
▁оплаты	-10.6315
▁греческого	-10.6315
▁веб	-10.6315
▁политическая	-10.6316
▁американский	-10.6316
▁фабрик	-10.6317
▁кажды	-10.6318
жат	-10.6318
▁составляло	-10.6319
▁невы	-10.632
▁использовании	-10.6328
ковского	-10.6329
▁(6	-10.6329
▁данное	-10.6332
▁золотой	-10.6332
ившись	-10.6334
▁python	-10.634
▁распределение	-10.634
▁образуется	-10.6341
▁советов	-10.6342
▁возникли	-10.6343
▁иисуса	-10.6343
▁помог	-10.6345
▁давление	-10.6345
▁дети	-10.6346
▁viii	-10.6351
▁стек	-10.6355
▁веру	-10.6359
▁ясно	-10.6361
▁болезни	-10.6362
▁обнаружив	-10.6362
▁скептицизм	-10.6362
▁высшее	-10.6362
▁движении	-10.6362
▁вращения	-10.6362
▁рабочей	-10.6363
▁людям	-10.6363
▁классификации	-10.6363
▁1906	-10.6365
▁критику	-10.6366
▁1928	-10.6366
▁чётко	-10.6367
ходить	-10.6369
ct	-10.637
▁усилия	-10.637
▁дерево	-10.6371
▁сообщ	-10.6371
▁командира	-10.6374
байт	-10.6375
▁немецкого	-10.6378
ительным	-10.638
▁мария	-10.6389
текст	-10.639
▁архитектура	-10.6392
▁казахск	-10.6395
ul	-10.6396
▁аэро	-10.6399
атлант	-10.6399
лёв	-10.64
дес	-10.6401
тическая	-10.6408
▁катастроф	-10.6409
▁отмечают	-10.6409
▁таджикистан	-10.6409
▁православной	-10.6409
▁кольца	-10.6411
ологию	-10.6412
▁супер	-10.6412
▁синто	-10.642
▁титан	-10.6424
уголь	-10.6424
▁способом	-10.6426
▁этапе	-10.6426
▁физические	-10.6426
▁явно	-10.6429
ec	-10.643
яться	-10.6432
="13	-10.6434
ийского	-10.6434
▁кад	-10.6438
▁руках	-10.6439
▁составили	-10.6442
▁команда	-10.6442
▁разделён	-10.6444
▁разным	-10.6445
▁южного	-10.6446
▁льда	-10.6447
▁источниках	-10.6449
вероятн	-10.645
▁стремление	-10.6453
▁жилищ	-10.6455
▁сокр	-10.6456
▁округов	-10.6456
▁функцию	-10.6457
▁понимание	-10.6457
▁переехал	-10.6457
▁поколения	-10.6457
▁монастыря	-10.6458
сот	-10.6458
▁мамонт	-10.6459
▁состоялось	-10.6462
▁центральный	-10.6463
квартир	-10.6466
▁храмов	-10.6467
▁последующие	-10.6469
▁выделить	-10.6477
▁этно	-10.6482
▁друж	-10.6484
po	-10.6492
▁полного	-10.6496
▁марса	-10.6496
▁досто	-10.65
▁номинал	-10.6503
▁калькулятор	-10.6505
▁партизан	-10.6505
▁южный	-10.6505
▁далеко	-10.6506
▁значении	-10.6506
▁продолжает	-10.6506
▁луны	-10.6509
▁частно	-10.651
парк	-10.651
▁астролог	-10.6511
▁креп	-10.6514
▁правительств	-10.6518
▁комплекса	-10.6519
▁военное	-10.6519
▁привлек	-10.652
▁отправ	-10.652
▁прочих	-10.6521
▁красного	-10.6523
щу	-10.6525
▁фонда	-10.653
▁колонии	-10.6531
▁дата	-10.6533
этажн	-10.6534
ите	-10.6537
▁ca	-10.6548
точных	-10.6548
▁прогресс	-10.6549
▁содружества	-10.6553
▁гильберт	-10.6553
▁концепция	-10.6553
▁юнеско	-10.6553
▁пьес	-10.6554
▁решений	-10.6557
▁свободной	-10.6557
блок	-10.6558
do	-10.6558
man	-10.6558
▁фёдор	-10.656
500	-10.6561
руд	-10.6562
▁служить	-10.6565
́в	-10.657
як	-10.6575
ича	-10.6578
▁зависимость	-10.6581
▁требования	-10.6583
▁древнейши	-10.6583
▁окружающ	-10.6584
▁выходит	-10.6585
▁пита	-10.6586
▁среднее	-10.6587
▁скал	-10.6595
▁подробно	-10.6596
▁стреми	-10.6598
▁сумма	-10.6599
▁отношениях	-10.66
▁комиссар	-10.6601
▁дионис	-10.6601
▁своеобразн	-10.6602
▁кошек	-10.6603
▁авиации	-10.6604
▁древности	-10.6605
▁живут	-10.6606
▁высокие	-10.6607
▁переходит	-10.6607
▁углекисл	-10.661
ляции	-10.6611
ковский	-10.6611
▁вирус	-10.6612
▁школах	-10.6613
▁повер	-10.6618
медицинск	-10.6622
▁уш	-10.6627
▁запущен	-10.6634
демократическ	-10.6637
▁америка	-10.6644
▁якобы	-10.6646
▁мет	-10.6646
▁российская	-10.6647
▁органом	-10.6648
▁beatles	-10.665
▁сознания	-10.665
▁колледж	-10.665
▁сохранения	-10.665
▁хлоп	-10.665
▁римлян	-10.665
▁моста	-10.6651
▁вероятность	-10.6651
▁пребывания	-10.6652
▁критики	-10.6658
▁нужд	-10.6658
измен	-10.6664
1,3	-10.6665
ичной	-10.6666
▁фар	-10.6666
док	-10.6667
▁коротко	-10.6667
ue	-10.6668
перед	-10.6673
маш	-10.6673
ивать	-10.6674
против	-10.6674
▁выгод	-10.6675
▁миллион	-10.668
▁спрос	-10.6681
▁фраз	-10.6682
▁заключён	-10.6683
рим	-10.669
▁ган	-10.669
▁сколько	-10.6691
▁философов	-10.6692
▁примером	-10.6694
▁библии	-10.6699
▁большевиков	-10.6699
▁обусловлен	-10.6699
▁статей	-10.6699
▁физической	-10.6699
▁надежд	-10.6699
▁учёто	-10.67
▁двигателя	-10.67
▁официальных	-10.6701
очного	-10.6703
▁эд	-10.6705
▁знаков	-10.6705
информационны	-10.6705
▁поднима	-10.6707
▁науру	-10.6708
▁климата	-10.6708
▁34	-10.6709
▁особенностью	-10.6711
▁преоблада	-10.6713
маг	-10.6715
имости	-10.6716
▁мгу	-10.6716
бык	-10.6716
▁выделяются	-10.6721
▁членами	-10.6722
ушка	-10.673
▁осуществля	-10.6737
песчан	-10.6737
▁свето	-10.6739
▁све	-10.6741
▁верхней	-10.6743
▁похоронен	-10.6743
▁окис	-10.6745
▁реализован	-10.6748
▁хрущёв	-10.6748
▁изделия	-10.6748
▁рыбы	-10.6749
▁сторонников	-10.6751
рико	-10.6751
▁череп	-10.6751
▁реальности	-10.6754
▁урана	-10.6756
родолжительность	-10.6758
▁научным	-10.676
▁возникновения	-10.676
▁зуб	-10.6761
%	-10.6761
▁болот	-10.6761
▁пережив	-10.6762
▁московском	-10.6762
▁материк	-10.6763
▁спи	-10.6763
▁давал	-10.6763
▁перес	-10.6766
▁значим	-10.6767
▁открыва	-10.6769
▁треть	-10.677
▁характеристики	-10.6772
шел	-10.6773
▁парков	-10.6773
▁составило	-10.6774
▁местом	-10.6776
▁применен	-10.6777
чан	-10.6783
▁агент	-10.6787
▁меш	-10.6791
узы	-10.6791
▁сп	-10.6792
▁чили	-10.6794
диапазон	-10.6795
▁деревьев	-10.6797
▁редактор	-10.6797
▁древнего	-10.6798
▁поселение	-10.6798
▁наследник	-10.6799
▁оформлен	-10.6799
▁1955	-10.68
лично	-10.6802
лян	-10.6804
▁югу	-10.6804
▁определил	-10.6805
▁создавать	-10.6807
tu	-10.6809
▁ред	-10.6809
▁лондоне	-10.681
▁принципы	-10.6811
части	-10.6812
▁римски	-10.6815
▁чуть	-10.6817
▁пушкина	-10.6817
▁ранен	-10.6817
sm	-10.6817
ko	-10.6818
▁потребовал	-10.6819
строитель	-10.682
ичность	-10.6824
▁чемпион	-10.6828
десят	-10.683
ющимся	-10.6832
▁долина	-10.6838
▁исторический	-10.6839
▁устанавлива	-10.6841
▁особое	-10.6845
▁блог	-10.6846
▁провозгласил	-10.6846
▁участки	-10.6846
▁мышления	-10.6846
▁италия	-10.6847
▁профсоюз	-10.6847
▁назвать	-10.6847
▁временного	-10.6848
▁пятниц	-10.6849
▁физически	-10.685
▁бон	-10.685
▁основание	-10.685
▁мобильн	-10.6852
монгольск	-10.6853
▁музыкально	-10.6854
ki	-10.6855
▁боги	-10.6856
▁дипломатические	-10.6856
▁святой	-10.6858
▁be	-10.6859
географическ	-10.686
▁(8	-10.6862
устройств	-10.6864
ером	-10.6867
▁наибольш	-10.6869
▁возглавил	-10.6869
▁княжество	-10.6873
▁международном	-10.6873
▁бытов	-10.6877
если	-10.6879
▁корпуса	-10.6884
▁территориальны	-10.6889
▁биологическ	-10.6893
▁потерял	-10.6895
▁лауреат	-10.6896
▁меньшинств	-10.6896
▁соотношение	-10.6896
допустим	-10.6896
▁ниуэ	-10.6896
▁нобелевск	-10.6896
▁архимед	-10.6897
▁владения	-10.6897
▁молитв	-10.6897
▁установлены	-10.6897
носить	-10.6897
янтарн	-10.69
салют	-10.6906
▁офицер	-10.6906
▁ведомств	-10.6911
▁структуре	-10.6912
▁передал	-10.6913
▁максим	-10.6914
▁перу	-10.6915
▁среда	-10.6917
▁величине	-10.6917
▁переворот	-10.6918
▁русь	-10.6924
гли	-10.6924
джер	-10.6925
▁гром	-10.693
▁населённы	-10.6933
▁вопроса	-10.6936
ителем	-10.6936
месячн	-10.6941
▁секрет	-10.6946
▁абстрактн	-10.6946
▁присутствует	-10.6946
▁количеству	-10.6946
▁рынок	-10.6947
▁немецкие	-10.6947
▁частях	-10.6947
▁политического	-10.6947
▁бумаг	-10.6948
▁расцвет	-10.6948
ср	-10.6949
ченко	-10.6951
▁осозна	-10.6953
▁бутан	-10.6954
▁юга	-10.6956
▁логически	-10.6956
▁линейно	-10.6957
▁нормы	-10.696
▁визит	-10.6963
▁развивается	-10.6963
▁работали	-10.6964
ющееся	-10.6966
▁общих	-10.6972
▁видел	-10.6974
▁отметил	-10.6974
щиков	-10.6977
▁непрерывно	-10.6978
▁относил	-10.698
ённая	-10.6984
▁вещество	-10.6989
ируя	-10.699
▁рассмотрен	-10.6992
▁джеймс	-10.6996
▁небольших	-10.6996
▁частные	-10.6996
▁расширя	-10.6997
▁закрепи	-10.6997
▁подобных	-10.6997
▁заведения	-10.7
▁разработка	-10.7001
▁зап	-10.7001
▁гипер	-10.7002
▁ведут	-10.7004
▁объясняется	-10.7005
пост	-10.7006
▁оказывается	-10.7007
▁первыми	-10.7008
▁иордан	-10.701
▁меньшей	-10.701
▁регионах	-10.7011
▁маз	-10.7011
иж	-10.7016
▁полный	-10.7019
▁балтийского	-10.7025
пада	-10.7025
▁ветер	-10.7026
лина	-10.7027
▁церковны	-10.7027
“»	-10.7028
▁северных	-10.7031
▁описывает	-10.7031
▁религиозно	-10.7033
▁творческ	-10.7035
▁старт	-10.7039
▁решением	-10.704
▁гео	-10.704
▁поглощ	-10.7045
завод	-10.7046
▁мероприятия	-10.7047
▁прокофьев	-10.7047
▁оценке	-10.7047
▁растения	-10.7047
▁марии	-10.7049
▁изгнан	-10.705
▁специальных	-10.7051
▁ул	-10.7053
▁(7	-10.7059
▁уравнение	-10.7061
бия	-10.7064
▁пытал	-10.7064
▁пророк	-10.7069
▁ньютона	-10.7071
▁вулкан	-10.7073
▁услуги	-10.7079
▁будущем	-10.7081
▁плит	-10.7082
▁отрицательно	-10.7083
1,2	-10.7084
наб	-10.709
▁гражданин	-10.7092
▁алма	-10.7094
▁ассоциации	-10.7098
▁бельгии	-10.7098
▁исторического	-10.7098
▁вычисления	-10.7098
▁человеческой	-10.7098
▁пионер	-10.7098
▁социолог	-10.7098
▁выступления	-10.7099
▁смеси	-10.7099
▁120	-10.7099
▁отождествл	-10.7101
ёз	-10.7102
▁1927	-10.7103
▁мысль	-10.7105
▁человеч	-10.7106
дела	-10.7106
▁считалось	-10.7109
▁собственности	-10.7111
философ	-10.7118
даль	-10.7119
▁губ	-10.7119
овская	-10.7123
тинг	-10.7125
▁известна	-10.713
▁похож	-10.713
▁55	-10.713
▁малой	-10.7131
▁фильмов	-10.7131
▁центрально	-10.7132
▁действием	-10.7134
▁43	-10.7134
евым	-10.7138
▁компьютеров	-10.7138
▁предполагает	-10.7138
крит	-10.7138
▁матч	-10.714
▁религиозной	-10.7143
▁подраздел	-10.7144
чаты	-10.7145
▁брос	-10.7145
стол	-10.7145
▁вячеслав	-10.7149
▁позволял	-10.7149
▁бытия	-10.7149
▁констант	-10.7149
▁сквер	-10.7151
▁азот	-10.7152
▁бомб	-10.7155
▁построил	-10.7155
▁долю	-10.7156
▁максимум	-10.7157
▁автоматически	-10.7158
▁многочисленных	-10.7158
▁совокупность	-10.7159
▁открыта	-10.7163
▁теплов	-10.7163
▁предпринима	-10.7163
▁государ	-10.7165
▁исходя	-10.7167
ённого	-10.717
▁лисп	-10.7172
▁вопросу	-10.7174
▁расходы	-10.7174
финанс	-10.7175
▁правительству	-10.7175
▁археолог	-10.7176
тельных	-10.7178
хождение	-10.7184
ει	-10.7186
▁строение	-10.7188
▁метра	-10.719
▁бой	-10.7197
▁сообщил	-10.7199
▁молодёжи	-10.72
▁батальон	-10.72
▁пользователей	-10.7201
▁описал	-10.7201
▁альберт	-10.7201
▁объединен	-10.7201
▁человеку	-10.7202
▁уникальны	-10.7202
был	-10.7203
▁1931	-10.7203
▁1916	-10.7204
▁ремонт	-10.7204
▁состоялась	-10.7204
▁машина	-10.7205
▁обязанности	-10.7205
▁уверен	-10.7206
▁отказа	-10.7206
▁истины	-10.7207
▁1923	-10.7209
▁включён	-10.7211
be	-10.7214
дли	-10.7215
плот	-10.7218
▁расширения	-10.7218
▁генеральны	-10.7219
▁называл	-10.7222
▁продукты	-10.7223
водород	-10.7224
чуж	-10.7226
▁дыры	-10.7227
▁and	-10.7228
▁доступны	-10.7232
▁свободу	-10.7233
▁политическим	-10.7236
▁заложен	-10.7242
чек	-10.7246
олит	-10.7247
чиков	-10.7249
▁аэродром	-10.7252
▁демократ	-10.7252
▁лучших	-10.7252
▁таиланд	-10.7252
▁освобождения	-10.7252
▁размеща	-10.7252
▁американских	-10.7252
▁архитектур	-10.7253
▁топлива	-10.7254
▁корпораци	-10.7256
два	-10.7256
▁соответствующих	-10.7256
▁химик	-10.7257
▁уральск	-10.7258
▁десять	-10.7258
▁располагаются	-10.7258
▁корабле	-10.7258
▁постоянной	-10.7259
строение	-10.7262
▁швейцарии	-10.7264
▁перестал	-10.7265
▁пунктов	-10.7265
▁восстановление	-10.7267
▁соло	-10.7269
▁могло	-10.7273
▁счита	-10.7277
▁интенсивно	-10.7284
▁получило	-10.7286
▁называемых	-10.7286
транс	-10.7288
роз	-10.729
▁обширн	-10.7291
вич	-10.7291
▁статуса	-10.7291
▁называть	-10.7292
бли	-10.7292
▁(12	-10.7296
▁windows	-10.7303
▁гравитационно	-10.7303
▁дефицит	-10.7303
▁сатурна	-10.7303
▁серебра	-10.7303
▁судебны	-10.7303
▁волгоград	-10.7304
▁дочери	-10.7304
▁рельс	-10.7305
изму	-10.7305
арт	-10.7305
▁обнаружены	-10.7308
▁являлась	-10.7309
▁десятков	-10.7309
▁граждане	-10.7311
▁бюджета	-10.7311
▁крупнейш	-10.7315
▁доллар	-10.7315
▁отставку	-10.732
▁заключения	-10.732
▁временных	-10.7326
▁указывал	-10.7327
▁форт	-10.7328
▁ключев	-10.7329
▁танков	-10.733
▁верхне	-10.7331
▁казани	-10.7331
▁прост	-10.7333
▁образовательн	-10.7334
▁гармони	-10.7335
▁укреплен	-10.7343
енную	-10.7343
▁кофе	-10.7343
▁корне	-10.7345
▁этими	-10.7347
данная	-10.7348
дону	-10.735
▁приписыва	-10.7352
▁вещи	-10.7352
▁ближайши	-10.7355
▁глубоки	-10.7355
▁землёй	-10.7355
▁политбюро	-10.7355
▁расстоянии	-10.7355
▁самоуправления	-10.7355
▁хранения	-10.7355
▁электроэнергии	-10.7355
▁понятий	-10.7356
▁приняла	-10.7356
глаша	-10.7358
▁оказалось	-10.7359
▁1912	-10.7361
▁высшим	-10.7366
▁неизвестно	-10.7367
▁штатов	-10.7368
▁ведётся	-10.7374
тс	-10.7377
▁ост	-10.7378
▁рот	-10.7381
▁исторические	-10.7396
фицирован	-10.7398
бывших	-10.74
▁скот	-10.7401
дали	-10.7402
hi	-10.7404
▁родов	-10.7405
▁публикации	-10.7408
▁упомянут	-10.7408
▁компанией	-10.7408
▁шеллинг	-10.7408
▁приходилось	-10.7409
▁прямой	-10.7413
▁плутарх	-10.7414
▁снима	-10.7418
евые	-10.742
▁собак	-10.7421
▁представителями	-10.7422
▁определённой	-10.7422
вшему	-10.7422
анской	-10.7423
▁советское	-10.7424
▁жили	-10.7424
▁объясн	-10.7426
лива	-10.7426
▁охват	-10.743
▁ломоносова	-10.7431
▁видео	-10.7431
▁сент	-10.7434
cr	-10.7443
рп	-10.7446
▁содержится	-10.7447
▁сумел	-10.7448
▁александрович	-10.7449
▁инициатив	-10.745
зелен	-10.7452
▁враща	-10.7455
▁sa	-10.7457
масс	-10.7458
▁эксплуатацию	-10.746
▁грамматик	-10.746
▁человечества	-10.746
▁угля	-10.7461
▁здоровья	-10.7461
▁торговых	-10.7462
▁связывает	-10.7462
▁горных	-10.7462
евского	-10.7465
▁поставил	-10.7466
▁склад	-10.7466
▁пьер	-10.7473
▁министерство	-10.7475
▁бесед	-10.7476
▁перевозки	-10.7477
звон	-10.7477
▁сильным	-10.7477
▁вырос	-10.748
авто	-10.7482
▁возможны	-10.7482
▁поиска	-10.7487
▁санкци	-10.7488
▁44	-10.7494
▁усилен	-10.7495
▁известным	-10.7497
▁полей	-10.7497
́й	-10.7499
кош	-10.75
▁размещен	-10.7501
▁(9	-10.7501
▁матриц	-10.7504
▁официальный	-10.7505
▁закономерно	-10.7505
▁1913	-10.7506
▁плутарха	-10.7507
▁microsoft	-10.7513
▁эволюции	-10.7513
▁поддержал	-10.7513
▁федеральный	-10.7513
▁надёжн	-10.7513
im	-10.7514
▁мурманск	-10.7514
▁живописи	-10.7514
▁разрыв	-10.7516
▁заключил	-10.7517
▁половина	-10.7517
—16	-10.7519
ография	-10.752
▁определён	-10.7524
▁настроен	-10.7529
▁полковник	-10.7529
вшими	-10.7533
изацией	-10.7535
▁делам	-10.7537
▁разделение	-10.7542
▁алфавита	-10.7542
▁зла	-10.7545
▁озёра	-10.7547
защищ	-10.7548
▁австралийск	-10.7552
▁li	-10.7555
карт	-10.7556
инга	-10.7557
▁каким	-10.7558
sta	-10.7559
льные	-10.7561
нибудь	-10.7567
▁возрождения	-10.7567
▁отсутствуют	-10.7567
▁поверхностн	-10.7567
▁федеративн	-10.7567
▁специфическ	-10.7567
▁тяжёло	-10.7567
▁участок	-10.7567
▁иосиф	-10.7567
▁большом	-10.7567
▁комиссия	-10.7567
▁табак	-10.7567
▁атолл	-10.7568
▁мелких	-10.7568
шни	-10.7569
▁работников	-10.7572
▁привести	-10.7573
="16	-10.7574
▁учился	-10.7575
▁оценка	-10.7576
▁международным	-10.7576
▁контролиру	-10.7577
вещания	-10.7578
▁круга	-10.7578
▁целый	-10.7584
▁металла	-10.7586
▁закону	-10.7597
▁обозначение	-10.7607
▁принятие	-10.7608
▁офицеров	-10.7609
▁ввс	-10.7612
4,5	-10.7614
ant	-10.7615
▁абсолютны	-10.7615
▁переводе	-10.7619
▁здравоохранения	-10.762
▁последствия	-10.762
▁разнообразие	-10.762
▁кикимор	-10.762
▁аналитическ	-10.762
▁шельф	-10.762
▁железная	-10.762
▁привела	-10.7621
▁индийски	-10.7624
▁сохранилось	-10.7626
▁отдельным	-10.7629
▁аппарата	-10.7629
▁фундаментальн	-10.7633
▁наших	-10.7633
▁студент	-10.7634
▁интервал	-10.7634
▁художеств	-10.7634
▁термо	-10.7637
and	-10.7637
▁хай	-10.7638
▁археологически	-10.7646
▁700	-10.7649
▁документов	-10.7653
▁показали	-10.7653
русский	-10.7654
ностями	-10.7661
▁тысячелетия	-10.7661
▁третьей	-10.7662
▁газо	-10.7665
▁психо	-10.7667
кров	-10.7668
очки	-10.767
▁39	-10.767
▁заседании	-10.7674
▁обеспечить	-10.7674
▁украшен	-10.7674
▁привержен	-10.7674
▁перешла	-10.7674
▁откуда	-10.7674
ционных	-10.7674
▁икон	-10.7675
▁научный	-10.7675
▁журнале	-10.7676
▁природа	-10.7676
▁горяч	-10.7677
▁ближе	-10.7678
▁битве	-10.7678
▁бассейна	-10.7681
▁выпадает	-10.7681
▁небо	-10.7681
ine	-10.7683
▁азербайджана	-10.7686
▁входили	-10.7688
▁художников	-10.7688
▁художественно	-10.7689
▁единой	-10.7691
ориент	-10.7692
▁благ	-10.7692
▁промышленного	-10.7692
we	-10.7694
зан	-10.7698
вшую	-10.7706
▁количестве	-10.7707
▁ориентирован	-10.7707
▁андрей	-10.7708
▁архипелаг	-10.771
▁упомина	-10.771
▁интеграл	-10.7716
▁утра	-10.7716
▁март	-10.7716
▁называет	-10.7718
▁николаев	-10.772
нную	-10.7721
▁опыта	-10.7724
▁анне	-10.7724
▁утверждение	-10.7725
уро	-10.7725
▁поисков	-10.7726
▁автомобилей	-10.7728
▁мюнхен	-10.7728
▁телескоп	-10.7728
▁реализу	-10.7728
▁национальные	-10.7728
▁догмат	-10.7728
▁берн	-10.773
▁маори	-10.773
▁1952	-10.773
▁туризма	-10.7733
экономич	-10.7735
▁выдел	-10.7735
▁основное	-10.7738
▁инициативе	-10.7739
▁предметом	-10.7741
▁немного	-10.7742
▁производится	-10.7742
_7	-10.7742
▁материи	-10.7742
влечения	-10.7743
▁уголь	-10.7749
▁лап	-10.7752
▁кафедр	-10.7752
▁победил	-10.7757
▁присущ	-10.776
"»,	-10.7765
▁деятель	-10.7776
▁σ	-10.7777
▁псевдо	-10.778
▁отсутствия	-10.7782
▁теорий	-10.7782
▁небольшим	-10.7782
▁химические	-10.7783
▁исполнение	-10.7783
▁препарат	-10.7783
▁протестантск	-10.7783
▁боро	-10.7785
▁михайлович	-10.7787
▁неизвестны	-10.7787
▁лесов	-10.7787
▁1911	-10.7788
клады	-10.7788
gi	-10.7789
▁официальное	-10.7791
баш	-10.7799
вз	-10.78
гали	-10.78
жест	-10.7803
▁основыва	-10.7803
▁духа	-10.7808
▁лок	-10.7809
уст	-10.781
chem	-10.7813
▁аэропорта	-10.7814
▁отчасти	-10.7816
ьным	-10.7817
▁равнины	-10.7818
▁сообщество	-10.782
очка	-10.7822
▁пад	-10.7828
amp	-10.7829
▁живых	-10.783
фан	-10.783
▁рейтинг	-10.7831
▁бром	-10.7831
▁иоанна	-10.7835
▁бюро	-10.7836
▁колебания	-10.7837
▁сопротивление	-10.7837
▁заведений	-10.7837
▁gnu	-10.7837
▁обеспечен	-10.7837
▁удалён	-10.7838
▁привёл	-10.7838
▁заявлен	-10.7839
▁возможным	-10.7839
▁плотности	-10.7843
▁проводились	-10.7843
▁рейтинге	-10.7844
▁студи	-10.7844
▁мозг	-10.7844
▁бай	-10.7849
▁лат	-10.7851
▁девят	-10.7852
▁утверждения	-10.7853
▁протон	-10.7857
чика	-10.786
▁границей	-10.7863
ja	-10.7868
ведена	-10.7871
именова	-10.7873
▁село	-10.7874
дик	-10.7875
дерев	-10.7877
▁коренны	-10.788
▁материальны	-10.7881
tv	-10.7881
▁изобретени	-10.7883
ировании	-10.7889
▁еже	-10.789
▁распад	-10.7891
родственник	-10.7892
▁слобод	-10.7892
▁позицию	-10.7892
▁топоним	-10.7892
▁гамбург	-10.7892
▁медленно	-10.7893
▁иоганн	-10.7893
метил	-10.7893
▁организацию	-10.7893
▁легион	-10.7894
▁принципиально	-10.7895
▁маль	-10.7895
▁пересека	-10.7897
▁завершил	-10.7897
▁тираж	-10.7897
▁пояса	-10.7899
▁приведен	-10.7901
▁наибольшее	-10.7901
русски	-10.7902
▁влиятельн	-10.7903
▁слог	-10.7908
▁следствие	-10.791
▁вест	-10.7912
▁(14	-10.7912
ализма	-10.7914
▁выступ	-10.7914
▁жить	-10.7915
▁сокращение	-10.7917
▁государствами	-10.792
▁философских	-10.792
знание	-10.7925
когда	-10.7926
▁держа	-10.7927
ms	-10.7932
▁факторов	-10.7933
ографии	-10.7936
▁балет	-10.7936
▁учрежден	-10.7936
▁колумб	-10.7937
▁культурных	-10.7938
▁лидеров	-10.7944
▁борьбу	-10.7947
▁компилятор	-10.7947
▁бэкон	-10.7947
▁магазин	-10.7947
▁наименьш	-10.7947
▁армией	-10.7947
восточный	-10.7948
ящей	-10.7949
▁сторонники	-10.795
▁1954	-10.7951
▁согласован	-10.7952
▁проник	-10.7955
▁2,5	-10.7959
▁интеллекта	-10.7962
истом	-10.7964
▁доходов	-10.7965
штейн	-10.7966
▁видом	-10.7966
▁сменил	-10.797
▁me	-10.7974
="18	-10.7974
▁конечном	-10.7975
круп	-10.7975
▁классы	-10.798
▁полагал	-10.798
▁лав	-10.7981
падают	-10.7982
▁кратко	-10.7984
▁либерал	-10.7984
более	-10.7991
▁романов	-10.8
▁какие	-10.8001
▁возникновение	-10.8002
▁андропов	-10.8003
▁переговоры	-10.8003
▁церквей	-10.8003
▁последняя	-10.8003
▁строительстве	-10.8003
▁тихого	-10.8003
▁бронзов	-10.8004
▁научная	-10.8005
▁(13	-10.8009
удовлетвор	-10.8012
социал	-10.8013
▁независимых	-10.8014
▁труды	-10.8017
▁сыр	-10.8017
▁mo	-10.8017
▁русское	-10.8019
математическ	-10.8019
▁49	-10.8019
▁овощ	-10.8021
sch	-10.8022
▁футболу	-10.8023
друг	-10.8025
▁пусть	-10.8026
реп	-10.8028
▁бук	-10.8034
иса	-10.8037
тического	-10.8038
альными	-10.8039
▁определённым	-10.8039
ng	-10.804
▁su	-10.8041
▁канала	-10.8042
▁эксперимента	-10.8042
арка	-10.8048
▁подпис	-10.8048
ig	-10.8048
▁юридически	-10.8051
▁отражение	-10.8055
▁мг	-10.8056
таки	-10.8058
▁губерния	-10.8058
▁произошли	-10.8058
▁музыку	-10.8058
▁рынке	-10.8058
▁дальше	-10.8059
▁сложных	-10.8059
▁сохранение	-10.8059
▁дают	-10.806
▁советник	-10.8061
▁фиджи	-10.8062
▁1932	-10.8062
▁церковно	-10.8063
движение	-10.8064
▁билет	-10.8066
апостол	-10.8066
▁фотографии	-10.8067
▁фри	-10.8069
▁проектов	-10.8071
бас	-10.8071
/2	-10.8073
▁обширны	-10.808
▁предел	-10.8081
▁известной	-10.8084
▁формой	-10.8086
обл	-10.8087
▁хвост	-10.809
летней	-10.8091
▁фундаментальны	-10.8092
язык	-10.8094
▁растительность	-10.8097
▁филипп	-10.8097
▁отсюда	-10.8098
цвет	-10.8099
стон	-10.8102
▁оккупирован	-10.811
▁назнача	-10.8111
▁плот	-10.8111
▁фестиваль	-10.8113
прежнему	-10.8115
▁естественных	-10.8115
▁сложения	-10.8115
▁штурм	-10.8116
▁следующее	-10.8116
▁сутки	-10.8116
▁симметрии	-10.8116
▁делать	-10.8117
▁конфликта	-10.8117
▁ворота	-10.8119
▁центральных	-10.8119
▁индия	-10.8121
="10	-10.8121
пек	-10.8121
эв	-10.8122
▁геометрии	-10.8124
▁нервн	-10.8127
зеркал	-10.813
▁прошло	-10.8131
▁морские	-10.8133
one	-10.8136
зима	-10.8138
▁ритм	-10.814
▁юли	-10.814
▁ката	-10.8141
▁кип	-10.8141
ковых	-10.8142
▁римского	-10.8144
▁экономические	-10.8145
▁автором	-10.8147
▁геометр	-10.8157
▁христианской	-10.8161
честве	-10.8162
▁белого	-10.8166
▁вар	-10.8167
▁приобрет	-10.8167
▁геологическ	-10.8167
▁коллеги	-10.8167
▁любо	-10.8169
пустить	-10.8169
▁падения	-10.8169
▁рай	-10.8171
▁мужчины	-10.8171
▁кирибати	-10.8171
▁молдавии	-10.8171
▁продукция	-10.8171
▁суверенитет	-10.8171
▁гарнизон	-10.8171
▁повлиял	-10.8171
▁железные	-10.8171
▁указывают	-10.8172
▁торговле	-10.8173
значения	-10.8175
▁to	-10.8175
▁замок	-10.8175
▁решению	-10.8175
нскую	-10.8178
▁полиции	-10.8178
▁принц	-10.8178
▁учёного	-10.8179
▁64	-10.818
▁китайской	-10.8181
двор	-10.8182
лением	-10.8184
чувствительн	-10.8189
▁пластин	-10.8191
▁марка	-10.8195
опыт	-10.8197
ывать	-10.8198
▁производству	-10.8204
▁тока	-10.8205
▁конструктор	-10.8206
▁любых	-10.8211
орт	-10.8212
▁проф	-10.8213
держать	-10.8215
тельного	-10.8218
ry	-10.822
▁царств	-10.8224
▁мус	-10.8225
▁критике	-10.8226
специалист	-10.8226
бот	-10.8228
▁египта	-10.8228
▁скончался	-10.8228
▁напряжённ	-10.8228
▁денежны	-10.8228
▁наименование	-10.8228
▁перешли	-10.8228
▁молекулы	-10.8228
▁тезис	-10.8228
▁активность	-10.8228
▁дракон	-10.8229
▁торговые	-10.823
метров	-10.8231
▁старший	-10.8232
бытие	-10.8237
▁главное	-10.8241
▁третьего	-10.8244
▁члена	-10.8246
▁бель	-10.8246
енбург	-10.8246
▁продолжение	-10.8248
▁пирамиды	-10.8248
▁калининградско	-10.8248
▁повышение	-10.825
▁литературного	-10.8253
▁имён	-10.8254
▁морского	-10.8255
▁нижней	-10.8256
▁любим	-10.8256
▁поздней	-10.8257
▁киеве	-10.826
▁остр	-10.8261
эстетическ	-10.8261
▁маха	-10.8262
стрел	-10.8262
▁смертн	-10.8263
западной	-10.8268
▁наград	-10.8272
▁брата	-10.8272
▁проводить	-10.8273
▁пространств	-10.8276
▁испания	-10.8277
▁созыва	-10.8278
▁заверши	-10.828
▁41	-10.8281
▁гус	-10.8283
▁захвачен	-10.8285
▁зиновьев	-10.8285
▁нидерландов	-10.8285
▁российские	-10.8285
▁восточных	-10.8285
▁карибск	-10.8285
▁компакт	-10.8286
▁обладал	-10.8286
▁поднял	-10.8287
▁украина	-10.8289
▁производил	-10.829
▁важнейших	-10.8291
▁немецким	-10.8292
▁особенностей	-10.8292
▁образа	-10.8297
▁состоящи	-10.8298
▁цицерона	-10.8301
▁остались	-10.8303
ze	-10.8303
sk	-10.8305
ts	-10.8308
▁доступа	-10.8309
шан	-10.8313
▁условиям	-10.8314
▁фёдоров	-10.8315
▁сотни	-10.8315
▁пласт	-10.8322
▁базы	-10.8326
▁создаёт	-10.8327
tor	-10.8332
▁символы	-10.8333
▁причины	-10.8337
▁нужда	-10.8338
сев	-10.8342
инди	-10.8342
▁возврат	-10.8342
▁предприятие	-10.8343
▁произошла	-10.8343
▁бригад	-10.8343
▁совсем	-10.8343
▁мульти	-10.8343
▁тал	-10.8343
▁американской	-10.8344
▁историко	-10.8344
3)	-10.8344
▁европу	-10.8346
▁возникают	-10.8347
скоростн	-10.8349
▁выделяется	-10.835
▁признавал	-10.8366
ляет	-10.8368
▁историки	-10.8369
гол	-10.8372
▁отражен	-10.8374
немецко	-10.8374
▁массу	-10.8375
▁прочие	-10.8375
▁самыми	-10.8376
известн	-10.8378
▁осуществлял	-10.8378
железн	-10.8381
▁познан	-10.8384
▁белорусски	-10.8392
▁показывает	-10.8393
▁надо	-10.8393
="11	-10.8396
▁мощность	-10.8396
▁императором	-10.8396
▁люксембург	-10.84
▁поворот	-10.84
▁химической	-10.8401
▁отряда	-10.8402
▁сущности	-10.8402
▁деятельностью	-10.8403
▁участием	-10.8404
▁сооружений	-10.8406
▁возникло	-10.8411
▁установлена	-10.8412
-4	-10.8414
▁художника	-10.8418
▁полном	-10.8419
ot	-10.8422
iii	-10.8425
нув	-10.8428
▁домен	-10.8428
▁база	-10.8431
ap	-10.8432
▁задерж	-10.8435
следовать	-10.8436
▁заняты	-10.8449
▁назначение	-10.8449
▁широки	-10.845
код	-10.8455
▁культурного	-10.8458
металлург	-10.8458
▁антисфен	-10.8458
▁восприятие	-10.8458
▁заболевания	-10.8458
▁закреплен	-10.8458
▁происходят	-10.8458
▁сибирь	-10.8458
▁однозначно	-10.8459
▁денежно	-10.8459
▁буддийск	-10.8459
▁новокузнецк	-10.8459
▁отправил	-10.8461
▁великим	-10.8461
сал	-10.8462
▁использовалась	-10.8463
▁западного	-10.8463
ложить	-10.8465
▁вариантов	-10.8466
▁индивид	-10.847
▁углов	-10.8472
▁установлено	-10.8474
▁записыва	-10.8477
▁праздн	-10.8481
ката	-10.8482
▁иисус	-10.8483
▁наблюдал	-10.8485
▁очередн	-10.8487
▁метан	-10.8488
▁риск	-10.8489
▁грех	-10.8491
▁материалы	-10.8491
мас	-10.8496
▁столько	-10.8497
▁85	-10.8497
▁музее	-10.8498
▁стоял	-10.8498
mon	-10.8498
▁pa	-10.8499
▁кислота	-10.85
▁лиги	-10.8501
линейны	-10.8502
▁атмосфере	-10.8514
▁дмитрий	-10.8517
▁интервью	-10.8517
▁одержал	-10.8517
▁восемь	-10.8517
▁служат	-10.8517
▁смоленск	-10.8517
▁фотоаппарат	-10.8517
▁железа	-10.8518
▁промышленно	-10.8518
▁другую	-10.8518
энд	-10.8519
▁водоём	-10.852
▁рейн	-10.852
править	-10.8521
▁влажны	-10.8521
▁1907	-10.8521
▁одобрен	-10.8522
▁азов	-10.8523
▁воевод	-10.8526
▁делал	-10.8526
▁образца	-10.8528
▁остро	-10.8531
▁чему	-10.8535
▁индивидуально	-10.8537
▁выведен	-10.8539
▁изложен	-10.8539
▁слой	-10.854
▁столыпин	-10.8542
чувств	-10.8543
«	-10.8543
▁минерал	-10.8543
▁владел	-10.8543
▁украинск	-10.8544
tion	-10.8549
▁круж	-10.8551
▁лос	-10.8552
▁символом	-10.8559
▁образовании	-10.856
▁построения	-10.857
▁стимул	-10.8572
программ	-10.8574
тождеств	-10.8575
▁хонеккер	-10.8576
▁ведущих	-10.8576
▁природные	-10.8576
▁обвиня	-10.8577
▁смесь	-10.8579
▁комбинат	-10.8579
▁татарстан	-10.8579
▁1951	-10.858
▁пальм	-10.858
▁городская	-10.8582
▁шан	-10.8583
лар	-10.8583
▁свердловск	-10.8585
▁населённых	-10.8587
▁управлением	-10.8587
▁упоминание	-10.8589
▁установить	-10.859
▁важных	-10.8591
▁точек	-10.8592
▁мифа	-10.8593
▁мощны	-10.8593
▁фонем	-10.8594
▁учебно	-10.8597
дис	-10.8597
▁украинской	-10.8605
охо	-10.8607
▁негативн	-10.8612
▁учеников	-10.8615
кут	-10.8616
▁словом	-10.8617
▁антон	-10.8618
▁австри	-10.8619
▁подавляюще	-10.862
▁критик	-10.8622
▁наше	-10.8629
▁отделение	-10.863
▁сторона	-10.8631
освобожден	-10.8634
▁англичан	-10.8635
▁ребёнка	-10.8635
▁сотрудничества	-10.8635
▁столкновения	-10.8635
▁провинций	-10.8635
▁музыкальных	-10.8635
;...&	-10.8635
▁версий	-10.8635
▁достоевского	-10.8635
▁форум	-10.8636
▁возможных	-10.8637
▁венеры	-10.8638
▁охраны	-10.8638
эксперт	-10.8638
▁пределы	-10.8639
ошло	-10.864
▁дороге	-10.8641
▁николаевич	-10.8642
▁касается	-10.8643
видимому	-10.8643
▁нарушения	-10.8645
▁мавр	-10.8645
▁семейства	-10.8646
▁остался	-10.8648
▁виду	-10.8648
▁социалистическо	-10.865
▁уменьшен	-10.8652
▁северу	-10.8653
▁десятки	-10.8655
▁дер	-10.8658
▁отчёт	-10.8659
▁ведь	-10.866
▁этаж	-10.8663
▁спутника	-10.8665
▁полка	-10.8671
▁дополнительные	-10.8673
бах	-10.8675
ставлял	-10.868
▁поддержан	-10.8682
▁алексеев	-10.8687
мона	-10.8689
du	-10.869
хай	-10.869
ышла	-10.8691
▁нейро	-10.8691
▁термодинамическ	-10.8694
▁микроскоп	-10.8694
▁подготовке	-10.8694
▁подготовлен	-10.8694
▁областного	-10.8695
▁заслуг	-10.8695
▁служба	-10.8695
▁великих	-10.8696
▁пляж	-10.8696
▁общественный	-10.8696
▁евросоюз	-10.8697
▁рыба	-10.8698
▁существовала	-10.8701
▁наличии	-10.8702
▁всемирно	-10.8702
▁часты	-10.8704
музыкант	-10.8709
лак	-10.8711
▁производит	-10.8712
▁свое	-10.8713
200	-10.8713
▁снижение	-10.8714
▁вернул	-10.8716
▁западная	-10.8719
▁перми	-10.872
▁независим	-10.8721
▁различным	-10.8722
гас	-10.8722
▁1880	-10.8724
▁ливан	-10.8728
бек	-10.8728
инская	-10.873
▁дипломатическ	-10.873
▁самим	-10.8732
▁наибольши	-10.8734
▁села	-10.8738
▁воспроизв	-10.8739
▁предметы	-10.8741
▁новороссийск	-10.8745
▁принципов	-10.8747
ланг	-10.8748
▁публично	-10.8753
▁обмена	-10.8754
устойчив	-10.8754
▁корабль	-10.8754
▁хайдеггер	-10.8754
▁запреща	-10.8755
▁кодекс	-10.8755
▁гостиниц	-10.8755
▁стоимости	-10.8756
▁мясо	-10.8756
▁мандат	-10.8757
▁награды	-10.8758
▁красный	-10.876
▁центральная	-10.876
▁взглядов	-10.8761
▁таллин	-10.8762
▁собственного	-10.8763
iv	-10.8763
▁братья	-10.8765
ty	-10.8767
▁законодательно	-10.8769
▁измерен	-10.877
▁глубина	-10.8772
▁огромное	-10.8773
нными	-10.8775
▁животные	-10.8775
▁медаль	-10.8777
▁убийства	-10.8778
▁маршрутов	-10.8778
▁ледников	-10.8779
счита	-10.8787
▁мали	-10.879
ировались	-10.8801
▁эконом	-10.8802
▁восточном	-10.8802
▁предоставлен	-10.8804
▁различают	-10.8805
1,4	-10.8805
▁he	-10.8806
▁участники	-10.8808
το	-10.8809
▁венгрии	-10.8809
▁узко	-10.881
живопис	-10.8812
особенно	-10.8812
▁вич	-10.8814
▁алюминия	-10.8815
▁оказывают	-10.8815
▁очевидно	-10.8815
▁соревнования	-10.8815
▁православных	-10.8815
▁орбиты	-10.8815
▁моделей	-10.8815
▁прямым	-10.8815
▁современное	-10.8815
▁изделий	-10.8815
▁связывают	-10.8815
▁наблюдений	-10.8817
▁происходящ	-10.8818
▁среднегодов	-10.8819
▁программировани	-10.8819
▁фильме	-10.8826
▁историка	-10.8828
▁военную	-10.8828
▁другу	-10.8829
▁вероятности	-10.8829
▁режиме	-10.8831
▁собрал	-10.8835
▁съёмк	-10.8836
ированной	-10.8839
ческих	-10.884
нья	-10.8845
тельная	-10.8852
▁оборудования	-10.8853
глу	-10.8853
спорт	-10.8854
▁многими	-10.8855
▁номера	-10.8855
троф	-10.886
луб	-10.8868
0,3	-10.8869
▁падение	-10.8869
▁фабрика	-10.8873
▁развил	-10.8875
▁рождаемости	-10.8875
▁состояний	-10.8875
▁музеи	-10.8875
▁южных	-10.8875
▁вычислений	-10.8875
▁введены	-10.8876
▁неделю	-10.8876
▁филолог	-10.8876
▁лифт	-10.8878
▁письменности	-10.8878
▁влажно	-10.8879
кино	-10.888
▁изучал	-10.8881
▁1915	-10.8881
▁электровоз	-10.8881
▁параллел	-10.8881
нное	-10.8883
▁вузов	-10.8885
▁положил	-10.8886
парти	-10.8894
▁сроком	-10.8897
одство	-10.8899
восход	-10.8899
▁территориально	-10.89
▁польского	-10.8904
▁гагарин	-10.8907
тические	-10.8909
="15	-10.891
ификации	-10.8914
▁передач	-10.8919
1)	-10.892
▁объектом	-10.8921
▁учебн	-10.8922
́ль	-10.8924
▁ставит	-10.8931
▁международн	-10.8933
—12	-10.8934
▁каждое	-10.8936
▁концентрации	-10.8936
▁немедленно	-10.8936
▁религий	-10.8936
▁здании	-10.8936
▁добычи	-10.8936
▁поправк	-10.8936
▁поражения	-10.8936
▁примитивн	-10.8936
▁преемник	-10.8937
▁выбран	-10.8938
▁континента	-10.8938
нефтян	-10.8939
▁аниме	-10.894
бласт	-10.8943
▁заняли	-10.8943
▁юридическ	-10.8945
▁ростом	-10.8949
▁разума	-10.895
▁остаются	-10.8953
▁корня	-10.8955
▁выводу	-10.8959
▁значительны	-10.896
▁занято	-10.8963
▁элементарных	-10.8965
▁подводн	-10.8965
▁случайно	-10.8969
▁издал	-10.8971
▁твёрдо	-10.8976
▁активности	-10.8977
▁цеп	-10.8988
ea	-10.899
▁параметров	-10.8993
▁построено	-10.8994
▁разными	-10.8997
▁екатерины	-10.8998
▁настоящего	-10.8998
▁организовал	-10.8998
▁особый	-10.8998
radio	-10.8998
▁тувалу	-10.8998
▁растёт	-10.8998
▁лагеря	-10.8998
▁иудаизм	-10.8998
▁капитан	-10.8998
тягива	-10.8998
▁излучение	-10.8998
▁контракт	-10.8998
▁банкнот	-10.8998
▁кольцо	-10.8999
▁любовь	-10.9001
▁плоскости	-10.9002
1,8	-10.9003
▁направил	-10.9003
множ	-10.9004
радио	-10.901
▁поездов	-10.9017
▁кедр	-10.9019
▁современник	-10.9019
▁применяются	-10.9021
▁0,1	-10.9022
▁общественной	-10.9026
▁внешнего	-10.903
▁культуру	-10.9031
▁рабов	-10.9035
▁участвовали	-10.9036
▁драм	-10.9037
1,6	-10.9039
шими	-10.904
▁пары	-10.904
▁советом	-10.9041
технического	-10.9043
land	-10.9046
▁любы	-10.9048
▁раскол	-10.905
▁видим	-10.9055
▁гумилёв	-10.9059
▁ссылки	-10.9059
▁традиций	-10.9059
▁консервативн	-10.9059
▁эдуард	-10.9059
▁эпизод	-10.9059
▁защиту	-10.9059
▁исполнения	-10.906
▁столицу	-10.906
fr	-10.906
▁являясь	-10.9062
▁существовать	-10.9063
▁вторжения	-10.9065
кина	-10.9068
▁павла	-10.907
ai	-10.907
▁точку	-10.9072
▁канта	-10.9074
енном	-10.9074
▁монастыре	-10.9078
либер	-10.9079
алл	-10.9081
▁пищев	-10.9082
▁суть	-10.9083
очист	-10.9084
▁плоско	-10.9086
▁массовые	-10.9087
▁качество	-10.9089
▁личность	-10.9089
следственн	-10.9089
▁бесплатн	-10.9089
▁гражданских	-10.909
▁сектора	-10.9094
▁сезона	-10.9096
▁заняла	-10.9097
́с	-10.9098
▁решающ	-10.91
▁предмета	-10.9108
▁52	-10.9108
▁философию	-10.9108
▁играют	-10.911
▁практик	-10.9112
казывать	-10.9113
▁появлением	-10.9114
▁новому	-10.9117
▁механически	-10.9118
▁храни	-10.9119
▁локомотив	-10.9121
▁религией	-10.9121
▁гибели	-10.9121
▁воздушных	-10.9122
▁ницше	-10.9122
▁четверти	-10.9122
▁принимают	-10.9124
▁немало	-10.9124
▁дворцов	-10.9124
▁технически	-10.9125
▁корея	-10.9126
▁единства	-10.9126
▁калия	-10.9127
временно	-10.9127
▁планируется	-10.9127
▁воздухе	-10.9128
▁кошка	-10.9129
▁объяснить	-10.9131
▁разделена	-10.9131
▁1910	-10.9132
спеш	-10.9132
меди	-10.9133
▁органа	-10.9133
▁имело	-10.9134
▁колёс	-10.9134
бус	-10.9135
▁доста	-10.9137
панк	-10.9138
▁советско	-10.9138
▁проекты	-10.9139
_8	-10.9139
▁ибо	-10.9142
▁главная	-10.9142
▁достигла	-10.9143
кроме	-10.9151
сиб	-10.9153
tur	-10.9157
▁транспортных	-10.9158
▁преимуществ	-10.9162
▁восточная	-10.9162
благо	-10.9163
▁исполнительны	-10.9164
ard	-10.9165
▁стандарта	-10.9171
▁перси	-10.9172
▁христиане	-10.9172
автоном	-10.9175
тельные	-10.9176
лест	-10.9179
волок	-10.9182
▁инвестиций	-10.9184
▁калибровочн	-10.9184
▁обычных	-10.9184
▁суффикс	-10.9184
▁предпочита	-10.9184
▁разработке	-10.9184
▁лент	-10.9184
▁деревни	-10.9184
▁минимально	-10.9184
▁сложные	-10.9185
▁признаёт	-10.9185
▁социальная	-10.9185
▁учителя	-10.9185
▁покрыва	-10.9186
▁битвы	-10.9188
ётся	-10.9189
▁делают	-10.9194
▁ответственность	-10.9195
▁коров	-10.9198
щего	-10.9207
ритор	-10.9208
ационные	-10.9212
bu	-10.9216
▁for	-10.9219
▁исправ	-10.922
▁размеров	-10.9223
▁шум	-10.9227
▁выполнять	-10.9228
▁оптически	-10.9234
▁менделеева	-10.9236
дур	-10.9242
сообществ	-10.9242
▁подчинен	-10.9244
▁подтвердил	-10.9247
▁индонезии	-10.9247
▁ландшафт	-10.9247
▁оккупации	-10.9247
▁подтверждени	-10.9247
▁рабочие	-10.9247
▁показателя	-10.9247
▁стадии	-10.9247
▁двигатель	-10.9248
▁предположение	-10.9248
▁рассматривает	-10.9248
▁железо	-10.9249
одных	-10.9249
▁компонентов	-10.925
▁схема	-10.925
информ	-10.925
времени	-10.9253
▁богу	-10.9254
миров	-10.9254
ion	-10.9255
▁строения	-10.9258
▁демократии	-10.9259
▁адам	-10.926
▁меха	-10.9265
▁достоверно	-10.9269
английск	-10.927
▁хал	-10.9275
▁вулканическ	-10.9278
▁облегч	-10.9281
▁крупными	-10.9285
▁августин	-10.9286
ложении	-10.9287
▁самих	-10.9288
▁сыном	-10.9289
▁боево	-10.929
вик	-10.9294
▁проблему	-10.9295
дже	-10.9306
▁конституцию	-10.931
▁синтаксис	-10.931
▁воздействия	-10.931
▁муниципалитет	-10.931
▁творчестве	-10.931
▁деревья	-10.931
▁приложения	-10.931
▁армения	-10.931
▁состояще	-10.9311
▁попытал	-10.9311
▁никто	-10.9311
▁имеющий	-10.9312
▁англо	-10.9315
▁обслуживания	-10.9315
христиан	-10.9316
человек	-10.9317
▁текстиль	-10.9319
▁валери	-10.9319
▁выброс	-10.9319
▁опрос	-10.932
▁александрийск	-10.9321
▁важнейшим	-10.9321
▁природного	-10.9321
▁отрыв	-10.9322
▁мелко	-10.9323
▁автоматическ	-10.9328
ответ	-10.9329
▁доброволь	-10.933
ющем	-10.9331
▁известными	-10.9332
экваториальн	-10.9332
▁низкой	-10.9335
▁гипотезы	-10.9338
▁известного	-10.9342
▁территориях	-10.9343
ительных	-10.9347
▁разве	-10.936
pu	-10.936
▁детско	-10.9362
▁возглавлял	-10.9365
держав	-10.9367
гг	-10.9368
▁сильное	-10.9368
▁180	-10.9371
сматрива	-10.9371
▁мемориальн	-10.9373
▁циолковского	-10.9374
▁маринеско	-10.9374
▁завоевал	-10.9374
▁генрих	-10.9374
▁бразилии	-10.9374
▁рыночн	-10.9374
▁прежни	-10.9375
▁прекрасно	-10.9376
▁отвеч	-10.9376
даются	-10.9378
▁немцы	-10.9378
▁корейск	-10.938
рги	-10.9381
▁архи	-10.9383
▁ухудш	-10.9384
▁такую	-10.9384
▁субъекта	-10.9384
▁тим	-10.9385
▁0,5	-10.9385
▁черед	-10.9386
▁союзе	-10.939
▁вызов	-10.939
▁ряду	-10.9395
справедлив	-10.9397
▁задачей	-10.9398
дневник	-10.9401
китай	-10.9403
▁столичн	-10.9403
советск	-10.9405
дают	-10.9407
▁европейский	-10.9408
▁отечественн	-10.9408
▁образуются	-10.9409
▁переворота	-10.941
▁посвящённ	-10.941
▁отзыв	-10.941
▁представляющи	-10.9421
бразил	-10.9421
▁восточного	-10.9423
́к	-10.9424
спи	-10.9433
▁признав	-10.9433
mb	-10.9434
▁тэ	-10.9434
▁университетов	-10.9436
▁разбит	-10.9437
▁концентрация	-10.9438
▁телевидение	-10.9438
▁энергию	-10.9438
тихоокеанско	-10.9438
▁существовании	-10.9438
▁вело	-10.9442
▁написания	-10.9442
▁атлантическ	-10.9442
▁звезда	-10.9444
баль	-10.9446
▁увеличивается	-10.9446
тельной	-10.9447
▁касс	-10.9449
▁мощностью	-10.9452
▁пользова	-10.9453
▁отказыва	-10.9456
gen	-10.9456
▁отправился	-10.9457
▁католической	-10.946
ийцы	-10.9462
сколько	-10.9467
▁шла	-10.9469
рский	-10.9471
▁греков	-10.9471
▁магнитно	-10.9474
▁кислород	-10.948
▁средством	-10.9488
▁хлорид	-10.9492
▁испытыва	-10.9495
лаш	-10.9495
▁кука	-10.9496
▁расположенных	-10.9496
▁рак	-10.9497
кратк	-10.9502
▁издательств	-10.9502
▁посёлок	-10.9502
▁телевидения	-10.9502
▁дизайн	-10.9502
▁оригинал	-10.9502
▁освещен	-10.9502
▁декрет	-10.9503
▁частным	-10.9503
▁сообщений	-10.9504
▁высший	-10.9504
▁рубеже	-10.9506
тическое	-10.9506
▁городское	-10.9506
▁живёт	-10.9507
▁сельском	-10.9508
▁традиционные	-10.9509
▁статистически	-10.9511
скрип	-10.9511
▁развиваться	-10.9516
0,4	-10.9516
▁самовар	-10.9517
▁юнг	-10.9518
▁жидкость	-10.9522
▁провести	-10.9526
▁ворон	-10.9526
▁смогли	-10.9527
▁письменны	-10.953
▁утвердил	-10.9531
строения	-10.9531
зритель	-10.9534
▁сохранил	-10.9536
▁третья	-10.9536
▁октавиана	-10.9539
бир	-10.9539
▁греки	-10.9541
цким	-10.9542
▁дворе	-10.9544
▁реку	-10.9545
▁гвардейск	-10.9547
▁грузин	-10.9548
оне	-10.9548
▁государстве	-10.9549
рб	-10.955
▁историков	-10.9553
▁народная	-10.9553
фильм	-10.9562
▁поднят	-10.9562
красив	-10.9563
▁bo	-10.9564
▁президентски	-10.9566
четвер	-10.9566
▁месторождений	-10.9567
▁напрямую	-10.9567
▁российским	-10.9567
▁алексей	-10.9567
▁иностранные	-10.9567
▁кирпич	-10.9567
▁технология	-10.9568
▁рабочего	-10.9568
▁природу	-10.9568
▁братьев	-10.9569
▁твери	-10.9569
▁мифы	-10.9569
позитив	-10.957
▁альп	-10.9572
▁павел	-10.9572
▁фундамент	-10.9572
▁прибыв	-10.9573
▁якоб	-10.9574
▁стара	-10.9575
▁проведена	-10.9576
▁нулев	-10.9577
▁выявлен	-10.9578
энергетическ	-10.9579
▁подводны	-10.9579
▁июль	-10.9579
formula	-10.958
▁читал	-10.9581
▁открытым	-10.9586
тина	-10.9588
▁увеличения	-10.9588
▁фотограф	-10.9589
государств	-10.9589
▁кислорода	-10.959
тельным	-10.9591
▁чай	-10.9593
="17	-10.9594
▁компьютера	-10.9594
▁древнегречески	-10.9596
▁возле	-10.9596
▁спам	-10.9598
▁занимала	-10.9601
▁резки	-10.9602
ещал	-10.9606
оге	-10.9609
ющимися	-10.9612
глас	-10.9612
несены	-10.9616
▁выдвинул	-10.9619
ставка	-10.9621
где	-10.9621
▁вавилова	-10.9622
▁нашего	-10.9623
ческие	-10.9628
▁осуществляют	-10.9629
дума	-10.963
▁календарь	-10.9633
▁кеннеди	-10.9633
▁оппозиции	-10.9633
▁помощник	-10.9633
▁португалии	-10.9633
▁энерго	-10.9633
▁шрифт	-10.9633
▁позиция	-10.9633
▁спортсмен	-10.9633
▁поставщик	-10.9633
▁регулиру	-10.9633
▁time	-10.9633
▁пыл	-10.9633
▁гипотеза	-10.9634
▁получивши	-10.9634
▁анархист	-10.9634
▁голландск	-10.9635
газ	-10.9635
▁барьер	-10.9636
▁туристически	-10.9636
анн	-10.9638
▁община	-10.9638
▁видимо	-10.964
▁книжн	-10.9643
▁экватор	-10.9644
▁вооружённо	-10.9644
▁казаки	-10.9645
tro	-10.9645
▁методом	-10.9647
▁вокзала	-10.9647
рожден	-10.9648
▁политический	-10.9648
▁единственной	-10.9649
▁испо	-10.9651
nu	-10.9654
▁элементами	-10.966
ориентированн	-10.966
▁интенсивн	-10.9662
банк	-10.9663
▁увеличи	-10.9663
стад	-10.9664
шки	-10.9665
патр	-10.967
▁праздновани	-10.9674
▁бокс	-10.9675
cu	-10.9676
▁никак	-10.9677
ps	-10.968
майор	-10.968
лук	-10.9687
▁простым	-10.969
▁документы	-10.9691
▁выполня	-10.9694
▁палата	-10.9695
▁относя	-10.9697
▁теорией	-10.9698
▁цивилизации	-10.9698
▁шухевич	-10.9698
▁комплект	-10.9698
▁горожан	-10.9698
▁пароход	-10.9699
▁коррект	-10.9699
▁свидетельствует	-10.9699
▁точностью	-10.9701
▁(11	-10.9702
▁технических	-10.9703
▁типичны	-10.9704
▁устья	-10.9705
▁бах	-10.9706
1,7	-10.9706
манд	-10.9708
▁бывшей	-10.9708
tt	-10.9708
ованных	-10.9708
▁достоевский	-10.9709
_11	-10.9709
▁ошибки	-10.9711
▁ho	-10.9714
▁евгени	-10.9716
бет	-10.9718
▁разделения	-10.9723
книг	-10.9723
▁астрономии	-10.9724
▁груб	-10.9724
▁властями	-10.9727
▁предлагал	-10.9731
▁математических	-10.9733
▁закрыты	-10.9733
▁съезда	-10.9734
▁сталинград	-10.9737
▁гур	-10.9737
mar	-10.9737
▁ip	-10.974
▁анна	-10.9743
▁юпитер	-10.9747
само	-10.9749
ущий	-10.975
▁округе	-10.9752
▁представлений	-10.9752
▁иванова	-10.9755
▁учреждение	-10.9756
авшая	-10.9761
▁обществ	-10.9763
▁здравоохранение	-10.9765
▁резонанс	-10.9765
▁тензор	-10.9765
▁обвинения	-10.9765
▁деятелей	-10.9765
▁экзамен	-10.9765
▁экономику	-10.9765
▁францией	-10.9766
▁пользоваться	-10.9768
▁товарищ	-10.9769
▁балкан	-10.9771
▁мид	-10.9771
▁важное	-10.9773
▁ею	-10.9773
▁избирается	-10.9773
здрав	-10.9774
▁обход	-10.9775
международная	-10.9775
коло	-10.9776
ицу	-10.9777
▁октябрьской	-10.9777
▁писать	-10.9778
▁людвиг	-10.9781
военно	-10.9782
▁географическое	-10.9783
▁латинского	-10.9784
▁интеллект	-10.9786
▁новом	-10.9786
▁музеев	-10.9787
▁инвариант	-10.9789
▁шли	-10.9791
▁занятия	-10.9797
▁начать	-10.9805
эд	-10.9806
▁принципу	-10.9806
▁революционно	-10.9807
▁террор	-10.9812
▁колония	-10.9816
▁оборонительн	-10.9819
▁1500	-10.9819
▁зарубежн	-10.982
▁лютер	-10.9823
▁съезде	-10.9824
▁создали	-10.9824
▁mi	-10.9826
функцион	-10.9827
▁передаче	-10.9827
жир	-10.9828
▁возвышенн	-10.9829
▁критически	-10.983
▁поддержка	-10.9831
▁противоположны	-10.9831
▁проявления	-10.9831
▁законопроект	-10.9831
▁избежать	-10.9831
▁шахмат	-10.9831
▁чтения	-10.9831
▁постройки	-10.9832
▁раннего	-10.9832
▁кук	-10.9832
▁днепр	-10.9832
▁кустар	-10.9832
▁сегодняшни	-10.9833
gu	-10.9833
▁фунт	-10.9834
▁ошибок	-10.9836
▁находилось	-10.9837
▁отражает	-10.9837
▁буквально	-10.9837
▁откровен	-10.9839
▁знаки	-10.984
пси	-10.9841
▁распределения	-10.9842
чёрно	-10.9843
испыта	-10.9844
поло	-10.9846
▁названий	-10.9847
▁аммиака	-10.9848
▁бухт	-10.9849
▁бедн	-10.9849
▁доли	-10.9853
▁стандартной	-10.9853
▁давлением	-10.9855
ничество	-10.986
▁лютеран	-10.9861
▁забот	-10.9864
▁давно	-10.9864
▁веку	-10.9864
▁гай	-10.9865
▁народы	-10.9868
▁1860	-10.9869
обретения	-10.9869
фар	-10.987
▁гдр	-10.9872
▁помеща	-10.9875
▁вовсе	-10.9881
▁черн	-10.9882
▁полосы	-10.9883
▁сибирски	-10.9884
est	-10.9884
▁свойствами	-10.9885
▁жир	-10.9887
стен	-10.989
▁хлора	-10.9895
▁границах	-10.9895
▁обязательн	-10.9895
мета	-10.9895
▁скота	-10.9896
кузнецк	-10.9898
▁воскресенье	-10.9898
▁юстиции	-10.9898
▁построить	-10.9899
▁царицын	-10.9899
▁представил	-10.9899
▁самолётов	-10.9899
▁списке	-10.9899
▁ватикан	-10.9899
▁популярности	-10.9901
▁имея	-10.9903
▁возведен	-10.9904
▁старой	-10.9906
▁перевозок	-10.9907
▁вторг	-10.9907
▁зерно	-10.9909
▁варианты	-10.9909
▁жуков	-10.9915
▁сетей	-10.9917
▁пилот	-10.9918
pri	-10.9919
▁лис	-10.992
бут	-10.9921
▁гэс	-10.9921
▁расположение	-10.9925
вшуюся	-10.9926
тё	-10.9927
консерв	-10.9929
▁организма	-10.9931
▁институтов	-10.9933
▁работающих	-10.9935
ft	-10.9939
тической	-10.9939
▁обрабатыва	-10.995
летия	-10.995
ip	-10.995
технической	-10.9956
▁голос	-10.9959
несла	-10.9965
▁аминокислот	-10.9966
▁астероид	-10.9966
▁контролем	-10.9966
▁лысенко	-10.9966
▁наступления	-10.9966
▁объявля	-10.9966
▁повседневн	-10.9966
▁скульптор	-10.9966
▁абрикос	-10.9966
▁теннис	-10.9966
▁точкой	-10.9966
▁простира	-10.9966
жёлто	-10.9967
▁разрешение	-10.9967
▁фалес	-10.9969
2,3	-10.9971
▁языческ	-10.9972
▁бродского	-10.9973
▁размнож	-10.9973
▁куба	-10.9974
▁австралия	-10.9975
оид	-10.9977
▁пользуются	-10.9978
хотя	-10.9978
▁получаем	-10.9978
▁употребление	-10.9979
▁важной	-10.9981
▁выделил	-10.9982
▁wi	-10.9989
▁постоянного	-10.9991
электрон	-10.9993
▁гагарина	-10.9999
▁ошиб	-10.9999
▁кварков	-11
▁сборная	-11.0002
▁средствами	-11.0002
▁считая	-11.0004
▁компоненты	-11.0004
▁местной	-11.0005
▁причинам	-11.0007
▁белый	-11.0007
▁свидетельства	-11.0013
▁кавалер	-11.0016
ставляет	-11.0017
▁перевода	-11.0018
▁замка	-11.0021
▁коста	-11.0032
▁проведение	-11.0033
▁пуэрто	-11.0034
▁участков	-11.0034
▁циолковский	-11.0034
▁музыке	-11.0034
▁акцент	-11.0034
▁парадокс	-11.0034
▁остатки	-11.0034
▁партию	-11.0034
▁синтоизм	-11.0034
адмирал	-11.0035
▁канаде	-11.0035
▁именовал	-11.0035
▁ливии	-11.0035
▁энциклопедии	-11.0035
▁выразил	-11.0036
▁психически	-11.0039
новой	-11.0045
▁центры	-11.0045
▁воинско	-11.0045
▁римский	-11.0046
▁подчинения	-11.0048
▁омывает	-11.0049
▁математика	-11.0054
▁сближени	-11.0054
▁строя	-11.0055
▁числ	-11.0057
нице	-11.006
▁se	-11.0063
▁причина	-11.0064
▁парламенте	-11.0064
="19	-11.0065
▁сущность	-11.0066
служив	-11.0067
▁учебник	-11.0071
▁направля	-11.0071
▁воскрес	-11.0073
люби	-11.0074
▁ликвид	-11.0086
▁черте	-11.0094
▁февраль	-11.0094
▁развитых	-11.0094
ещает	-11.0095
▁никол	-11.0097
▁электромагнитно	-11.01
▁памятника	-11.0101
▁объяснени	-11.0101
▁шоссе	-11.0103
▁понимания	-11.0103
▁сочинение	-11.0103
▁единственная	-11.0103
▁промышленные	-11.0103
▁сотрудников	-11.0104
▁символизиру	-11.0104
▁официальные	-11.0105
▁сервис	-11.0106
▁гей	-11.0107
▁старого	-11.0108
▁переводы	-11.0108
▁леший	-11.0109
▁меняется	-11.0111
▁широком	-11.0112
▁нарушение	-11.0112
▁последовал	-11.0116
▁тетра	-11.0117
волжско	-11.0118
ительная	-11.012
▁успеха	-11.012
▁единство	-11.0121
▁обеих	-11.0121
▁назначает	-11.0122
▁прохождени	-11.0124
▁любом	-11.0133
чеч	-11.0134
▁реже	-11.0139
▁органами	-11.014
▁русскими	-11.014
▁сухо	-11.014
▁важнейш	-11.0141
▁изданий	-11.0142
fa	-11.0147
he	-11.0155
▁пункта	-11.0156
счёт	-11.0158
▁элит	-11.0164
▁материков	-11.0165
▁породы	-11.0171
▁египте	-11.0172
▁окончании	-11.0172
▁показатели	-11.0172
▁соответствие	-11.0172
▁сопротивления	-11.0172
▁ущерб	-11.0172
▁оставалась	-11.0172
парадигм	-11.0172
▁математической	-11.0172
▁греческих	-11.0173
▁увеличилось	-11.0174
▁сложение	-11.0175
ступлении	-11.0176
▁затрат	-11.0176
чел	-11.0177
▁1908	-11.0177
▁отказаться	-11.0177
арктик	-11.018
новый	-11.0181
▁исключения	-11.0182
▁сумму	-11.0182
▁миг	-11.0184
жные	-11.0186
▁показывают	-11.0186
▁арабских	-11.0187
группы	-11.0188
▁андрея	-11.0193
▁преобразований	-11.0193
▁независимым	-11.0196
▁угол	-11.0197
официально	-11.0199
▁взять	-11.0199
общую	-11.0201
▁стили	-11.0201
истый	-11.0201
▁леонид	-11.0202
▁бояр	-11.0204
▁1890	-11.0205
▁городами	-11.0205
▁соединение	-11.0206
▁джона	-11.0207
ys	-11.0209
▁бро	-11.0209
́л	-11.0209
▁1870	-11.0212
▁запуск	-11.0222
нок	-11.0222
6,5	-11.0225
▁состоящий	-11.0226
▁подлинно	-11.0231
▁олег	-11.0236
▁деления	-11.0239
▁освобождён	-11.0241
▁судебная	-11.0241
▁эксплуатации	-11.0241
▁предусматривал	-11.0241
▁проведены	-11.0241
▁щелоч	-11.0241
▁тормоз	-11.0241
▁героев	-11.0241
▁пещер	-11.0241
▁губернск	-11.0241
▁блюд	-11.0242
▁экономическая	-11.0242
▁политическое	-11.0242
▁диоксид	-11.0242
▁заметны	-11.0243
▁1904	-11.0246
▁интересы	-11.0247
▁возможностей	-11.0247
▁высокую	-11.0247
▁похорон	-11.0248
▁избираются	-11.0248
▁парка	-11.0248
▁проживают	-11.025
▁работой	-11.025
▁космической	-11.0253
▁соединен	-11.0254
▁яхт	-11.0256
▁объединил	-11.0256
▁определению	-11.0258
▁прибыли	-11.0259
бирать	-11.0261
праздн	-11.0264
▁зависим	-11.0267
▁дани	-11.0272
▁советском	-11.0272
▁продолжали	-11.0272
▁значимы	-11.0273
▁национально	-11.0274
дю	-11.0275
ers	-11.0276
падении	-11.0278
конт	-11.028
емыми	-11.0281
▁официального	-11.0282
кру	-11.0284
▁проблемой	-11.0284
▁высот	-11.0287
▁документах	-11.0289
▁растительно	-11.0289
▁павл	-11.0292
перво	-11.0301
▁большими	-11.0302
▁положении	-11.0302
▁княж	-11.0304
▁сообщает	-11.0304
▁конфесси	-11.0308
естественн	-11.0309
▁урожай	-11.0311
▁амстердам	-11.0311
▁захоронен	-11.0311
▁князей	-11.0311
▁территорией	-11.0311
▁южнее	-11.0311
▁сравнения	-11.0311
▁виноград	-11.0311
▁прошла	-11.0311
▁нейтрон	-11.0311
▁тверской	-11.0311
▁почему	-11.0312
▁сварог	-11.0312
▁механике	-11.0313
бить	-11.0313
▁фасад	-11.0313
▁герои	-11.0314
▁скрыт	-11.0314
▁кардинал	-11.0315
▁доказательство	-11.0317
ывания	-11.0321
нус	-11.0323
ow	-11.0325
▁талант	-11.0327
▁назвали	-11.0328
ительной	-11.0328
▁простой	-11.0329
▁тысячелети	-11.033
▁буддизма	-11.0332
▁рассматриваются	-11.0332
▁александров	-11.0334
▁архипелага	-11.0334
▁землях	-11.0335
▁несколькими	-11.0335
▁изменяется	-11.0335
che	-11.0338
▁балл	-11.0339
▁крыш	-11.0339
▁упор	-11.034
фантаст	-11.0341
▁референдума	-11.0343
остров	-11.0344
▁кандидатов	-11.0351
материал	-11.0352
▁горбачёва	-11.0355
▁многочисленн	-11.0357
▁объяснения	-11.0358
▁национальное	-11.0358
▁видами	-11.0358
речь	-11.0361
новая	-11.0363
академ	-11.0364
нье	-11.0366
▁мур	-11.0366
очек	-11.0366
▁подразумева	-11.0367
образовательных	-11.0369
▁появи	-11.0374
▁массой	-11.0381
▁инфраструктуры	-11.0381
▁счисления	-11.0381
▁эмоциональн	-11.0381
▁описывают	-11.0381
▁увидеть	-11.0381
▁внешние	-11.0381
▁внешний	-11.0381
▁мятеж	-11.0381
▁зарплат	-11.0381
▁василий	-11.0381
▁заместитель	-11.0381
евской	-11.0382
▁введено	-11.0382
▁высшие	-11.0383
▁огонь	-11.0384
▁будущее	-11.0385
лоб	-11.0385
▁изучению	-11.0385
▁ископаемых	-11.0386
▁дерева	-11.0386
▁густ	-11.0388
▁занимались	-11.0388
емость	-11.0389
▁приобрёл	-11.0392
▁получать	-11.0392
▁следствием	-11.0393
▁фантастическ	-11.0393
▁обозначен	-11.0395
▁сознание	-11.0395
▁северную	-11.0398
▁критическ	-11.0401
▁христианских	-11.0401
▁экономическим	-11.0401
▁основатель	-11.0406
▁борт	-11.0407
▁негативно	-11.0408
▁углу	-11.041
▁мера	-11.041
▁военная	-11.0411
▁произведениях	-11.0415
▁кали	-11.0415
хард	-11.0418
▁доказательства	-11.0418
▁говорится	-11.0424
▁государственно	-11.0424
▁метрическ	-11.0424
▁фигуры	-11.0424
▁архитектурны	-11.0425
нять	-11.0426
▁старинн	-11.0426
▁профессора	-11.0428
▁называемой	-11.0429
▁оригинальны	-11.0429
альтернатив	-11.0432
▁княжеств	-11.0433
▁прокл	-11.0434
▁крупного	-11.0436
▁руды	-11.0437
▁дополнительны	-11.0437
технолог	-11.0437
▁лекции	-11.0441
1,1	-11.0441
миллион	-11.0442
▁манга	-11.0444
▁пункты	-11.0444
τα	-11.0449
▁андре	-11.0449
▁конструкция	-11.0452
▁награждён	-11.0452
▁реконструкции	-11.0452
▁преследовани	-11.0452
эрмитаж	-11.0452
▁ежедневно	-11.0452
▁спортивных	-11.0452
▁трамвая	-11.0452
▁секретаря	-11.0452
▁контексте	-11.0452
▁собственную	-11.0452
▁баланс	-11.0452
▁включены	-11.0452
▁лоренц	-11.0452
▁увидел	-11.0453
▁совпадает	-11.0453
▁признаки	-11.0453
▁алжир	-11.0453
▁суммы	-11.0456
▁лидером	-11.0456
▁марокко	-11.0456
пустын	-11.0457
серьёзн	-11.0458
▁представить	-11.0458
▁игрок	-11.0459
▁заявля	-11.0462
импер	-11.0464
▁прибрежн	-11.0464
▁концов	-11.0465
▁избирательно	-11.0467
je	-11.0472
▁помещения	-11.0474
гигант	-11.0475
▁мальчик	-11.0476
риф	-11.0479
▁ограничи	-11.0479
▁перечислен	-11.0482
▁философские	-11.0483
▁инструментов	-11.0485
▁паром	-11.0485
турист	-11.0486
▁пищевой	-11.0486
▁особого	-11.0488
▁западном	-11.0488
▁садов	-11.0492
ris	-11.0496
▁экологически	-11.0497
▁сара	-11.0498
▁леп	-11.0501
▁столб	-11.0501
▁одинаково	-11.0504
▁господство	-11.0506
▁корни	-11.0508
сков	-11.0509
▁туда	-11.0516
▁формула	-11.0517
xx	-11.0518
▁субъектов	-11.052
следовательности	-11.0521
▁троп	-11.0521
чета	-11.0522
▁ситуацию	-11.0524
▁шарапова	-11.0524
▁исследу	-11.0524
▁кампании	-11.0524
▁вакуум	-11.0524
▁разрешения	-11.0524
▁наркома	-11.0524
▁свидетельствуют	-11.0524
▁требование	-11.0524
▁приспособлен	-11.0524
▁естественным	-11.0526
▁пребыва	-11.0526
▁начальника	-11.0528
▁подмножеств	-11.0529
▁операторов	-11.053
▁секст	-11.053
▁вначале	-11.053
▁бежал	-11.0531
▁немецком	-11.0531
▁традиционных	-11.0533
▁итальянско	-11.0535
▁вспоминал	-11.0537
▁уран	-11.0538
par	-11.0539
голос	-11.0539
▁публицист	-11.054
▁дальнейши	-11.0542
▁существовал	-11.0549
▁лейбница	-11.0549
tel	-11.055
▁дуг	-11.0554
▁спектра	-11.0556
▁нижнем	-11.0558
▁выполняют	-11.056
также	-11.0562
▁наблюдать	-11.0565
персидски	-11.0568
казать	-11.0568
▁потребител	-11.057
▁техника	-11.0574
▁уезда	-11.0576
▁славы	-11.0578
ковые	-11.0579
елем	-11.058
▁вышедш	-11.058
▁турецко	-11.0585
▁такси	-11.0585
первичн	-11.0586
▁динамическ	-11.0592
председател	-11.0595
▁демографическ	-11.0596
▁интерпретации	-11.0596
▁ирландии	-11.0596
▁недалеко	-11.0596
▁отметить	-11.0596
▁посёлка	-11.0596
▁янтаря	-11.0596
▁керенский	-11.0596
▁сердце	-11.0596
▁премию	-11.0597
▁оставаться	-11.0597
▁звезды	-11.0597
▁украину	-11.0597
▁голосования	-11.0599
▁позвоночных	-11.0601
▁восходит	-11.0602
▁незаконн	-11.0602
▁индивидуальны	-11.0604
▁мощности	-11.0605
▁любви	-11.0606
▁осталось	-11.0609
▁дву	-11.061
▁мото	-11.0613
химия	-11.0614
▁собственность	-11.0615
▁еврейского	-11.062
2,4	-11.0621
машин	-11.0622
▁станет	-11.0625
▁монархии	-11.0628
▁рубеж	-11.0629
▁лицо	-11.0633
▁произвольно	-11.0635
▁следующ	-11.0639
▁западные	-11.0639
▁ума	-11.0639
▁ответил	-11.065
давались	-11.0656
▁доходы	-11.0666
#	-11.0668
▁замкнут	-11.0668
▁мероприятий	-11.0668
▁пруссия	-11.0668
▁суждения	-11.0668
▁способствует	-11.0668
▁участии	-11.0668
▁добиться	-11.0668
▁ежегодны	-11.0668
▁польша	-11.0669
▁огня	-11.0669
▁музыканты	-11.0669
▁американского	-11.067
▁канада	-11.0671
▁предоставляет	-11.0671
▁немцев	-11.0671
▁реализация	-11.0672
▁исаак	-11.0673
▁подразделения	-11.0673
▁выступают	-11.0675
федеральн	-11.0676
▁заниматься	-11.0677
ерами	-11.0677
lisp	-11.0681
март	-11.0681
▁свободных	-11.0683
▁фазы	-11.0685
ичный	-11.0686
▁линию	-11.0687
▁домашни	-11.0688
▁суши	-11.0689
▁установки	-11.0689
▁различие	-11.0691
▁происходило	-11.0692
▁сенатор	-11.0693
▁даты	-11.0693
▁специальной	-11.0694
▁подвергал	-11.0696
▁республику	-11.0696
▁училища	-11.0697
▁тёмн	-11.0698
▁бород	-11.07
▁смешанны	-11.0704
ly	-11.0707
▁молодых	-11.0708
▁казни	-11.0712
гели	-11.0713
▁храмы	-11.0715
цикл	-11.0722
▁затвор	-11.0722
▁престола	-11.0723
▁заповедник	-11.0723
▁электронов	-11.0729
▁веса	-11.0729
▁художественной	-11.073
▁наследие	-11.0734
▁часы	-11.0734
▁полученны	-11.0735
▁степан	-11.0735
▁месс	-11.0735
щё	-11.0738
▁старых	-11.0739
▁удел	-11.0739
демократ	-11.074
▁зону	-11.0741
▁вильнюс	-11.0741
▁гуманитарн	-11.0741
▁инстанции	-11.0741
▁композиции	-11.0741
▁предпринял	-11.0741
▁теоретик	-11.0741
▁натурфилософ	-11.0741
▁службе	-11.0741
▁испытания	-11.0741
▁фауна	-11.0742
▁встреч	-11.0743
▁экспедици	-11.0745
▁формируется	-11.0746
▁сильные	-11.0748
щиеся	-11.0748
▁бывает	-11.0749
7,5	-11.075
ехать	-11.0751
▁мк	-11.0752
эстонск	-11.0754
▁синод	-11.0758
▁мостов	-11.0762
▁измеря	-11.0763
нью	-11.0765
работка	-11.0767
▁смертность	-11.0767
2,5	-11.0769
гитар	-11.077
теизм	-11.0771
▁провозглашена	-11.0772
▁предлагает	-11.0776
▁солнечного	-11.0777
▁гриб	-11.078
▁расположенные	-11.0784
ничества	-11.0786
▁сосуд	-11.0789
тельное	-11.079
повесть	-11.0794
ment	-11.0794
▁взросл	-11.0803
восточно	-11.081
ительного	-11.081
▁рельефа	-11.0811
физиолог	-11.0812
▁стратегическ	-11.0812
▁цены	-11.0813
▁мега	-11.0814
▁обязательств	-11.0815
▁присутствии	-11.0815
▁участвует	-11.0815
▁хребта	-11.0815
▁уровню	-11.0815
▁отрасль	-11.0815
▁рассчитан	-11.0815
▁опроверг	-11.0815
илья	-11.0815
▁руководитель	-11.0815
▁изотоп	-11.0815
▁послевоенны	-11.0817
▁сырья	-11.0817
▁польской	-11.0818
▁задачу	-11.0819
▁античности	-11.0819
▁косвенн	-11.0822
▁воздействие	-11.0824
▁особой	-11.0826
▁черноморск	-11.0826
▁играть	-11.0828
▁однородн	-11.083
▁никакого	-11.0832
крест	-11.0832
▁гомер	-11.0835
▁достижени	-11.0838
▁различаются	-11.0838
▁жены	-11.0839
▁теоретической	-11.0842
ированный	-11.0842
▁типограф	-11.0842
5,5	-11.0842
▁российско	-11.085
континент	-11.0853
оценка	-11.0853
▁картины	-11.0856
индус	-11.0858
▁описывается	-11.0859
▁сорок	-11.0861
монгол	-11.0865
-1»	-11.0871
ёрт	-11.0873
▁соблюд	-11.0878
▁методами	-11.088
▁выполняет	-11.0884
▁нападения	-11.0886
▁появлению	-11.0889
▁медицины	-11.0889
▁монумент	-11.0889
▁php	-11.0889
▁дебют	-11.0889
▁взлёт	-11.0889
▁австро	-11.0889
▁региональных	-11.089
▁милл	-11.0891
▁мифология	-11.0891
▁провел	-11.0892
▁гелия	-11.0893
▁познакомился	-11.0893
сине	-11.0893
▁успешны	-11.0894
▁считался	-11.0895
tal	-11.0898
▁проявляется	-11.09
волжски	-11.09
▁орденом	-11.0904
ализация	-11.0904
▁парад	-11.0905
▁запах	-11.0907
разному	-11.0913
▁депутаты	-11.0914
▁пищи	-11.0917
fo	-11.0918
▁похожи	-11.0918
нск	-11.0919
▁1896	-11.0922
▁продолжается	-11.0927
учение	-11.0929
▁марки	-11.0931
▁чехии	-11.0931
▁переменных	-11.0933
▁решительн	-11.0935
жин	-11.0935
кви	-11.0937
▁современников	-11.0937
назван	-11.0938
▁парламентски	-11.094
антроп	-11.0944
▁предполагал	-11.0946
виль	-11.0946
▁переправ	-11.0947
ix	-11.0951
кен	-11.0952
пати	-11.096
▁османск	-11.0962
▁друзья	-11.0963
▁коалиции	-11.0963
▁принадлежности	-11.0963
▁противоречия	-11.0963
▁расследовани	-11.0963
▁сформулирован	-11.0963
▁январь	-11.0963
▁арифметическ	-11.0963
▁восприня	-11.0963
▁молдавск	-11.0963
▁повсеместно	-11.0963
▁случаи	-11.0963
▁ширина	-11.0963
▁коперник	-11.0964
▁проводим	-11.0964
▁пострадал	-11.0964
▁литовского	-11.0966
▁экспериментов	-11.0968
▁адрон	-11.0968
туш	-11.0968
war	-11.0969
▁долины	-11.097
▁соблюдени	-11.097
рея	-11.0971
▁торг	-11.0972
▁нормально	-11.0973
▁последующих	-11.0974
▁нулю	-11.0974
▁критиковал	-11.0978
▁определённого	-11.0979
▁единый	-11.0982
▁античных	-11.0983
▁французском	-11.0985
▁принадлежащи	-11.0986
факто	-11.0988
▁популярной	-11.0988
▁железнодорожной	-11.0989
▁мои	-11.099
▁кристаллическ	-11.0992
▁статью	-11.0994
▁платформы	-11.0994
▁известная	-11.0996
▁баг	-11.0997
▁материально	-11.0998
▁синтеза	-11.0998
ницу	-11.0999
▁имуществ	-11.1001
▁анны	-11.1002
▁восстановления	-11.1002
▁огне	-11.1003
▁судно	-11.1003
▁туман	-11.1005
▁бесплатно	-11.1006
балтийск	-11.1006
▁столыпина	-11.1007
▁войско	-11.1014
золото	-11.1015
▁римско	-11.1021
носил	-11.1021
ческого	-11.1023
▁традиционной	-11.1024
ившая	-11.1025
▁штаба	-11.1029
одесск	-11.1032
▁заканчива	-11.1033
▁числитель	-11.1035
формат	-11.1036
▁упоминает	-11.1036
▁росту	-11.1037
▁тесн	-11.1037
▁ibm	-11.1038
▁одежды	-11.1038
▁превысил	-11.1038
▁редакции	-11.1038
▁мёртвы	-11.1038
▁оценку	-11.1039
шифр	-11.1039
гомофоб	-11.1039
▁постоянным	-11.1039
▁движений	-11.1039
▁ссыла	-11.1039
▁прямоугольн	-11.1039
▁совокупности	-11.104
les	-11.104
▁механика	-11.1042
▁обновлен	-11.1042
оскоп	-11.1044
▁потребности	-11.1044
ичности	-11.1046
ирующие	-11.1047
▁оценивал	-11.1049
▁кольце	-11.105
россия	-11.1054
▁виртуальны	-11.1057
▁файлов	-11.1057
московск	-11.1059
▁определённые	-11.106
брет	-11.106
требова	-11.106
▁баку	-11.1061
▁самолёта	-11.1063
▁ценности	-11.1063
▁заключённых	-11.1064
йдёт	-11.1065
▁устойчивы	-11.1068
▁угле	-11.107
▁сохранить	-11.1071
▁местными	-11.1078
▁мик	-11.1083
▁важные	-11.1086
ирующих	-11.1089
▁57	-11.109
▁обнаружено	-11.1091
рижск	-11.1093
▁коммунизм	-11.1099
▁признания	-11.1101
питал	-11.1103
▁лишён	-11.1106
▁масло	-11.1106
art	-11.1107
▁миссионер	-11.1114
▁присутствуют	-11.1114
▁наркотик	-11.1114
▁летописи	-11.1114
▁рассеян	-11.1114
▁кейнс	-11.1114
▁защите	-11.1115
▁выиграл	-11.1115
▁существовавши	-11.1115
▁заставил	-11.1118
0,7	-11.1118
▁основано	-11.1121
▁сохранилась	-11.1122
▁органических	-11.1123
▁бывают	-11.1123
▁продолжают	-11.1126
▁понимал	-11.1126
▁выделял	-11.1133
цкая	-11.1135
▁торжественно	-11.1139
▁северным	-11.114
▁расходов	-11.1141
▁выполнял	-11.1142
▁молодой	-11.1142
евого	-11.1143
▁1897	-11.1145
▁голоса	-11.1152
▁формулы	-11.1156
▁объединённых	-11.1157
узбек	-11.1158
▁приказал	-11.1159
может	-11.1161
xviii	-11.1162
▁лак	-11.1165
▁давид	-11.1166
съём	-11.1166
▁пед	-11.1171
ходил	-11.1174
▁понять	-11.1175
air	-11.1176
▁береговой	-11.1178
▁борту	-11.118
▁проводит	-11.1181
res	-11.1186
коммунист	-11.1188
▁нидерланды	-11.1191
▁полушарии	-11.1191
▁эмиграции	-11.1191
▁заседания	-11.1191
▁свифт	-11.1191
▁чёрных	-11.1191
▁настоящий	-11.1191
▁корабли	-11.1191
▁сведений	-11.1191
▁требуют	-11.1191
▁руководителя	-11.1191
▁кораллов	-11.1191
▁манифест	-11.1191
▁маршалловы	-11.1191
▁секретарь	-11.1191
спектрометр	-11.1191
▁подчинён	-11.1192
крив	-11.1192
▁вслед	-11.1192
▁иврит	-11.1194
▁федеральном	-11.1194
▁третье	-11.1194
▁решено	-11.1194
величайш	-11.1195
▁мура	-11.1196
▁избирательны	-11.1197
rt	-11.1197
▁последователей	-11.1198
▁пассажирских	-11.1201
▁употребляется	-11.1205
▁юар	-11.1219
▁доказательств	-11.1221
ok	-11.1226
▁печата	-11.1226
электро	-11.1231
▁базиру	-11.1231
▁равнина	-11.1231
▁повести	-11.1233
▁атомы	-11.1233
масштаб	-11.1238
▁приступил	-11.1238
▁нрав	-11.1243
0,8	-11.1245
▁марг	-11.1246
▁википедии	-11.1247
▁сели	-11.1248
4,4	-11.1249
▁дополнительных	-11.1249
▁сине	-11.1256
ml	-11.1258
▁нравственно	-11.1258
gra	-11.1258
▁определяют	-11.1264
шар	-11.1267
su	-11.1267
▁колебаний	-11.1267
▁понимании	-11.1267
▁предусмотрен	-11.1267
▁зависят	-11.1267
▁известняк	-11.1268
▁анатоли	-11.1268
▁эйлер	-11.1268
▁таможенн	-11.1268
▁расстрел	-11.1268
▁утверждают	-11.1268
▁максимальная	-11.1268
▁здоровье	-11.1269
▁чудес	-11.1269
▁пользователь	-11.1269
▁внедрен	-11.1269
▁связывал	-11.1269
▁европейским	-11.127
▁модуля	-11.127
▁рейсы	-11.1272
▁васильевич	-11.1272
▁трон	-11.1277
▁захватили	-11.1278
▁закончен	-11.1285
▁футбольн	-11.1285
▁лёгких	-11.1285
▁западную	-11.1286
обычно	-11.1286
▁натуральных	-11.1287
▁одних	-11.1287
рд	-11.1287
▁описывал	-11.1289
▁популярных	-11.1291
▁погибли	-11.1291
▁эффективны	-11.1294
▁росс	-11.1298
▁содержал	-11.13
▁папа	-11.13
▁святых	-11.1305
2,6	-11.1306
▁серий	-11.1307
▁гот	-11.1308
▁mc	-11.1314
—13	-11.1316
▁продолжен	-11.1319
▁нарушен	-11.1321
прежде	-11.1323
исторически	-11.1324
▁аммиак	-11.1326
▁пилотируем	-11.1327
горьк	-11.1327
▁единое	-11.133
▁публичны	-11.1337
▁крещен	-11.1338
▁письменность	-11.134
▁электронной	-11.1342
▁минске	-11.1342
▁бангладеш	-11.1345
▁тенденция	-11.1345
▁разновидность	-11.1345
▁действовать	-11.1345
▁литературный	-11.1345
▁нижний	-11.1345
▁климент	-11.1345
▁демонстриру	-11.1345
▁отдельный	-11.1345
▁представлено	-11.1345
▁семинар	-11.1346
▁политическую	-11.1346
▁химическая	-11.1346
▁низкая	-11.1346
▁деревне	-11.1346
▁пришла	-11.1346
▁государственную	-11.1347
▁звания	-11.1349
▁специальный	-11.1349
▁лежат	-11.1351
дё	-11.1351
▁сотен	-11.1352
▁местами	-11.136
лиц	-11.1364
▁бизнеса	-11.1367
▁качеств	-11.1367
▁линз	-11.1369
▁типу	-11.1372
жел	-11.1379
▁проверк	-11.138
▁распространённо	-11.1382
▁варианта	-11.1382
all	-11.1388
▁усилива	-11.139
▁министерств	-11.1391
▁французским	-11.1395
2,7	-11.1397
▁восточную	-11.1398
▁поручен	-11.1398
▁достижение	-11.1399
пятидесят	-11.1399
▁красная	-11.1399
правда	-11.1401
▁востоку	-11.1403
водит	-11.1404
▁скоб	-11.1405
▁британских	-11.1405
▁локальны	-11.1406
▁оказывает	-11.1407
8,5	-11.1412
▁длину	-11.1413
▁личной	-11.1418
▁тщательно	-11.1418
▁граб	-11.1419
▁филон	-11.1419
▁применяют	-11.1422
▁копенгаген	-11.1423
▁происхождении	-11.1423
▁соответствовал	-11.1423
▁сотрудничество	-11.1423
▁организатор	-11.1423
▁медицине	-11.1423
▁характеризуют	-11.1423
▁башня	-11.1423
▁вызывал	-11.1423
▁женился	-11.1423
▁муниципальных	-11.1424
азиатско	-11.1424
▁сюда	-11.1426
▁трибун	-11.1427
▁тара	-11.1428
▁переведён	-11.1428
▁лига	-11.143
▁желание	-11.143
англ	-11.1431
▁националист	-11.1431
▁бедности	-11.1436
▁сейм	-11.1436
▁почты	-11.144
▁провал	-11.1441
_12	-11.1441
▁самар	-11.1442
▁дифференци	-11.1443
ls	-11.1443
▁лишен	-11.1444
▁румынии	-11.1445
▁строить	-11.1447
▁усовершенствова	-11.1452
▁солей	-11.1454
▁бруно	-11.1454
▁германской	-11.1457
▁карты	-11.1459
▁образованию	-11.1463
xi	-11.1467
▁объектами	-11.1467
австрийск	-11.1469
▁белков	-11.1469
▁чемпионата	-11.1471
▁приводил	-11.1472
управлен	-11.1473
▁мотор	-11.1474
звол	-11.1474
▁подписали	-11.1481
▁томас	-11.1484
▁согласны	-11.149
▁расчёта	-11.1493
правд	-11.1493
▁координаты	-11.1493
термин	-11.1499
▁религиозным	-11.1502
▁удостоен	-11.1502
▁финляндия	-11.1502
▁фосфор	-11.1502
▁треугольник	-11.1502
▁геральд	-11.1502
▁евреи	-11.1502
▁чарльз	-11.1502
▁собственный	-11.1502
▁синоним	-11.1502
▁категорий	-11.1502
▁населению	-11.1502
▁автобусы	-11.1503
▁среду	-11.1505
▁федеральным	-11.1505
▁устье	-11.1505
▁упоминания	-11.1506
свято	-11.1509
▁диалектов	-11.151
▁подобное	-11.1519
▁правда	-11.1519
▁мировая	-11.152
▁мезо	-11.1522
▁казахстане	-11.1524
▁складыва	-11.1526
▁твёрд	-11.1527
▁исполнительной	-11.1529
чал	-11.153
▁сохраняется	-11.1532
▁ставил	-11.1532
▁программист	-11.1535
▁регионы	-11.1537
дзи	-11.154
▁старшего	-11.1544
▁альтернативны	-11.1544
правил	-11.1547
▁рубежом	-11.1548
-2»	-11.1548
▁языками	-11.1552
▁cd	-11.1554
▁горные	-11.1558
1,5	-11.156
▁духовной	-11.1571
рап	-11.1573
▁фотон	-11.1573
▁измени	-11.1574
▁возвращения	-11.1581
▁зеландия	-11.1581
▁императрицы	-11.1581
▁поздних	-11.1581
▁византийско	-11.1581
▁отличия	-11.1581
▁путешественник	-11.1581
▁аполлон	-11.1581
▁принадлежность	-11.1581
▁кемеровск	-11.1581
▁особым	-11.1582
▁неправильн	-11.1582
▁музыкальные	-11.1582
▁сельских	-11.1582
▁учёб	-11.1582
▁отвечает	-11.1583
▁понимать	-11.1583
▁общественные	-11.1584
▁замысл	-11.1584
▁армий	-11.1584
▁смертности	-11.1585
следовательность	-11.1586
▁превышаю	-11.1587
▁широкого	-11.1587
▁употребления	-11.1587
железнодорожного	-11.1588
2,8	-11.159
▁включил	-11.159
nat	-11.1592
▁технологически	-11.1593
▁наличия	-11.1593
▁отклонени	-11.1594
рабоче	-11.1594
▁берёт	-11.1595
▁педагогическ	-11.1595
▁крупнейше	-11.1597
▁раздраж	-11.1598
▁выплат	-11.1598
▁правилам	-11.16
▁атлантического	-11.1601
евская	-11.1606
▁назывался	-11.1609
чук	-11.1611
▁повышения	-11.1613
▁приводят	-11.1613
ставший	-11.1619
▁незначительно	-11.1624
ковым	-11.1628
ечь	-11.1633
od	-11.1633
▁оказывал	-11.1633
▁муниципально	-11.1636
▁банки	-11.1636
▁культурной	-11.1637
str	-11.1638
республика	-11.1638
▁тьюринга	-11.1638
▁последователи	-11.1639
тун	-11.164
▁муницип	-11.1641
проект	-11.1641
▁культурные	-11.1641
▁жителя	-11.1644
▁os	-11.1644
▁насчитывает	-11.1645
▁гражданского	-11.1646
▁оказали	-11.1647
▁люд	-11.165
вшимися	-11.1652
▁представля	-11.1657
▁традиционным	-11.1659
аристотел	-11.166
▁безработицы	-11.1661
▁двенадцат	-11.1661
▁казачьи	-11.1661
▁конференция	-11.1661
▁окончание	-11.1661
▁руководил	-11.1661
▁постоянных	-11.1661
▁престиж	-11.1661
▁мышление	-11.1662
▁расширил	-11.1662
▁лучшим	-11.1662
▁восста	-11.1662
▁надпись	-11.1662
▁специалисты	-11.1663
▁речной	-11.1663
восточные	-11.1663
жизне	-11.1663
▁замуж	-11.1665
точнее	-11.1666
▁кочев	-11.1668
▁погибло	-11.1669
▁перенесен	-11.1671
фир	-11.1671
▁практика	-11.1672
▁группами	-11.1673
▁фильмы	-11.1673
▁160	-11.1673
цензур	-11.1673
▁обозначается	-11.1673
▁do	-11.1676
▁публику	-11.168
mu	-11.168
▁скандинавск	-11.1681
▁крепостно	-11.1684
rs	-11.1685
древ	-11.1685
ya	-11.1685
▁располагал	-11.1687
распростран	-11.1688
▁реальность	-11.1689
▁ветх	-11.1691
▁марок	-11.1691
▁дали	-11.1691
▁псковской	-11.1694
▁преобразование	-11.1696
ional	-11.1696
европейской	-11.1698
▁1895	-11.1699
▁ооо	-11.17
▁передача	-11.1702
▁130	-11.1704
▁отдал	-11.1709
▁согласия	-11.1711
▁3,5	-11.1714
▁осла	-11.1721
▁домашних	-11.1722
tri	-11.1723
▁брод	-11.1725
▁дополнен	-11.1728
▁термитов	-11.173
▁поддерживать	-11.1731
▁казань	-11.1732
▁национальном	-11.1732
▁философской	-11.1733
сервер	-11.1739
революц	-11.1741
путешествие	-11.1742
▁информационно	-11.1742
▁митрополит	-11.1742
▁небольшое	-11.1742
▁постоянная	-11.1742
▁подвержен	-11.1742
▁удобны	-11.1742
▁невысок	-11.1742
▁поселений	-11.1742
▁английской	-11.1743
▁знать	-11.1743
▁офис	-11.1744
▁американским	-11.1746
3,6	-11.1746
▁чекан	-11.1747
▁1909	-11.1747
▁образцов	-11.1748
▁отказались	-11.175
600	-11.1758
▁приведён	-11.1763
боев	-11.1764
▁ворот	-11.1765
▁аристократ	-11.1767
▁оригинально	-11.1768
ладо	-11.1772
="9	-11.1774
▁объявлено	-11.1777
авив	-11.1777
▁грав	-11.1779
▁шут	-11.1784
▁занимаются	-11.1786
юкос	-11.1788
▁эссе	-11.1792
▁снял	-11.1797
▁войной	-11.1803
эффективн	-11.1804
▁лекци	-11.1809
▁окончательн	-11.1811
▁установления	-11.1814
▁единичн	-11.1819
▁доминик	-11.1821
▁служебн	-11.1823
▁алексея	-11.1823
▁архиепископ	-11.1823
▁конструкций	-11.1823
▁присутствие	-11.1823
▁артиллерийск	-11.1823
▁потерпел	-11.1823
▁швеция	-11.1823
▁ресторан	-11.1823
▁new	-11.1823
▁упадок	-11.1823
▁сьерра	-11.1823
▁италию	-11.1824
▁микрорайон	-11.1824
▁многократно	-11.1824
▁исчезновени	-11.1824
▁митинг	-11.1824
▁построенный	-11.1826
▁кадров	-11.1827
катерин	-11.1828
▁варьиру	-11.183
▁являлось	-11.1831
▁полагают	-11.1832
▁заявление	-11.1832
▁каталог	-11.1833
▁смещен	-11.1835
men	-11.1836
▁мороз	-11.184
▁посещения	-11.1841
▁действующих	-11.1842
▁распределен	-11.1848
▁uni	-11.185
▁цепи	-11.1855
▁сочетание	-11.1856
▁смешанн	-11.1865
—14	-11.1869
древнегреческ	-11.187
▁космическом	-11.1872
красный	-11.1873
ешь	-11.1876
▁материальной	-11.1876
моно	-11.1878
▁чар	-11.1878
▁закончил	-11.188
▁заработн	-11.1881
▁законодательной	-11.1885
ведению	-11.1885
▁найдены	-11.1885
▁комет	-11.1887
▁широкий	-11.1887
использова	-11.1887
▁цинк	-11.1891
▁изменить	-11.1896
▁михайлов	-11.1898
▁встречи	-11.1899
nh	-11.1901
0,5	-11.1901
▁анаксагор	-11.1905
▁быстрее	-11.1905
▁выдвинут	-11.1905
▁достичь	-11.1905
▁лозунг	-11.1905
▁сегмент	-11.1905
▁революционер	-11.1905
▁уменьшил	-11.1905
▁котловин	-11.1905
▁сессии	-11.1905
▁версию	-11.1905
▁нехватк	-11.1905
▁фрг	-11.1906
падал	-11.1906
▁организацией	-11.1906
разум	-11.191
▁дворце	-11.1911
▁целиком	-11.1912
самостоятельн	-11.1912
▁практики	-11.1913
топлив	-11.1916
шкин	-11.1917
▁выражается	-11.1919
▁будто	-11.192
▁производить	-11.1924
▁польский	-11.1924
▁укрепления	-11.1925
ступают	-11.1927
крепостн	-11.1927
пользовались	-11.193
▁струн	-11.1941
▁дальнейшего	-11.1943
▁нуля	-11.1951
▁непал	-11.1956
ольд	-11.1958
ступать	-11.1963
▁указания	-11.1964
троицк	-11.1964
▁разделить	-11.1966
▁штаты	-11.1975
▁кандидатур	-11.1977
▁передать	-11.1977
▁девять	-11.1978
декабрь	-11.1984
схоластик	-11.1988
▁администрация	-11.1988
▁конституцией	-11.1988
▁кувейт	-11.1988
▁прямых	-11.1988
счастлив	-11.1988
▁станислав	-11.1988
▁ульянов	-11.1988
▁ткани	-11.1988
▁насыщен	-11.1989
▁торговый	-11.1989
▁художественных	-11.1989
▁постулат	-11.199
▁порядков	-11.199
▁мелкие	-11.199
▁снабжен	-11.199
▁европейские	-11.199
▁диапазоне	-11.1991
▁осуществлять	-11.1992
▁созвезди	-11.1993
▁низким	-11.1993
▁трен	-11.1993
▁встрече	-11.1995
▁использовалось	-11.1996
▁письменно	-11.1997
бок	-11.1997
▁сцена	-11.1998
▁герц	-11.1998
▁андреев	-11.1999
▁компьютеры	-11.1999
▁архитектуре	-11.2003
▁камня	-11.2003
▁растворим	-11.2004
▁125	-11.2005
▁светил	-11.2006
▁возникающ	-11.2006
▁знаю	-11.2006
▁определённый	-11.2008
▁особенность	-11.2011
местное	-11.2011
▁пруд	-11.2013
▁налич	-11.2015
▁экономически	-11.2017
▁параметры	-11.2018
▁рекомендации	-11.2022
▁поездки	-11.2022
▁боб	-11.2023
▁установление	-11.2023
▁судей	-11.2024
▁почётно	-11.2029
▁еврейской	-11.2034
▁церковнославян	-11.2036
▁пропорционально	-11.2039
▁старый	-11.2041
lin	-11.2045
▁утратил	-11.2047
▁каналов	-11.2048
губ	-11.2055
▁выделение	-11.2058
av	-11.2059
▁воздействием	-11.206
ленин	-11.2069
▁амплитуд	-11.2071
▁впечатление	-11.2071
▁гравитации	-11.2071
▁присутствовал	-11.2071
▁соотношения	-11.2071
▁основоположник	-11.2071
▁рабочим	-11.2071
▁болезнь	-11.2071
▁паскаль	-11.2071
▁отраслей	-11.2071
эмигрант	-11.2071
▁обычным	-11.2071
▁посещал	-11.2071
▁брюс	-11.2071
▁федеральных	-11.2071
▁приехал	-11.2072
▁вторжение	-11.2072
▁глюон	-11.2072
▁оставались	-11.2073
▁латыш	-11.2073
▁условие	-11.2074
▁саратов	-11.2074
▁июнь	-11.2074
▁внутренний	-11.2075
▁многочисленными	-11.2075
▁карта	-11.2076
▁практику	-11.2076
▁предполагалось	-11.2076
▁3000	-11.2077
▁кэш	-11.2078
▁центральным	-11.208
▁снежн	-11.2082
▁километр	-11.2082
▁международное	-11.2082
▁объединены	-11.2083
родилась	-11.2084
▁преобладает	-11.2088
▁проведени	-11.2089
▁первоначальны	-11.2092
▁рассужд	-11.2092
▁физиологическ	-11.2095
▁переведен	-11.2096
▁называться	-11.21
▁германию	-11.2103
▁необычн	-11.2104
▁палео	-11.2109
▁видеть	-11.2115
▁арабского	-11.2115
▁специальным	-11.2119
▁электрическо	-11.2125
магнитного	-11.2132
▁представителя	-11.2133
▁возникновени	-11.2135
▁мкс	-11.2136
▁карел	-11.2137
структур	-11.214
▁базовы	-11.214
▁представляли	-11.2142
▁900	-11.2143
▁рассматривают	-11.2149
▁лёгкой	-11.2155
▁smtp	-11.2155
▁дмитрия	-11.2155
▁прозрачн	-11.2155
▁секретарём	-11.2155
▁бульвар	-11.2155
▁гегеля	-11.2155
▁дмитриев	-11.2155
▁гибрид	-11.2155
▁особые	-11.2155
▁кальция	-11.2155
▁рамбам	-11.2155
▁монголии	-11.2155
▁буддист	-11.2156
▁человеческих	-11.2156
▁экономическое	-11.2156
▁избирателей	-11.2157
▁чьи	-11.2157
▁аромат	-11.2158
▁древним	-11.2159
▁личных	-11.216
▁изучает	-11.216
0,9	-11.216
ate	-11.2161
▁ветви	-11.2161
метеор	-11.2161
▁ранней	-11.2163
▁макс	-11.2164
▁состоялись	-11.2165
hu	-11.2165
писывал	-11.2166
▁1903	-11.2166
▁правителя	-11.2167
▁ярославль	-11.2169
▁разнообразных	-11.2171
▁персонажей	-11.2175
5,6	-11.2177
▁хозяйственно	-11.2178
▁устранен	-11.2178
▁прошлого	-11.218
писывается	-11.2182
очник	-11.2189
▁артист	-11.219
▁получается	-11.2191
▁снизил	-11.2191
▁владимирович	-11.2191
сексуальн	-11.2199
шек	-11.2202
▁дополнение	-11.2213
▁уменьшение	-11.2216
▁представляется	-11.2219
▁шв	-11.2224
▁колониально	-11.2226
время	-11.2228
избран	-11.2231
▁замене	-11.2234
▁уклон	-11.2235
сентябрь	-11.224
▁денежная	-11.224
▁иммигрантов	-11.224
▁неоплатонизм	-11.224
▁продовольственн	-11.224
▁просьбой	-11.224
▁равновесия	-11.224
▁ценностей	-11.224
▁последнем	-11.224
▁князем	-11.224
▁аграрно	-11.224
▁судоходн	-11.224
▁позиций	-11.224
▁синтетическ	-11.224
▁допущен	-11.224
▁совместны	-11.2241
▁экспедиция	-11.2241
_15	-11.2242
▁иностранным	-11.2242
▁валюты	-11.2244
▁двое	-11.2245
▁облака	-11.2246
́з	-11.2246
нижения	-11.2247
литературн	-11.2247
▁смену	-11.2249
шве	-11.2249
сущего	-11.2249
▁инструменты	-11.2251
▁действительны	-11.2251
▁источниками	-11.2252
▁трасс	-11.2253
▁покрыты	-11.2254
село	-11.2254
▁осталась	-11.2257
▁подразумевает	-11.2257
▁незначительны	-11.2257
▁понижен	-11.2258
▁ликвидирован	-11.2259
▁шап	-11.2259
▁колониальны	-11.2261
▁кай	-11.2262
▁ночью	-11.2263
▁командование	-11.2264
▁встроен	-11.2267
ice	-11.2267
▁популярностью	-11.2268
▁драматическ	-11.2269
▁характерна	-11.2278
▁водами	-11.2279
▁грунт	-11.2285
▁выполнение	-11.2289
▁феодал	-11.229
▁успехом	-11.2294
xvii	-11.2295
▁античной	-11.2295
▁называ	-11.2299
▁статистическо	-11.2302
▁третьем	-11.2304
▁отнести	-11.2306
ive	-11.231
▁квантовы	-11.2314
▁семен	-11.2315
▁страш	-11.2315
▁продав	-11.2316
курс	-11.2317
▁военном	-11.2322
▁pascal	-11.2325
▁аристипп	-11.2325
▁бортинженера	-11.2325
▁возобновил	-11.2325
▁дивизии	-11.2325
▁инфраструктура	-11.2325
▁произведён	-11.2325
▁религию	-11.2325
▁гамильтон	-11.2325
▁клавиш	-11.2325
▁концепцию	-11.2325
▁гектар	-11.2325
▁сергея	-11.2325
▁областной	-11.2325
▁вермахт	-11.2326
▁медицинских	-11.2326
▁лаборатории	-11.2326
▁змей	-11.2326
▁оппозиционн	-11.2326
▁дюйм	-11.2327
работал	-11.2327
▁канадско	-11.2328
▁гомо	-11.2328
▁миллиарда	-11.2328
▁станцию	-11.2328
▁движущ	-11.233
▁словацкого	-11.2331
▁доказыва	-11.2331
▁корее	-11.2332
▁понимают	-11.2332
▁140	-11.2335
▁французских	-11.234
▁запуска	-11.2341
▁неопределённо	-11.2343
строении	-11.2351
▁учреди	-11.2354
▁определении	-11.2354
большой	-11.2355
▁кратер	-11.2357
▁сокращения	-11.2365
вторых	-11.2365
▁убиты	-11.2365
▁утверждается	-11.2366
▁безопасность	-11.2367
▁петро	-11.2368
ran	-11.2369
органическ	-11.2374
ывание	-11.2375
ауэр	-11.2376
by	-11.2377
▁атмосферу	-11.2387
▁подряд	-11.2389
▁петром	-11.2391
▁церковью	-11.2393
▁авиационны	-11.2395
▁производств	-11.2396
▁пересмотр	-11.24
менены	-11.24
▁проверки	-11.2401
первых	-11.2401
продуктивн	-11.2402
▁въезд	-11.2412
▁гильгамеш	-11.2412
▁друзей	-11.2412
▁интерпретатор	-11.2412
▁реакцию	-11.2412
▁транзит	-11.2412
▁небольшая	-11.2412
▁сердца	-11.2412
▁скептик	-11.2412
▁функционирует	-11.2412
▁особую	-11.2412
▁предварительно	-11.2412
▁голосованием	-11.2412
▁застройки	-11.2412
▁железнодорожная	-11.2412
▁запланирован	-11.2412
▁внутреннее	-11.2412
▁серебро	-11.2412
▁экономическом	-11.2412
▁простейши	-11.2412
▁калужско	-11.2412
▁катар	-11.2412
▁музыкантов	-11.2413
▁логики	-11.2413
▁животны	-11.2414
▁обозначают	-11.2414
▁средневековья	-11.2416
▁очаг	-11.2416
▁писания	-11.2418
▁номинальн	-11.2419
открыт	-11.242
хищн	-11.2423
эфиоп	-11.2423
▁развивалась	-11.2429
▁философией	-11.2431
▁союзников	-11.2431
▁германских	-11.2433
рюрик	-11.2437
▁указание	-11.2439
▁убийств	-11.244
▁фирмы	-11.2443
▁верхнего	-11.2444
▁идеально	-11.2448
балт	-11.2449
▁тюрк	-11.2453
▁эксперименты	-11.2462
камер	-11.2464
▁единицей	-11.2464
▁отправля	-11.2465
▁заключение	-11.2465
▁традиционн	-11.2467
▁учёными	-11.2468
▁оставлен	-11.2469
▁разделяют	-11.247
▁крон	-11.2472
up	-11.2478
▁опасность	-11.2481
несения	-11.2484
исследовательски	-11.2485
магнит	-11.2486
▁процентов	-11.2487
элемент	-11.2489
летию	-11.2489
исполнен	-11.2494
▁лицом	-11.2496
упанишад	-11.2499
▁переговоров	-11.2499
▁руководителей	-11.2499
▁миссии	-11.2499
▁находясь	-11.2499
▁барабан	-11.2499
исполком	-11.2499
▁хроник	-11.2499
▁бастион	-11.2499
▁топологическ	-11.2499
▁нефтепродукты	-11.2499
▁тибет	-11.25
▁английским	-11.25
▁ликвидации	-11.2501
▁верующих	-11.2501
▁прочего	-11.2505
▁вагонов	-11.2505
▁некое	-11.2506
ицей	-11.2507
▁применим	-11.2512
▁прибрежных	-11.2513
▁применять	-11.2513
природный	-11.2515
▁убийство	-11.2524
▁целое	-11.2527
ang	-11.2529
▁целые	-11.2534
▁гаван	-11.2535
▁таблицы	-11.2536
▁торговым	-11.2537
▁западный	-11.2544
▁делон	-11.2547
int	-11.255
▁необходимым	-11.2552
собственн	-11.2554
nc	-11.2555
▁написание	-11.2559
▁согласных	-11.256
▁двум	-11.2561
▁приходит	-11.2562
▁завершени	-11.2565
▁показать	-11.257
▁родным	-11.257
▁седьм	-11.2571
▁потребность	-11.2575
авиационн	-11.2575
куб	-11.2578
▁кабин	-11.258
▁показыва	-11.2582
▁поздне	-11.2583
▁полным	-11.2585
▁чехословак	-11.2586
world	-11.2586
▁гвинея	-11.2586
▁елизавета	-11.2586
▁недостатки	-11.2586
▁сотрудничестве	-11.2586
▁участвовать	-11.2586
▁ведущим	-11.2586
▁возвращение	-11.2586
▁преступления	-11.2586
▁большевистск	-11.2586
▁белорусского	-11.2587
▁греческий	-11.2587
▁перемеща	-11.2587
▁клетки	-11.2587
▁труп	-11.2589
▁процвета	-11.2589
▁восстановить	-11.2589
▁уменьшается	-11.259
ющуюся	-11.259
▁опасности	-11.259
▁повышает	-11.259
▁луга	-11.2591
круг	-11.2591
▁камень	-11.2594
▁исследован	-11.2594
ящем	-11.2596
▁пассажирские	-11.2596
▁орех	-11.2596
▁поддержива	-11.2598
▁читать	-11.2599
▁учебные	-11.26
▁оратор	-11.2601
▁оборудован	-11.2604
▁реал	-11.2604
▁биографии	-11.2608
▁точности	-11.2609
▁нашли	-11.2612
▁изготовления	-11.2613
эллин	-11.2614
▁грозного	-11.2614
▁жалова	-11.2615
▁агентство	-11.2616
▁обеспечивают	-11.2619
▁сооружение	-11.2627
▁днестр	-11.2631
▁российском	-11.2632
▁достигли	-11.2634
▁чиновник	-11.2636
▁закончи	-11.264
морской	-11.2644
испытатель	-11.2644
▁базов	-11.2653
▁образовал	-11.2654
▁персонал	-11.2662
▁уравн	-11.2665
1,9	-11.2666
улучшен	-11.2675
▁провинциальн	-11.2675
▁рождаемость	-11.2675
▁четвёртый	-11.2675
▁чёрный	-11.2675
▁святилищ	-11.2675
авангард	-11.2675
▁абдул	-11.2675
▁внешним	-11.2675
▁дискретн	-11.2677
▁знает	-11.2677
▁отцом	-11.2678
▁ощущения	-11.2678
▁маршал	-11.2679
▁отстаива	-11.2681
▁строится	-11.2681
▁животным	-11.2683
▁стремлени	-11.2683
0,0	-11.2683
▁родителей	-11.2684
▁заложил	-11.2684
▁разделены	-11.2686
▁раскрыт	-11.2687
▁фиксированн	-11.2688
▁танцев	-11.2688
4,7	-11.269
▁рубля	-11.2691
▁задне	-11.2693
lis	-11.2695
▁сферах	-11.2695
▁внутренним	-11.2699
▁создаётся	-11.2699
команд	-11.27
▁афинах	-11.2702
▁автомобили	-11.2703
▁врачей	-11.2704
▁психология	-11.2706
▁широким	-11.2708
▁религиозного	-11.2709
▁пуш	-11.2712
▁1878	-11.2713
▁заметил	-11.2714
▁направлению	-11.2721
▁третьим	-11.2722
▁гласных	-11.2726
▁полную	-11.2734
телеком	-11.2734
gh	-11.2735
цизм	-11.2738
▁папы	-11.274
▁0,2	-11.2741
▁привлечен	-11.2741
распространяется	-11.2748
▁трансляци	-11.275
▁имеющим	-11.2751
3,2	-11.2752
▁возглавляем	-11.2753
▁социо	-11.2754
▁формальны	-11.2754
▁прямого	-11.2757
▁управляем	-11.276
энциклопеди	-11.2761
социалистической	-11.2761
▁демократической	-11.2762
▁350	-11.2764
▁недавно	-11.2764
▁проявление	-11.2764
▁респу́блика	-11.2764
▁рсдрп	-11.2764
▁солнечных	-11.2764
▁сформулировал	-11.2764
ноябрь	-11.2764
▁изображён	-11.2764
▁юрисдикци	-11.2764
▁проголосовал	-11.2764
▁галактик	-11.2764
▁гимназии	-11.2764
▁обитают	-11.2764
сульфат	-11.2764
▁удобно	-11.2764
инерциальн	-11.2764
▁католики	-11.2765
▁частями	-11.2765
▁калинин	-11.2765
▁оценивается	-11.2766
mer	-11.2767
300	-11.2768
▁ископаемые	-11.2769
▁вспомогательны	-11.277
▁фокус	-11.277
большевик	-11.2774
тысячн	-11.2774
▁электронных	-11.2775
▁медали	-11.2777
▁никит	-11.278
▁лесной	-11.2781
▁аналогии	-11.2783
▁пережил	-11.2786
▁1830	-11.2786
▁устанавливается	-11.2786
▁слыш	-11.2787
▁разделяет	-11.2788
▁развитой	-11.2792
▁кровь	-11.2795
▁определяются	-11.2797
▁экземпляров	-11.2797
▁угла	-11.28
▁«...	-11.2801
▁юрия	-11.2802
▁острог	-11.2806
▁фрагменты	-11.2807
▁шведской	-11.2811
ведя	-11.2811
углерод	-11.2812
▁растительны	-11.282
▁прусско	-11.2821
▁окружён	-11.2823
▁целого	-11.2824
▁скач	-11.2825
▁приступ	-11.2828
▁угрозой	-11.283
▁крупнейшей	-11.2831
▁решить	-11.2833
равне	-11.2838
педагог	-11.2838
▁вычисли	-11.2839
▁достоп	-11.284
ющему	-11.2843
равновесн	-11.2847
чести	-11.2847
▁васильев	-11.2848
ium	-11.2851
▁схож	-11.2851
▁описывающ	-11.2854
▁нидерландски	-11.2854
▁посполитой	-11.2854
▁радиостанции	-11.2854
▁хоккей	-11.2854
▁широкую	-11.2854
▁гвинеи	-11.2854
▁несомненн	-11.2854
▁разработку	-11.2854
▁распространено	-11.2854
▁тайвань	-11.2854
▁животного	-11.2854
▁южную	-11.2854
▁течений	-11.2854
▁гидроксид	-11.2854
▁прокурор	-11.2854
▁руководителем	-11.2854
▁орудия	-11.2854
▁тягов	-11.2854
▁расстройств	-11.2854
▁выполнил	-11.2854
▁углич	-11.2855
▁midi	-11.2855
▁парапсихолог	-11.2855
▁intel	-11.2855
▁американские	-11.2855
▁заверша	-11.2855
влечь	-11.2855
ui	-11.2856
▁планировалось	-11.2857
фло	-11.2858
▁древний	-11.2858
▁тэц	-11.2859
смотреть	-11.2863
муниципального	-11.2863
▁любил	-11.2864
венгерско	-11.2864
▁словарь	-11.2865
▁заменил	-11.2868
▁средиземноморск	-11.2869
▁сложным	-11.287
▁полная	-11.287
▁захватил	-11.2872
5,2	-11.2873
▁нижнего	-11.2873
▁великая	-11.2873
▁важный	-11.2874
▁электрического	-11.2876
▁обязательным	-11.2876
▁завершения	-11.2876
▁клод	-11.2878
▁латинский	-11.2881
форд	-11.2882
механик	-11.2892
джан	-11.2892
▁проника	-11.2895
▁культурным	-11.2896
▁расти	-11.2898
▁армянски	-11.29
▁банд	-11.2901
▁переменной	-11.2901
▁полков	-11.2901
▁1812	-11.2903
ua	-11.2906
▁усиление	-11.2907
фельд	-11.2908
cor	-11.2913
▁сборной	-11.292
▁электр	-11.2925
▁зачислен	-11.2926
▁хун	-11.2926
▁систематически	-11.2927
▁рассмотрение	-11.2934
промысл	-11.294
значительный	-11.2942
▁запасов	-11.2943
объект	-11.2944
энергия	-11.2944
▁упорядочен	-11.2945
корреспондент	-11.2945
▁беженцев	-11.2945
▁нейтралитет	-11.2945
▁поддержкой	-11.2945
▁константинополь	-11.2945
▁японской	-11.2945
▁империей	-11.2945
▁шенгенск	-11.2945
▁добавил	-11.2945
▁сражения	-11.2945
▁варяг	-11.2946
▁меир	-11.2946
▁берёз	-11.2947
▁операцию	-11.2949
▁спортивно	-11.295
▁центральном	-11.295
▁динамически	-11.295
▁умерших	-11.295
▁официальная	-11.2951
▁вторую	-11.2951
▁планировал	-11.2952
▁находиться	-11.2954
▁квт	-11.2954
▁литве	-11.2956
▁каш	-11.2956
▁допускается	-11.2959
▁четы	-11.296
▁впадин	-11.2962
▁кореи	-11.2965
▁подчёркива	-11.2968
▁армянской	-11.2968
▁выходил	-11.2971
▁пищевая	-11.2971
▁радикально	-11.2972
▁преимущества	-11.2974
▁внук	-11.2979
▁обеспечив	-11.2979
стаёт	-11.2979
ийцев	-11.2982
оксид	-11.2987
ist	-11.299
▁кафедральн	-11.2995
▁минеральных	-11.2996
русская	-11.2998
mit	-11.2999
▁предлог	-11.3
провер	-11.3002
▁ледник	-11.3005
▁сухой	-11.3006
▁случаю	-11.3007
▁жилых	-11.3013
▁частной	-11.3031
3,4	-11.3033
операционной	-11.3037
▁гондурас	-11.3037
▁заболеваний	-11.3037
▁окрестностях	-11.3037
▁отсутствии	-11.3037
▁принудительн	-11.3037
▁чёрная	-11.3037
▁свергнут	-11.3037
лейтенант	-11.3037
▁постоянные	-11.3037
▁сравнении	-11.3037
▁консерватор	-11.3037
▁екатерина	-11.3037
▁плодородн	-11.3037
▁обитания	-11.3037
побратим	-11.3037
▁змея	-11.3037
▁деревня	-11.3037
▁сохранении	-11.3037
▁угрожа	-11.3037
▁управлении	-11.3037
▁димитр	-11.3037
▁лечения	-11.3037
▁отложения	-11.3037
▁анархизм	-11.3038
который	-11.3038
▁писем	-11.3038
поезд	-11.3038
▁ответственности	-11.3039
▁следуют	-11.3039
▁низкий	-11.3039
▁нижегородск	-11.304
▁признать	-11.304
▁растущ	-11.304
▁спиртов	-11.3042
3,7	-11.3042
▁кожи	-11.3043
▁кипения	-11.3043
спутник	-11.3044
▁житель	-11.3044
часть	-11.3045
▁бродский	-11.3046
▁сестра	-11.3047
целостн	-11.3048
▁уделял	-11.3048
▁вкп	-11.3048
▁волк	-11.3049
▁густав	-11.3049
▁мировом	-11.305
▁пригодн	-11.305
▁вернуться	-11.305
▁утверждению	-11.3052
▁пленум	-11.3054
индустриальн	-11.3054
▁узнав	-11.3055
▁сериал	-11.3055
bli	-11.3056
▁означало	-11.3057
▁уступил	-11.3058
▁закуп	-11.306
нейтральн	-11.306
▁указал	-11.3062
▁поклонени	-11.3064
российский	-11.3066
▁малые	-11.3069
▁1889	-11.3069
полицейск	-11.3072
▁морским	-11.3076
▁1885	-11.3076
▁вещественн	-11.3081
_9	-11.3085
▁радикал	-11.3088
_10	-11.3089
безопасн	-11.31
▁пограничн	-11.3103
▁высоту	-11.3103
▁получивший	-11.3105
▁императорской	-11.3107
спользуем	-11.3111
▁картограф	-11.3115
▁нижне	-11.3115
гава	-11.3118
▁предполагаем	-11.312
▁занять	-11.3125
развлекательн	-11.3129
▁автодорог	-11.3129
▁изображений	-11.3129
▁кукуруз	-11.3129
▁недовольство	-11.3129
▁нквд	-11.3129
▁петропавловск	-11.3129
▁предположил	-11.3129
▁публикация	-11.3129
▁давлении	-11.3129
▁мягко	-11.3129
▁просвещения	-11.3129
▁длится	-11.313
зелёный	-11.313
▁апрель	-11.313
▁просил	-11.313
▁проявил	-11.313
▁посетител	-11.313
▁изучать	-11.313
▁прототип	-11.313
▁сибирского	-11.3131
▁осуществил	-11.3131
▁европейцев	-11.3132
▁уникально	-11.3132
▁молока	-11.3133
▁живопись	-11.3133
▁специального	-11.3133
▁каспий	-11.3134
▁схожи	-11.3136
▁сцене	-11.3139
log	-11.314
▁завоевания	-11.3141
▁марксистск	-11.3151
▁упал	-11.3153
▁выкуп	-11.3153
▁орла	-11.3154
▁википеди	-11.3155
ящего	-11.3158
▁георгий	-11.3161
▁строги	-11.3162
▁президиум	-11.3165
▁мировым	-11.3165
her	-11.3166
▁конкретного	-11.3167
▁вроде	-11.3168
признанн	-11.317
анархо	-11.3172
планет	-11.3175
▁конкретной	-11.3177
▁твёрдого	-11.3178
▁валентин	-11.3178
▁последовател	-11.318
▁деталь	-11.3183
rat	-11.3192
▁способами	-11.3196
▁содержать	-11.3207
франс	-11.3214
▁греко	-11.3215
▁обусловлено	-11.3222
▁ассамблеи	-11.3223
▁ассемблер	-11.3223
▁выглядит	-11.3223
▁законодательная	-11.3223
▁перемещения	-11.3223
▁привязан	-11.3223
▁сотруднича	-11.3223
▁запрещён	-11.3223
▁миграции	-11.3223
▁первобытн	-11.3223
▁протекторат	-11.3223
▁путешествия	-11.3223
▁неизбежно	-11.3223
▁православные	-11.3223
▁произошедш	-11.3223
▁спортивные	-11.3223
▁распространена	-11.3223
▁кухня	-11.3223
▁сыновей	-11.3223
▁используемых	-11.3223
▁учению	-11.3223
▁охватывает	-11.3224
▁добыче	-11.3224
▁социальным	-11.3225
▁гулаг	-11.3225
ролл	-11.3226
4,6	-11.3227
гир	-11.3227
▁пользовался	-11.3227
▁ветров	-11.3229
▁сферу	-11.3231
андер	-11.3233
▁эталон	-11.3236
▁объяснял	-11.3238
▁существующих	-11.3239
▁бунт	-11.3245
▁проживающи	-11.3248
0,6	-11.3249
ходящего	-11.3249
▁применяться	-11.3253
▁избрал	-11.3256
ou	-11.3258
▁1200	-11.326
рыболов	-11.3265
▁турку	-11.3265
гражданская	-11.3267
цист	-11.3268
▁целых	-11.327
▁дипломат	-11.327
вальд	-11.3271
▁ламп	-11.3272
▁болгария	-11.3272
▁геолог	-11.3273
земля	-11.3274
▁переводчик	-11.3276
▁приняв	-11.3286
▁наивысш	-11.3289
бумажн	-11.329
гидро	-11.3293
▁образований	-11.3312
▁фут	-11.3313
wi	-11.3314
▁воински	-11.3315
▁вступления	-11.3317
▁зороастризм	-11.3317
▁исландии	-11.3317
▁католицизм	-11.3317
▁колеблется	-11.3317
▁постановления	-11.3317
▁распоряжение	-11.3317
▁цезаря	-11.3317
▁перестройки	-11.3317
▁назначил	-11.3317
▁дизель	-11.3317
▁литературных	-11.3317
▁приложений	-11.3317
▁лагранжиан	-11.3318
▁медицинской	-11.3318
▁младше	-11.3318
▁электродинами	-11.3319
▁башни	-11.3319
▁осирис	-11.3319
▁австрал	-11.3321
▁исследовал	-11.3323
▁1901	-11.3325
▁крыла	-11.3325
▁корнилов	-11.333
▁чувственно	-11.333
▁определённое	-11.333
▁атеист	-11.3333
▁нацистской	-11.3335
▁софист	-11.3336
9,5	-11.334
▁почтово	-11.3343
▁павлов	-11.3344
▁сохранился	-11.3347
▁подробн	-11.3347
▁тонко	-11.3352
▁нагрева	-11.3354
олов	-11.3357
▁трудности	-11.3358
экспресс	-11.3359
▁праздничны	-11.336
ff	-11.336
2000	-11.3362
▁шведского	-11.3365
▁опасно	-11.3366
питер	-11.3366
▁поселил	-11.3367
▁данте	-11.3367
▁испанский	-11.3368
▁серия	-11.337
▁предоставил	-11.3373
проводник	-11.3374
лагается	-11.3376
▁волков	-11.3381
▁строят	-11.3382
▁женского	-11.3383
бирает	-11.3383
▁диплом	-11.3384
школ	-11.3385
▁считаться	-11.3389
▁старые	-11.3391
▁промышленной	-11.3392
xix	-11.3393
▁гранит	-11.3401
▁полезно	-11.3402
▁музыкальной	-11.3403
▁личного	-11.3406
▁организмов	-11.3412
▁анекдот	-11.3412
▁возбужден	-11.3412
▁ксенофонт	-11.3412
▁новозеланд	-11.3412
▁участке	-11.3412
▁хребет	-11.3412
▁ведущие	-11.3412
▁галерея	-11.3412
▁внутренняя	-11.3412
▁наименования	-11.3412
▁сплошн	-11.3412
▁академию	-11.3413
▁носителей	-11.3413
▁охраня	-11.3413
▁посыла	-11.3413
▁диаграмм	-11.3413
▁жестоко	-11.3414
▁африканских	-11.3414
▁фараон	-11.3415
▁премия	-11.3416
▁сочетании	-11.3416
доступ	-11.3417
▁осени	-11.3418
▁историографии	-11.3419
▁технике	-11.3421
-7»	-11.3423
▁нужны	-11.3426
▁долине	-11.3428
▁пользуется	-11.3433
pre	-11.3434
5,9	-11.3434
сити	-11.3435
▁специфика	-11.3437
▁сходство	-11.3438
▁выполняется	-11.344
▁пролёт	-11.3441
▁доказать	-11.3441
полнения	-11.3442
фол	-11.3443
киргиз	-11.3443
▁вышло	-11.3447
▁возрастает	-11.3451
▁автомобильный	-11.3451
защитник	-11.3452
правляется	-11.3454
гнал	-11.3454
2,1	-11.3463
сухопутн	-11.3466
▁двадцати	-11.3467
▁опасны	-11.348
ологией	-11.3482
▁начато	-11.3484
корен	-11.3486
▁курд	-11.3486
▁ощущ	-11.3487
▁средневековой	-11.3488
▁ящик	-11.349
изировал	-11.349
▁сложность	-11.3496
▁победител	-11.3505
ei	-11.3506
▁участвуют	-11.3509
▁оппонент	-11.3509
▁самоуправление	-11.3509
▁учитывать	-11.3509
▁судьба	-11.3509
▁боумен	-11.3509
▁покинуть	-11.3509
▁освобождение	-11.351
▁вещание	-11.3511
▁яйца	-11.3511
▁стивен	-11.3512
▁жизнью	-11.3513
канал	-11.3513
▁сильных	-11.3517
▁близости	-11.3518
▁слив	-11.3519
▁тяжело	-11.3523
среди	-11.3523
тично	-11.3524
бад	-11.3526
▁регионального	-11.3528
▁примыка	-11.3533
▁противопоставля	-11.3533
▁базис	-11.3534
▁интернационал	-11.3536
▁ускори	-11.3539
▁прилегающи	-11.3542
tre	-11.3542
падения	-11.3546
▁энергетически	-11.3546
▁кубинск	-11.3548
▁1876	-11.3548
технический	-11.3549
атомных	-11.3551
▁климатическ	-11.3556
▁измене	-11.3558
▁подража	-11.3563
давалось	-11.357
ставку	-11.357
ингтон	-11.3572
▁осужд	-11.3578
▁обладающ	-11.3582
пуг	-11.3584
лежаще	-11.3587
▁потомки	-11.3589
4,3	-11.3589
тическую	-11.3589
▁смотр	-11.3592
▁жанров	-11.3593
▁пришло	-11.3605
примечательности	-11.3606
▁адаптаци	-11.3606
▁вашингтон	-11.3606
▁гиппократ	-11.3606
▁демокрит	-11.3606
▁заместителем	-11.3606
▁кьеркегор	-11.3606
▁москвой	-11.3606
▁мухаммед	-11.3606
▁олимпиад	-11.3606
▁подтверждает	-11.3606
▁низменности	-11.3606
▁среднюю	-11.3606
▁удобств	-11.3606
дальнего	-11.3606
▁представителем	-11.3606
▁орбите	-11.3606
▁альянс	-11.3606
▁схемы	-11.3606
▁прохлад	-11.3606
▁преподавал	-11.3606
▁волге	-11.3607
▁температурой	-11.3607
▁сократилось	-11.3608
▁появляться	-11.3608
▁вольно	-11.361
истической	-11.3611
▁лешего	-11.3611
▁антрополог	-11.3612
▁требующ	-11.3613
▁областью	-11.3614
▁убив	-11.3616
▁объектно	-11.3618
▁присоединения	-11.3618
▁отрицал	-11.3621
▁предоставлени	-11.3623
▁спасения	-11.3624
ствовать	-11.3625
страт	-11.3628
▁размещения	-11.3629
▁геометрически	-11.363
▁ошибочно	-11.3632
▁украинского	-11.3632
▁идеологии	-11.3632
▁спуск	-11.3633
▁считались	-11.3634
▁требованиям	-11.3642
▁1898	-11.3646
▁слонов	-11.3647
российско	-11.3655
▁мусор	-11.3656
▁поддерживают	-11.3658
▁охране	-11.3661
▁цифровы	-11.3664
_13	-11.3666
4,2	-11.367
стыков	-11.3673
▁исходного	-11.3675
цз	-11.3681
работать	-11.3684
▁достигают	-11.3686
▁школьно	-11.3686
5,7	-11.3687
▁атомной	-11.369
▁манер	-11.3691
▁минеральны	-11.3693
менее	-11.3697
▁царской	-11.3703
▁баскетбол	-11.3704
▁драгоценн	-11.3704
▁елизаветы	-11.3704
▁запрещено	-11.3704
▁магистрали	-11.3704
▁неожиданно	-11.3704
▁обезьян	-11.3704
▁энергией	-11.3704
▁дешёв	-11.3704
▁развернул	-11.3704
▁жидки	-11.3704
▁киргизии	-11.3704
▁партией	-11.3704
▁небесной	-11.3704
▁тепла	-11.3704
▁соавтор	-11.3704
▁xml	-11.3705
▁окисления	-11.3706
▁изменении	-11.3706
▁гегель	-11.3707
▁призвал	-11.3708
▁региональные	-11.3708
▁образцу	-11.3709
▁узел	-11.3709
▁родители	-11.3711
▁изучении	-11.3711
гард	-11.3713
▁цифровой	-11.3715
▁хранит	-11.3715
▁владение	-11.3715
▁полиция	-11.3717
▁кремля	-11.3717
▁ничто	-11.3718
▁мышц	-11.3721
конечно	-11.3722
морского	-11.3722
▁обладающи	-11.3728
опрек	-11.3734
_14	-11.3735
▁образуя	-11.3744
▁чиновников	-11.3748
дошли	-11.3753
▁стратегически	-11.3753
▁шахт	-11.3754
степ	-11.3755
▁либерально	-11.3755
▁лишил	-11.3756
▁потенциально	-11.3759
часто	-11.3775
▁колоний	-11.3775
▁реального	-11.3776
▁этилен	-11.378
▁хроматограф	-11.3795
▁ограничений	-11.3798
▁присоединен	-11.3799
▁трудоспособно	-11.3803
▁византии	-11.3803
▁гравитационны	-11.3803
▁дискуссии	-11.3803
▁никарагуа	-11.3803
▁разновидности	-11.3803
▁музыкальный	-11.3803
▁скептическ	-11.3803
▁василия	-11.3803
▁иртыш	-11.3803
▁плутон	-11.3803
▁заранее	-11.3803
▁условии	-11.3803
▁уэллс	-11.3803
▁учитель	-11.3803
▁миллиардов	-11.3803
▁двуглав	-11.3803
▁детских	-11.3803
▁кампания	-11.3803
3,8	-11.3804
▁избыточн	-11.3804
водят	-11.3804
▁низких	-11.3805
▁потребления	-11.3805
▁отметк	-11.3805
▁паспорт	-11.3806
▁королевы	-11.3807
▁зимы	-11.3808
▁бозон	-11.3809
▁называлась	-11.381
▁классическая	-11.381
▁орёл	-11.381
стоял	-11.3811
▁всадник	-11.3811
▁проживания	-11.3812
угл	-11.3813
▁твёрдых	-11.3817
финского	-11.3818
▁важнейшие	-11.3819
▁недостаточн	-11.3819
▁зарубежных	-11.382
▁изобразительно	-11.3822
▁позволит	-11.3823
▁неизменно	-11.3825
▁бывшие	-11.3826
бард	-11.3829
математического	-11.3831
▁ярославской	-11.3835
подобный	-11.3842
▁способен	-11.3847
воспоминания	-11.3852
повести	-11.3852
▁очередной	-11.3853
▁славянской	-11.3855
▁исключение	-11.3857
▁городским	-11.386
▁регламент	-11.3869
▁повторно	-11.3874
ключена	-11.3874
▁1700	-11.3877
▁магистраль	-11.388
▁князья	-11.3885
▁заполнен	-11.3889
карбо	-11.3889
ачёв	-11.3891
библейск	-11.3892
ируемых	-11.3892
▁1820	-11.3894
бун	-11.3901
▁вперёд	-11.3903
▁демонстрации	-11.3903
▁рождества	-11.3903
▁чрезмерн	-11.3903
▁геродот	-11.3903
▁прослежива	-11.3903
▁смягч	-11.3903
▁бахрейн	-11.3903
▁дыхания	-11.3903
▁двигателей	-11.3903
▁выставки	-11.3903
▁подготовка	-11.3903
▁зерна	-11.3903
▁сильнее	-11.3903
▁усложн	-11.3903
▁гнездо	-11.3903
▁смешива	-11.3903
▁насилия	-11.3903
▁доказал	-11.3903
▁учении	-11.3904
▁канадски	-11.3904
▁сохранившихся	-11.3905
комбинаци	-11.3905
баптист	-11.3906
▁модуль	-11.3907
▁tele	-11.3908
▁фонтан	-11.3909
▁скандал	-11.3913
дэ	-11.3914
▁кубка	-11.3914
спор	-11.3916
▁чад	-11.392
▁робот	-11.3923
▁османско	-11.3924
сберг	-11.3929
▁судебной	-11.3936
▁амид	-11.3944
▁sun	-11.3946
▁восьм	-11.3954
▁грузовых	-11.3955
▁автомобильных	-11.3956
▁подобного	-11.3958
▁посвятил	-11.3959
писывать	-11.3964
▁отделен	-11.3969
▁ослаблен	-11.3971
▁успел	-11.3977
▁юноше	-11.3978
браться	-11.3981
▁хэ	-11.3985
▁оптическо	-11.3991
5,8	-11.3993
западного	-11.3994
▁остановил	-11.3995
ung	-11.3995
▁горд	-11.4001
▁крик	-11.4002
▁количественно	-11.4003
хронологическ	-11.4004
▁болезней	-11.4004
▁тенденции	-11.4004
▁функцией	-11.4004
▁хронологии	-11.4004
▁меридиан	-11.4004
▁неоднозначн	-11.4004
▁пейзаж	-11.4004
▁эйзенштейн	-11.4004
▁трамвае	-11.4004
▁классицизм	-11.4004
хирург	-11.4004
▁однажды	-11.4004
▁тростник	-11.4004
▁серьёзные	-11.4004
▁приставки	-11.4004
▁жак	-11.4004
▁жрец	-11.4004
мейстер	-11.4004
▁мяса	-11.4004
▁стремится	-11.4004
▁экономическую	-11.4005
▁пройти	-11.4005
▁ркка	-11.4005
▁средневековье	-11.4007
▁боснии	-11.4008
▁финики	-11.4008
генетик	-11.4011
▁классического	-11.4011
▁обращении	-11.4011
▁определённую	-11.4015
▁коллег	-11.4016
всякого	-11.4023
▁методик	-11.4023
▁используемо	-11.4023
инженер	-11.4024
▁позднего	-11.4026
▁высок	-11.4033
▁многим	-11.4038
▁фёдорович	-11.4038
ушке	-11.4038
▁первично	-11.4044
ner	-11.4045
фото	-11.4046
▁реальн	-11.4046
▁устроен	-11.4047
sy	-11.405
▁никакой	-11.405
акустическ	-11.4066
▁трактор	-11.4067
▁алле	-11.4071
толков	-11.4073
▁финансовых	-11.4074
▁750	-11.4076
▁критиков	-11.4079
▁белые	-11.4079
▁удовлетворен	-11.4084
▁террорист	-11.4091
знак	-11.4092
▁завоеван	-11.4093
4,8	-11.4094
jo	-11.4094
▁сохранял	-11.4095
▁ансамбл	-11.4097
классический	-11.4099
▁увеличить	-11.4103
▁династия	-11.4106
▁накануне	-11.4106
▁пациент	-11.4106
▁реакций	-11.4106
▁трамваи	-11.4106
антибиотик	-11.4106
▁кажется	-11.4106
▁православная	-11.4106
▁зимний	-11.4106
▁дэвид	-11.4106
▁дыхательн	-11.4106
▁лазер	-11.4106
▁рогат	-11.4106
▁положений	-11.4106
▁делегат	-11.4107
▁скелет	-11.4107
▁солёность	-11.4107
▁обещан	-11.4107
▁останки	-11.4107
▁несёт	-11.4108
▁греческие	-11.4108
▁всеобщего	-11.4111
▁относились	-11.4111
▁снижается	-11.4114
▁изучающ	-11.4114
▁пересели	-11.4114
▁обработка	-11.4116
▁засух	-11.4116
район	-11.4118
▁жилья	-11.412
▁битва	-11.4122
▁данилов	-11.4123
▁подсчёт	-11.4123
▁учил	-11.4123
▁колумбии	-11.4124
искусственный	-11.4126
▁стрелков	-11.4128
кевич	-11.4137
▁председательств	-11.4142
временные	-11.4143
▁аналогичн	-11.415
▁ареал	-11.4151
▁количественны	-11.4161
▁радикальны	-11.4161
проб	-11.4164
бха	-11.4168
▁франц	-11.4173
▁наибольше	-11.418
▁программное	-11.418
тройка	-11.4184
кварк	-11.4184
▁умел	-11.4186
ster	-11.4192
роман	-11.4193
▁объясняет	-11.4194
ушек	-11.4194
▁ожидаем	-11.4195
▁морали	-11.4198
▁белых	-11.4201
атором	-11.4205
фельдмаршал	-11.4209
▁взаимоотношения	-11.4209
▁военнослужащих	-11.4209
▁египтян	-11.4209
▁закреплён	-11.4209
▁отсутствовал	-11.4209
▁промежутк	-11.4209
▁хичкок	-11.4209
▁яблочков	-11.4209
▁вызывают	-11.4209
гвардии	-11.4209
▁фурье	-11.4209
▁пассивн	-11.4209
▁становление	-11.4209
▁преображен	-11.4209
▁вертикально	-11.4209
▁диктатор	-11.4209
▁эскадр	-11.4209
▁рыболовство	-11.4209
четвёр	-11.4209
▁экологии	-11.4209
▁рождений	-11.4209
▁возмущ	-11.4209
очную	-11.4209
▁регент	-11.4209
▁смешени	-11.421
▁химического	-11.421
▁доминирующ	-11.4211
▁псевдоним	-11.4212
▁глух	-11.4212
▁папуа	-11.4212
▁привлекательн	-11.4214
▁верования	-11.4216
▁обозначал	-11.4217
▁наместник	-11.4218
▁тихон	-11.4222
▁алексеевич	-11.4222
▁европа	-11.4223
благородны	-11.4225
▁топливо	-11.4228
▁цепь	-11.4231
▁поддержания	-11.4231
▁измерений	-11.4231
правительственн	-11.4233
▁литва	-11.4233
ger	-11.4234
▁правильны	-11.4238
▁предполага	-11.4238
▁малый	-11.4238
модерн	-11.4238
▁огромный	-11.4242
меняется	-11.4242
жима	-11.4243
▁указывается	-11.4259
▁излиш	-11.4262
pr	-11.4264
регулярн	-11.4266
▁450	-11.4268
прогул	-11.4269
▁жилые	-11.427
▁проложен	-11.4273
▁культурный	-11.4276
▁экономист	-11.428
▁шат	-11.4284
▁отдалённы	-11.4287
▁противопоставл	-11.4287
мифолог	-11.4288
▁посещени	-11.4291
▁криво	-11.4295
▁гражданство	-11.4299
модификаци	-11.4303
▁делается	-11.4308
▁суммарны	-11.4311
▁visual	-11.4313
▁интегрирован	-11.4313
▁неотъемлем	-11.4313
▁последствий	-11.4313
▁провозглашён	-11.4313
▁прошедши	-11.4313
▁стругацких	-11.4313
▁эквадор	-11.4313
▁вытеснен	-11.4313
▁машиностроения	-11.4313
▁оруэлл	-11.4313
▁осуществлён	-11.4313
▁англоязычн	-11.4313
▁протестанты	-11.4313
▁фантастики	-11.4313
▁шириной	-11.4313
▁деталей	-11.4313
▁латыни	-11.4313
▁сгорания	-11.4313
мотороллер	-11.4313
техническое	-11.4313
▁слабые	-11.4313
▁родственны	-11.4313
▁справа	-11.4313
▁ирландск	-11.4314
▁ftp	-11.4314
▁физического	-11.4314
▁произвел	-11.4314
▁большевики	-11.4315
▁скотовод	-11.4315
▁кристаллы	-11.4315
▁расстрелян	-11.4317
▁опять	-11.4317
▁социализма	-11.4319
▁ценность	-11.432
▁памятн	-11.4321
0,1	-11.4333
▁прорыв	-11.4333
эколог	-11.4334
▁фотография	-11.4335
процесс	-11.4339
▁разница	-11.4342
use	-11.4342
прикладно	-11.4342
▁пройд	-11.4345
диск	-11.4347
творческ	-11.4347
▁спектральн	-11.4349
▁учёным	-11.435
▁1848	-11.4356
▁описании	-11.4358
конкретных	-11.4362
▁разрушения	-11.4363
▁николае	-11.4365
▁сознательно	-11.4367
енберг	-11.4385
4,1	-11.4393
▁царско	-11.4396
обознач	-11.4398
▁газообразн	-11.4399
▁тяжел	-11.4405
▁удельны	-11.4407
▁стремил	-11.4407
▁интенсивность	-11.441
▁проводят	-11.4416
▁конкурент	-11.4418
▁ближайше	-11.4418
▁великобританией	-11.4418
▁взаимодействий	-11.4418
▁загрязнения	-11.4418
▁засушлив	-11.4418
▁лабиринт	-11.4418
▁недостаток	-11.4418
▁учитывая	-11.4418
▁вступление	-11.4418
▁орудий	-11.4418
▁предпосылк	-11.4418
▁производителей	-11.4418
▁затрудня	-11.4418
▁беркли	-11.4418
▁дождей	-11.4419
▁помочь	-11.4419
▁слоёв	-11.4419
▁промышленный	-11.4419
▁уехал	-11.4419
▁монако	-11.4419
▁перейти	-11.4419
агрегат	-11.442
▁саванн	-11.442
▁следующего	-11.442
▁влияет	-11.4421
▁южные	-11.4421
▁произносит	-11.4421
▁далёк	-11.4421
▁игорь	-11.4422
▁фермент	-11.4422
▁гибель	-11.4422
▁творчески	-11.4423
▁регистрации	-11.4423
▁пользования	-11.4424
▁агентства	-11.4424
▁1902	-11.4424
▁чест	-11.4426
▁алгебраически	-11.4426
кавказск	-11.4427
▁адыг	-11.4428
▁мировую	-11.4428
▁изучают	-11.4429
продукт	-11.4431
▁дальни	-11.4431
▁сексуально	-11.4434
▁статическ	-11.4434
▁вычислительны	-11.4435
▁располагает	-11.4436
▁генетически	-11.4436
бытии	-11.4436
▁провозглашен	-11.4436
хлор	-11.4436
ходящая	-11.4439
гетеро	-11.4439
▁полагает	-11.4441
▁максимальны	-11.4443
▁гераклит	-11.4445
son	-11.4445
▁обслуживание	-11.4446
полковник	-11.4447
▁восстанавлива	-11.4452
▁лаос	-11.4455
▁1879	-11.4459
тихо	-11.4466
ana	-11.4475
6,7	-11.4475
ствовал	-11.4485
▁королевски	-11.4492
▁плотно	-11.4504
▁параллельны	-11.4506
_18	-11.4508
▁обозначает	-11.4509
▁детали	-11.4524
▁иностранцев	-11.4525
▁машиностроение	-11.4525
▁миролюбов	-11.4525
▁освобожда	-11.4525
▁рабочий	-11.4525
▁тяжести	-11.4525
▁динамика	-11.4525
▁просуществовал	-11.4525
▁сомнения	-11.4525
▁двигатели	-11.4525
▁змеи	-11.4525
патриотическ	-11.4525
▁ускорение	-11.4525
штадт	-11.4525
▁английских	-11.4525
▁оттуда	-11.4525
▁судьи	-11.4526
▁энциклопедия	-11.4526
▁оспарива	-11.4526
▁текущи	-11.4526
▁обвинил	-11.4526
▁тверь	-11.4526
▁постсоветско	-11.4527
▁поэмы	-11.4527
восточным	-11.4527
▁пищу	-11.4527
▁искать	-11.4528
▁оценил	-11.4528
положение	-11.4528
▁варвар	-11.4529
▁pop	-11.453
▁содержащие	-11.4532
▁fm	-11.4535
▁обеспечивал	-11.4536
▁квн	-11.4537
▁назывались	-11.4539
▁социологии	-11.4545
▁бесконечны	-11.4547
▁строительно	-11.4548
ведён	-11.455
▁географических	-11.4552
▁смертью	-11.4561
▁крупн	-11.4562
пик	-11.4566
▁1871	-11.4568
байкал	-11.4569
▁объединён	-11.4571
▁мужского	-11.4575
▁переменные	-11.4582
▁предания	-11.4586
▁сатир	-11.459
▁экземпляр	-11.4592
▁выработк	-11.4597
монастыр	-11.4597
age	-11.4617
▁заявлял	-11.4617
пель	-11.4622
▁обозначи	-11.4629
▁западным	-11.463
▁эффективность	-11.4632
3,5	-11.4632
▁агломерации	-11.4632
▁ознаменовал	-11.4632
▁мелекесс	-11.4632
▁немногих	-11.4632
▁тяжёлых	-11.4632
▁шотландии	-11.4632
▁десятилетий	-11.4632
▁заместителя	-11.4632
▁японских	-11.4632
▁инвестор	-11.4632
▁ориентации	-11.4632
▁сомнение	-11.4632
▁капитул	-11.4632
▁киренаик	-11.4632
▁льгот	-11.4632
▁улучшения	-11.4632
▁европой	-11.4632
▁протяну	-11.4633
▁обзор	-11.4633
▁увенча	-11.4634
▁половину	-11.4634
▁словакии	-11.4634
▁утром	-11.4634
▁континентальный	-11.4634
▁стилю	-11.4635
▁кабель	-11.4635
ρι	-11.4635
▁носителя	-11.4636
▁очищен	-11.4636
▁плюс	-11.4637
▁сцены	-11.4638
▁свободным	-11.4638
эпоса	-11.4639
▁муссон	-11.4639
жар	-11.464
▁поглощения	-11.464
личный	-11.4641
να	-11.4641
▁мвт	-11.4642
▁дорожно	-11.4643
▁турция	-11.4645
▁классик	-11.4645
▁выросла	-11.4647
▁эмпирически	-11.4651
▁рубль	-11.4651
▁колец	-11.4653
нравственн	-11.4653
личная	-11.4659
крывается	-11.4659
▁географ	-11.4661
▁вывести	-11.4661
6,4	-11.4662
▁тёмно	-11.4664
▁родине	-11.4664
иногда	-11.4666
400	-11.4669
▁закрыв	-11.467
вавилон	-11.4672
▁лежащ	-11.4672
▁вывоз	-11.4677
7,8	-11.4679
анарх	-11.4679
▁1875	-11.468
▁классическим	-11.4683
▁1899	-11.4683
▁чрезвычайн	-11.4684
▁норвежско	-11.4685
▁ньютон	-11.4686
ich	-11.4691
золотая	-11.4693
хромат	-11.4702
▁коренно	-11.4702
▁отразил	-11.4704
▁семейство	-11.4704
дельную	-11.4705
▁поляков	-11.4706
ern	-11.4724
▁выдач	-11.4726
▁появля	-11.4729
▁вселенск	-11.473
▁вернуть	-11.4731
▁определял	-11.4732
▁белым	-11.4732
▁здоров	-11.4738
▁разделял	-11.4738
▁ассамблея	-11.4741
▁ботсва	-11.4741
▁напоминает	-11.4741
▁норвегия	-11.4741
▁предусматривает	-11.4741
▁солнечный	-11.4741
настоящему	-11.4741
▁tcp	-11.4741
▁двойственн	-11.4741
▁немецкая	-11.4741
фосфат	-11.4741
коричнев	-11.4741
▁улучши	-11.4741
▁гуманизм	-11.4741
▁нептун	-11.4741
[...]
